#version: 0.2
ä ¸
Ġ å
ä º
å ı
ç ½
Ġ æ
å ®
ç½ ĳ
ã Ģ
Ġ ç
æ ľ
å ¤
ï ¼
æ Ĺ
3 6
36 5
ç ī
å ħ
ä ¹
åı ĳ
å® ĺ
ä ½
æ ĸ
å Ī
å Ľ
å ½
äº ļ
æ ¸
æ Ī
è ½
b e
Ġ é
å İ
å į
å®ĺ ç½ĳ
å Ĭ
Ġ 365
be t
æ ī
2 0
ä¸ ĭ
è Ĥ
å ľ
å ¹
æ¸ ¸
Ġå ĩ
æ ³
ï¼ Į
ä »
Ġåĩ ¯
æ Ĭ
ä¸ ĩ
ç Ľ
ä½ ĵ
ç «
ç Ķ
è½ ½
ä¸ĭ è½½
èĤ ²
Ġ è
ä½ĵ èĤ²
ç ļ
æľ º
Ġåĩ¯ åıĳ
å½ ©
å Ĳ
çļ Ħ
ãĢ ĳ
ãĢ Ĳ
æī ĭ
¿ ½
ï ¿½
a g
çī Į
a p
æ³ ¨
æĹ ¶
å °
ap p
æ Ŀ
ãĢĳ ãĢĲ
ç İ
å ·
é Ĺ
å¤ ©
æ £
åİ ¿
æīĭ æľº
å ¸
ä¹ Ĳ
å ¼
å Ŀ
å ¿
åĽ ½
æ ĺ
Ġå ¤
äº º
ĭ çīĮ
å¹ ³
è µ
åı °
é Ļ
æ£ ĭçīĮ
åİ¿ |
ç º
åĬ ł
è ¿
æĬ ķ
è ®
åĪ Ĩ
çĽ Ł
ç Ļ
Ġ |
Ġ äºļ
åĬł çĽŁ
ï¼ ļ
åľ ¨
ç« Ļ
åĿ Ģ
å Ĩ
å¹³ åı°
å º
çī Ī
ç ¥
æĸ ¹
å¤ §
ç »
å¿ «
ä¸ Ń
é Ģ
ç½ĳ ç«Ļ
å ±
Ġå¤ §
20 1
ĭ Ĺ
ä¸ Ģ
Ġ ag
å Į
â Ģ
è ¯
æĪ ı
ç ľ
å¼ Ģ
æ¸¸ æĪı
æĸ °
ç Ĳ
å ¨
ãĢ Ĥ
æĿ ¥
æĬķ æ³¨
¯ äºļ
çº ¿
Ġ -
å¸ Ĥ
ç½ĳ åĿĢ
ä¸ Ĭ
ä ¼
æ °
ĭĹ ä¸ĩ
± ä¹Ĳ
æĪ ·
å Ń
é ĩ
è §
è ´
Ġç ĭĹä¸ĩ
å¨ ±ä¹Ĳ
1 0
å ¥
- 0
æ µ
æĺ ¯
çĻ »
æ Ģ
å®ĺ æĸ¹
Ġæ ĺ
ä¸ ī
æ ¬
æĹ ©
Ġ bet
Ġ365 bet
ç Ĥ
å® ¶
éĻ ħ
Ġå¤§ åıĳ
æ ŀ
ä¹ Ī
Ġç İ
æ ²
¾ Ļ
éĹ ¨
çĤ ¹
é ĺ
ä¸ į
å½ ķ
ï¿½ ï¿½
è ¡
åĽ½ éĻħ
å½© ç¥
æ ±
å Ł
æ ´
åį ļ
Ġå Ī
å ĩ
ä ¿
© æĿ¥
å® ¢
é ¾Ļ
Ġ365 ä½ĵèĤ²
å® ī
é ¤
¨ å¤©
ç ¾
é Ľ
çľ Ł
çĻ» å½ķ
çĲ ĥ
é Ĵ
å ¾
Ġæ Ĺ
é¤ Ĳ
3 5
é ¡
åľ¨ çº¿
æĹ Ĺ
¾ ³
Ġæĺ ¨å¤©
Ġäºļ æ¸¸
çĶ µ
Ġ 1
è Ģ
å· ŀ
æīĭæľº çīĪ
Ġå °
å± ±
åħ ĥ
¾³ éĹ¨
35 6
Ġçİ ¯äºļ
æľ ī
201 9
æ Ń
åĨ Į
Ġå ®
çĶ ¨
å ¯
å¸Ĥ |
æĹ ¥
æ³¨ åĨĮ
å ĵ
ç¾ İ
æ ł
åŁ İ
å½©ç¥ ¨
è Ī
ĠåĪ ©æĿ¥
- 1
çİ °
æ¬ ¾
ä¸ĩ +
é ĥ
æĢ İ
æľ Ģ
é Ŀ
æ º
å¿« ä¸ī
æ İ
Ġbet 365
Ġæ ¾³éĹ¨
ç« ¯
æ ı
Ĭ é¾Ļ
é ¢
åľ °
å¹ ´
æ Ķ
å®¢ æĪ·
ī į
Ġå ¼
Ġ ä¸
Ġ 0
éĴ ±
é ¦
³ |
Ġ365 æ£ĭçīĮ
æĢİ ä¹Ī
å®¢æĪ· ç«¯
åİ ħ
äº Ĩ
Ġ365ä½ĵèĤ² æĬķæ³¨
ãĢ ģ
ç §
8 8
æı Ĳ
¥ ¿
i n
åħĥ æ£ĭçīĮ
è ¾
Ġå į
Ġ365bet å®ĺç½ĳ
Ġ >
æĬ ¥
éĽ Ĩ
20 20
356 bet
æ± Ł
æ ĭ
å° ı
åħ ¬
åį Ĺ
Ġå ħ
åħ ¨
o n
Ĵ Į
Ġå¼ Ģ
å¤ ļ
Ġå° Ĭé¾Ļ
å ĳ
e r
åĲ Ĺ
éĩ ĳ
æĹ¶ å½©
æĹ© é¤Ĳ
è¡ Į
æ ķ
çľŁ äºº
a n
ä¼ ļ
è ¶
å Ģ
ĠæĹ ©
çİ ¯äºļ
6 6
æĹ¶ æĹ¶å½©
Ġ 356bet
Ġæ ĸ
é¡ µ
åĽ ¢
åŃ Ĳ
çĶ Ł
æĹ© çĤ¹
åĽ ¾
èĪ °
å īį
o m
ç ł
é Ĥ
ä¿ ¡
è ĥ
æĹĹ èĪ°
åľ º
æº Ĳ
app ä¸ĭè½½
è½ ¦
åº Ĺ
é ģ
å±± |
äº ¬
2020 -0
å ĴĮ
- 2
: 0
éĽĨ åĽ¢
å¼Ģ æĪ·
¾ å®¶
Ġ 2
Ġå ı
éĹ »
è ĭ
æŀ ľ
Ġå¼Ģ åħĥæ£ĭçīĮ
r e
åĮ º
Ġå ¹
s t
æ´ ²
å¤ ĩ
æ Ļ
è ¥¿
å¿« 3
æ ¯
æĸ ĩ
ä½ ľ
ç ®
a t
è ĩ
å¥ ĸ
è ²
âĢ Ŀ
æµ ·
æ³ ķ
âĢ ľ
åı ·
æ° ´
Ġ c
çī ¹
æľ Ī
é¦ ĸ
è® ¡
æĸ° éĹ»
Ġ A
a l
çĲ Ĩ
Ġ b
åı £
Ġ äº
è ī
æĹ©é¤Ĳ åĬłçĽŁ
e n
Ġäºļ ç¾İ
ä» ¶
w 66
æ Į
æ Ĵ
« ĺ
åĪ °
éĢ Ł
æ ĥ
Ġ ä¸ĩ
Ġ t
è ģ
å®ĺæĸ¹ ç½ĳç«Ļ
Ġåĩ¯ æĹ¶
é ķ
çĽ ´
: 4
èµ Ħ
Ġæĸ °
: 5
å¥ ½
å ģ
æĹĹèĪ° åİħ
å¤ ĸ
åĮ Ĺ
ä¸ º
è´ ¹
å¤ĩ çĶ¨
Ġag çİ¯äºļ
åĲ Ī
: 2
è °
ä¸ ª
Ġæĺ¨å¤© 0
æŃ £
è ¦
æ »
å¤§ åıĳ
ä» £
æ Ĳ
ģ |
å¼Ģ å¥ĸ
éĺ ³|
è§ Ĩ
é ľ
Ġæ Ŀ
æĴ Ń
åĪ Ĵ
p k
è¶ ³
çİ ©
æ° ĳ
åĩ º
å° Ķ
ä¸ ľ
Ġç Ķ
å·ŀ |
æĹĹ |
Ġå ½
s e
ç ķ
ä» ¥
ľ Ł
æ° Ķ
ä» Ģ
èĢ ħ
a r
èµ Į
è§ Ħ
: 1
å· ¥
éĥ ¨
åŁİ |
Ġ /
åĪ ©
éĹ ´
0 0
é Ķ
ç ¤
o r
ä ¾
å ²
Ċ 2019
é £
çł ģ
åĽ ´
Ġæ ±
è®¡ åĪĴ
è ·
åı ¯
Ġé ĺ
çĶµ æ¸¸
. c
pk 10
Ġå Į
. .
æĹ©çĤ¹ åĬłçĽŁ
æľĢ æĸ°
Ġæ ľ
ç ¨
è² ¸
: 3
Ġå¤§åıĳ å¿«ä¸ī
æ ¹
çĻ ¾å®¶
Ġæ ī
èµ °
i s
ç¥ ŀ
èĥ ½
Ġç ľŁ
å° ±
è¦ ģ
Ġç Ļ
ç Ń
ç» ĵ
é ©
é »
åħ į
Ġ 201
d 88
Ġ 3
æ į
Ġæĺ¨å¤© 1
å¿ ĥ
Ġå Ĳ
åĵ ª
Ġ 5
é¦ĸ é¡µ
t e
åĬ ¿
é ª
ä»Ģ ä¹Ī
é ĵ
å ķ
åį ķ
æĸ°éĹ» ç½ĳ
ç½ĳ æĬķ
åĬ ¨
æ¸ ¯
æľ Ł
èµ Ľ
Ġæ ²
o u
æ±Ł |
çľ ĭ
è Ĭ
Ń ¦
Ġæ µ
è¿ Ĳ
è Ĳ
ä¸ ļ
èĩ ª
çĽ´ æĴŃ
å¯ ¹
Ł ³
Ġ C
ä¸Ń åĽ½
éĩ Į
åĮ ĸ
æĸ ¯
åħ ¥
Ġ 2019
l e
æ Ħ
å· Ŀ
Ġ k
äº Į
å®ī |
æ¯ Ķ
Ġ S
æĪ ĳ
ļ çĲĥ
è¶³ çĲĥ
Ł ¥
çº¿ ä¸Ĭ
ä¸ »
å®¢æĪ·ç«¯ ä¸ĭè½½
æ Ľ
èĢ ģ
åĲ į
Ġ ä¹
Ġåį Ĺ
h e
ä½ĵèĤ² æĬķæ³¨
åľ° åĿĢ
Ġ 2020-0
æĲ ı
éĥ ½
è¿ Ľ
åĪĨ å½©
èµ° åĬ¿
¦ Ĥ
Ġ (
å¤© æ°Ķ
åħį è´¹
ĠåĮ Ĺ
åħ ³
ĠæĹ© é¤Ĳ
æ ¶
éĺ ³
° |
Ġå½ ©
Ġå Ľ
å® ļ
æĪ Ĳ
ä½ į
æĶ ¿
åĵ ģ
å §
åŃ ¦
ç ¦
è £
è¡ ¨
é «ĺ
ç» ı
éģ ĵ
åħ ĭ
ĠæĹ© çĤ¹
åĲ İ
Ġä¸ĩ åįļ
éĢ ī
Ġåĩ¯åıĳ å®ĺç½ĳ
é ħ
a m
h t
Ġ 9
è¿ Ļ
å½©ç¥ ŀ
åį İ
æ ¡
æľ ¬
ï¼ ī
æĬ Ģ
äº ī
ç ¯
1 8
åı Į
åı ¸
å¼ ı
éķ ¿
ä½ĵèĤ² åľ¨çº¿
l o
i t
æŀ Ĺ
å »
Ġ T
éĢ ļ
ï¼ Ī
æ» ļçĲĥ
æĸ Ļ
éĢ ģ
ģ éĢŁ
äº ¤
Ġ P
å £
è® °
Ġ f
Ġåĩ¯åıĳ ä½ĵèĤ²
æĹ¶ éĹ´
å ł
æıĲ çİ°
å° ĳ
å½ ĵ
Ġc c
.c om
Ġ }
ä» ĸ
åķ Ĩ
åº ¦
Ġæ °
Ġé ķ
ç ²
å¾ ·
èµ°åĬ¿ åĽ¾
åİ Ł
è ¢
r i
Ġå¤ ©
æ ģ
- 10
æľ į
äºļ æ´²
Ġ 4
éľ ¸
Ġæ ³
é© ¬
Ġ =
æ Ĥ
å¤ĸ åĽ´
Ġå® ī
ç ¬
ç ©
äº ĭ
. 0
äºļ æ¸¸
è½ ¯
åĳ ĺ
é ļ
Ġå½© ç¥ŀ
Ġé ĩ
æĺ İ
äº İ
åĪ ©æĿ¥
ç ³
éĿ ¢
ä¿ Ŀ
Ġæ ŀ
Ġ M
Ġ be
w w
åħ¬ åı¸
ä» ¬
Ġ s
Ġè µ
å® ģ|
äºī éľ¸
å¸ ĥ
è® º
è½¯ ä»¶
ãĢ Ģ
à ¸
çĻ¾å®¶ ä¹Ĳ
æ² ³
æºĲ ï¼ļ
åĬ Ľ
Ġcc åĽ½éĻħ
¹ æŀľ
Ġ m
ç Ī
é¢ ĳ
æİ Ĵ
åĲ Į
è· ¯
Ġ v
ĠæĹ ¥
) ;
ī |
åį ĵ
Ġk 8
Ġå ·
ç ±
åįķ åıĮ
ç ¼
en t
Ġäºļ æĲı
æıĲ æ¬¾
Ġå¹ ³
Ġç º
Ġæ ¸
Ġ p
ç ´
å ĭ
ç³ »
è® ¯
» ¿
Ġ d
Ġå ¾
èī ²
è²¸ æ¬¾
è į
Ġ ä¸Ń
Ġé »
ĠåĮĹ äº¬
t 365
è¢ «
Ġä¸ ľ
i on
Ġ B
åĢ Ł
ä»£ çĲĨ
åı ĸ
ç¯ ĩ
ĠçľŁ äºº
å¤© å¤©æ°Ķ
Ġäºļæ¸¸ éĽĨåĽ¢
ĠçĶ µ
æĢ »
ĠåĪ©æĿ¥ w66
è§ £
é¢ ĺ
èµ ¢
å ¦Ĥ
èģ Ķ
Ġé Ŀ
åĪ ¶
è Ļ
Ġçİ¯äºļ ag
? ?
å Ļ
å® ŀ
æī ĵ
Ġ 6
è ¨
Ġ R
Ġ w66
ç½ĳ ä¸Ĭ
Ċ 2020-0
e s
Ġ 8
èĭ ¹æŀľ
æĭ ī
ç ĥ
Ġ H
ç»ĵ æŀľ
æ² ³|
è İ
æł ·
çī ĩ
äº Ķ
åĻ ¨
æĪ ¿
è¿ ŀ
Ļ æ¸¯
ä½ ķ
ï¿½ï¿½ ï¿½ï¿½
ï »¿
å± Ģ
æ¸¸æĪı å¹³åı°
ä¸Ģ ç¯ĩ
Ġç §
æº ª
Ġ 7
åįĹ |
Ġbet 356
æł ĩ
æĹ ł
Ġå ¯
åį ģ
Ġ 10
ç¨ ĭ
æµ ģ
ç ģ
c t
1 2
è Ħ
' ,
å¤§ åħ¨
çİ ĭ
ä¹ ĭ
è¿ ĩ
å·Ŀ |
ç ĸ
Ġå°Ĭé¾Ļ d88
åĢ ¼
Ġæī ĭ
Ġ {
å» º
ĠæĿ ¥
éĴ Ł
Ġè ĭ
åĬ ¡
å¤ĩçĶ¨ ç½ĳåĿĢ
Ċ 201
ç½ ®
çĽ ĺ
-1 2
å¤ļ å°ĳ
æķ °
æİ ¥
è ª
ä» Ĭ
Ġbet 36
Ġå¤§åıĳ æĹ¶æĹ¶å½©
Ġæ± Ł
è´ ¦
åĽ ŀ
-1 1
åħ Ń
Ġæ Ī
ç® ¡
± ¼
è£ ħ
åĪĨ å¿«3
ç¬ ¬
Ġåĩ¯åıĳ æīĭæľº
ç¤ º
Ġ a
Ġæ° ¸
æ¹ ĸ
éĩ į
Ġ ãĢĳãĢĲ
è§Ĩ é¢ĳ
Ġä¸ ´
å®ĺç½ĳ ä¸ĭè½½
: '
è¯ ģ
åİ »
Ġ ä¸Ĭ
i c
å° Ĩ
æĦ ı
åĽ Ľ
çĽ ®
Ġè ¥¿
åº Ĩ
i d
æĺ Į
ç½ Ĺ
å®ī åįĵ
Ġå¹ ¿
éĤ ®
Ġå īį
Ġéĩ ĳ
å¹³ |
ç Ħ
æĹ ħ
å¹ ¿
é ±¼
éĻ Ĩ
ï ½
u n
å ĸ
è¯ ·
æ ·
Ġç ī
åģ ĩ
åį ¡
å· §
çķ Į
A P
èµĦ æĸĻ
æ ¼
ä¸ ĸ
ç¥ ¨
Ġæ Ļ
ä¹ °
åĪĨ éĴŁ
Ġåĩ¯åıĳ app
Ġæ Ń¦
1 1
Ġ I
å°± æĺ¯
æ°´ |
æ¬ ¡
æĥ ħ
Ġé ¦
æ ¢
æİ ¨
åº ľ
æĹ¥ æĬ¥
Ġ Â
åĨ ħ
. 5
Ġ L
Ġéķ ¿
g ht
Ġ âĢ
è¯ ´
éĻ ¢
æĬĢ å·§
çī ©
Ġ D
ç® Ĺ
æī Ģ
ĠçĻ ¾å®¶
äº ĳ
Ġé «ĺ
Ġ i
´ |
å ŀ
Ġå ¿
æ´ ¥
A G
å ³
ĠA G
åŃ Ĺ
Ġåīį å¤©
åĬ ©
éĹ ®
éĿ Ĵ
in g
å¼Ģ åħĥæ£ĭçīĮ
e d
Ġ :
åĨ ł
3 0
æĤ ¨
åºĹ åĬłçĽŁ
ç¤ ¾
Ġåĩ¯åıĳ çº¿ä¸Ĭ
æ² »
äº §
Ġç Ľ
Ġæīĭ æľº
å® ģ
å ¢
ĠæĹ¥ åįļ
æīĭæľºçīĪ ä¸ĭè½½
Ġåı °
Ġç »
èĤ ĸ
éĿ ł
åĮ ħ
äºº çĶŁ
o p
çŃ ī
æ ©
AP P
æł ¼
æ Ł¥
å¼Ģå¥ĸ ç»ĵæŀľ
æīĭæľº çĻ»å½ķ
ä¸ İ
æĶ¿ åºľ
åįķåıĮ ï¼ļ
æīĭæľº å®¢æĪ·ç«¯
å¨±ä¹Ĳ å®ĺç½ĳ
æ² ¡
èĢģ çīĮ
¡ |
ä¸Ģç¯ĩ ï¼ļ
å± ķ
e t
Ġ w
Ġw66 åĪ©æĿ¥
çİ° éĩĳ
Ġt he
Ġå° ı
ç» Ł
.. .
Ġè ¿
æ ¥
è¯ Ŀ
Ġb t365
åĪ Ĺ
å ¡
Ġè ´
å®ĺæĸ¹ ä¸ĭè½½
åħ ±
å°ı æĹ¶
1 5
Ġ ãĢĲ
è¾ ¾
åı¯ ä»¥
èĤ ¡
Ġéĺ ¿
æ ¨
éħ Ĵ
ç« ŀ
Ġå Ĭ
ç§ ĳ
365 bet
èĭ ±
Ġé Ģ
ä¹ Ł
åħ ħ
Ġå ¨
ç ¿
çľŁ éĴ±
åħ ī
è¿ ĳ
Ġç ļ
çº §
è¯ Ħ
r o
é» ĳ
æ¸ ħ
Ġé ĵ
Ġæŀ ģéĢŁ
a d
èµ ·
Ġ G
ç² ¾
. 2
çİ ĩ
å®ĺç½ĳ çĻ»å½ķ
é£ ŀ
è® ®
- -
ç¾ ¤
å¾ ĭ
é¢ Ħ
¸ è¿Ĳ
åº ·
è® ¾
ag æĹĹèĪ°åİħ
Ġ ä¸ī
æŃ£ è§Ħ
Ġæ Ń
åĩ Ĩ
å ī
Ġåĩ¯åıĳ çĶµæ¸¸
Ġå ¥
æºĲ |
è¿ ĺ
Ġå º
å· ²
n t
å¸ Ī
Ġå® ģ
Ġé Ľ
¦ |
éª Į
å¾ Ĺ
l l
æĶ ¶
çī Ľ
Ġé ĥ
æ£ĭçīĮ æ¸¸æĪı
ä½į ç½®
ĠåĪ Ĩ
èĬ ±
æ Ł
Ġäºļ æ´²
Ġæ ´
a c
æĿ ¡
è ±
åĲ ĥ
éķ ĩ
an d
è ı
Ġ F
å Ķ
å° Ĭé¾Ļ
. 1
ç» Ļ
Ġ N
å¤§åıĳ å¿«ä¸ī
è ³
ç¦ ı
ĠæĿ¥ æºĲï¼ļ
è º
çĻ» éĻĨ
Ġå »
åł Ĥ
Ġæ ¹
Ġ n
æĿ ĥ
ä» »
ç© º
o f
ä½ĵèĤ² app
am 8
st 365
( "
Ġag åĽ½éĻħ
æĺ Ł
å¯ ¼
æµ ĭ
Ġé Ļ
Ġäº Į
äºº æ°ĳ
éĻ Ĳ
Ġ re
åħ ¶
ç½ĳ é¡µ
æį ®
ç ĭĹ
ç« ł
ç¼ ĸ
æģ ¯
ç Į
Ġå ±
æĻ ļ
a y
Ġ ä¹Ĳ
Ġçº ¿
æ¯Ķ åĪĨ
Ġ W
çīĪ ä¸ĭè½½
Ġé Ĥ
åĪĨ æĹ¶æĹ¶å½©
è »
å°ıæĹ¶ åīį
m ent
Ġçº¿ ä¸Ĭ
èª ī
Ġag äºļæ´²
Ġ "
2 -2
. 6
Ġ365æ£ĭçīĮ æ¸¸æĪı
åı Ĭ
Ċ2019 -0
Ġ E
å° ¼
âĢ Ķ
. 8
ãĢ ĭ
éĻ µ
æīĭæľº app
Ġä¹ Į
Ġ h
éĿ ŀ
é Į
èµĽ è½¦
ľ |
èº «
ä¸ľ |
æ¬ ¢
a s
æŃ ¤
Ġæµ ·
Ġåĩ¯æĹ¶ åĽ½éĻħ
Ġç Ł³
è§ Ĥ
ãĢ Ĭ
æĮ ĩ
1 9
. 3
åģ ļ
å· ´
Ń |
æ¹ ¾
Ġè ¾
ä» İ
æºª |
. 4
ç¾İ åĽ½
Ġ ä¼
å¨±ä¹Ĳ åľº
. 9
Ġå¤ ĸ
Ġåĩ¯åıĳ å½©ç¥¨
æĭ Ľ
èĻ İ
äººçĶŁ å°±æĺ¯
Ġæĺ¨å¤© 2
ç Ŀ
èĭ ı
æĽ ´
çĽ ¸
Ġæ ·
Ġç ¦
Ġæ Ģ
ä¸Ń å¿ĥ
ĠæŃ £
åĮº |
æ ¾³éĹ¨
Ġ 20
å®¢ æľį
å® Ŀ
æĻ ®
Ġ201 8
å Ħ
ä» ·
éĩ ı
èī ĩ
æĺ¯ ä»Ģä¹Ī
ï¿½ï¿½ ï¿½
Ġé ¾Ļ
Ġ #
å² Ľ
ä¿¡ èªī
ç ¹
. 7
å ĥ
éĵ ¶
4 -0
Ġæ ¡
æ ½
) .
æĥ ł
Ġäº Ķ
æĪĳ ä»¬
ķ é±¼
Ġå ¸
Ġ $
Ġå ľ
å ©
è®° èĢħ
é ¥
al se
è ĳ
ĠçĻ¾å®¶ ä¹Ĳ
å¾ ®
åĲ §
u r
é¡ ¹
æĪ ĺ
ä¸ ¤
çĻ ¾
æ² Ļ
çİ° åľº
è Ń¦
e l
Ġæ »
æ¡ Ī
Ġåį ļ
o d
ç ı
è» Ĭ
æ´ »
å¦Ĥ ä½ķ
Ġå® ľ
ç§ °
Ġå¾ ·
åĮĹ äº¬
æķ Ļ
å¤ ´
Ġbe st365
ww w
Ġ in
åº Ķ
æ¶ Ī
365 ä½ĵèĤ²æĬķæ³¨
èµĮ åľº
o l
æŀ ģéĢŁ
è Ĺ
ä¸ ĵ
äº Ľ
Ċ ä¸Ĭ
é ĸ
âĢ ķ
¥ |
Ġè ¯
Ġå Ĩ
Ġ U
åĩ ¯
Ġ y
åĳ ¨
æĺ ĵ
è¶ ħ
è¥¿ |
é¦ Ļæ¸¯
ĩ åĨł
å®ī åħ¨
ä½ľ èĢħ
ç± »
éĤ Ģ
éĮ ¢
Ċ æĸ°
äººçĶŁå°±æĺ¯ åįļ
Ġ O
o s
åŀ ĭ
é£ İ
åŃ ĺ
Ġå ²
å· ¦
æ± Ĥ
Ġ [
éª Ĺ
Ĭ Ģ
te 365
æĹ¶éĹ´ ï¼ļ
éĤĢ è¯·
è¾ ĵ
Ġ ä¸Ģ
ĠåĬ ł
æĺĮ |
ç ĭ
Â ·
å°ı åĲĥ
u s
Ġ d88
Ġ ä½
å®ī è£ħ
åı ¤
æµ İ
æµ· |
åı ª
éħ į
ä¸ĸ çķĮ
çł ´
o w
æľĢæĸ° çĻ»å½ķ
é ²
ç ª
åĨ Ľ
ĠéĿ Ĵ
æľ ¨
½ |
Ġ V
å£ «
å¤© åłĤ
æĹħ æ¸¸
Ġæ² ³
Ġv ar
Ġ K
åĽ½ å®¶
ä¸Ń æĸĩ
é» Ħ
æĮ ģ
Ġ of
¾ İ
è° ±
åħ¥ åı£
Ġå ĵ
æĥ ³
Ġ J
ï¼ ģ
Ġæ¸ ħ
ĠæĹ©çĤ¹ åĬłçĽŁ
ä½įç½® ï¼ļ
Ġå· ´
çº ¢
ĠéĢ ļ
Ġäºļæ¸¸ åĽ½éĻħ
Ġå¤ĸ åĽ´
åĵª ä¸ª
èĲ ¥
å½ ±
c c
ĺ ī
ĠåĽ ½
å§ Ķ
éĤĢè¯· çłģ
åĳ Ĭ
alse ,
å¼ º
å½ĵ åīį
éĽ Ħ
Ġd88 å°Ĭé¾Ļ
ç« ĭ
ç Ł¥
ĠAG çİ¯äºļ
è½ ¬
t h
æ²¡ æľī
èĦ ĳ
èĪ ª
åħ °
éĶ ģ
ç» ľ
ä¸ĩ åįļ
ĠçľŁ éĴ±
è ħ
Ġé» Ħ
Ġk8 å¨±ä¹Ĳ
åħ ļ
Ġ365 æ»ļçĲĥ
çĶµ åŃĲ
Ġb te365
Ġäºļç¾İ am8
ä¾ Ľ
ĳ |
æĿ ¯
Ġå½©ç¥ŀ äºīéľ¸
å¹ ¶
ä¿ ®
åĬ ŀ
c om
o te
é Ł
åı ³
ä¹ ¦
å¥ ³
åĿ Ľ
ç» ´
åĪĨ åĪĨå½©
å·¥ ä½ľ
çĶµ è¯Ŀ
lo g
ri ght
ç ¡
ç§ Ĵ
ä¼ ĺ
ç ¶
Ġæ Ľ
ï¼ Ł
Ġ â
Ġ pk10
ç½ĳ ç»ľ
Ġçİ¯äºļ çĶµæ¸¸
ç Ł
Ġag çľŁäºº
ĠçĻ ½
èµĮ éĴ±
ä½ ł
Ġè ¶
ct ion
Ġç ģ
: f
éĿł è°±
æĺ¯ çľŁ
åĲ ĳ
é£ŀ èīĩ
åı£ |
åİ Ĩ
i p
Ġå¿ «
èĲ ½
ä¹ ħ
åĮĸ |
12 æľĪ
ä½ Ĩ
å¸ ¸
Ġ is
çĦ ¶
è ©
å½©ç¥ŀ äºīéľ¸
Ġ1 2
Ġ ä½ĵèĤ²
é º
Ġéĺ ³
Ġ &
èĢ Į
Ġ and
ã ĥ
åŁ º
è® ¤
èµ ļ
çļĦ åĲĹ
:f alse,
çľ ģ
ĬĢ è¡Į
- 20
Ġè Ĭ
æ ¦
æĶ ¾
æ ĳ
åĽ Ń
i m
åħħ åĢ¼
åı Ĺ
åĽ ł
Ġå Ń
ŀ į
Ġ2019 -0
Ġåħ ´
æ ļ
ä¸į äºĨ
è´¦ åı·
www .
æ¬ §
-1 9
ĠccåĽ½éĻħ ç½ĳæĬķ
ä¹ ł
çĿ Ģ
èĹ ı
å¿« ä¹Ĳ
æľ ª
è° ĥ
æĢ Ŀ
éĹ® é¢ĺ
Ġç¦ ı
e w
åı ²
èĤ¡ ç¥¨
æīĭæľº å®¢æĪ·ç«¯ä¸ĭè½½
Ġè İ
2 8
åĢŁ æ¬¾
ĠåĲ ī
Ġé ©
Ġå°Ĭé¾Ļ äººçĶŁå°±æĺ¯åįļ
å¾ Ī
ç® ±
bet 365
Ġæ Ĭ
Ġ1 1
at 365
åĪ Ļ
åı ĭ
è§Ħ å¾ĭ
æĶ ¯
è ĸ
åĩ ł
Ġè ¡
æį ķé±¼
Ġå ĳ
Ġäºļæ¸¸ å®ĺç½ĳ
è Į
Ġç ¥
Ġæ ł
ä¸Ģ ä¸ª
m l
ä¹ ī
è¯ »
Ġå ĴĮ
Ġt o
Ġåħ Ń
ä¼ Ĺ
Ġé ģ
å¤§ å°ı
æĮ Ĥ
ç¨ ³
Ġæ ½
æ© Ł
ä¿ Ħ
Ġåı ĳ
Ġé¦ Ļæ¸¯
Ġä¸ĩ çĭĹ
Ġæľ Ģ
Ġ365 å¤ĸåĽ´
é¡ º
çİ ¯
ç Ĭ
-1 8
è¡¨ ç¤º
ä¸ ¾
Ġ ï¿½
Ġåĩ¯åıĳ çľŁäºº
ä» ĭ
Ġé Ħ
ç Ł³
å ª
:' ',
éªĮ è¯ģ
è¯ ¥
å¿ ħ
é¡¹ çĽ®
Ġåħ ¨
çĻ ½
é ĬĢè¡Į
ç ¢
Ġåĩ¯åıĳ æ¸¸æĪı
b 88
Ċ2019 -10
åĢŁ éĮ¢
Ġè ®
å® ¾
365 æ£ĭçīĮ
b o
ĠçĭĹä¸ĩ åıĸ
Ġèĭ ±
ç¿ ¼
åħ¬ äº¤
c h
èĩ ³
æĿ¥ æºĲï¼ļ
å¤ Ħ
é ł
Ġ: :
å¨ ģ
å ¦
Ġ g
éĺ Ł
åĪ «
è¯ ķ
Ġ X
Ġæ ı
9 18
Ġäº ĳ
è Ĵ
å£ °
è¿Ľ è¡Į
ä¸ °|
æĬ ¤
è¾ ¹
å® ¹
æ ®
Ġè ģ
Ġ1 5
åĲ Ħ
éĤ £
ä» ½
åĵ Ī
ĠçĶµ çİ©
Ġå ĺī
æľ ¯
éĻµ |
æ· ±
çģ «
è®º åĿĽ
åĮ »
è® ©
Ġå¹ ¸è¿Ĳ
Ġ0 9
åĩ¯ åıĳ
ä¸ĭ ä¸Ģç¯ĩï¼ļ
éĺ³ åİ¿|
ç ĭĹä¸ĩ
æ ħ
èĢ ĥ
Ġ +
è Ń
un ction
åı° |
åĩ »
ãĢĤ âĢĿ
.8 ä¸ĩ+
.6 ä¸ĩ+
.0 ä¸ĩ+
.5 ä¸ĩ+
.7 ä¸ĩ+
.9 ä¸ĩ+
.3 ä¸ĩ+
æĢİä¹Ī ä¸ĭè½½
å¾® ä¿¡
Ġ Y
.2 ä¸ĩ+
.1 ä¸ĩ+
çĶ ±
åħ ´
.4 ä¸ĩ+
Ĩ |
u b
åıĳ å±ķ
åħ «
å¤ ª
2 1
æ± ł
Ġ1 9
å¤ ı
Ġ2020-0 2-2
åį Ģ
æľį åĬ¡
Ġåĩ¯åıĳ æĹĹèĪ°åİħ
Ġç «
Ġå± ±
ç ħ
éĢ ł
8 -0
åĲ ī
æ¼ ı
è´ Ń
éĺ ²
è¿ŀ éĶģ
Ġé© ¬
åı į
ĠåĽ Ľ
ä¾ ¿
Ġæ Ķ
çİ© æ³ķ
Ġåı Į
Ġåĩ¯åıĳ ç½ĳåĿĢ
ĠæĹ©é¤Ĳ åĬłçĽŁ
æĦ Ł
ĺ |
åħ Ī
ç»ı æµİ
Ċ ä¸ŃåĽ½
å Ĥ
éĹ¨ |
èģ Į
çĪ ±
Ġçī ¹
æİĴ åĪĹ
¿ |
ï¼ Ľ
Ġ '
æ² ģ
åĮº åı·
éĤ® ç¼ĸ
Ġ ?
Ġ1 6
c e
é¢Ħ æµĭ
Ġæ ¢
Ġbe at365
Ġ9 18
Ġäºļæ¸¸ ag
åį ³
ä¼ ł
æĶ ¹
Ġåľ ¨
æĢİä¹Ī æł·
åĪĨ pk10
Ġbet365 ä½ĵèĤ²
ä¼ ģ
èı ľ
Ġèµ Į
çķ Ļ
ç§ į
èĬ Ĥ
ç» Ń
æĹ¥ ï¼Į
Ġåį İ
å¤ ®
365bet å®ĺç½ĳ
èģ ĺ
ç½ĳé¡µ çīĪ
Ġå İ
Ġæ ¶
åĵģ çīĮ
Ġä¸Ĭ æµ·
u e
Ġè¶ ³
ä½ İ
èµ¢ éĴ±
å¤ į
å¾· |
Ġ/ /
æķ ´
çĥ Ń
æŀĹ |
:0 0
ĠåĬł çĽŁ
è´ ¢
çł´ è§£
éľ Ģ
i l
Ġ201 7
op y
å¸ ¦
v e
ç± ³
çĶµ è§Ĩ
ote l
Ġåĩ¯åıĳ åľ¨çº¿
A N
æĸ ½
æ³ ¢
Ġé Ĺ
Ġç ¾İ
Ġ ä¸ĭè½½
Ġæ Ĳ
åŃĹ åı·
éĥ½ |
Ġå¯ Į
Ġ1 7
è¿ İ
æ¯ ı
å·¥ ç¨ĭ
åª Ĵ
Ġ ãĢĳ
Ġ2020-0 4-0
å¤§ åİħ
ou nt
Ġå¼ ł
Ġé ļ
éĵ ¾
Ġåĩ¯åıĳå½©ç¥¨ app
åı° æ¹¾
Ġä¸ĩåįļ ä½ĵèĤ²app
ä¸į èĥ½
Ġé ¹
ä¹ ¡
ĠâĢ ĵ
æİĴ è¡Į
Ġè į
Ġi f
t p
Ġ èĤ
æİ §
ä¿¡ æģ¯
Ġæ ķ
opy right
æĺ¯ å¤ļå°ĳ
15 å¤©å¤©æ°Ķ
30 å¤©å¤©æ°Ķ
10 å¤©å¤©æ°Ķ
2 2
ç» Ħ
åħ ·
Ġä¸ĩåįļ app
Ċ C
åĵª éĩĮ
Ġå® ļ
Ġéķ ĩ
å½ĵåīį ä½įç½®ï¼ļ
åıĳ å¸ĥ
å± ĭ
1 6
æ³¨åĨĮ éĢģ
Ġ ä»
éĢī 5
Ġ1 4
æĹ ı
Ġçİ¯äºļ éĽĨåĽ¢
Ġå ķ
èĩª æ²»
åı Ĥ
è¨ Ģ
1 7
i ght
ä½ ¿
/ /
Ġæ ¬
åħ ´|
å® ¤
on e
çĶµ èĦĳ
ĠåĽ½ éĻħ
é¡ į
Ġæĸ ĩ
åĸ Ħ
ĠæĹ ł
-1 7
Ġè Ĳ
é¢ Ĩ
æ³ ī|
Ġå¤ ª
æĺ ¥
s p
ĠçĶµ åŃĲ
Ġd e
Ġå¨ ģ
å¤ļ ä¹ħ
åĦ ¿
é¦ Ĩ
ç Ĺ
o t
ç¦ »
Ċä¸Ĭ ä¸Ģç¯ĩï¼ļ
Ġ l
æľ Ĺ
Ġ Q
é İ
å¤ ±
ä¸į åİ»
åĨ ³
æĿ ĳ
?? ??
èį £
5 0
( '
äº «
Ġæ¹ ĸ
è´ §
è§Ĥ çľĭ
åĲİ ï¼Į
1 4
Ġåĩ¯åıĳ ç½ĳ
Ġ1 8
åį °
å·ŀ å¸Ĥ|
æīĢ æľī
ĠåĪ©æĿ¥ æľĢ
c on
Ġåķ Ĩ
å¹ ²
Ġåĩ¯åıĳä½ĵèĤ² app
00 0
åŁ ¹
ä¸į åĪ°
Ġå» º
ħ è¯»
Ġçİ ĭ
æłĩ é¢ĺ
åº ĵ
Ġ Z
é² ģ
è® Ń
i os
ç ĳ
ï¼Į ä½Ĩ
Ġ0 8
å® Į
åĭ Ĵ
ĠåĲ Ī
éħĴ åºĹ
çº ¦
çº ³
Ġæ ĥ
Ġ ä¸į
Ġæ¾³éĹ¨ çĻ¾å®¶ä¹Ĳ
-2 1
Ġæ¾³éĹ¨ çĻ¾å®¶
¾ è®¯
æŀ Ĳ
Ġæ ĭ
åİĨ åı²
æīĭæľºçīĪ å®ĺç½ĳ
Ġåīįå¤© 0
Ġ @
Ġè ĩ
o st
Ġåĩ¯åıĳ å®ĺæĸ¹
å¼ ł
åĩ ¡
Ġ e
æ¨ ¡
å· ±
å¯ Ł
æŃ ¥
åĪ Ľ
åĬ Ł
é¢ Ŀ
ĳ åħĭ
å¸Ĥ éĤ®ç¼ĸ
å¸Ĥ åĮºåı·
ï¼Į è¿Ļ
ĠagåĽ½éĻħ äºļæ¸¸
Ġ app
ä¹ ¡|
9 9
åĥ ı
åĶ ®
p e
çł Ķ
è¯Ħ è®º
er v
Ġå ¦Ĥ
æ¦ ľ
åľ Ł
APP ï¼ļ
åĪĨéĴŁ å¿«ä¸ī
æĸ Ĺ
æĪ ĸ
Ġè¿ ŀ
ĠæĻ ®
æ ĵ
ç¹ Ŀ
è§ Ī
æĸĩ ç«ł
åº Ħ
ĠÂ »
Ġçļ ĩåĨł
¥ åº·
æĬ¥ éģĵ
å¹ ¸è¿Ĳ
ht tp
Ġ www.
k b88
at ion
Ċ201 7
æľī éĻĲ
± |
éĵ¾ æİ¥
æ¹ĸ |
ä½ľèĢħ ï¼ļ
ç¶ ²
.c n
ç ĵ
Ġæľ ī
Ġag æĹĹèĪ°åİħ
è Ľ
å¨±ä¹Ĳ å¹³åı°
Ġçİ °
å¤§åıĳ æĹ¶æĹ¶å½©
-2 2
æĿ ¿
è³ ¼
é ¸
Ĩ Ĵ
ä¸Ń çİĭ
è®° å½ķ
æ± ½
å®ĺç½ĳ ç½ĳåĿĢ
æł ¡
11 éĢī5
äºĮ æīĭ
è ¼
æĭĽ èģĺ
Ġè´ µ
¸ |
å¿ Ĺ
å° ģ
ĠæĹ ¶
éĤ ¦
an g
Ġåıĳ å¸ĥ
è° ·
çĽ ĳ
åľ ĭ
åį «
Ġå¤§åıĳ å¿«3
åį ĥ
ª |
½ Ĳ
ä½ ı
ä¸Ń |
at e
èĳ ¡
çŃ ¾
ĠçĶ ĺ
åİŁ |
Ġå¤© æ´¥
æ¸¸æĪı å®ĺç½ĳ
æłĩé¢ĺ ï¼ļ
èĩª å·±
Ġéĺ ľ
åĢ į
ç Ĵ
è§Ĩ è®¯
åľ° åĽ¾
èµĮ åįļ
k 8
ï¼Į åľ¨
Ġk8å¨±ä¹Ĳ æīĭæľºçīĪ
è ĵ
in d
æī į
ç ĩ
å¼ Ĭ
éªĹ å±Ģ
" ).
ä¾ Ŀ
éķĩ |
ĠçĭĹä¸ĩ æıĲæ¬¾
ĠèµĮ éĴ±
Ġè Į
Ġ ,
Ċ2019 -11
æĮ ī
å¤ĩçĶ¨ ç½ĳç«Ļ
Ġ> >
å§ ĭ
Ġå¥ ½
´ ĩ
Ġç§ Ĵ
Ġæĺ Į
å ĺ
Ġ0 7
Ġæ¾³éĹ¨ çľŁéĴ±
å¯ Ĩ
åĲĪ ä½ľ
å®ļ |
§ |
at a
or t
æĻ ¯
Ġåħ ¬
éŁ ©
ç µ
ç§ Ł
ĠéĦ Ĥ
o k
è¡¨ç¤º ï¼Į
Ġæı Ĳ
2020 å¹´
æŁ Ĳ
Ġåĩ¯åıĳ agæĹĹèĪ°åİħ
Ġåĩ ¤
-- --
å°¼ æĸ¯
ä½ Ļ
AG æĹĹèĪ°åİħ
å½© éĩĳ
ĠäºĮ æīĭ
åĬłçĽŁ åºĹ
åĪ° è´¦
åĪĨ æŀĲ
-2 3
Ġt h
Ġæ ¼
åįİ ç½ĳ
å¸ Ń
æ¥ ¼
åħ °|
Ġåĩ¯æĹ¶ kb88
æĢ ģ
it or
æľ Ľ
Ġçİ ī
æŃ »
æ¬¢ ä¹Ĳ
é¾Ļ |
éĵ ģ
è¿ ľ
Ġ se
ĠçĻ ¾
ç®¡ çĲĨ
å© Ĩ
Ġ ç½ĳä¸Ĭ
åĳ ½
åŃĹåı· ï¼ļ
éĺ³ å¸Ĥ|
æĿ İ
Ġå® Ŀ
æĽ ²
è§ ģ
-1 6
æ ¿
ä¼ĺ æĥł
i f
Ġag äºļæ¸¸
è¯ Ń
ä¿¡ è²¸
è¶³ å½©
Ġä¹ Ŀ
Ġçº ¢
2 5
çĶ °
èĴ Ļ
ï¼Į ãĢĳãĢĲ
æ£ Ģ
å°ı é¡į
æıĲ ä¾Ľ
é Ł³
æĻļ æĬ¥
Ġæ³ °
æī ¾
ç¡ ®
Ġ lo
ag e
Ġå ģ
çķ ¥
:0 ,
Ġç ®
çĽĺ åı£
ĠãĢĲ åŃĹåı·ï¼ļ
ä¸ĭè½½ ç½ĳåĿĢ
å² ģ
çĶ ²
ãĢĳãĢĲ ï¼ĮãĢĳãĢĲ
çĶ ³
en d
è ŀį
è «
u m
éĶ Ģ
Ġç§ ĳ
Ċ2019 -12
æĲ ľ
çİ Ľ
( )
åĨ ľ
Ġè Ī
å® ¡
åĽ½éĻħ åİħ
å¤ «
Ġçº¿ä¸Ĭ çľŁéĴ±
åı ĺ
ĊC opyright
å¼ ¹
Ġagçİ¯äºļ éĽĨåĽ¢
çī¹ èī²
ĠæĲ ı
åį ı
ĠæĽ ²
è¿ ľ|
ä½ľ å¼Ĭ
Ġç» ¥
ç½Ĺ æĸ¯
å¤© å¤©
is itor
C ount
åŁ¹ è®Ń
Ġ .
İ |
åį ĩ
åĨ į
æĹł æ³ķ
Ġ2 2
å®ĺç½ĳ app
äº ¿
ç¬¬ ä¸Ģ
Ġ0 5
æĹ©é¤Ĳ åºĹåĬłçĽŁ
å¯¼ èĪª
Ġè ı
¯ |
i a
Ġ0 6
å¡ Ķ
Ġæĥ ł
Ġæ± ī
ç´ ¢
å®ĺæĸ¹ å®¢æĪ·ç«¯ä¸ĭè½½
éĻ ¤
Ġ2 3
èµĦæĸĻ å¤§åħ¨
è¡ Ģ
Ġ2 1
-1 5
æ´ ŀ
Ġé¦ ĸ
Ġf unction
æīĭæľºçīĪ appä¸ĭè½½
èĽ ĭ
æ´ Ľ
é£ Ł
= "
å¤§ åŃ¦
Ġè ĵ
æľīéĻĲ åħ¬åı¸
è¯ ¢
è¶ Ĭ
Ġé ¡
çĶ °|
å²Ľ |
åħ ¸
ĠçĭĹä¸ĩ æıĲçİ°
ç Ĩ
å®ĺæĸ¹ ç½ĳ
Ġ ä¿Ŀ
: //
Ġä¸ °
Ġä¼ Ĭ
éĽ »
A d
Ġç ı
Ġæľ ¬
çĶ »
æİĴè¡Į æ¦ľ
Ċ å¤§
Ġçģ µ
è´ ¨
am e
Ġé» ĳ
Ġ st
å¢ ŀ
" ,
çĶµè§Ĩ åı°
ĠæĪ ĳ
æ± ī
åĴĮ |
¨ |
æ° ¸
èĸ ¦
æµģ æ°´
å·¦ æĹĹ|
Ġ0 1
ä½ ³
æķ Ī
åľ¨çº¿ è§Ĥçľĭ
Ġ365ä½ĵèĤ² åľ¨çº¿
èį Ĳ
Ġæ İ
æ¸¯ |
èĥ ľ
ĠH otel
Ġç Ĥ
å±± åİ¿|
è¯ Ģ
åİŁ æłĩé¢ĺï¼ļ
Ċ é¦ĸé¡µ
ı çĦ
éħį èµĦ
âĢĿ ãĢĤ
éİ ıçĦ
éİıçĦ ¯
ç§° ï¼Į
Ġé ¢
åŁ Ł
ï¼Į å¹¶
ĠçĽ Ĳ
ĠåĪ©æĿ¥ ag
Ġåĩ¯åıĳ æ³¨åĨĮ
o c
Ġé º
Ġä¸ ¹
Ĺ |
å¼ ķ
Ġè ħ
Ġ0 4
æ© Ļ
éĻ ©
å± ŀ
ĠåĮĹäº¬ pk10
I n
ç® Ģ
è® ¸
Ġåĩ¯åıĳå®ĺç½ĳ å¹³åı°
Ġf or
ä»ĸ ä»¬
88 8
I j
Ġ0 0
çİ° åľ¨
Ġçº¿ä¸Ĭ çľŁäºº
Ġ ...
ä¸Ģ çĤ¹
i r
æ¬¢ è¿İ
éĥ¨ èĲ½
ĠT I
éĿĴ å¹´
Ġè Ģ
Ġ ì
å®ĺç½ĳ å¹³åı°
æĤ¨ çļĦ
Ġ ç½Ĺ
ı è§Ī
ä¿¡ çĶ¨
å®¶ å©Ĩ
2 4
å¯ Į
m an
Ġå Ł
Ċ æĹ©é¤Ĳ
Ċ äººæ°ĳ
Ġçļ Ħ
Ġè¶³ çĲĥ
æĺ ¾
¾ |
è´ µ
æī ĳåħĭ
I d
Ġ0 3
W R
7 7
éĢ Ģ
æ±ł |
/ å½©ç¥ŀäºīéľ¸
à ¹
Ġag å¹³åı°
æ¥ Ń
Ġ0 2
ĠåĲ ´
æ² ¹
Ġé ľ
çĽ¸ åħ³
:3 0
Ġå» ¶
3 1
è¾ ħ
Ġ201 6
Ġç¥ ŀ
ı |
y pe
Ġæ² Ļ
u l
æł ¸
çĻ ¼
20 0
Ġæŀ Ĺ
Ġè¯ Ħ
éº »
å½©ç¥¨ 365
èĭ¹æŀľ çīĪ
çĸ Ĩ
çļ ĩåĨł
ĠæĢ Ģ
" :
Ġäºļæ¸¸ app
-1 4
ä¸Ģ èĤĸ
åĴĮ åĢ¼
Ġå ´ĩ
æĹ©çĤ¹ å°ıåĲĥ
è´ £
ä» ĺ
ä¿Ħ ç½Ĺæĸ¯
Ġå¨ ±ä¹Ĳ
èī º
å¾ ½
èŃ ī
Ġç ±
Ġåĩ¯åıĳ æľĢæĸ°çĻ»å½ķ
ä¸į å¼Ģ
Ġä¸ ĸ
Ġè °
Ġéĩ į
u t
æ ¤
å¨ ±
è¯´ ï¼Į
å¥½ çļĦ
ä¼ģ ä¸ļ
æīĭæľº çĻ»éĻĨ
èĩ ´
éļ ¾
e m
Ġå¯ Ł
ĠæĻ ¯
åĨ µ
Ġåĩ¯åıĳ æľĢæĸ°
Ġå¤© ç©º
Ġæ ¯
åı³ ç¿¼
å°Ķ |
æŃ£ ç½ĳ
å°Ķ æ²ģ
åİ Ĥ
æ ¾³
âĢ ¦
æĺ¯çľŁ çļĦåĲĹ
éĤ® ç®±
ĠæĪ ¿
o re
åĩ ¤
} ,
æ¸ħ |
Ċ åįĹ
æīĭæľº æĬķæ³¨
åľ° åĮº
å¥ Ĺ
Ġé ħ
ĠåĨ ħ
æīĵ ä¸įå¼Ģ
æĿ Ł
åĥ ¹
åĲĪ æ³ķ
åħ¨ éĥ¨
åı¯ éĿł
Ġ$ ("
Ġ20 0
Ġåĩ¯åıĳ k
ä¼ ¦
ĠæĿ ¾
è® ¿
è¿ĳ å¹³
Ġag ä½ĵèĤ²
æ³ ī
æµ ª
Ġè¯Ħ è®º
æĿ ±
ĠæĪ Ĳ
Ī æĿĥ
ĠæĲı å¤©åłĤ
æ¸ ©
Ġ2019 -11
éģ Ĺ
éĸ ĵ
æł ¹
çĮ ľ
æĬ Ĭ
Ġ *
åĳ ³
è¯ į
æĢİä¹Ī ä¹°
Ġ ä»Ĭ
Ċ ä¸ĭä¸Ģç¯ĩï¼ļ
å®ĺç½ĳ åľ°åĿĢ
æ¯Ķ èµĽ
. p
Ġçī¹ èī²
è¡ Ĺ
èİ ·
éĢļ è¿ĩ
ä¹ Į
E T
åľ ³
ĠçľŁéĴ± æ£ĭçīĮ
æµ ©
æģ ©
èµĦ æºĲ
Ċ ãĢĲ
ä¸Ń æĹĹ|
Ġæ±Ł èĭı
Ġå ĸ
Ġæ¾³éĹ¨ ç½ĳæĬķ
Ġæ į
å¥ ĩ
æ¶ ĵ
æķ ĳ
ĠÂ ©
åºĨ |
äº¤ æµģ
ç¹Ŀ ï½
æĢİ æł·
-0 9
è¾ħ åĬ©
åŃ ¸
: 10
g et
Ī |
åį Ī
Ĭ |
Ġåĩ¯åıĳk å¨±ä¹Ĳ
æį ¢
Ġéĵ ľ
æ± ĩ
è¦ģ æ±Ĥ
çĶµ ç«ŀ
çħ §
æĢ» ç»Ł
Ġèµ Ħ
éĿŀ åĩ¡
Ġåħ ĥ
çļ ĩ
ä¸Ń ï¼Į
ä¹ł è¿ĳå¹³
ä¾ ĭ
å³ °
åĪ ·
é ¹
Ġåĩ¯åıĳä½ĵèĤ² ç½ĳåĿĢ
t r
ĠagåĽ½éĻħ åİħ
Ġäºļæ´² æ¸¸æĪı
é ¬
æĻ º
éĩ ĩ
Ġ ç½ĳç«Ļ
ä½ĵèĤ²åľ¨çº¿ æĬķæ³¨
erv ed
çĻ» åħ¥
ĠçĭĹä¸ĩåıĸ æ¬¾
j s
è§Ħ åĪĻ
ä¹Ĳ |
it y
å®īåįĵ çīĪ
ä¸ĸçķĮ æĿ¯
Ġä¹Ĳ æ©Ļ
çĶµ çİ©
ä¸ °
åĪ© çİĩ
æ´¥ |
" );
Ġä½ĵèĤ² å½©ç¥¨365
å² Ń|
:1 4
æī ¹
è´ ´
æ¸¸æĪı ä¸ĭè½½
åıĳ çĶŁ
Ġæĺ¨å¤© 20
Ġéļ Ĩ
: 35
Ġåı ¤
:4 5
: 20
:1 8
Ġå¤©ç©º éĥ¨èĲ½
ĠTI AN
Ġåĩ¯åıĳæĹĹèĪ°åİħ æ³¨åĨĮ
æĸ¹ æ³ķ
:1 2
:1 5
æ¯ į
ĠçĭĹä¸ĩ ä»£çĲĨ
Ġç Ĳ
:2 8
:0 1
ç»Ļ åĬĽ
æķ° æį®
ç« ¹
Ŀ |
Ġæ´ Ľ
Ġ ä¸ŃåĽ½
( );
:2 6
Ġæ ģ
æĢİä¹Ī çİ©
ç² ¥
:0 5
:5 0
âĢĿ ï¼Į
é ½Ĳ
:2 5
a in
åº ķ
:1 6
Ġé ¸
:3 8
Ġ ä¸ĭ
åĽ¾ çīĩ
:5 9
:5 5
:1 1
:4 6
æŃ ¦
:4 0
:3 1
:0 4
:2 4
:0 6
äºº åĳĺ
:1 9
æİ¨ èįĲ
¯ åºĹ
:3 2
å Ĵ
è® ¢
åħ »
èģĶ èµĽ
èĤ¡ç¥¨ |
:1 7
:5 8
:3 4
å¾ Ģ
Ġæĺ¨å¤©1 9
Ġk8 å½©ç¥¨
Ġbet365 å®ĺç½ĳ
:5 2
å¤§åıĳ å½©ç¥ŀ
å»º è®¾
ĠA ll
:4 7
:0 3
ä¸ ²
:2 3
:0 2
:3 9
å Ĺ
:4 4
: 36
å®ī åİ¿|
:4 1
Ġæ £
Ġæĺ¨å¤©0 4
:2 7
:5 3
:5 1
:4 2
:2 2
æĶ »
:2 9
:2 1
:3 3
:5 7
:4 9
Ġk8å¨±ä¹ĲæīĭæľºçīĪ å®¢æĪ·ç«¯
:0 9
:4 8
Ċ æ¾³éĹ¨
:0 8
çļĦ èĢģçīĮ
ĠæĢ İ
:3 7
:4 3
æ® µ
:0 7
t er
Ġ äºº
åĦ ª
:5 6
Ġb y
ä¼ļ åĳĺ
:5 4
åĪĨ å¿«ä¸ī
è½¦ åĬłçĽŁ
Ġçİ° éĩĳ
ç»ĵ æĿŁ
å°¼æĸ¯ äºº
å¥ ¥
2 3
å®¶ ä¹Ĳ
å¼ĢæĪ· ç½ĳåĿĢ
Ġ ç½ĳ
p l
Ġç Ī
ä¹ Ŀ
i te
æĹ¥ æľ¬
Ġæĺ¨å¤©1 7
Ċ æĿ¥æºĲï¼ļ
é¾Ļ èĻİ
Ġè¾ ½
å¸Ĥ åľº
ä» ģ|
åħįè´¹ è§Ĩé¢ĳ
Ġç Ĺ
Ġåĩ¯åıĳ ä¸ĭè½½
Ġè Ĵ
Ġå¸ ¸
ĠåĮĹäº¬ èµĽè½¦
åĨ ²
http ://
p ãĢĳãĢĲ
æĹ §
çĽ® åīį
Ġæĺ¨å¤©0 2
-2 4
éĺ ¿
Ġæĺ¨å¤©0 5
äºĮæīĭ è½¦
Ġæĺ¨å¤©1 4
åĵĪ å°Ķ
201 8
Ġçİ¯äºļ æ¸¸æĪı
æ´» åĬ¨
åĪĨ æİĴåĪĹ
Ġè¾ ¾
éĽ ħ
åŃ ©
éĿłè°± åĲĹ
Ġç ķ
çİ°éĩĳ ç½ĳ
èĴĻ åı¤
å® £
Ġæĺ¨å¤©2 3
å° ļ
æİ¨ èĸ¦
Ġ al
Ġæĺ¨å¤©1 1
åŁİ åİ¿|
æ¼ı æ´ŀ
å®ĺç½ĳ appä¸ĭè½½
éĤĢè¯·çłģ _
æŀ Ħ
æī ĺ
Ġæĺ¨å¤© 10
æķ ħ
t ãĢĳãĢĲ
Ġæµ İ
-0 7
Ġæĺ¨å¤©0 1
æŃ ¦|
çĥ Ī
åįļ å½©
å®īåįĵ çīĪä¸ĭè½½
åĮĹ |
çĲĥ ç½ĳ
è¿ Ŀ
Ķ |
Ġæĺ¨å¤©0 7
v ip
æīĭæľºçĻ»å½ķ ä¸ĭè½½
2019 å¹´
æĹ¶ ï¼Į
è¿Ľ ä¸įåİ»
ht ml
åĿ ĩ
æ´ ĭ
ŀ å®¢
Ġæĺ¨å¤©1 6
Ġæĺ¨å¤©0 9
Ġæĺ¨å¤©1 2
ŀå®¢ éĤ¦
Ġå¤§åıĳ å½©ç¥ŀ
ĠåĪ ©
Ġæĺ¨å¤©0 8
ĠçĹ ŀå®¢éĤ¦
å¸ Į
ç ¸
v er
è§Ĩé¢ĳ åľ¨çº¿è§Ĥçľĭ
: {
å¹³åı° æ³¨åĨĮ
æľĹ æĻ®
Ġæ° ĳ
çĶŁ æ´»
ä¸į æĺ¯
ç¯ ®
äºĳ |
ä¸ ¥
çľŁäºº æ¸¸æĪı
è² ·
p t
æľĢæĸ° ç½ĳåĿĢ
ou r
Ġæĺ¨å¤©1 8
b a
Ġ365betå®ĺç½ĳ å®ĺç½ĳ
ĠèĬ ±
è¯ ī
Ġæĺ¨å¤©0 6
Ġå® £
el se
Ġä¸ĩåįļ ä½ĵèĤ²
çĶ ·
ĠåĲ Į
éļ ı
çĪ °
Ġagçİ¯äºļ çĶµæ¸¸
Ġæ· ®
Ġèĩ ª
e x
ä¸ ¹
åİ ĭ
ä¸ĭè½½ app
ç© ¶
è¾ Ĩ
ĠæĬ ļ
i g
æ³ ½|
ĠçĭĹä¸ĩ èµ¢éĴ±
Ġå¤§åıĳ æŀģéĢŁ
åħįè´¹è§Ĩé¢ĳ _
å¢ ĥ
åģļ çĪ°
Ġä¸Ģ çº§
Ġ u
ac k
ç³» ç»Ł
i le
å·² ç»ı
4 0
æ£ ®
Ġè¡ ¡
Ġèĭ ı
éĤ ĳ|
Ġåĩ¯åıĳæīĭæľº å¨±ä¹Ĳå®ĺç½ĳ
åŁİ å¸Ĥ
Ġæĺ¨å¤©2 2
éĺ ´|
åģļçĪ° çīĩ
é»Ħ çīĩ
Ġåĩ¯åıĳæ¸¸æĪı æīĭæľºçĻ»å½ķ
Ġæ» ļçĲĥ
æīĭæľº ä¸ĭè½½
Ġåĳ ¼
Ġæĺ¨å¤©2 1
çī¹ æľĹæĻ®
Ċäººæ°ĳ ç½ĳ
Ġv isitor
Ċ [
A åģļçĪ°çīĩ
åħįè´¹ é»Ħçīĩ
åħįè´¹è§Ĩé¢ĳ_ åħįè´¹é»Ħçīĩ
åħįè´¹è§Ĩé¢ĳ_åħįè´¹é»Ħçīĩ è§Ĩé¢ĳåľ¨çº¿è§Ĥçľĭ
AåģļçĪ°çīĩ åħįè´¹è§Ĩé¢ĳ_åħįè´¹é»Ħçīĩè§Ĩé¢ĳåľ¨çº¿è§Ĥçľĭ
AåģļçĪ°çīĩåħįè´¹è§Ĩé¢ĳ_åħįè´¹é»Ħçīĩè§Ĩé¢ĳåľ¨çº¿è§Ĥçľĭ 2019
åĵª äºĽ
èĤ ĥ
Ġåĩ¯åıĳå½©ç¥¨app æīĭæľºçīĪä¸ĭè½½
äº ®
è¨ Ĥ
äºļ ç¾İ
Ġç§ĳ å°Ķæ²ģ
n d
Ġåĩ¯åıĳçº¿ä¸Ĭ æīĭæľºå®¢æĪ·ç«¯ä¸ĭè½½
:{ },
3 d
Ġå¨±ä¹Ĳ åĩ¯åıĳ
ç¤¾ ä¼ļ
Ġä¸Ģçº§ AåģļçĪ°çīĩåħįè´¹è§Ĩé¢ĳ_åħįè´¹é»Ħçīĩè§Ĩé¢ĳåľ¨çº¿è§Ĥçľĭ2019
ĠçĶµçİ© åŁİ
ĠéĿ ĸ
æľ ĥ
Ġä¸ º
Ġç ²
æĻ Ĥ
æµ© çī¹
çŃ ĸ
X C
Ġåĩ¯åıĳçº¿ä¸Ĭ æīĭæľºçĻ»å½ķä¸ĭè½½
Ġ2019 -10
æĸĩ åĮĸ
æĦı æĢĿ
Ġæĺ¨å¤©0 3
â ĸ
Ġç ´
éĩį åºĨ
å§ Ĳ
Ġå ¢
ĠæľĢ æĸ°
Ġåľ¨ çº¿
ä¸» é¡µ
å® ľ
åį Ĭ
-0 6
å± Ĥ
æīĭæľº appä¸ĭè½½
Ġç ¬
ãĢĳãĢĲ pãĢĳãĢĲ
Ġ ä¼ļ
Ġç§Ĵ éĢŁ
æĿ Ģ
B log
èĥ İ
Ġ2020-0 1
bet x
Ġå¤§åıĳ å½©ç¥¨
Ġèģ Ķ
L C
Ġéĥ ½
é¥ ®
è´ Ł
Ġéĵ ¶
æľĢæĸ°çĻ»å½ķ åľ°åĿĢ
Ċ 1
Ġ365ä½ĵèĤ²æĬķæ³¨ å®ĺç½ĳ
éķ¿ é¾Ļ
å¸ ģ
Ġé Ł
å± ħ
Ġç® ¡
s c
com Blog
å¤§ å¸Ī
å¨±ä¹Ĳ åŁİ
Ġå¤§åıĳ ä¸Ģ
å¹³åı° å®ĺç½ĳ
çĹ ħ
åħ³ ç³»
æĭ ħ
æŃ£ çīĪ
t t
Ġèħ ¾è®¯
åĵ į
Ġ ï¿½ï¿½
åħįè´¹ ä¸ĭè½½
çº ª
åĭ Ļ
Ġåĩ¯åıĳ ag
æĽ ¾
æļ ´
å¤§åıĳ å¿«3
å¤ļ ä¸ĢçĤ¹
Ċ ä¸Ń
å¥ ¹
å¨±ä¹Ĳ å®ĺæĸ¹ç½ĳç«Ļ
Ġagäºļæ´² æ¸¸æĪı
Ġåĩ¯åıĳapp å®ĺæĸ¹ä¸ĭè½½
äº Ĵ
åŃĺ æ¬¾
çı Ń
Ġåĩ¯åıĳapp æĢİä¹Īä¸ĭè½½
f o
éľĢ è¦ģ
æ¡ ¥
å½ ¢
æ¼ Ķ
çĭ Ĥ
3 8
Ġæĺ¨å¤©0 0
Ġ on
Ġéĵ ģ
Ġæĺ¨å¤©1 5
ĸ |
Ġé Ķ
åı Ī
in e
Ġåħ ĭ
å½ĵ åľ°
Ġåĩ¯åıĳæīĭæľº å®ĺæĸ¹å®¢æĪ·ç«¯ä¸ĭè½½
æĺ ¥|
æ¬§ æ´²
é¬ ¼
æ¢ Ŀ
æĿ Ĳ
çı ł
è± Ĩ
ĠæĢİ ä¹Ī
Ġåĩ¯åıĳå®ĺç½ĳ æīĭæľºçīĪappä¸ĭè½½
çīĽ çīĽ
èĭ¹æŀľ çīĪä¸ĭè½½
Ġå® ĺ
è¾ ĳ
å¥½ å½©
ä¸ ĺ|
å «
2 9
a b
Ġåĩ¯åıĳ æīĭæľºçīĪå®ĺç½ĳ
åº· |
å®¢æľį çĶµè¯Ŀ
" )
Ġæ· ±
æŀ ģ
å¤ ľ
éĶ Ļ
åħ ³|
ç» į
ï¼Į ä¸Ģ
365 ä½ĵèĤ²
èµ Ķ
on g
é£ ¯åºĹ
æķĻ èĤ²
æĸ ¼
æľĢ ä½³
ĠÂ ·
Ġç ĥ
201 7
æŀ ¶
ç½ĳæĬķ å¹³åı°
Ġ} );
Ġè §
çĶ ¸|
ç§ »
Ġé Ĵ
ar t
åĦª æĥł
Ċ201 6
éĵ¶ è¡Į
è° Ī
åĢ Ļ
åĲ ¦
çĶµåŃĲ æ¸¸æĪı
èĮ ĥ
Ġéĩį åºĨ
å¾ ħ
è¿ Ķ
Ġ ]
Ċæĸ° åįİç½ĳ
æ¸¸æĪı ç½ĳåĿĢ
é¾Ļ æ±Ł
å© ļ
Ġçī ĪæĿĥ
ĠåĽ ¾
ãĢĤ âĢľ
Ġæ¾³éĹ¨ å¹³åı°
äº ²
Ċ201 8-0
åĽĽ åħŃ
çĶ ĺ
é¡º |
8 0
Ł |
åŃĲ |
åĮħ åŃĲ
æľī åĵªäºĽ
lo w
Ġæ¹ ĺ
éĺ ħè¯»
Ġäºļæ¸¸éĽĨåĽ¢ å®ĺç½ĳ
Ġç¬ ¬
¥ Ħ
ãĢĳãĢĲ tãĢĳãĢĲ
æĭĽ åķĨ
çĽ Ĭ
ï¼Į ä¸į
r a
Ċ æĹ¶éĹ´ï¼ļ
ĠæŃ£ è§Ħ
om ment
åħ¨ åĽ½
R e
èµļ éĴ±
å®ĺæĸ¹ ç½ĳåĿĢ
ç £
åģ ľ
èŃ¦ æĸ¹
ä¸» å¸Ń
éĽĨåĽ¢ å®ĺç½ĳ
Ġåĳ ¨
éĵ¶ æ²³
æĸ¹ å¼ı
a bo
åıª ä¸º
åĬ ¾
Ċ å¤©
æ©Ł è»Ĭ
Ġ356bet å®ĺç½ĳ
Ġå¤ĸåĽ´ 365
ç§ ¯
ç ·
è¿Ľ åħ¥
ä½¿ çĶ¨
Ġ ï¼Į
ä»ĭ ç»į
æŃ Į
l is
æĬĢ æľ¯
bet 356
åīį æĹĹ|
çĸ ĳ
w i
æĬķ èµĦ
ĠéĹ ¨
åħ ¨å¤©
é¦ Ļ
è´ «
¾ Ħ
æ½ Ń
åħ µ
è Ķ
¹ åŃĲ
Ġåĩ¯åıĳapp å®ĺæĸ¹ç½ĳç«Ļ
Ġæ Ł
ĠC h
i st
æĽ´ æĸ°
èİ ±
o g
æĿ¥ ï¼Į
ä¸ ½
Ġåº ·
å³ °|
ĠåĪ©æĿ¥ åĽ½éĻħ
ãĥ »
Ċ 2
åľ¨ åĵª
Ġå ³
66 6
å® ¿
Ċ2020-0 2-2
å® «
Y X
Ġåĩ¯åıĳä½ĵèĤ² å®ĺç½ĳä¸ĭè½½
Ġåį ģ
æĹı èĩªæ²»
å¼¹ åĬ¾
-2 9
ç¯® çĲĥ
åĪĨ å¿«ä¹Ĳ
Ġå¿ ħ
ç»ĵ ç®Ĺ
Ġå Ķ
çľŁ åģĩ
æ» ¡
0 4
èĢģ èĻİ
æ±Ł åİ¿|
çĻ¾å®¶ å®¶ä¹Ĳ
è®¡åĪĴ _
on t
ĠçĭĹä¸ĩåıĸ çİ°
Ġï¿½ éİıçĦ¯
Ġ365 è¶³çĲĥ
Ġbet365 ä½ĵèĤ²æĬķæ³¨
éĴ ¢
åĵ ¥
è¥¿ èĹı
Ċ æµ·
ï¼Į æĪĳ
æĢ ¥
èµĦ è®¯
Z S
è°ĥ æŁ¥
Ċ æ±Ł
é ¼
ç´ ł
äºĳ åįĹ
Ġæ³ ¸
10 0
äº§ åĵģ
Ġ2020-0 2
ĠçĶµåŃĲ æ¸¸æĪı
çĽ Ľ
éĢģ å½©éĩĳ
-2 5
è° ģ
om e
ç½ ª
æĭī çī¹
Ġ365ä½ĵèĤ² å½©ç¥¨
at us
Ġ Ð
æĽ ¸
åªĴ ä½ĵ
çª ģ
ĠçľŁäºº èµĮéĴ±
Ġè ĳ
-0 8
ç½ĳ _
ã Ĥ
ĠåĪ©æĿ¥ åĽ½
å¼Ģå¥ĸ è®°å½ķ
åĩ °
åŃ¦ éĻ¢
P K
åĪ ĺ
Ġæ ¨
Ģ |
Ġç ¹
ĠR es
ĠæĻ ĭ
è´´ åĲ§
ç«ŀ çĮľ
Ċ Â·
o b
èĳ¡ äº¬
e ãĢĳãĢĲ
Ġå¦Ĥ ä½ķ
æĥħ åĨµ
çī¹ é©¬
èģĶ ç³»
Ġåĩ¯åıĳæľĢæĸ° æīĭæľºçĻ»éĻĨ
Ġ am8
ur n
åħ¬ å¼Ģ
Ġ$(" #
Ġæ¬ ¡
å¿« éĢŁ
åħ¶ ä»ĸ
æľŁ æľŁ
Ċ æĹ©çĤ¹
.com /
å®ģ åİ¿|
Ġ at
çļĦ ä¸Ģ
20 æĹ¥
ĠçīĪæĿĥ æīĢæľī
ï¼ļ âĢľ
Ġ2 4
æ´ ¾
as s
å¿« é¤Ĳ
èº« ä»½
èĲ ¨
ä¸ĭ æ³¨
Ġæ£ ĭçīĮ
éļ Ĩ|
Ġåĩ¯åıĳå®ĺæĸ¹ æīĭæľºçīĪ
Ġag è§Ĩè®¯
Ġ Ġ
éĤ® ä»¶
åħŃ åĲĪ
ä¸¾ æĬ¥
Ġ ï¿½ï¿½ï¿½ï¿½
Ġå½©ç¥ŀäºīéľ¸ 8
çĻ¾ åº¦
ç§ĳ æĬĢ
ä¸ĩåįļ app
Ġå¨±ä¹Ĳåĩ¯åıĳ appä¸ĭè½½
åĪĨéĴŁ pk10
¶ |
æĶ¯ æĮģ
åĿ ĳ
Ġå¹ ´
-2 6
æĺİ |
Ċ åĮĹäº¬
ç»´ æĬ¤
å±± å¸Ĥ|
Ġè ·
ĠS t
ĠäºļæĲı å¨±ä¹Ĳ
çĶŁ èĤĸ
man betx
Ċ åıĳå¸ĥ
åĹ İ
åįķåıĮï¼ļ å½©ç¥ŀ
6 0
Ġç®¡ å®¶å©Ĩ
Ġå¤§åıĳ äºĶ
Ġåĩ¯åıĳæīĭæľº å®¢æĪ·ç«¯ä¸ĭè½½
éĢ ı
æĹ©çĤ¹åĬłçĽŁ åºĹ
ç» Ī
Ġ ä½ľèĢħï¼ļ
Ġå² ³
ã Ħ
éĻ Ħ
Ġå¥½ è¿Ĳ
çĻ»å½ķ ä¸ĭè½½
Ġå¼ł å®¶
p p
Ġag æīĭæľº
Ġæ ¾³
å® ³
åī ¯
ĠæĹ©çĤ¹ å°ıåĲĥ
ç» Ŀ
åįģ åĪĨ
å®īåħ¨ åĲĹ
q u
æĢİä¹Ī çľĭ
ä¼ ¤
ĠçĪ ±
ĠåĽ º
Ċ ç¬¬
è³ ĩ
è¾ĵ éĴ±
7 0
Ġâ ĨĴ
å¡ ŀ
åĽ½éĻħ å¹³åı°
Ļ æ±Ł
Ġif (
éģ Ĭ
Ġåĩ¯åıĳ çĽ´æĴŃ
ä¸Ń å¤®
çŃ Ķ
æī §
åĶ ¯
Ġéħ Ĵ
ä¸º ä»Ģä¹Ī
ĠçĭĹä¸ĩ app
:2 ,
. t
åĵª å®¶
éĿ ©
æ±½ è½¦
ãĢĤ åľ¨
Ġæĸ° éĹ»
Ċ âĢ
ç³» åĪĹ
Ġ <
ĠèģĶ ç³»
ãĢĤ æį®
æ¶Ī æģ¯
Ġéľ į
å¾ ģ
a x
æŃ ¢
ç²¾ åĩĨ
å·¥ç¨ĭ åĬłçĽŁ
èģĶ åĲĪ
Ġé¹ ¤
æĹ¶éĹ´ :
åı³ æĹĹ|
201 6
ĠçĤ ¹
Ċ Â
è¯ķ çİ©
èµ ŀ
æĤ¨çļĦ å½ĵåīįä½įç½®ï¼ļ
re s
Ġåĩ¯åıĳæľĢæĸ°çĻ»å½ķ ç½ĳç«Ļ
es s
Ġåħ °
-0 1
åģ ¥åº·
Ġäºļç¾İ ag
æĬķæ³¨ å¹³åı°
éĵ º
im e
åĸ ľ
ĠäºļæĲı ä½ĵèĤ²
ä»· æł¼
Ġ ï¼Ī
äº Ń|
6 åĲĪ
I N
æŁ¥ è¯¢
çļĦ âĢľ
Ċ 3
Ġ1 åĪĨå¿«3
Ġ ë
Ġæį ķé±¼
ĠI n
çļ ®
èĪ ¹
ä¹ ī|
Ċ2020-0 4-0
ï¼Į âĢľ
æĢ» ä»£
ä¸ ĥ
ç§ ĺ
§ ï½
éĻ į
Ġam8 äºļç¾İ
è· Ł
éĩį è¦ģ
åĪ© |
å¹¿ æĴŃ
æĽ² |
Ġbet365 ä½ĵèĤ²åľ¨çº¿
æ¢Ŀ ä»¶
Ġåĩ¯åıĳå®ĺç½ĳ ä¸ĭè½½
Ġèİ ±
Ġå ĭ
0 5
H N
çĤ ¸
åĲ ¬
Ġå ¡
Ġæ ¦
Ġç ĳ
åĭ ķ
Ġåİ Ł
Ġde t365
0 ,
éģĹ æ¼ı
æµ ¦|
è ľ
st atus
th is
ä¸ĵ ä¸ļ
æ³ °
ac h
Ġæµ ¦
è¾¹ |
çĪ Ĩ
æľĢ å¿«
è® ²
Ċ å½ĵåīįä½įç½®ï¼ļ
éĶ ®
åĵĪå°Ķ åı³ç¿¼
è© ķ
çĽ´ èĲ¥
æĭ ¿
åĢ ĭ
Ġå¯Ł åĵĪå°Ķåı³ç¿¼
ç¦ ģ
Ġæĺ ¥
- 30
d ata
è¾¾ |
çłĶ ç©¶
k8 å®¢æĪ·ç«¯ä¸ĭè½½
ä¼ ¼
å·¦ ç¿¼
Ġ2020-0 3
Ċ201 8
å¼ı æĹ©é¤ĲåĬłçĽŁ
ĠåĽ½éĻħ åĪ©æĿ¥
æĺ¾ ç¤º
p c
ĠæıĲ çİ°
è´ ¥
Ġbet365 è¶³çĲĥ
å¿ µ
4 8
Ġæī İ
ay ou
Ġåĵ ģ
çļĦ ç½ĳåĿĢ
çļĦ äºº
Ġè ĥ
E R
Ġåĩ¯åıĳçº¿ä¸Ĭ å¼ĢæĪ·
i O
åĪ ¤
æĺ¯ åĵªä¸ª
éĢī äºĶ
åĪĨ é£ŀèīĩ
èĦ ±
éĶ Ľ
m in
h ow
Ċ2016 :
a k
é į
Ġ x
æĻ® äº¬
åĲİ æĹĹ|
ç²¾ éĢī
å¤© åīį
ī åİ¿|
Ġè ±
Ġ2019 å¹´
4 5
åį ĸ
Ġæ Ł³
Ġåħ «
666 k8å®¢æĪ·ç«¯ä¸ĭè½½
Ġåĩ¯åıĳçº¿ä¸Ĭ å¹³åı°
è± ¹åŃĲ
Ġåĩ¯åıĳ 666k8å®¢æĪ·ç«¯ä¸ĭè½½
åı· çłģ
Ġ2019 -12
å½© äºīéľ¸
è´ ¸
Ġåı ¯
Ġæ¸ ©
è°· |
Ġçİĭ ä¸Ńçİĭ
åĽ °
Ġäºļ åįļ
h one
é¬¼ éħĴ
Ĉ ą
éĥ½ å¸Ĥ
ç»ĻåĬĽ çļĦèĢģçīĮ
éħĴ é¬¼éħĴ
Ġåĩ¯åıĳç½ĳ å¨±ä¹Ĳå®ĺç½ĳ
ķ è¥¿
äº¤æµģ ç¾¤
ä¸ ´
éĥ¨ åĪĨ
Ċ å¹¿
ĠåħŃ åĲĪ
Ġå §
ĠâĢ º
åĶ¯ ä¸Ģ
æ¯ĶåĪĨ çĽ´æĴŃ
é Ń
Ġåĩ¯åıĳç½ĳå¨±ä¹Ĳå®ĺç½ĳ å®ĺç½ĳçĻ»å½ķ
çīĪ æľ¬
åıĳ è¡¨
è· ĳ
ĠåĶ Ĳ
èİ «
Ġåĵ Ī
éĩĳ èĬ±
æĪĲ åĬŁ
å¤ļå°ĳ éĴ±
3 3
æĶ¶ ä¸įåĪ°
10 æľĪ
v al
è¡Į ä¸ļ
åįģ ä¸Ģ
i ãĢĳãĢĲ
Ċ2020-0 1
u d
In fo
éĥ¨ éĹ¨
çĬ ¯
Ġéģ Ĥ
Ġåĵ ª
çİĭ ä¸Ńçİĭ
åĽĽ å·Ŀ
å½ Ĵ
Ġéĺ¿ æĭī
éĩĮ |
é» ĺ
* *
Ġçİ ©
åĮĹ æĹ©é¤ĲåĬłçĽŁ
æ¶ ī
0 1
ĠT he
Ŀ ç¦»
Ġæ¾³éĹ¨ æ£ĭçīĮ
in k
æħ ¢
a re
Ġ )
çĽ Ĵ
ï¼Į ä¹Ł
å¹ ķ
åı¯éĿł åĲĹ
Ġé £
æīĭæľºçīĪ app
Ġç ¿
ä»Ĭ å¤©
çļĦ ç½ĳç«Ļ
è¾ ĥ
Ġå¤§åıĳ ä¸ī
Ġå¤§åıĳ äºĮ
ä»Ĭ å¹´
¯ çĭĤ
åº §
è¿Ļ ä¸ª
Ċ 4
è¡ £
Ġåįļ å½©
Ġçĳ ŀ
ĠåĮ ħ
Ġåħ į
åħ¬ å¼ı
it h
Ġäºļç¾İ agæĹĹèĪ°åİħ
Ġp ub
åĪ Ŀ
ä¼ Ł
Ġåĩ¯åıĳä½ĵèĤ²app å®ĺç½ĳ
Ġy ayou
æľ Ŀ
è®¤ ä¸º
ar d
æĹ¥ åįļ
Ġæ´ ª
æ¬¢è¿İ æĤ¨
å½©ç¥ŀäºīéľ¸ 8
Ġåģ ¥åº·
Ġèĵ Ŀ
æī ¿
Ġå½ Ń
Ġå®ī åįĵ
er t
Ġéĺ ħè¯»
è½ ®
å¤©å¤© å¥½å½©
al l
Ġé¦ĸ é¡µ
Õ ¡
æ¨ Ļ
Ġ= =
-0 5
r om
éļ Ĩ
ol low
æĲı å¤©åłĤ
çŁ¥ éģĵ
çĩ ķ
æ·± åľ³
Ġåĩ¯åıĳç½ĳåĿĢ å¨±ä¹Ĳ
ĠæĿ Ń
åįĹ åİ¿|
æĵ į
Ġçİ°éĩĳ ç½ĳ
Ġå¢ ¨
r k
Ġ365ä½ĵèĤ²æĬķæ³¨ è¶³çĲĥ
çĻ¼ è¡¨
ac e
Ġè ¥Ħ
Ġéº »
çľ ¼
æłĩ åĩĨ
Ġæµ ıè§Ī
åħ¬ éĩĮ
Ġ ä¸ĭä¸Ģç¯ĩï¼ļ
åŃ £
ï¼Į ä»ĸ
åĲ ī|
ĠçĶ ³
Ġ5 åĪĨå¿«3
ĠçľŁäºº çĻ¾å®¶ä¹Ĳ
Ġb tt
a W
éĿĴ æµ·
Ġå ī
APP ä¸ĭè½½
h b
æ¡ ĥ
ï»¿ ï»¿
å¼Ģå¥ĸ çİ°åľº
æ ĩ
Ġæ ĳ
çŁ Ń
Ċ ä¸ľ
Ġå½© ç¥¨
Ĳ |
åĪ ĩ
Ġå ŀ
Ġèµ ¤
éĸ ĭ
éģ Ń
r ou
Ġæľ Ľ
éĽ ¨
ä¸Ĭ æµ·
åľ Ĵ
Ċ æĤ¨
ç¤ ¼
æĹ§ çīĪ
¤ |
åī §
p ort
Ĥ |
åĿ ļ
ä¹° çĲĥ
å§Ķ åĳĺ
ĠåŁ İ
Ġæ¾³éĹ¨ ç½ĳä¸Ĭ
åĿ Ŀ|
Ġ201 5
ä¹¦ è®°
è®¾ è®¡
ĠæĿ ¨
åıĸ æ¬¾
i ll
Ġå± ı
åıĳ çİ°
è¯ ¯
è¼ ĥ
-2 7
Ġç ¼
è± ¡
æĸ Ń
Ġç ¤
ĠçĤ¹ åĩ»
Ċ2019-0 9
åĲĪæ³ķ åĲĹ
Ġèĭ± åĽ½
Ġç ĵ
Ġæ¼ ³
å®ģ å¤ı
Ġå¿« 3
Ċ é¦Ļæ¸¯
è² »
ł èıľ
æīĵ å¼Ģ
ĠæĿ İ
çļĦ ãĢĳãĢĲ
Ġåĩ¯åıĳ éĽĨåĽ¢
¼ åĲĪ
çİ Ħ
ç¨ İ
èĥ Į
ãĢĳãĢĲ eãĢĳãĢĲ
ç§Ĵ éĢŁ
ä¼ ´
Ġæ º
© |
å½©ç¥¨ å¹³åı°
ew s
æĭ ¾
ĠèģĶç³» æĪĳä»¬
èĵ Ŀ
ï¼Į æĺ¯
è´ Ŀ
åı¯ èĥ½
Ġ356bet è¶³çĲĥ
-2 8
Ġ365betå®ĺç½ĳ è¶³çĲĥ
9 8
3 D
ic e
ĵ |
Ġç¥ ģ
i v
å¥½ è¿Ĳ
Ġ http://
åĽ½éĻħ å®ĺç½ĳ
å¹³åı° ç½ĳåĿĢ
Ġäº ¤
Ċ T
ĠR ight
ï¼Į ä»¥
åĨ Ļ
ãĢĳãĢĲ çļĦãĢĳãĢĲ
ĠéĤ µ
åĤ µ
Ġ365betå®ĺç½ĳ ä½ĵèĤ²
o od
å·ŀ æĸ°éĹ»ç½ĳ
ç¨³ å®ļ
åĪĨ äº«
é «
åı£ è¯Ģ
å¤§ æĪĺ
âĢĶ âĢĶ
ĠçĭĹä¸ĩ ä½ĵèĤ²
ĠâĢ ¢
Ġæĺ İ
Ġè¯Ħè®º (
èµĶ çİĩ
ï¼Į èĢĮ
æ¯ Ľ
c k
ĠäºĮ åĽĽåħŃ
éļ ľ
Ġç² ¾
å¤§ åĪ©
æľī ä»Ģä¹Ī
Ġæ¢ ħ
æĭ į
Ġç« ĭ
å°ıé¡į åĢŁæ¬¾
çģ ¯
åĿ Ĭ
äº ¡
ç» ĩ
æ³ °|
çŃ¾ ï¼ļ
Ġç ľ
æĿ ¾
æ¥ ļ
Ġåĩ¯åıĳä½ĵèĤ²app æīĭæľº
ç» §
Ġåĵģ çīĮ
å¼Ģ å§ĭ
åĪĨéĴŁ æĹ¶æĹ¶å½©
t urn
Ġä» ģ
Ġä¹Į æĭīçī¹
å® ĥ
Ġç ¶
Ġre s
å¯ ¿|
h m
åŃ¦ çĶŁ
æŃ£ åľ¨
æľĢ å¤§
éĥ½å¸Ĥ æĬ¥
ä» ¤
ç Ģ
åĮ» éĻ¢
ï¿½ï¿½ï¿½ï¿½ ï¿½
.8 ä¸ĩ
Ġé¢ Ŀ
Ġå® ¿
Ċ2017 :
Ġå±± ä¸ľ
Ġåĩ¯æĹ¶ AG
Ġ365bet è¶³çĲĥ
ĠåĪĨ åĪĨå½©
Ċ æ²³
Ġå½ ĵ
ä¸į åĥı
Ċ â
åĮº æĸ°éĹ»ç½ĳ
Ġç ĸ
åº Ń
èµĮ åŁİ
Ġç± ³
Ġåĸ Ģ
åĩ¤ åĩ°
Ġåĩ¯åıĳåľ¨çº¿ çĻ»å½ķä¸ĭè½½
Ġlo f
Ġ365ä½ĵèĤ²æĬķæ³¨ ä½ĵèĤ²
Ġ365bet ä½ĵèĤ²
æ¡ ¥|
i z
Ġæĺ¥ åħī
åŁ¹è®Ń åĬłçĽŁ
å± ı
-10 0,
é©¬ |
rk :
rk: -100,
status :'
Info :{},
ä¼ Ĭ
æĪ¿ è²¸
åįİ ç¤¾
ĠéĽ Ħ
re sp
O T
Ġ3 åĪĨå¿«3
åħ³ äºİ
æĽ´ å¤ļ
é¡ ¶
åħ¨ çĲĥ
or d
Ġä½ Ľ
3 .0
è ¿½
æľĢ ä½İ
365 æ£ĭçīĮæ¸¸æĪı
ä¸Ń çī¹
éĶ ¦
ĠRight s
ĠåĪ©æĿ¥ èĢģçīĮ
éĽ ·
ç¹ §ï½
5 00
Ġ _
I m
Ġ365betå®ĺç½ĳ ä½ĵèĤ²åľ¨çº¿
i al
Ġåħ ³
ãĢĤ è¿Ļ
H Q
èĭ± åĽ½
ĠçĭĹä¸ĩ (
ä¸ĭè½½ åľ°åĿĢ
Ġæ¡ Ĥ
9 0
æ¶Ī è´¹
äºº çļĦ
Ġçİ¯äºļ å®ĺç½ĳ
Ġ ç½ĳç»ľ
LC J
åº ı
Ġåº Ĩ
n g
äºĨ ä¸Ģ
ä¸Ģ çĽ´
h er
ĠæĬ ķ
Ġå¾ Ĳ
an t
ä»¥ ä¸Ĭ
å² Ń
Ġæ Ł¥
éł ģ
a v
Ġæ½ ®
å« Į
an y
Count :0,
u ment
çľ ģ|
æµ Ĩ
åħ¬ å®ī
ä»Ĭ æĹ¥
Re comBlog
2 6
åł ´
Ġ ãĢĤ
Ġåı° åĮĹ
Ġå ľŁ
Ġäºļæ¸¸ æ¸¸æĪı
U U
£ |
è¯ Ĩ
ãĢĤ ï¼Ī
å°ı å§Ĳ
) {
ĠèĤ ĩ
åĨħ å®¹
C B
æĲľ ç´¢
U s
. get
æĹ¶ æĬ¥
å£° æĺİ
- 31
éĽĨ |
Ġåĩ¯åıĳ AGæĹĹèĪ°åİħ
19 æĹ¥
o ãĢĳãĢĲ
è®® éĻ¢
i e
æĶ¿ æ²»
Ġåħ ¶
Ġå Ģ
åĵªå®¶ å¥½
a ãĢĳãĢĲ
ã ģ
Ċ2019 å¹´
Ġé«ĺ éĽĦ
Ġäºļæ¸¸ å®ĺæĸ¹
æ³¨åĨĮ ç½ĳç«Ļ
æĦ ¿
a i
Ġé¡ º
7 8
' ).
Ġ ï¼
æŀ ª
çı ¾
ĊâĢ ¢
om p
Ġå Ĵ
Ġé ¥
åħ³ éĶ®
Ġæī ĺ
çĶµèĦĳ çīĪ
è§ Ĵ
Ġåĩ¯åıĳagæĹĹèĪ°åİħ æīĭæľºå®¢æĪ·ç«¯
ç» Ĩ
çĬ ¶
åĳ ¼
è´µ å·ŀ
åĪ ¸
Ġå Ń¦
10 åĪĨ
å° ½
Ġæ¡ ĥ
Ġç Ń
ĠèĲ ¥
ĠçĻ¾å®¶ä¹Ĳ çľŁäºº
Ġæ° ´
Ġæ³ ķ
æĬ¥éģĵ ï¼Į
Ġå¤§åıĳ åĪĨåĪĨå½©
çİĦ æľº
éĺ ħ
ĠRes erved
e b
Ġy ou
ä¼ ĳ
0 8
oc ument
en g
äº¤ éĢļ
ì Ŀ
åĪ »
è¯Ħ ä»·
äºļ åįļ
èĢģèĻİ æľº
æĶ» çķ¥
Ġ365ä½ĵèĤ²æĬķæ³¨ ä½ĵèĤ²åľ¨çº¿
çĻ»å½ķ ç½ĳåĿĢ
Ġæĸ ¹
æľº æŀĦ
a o
ãĢĢ ãĢĳãĢĲ
çĵ ¦
11 æľĪ
Ġè¡ Į
O S
ä¾ Ĩ
ãĢĳãĢĲ iãĢĳãĢĲ
0 ãĢĳãĢĲ
Ġçİ Ľ
se t
å¤® è§Ĩ
èħ ¾è®¯
ĠèĢ ģ
çĭ ¬
ĠæĹ ħ
Ġæĺ Ń
è¾ ¦
è° ¢
0 6
l d
21 æĹ¥
èµĽ äºĭ
èī ¯
æĪĲ ä¸º
å·´ å°Ķ
çī¹èī² æĹ©çĤ¹åĬłçĽŁ
éĢī ä¸ĢèĤĸ
æİ ¢
Ġå¤§åıĳå¿«ä¸ī æĺ¯
åįİ |
é¢Ħ è®¢
æĢİä¹Ī åĬłçĽŁ
0 9
åľ¨ åĵªéĩĮ
å¤ĸ æĮĤ
pk æĭ¾
Ġt ype
" ;
ç¨³ èµļ
Ġç ł
è¾ £
l ass
éģ ĩ
Ġæ¾³éĹ¨ æŃ£è§Ħ
å¼Ģå¥ĸ åİĨåı²
Ċ P
æ³ ½
Ġæ¦ Ĩ
Ċ æ¹ĸ
Ġ j
Ġbtt 918
å·´å°Ķ èĻİ
ĠçĻ¾ åº¦
åĲ ´
çĳ ŀ
Ġ right
ĠM B
ä¸Ń å¥ĸ
èĢ ³
.6 ä¸ĩ
åķĨ æĬ¥
æĹ¶éĹ´ï¼ļ 2019
æīĭæľº ç½ĳåĿĢ
s :
æ¢ ħ
äº¬ æĬ¥
åįļ å®¢
ä¼ Ļ
Ġåı° ä¸Ń
å¿ ĺ
æľŁæľŁ åĩĨ
Ġæľ Ŀ
ĠæĶ ¶
---- ----
Ġå¤ ı
Ġä¸º ä»Ģä¹Ī
Z H
.5 ä¸ĩ
Ġæł ĩ
Ġ356bet ä½ĵèĤ²
Ġå¾ ®
Ċ åįİ
ĠçľŁäºº æ¸¸æĪı
æįķé±¼ æ¸¸æĪı
èĲ ¬
åŁİ å¸Ĥ|
Ġä¸ĸ çķĮ
ä¿¡çĶ¨ è²¸æ¬¾
-0 3
éģ İ
Ġæ¯ Ķ
æ½ Ń|
ĠæĲıå¤©åłĤ 918
I C
æĳ Ħ
åįģä¸Ģ éĢīäºĶ
.2 ä¸ĩ
Ġ2 åĪĨå¿«3
Ġåĩ¯åıĳapp å®ĺç½ĳ
le ment
ĠèĴ Ļ
à¸ ²
åī µ
Ġæ ļ
æ¼ «
å° Ī
ç» ¼åĲĪ
æĸ¯ |
Ġbet36 ä½ĵèĤ²
ĊÂ ©
è¿ĺ æĺ¯
a a
Ġå¯ ¿
è¿Ŀ æ³ķ
Ġå®ī å¾½
æĸ¹ |
Ġæ ¿
Ġåı ĭ
Ġå· ¥
çŁ ³|
Ġ918 æĲıå¤©åłĤ
çĤ¸ éĩĳèĬ±
åĨ Ī|
AG æĹĹèĪ°
Ġæ³ Ĺ
å¤§å¸Ī èµĽ
ç© Ĩ
Ġ else
è¿ ª
éĥ Ń
Õ¡ Õ
æŃ£ æĸĩ
éĩ İ
M T
äºĮ åħ«
æºĲ :
ĠæĹ©çĤ¹åĬłçĽŁ åºĹ
Ġèĭ ¹æŀľ
ĠçĭĹä¸ĩ æĢİä¹Ī
Ċ ãĥ»
åĽł ä¸º
id e
Ġ 2020
è§£ åĨ³
Ġ365bet ä½ĵèĤ²åľ¨çº¿
Ġå½©ç¥ŀ 8
å¡ ĺ|
è®¾ å¤ĩ
äºĮ èĥİ
0 3
å¤ĩçĶ¨ çĻ»å½ķ
¿ è¿Ĳ
.9 ä¸ĩ
Ġå¼Ģåħĥæ£ĭçīĮ æľī
æīĭæľº å¨±ä¹Ĳ
Ġéĺ¿ åħĭ
ãĢĳãĢĲ ãĢĤ
Ġw ith
Ġå¥ ī
èį£ |
.3 ä¸ĩ
Ġçİ¯äºļ çľŁäºº
ĠæĹ¶ éĹ´
ĠB e
å·ŀ å¸Ĥ
åŃ© åŃĲ
ĠéĻ Ĩ
åĿ ª
æ£ĭçīĮ æ¸¸æĪıå¹³åı°
Ġç§ĳå°Ķæ²ģ å·¦ç¿¼
Ġäºļç¾İ åĽ½éĻħ
åĮº æĶ¿åºľ
Ġ356bet ä½ĵèĤ²åľ¨çº¿
è½ »
è¾ĵ äºĨ
.7 ä¸ĩ
å¤± è´¥
æĸ° |
æ²Ļ |
éĻ Ī
Ċ 5
ĠæĹ¶ æĹ¶å½©
.1 ä¸ĩ
ä» į
éĽ ª
è¡Į æĶ¿
Ġbet365 æ»ļçĲĥ
u p
å» ¶
ĠåĪ©æĿ¥æľĢ èĢģçīĮ
Ġ äº¬
ä¸¾ è¡Į
ĠéĻ Ī
çĸ Ĺ
i es
.4 ä¸ĩ
äºº ï¼Į
Ġæ²³ åįĹ
Ġå¤ ļ
Ġäº ķ
è Ĩ
è£ ¡
w v
âĢĶ å¤§åıĳæĹ¶æĹ¶å½©
w d
æ¸ ¡
Ġre turn
æ¯Ķ è¼ĥ
Ġb log
å¼ı æĹ©çĤ¹åĬłçĽŁ
æ¬¡ æķ°
Ġh m
ç¬¬ äºĮ
çĶĺ èĤĥ
ç§ ģ
è®¿ éĹ®
al t
æİ§ åĪ¶
ĠçľŁäºº çĻ¾å®¶å®¶ä¹Ĳ
Ċ ä½ľèĢħï¼ļ
Ġ ä¿¡
ç² ī
å®ī å¸Ĥ|
Ġè Ļ
Ġåĩ¯åıĳçľŁäºº æ¸¸æĪı
é ī
è®¡åĪĴ è½¯ä»¶
åį ´
åĽ½éĻħ å¨±ä¹Ĳ
çĶ¨ æĪ·
Ġæ² ģ
ç¼ĸ è¾ĳ
ä¼ ¯
æĸ¹ éĿ¢
ĠæĹ©é¤Ĳ ç²¥
9 4
Ġç £
Ġåĩ¯åıĳç½ĳ å¨±ä¹Ĳå®ĺæĸ¹ç½ĳç«Ļ
åĿ ª|
çº¿ è·¯
å¹³åı° å¼ĢæĪ·
åĭĴ |
çĶŁ äº§
ä» ģ
é©¬ ä¼ļ
åĮĸ åİ¿|
Ġæ¾³éĹ¨ æĸ°
âĢĿ çļĦ
Ġå¤§ åĲĮ
é»ĳ é¾Ļæ±Ł
Ġå°Ĭé¾Ļ ag
å®ī å¾½
çĮ ®
Ġé ²
Ġäºļæ¸¸å®ĺç½ĳ éĿŀåĩ¡
Ġag åľ¨çº¿
äºº å·¥
Ġåĩ¯åıĳæĹĹèĪ°åİħæ³¨åĨĮ ä¸ĭè½½ç½ĳåĿĢ
åĵªä¸ª å¥½
ï¼Į æľī
Ġå¼Ģåħĥæ£ĭçīĮ æĺ¯
Ġä¸ĩåįļ manbetx
æ ¾
æĿ¥ çļĦ
çĶ³ è¯·
å·ŀ æīĳåħĭ
ĠåĪ©æĿ¥ å®ĺç½ĳ
åĢŁ è²¸
a st
æ²³ åİ¿|
Ġ 36
æ³¨åĨĮ ç½ĳåĿĢ
çĮ «
-0 4
åĪĨæİĴåĪĹ 3
Ġright s
ĠçĲ ¼
1 )
Ġèĭ į
Ġäºļæ´²æ¸¸æĪı ag
Ġæ¢ ģ
_ _
æµ ¦
ä» ħ
ĠæŀģéĢŁ å¿«3
åĪ ļ
å®ĺæĸ¹ å¹³åı°
Ġæ Ħ
Ċ2019-0 8
ĭ |
èı ²
å¹´ ï¼Į
į |
ä¸į ä¸Ĭ
Ġäºļæ¸¸éĽĨåĽ¢ ç½ĳç«Ļ
æĺĮ åİ¿|
Ġæīĭæľº çĻ¾å®¶ä¹Ĳ
ĠèĪ Ĵ
èĽĭ èĽĭ
ĠåŃ Ł
Ġåľ °
ĠåĪ©æĿ¥w66 å®ĺç½ĳ
ä»£ è¡¨
ï¼Į æĤ¨
åĪ ĳ
3 åĪĨå½©
Ġäºļç¾İ æ¸¸æĪı
ĠæŁ¥ çľĭ
Ġç Ħ
od e
Ċ ä¸ī
å¨ģ å°¼æĸ¯äºº
åĽĽ ä¸įåĥı
åĽ º
äºĭ ä»¶
Ľ |
Ġè ¨
Ġç ¨
0 )
.0 ä¸ĩ
çĪ ¾
èĪ Ĵ
§ åİ¿|
å ´
æµ©çī¹ |
å½± åĵį
Ġæ± Ŀ
ä¸Ĭ ä¸įåİ»
æĶ¯ ä»ĺ
åħįè´¹ èµĦæĸĻ
2 7
æŃ£ å¼ı
å¤ļ |
Ġæī ¶
Ġå¤ į
æł ĳ
Ġå³ ¨
Ġæĳ Ħ
Ġ 66
Ġè¶³ å½©
åĪ° äºĨ
æīĭæľº å¹³åı°
éĹ Ń
ä¸ĭè½½ å®īè£ħ
Ġæĺ Ł
Ġå°Ĭé¾Ļ å®ĺç½ĳ
è ĭĹ
Ġå¤§åıĳ pk10
å¹³ åİ¿|
å¯Ĩ çłģ
æµ Ļæ±Ł
u cc
ĠéĻ ĩ
éĽ ¶
ä¸» ç®¡
å·Ŀ åİ¿|
å¤Ħ çĲĨ
éĿĴ |
æ°´ åİ¿|
Ġæ³ ¨
ä½ Ľ
Ġ2019-0 9
XC 9
f unction
æī £
Ċ ä½ľèĢħ
ĠçĻ¾å®¶ä¹Ĳ åľ¨çº¿
é² ľ
Ġä¹ °
Ġåº ĵ
å¸Į æľĽ
Ġé» Ķ
ç» ¿
I D
Ġagçİ¯äºļ å®ĺç½ĳ
ç¿ »
ĠéĽ Ĩ
L E
ic k
Ġå°Ĭé¾Ļ å¤ĩçĶ¨
å®Ŀ åħ¸
æ» ¨
Ġd ocument
Ġå µ
åĩ ı
åı¯ä»¥ æĮī
ä¸Ńæĸĩ çīĪ
æŃ£è§Ħ åĲĹ
æİĴ åĲį
Ġæĭ ī
å¿ħ ä¸Ń
çĤ º
æĹ¶ åĢĻ
æµ ľ
å·² ç»ĵæĿŁ
łèıľ äºº
âĸ ³
ī å±±|
+ 4
Ġåĩ¯åıĳå½©ç¥¨ é¦ĸé¡µ
Ġåĩ¯åıĳä½ĵèĤ² å®ĺç½ĳappä¸ĭè½½
Ġåĩ¯åıĳ å¼ĢæĪ·
å¸ ®
ĠèĤ ĥ
ĠæĪ¿ å±ĭ
ç¤¾ åĮº
ĠåĪĨ ç±»
ï¼Į æĪĳä»¬
Ġ2 5
Ġï¿½éİıçĦ¯ ï¿½
å½© ç½ĳ
ãĢĳãĢĲ oãĢĳãĢĲ
ĠAGçİ¯äºļ éĽĨåĽ¢
P S
Ġæľ Ī
Ġä¸´ æ²
Ġç¦ı å»º
Ġéĵ¶ æ²³
å¾Ī å¤ļ
Ġå¤©æ´¥ æĹ©çĤ¹åĬłçĽŁ
d e
Ġæ¡ Ĳ
Ġæ ¾Ħ
Ġag æ¸¸
ç« ¥
Ċ åĩ¤åĩ°
åĽŀ è¡Ģ
alt +4
ĺ åİ¿|
er s
äºĨ è§£
èĬ Ŀ
éĥ½ æĺ¯
æĺ¯çľŁ çļĦ
Ġäºļæ¸¸ ä¼ļ
Ġå¸ ĥ
è£ ģ
Ċ éĿĴæµ·
ç» ĳ
çĻ¼è¡¨ æĸ¼
ĠåĽĽ å·Ŀ
çª į
å¤´ æĿ¡
åı «
ç· ļ
åħ³ æ³¨
è¿Ľè¡Į è¯Ħè®º
ï¼ĮæĤ¨ åı¯ä»¥æĮī
alt+4 è¿Ľè¡Įè¯Ħè®º
ï¼ĮæĤ¨åı¯ä»¥æĮī alt+4è¿Ľè¡Įè¯Ħè®º
å·²ç»ĵæĿŁ ï¼ĮæĤ¨åı¯ä»¥æĮīalt+4è¿Ľè¡Įè¯Ħè®º
å ĺī
é ŀ
æŃ£æĸĩ å·²ç»ĵæĿŁï¼ĮæĤ¨åı¯ä»¥æĮīalt+4è¿Ľè¡Įè¯Ħè®º
Ġag æīĭæľºå®¢æĪ·ç«¯
Ġå° ¼
æİ ª
çĶµ å½±
Ġ2 8
è¿ °
ä¸ĭ ï¼Į
Ġå® ¶
æ±Ł å¸Ĥ|
ä¼ļ è®®
ĠåĴ ¸
æ¶ĵ ï¿½
æĸ¹ æ¡Ī
PK 10
E lement
âĢ Ļ
èĬ ³
ĠéĽĦ å·ŀ
ĠçĶ ±
ç´ §
ou t
åŃ¦ ä¹ł
j c
äºļæ´² çīĪ
Ġè ¦
q q
æĭ ©
d88 .com
Ć ć
Ġw h
u u
Ġbet36 ä½ĵèĤ²åľ¨çº¿
èģĶ çĽŁ
çļĦ æĺ¯
Y 2
èĦ ļ
åĩ¯ æĹ¶
Ġwww. d88.com
Ġæ³ ¾
APPï¼ļ å½©ç¥ŀ
æ ¾İ
Ġéģ µ
ļ |
Ġæ± ¤
x t
_ å®ĺæĸ¹
bet 36
ãĢĳãĢĲãĢĤ ãĢĳãĢĲ
å§ Ĩ
ind ow
' );
Ġf rom
æĶ¿ çŃĸ
éģ ¸
Ġäºļæ¸¸ å®ĺç½ĳçĻ»å½ķ
ĠçĭĹä¸ĩ æĺ¯
Ġåį ĥ
æµ ıè§Ī
èĤĸ éĢīä¸ĢèĤĸ
B l
ä¸ª äºº
Ġt r
ç¸ £
å¾ĭ å®¾
ľ æ¹ĸ
ĠéĽ ·
è« ĸ
éĶĻ è¯¯
d u
åıį æ°´
Ġæŀ £
åľ¨çº¿ ä½ĵèĤ²æĬķæ³¨
è© ¦
è³¼ çī©
Ċ2019-0 5
Ġæĭ Ľ
å¨±ä¹Ĳ ç½ĳåĿĢ
Ġåı ĸ
Ġé¸ ¡
å¦Ĥ æŀľ
åĲ ¯
ç§ Ģ
éĸ Ģ
ios çīĪä¸ĭè½½
ç½ĳç«Ļ çĻ»å½ķ
Ġèµ £
> >
æĸ° çīĪ
Ċ åİŁæłĩé¢ĺï¼ļ
Ġç± »
ĠåĪ©æĿ¥æľĢ ç»ĻåĬĽçļĦèĢģçīĮ
ul t
å¤ĸåĽ´ ç½ĳç«Ļ
åħ¨ å¹´
Ġå· ¦
éŁ© åĽ½
éĢ Ļ
èİ ²
Ġéĺľ æĸ°
Ġç«ĭ åį³
æĢİä¹Ī åĬŀ
æı ´
Ċ è¥¿
æľ ĭ
åĨ ·
äºĨ ï¼Į
å± ¯|
è¯ ¦
Ġé¦ Ļ
è± ª
Ġäºļæ¸¸ag ç½ĳç«Ļ
Ġçİ¯äºļ app
è¨ Ī
éª ŀ
çİ¯ çĲĥç½ĳ
Ġä½ Ļ
éĥ µ
Ġé¸ ¿è¿Ĳ
", "
ç»Ħ ç»ĩ
éĢ Ĥ
çī¹ å·¦æĹĹ|
Ġ3 0
Ġ ????
å°± éĢģ
æĬ ¢
æ£Ģ æµĭ
ŀ |
èĤ ī
: ãĢĳãĢĲ
X N
çģ £
ä»£ æĽ¸
ç¨ ¿
Ġç ĭ
jc ml
jcml wd
å¼Ģå¥ĸ çĽ´æĴŃ
ĠåĮ ĸ
è¯ ļ
Ġäºļæ´² å®ĺæĸ¹ç½ĳç«Ļ
å° į
ĠèµĮéĴ± ç½ĳç«Ļ
åĩº çİ°
è ¸
ĠåĪ©æĿ¥ èµĦæºĲ
Ġk8 å¨±ä¹Ĳå®ĺç½ĳ
ĠæĹ©çĤ¹å°ıåĲĥ åĬłçĽŁ
W l
Ġéĺ¿æĭī åĸĦ
e st
ĠéŁ ©
è½¦ è¾Ĩ
ĠæĹ©çĤ¹ æĿ¥
çŃ ĳ
åĪĨ èŃī
Ġä»Ĭ æĻļ
å¼Ģ åıĳ
er n
é¤Ĳ é¥®
Ġäºļæ¸¸ å®ĺæĸ¹ç½ĳ
ĠP ro
Ġæİ ¨
ĠçĶµ ç«ŀ
x p
ł |
ç²¾ ç¥ŀ
ĠçĭĹä¸ĩ çļĦ
ç¬ ĳ
Ċ2020-0 2
ĠéĿ ¢
çİ ī
åľ¨çº¿ ä½ĵèĤ²
åįģ å¤§
åŃ¦ æł¡
Ġäºļæ¸¸ çĻ»å½ķ
é»ĳ å¤§æĪĺ
Ġäºļæ¸¸åĽ½éĻħ ag
éĿŀ åĲĮ
äº¤ æĺĵ
Ġp ost
æĳ ©
å¾ Ĵ
åģĩ çļĦ
Ġå¡ Ķ
åķĨ åĵģ
Ġéĺ ²
å® Ī
ĠU U
åľ° æĸ¹
ĠåĪ©æĿ¥åĽ½ æłĩ
2 .0
Ġæĺ Ĩ
èĥ ľ|
Ġäºļæ¸¸ ä½ĵèĤ²
è¡Į ä¸º
Ġy abo
åº Ĭ
ãĢĳãĢĲ "
. 00
æ°ĳ éĸĵ
ä½ľå¼Ĭ åĻ¨
åı ¬
ä¸Ń çļĦ
Ġa re
ï¼Į åħ¶
åħįè´¹ èµĦæĸĻå¤§åħ¨
rou p
è§ ī
Ġp ro
æĹ¥ æľŁ
é» İ
æĭ ¬
à¸² à¸
ur l
Ġ ä¿®
èµĮ æĲı
æµģ ç¨ĭ
èį ī
' ;
Ġæ ¥
ª æ´²
. C
Ġæľ ¨
æľĢ é«ĺ
Ġè ©
Ġæı Ń
Ġå¨ģ å°¼æĸ¯äºº
è¯ ¾
ä¿Ŀ æĬ¤
l y
Ġæ¸ ¯
A T
Ċæĸ° æµª
ä¸Ģ æŃ¥
Ð ¾
æ¢ °
é« Ķ
B C
Ġåĩ¯åıĳæĹĹèĪ°åİħæ³¨åĨĮ çĻ»å½ķ
Ġç´ «
å³ ¡
æł Ĺ
èº« åĪĨèŃī
ĠC C
Ġa d
ä»¥ åıĬ
å® Ĺ
è¡ ¥
æĬ ĺ
Ġåĩ¯åıĳ æīĭæľºçīĪ
åĬ¨ æĢģ
i an
èµ ¶
ä¸Ģ åĲį
7 5
æĸĹ çīĽ
è´¸ æĺĵ
Ġåħ¶ ä»ĸ
ä¸Ĭ åĪĨ
âĢķ æŀģéĢŁ
å¯ Ĩ|
Ġèį £
Ġå¤į åĪ¶
Ġåıĳå¸ĥ æĹ¶éĹ´
æĭ Ł
ĠçĶ °
æ¨¡ å¼ı
Ċ æĹ©çĤ¹åĬłçĽŁ
é¡ ¾
Ġres erved
Ġçİ¯äºļag æĹĹèĪ°åİħ
æĻ ĵ
M L
æľ¨ |
Ġå¹¿ ä¸ľ
-0 2
ä»Ģ |
åħ± åĴĮ
Z G
åģ ¥
éŁ ¿
å®Į æĪĲ
è´ ¡|
æºĲ åİ¿|
ĠåĬłçĽŁ æĹ©çĤ¹
Į |
çķ ª
å° Ħ
é¤ ¨
æĥħ éĵ¾æİ¥
_ å½©ç¥¨
å³ ¡|
æ¬¢ä¹Ĳ çĶŁèĤĸ
è¨Ĥ æĪ¿
éĩĳ æ²Ļ
çķ ¶
ĠçĽ ¸
Ġæ¾³éĹ¨ åħŃ
Ġä¸ ĥ
æĢİä¹Ī æ³¨åĨĮ
Ġæľ¬ æºª
ĠåĪ©æĿ¥w66 æľĢ
Ċ æłĩ
åł ±
çģ µ
Ġæīĭæľº èµĮéĴ±
ä¹ ĺ
å¾· åĽ½
O F
ĠéĤ £
æĸ° çĸĨ
åį° åº¦
æµ· å¤ĸ
Ġw66 .com
ãĢĤ ä»ĸ
c m
Ġä¸ĸçķĮ æĿ¯
æĿ¥ èĩª
Ġa s
a il
.. ..
Ġç½ĳç«Ļ åľ°åĽ¾
re f
ĠæŀģéĢŁ æĹ¶æĹ¶å½©
Ġåĩ¯åıĳå®ĺç½ĳ çĻ»å½ķ
æ¹¾ |
éĻĦ è¿ĳ
èľ ľ
ĠæĽ ´
é ĳ
Ġagæīĭæľº äºļæ¸¸
ç»§ ç»Ń
çĶ ¢
Ġæĺ ¯
S T
èĤ ¥
Ġä¹Į åħ°
è½ ī
ç»ı éªĮ
æĹ¶éĹ´ï¼ļ 2020-0
å® ĩ
Ġ201 4
è¯Ģ çªį
» åĬ¨
è¨ ĺ
è¨ Ĭ
èĭ± è¶ħ
èį ¯
Ċ2019-0 6
å§ ĵ
¡ æŀĹ
åı ¦
Ĥ æĹł
èīĩ ä¼ļ
ï¼Į ä¸º
åĿ ¦
éĢļ |
æĻº èĥ½
Ġå®ĺ ç½ĳ
æĹħ éģĬ
Ġag èµĮåľº
5 5
Ġåıĳå¸ĥæĹ¶éĹ´ ï¼Ľ
Ċ æĹ©é¤ĲåĬłçĽŁ
Ċ A
ä¸Ń å°ı
åĪ¶ éĢł
ĠäºļæĲı ä½ĵèĤ²app
ĠçĶµçİ© å¨±ä¹Ĳ
ĠéĿ Ļ
ri bo
z h
ä» ª
ä¸¤ åĽ½
ĠæıĲ æ¬¾
çª Ĺ
ribo 88
æ°ĳ ä¸»
Ġå°Ĭé¾Ļd88 æ³¨åĨĮ
Ġæ³¨ åĨĮ
èħ ¾
ĥ |
Ġ r
è¿Ļ äºĽ
= =
éĴ Ī
Ġå¹¸è¿Ĳ é£ŀèīĩ
æŃ» äº¡
åķ Ĭ
er y
ãĢĳãĢĲpãĢĳãĢĲ >
ĠåĲ į
åĪĨ 3d
æł¹ æį®
ĠåŃ Ŀ
ĠåĪ©æĿ¥ æīĭæľº
ä¸ ģ
çĽ Ī
è¿ŀ |
åĩº ç§Ł
Ċæĸ° çĸĨ
Ġäºļæ¸¸éĽĨåĽ¢ æ¸¸æĪı
ħ |
ar k
ĠæŃ£ æĸĩ
éģĵ ï¼Į
Ġ âĢľ
be r
çİ¯ çĲĥ
ĺ ħ
r ãĢĳãĢĲ
u ll
ĠéĽ ħ
åĪ Ĭ
1 ãĢĳãĢĲ
ä¹ İ
- 8
Ġ Õ
Ć ą
O D
å¤ ´|
è®¤ è¯ģ
ä¸ Ķ
P ro
å±± ä¸ľ
i ve
ãĢ Į
å½© åĽ¾
åŃ ľ|
B y
åħ ¼
ĠæĹ©çĤ¹ å¿«é¤Ĳ
ä» Ļ
ç»Ļ åĪ©
å± Ĭ
ä¾¿ å®ľ
æıĲ ä¸įäºĨ
ä¸Ĭ ï¼Į
æ¹ ĺ
å¤ļä¹ħ åĪ°è´¦
çļĦ ï¼Į
çĻ ½|
Ġäºļæ¸¸ å®ĺæĸ¹ä¸ĭè½½
æķ ¸
éľ ²
HN l
è« ĭ
Ġæĸ° å·´å°ĶèĻİ
i k
Ġéģ ĵ
ä¸Ģ æĿ¡
åīµ æ¥Ń
çº¢ åĮħ
ĠäºĮåĽĽåħŃ å¤©å¤©å¥½å½©
Ġ365æ£ĭçīĮ æĢİä¹Ī
éĩĳ |
Ġåĩ¯æĹ¶ å¨±ä¹Ĳ
Ġäºļæ¸¸å®ĺç½ĳ ç½ĳç«Ļ
æĺ¯ åĲ¦
Ġï¿½éİıçĦ¯ï¿½ 918
æ¸¸æĪı å¤§åİħ
è®¡åĪĴ ç½ĳ
Ġä¸ ½
ä½ĵ éªĮ
Ġå¤įåĪ¶ çĻ»å½ķ
åģ ·
:1 ,
Ġå £
è®¾ ç½®
åį³ æĹ¶
u re
c y
Ġs h
âĢĶ å¤§åıĳ
åį ±
åºĹ |
Ġk b88
O N
con t
å§Ķåĳĺ ä¼ļ
çĶ ľ
æĪ¿ å±ĭ
Ġ ãĢģ
çī¹ æĹĹ|
æĹ©é¤Ĳ è½¦åĬłçĽŁ
è¿ĺ æľī
ĠÂ ¥
å¹³åı° ç½ĳç«Ļ
å· ¨
Ġagçİ¯äºļ æīĭæľºçĻ»å½ķ
Ġth at
i b
ç»´ çłģ
Ġçļ ĩ
Y WR
åĮħ æĭ¬
Ċ ä¸ĭ
Ġäºļæ¸¸ æ³¨åĨĮ
å· ®
Ġèı łèıľäºº
ä¾Ľ åºĶ
Ġæ±Ł è¥¿
ä¹ĭ æĺŁ
æ° £
Ġä¸ĭè½½ å°Ĭé¾Ļ
ow er
éĢī æĭ©
5 åĪĨå½©
ĠäºļæĲı çĽ´æĴŃ
ãĢ į
æĭ Ĵ
Ċ çĭĹä¸ĩ
0 2
åĺ Ľ
é£İ éĻ©
ç½ĳ ...
å®ŀ æĸ½
Ĺ ı
¹ åŁİ|
ä½įç½® :
Ġåįļå½© bet356
ĠèĤ ¥
ĠåĪ©æĿ¥ agæĹĹèĪ°åİħ
åł °|
Ġé¹ °
app _
æĬ Ĺ
w id
æ¢ ¦
Ġæ² Ĥ
æĸ° æīĭ
éĿ ĸ|
I i
Ġ 888
Ċ 6
å² ¸
ĠçľŁ éĩĳ
çļĦ è½¯ä»¶
äºĮ ç»´çłģ
åħĭ |
ķ |
Ġèĵ ¬
u st
æĻ ¶
Ġå¸ Ĥ
æł ĳ|
Ġäºļç¾İ ä¼ĺæĥł
Ġ è½¬
é Ĭ
Ġåĩ¯åıĳ çĻ»å½ķ
ĠæĹ¶éĹ´ ï¼ļ
éĽĦ |
æ¿ Ģ
Ċæ±Ł è¥¿
æľĭ åıĭ
æ°¸ è¿ľ
com m
Ċå¹¿ è¥¿
Ġagæ¸¸ èīĩä¼ļ
çľŁäºº çĻ¾å®¶ä¹Ĳ
Ġç Ł¥
æ°ĳ |
èĩª åĬ¨
é¸ ¡
Ġçİ¯äºļ å¨±ä¹Ĳ
ä»Ģä¹Ī æĦıæĢĿ
4 7
ä¸Ģ èµ·
P V
æ±½ è»Ĭ
Ġ201 2
er m
èĭ± éĽĦ
èĩªå·± çļĦ
æĹ¶ ä»£
ä¿ ĥ
å¯ ¨|
ĠP I
Ġäº §
æĿ¡ ä»¶
åįı è®®
_ s
ĠccåĽ½éĻħ å½©
å½©ç¥¨ ç½ĳ
èī ¯|
T ag
æ²ģ æĹĹ|
åĨł åĨĽ
o v
Ġçİ ¯
Ġ ãĢĬ
å®¶ åºĦ
é» ŀ
æľĪ äº®
å· ´|
å¼Ģå¥ĸçİ°åľº çĽ´æĴŃ
H A
Ġç ©
åĲ ¸
éĿ Ļ
é¤Ĳé¥® åĬłçĽŁ
Ġé» İ
å¿«ä¹Ĳ åįģåĪĨ
é¥ ¶
åı ¥
çİĽ |
ç½ĳåĿĢ å¤§åħ¨
å¿ĥ æĹ©é¤ĲåĬłçĽŁ
E D
çĥ Ł
åķ ¥
Ġd ata
æľª æĿ¥
æĹ©çĤ¹å°ıåĲĥ åŁ¹è®ŃåĬłçĽŁ
ĠagåĽ½éĻħäºļæ¸¸ çĻ»å½ķ
Ġç½ĳ æĺĵ
f f
n e
ä¸į åĲĮ
r y
åĩº åı£
w b
ç °
O M
éĿŀ å¸¸
ä¸Ģ è·¯
Ġç« ¹
æĵį ä½ľ
Ġ it
Ġåĩ º
åįĹ å¸Ĥ
æĬķæ³¨ ç½ĳåĿĢ
é¥ °
æĻ ĭ
L A
éĢ Ĵ
ä¸ĭ åĪĨ
m b
Ġæķ Ļ
æ¶Ī éĺ²
. s
9 7
Ġåĩ Į
ad min
ä¸ĭè½½ _
å² Ĺ
l f
åŁº æľ¬
Ġèĳ ¡
Ġ ê
Ġç§ ¦
Ġåĩ¯åıĳä½ĵèĤ² vip
æ² Ł
Ġçģ Į
åħ §
è´£ ä»»
ç¢ ĳ
æĪ ª
ĠèĮ Ĥ
ur re
è¿ ´
Ġag äºļ
åĭ ĩ
é Ħ
æİ¥ åıĹ
Ġä¹ ¡
Ġè ī
æĽ ¼
å®ĺç½ĳ æ³¨åĨĮ
Ġèĭ± è¶ħ
Ġ ä»İ
Ġæ¸ ¸
H ome
éľ ĩ
XN ET
ç½ ²
Ġ !
ĠåĪ ĺ
1 .0
é Ĳ
æľŁ è´§
æį Ł
ĠPI XNET
ex t
Ġå¹¸è¿Ĳ å¿«3
éº ¼
è±Ĩ æµĨ
ĠåĬ ¨
ĠèĬ ľæ¹ĸ
å¹¿ åĳĬ
åĨ Ī
è´¹ çĶ¨
ä¹ī åİ¿|
ĊæĹ¶éĹ´ï¼ļ 2020å¹´
è©¦ ç®Ĺ
âĢ ĺ
è· ¨
4 4
æ£ĭçīĮ å¹³åı°
æĸĩç«ł ï¼ļ
çī¹ åĪ«
Ġå Ŀ
ä¼ °
éĹ ľ
] ,
be st365
çľŁ å®ŀ
åħ± åĲĮ
Ġagçİ¯äºļ æ¸¸æĪıå®ĺç½ĳ
çĪ ¶
ç© ¿
æĬ ¼
é ı
s s
Ċ éĩįåºĨ
æĿ ¨
Ġæ ħ
æĢ Ģ
æĮģ ç»Ń
æľº åħ³
Ċæ²³ åĮĹ
Ċ çľĭ
C T
é© ¶
åĪĨ ç±»
Ġ o
Ċ S
éĩĳ èŀį
ç± į
Ġå½ °
Ġåī ĳ
è¿´ éŁ¿
Ġæ³ ½
çĸ ¾
å½©äºīéľ¸ 8
å°ı è¯´
o ok
çļĦ ä½įç½®ï¼ļ
ç¬ Ķ
çĸ «
å¾· åİ¿|
é© ¾
æĺ Ĩ
Ġ ä¿¡èªī
æ¨ Ĥ
2 ãĢĳãĢĲ
Ġäºļæ¸¸éĽĨåĽ¢ ag
æĹ©çĤ¹å°ıåĲĥ åĬłçĽŁåºĹ
Ġ365æ£ĭçīĮ å®ĺç½ĳ
Ġä¸ »
I 6
Ġag çĶµæ¸¸
æıĲ åĩº
X G
è¯ º
å¸ Ĳ
Ð µ
éĶ ĭ
Ad d
ä½ĵèĤ² å¹³åı°
Ġè ŀį
èĤ¡ç¥¨ éħįèµĦ
ä¸ĩ åħĥ
æľº åĻ¨
çĶŁ æĹ©é¤ĲåĬłçĽŁ
æīĭ ç»Ń
åĬłçĽŁ æĹ©çĤ¹
ãĢĳãĢĲ" ãĢĳãĢĲ
3 7
ä»Ĭ æĻļ
5 8
0 7
é¢Ĩ å¯¼
in a
Ġå¼Ģåħĥæ£ĭçīĮ æĢİä¹Ī
æĶ¶ä¸įåĪ° éĤ®ä»¶
ç¤º åħ¨éĥ¨
ç®¡ éģĵ
Ċ æ·±åľ³
Ġ918 åįļ
Ġæĺ ĵ
å®¡ æł¸
í ķ
U R
s 8
Ġçİ¯äºļ å¹³åı°
Ġæ» ¡
çľŁ çļĦ
ä¼Ļ ä¼´
Ġæĸ° èĳ¡
çĥ «
åį³æĹ¶ æ¯ĶåĪĨ
Ġ2 6
ĠåĪ©æĿ¥ çĶµæ¸¸
Ġé¹ ¿
201 5
éĢŁ åº¦
Ġè® ¢
ä¸» è¦ģ
ä¸į ä¼ļ
ĠéĽ »
Ġæ¨ ª
Ċ æľ¬
Ġç§ »åĬ¨
æĬ¥ åĳĬ
æ´ Ĺ
ä¿Ŀ éļľ
ĠåĮĹäº¬ æĹ©çĤ¹
èģ ļ
å®īåįĵ app
å¥½ é¡¹çĽ®
Ġè´ ¡
ĠåĪĨ åĪĨå¿«3
èµļ å°±
è· Ŀç¦»
) ,
æĿ¡ æ¬¾
æºª åİ¿|
åĽ½ åĨħ
Ġå®ĺ æĸ¹
Ġæīĭæľº äºļæ¸¸
åĩł ä¸ª
ä¸» ä»»
å¤§ å®¶
Ġèį Ĩ
n ãĢĳãĢĲ
Ċå¤© æ´¥
ä¸ľ åİ¿|
ç¥ ¥
æ£ĭçīĮ ä¸ĭè½½
Ġ| |
å¥ĸ éĩĳ
ä»£ çłģ
ç¶ ĵ
ï¼Į å¯¹
å®ŀ çİ°
èµ µ
Ġæ¡ ¦
he d
å¯ ¨
æĸ°æīĭ åį¡
Ġé¥ ¶
åĩº çīĪ
åħ¨ éĿ¢
åĮħåŃĲ åĬłçĽŁ
Ċ æĺŁ
omp any
è¾ ī
Ġçĭ ¬
è¾ ½
Ġ8 äºļæ¸¸
ĠA r
æ ª
Ġçİ¯äºļ appä¸ĭè½½
æī ¬
æĥ³ èµļå°±
çĽ ĸ
Ġæ·± åľ³
è ĺ
Ġåĩ¯åıĳ æŃ£è§Ħ
åıªä¸º éĿŀåĲĮ
9 5
åıĤ åĬł
å° ¾
æ¯ Ĵ
ĺ ï¿½
Ġre m
è ķ
y le
Ġbet36 6
åĸĦ |
è³ £
Ġç» į
Ġ365è¶³çĲĥ ä½ĵèĤ²
èĲ Ħ
iz e
Ġæļ ĤæĹł
ĠåľŁ é»ĺ
æ´ ª|
å®ģ å¸Ĥ|
æ¢ ģ|
ment s
Ġèĭı å°¼
å¤ĸåĽ´ æĬķæ³¨
éĹ ²
å¹´ çļĦ
ĠåĲī æŀĹ
ĠåĮĹäº¬èµĽè½¦ pk10
å¨±ä¹Ĳ å½©ç¥¨
èĮ ¶
urre nt
le ct
éĢ Ķ
Ġæ¹ĸ åĮĹ
è¿Ļ æł·
P hone
Ã ©
Ġ$ ('
æľ «
æ³¨åĨĮ å¹³åı°
ĠåĪĨç±» ï¼ļ
åıªä¸º éĿŀåĩ¡
ç½ĳåĿĢ æĺ¯å¤ļå°ĳ
ï¿½ éİıçĦ¯
n one
2 )
Ġ918 ï¿½éİıçĦ¯
çİ¯äºļ çľŁäºº
Ġæ² Ī
a ve
Ġæ± ķ
Ġçı ł
å¯¹ éĿ¢
Ġåħĭ æĭī
Ċ åĽĽå·Ŀ
çº ¸
Ġçİ¯äºļ çĻ»å½ķ
æ¢ ģ
O P
Ġagäºļæ´² çĻ»éĻĨ
ri end
m Z
Ġäºļæ¸¸åĽ½éĻħ æīĭæľºå¨±ä¹Ĳ
è¿Ľ ä¸ĢæŃ¥
Ġ} )
a se
ä¸Ĭ çļĦ
Ġ ç½ĳåĿĢ
; ãĢĳãĢĲ
Ġç§ĳå°Ķæ²ģ åı³ç¿¼
Ġèı ²
Ð ¸
æĸ¯ åĿ¦
Ġå® ¾
æľĢæĸ° ç½ĳç«Ļ
æī ¶
æĿ °
Ġäºļç¾İ çĶµæ¸¸
Ċ 7
åĬ© æīĭ
ä¹ ±
å¼Ģ åı·
Ġè° ¢
Ġæī ¿
Ċ2020-0 7
Ġå·´ æŀĹ
ri pt
åŃĲ æĹ©é¤ĲåĬłçĽŁ
ï¿½ I
åħ ĳ
¶ éĻµ|
éĥ ĳ
ļ åİ¿|
ĠåĪ °
èĭ± æĸĩ
Ġç»į åħ´
Ġ le
æ°´ æŀľ
çĸ ¯çĭĤ
èª ŀ
æĶ¶ è´¹
Ċ åıĳè¡¨
ĠéĻ µ
ç´ ļ
å¼ĢæĪ· å¹³åı°
ĠåĨħ èĴĻåı¤
å½ĵåľ° æĹ¶éĹ´
æ¸¸ |
âĢ¦ âĢ¦
æĿ Ń
Ġæ» ¨
å¤© æ´¥
æ°ĳ èŃ¦
èīº æľ¯
æŀ Ŀ
è½¯ä»¶ ä¸ĭè½½
çĥĪ å£«
Ġc omment
Ġå½©ç¥ŀäºīéľ¸ å¤§åıĳå¿«ä¸ī
Ġ he
Ġæī ¬
éº» è¾£
Ġå¿« éĢŁ
æīį èĥ½
Ġåį °
Ġçİ¯äºļag æīĭæľºå®¢æĪ·ç«¯
12æľĪ 20æĹ¥
æľĢ è¿ĳ
æĥ³èµļå°± è½¬
ä½ ©
æľŁ éĹ´
æ½ ®
Ġçİ¯äºļ æīĭæľºçīĪ
æĭ¿ å¤§
åĪĨ 6åĲĪ
N ew
Ġæĸ° ç«¹
è´ ¡
æŃ¤ åīį
Ġ 35
çµ Ħ
è¦ ĸ
Ġæ¬ §
éĺ ģ
ç²¥ åĬłçĽŁ
Ġä» Ļ
ãĢģ ãĢĳãĢĲ
ç®¡ å®¶å©Ĩ
é¡ ŀ
åĲ «
3 9
- ãĢĳãĢĲ
ä»» ä½ķ
Ġagçİ¯äºļ æīĭæľºå®¢æĪ·ç«¯
Ð °
Ġåıĳ è¡¨
ĠæĹ©é¤Ĳ è¿ŀéĶģ
é© »
éĻ ķè¥¿
æľī åħ³
Ġ ??
å®ĺæĸ¹ app
ĠçĶ Ł
å¤ĸ ï¼Į
ĺ å®¶
hb HNl
iO mZ
hbHNl LCJ
iOmZ hbHNlLCJ
Ġk s8
5 æľĪ
Ġ ä½ĵèĤ²æĬķæ³¨
Ġæµ ģ
I B
éĥ¨ ãĢģ
ĠèĴ ²
ä½ľ ä¸º
Ċ äºĳåįĹ
365 å¤ĸåĽ´
Ġå¤§åıĳ ç§ĴéĢŁ
åĬł å¼º
Ċæµ· åįĹ
å®¾ |
æĸ° ç½ĳ
å±± è¥¿
çİĽ ä¾Ŀ
Ġæ¾³éĹ¨çĻ¾å®¶ åĪ©
å½© å¼Ģå¥ĸç»ĵæŀľ
ç®Ģ ä»ĭ
Ġè§ Ĩ
æĮĩ æķ°
åĽ½ ç¦ı
Ġå¼Ģ å°ģ
Ġf alse
æł ı
Ċ å®ģå¤ı
èĳ Ĺ
app âĢķ
äº Ń
éº»è¾£ çĥ«
åıĳ çīĮ
éł Ĳ
ĠâĢ Ķ
Ġåħį è´¹
ĠæĿ¥æºĲï¼ļ ä¸ŃåĽ½
èĸ ª
ĠR e
n et
åĸ ĩ
Ġå¤§åıĳä¸Ģ åĪĨéĴŁå¿«ä¸ī
Ġé ½Ĳ
Ċä¸Ĭ æµ·
ç¡® è®¤
åĬ¨ çĶ»
åĨ Ĵ
æĢ» ä»£çĲĨ
çª Ŀ
å¤ Ł
Ġåħĭæĭī çİĽä¾Ŀ
åĬłçĽŁ è´¹
éĶĽ ï¿½
æģ© éĿłè°±
Ġè ²
in ce
æīĭæľº ç½ĳé¡µçīĪ
ä¸¥ éĩį
ç«ŀ å½©
å¹³åı° app
.5 åĪĨå½©
åĽ½ç¦ı éº»è¾£çĥ«
an s
æŁ¥ çľĭ
ĠçĲ Ĩ
S D
åĬ ³
ãĢĳãĢĲ ãĢģãĢĳãĢĲ
çī Ļ
æķ´ åĲĪ
ĠåŃ Ĺ
Ġ365betå®ĺç½ĳ æĢİä¹Ī
ĠåĪ©æĿ¥æľĢç»ĻåĬĽçļĦèĢģçīĮ å¹³åı°
æĸĩç«ł æĿ¥æºĲï¼ļ
åħ± èµ¢
G V
é«ĺ æīĭ
èµĦ æŀ
Ġn ame
ç± ¤
c Ij
Ġagçİ¯äºļ æ¸¸æĪı
åĢį æĬķ
æİª æĸ½
æ±Ł èĭı
è¡Į åĬ¨
åĲĮ æĹ¶
ĠçľŁéĴ± çľŁäººçĻ¾å®¶ä¹Ĳ
èŃ¦ å¯Ł
è±ĨæµĨ åĬłçĽŁ
è¿ŀéĶģ åĬłçĽŁ
éĻĲ åĪ¶
Ġæ» ¦
ĠåĪĨ äº«
Ġè £
ing le
v i
Ġæķ ¦
çĶµçİ© åŁİ
º åįĹå¸Ĥ
Ij o
å¯ ĵ
Ġ} ,
å®ĺç½ĳ æīĭæľºçīĪ
Ġäº İ
åĲī æŀĹ
æıĲ åīį
æĸ° äº¬æĬ¥
Ġagçİ¯äºļ æĹĹèĪ°åİħ
Ġåħ ±
ï¼Į å°±
åİŁ åĽł
.get Element
Ġ ï¼ļ
Us er
Ġç »¿
è¿ĩ ç¨ĭ
C omment
Ġc h
Ġè Ĺ
ı åİ¿|
å£ ģ
.t v
S how
2 åĪĨå½©
Ġ2 7
ĠçĻ¾å®¶ äºĨ
æİ¨ å¹¿
Ġå¿ħ èµ¢
çº ·
Ġf riend
éĤ£ ä¸ª
ä¸Ģç¯ĩ æĸĩç«łï¼ļ
ĠåĽ½éĻħ cc
ç§» åĬ¨
Ġçİ¯äºļéĽĨåĽ¢ ag
çĥŃ çº¿
E L
Ġæłĩ çŃ¾ï¼ļ
èĥ½ æºĲ
Ġèĳ¡ äº¬
æĤ ī
åīµæ¥Ń è²¸æ¬¾
é¢ĳ éģĵ
Ġéĥ ¨
å¥ ĭ
Ċ2020-0 5
æī İ
æĺ¯ä»Ģä¹Ī æĦıæĢĿ
Ġth is
æİ¨ åĬ¨
è¨ Ń
Ġæ¹ĸ åįĹ
Ġç» ı
ï¼ Ĭ
l c
Ċ 10
ä¸Ģ äºĽ
6 4
èĭı |
Ġçİ¯äºļ AG
Ġéĥ ĳ
ĠçĶ³ åįļ
è£ Ŀ
ç½ĳç«Ļ å¤§åħ¨
åĴ ¨
Ġbet356 å®ĺç½ĳ
Ċ éķ¿
Ġå°Ĭé¾Ļ å¤ĩçĶ¨ç½ĳåĿĢ
åįķ ä½į
W F
Ġæł ªæ´²
ç§ĳ åŃ¦
è´¦ æĪ·
åĽ¾ åºĵ
14 7
Ġagäºļæ´²æ¸¸æĪı éĽĨåĽ¢
Ġç¼ ĸ
åĢĭ äºº
é¥ ¼
æ¤ į
Ġæ²³ åĮĹ
XC I
éĹ ª
Ġc urrent
ç§Ł è½¦
æ³¢ |
Ġèģ Ĥ
0 ',
ä¸Ĭ åįĪ
è´¢ ç»ı
éĻµ åİ¿|
Ġè° ģ
ä¸Ģ æł·
ri ce
ç®Ĺ çĽĺ
åį ·
æĿ¯ æĬķæ³¨
Ġä¸ ª
Ġ Ã
Ġåĩ¯åıĳåľ¨çº¿ å¹³åı°
æľĢ åĲİ
ub lis
Ġæ³ ī
Ġè®¢ éĺħ
Ġåį ĵ
- 5
ä¸» ä¹ī
æ ¦Ĥ
Ġæ¾³ æ´²
ĠD e
Ġ5 0
comm end
Y W
æīĺ åħĭ
å½©ç¥¨ å¨±ä¹Ĳ
èĭ¹æŀľ ä¸ĭè½½
åħ ī|
éĻ ¶|
Ġçī¹èī² æĹ©çĤ¹åĬłçĽŁåºĹ
:' 0',
Ġç¤ ¾
U V
y abo
èİ ŀ
g å¼Ģåħĥæ£ĭçīĮ
æĮĩ åįĹ
S H
éķ¿ |
æ» ¨|
çľŁäºº å¹³åı°
ob ile
Ċ 8
ĠæĿ ľ
¼ |
å¯ º
æ¨Ļ ç±¤
çīĪæľ¬ ä¸ĭè½½
åĿ ¡
åĪ Ģ
å¨±ä¹Ĳ ç½ĳç«Ļ
Ġä¹ ¦
ï¿½ï¿½ï¿½ï¿½ ï¿½ï¿½
å¼Ģå¥ĸ åı·çłģ
ĠçĻ½ å°ıå§Ĳ
Ġç½ĳä¸Ĭ çĻ¾å®¶ä¹Ĳ
ä¸ Ŀ
èı ¯
æĸ ĭ
é¡ ¿
æķ° åŃĹ
ĠåŁ º
è¯ Ĺ
- 3
Ġèĭ ¥
ĠåĪ© èİ±
åł °
Ġ/ >
Ġagçİ¯äºļ ä¸ĭè½½
é«ĺ |
Ġ ä»»
Ġ918åįļ å¤©
å» ī
æ£ ±|
èĥ ¡
é¦ĸ |
Ċ å½ĵåīį
ä¸° åİ¿|
Ċåıĳè¡¨ äºİ
Ċ èį
ĠéĦĤ æīĺåħĭ
æ°ĳä¸» åħļ
Ċåĩ¤åĩ° ç½ĳ
Ġåº Ķ
ç½ĳ èµĮ
é¡ »
Ġåį ĸ
éĶĢ åĶ®
è´¨ éĩı
ä¸ ĺ
åĨ ¬
ç¦ı åĪ©
åį ł
è² ¼
Ġå¹¿ è¥¿
j i
Ġå®ľ å®¾
ĠåįĹ äº¬
æĮĩ åĩº
Ġ$ (
èĩª çĶ±
ä» ĵ|
æĿ ¾|
è®© çĲĥ
o ve
Ġ- -
ĠéħĴ åºĹ
Ġå°Ĭé¾Ļd88 .com
åľ Ī
æ² Ĵ
_ å¤§å°ı
æľī æ²¡æľī
ç»Ł ä¸Ģ
åĢį çİĩ
Ġå¤§ æĸ¹|
Ċå¤§ ä¼Ĺ
æĴ ŀ
å¾ Į
Ġf ollow
Ġæ´ ŀ
. m
éĺ ´
Ġat t
Ġåĩ¯åıĳ AGæĹĹèĪ°
g ood
p r
Ġæµ ®
åĤµ åĭĻ
Ġå¯ Ĩ
Ġçİ¯äºļag å¹³åı°
Ġéķ¿ æ²»
æľī æķĪ
ç£ Ĭ
åŁŁ åĲį
ãĢĤ ä½Ĩ
ĠéĩįåºĨ æĹ¶æĹ¶å½©
è¯ Ī
cont ent
ĠS h
Ġagäºļæ´² åĽ½éĻħ
æľº åľº
O L
ï¼ļ å½©ç¥ŀ
äº§ ä¸ļ
èµŀ åĬ©
æĹ º
ä¸į éĻĲ
å®£ å¸ĥ
3 N
g ãĢĳãĢĲ
Ġg roup
å¤§ åĵģçīĮ
Ġagçİ¯äºļ æ¸¸æĪıå¹³åı°
å¨±ä¹Ĳ appä¸ĭè½½
Ġk8å¨±ä¹Ĳå®ĺç½ĳ åľ°åĿĢ
Ġè® ¸
æī§ è¡Į
Ġä¸Ĭ é¥¶
ĠæŃ£ çīĪ
ic le
åĲĹ ?
6 1
Ġæ¹ĺ æ½Ń
P T
ĠéĶ ¦
Ġäºļæ¸¸åĽ½éĻħ é¦ĸé¡µ
Ġbet365 æĢİä¹Ī
Ġ èĤ¡ç¥¨
å¤§ ä¸Ńå°ı
Ġ9 9
Ċ2020-0 3
å¾® åįļ
é Ĩ
çİ¯ å¢ĥ
æį ·
å¤ĸåĽ´ 365
ĠçĶ ·
b log
Ġ ä½ľèĢħ
] ;
âĢľ ä¸Ģ
ä¸Ģ ä¸ĭ
Ġä½ ³
å·¥ åħ·
Ċ éĺħè¯»
æ· »
Ġç¿ ģ
Ġ365ä½ĵèĤ²æĬķæ³¨ æĢİä¹Ī
é ĭ
Ġç ¢
â ĨĴ
i x
Ġ ~
å¢ ħ
Ġå Ħ
å¹ ¸
ab le
ĠS e
åħ³éĶ® è¯į
åı¯ æıĲçİ°
Ġä¸´ å¤ı
è®¡ ç®Ĺ
Ġ ï½
ĠæĬļ é¡º
åĪĨ åĪĨæĹ¶æĹ¶å½©
ä¼ļåĳĺ çĻ»å½ķ
Ġkb88 åĩ¯æĹ¶
Ġåĩ¯ 8
Ġéĵģ å²Ń
æĬ ĵ
Ġå¤© ä¸ĭ
èĬ³ æĸĭ
à ¤
Ġåħ ī
¹ åİ¿|
ĠåĪ©æĿ¥ag åĽ½éĻħåİħ
ĠåĪĨ åĪĨæĹ¶æĹ¶å½©
Ġagçİ¯äºļå®ĺç½ĳ æľĢä½³
p m
æį ķ
Ġæ¶ ¿
è®°èĢħ ä¼ļ
Ġse lf
èŃī ä»¶
ĠR o
Ġi st
é¡¹çĽ® åĬłçĽŁ
æ£ĭçīĮ app
F ile
0 m
å¢ ĵ
Ġ365bet æĢİä¹Ī
Ġæĺ ¾
U N
åľŁ åľ°
Ġm ain
Ġçİ¯äºļçĶµæ¸¸ ç½ĳç«Ļ
Ġè§Ĩ é¢ĳ
æĸ¯ ç§ĳ
Ġn ew
æ´ ª
Ġ1 18
= {
ł åİ¿|
åĽ½ |
äºĭ æķħ
Ġc on
åİĤ å®¶
æĻ ¨
ä¸» æĴŃ
Ġdocument .getElement
Ġè¿ŀ äºĳ
éĿ© åĳ½
ĠæĿŃ éĶ¦
è§ ¦
Ġä¼ ł
ĠéĻ ķè¥¿
çİĩ åĪ©
è´Ł è´£
Ľ åİ¿|
è² ¨
ublis hed
ä¾ ¯
ç§Ĵ ç§Ĵ
åĵª è£¡
Ġäº§ åĵģ
åĢ Ĵ
a WR
Ġ356bet æĢİä¹Ī
- 6
Ġçı Ń
èĪ ŀ
å² ©|
Ġçİ¯äºļag åĽ½éĻħåİħ
Ċ é»ĳé¾Ļæ±Ł
Ġåº Ħ
ĠéĽĦå·ŀ æĹ©é¤ĲåĬłçĽŁ
se d
æĿĲ æĸĻ
Ġ7 5
å¯ ¸
ĠçĭĹä¸ĩ å®ĺç½ĳ
æĸ° åįİç¤¾
ĠæĹ©é¤Ĳ åºĹåĬłçĽŁ
Ġåħ¨ åĽ½
Ġ ï
Ġåį ¢
Ġåĩ¯åıĳ appä¸ĭè½½
åķ ı
å± ı|
ĠçĻ¾å®¶ æ¬¢ä¹Ĳ
å¥³ åŃĲ
ip ad
Ġ} else
Ġåı° åįĹ
Ġéĺľæĸ° å¸Ĥ|
p x
Ġä¸ ĵ
Ġæĸ ½
å¢ŀ éķ¿
åł ¡
å° Ĭ
ä½Ļ é¢Ŀ
Ġ2 9
£ ï¿½
Ġs an
ä¹Ł æĺ¯
æ §
1 åĪĨå½©
v ince
j b
erm al
åĩº äºĨ
Ġè´ º
å¤§åĪ© äºļ
é¥ Ń
Ġå¤§åıĳ å¤§åıĳå½©ç¥ŀ
èĩªæ²» åĮºæĶ¿åºľ
è´Ń ä¹°
çĨ ±
æµ ®
æ°ĳ æĹı
ĠçĽ ĺ
ä¿¡çĶ¨ åį¡
çĨ Ĭ
Ġw66åĪ©æĿ¥ èĢģçīĮ
å¼Ģ æĮĤ
7 147
æ² §|
C ity
ä¿ ±ä¹Ĳ
èĤ¡ ä»½
I F
åĨ °
åħĪ çĶŁ
Ġç½ĳæĺĵ åįļå®¢
Ġå¼Ģ åħĥ
Ġ4 7
å¼ĢæĪ· å®ĺç½ĳ
è¥¿ åİ¿|
Ġ www
æĹ© æĬ¥
ĠæļĤæĹł è¯Ħä»·
ä¿±ä¹Ĳ éĥ¨
ermal ink
éĢł æĪĲ
Ġç® Ģ
ĠåĸĢ åĸĩ
ĠC opyright
Ġ365ä½ĵèĤ²æĬķæ³¨ å¨±ä¹Ĳåľº
Ġæģ ©
con :'',
ĠçĶĺ èĤĥ
åĬ ±
ä¸ĭ åįĪ
I H
2018 å¹´
x z
æİĴåĪĹ 3
ĠT h
æĹĹèĪ°åİħ ä¸ĭè½½
ä¸Ń åįİ
ĠåŃ Ĳ
4 æľĪ
n a
æĢ» çĲĨ
Ġç» µ
åĶ Ĳ
é¦ĸ éłģ
Ċ2020-0 6
Ġå·´ å½
â Ķ
Ġå¥ ³
åıĮ æĸ¹
Ġé ĸ
this .p
Ġsan 7147
Ġsan7147 çĻ¼è¡¨æĸ¼
ä¸ª æľĪ
éŀ ĭ
Ġé¸¿è¿Ĳ åĽ½éĻħ
G N
ĠæŀģéĢŁ pk10
à¸ Ļ
e y
R E
Ġæ¬ ¢
å¤§ çļĦ
- 4
ĳ åİ¿|
ĠæĿ¥ æºĲ:
Ġç«ĭåį³ é¢Ħè®¢
æ± ī|
n ight
æĭ ľ
Ġ us
åĽŀ åºĶ
Ġ qu
éĥ İ
æĸ¹ ç½ĳ
Ġ 88
s .
id u
¯ éĥ
æ°¸è¿ľ å¤ļä¸ĢçĤ¹
åıĳ è´¢
æĺ¯ åĵª
C P
åºĶ è¯¥
Ġå° ģ
Ġäºļç¾İ ç½ĳ
Ġæ² §
[ ],
è¾ °
ç¬ ¦
s h
Ġå¤© å¤©
ĠagæĹĹèĪ°åİħ ä¸ĭè½½
åľ¨çº¿ æ³¨åĨĮ
ĵ å¤§åħ¨
Bl ack
è¦ģ å¤ļä¹ħ
Ġæ Ĥ
èģĶ ç½ĳ
Ġä¸ ¤
ç į
ĠéĹ¨ åºĹ
çİ »
æĸ° çļĦ
ĠS T
Ġå° ļ
çĶľ èľľ
æ¥¼ å±Ĥ
ĠæĢ Ŀ
Ġæ Į
18 æĹ¥
it ion
å¼ Ĥ
Ġpub lis
æ¡ Į
ç» ĥ
Ġåİ ¦
g e
Ċ åįĥ
è§Ħ å®ļ
è© ¢
k w
å¹´ èıľ
Ġå¥½è¿Ĳ å¿«3
è¾ ½|
Ġåį ķ
å£ ģ|
ĠçĻ »
88 çİ¯äºļ
Ġis Show
ä½Ļ |
1 18
ï¿½ ^
Ċ this.p
Ċthis.p ={
ï¼ģ âĢĿ
b m
ĠåĪ©æĿ¥w66 ç½ĳç«Ļ
Ġv ote
æĳ ĺ
ĠéĹ¨åºĹ åľ°åĽ¾
ç½Ĺ |
T ime
ä¸Ģ æ¬¡
æ² Ł|
è° ĭ
é¡ Į
Id :0,
æľŁè´§ éħįèµĦ
Ġéĺ² åŁİ
çĢ ¹
åŀ £|
è°ģ æľī
ĠéŁ ¶
å®¢æĪ·ç«¯ å®ĺç½ĳä¸ĭè½½
Y T
å¤ĸåĽ´ åĲĹ
_ åįķåıĮ
æĺ¯ ä¸įæĺ¯
åĽ½å®¶ çļĦ
é»ĳ éĴ±
æľŁæľŁåĩĨ |
æĹ¥ |
ç¦ ®
æĭĴ ç»Ŀ
äºĶ åĪĨå½©
W D
å² Ĺ|
Ġçĸ ¯çĭĤ
å² ³|
Ġç¹ Ŀ
F ollow
åĿ Ĺ
ä¿¡ |
Ġre commend
Ġå¿« ä¸ī
H otel
Ġ4 5
ç¼ º
Ġ0 äºº
ow n
çĬ ¹
æ¯ ķ
éĵ ľ
Ġ an
ç¾İ åħĥ
ä¹ī å¸Ĥ|
æµ ģ|
æ° ı|
M B
ĠæĶ ¿
å¹² |
æ¶Īè´¹ èĢħ
æĪĲ ç«ĭ
im g
åĴ¨ è¯¢
çİ ī|
Ñ Ĥ
ä¼¦ è´Ŀ
æĶ¹ éĿ©
æĿ¥ |
è´ ¤|
èĩ ³|
ç¥ ¥|
in t
D 1
å¼º |
æľºåĻ¨ äºº
ç¥ ĸ
çļĩåĨł ä½ĵèĤ²
ä¸¹ |
Ġåĩ¯åıĳ é¦ĸé¡µ
Ġæ¸ Ń
æ³¨ æĦı
S ucc
t P
Ġæī ĳåħĭ
000 ',
ŀ åŁİ|
º |
èµĮ çĲĥ
Ġ3 8
æĿ¥ å°±éĢģ
æĮ ĳ
ĠåĲī æľ¨
S t
å¤© çĦ¶
éĻĨ |
çĿ £
Ġé² ģ
åĿ ¡|
Ġb s
Ġrem ind
ĠCC åĽ½éĻħ
æī İ|
C H
Ġatt ach
éĩ İ|
åĪ° ï¼Į
åıĳè´¢ ç½ĳ
P ublished
Pro vince
åĩ¤ |
Ġé»ĳ é¾Ļæ±Ł
éĽħ |
ĠP l
åĳĬ è¯ī
Ġè ĭĹ
æ¶ ¨
Ġç Ŀ
å¤ ·
è¿ ·
pc èĽĭèĽĭ
Ġæ¥ ļ
ĠèµĮéĴ± çļĦè½¯ä»¶
Ġlof ter
åĨ³ å®ļ
a j
ä¼ł åªĴ
Ġæ· Ħ
ï¼Ĭ ï¼Ĭ
_s ingle
Ġå¿ »
Ġçī Ł
æ£ ĭ
R o
V isitor
çĴ ĥ
6 æľĪ
"). val
Ġw66åĪ©æĿ¥ å®ĺç½ĳ
æľĢæĸ° çīĪ
Id s:
none ',
e ar
Ġ| ä¸¾æĬ¥
Y od
Ġist op
Ġm :2,
Ġb :2,
Ġè¿ Ľ
Ġ| åŃĹåı·
Ġç¹ ģ
æĺ¾ç¤º ï¼Į
Ġ|åŃĹåı· å¤§ä¸Ńå°ı
æ²Ļ å²Ľ|
ĠèĲ ¨
ermalink :'',
Ġlof tP
ĠloftP ermalink:'',
Ġå¤§åıĳäºĶ åĪĨéĴŁå¿«ä¸ī
æļ ĸ
Ġattach ments
æĪĲ éĥ½
set :'
Ġgroup Info:{},
good night
Ġbs rk:-100,
Ġvote :{},
Ġs rk:-100,
Ġistop :false,
status:' un
Ġfriend status:'
Follow ',
Ġfriendstatus:' none',
status:'un Follow',
Ġis Black
New User
Province :'',
Ġvisitor Province:'',
Visitor :false,
ĠisBlack Visitor:false,
Ġvisitor NewUser
ĠvisitorNewUser :false,
Ġis Published
ĠisPublished :1,
Ġfollow status:'unFollow',
Ġvisitor City
File Ids:
ĠvisitorCity :'',
Ġattachments FileIds:
ĠattachmentsFileIds: [],
ao Ad
ĠisShow Yod
ĠisShowYod aoAd
Add Info:{},
blog :false,
Ġpub Succ
Ġremind goodnight
Ġpost AddInfo:{},
ĠpubSucc :'',
Ġremindgoodnight blog:false,
Ġm con:'',
Ġm set:'
Ġmset:' 000',
Ġcurrent RecomBlog
Ġpublis her
ĠcurrentRecomBlog :false,
Ġlofter _single
Ġlofter_single :'
Ġä½ ¿
æī¹ åıĳ
åĩ¯åıĳ å®ĺç½ĳ
Ġå° Ħ
æ£ Ĵ
çļĦ æ£ĭçīĮæ¸¸æĪı
Ġåĩ¯åıĳæīĭæľº app
æĬ µ
æĹħ è¡Į
Ġpublisher Id:0,
èĬ ¬
Ġre comBlog
ĠrecomBlog Home
_ app
Ġç§Ĵ ç§Ĵ
æ³¨åĨĮ åľ°åĿĢ
éĿĴå¹´ åīµæ¥Ńè²¸æ¬¾
ig n
Ġå¨ Ħ
I T
çĶ· åŃĲ
Ġå® ¢
Ñ ģ
çĻ» ä¸įä¸Ĭ
Ġp c
ä½ĵ å½©
é¢Ĩ åŁŁ
S E
æ¯ı æĹ¥
function ()
æĸ¹ ä¾¿
æĪ ´
éĶ ĺï¿½
çŁ ¿|
a u
ç»ı èĲ¥
Ċ å®īå¾½
ç¾ Ĭ
å®ĺæĸ¹ç½ĳç«Ļ ä¸ĭè½½
çĶľèľľ ç´ł
è»Ĭ è²¸
éĵ¶ åķĨ
Ġagçİ¯äºļ 88
å¤§ ä¼ļ
Ġ2019-0 1
Ġå°Ĭé¾ĻäººçĶŁå°±æĺ¯åįļ å®ĺç½ĳ
æīĢ ä»¥
ĠçľŁäººèµĮéĴ± æ¸¸æĪı
è¦ Ĩ
ĠåĢ ĭ
ç¬¬ ä¸ī
Ġè© ķ
Ġag æĹĹèĪ°
ä¸ĵ å®¶
Ö Ģ
ĠrecomBlogHome :false,
_ è®¡åĪĴ
çĽĴ å®Ŀåħ¸
çİ© å®¶
Ġæ´ ¥
Ġéº ¦
Ġ1 å°ıæĹ¶åīį
Ġåĩ¯åıĳ ç½ĳç«Ļ
ĠP ower
å² ©
ĠåĲĪ ä½ľ
Ġå ©
ĠåĪ©æĿ¥ æīĭæľºçīĪ
æ¸¸ å®¢
å·ŀ ç½ĳ
åĩł å¤©
Ġçĥ Ń
ĠæŃ¦ æ±ī
åľ¨çº¿ æĬķæ³¨
Ċ2020-0 8-0
åŃĺ åľ¨
ĠèĮ ĥ
å¼ĢæĪ· ç½ĳç«Ļ
M P
o .
åĸ ®
ä¸į ç»Ļ
Ġ q
ãĢĤ çĽ®åīį
åħ¨å¤© è®¡åĪĴ
Ġè· Ŀç¦»
° ï¿½
Ġæ¾³éĹ¨ æ¸¸æĪıå¹³åı°
å° İ
å¯ »
æİ Į
ç®Ģ åįķ
Ġ6 0
ĠçĶµåŃĲ æ¸¸æĪıå¹³åı°
ĠæĪĲ éĥ½
åŁ ĥ
æ±Ł æĸ°éĹ»ç½ĳ
å¸¦ ä¸Ģè·¯
éĩĳ å¸ģ
ĠåĪ©æĿ¥ å®ĺæĸ¹ç½ĳç«Ļ
åĬłçĽŁ ç½ĳ
Ċ ?
Ġè¶ ħ
04 æľĪ
æ£ĭçīĮ 365
æ¬¡æķ° ï¼ļ
äºº äºº
v ent
éĺ³ åŁİ
Ġagçİ¯äºļ å®ĺç½ĳçĻ»å½ķ
åıĤ ä¸İ
Ċ B
å¼ĢæĪ· åľ°åĿĢ
æİ Ī
å¾· å·ŀæīĳåħĭ
K T
Ġèį Ķ
Ġæ¾³éĹ¨ èĳ¡äº¬
åıĸ å¾Ĺ
ç²¾ èĭ±
æ³ķ éĻ¢
ä¼Ĺ è®®éĻ¢
Ġå· ¨
Ġreserved .
çī¹ åĮº
çİ© åĲĹ
æīĭç»Ń è´¹
Ġ4 0
å¢ Ļ
Ġèı² å¾ĭå®¾
çļĦ ãĢĤ
c 0m
å¿ĥ å¾Ĺ
é¦ĸ æ¬¡
à¸ Ń
é© °
o og
æĿŃ å·ŀ
Ġå¿« é¤Ĳ
Ġæ¾³éĹ¨æĸ° éĵ¶æ²³
åľ £
S B
Ġæ± ½
çĤ¹ c0m
äºº åı£
Ġi os
é ¾
çıł ç©Ĩ
Ċ åĮĹ
or m
Ġä» ª
A L
it le
1 æľĪ
æµ·å¤ĸ ç½ĳ
at tr
èģ Ĭ
åĽŀ çŃĶ
c es
é ĨĴ
Ġ365betå®ĺç½ĳ å¨±ä¹Ĳåľº
ł éģĵ
â ķ
è´ ¤
èĻ ļ
Ġå¼Ģåħĥæ£ĭçīĮ æ¸¸æĪı
Ġæīĺ åħĭ
O H
Ġå¤§åıĳä¸ī åĪĨéĴŁå¿«ä¸ī
æĺ¯çľŁ å®ŀ
è¶ £
oog le
åıĸ æ¶Ī
éī Ħ
è´Ń å½©
Ġ3 å°ıæĹ¶åīį
ç§¯ æŀģ
Ġu u
ĠéĴ Ł
Ġ or
ba idu
æŁ ĵ
ç»Ł è®¡
" >
çľŁäºº èµĮéĴ±
æīĵ åį°
Ġåı¯ ä»¥
Ġå¤§åıĳäºĮ åĪĨéĴŁå¿«ä¸ī
æ¤ Ĵ
ç» ©
ic h
Ġåħ¨ çĲĥ
åľ° ä¸»
Ġ2 å°ıæĹ¶åīį
çĤ¹ åĩ»
åĮĸ å¸Ĥ|
- 9
Ċ -
ç¨³ èµ¢
ç½ĳåĿĢ å¤ļå°ĳ
éĢı è§Ĩ
ç§Łè½¦ -
Ġagäºļæ´² å®ĺæĸ¹
ä»¥ ä¸ĭ
åĭ ŀ
6 8
ĠåĽ ŀ
c L
Ġæ½ ľ
Ġæ¾³éĹ¨ æ£ĭçīĮæ¸¸æĪı
çĻ¾ ç§ĳ
Ċ è´µå·ŀ
Ġå± ¯
åħ³ éĹŃ
Ġæº §
å¹¿ åľº
5 åĪĨ
Ġæľ¬æºª å¸Ĥ|
ä½į äºİ
( {
Ćć ą
Ġ4 å°ıæĹ¶åīį
ĠæĪĳ è¦ģ
Ġæħ Ī
c l
ĠæĹ¥ æľ¬
m m
æĩ ī
èĵ ®
å¨±ä¹Ĳ åľ¨çº¿
Ġ un
åĬ ª
Ġhm con
he ck
Ġ à¸
Ġ356bet å¨±ä¹Ĳåľº
ä¹Į çıłç©Ĩ
é¦ ħ
Ċ ï¿½
Ġ365æ£ĭçīĮ èĭ¹æŀľ
Ġå® ½
Ġäºļæ¸¸å®ĺç½ĳ åıªä¸ºéĿŀåĲĮ
Ł åİ¿|
è¯Ī éªĹ
Ġ365æ£ĭçīĮ èĢģèĻİæľº
éĢ Ĭ
å¿ ł
á »
Ġ5 åĪĨæĹ¶æĹ¶å½©
æħ §
3 J
å¿«ä¹Ĳ 8
Ġæĸ Ĺ
ä¿Ŀ æĮģ
W V
åįĢ (
é£Ł åĵģ
åĪĨæİĴåĪĹ ä¸ī
Ġ5 å°ıæĹ¶åīį
ç®ĹçĽĺ å¼Ģå¥ĸç»ĵæŀľ
åľ ĸ
Ġ7 å°ıæĹ¶åīį
èİ· å¾Ĺ
åĪĨå¿«ä¹Ĳ 8
Ġ9 å°ıæĹ¶åīį
è®¡åĪĴ app
xz ZS
è´« åĽ°
ç½ĳ åıĭ
Ġ6 å°ıæĹ¶åīį
åĿ Ĳ
3 æľĪ
æīĭæľº ç«¯
Ġ î
Ij pm
YW xzZS
Ijpm YWxzZS
Ġ8 å°ıæĹ¶åīį
ç»ĻåĪ© çļĦèĢģçīĮ
ation al
- 7
ä¹Ĳ åĽŃ
Ġæ½ ¼
åį« æĺŁ
ĠçľŁéĴ± çº¿ä¸Ĭ
è· ³
èĻ ½
Ġç¾İ åĳ³
cc åĽ½éĻħ
ĠæĦ ı
Ġèĥ ¶
Ġæ¸ħ çľŁ
â Ĩ
è ¤
åĵ ¡
Ċ 9
Ġæĸĩ ç«ł
a )
C D
çīĪ æĿĥ
ç½ĳåĿĢ å¤ĩçĶ¨çĻ»å½ķ
åĪ© æģ¯
åģ ı
æĹıèĩªæ²» å·ŀ
RecomBlog Count
Ġself RecomBlogCount
ĠæŀĹ èĬĿ
èĥ Ĩ
å«Į çĸĳ
Ġè¡ ¢
ĠæĿ¨ åĽ½ç¦ıéº»è¾£çĥ«
8 æľĪ
A X
ç¡ Ģ
baidu .com/
16 æĹ¥
æ²³ åįĹ
lo ad
ãĢĳãĢĲpãĢĳãĢĲ> ãĢĳãĢĲ
ä½ľ åĵģ
åĽ½ ä¼ļ
Ġå¨ ĺå®¶
åĲ ķ
æ¹ ĥ
çĦ ¡
b t365
å¨ ľ
çĶ ¸
å¸ ķ
ĠçĭĹä¸ĩ æ»ļçĲĥ
é¢ ¨
u g
8 3
é¦ĸ éĢī
ä¸ĭè½½app åľ°åĿĢ
Ġ0 å°ıæĹ¶åīį
é¦ħ é¥¼
ĠæĪĳ æĥ³
Ġè® °
è´Ń çī©
çºª å¿µ
æĥ Ĭ
çº¢ é»ĳå¤§æĪĺ
uu å¿«3
ĠçĽ Ī
Ġæ¡ ĳ
Ġåı° æ¹¾
17 æĹ¥
ĠæĹ©çĤ¹åĬłçĽŁ è¿ŀéĶģ
ol or
ä½ł çļĦ
Ġæ ¾
æĦı è§ģ
ãĢĳãĢĲ /
ç¹Ŀï½ ³
10 åĪĨå½©
åĬŀ åħ¬
è¯´ æĺİ
é ³
èģ ŀ
è®¤ä¸º ï¼Į
æļ´ åĬĽ
éĬĢè¡Į è²¸æ¬¾
Ġè¿ ģ
Ġäºļç¾İ çľŁäºº
æĺ¯ æŃ£è§Ħ
Ġå¿« ä¹Ĳ
æīĭæľºå®¢æĪ·ç«¯ app
77 7
ä¸ľ è¥¿
ou se
å¤ĸ äº¤
365 ä½ĵèĤ²åľ¨çº¿æĬķæ³¨
å¸ ĸ
Ġéķ¿ æ²Ļ
ï¼Į å°Ĩ
Ċ N
ï¼Į è®©
æĸĩ æĺİ
Q L
éªŀ ï¿½
Ġçİ¯äºļ æīĭæľº
Ġç¥ŀ åĨľ
æĿ¯æĬķæ³¨ 365
åľ¨çº¿ ä¸ĭè½½
a ct
Â ł
åĪ© çĽĬ
Ġéĵ¶æ²³ åĽ½éĻħ
. html
ĠselfRecomBlogCount :'0',
é¦ħé¥¼ åĬłçĽŁ
201 8-0
ä¹Įçıłç©Ĩ æ²ģæĹĹ|
Ċ çĻ¾åº¦
åĨħ èĴĻåı¤
Ġ$("# resp
è¯ ĳ
å½©ç¥¨ app
ç½ĳ çĲĥ
Ġåĩ¯åıĳå®ĺç½ĳ åħ¥åı£
y ou
Ġæľ ª
Ġåħ¬ åı¸
Ġä¼ ģ
Ġæ³ ¢
Ġ201 0
ĠC P
é±¼ åĦ¿
æĺ¯çľŁå®ŀ åĲĹ
åĨ »
Ġç§ĴéĢŁ æĹ¶æĹ¶å½©
Ġçİ¯äºļçĶµæ¸¸ æĥ³èµļå°±è½¬
C C
Ġw e
çĽ´ æİ¥
Ġw as
è§Ĥ å¯Ł
ĠèĵĿ æľĪäº®
æĺ¯ ä¸Ģ
con d
è¿ŀ æİ¥
èĻ ĳ
æ¾³ å¤§åĪ©äºļ
7 æľĪ
å±ŀ äºİ
Ġè± ¡
ĠI nt
Ħ ĥ
ĠèĪ ŀ
Ġ2020-0 5
åľ¨çº¿ å¹³åı°
æĹħæ¸¸ ç½ĳ
Ġçİ¯äºļ æīĭæľºä¸ĭè½½
å»º çŃĳ
åį« çĶŁ
Ġåħ³ äºİ
Ġy our
p ZH
åĲį |
ro om
äºĨ ãĢĤ
Ġm an
å¯¹ æŃ¤
æī ĳ
æ³ķ å¾ĭ
å¦ Ī
5 åĪĨå¿«3
èħ Ĳ
Ġ5 8
I OS
ä¹ĭ ä¸Ģ
Ġå· ©
Ġå¤ĸåĽ´ è¶³çĲĥ
ç½ĳ æĺĵ
éĤ ±|
ç§ ¦
Ġag 88çİ¯äºļ
Ġç¤ ¼
åįĩ çº§
è³¼ å±ĭ
Ġmain Comment
éļ Ľ
ä½ı å®¿
äººçĶŁå°±æĺ¯ æĲı
åİ ¢
or k
æĺ¯ä»Ģä¹Ī ç½ĳç«Ļ
9 æľĪ
Ġè½¬ åıĳ
Ġ3 2
çĽŁ |
ä¸Ńæĸĩ ç½ĳ
ä¸į åĩº
åıª æľī
Ġ ä¾Ŀ
Ġå¹¿ åĳĬ
è¿Ļ ä¸Ģ
Ġ365æ»ļçĲĥ çĽĺ
ĠéĦĤ å·ŀ|
I R
Ġ4 8
æľª çŁ¥
Ġåĸ ľ
èµ° åľ°
å»º ç«ĭ
Ġæī ĵ
Ġæĸ°å·´å°ĶèĻİ å·¦æĹĹ|
Ċ2018-0 1
æľ¬ ç«Ļ
Ġè ķ
ad d
éĥµ ä»¶
ç¹ ģ
é«ĺ éĢŁ
Ġæĭ ľ
Ċéĺħè¯» (
ç¨ĭ åºı
åĮ» çĸĹ
ĠåħĭæĭīçİĽä¾Ŀ |
å¹¿ ä¸ľ
Ġ3 4
è®® åĳĺ
æľĢæĸ° ä½ĵèĤ²
æ©Łè»Ĭ åĢŁæ¬¾
çĻ»å½ķ é¦ĸé¡µ
' )
Ġag å®ĺæĸ¹
A pp
Ġè½¬åıĳ (
Ĉ ć
é ¾Ħ
ĠagåĽ½éĻħäºļæ¸¸ å®ĺç½ĳ
éģ ĭ
pl ay
çľŁ æŃ£
ra ct
åŃĲ éĥµä»¶
ï¿½ |
Ġâ ĸ
Ġä¸Ń å¼ı
ç¹Ŀï½ ¼
Ġçģ ¯
åĿ ı
å¼Ģ å±ķ
åŃĺ éĴ±
1 .2
è¿Ļ éĩĮ
åĽŀ å¤į
Ġå³¨ çľ
ç§ ĭ
å½ĵ |
ç¶² ç«Ļ
æĮĤ çīĮ
æ¯ĶåĪĨ ç½ĳ
Ġ5 00
Ċ M
çĩķ çªĿ
sc ript
å¤§å°ı åįķåıĮ
å¿ħ é¡»
Ĳ å±±|
Ġå¯ŁåĵĪå°Ķåı³ç¿¼ ä¸ŃæĹĹ|
Ġw66.com åĪ©æĿ¥
èİ² |
é¹ ¿|
æŃĮ è¯į
çĶµ åı°
.C ompany
æĺĮ å¸Ĥ|
Ġk gå¼Ģåħĥæ£ĭçīĮ
åĽĽ èĤĸ
ä¸Ģ é¡µ
çĭ ®
è¿Ĳ èĲ¥
æľī app
Ġå¯ŁåĵĪå°Ķåı³ç¿¼ åīįæĹĹ|
Ġ ä»£çĲĨ
Ġå°Ĭé¾Ļd88 ç½ĳåĿĢ
Ġæµİ åįĹ
Ġbet365 å¨±ä¹Ĳåľº
é²ģ æľ¨
Ġç§ĳå°Ķæ²ģå·¦ç¿¼ åĲİæĹĹ|
Ġç§ĳå°Ķæ²ģåı³ç¿¼ ä¸ŃæĹĹ|
Ġè°ģ æľī
æ¹ĥ æĸ°éĹ»
é²ģæľ¨ é½Ĳ
l ine
_ æ³¨åĨĮ
Ġæīĳåħĭ ä¹ĭæĺŁ
Ġçİ¯äºļag 88
ç¦ ¾|
app å®ĺæĸ¹ä¸ĭè½½
èĺ Ń
Ċ æĸĩç«łæĿ¥æºĲï¼ļ
éķ ·
ĠèĮ ¶éĻµ|
å¹ »
Ġè´µ å·ŀ
è¶ħ è¿ĩ
ä¸ĩåįļapp )
åĳ¨ åĪĬ
çļĦ app
å¼Ģ æĶ¾
Ġç ª
Ġç§ĳå°Ķæ²ģå·¦ç¿¼ ä¸ŃæĹĹ|
er e
ĠIn n
ar y
æ»ļçĲĥ çĽĺ
Ċæ¹ĸ åįĹ
Ġal ert
æĭħ ä¿Ŀ
re e
Ġå· ²
Ġèµ µ
ou s
é©¬ æĬ¥
ç¥ Ŀ
ĠĠ ĠĠ
æļ Ĺ
Ġæ¾³ åįļ
Ġ365ä½ĵèĤ² ç½ĳæĬķ
è® ¨
r and
Ġ3 1
çİ¯äºļçľŁäºº æ¸¸æĪıå¹³åı°
Ġfalse ;
åı° åĮĹ
Õ ¸
Ġæ¾³éĹ¨ å¨ģå°¼æĸ¯äºº
i o
} }
èĲĦ äº¬
Ġæĺ Ĥ
çī¹ åı³æĹĹ|
i ver
è¦ ½
ç»ı çĲĨ
Ċ çī¹èī²
éĺ »
åľ° ä¸ĭ
G L
¿ ¥
Ħ à¸
Ġ5 5
ĠU n
èī ¾
å¸ «
eng th
Ġ4 9
Ġçº ³
èĢ Ģ
Ġç¼ĸ è¾ĳ
s .com
å¸® åĬ©
å®¶ åºŃ
éĹ®é¢ĺ ï¼Į
Ġ365ä½ĵèĤ²æĬķæ³¨ æıĲæ¬¾
äºº çī©
äºº å£«
Ġ201 1
èĪ ĩ
ë ĭ
Ġæł ¼
o Z
n er
åĳ¨ å¹´
ĠåĮ º
æģ ¶
Ġä½ ı
åħī æĺİ
çı¾ éĩĳ
Ġéĺ¿ åĭĴ
G H
Ġn ot
Ġç±» ä¼¼
Ġçĥ Ł
ç´ ¹
Ġå°Ĭé¾Ļå¤ĩçĶ¨ å¼ĢæĪ·
/ æĹ¥
Ġäºļæ´² çİ¯äºļçľŁäººæ¸¸æĪıå¹³åı°
Ġ10 0
Ġçķ Ļ
é«ĺ æ¸ħ
Ġè Ķ
ç»ı è¿ĩ
æĲ Ń
éĵģ è·¯
æľĢ ç»Ī
Ġ3 åĪĨæĹ¶æĹ¶å½©
Ġ Ĉą
åŁº ç¡Ģ
Ċ (
ĠéĹ ½
Ġ5 1
ĠäºĶ èĬ³æĸĭ
æĶ¶ èĹı
. in
æĢ» ä¹¦è®°
æľĢä½³ çľŁäººæ¸¸æĪı
äºĶ å¤§
appä¸ĭè½½ å®īè£ħ
Ġ365bet å¨±ä¹Ĳåľº
S P
è ¹
ĠæŀģéĢŁ èµĽè½¦
Ġè¿ Ĳ
æ£ĭçīĮ å®ĺç½ĳ
å®īåįĵ appä¸ĭè½½
ĠäºļæĲı è§Ĩé¢ĳ
èµĦæŀ ĵå¤§åħ¨
l x
çĭ Ĳ
Ġå¤§åıĳå¿«ä¸ī å½©ç¥¨
ä»» åĬ¡
ĠâĢ ¦
E N
Ġåµ Ĭ
çĤ¹ åį¡
Ġåĩ¯åıĳæ³¨åĨĮ å¹³åı°
åĸ Ģ
ç½ ļ
ç»´ ä¿®
6 5
Ġ1 åĪĨæĹ¶æĹ¶å½©
8 ä¸ĭè½½
Ġçİ¯äºļ æľĢä½³çľŁäººæ¸¸æĪı
Ä Ł
çī© æµģ
id er
éĿłè°± ä¹Ī
ç½ĳä¸Ĭ æ³¨åĨĮ
Ġbet365 æıĲæ¬¾
ä¾ µ
æľĢå¤§ çļĦ
åľ¨çº¿ è®¡åĪĴ
é¼ ĵ
æĮĩ å®ļ
Ġblog Tag
å¤©çĦ¶ æ°Ķ
éª ¨
åŃ Ļ
Ġéĺ¿ èį£
åħ¬ åĽŃ
éł Ń
of f
a f
re m
ĠblogTag :'',
æ£® æŀĹ
Ċèį Ĩ
ä»ĭ ç´¹
è¡Ĺ æľº
é¦ ¬
çº¿ä¸Ĭ å¹³åı°
ä»¥ æĿ¥ï¼Į
Ġæĺ¾ ç¤ºåħ¨éĥ¨
éĢ ĥ
Ġ9 0
å¹´ åº¦
ãĢ İ
I V
Ġå¼ ¥
åĽŀ å½Ĵ
çŁ³ ç£Ĭ
å¸ Ŀ
åħ¨ æ°ĳ
Ċ éĻķè¥¿
åľ¨çº¿ å®ĺç½ĳ
å© ´
Ġåĩ¯åıĳ å¤ĩçĶ¨
Ġå· «
of t
å®īåįĵ ä¸ĭè½½
ä¹Ĳ å½©
æ°´ å¹³
Ð ½
C lass
Ġ6 4
Ġäºļæ¸¸ å®ĺæĸ¹ç½ĳç«Ļ
æł¼ éĩĮ
Ġçİ¯äºļag çĶµæ¸¸
ç¦ı å»º
çģ ¾
ĠæĽ´ å¤ļ
U D
Ġ9 4
J hb
ç´ ¯
ĠåĪ©æĿ¥ ç½ĳç«Ļ
æ¡ ĳ
à¸ ¥
Ġag çĽ´æĴŃ
éģ ¿
Ċ ä»ĬæĹ¥
å¤ļä¹ħ åĪ°
ĠçŁ³ å®¶åºĦ
Ġå¯ »
äº Ī
Ġç¶ ²
æľĿ é²ľ
åĽ¢ éĺŁ
æĪĳ çļĦ
çĶŁ æĢģ
Ġagçİ¯äºļ å®ĺç½ĳå¹³åı°
Ġçİ¯äºļ 88
Ġçİ¯äºļçĶµæ¸¸ å¨±ä¹Ĳå®ĺç½ĳ
Ġæ¾³éĹ¨ èµĮæĲı
æľ¨ èĪĴ
è²¸æ¬¾ çİĩåĪ©
ï¼Į ç¾İåĽ½
èİ Ĭ
Ġéĺ¿èį£ æĹĹ|
ï¼Į æ¯ı
Ġå² ĳ
èĭ ¥
éĩ Ĭ
12æľĪ 21æĹ¥
èĥ½ åĬĽ
Ľ ï¿½
e ct
Ġ{ {
Ġä¼ ĺ
Ġçİ¯äºļéĽĨåĽ¢ æīĭæľºçīĪ
Ġagçİ¯äºļçĶµæ¸¸ å®ĺç½ĳ
Ġå¼Ģ å¥ĸ
æĿ Ĥ
Ġ365ä½ĵèĤ²æĬķæ³¨ å¹³åı°
åıĭ æĥħéĵ¾æİ¥
éº» å°Ĩ
Ġå°Ĭé¾ĻäººçĶŁå°±æĺ¯åįļ æĹ§çīĪ
æĹĹèĪ° ä¸ĭè½½
Ġç£ Ĳ
å¯¹ äºİ
ä¿® å¤į
ï¼Į è¿ĺ
è½¦ |
O R
Ġå¤§åıĳ åįģ
9 1
ĠæŀģéĢŁ é£ŀèīĩ
è¿Ĳ åĬ¨
å·¥ç¨ĭ å¸Ī
ĠåĽ¾ æľ¨èĪĴ
Ġ3 7
E X
3 00
åĪĨ èµĽè½¦
Ġä½¿ çĶ¨
ï¼Į ä»İ
Ġ z
ĠagçľŁäºº åľ¨çº¿
Ġ4 4
æ¾İ æ¹ĥæĸ°éĹ»
è®¾ æĸ½
ï¼ ĳ
Ġæ¾³éĹ¨åħŃ ä¸ĭ
A B
ĠagçľŁäºº æ¸¸æĪı
ĠæĹ ¬
Ġæł ¾
C N
Ġæ± ¾
åħ¬ åĳĬ
Ġæ· ³
çİ°éĩĳ å®ĺç½ĳ
å¼º è°ĥ
çĮ ª
Ġä¹ ħ
Ġæ± ¶
Ġæ¾³éĹ¨ ç½ĳç«Ļ
æ·» åĬł
Ġ8 5
Ġå° ī
2 N
Ġæ¹ Ł
éĽ Ļ
Ġè´ ¢
è§Ħ åĪĴ
Ġ äººçĶŁå°±æĺ¯åįļ
A b
Ġæ¡ ĵ
U F
ĠæŁ ĺ
Ġæ¾³éĹ¨ æĬķæ³¨
Ġçĸ ı
åħĥ èµ·
å½ĵ å¤©
åıĺ åĮĸ
èŃ ·
å¸Ĥ æ°ĳ
ç±» åĬłçĽŁ
te d
æ³¨åĨĮ é¦ĸé¡µ
åı° åİ¿|
Ġå¤© å³
çĽ´èĲ¥ ç½ĳ
Ġåı ¶
if y
Ġæ¶ ŀ
Ġæ² ħ
is c
æ¶ §|
( ä¸ĩåįļapp)
Ġæ² ¾
ç»Ł æĹ©é¤ĲåºĹåĬłçĽŁ
æ¯ĶåĪĨ 365
t d
æĢ» éĥ¨
3 2
i re
åĨį æ¬¡
Ċ ç¾İåĽ½
Ċæ±Ł èĭı
ĠæĪ ĸ
éĤ£ ä¹Ī
Ġç Į
ĠåĵĪ å°Ķ
æµ ł
Ġ365bet æıĲæ¬¾
äº¿ åħĥ
çļĦ å¤§
æĶ¾ å¿ĥ
Ġâ Ķ
Ġæ¶ Ł
Ġæİ ª
Ġtr ue
åħįè´¹ è®¡åĪĴ
at h
æ» ĳ
åŃ ľ
é ŀį
æī¾ åĪ°
Ġæ² ¹
å¤®è§Ĩ è®°èĢħ
Ġç¾İ åĽ½
ç¾¤ ä¼Ĺ
s ,
Ġbet36 ä½ĵèĤ²æĬķæ³¨
å± ¯
Ġèį ¥
ä¸Ģ æľŁ
æĸĩ åŃĹ
Ġ365betå®ĺç½ĳ æıĲæ¬¾
æı ¡
ĠAGçİ¯äºļ ç½ĳåĿĢ
éĴĪ å¯¹
ç² ®
è®¸ åı¯
è§Ħ æ¨¡
Ġag ä¸ĭè½½
l ength
Ġc an
Ġal l
Ġrecommend Count:0,
ç¡ ¬
a z
ä¸Ģ å®ļ
Ġ9 8
st ract
ĠisShowYodaoAd :false,
çĽ® æłĩ
çĬ¶ æĢģ
Ġèħ¾è®¯ åĪĨåĪĨå½©
Ġæĸ° å®¾|
4 -10
Ġagçİ¯äºļ å¤ĩçĶ¨ç½ĳåĿĢ
çŁ ¿
é«ĺ éĽĦ
Ġbet .
b t
æ³ķ åĽ½
å¿« éĢĴ
æĪĸ èĢħ
çĽĳ ç®¡
éĩĮ å·´
å¹ ħ
O B
is h
åĪ¶ è£ģ
Ġè¿ Ļ
Ġw66åĪ©æĿ¥ æīĭæľºapp
éľ į
åıĤ è®®éĻ¢
åı¯ ä¿¡
ļ Į
åĪĽ æĸ°
ä¸ĩåįļ ä½ĵèĤ²app
å¨±ä¹Ĳ ä¸ĭè½½
éĬĢè¡Į ä¿¡è²¸
å¯ ¿
ĥ å£°
Ġå°Ĭé¾Ļ ä¸ĭè½½
ç ĺ
I nt
åĩº åĶ®
æĪĺ çķ¥
Ġäºļæ¸¸ ç½ĳåĿĢ
2 l
é© Ĺ
ä½ľ æĸĩ
Ġ `
éĬ ·
ãĢĤ æŃ£æĸĩå·²ç»ĵæĿŁï¼ĮæĤ¨åı¯ä»¥æĮīalt+4è¿Ľè¡Įè¯Ħè®º
Ġ2 .0
èµ¶ éĽĨ
Ġm y
ãĢĳãĢĲ l
Ġè¥¿ çĶ²
å®ŀ åĬĽ
è¢ Ń
ãĢĳãĢĲ aãĢĳãĢĲ
Ġç¦ Ħ
çľĭ åĪ°
Ċ æĺĨ
G D
æ¶ ¯
Ġ6 5
Ġå¥ ĩ
çĶ³ è«ĭ
èĦ± è´«
m p
Ġå°Ĭé¾Ļ äººçĶŁ
ĠçĭĹä¸ĩ -
äºĭ å®ŀ
' s
ç½ĳç»ľ å¹³åı°
Ġag ç½ĳæĬķ
Ċ æĹ¶éĹ´:
ĠçĶ ¨
d H
Ġ1 åĪĨpk10
ĠåĨ ľ
æ³ µ
Ġä½ĵèĤ² 365
èĢĥ è¯ķ
9 6
æľĢ å¤ļ
M F
Ċæ¹ĸ åĮĹ
å±ķ ç¤º
ä¸»å¸Ń ä¹łè¿ĳå¹³
Ċ éĩĳ
Ļ åİ¿|
åĪĨ é¡ŀ
åºĶ çĶ¨
Ġå ł
æ¾ ¶
ãĢ ı
ĠéĤ ¢
èĪª ç©º
Ġagçİ¯äºļçĶµæ¸¸ ç½ĳåĿĢ
èģĮ ä¸ļ
å«Įçĸĳ äºº
???? ????
Ġå°Ĭé¾Ļ æĸ°çīĪ
âĢķ å¤§åıĳ
Ġ en
Ġçİ¯äºļ çĻ¾å®¶ä¹Ĳ
çº ½
Ġçº¿ä¸ĬçľŁäºº åıĳçīĮ
Ġag çĻ»å½ķ
Ġæľī ä»Ģä¹Ī
éĹª éĢĢ
Ġ( )
Ġ4 6
Ġd o
ĠagåĽ½éĻħåİħ ä¸ĭè½½
Ċ W
ĠçĻ ¼
éªĹ åŃĲ
ĠPower ed
å°ıé¡į ä¿¡è²¸
æ¡ĥ åľĴ
Ġç ¾
æģ ¢
åĬŁ èĥ½
åĲ ¨
éĻ¤ äºĨ
Ġ6 8
Ċ åķĨ
æķħ äºĭ
Ġè¿ŀ éĶģ
æĬ ±
å° ĸ
Ġ8 0
æļ Ĥ
à¹ Ī
10 00
å®¹ æĺĵ
er ies
Ġçİ¯äºļ ä¸ĭè½½
åŃ¦éĻ¢ âĸ³
èª ª
åĪĨå¿«ä¹Ĳ åħ«
èģĶåĲĪ åĽ½
é¢Ħ è®¡
ç©º éĹ´
èħ ¦
èĲ ¥|
çķ ħ
ãĢĤ æŃ¤
è¡ ĵ
åĪ¶ ä½ľ
æ Ł³
åıĤ èĢĥ
Ñ Ģ
Ġä¹¦ åºĹåĬłçĽŁ
Ġ3 3
js on
éĻ ·
Ġå¼Ģåħĥæ£ĭçīĮ çĤ¸éĩĳèĬ±
Ġ9 5
ä¸ļ åĬ¡
åıĳ è¨Ģ
Ġç« ŀ
Ġå° Ĩ
æĹĹèĪ° çīĪ
Ġä¹ ¾
Ab stract
æīĭæľºçīĪ å®¢æĪ·ç«¯
æ¨ £
å·ŀ äºĮæīĭè½¦
Ĥ ¬
åĸľ æ¬¢
ä¸į æĸŃ
æĶ¶ åħ¥
2017 å¹´
å¸ ½
t ype
å¨±ä¹Ĳ æ³¨åĨĮ
Abstract :'
te xt
Ġ2020-02-2 5
å®ī æĸ°éĹ»ç½ĳ
m F
æľįåĬ¡ åĻ¨
ĠæĿ ±
å¿« æĬ¥
æ¶ ²
Ġd88å°Ĭé¾Ļ å¤ĩçĶ¨ç½ĳåĿĢ
çĬ¯ ç½ª
è¢« å°ģ
æĤ £
éĢī æĸĻ
Ġæ¾³éĹ¨ çļĩåĨł
é©¾ é©¶
ag åıĳè´¢ç½ĳ
å¢ŀ åĬł
èĻ Ł
åħ±åĴĮ åĽ½
Ċ ç¾İ
å¨ ģ|
Ġæĺ¾ç¤ºåħ¨éĥ¨ æ¥¼å±Ĥ
åĬŀ æ³ķ
Ġéĩĳ æ²Ļ
Ġç ³
Ġç½ĳä¸Ĭ çĻ¾å®¶
ç»¿ èī²
r c
åı¯ä»¥ ä¹°
v ar
â ĺħ
åįĵ äºĳ
åħ¨ æĸĩ
éģ Ķ
èĳ £
nt i
è½ ¨
Ċ2019-0 7
ite m
æľī äºº
Ċä¸ŃåĽ½ è¥¿èĹı
aj ax
Y P
Ġèıłèıľäºº çĶµç«ŀ
ï¿½ _
åĪ¶ åº¦
ç ŀ
W J
çľŁéĴ± æ£ĭçīĮ
è¿Ĳ è¾ĵ
æĬ ½
Ġé¹° æ½Ń|
Ġæ ¾İ
ĊæĤ¨ çİ°åľ¨
UU å¿«ä¸ī
å¿«ä¹Ĳ 10åĪĨ
Ġå¤§åıĳ 2åĪĨå½©
ï¼ļ 0
éªĹ äºº
Ġæģ ¯
3 )
æľį åĭĻ
éīĦ ç®ĹçĽĺå¼Ģå¥ĸç»ĵæŀľ
åĵªä¸ª å¹³åı°
c ation
éĥ¨ |
Ġéļ ı
åį Ķ
at es
Ċ L
Ċ æīĭæľº
Ġ365ä½ĵèĤ² å®ĺç½ĳ
åĩºçīĪ ç¤¾
çĩ ĥ
Ġ6 7
s un
æ±Ł è¥¿
G F
Ġçİ¯äºļ æ¸¸æĪıå¹³åı°
ĠçĻ¾å®¶ åĪ©
« |
å°Ķ å¤ļ
Ġag å®ĺç½ĳ
æ£ĭçīĮ appä¸ĭè½½
æıĲ |
Ġä¸ľ è¥¿
å¢ ¨
ä¸º |
Ġ& &
s l
æĹħ é¤¨
ç¸ º
Ġ356bet æıĲæ¬¾
Ġé Ń
Ġèİ Ĵ
Ġ7 7
M N
· åİ¿|
ãĢĳãĢĲ ;ãĢĳãĢĲ
Ġç§ Ģ
è´ ·
ç½ ķ
Z X
æĹ¶æĹ¶å½© å¹³åı°
å·¦ åı³
âĢĿ âĢľ
Ġæ½ į
åĳ¨ |
å¾Ī å¿«
ä¾ ¦
Ġä¿¡èªī å¥½çļĦ
è¶³çĲĥ æ¯ĶåĪĨ
1 ',
åĶ Ĳ|
22 æĹ¥
Ñ ĥ
ãĢĳãĢĲ 2ãĢĳãĢĲ
O X
å¡ŀ |
V I
Ġè¥¿ å³¡|
By Id
å°±æĺ¯ åįļ
å®ĺæĸ¹ä¸ĭè½½ ç½ĳç«Ļ
Ġçİ¯äºļçĶµæ¸¸ ä¸ĭè½½
Ġ5 åĪĨpk10
åŁ Ķ|
æĿ¥ è¶Ĭ
é¥® åĵģ
ĠA N
ĠåĪ©æĿ¥ æ£ĭçīĮ
çĥ §
Ġ5 4
å·¥ ä¸ļ
åĬĽ éĩı
è¼ ī
ï¼Į çĽ®åīį
é¹ ı
ç½ĳç«Ļ _
ç¿ °
ar ch
Ġå³¨çľ īå±±|
à¹ ī
æ¯Ķ è¾ĥ
Ġä¸ľè¥¿ æ¹ĸ|
(" #
æµıè§Ī åĻ¨
Ġåĵª éĩĮ
è¶Ĭ æĿ¥è¶Ĭ
Ċ G
æĭ ¥
éĺ ¶
è©ķ åĥ¹
p b
Ġblog Abstract:'
éĦ ī
Ġåŀ ¦
æĿ¥ åĪ°
çĶ± äºİ
Ġagçİ¯äºļéĽĨåĽ¢ å¨±ä¹Ĳ
è¿Ļ ç§į
æİ¨èĸ¦ ,
Ġè »
çĶŁ åĳ½
éº ¦
è§£ æĶ¾
çľĭ æĸ°éĹ»ç½ĳ
æĻ® éĢļ
åīį ï¼Į
Ġä¹Įæĭīçī¹ åīįæĹĹ|
æ£ ł
è¯Ħ çº§
Ġagçİ¯äºļ æīĭæľºçīĪ
æīĢ åľ¨
app æīĭæľºçīĪ
ĠåľŁé»ĺ çī¹å·¦æĹĹ|
è¯¦ æĥħ
Ġä¹Įæĭīçī¹ ä¸ŃæĹĹ|
åı· ï¼ļ
- ä½ĵèĤ²æĬķæ³¨
ä¸Ģ ãĢĳãĢĲ
èĴ Ĥ
Ġèĭıå°¼ çī¹å·¦æĹĹ|
Ġéĺ¿æĭīåĸĦ å·¦æĹĹ|
n ews
éĿŀ æ³ķ
ĠéĤ ĵ
Ċçľĭ çľĭæĸ°éĹ»ç½ĳ
æıĲ é«ĺ
Ġ3 9
åĴĮ åİ¿|
Ġagäºļæ´²åĽ½éĻħ æ¸¸æĪı
ä¸² ä¸Ģ
æĹ©çĤ¹å°ıåĲĥ åĬłçĽŁ
æľĢ å¥½çļĦ
åĺ ´
Ġæ² ¿
éĩį çĤ¹
åĪĨ æľŁ
æ¶ī å«Į
è³¼å±ĭ åĦªæĥł
< ãĢĳãĢĲpãĢĳãĢĲ>ãĢĳãĢĲ
ä¹¡ åİ¿|
éĩĩ åıĸ
Ġå¤§åıĳæĹ¶æĹ¶å½© æĺ¯
Ġåĩ¯åıĳå®ĺç½ĳ æīĭæľºçīĪ
Ġä»Ĭ æĹ¥
åľ¨çº¿ ç½ĳæĬķ
am p
Ġåĭ Ĳ
â Ħĥ
. d
¥ ï¿½
å²ģ çļĦ
sp an
å¹¿ è¥¿
æ¢ ¯
Ġå¾® ä¿¡
åıį å¯¹
ä¸Ń æĸ¹
èĪ ¬
åįļ çī©
o x
Ġagçİ¯äºļ æĹĹèĪ°
Ċå½ĵåīį ä½įç½®:
Ġ7 0
åī ²
Ċ F
ä¸ĩ äºº
è ŀ
æĬ¥ ãĢĭ
éĤ Ħ
ç¢ ¼
æĬķ è¯ī
İ è«ĸ
æľīåĵªäºĽ l
åı¬ å¼Ģ
Ġ2018 éªŀï¿½
å®ĺç½ĳ _
= '
ä¼ļ |
Ġ5 6
i LCJ
æ±Ĥ èģĮ
ģ ï¿½
èº«åĪĨèŃī åĢŁéĮ¢
çĶ¢ åĵģ
ĠçĿ ¢
ä¸» é¢ĺ
Ġåµ ©
Ġagçİ¯äºļ æīĭæľºå¹³åı°
Ċ é¦ĸéłģ
Ġä¹Į é²ģæľ¨é½Ĳ
\ n
æī «
s o
Ġåıĳå¸ĥ æĹ¶éĹ´ï¼ļ2019
èģĮ ä½į
Ġå¤ ´
A F
çĶ³ åįļ
ä¿¡èªī ç½ĳ
éĻ ¶
U L
æ¡ £
Ġç§ĴéĢŁ èµĽè½¦
Ġè¯ ¸
\ /
å¹³åı° _
o ol
ä»ĸ çļĦ
éģĵ |
åĽ¾ |
Ġå¤©ä¸ĭ çİ°éĩĳç½ĳ
U J
æĢİ éº¼
F wv
20 æĹ¥ï¼Į
è¿ Ī
ĠåĢĭ äºº
en ce
Ġæµ Ļæ±Ł
Ġç» ´
Ġäºĳ åįĹ
åħī ä¸´
åľ¨çº¿ çĻ»å½ķ
10 å¤§åĵģçīĮ
Ġ( 1)
Ġc om
< /
4 å¹´
Ġæľ į
Ġèģ Ĭ
Ġçİ¯äºļçĶµæ¸¸ å®¢æĪ·ç«¯
Ġåĩ¯æĹ¶ app
æĹıèĩªæ²» åİ¿|
ä¸į è¿ĩ
m g
an ce
Ġå² ļ
E V
æ¯Ľ åįĵäºĳ
ĠäººçĶŁå°±æĺ¯åįļ d88
Ġ7 8
ï¼ į
è¿Ľ åİ»
åĲį æĹ©é¤ĲåĬłçĽŁ
Ċ çİ¯çĲĥç½ĳ
æı Ĵ
H e
å·¥ä½ľ äººåĳĺ
éĿ¢ å¯¹éĿ¢
Ġ9 1
çĨ Ł
(" script
hm t
Ġ5 7
éĩĮå·´ å·´
Ġ_ hmt
åĪ© çĶ¨
Ġæ¾³æ´² å¹¸è¿Ĳ
er r
Ġå² ±
æ²³ ç½ĳ
nti Ad
å¤« åŃĲæĹ©é¤ĲåĬłçĽŁ
Ġ365æ£ĭçīĮ æ°´æŀľ
ä¸º äºĨ
ç¾ ©
çº¿è·¯ æ£Ģæµĭ
ĠæĶ¶ èĹı
ï¼ī ï¼Į
ä¿® æĶ¹
Ġåĩ¯åıĳ ä¸»æĴŃ
Ġæ ©
æľĢæĸ° é¦ĸé¡µ
Ġ2020-02-2 6
éŃ Ķ
20 00
ç½ĳç«Ļ åħ¥åı£
é¥®åĵģ åĬłçĽŁ
âĢľä¸Ģ å¸¦ä¸Ģè·¯
Ġç ¡
ģ à¸
æ· ·
Ġäºķ éĻ
Ġ8 7
åĲ Ľ
Ġ2019-0 8
åľ ĺ
Ġæ± Ĥ
ĠèĲ¥ åħ»
æĸĩ æ±ĩ
Ġå°Ĭé¾Ļ å°±æĺ¯åįļ
Ġ200 9
å¯¼ èĩ´
< ãĢĳãĢĲ/
W N
ĠåĪ©æĿ¥w66 æ³¨åĨĮ
ä¹ĭ éĹ´
æľĢ åĩĨ
Ġçī Ľ
Ġå¤§åıĳ 1åĪĨå½©
èĩª æİĴ
è¿ ģ
å¾®ä¿¡ ç¾¤
èĲ §
Ġd88å°Ĭé¾Ļ çĶµåŃĲæ¸¸æĪı
Ġåįļ å¤©
åĢ ĳ
åĲĪ èĤ¥
éĶ ¡
O J
Y B
Ġå°ı é±¼åĦ¿
Ġag æįķé±¼
æĸ¯ çī¹
hm .
ĠåĪ©æĿ¥ æīĭæľºå®¢æĪ·ç«¯
æĿ ĳ|
1 .5åĪĨå½©
Ġi Phone
èĢģ çļĦ
:' 1',
ç»ĳ å®ļ
åľ ¾
ĠåħŃ çĽĴå®Ŀåħ¸
äºĨ åĲĹ
q ue
å¡ ĳ
Ġse cond
èĻ½ çĦ¶
Ġ365ä½ĵèĤ²åľ¨çº¿ æĬķæ³¨
åĬª åĬĽ
è·ĳ çĭĹ
p h
Ċ åıĭæĥħéĵ¾æİ¥
ĠæĬķ æ³¨
Ġå¾· å·ŀæīĳåħĭ
Y N
Ġå°Ĭé¾ĻäººçĶŁ çİ°éĩĳå®ĺç½ĳ
äº ŀ
ç« Ł
S N
åĤ ³
éŁ ¦
éĥ¨ éķ¿
Ġi p
n b
å® ı
sc 2
ä½ĵ çİ°
u an
å¨±ä¹Ĳ çĻ»å½ķ
æİ ĪæĿĥ
Z mF
ZmF sc2
I6 ZmFsc2
I6ZmFsc2 Us
åĮº åŁŁ
iO i
Ġæ¾³éĹ¨ åĽ½éĻħ
é¡ ¯
æİĴåĪĹ ä¸ī
ç½ĳç«Ļ å¹³åı°
å®ŀ éĻħ
b j
è®¡åĪĴ ç¾¤
Ġp l
æ» ļ
å½© çĲĥç½ĳ
4 00
åĲĦ ç§į
å¨±ä¹Ĳ app
Ġï½ ľ
N ame
Ġbet365 çº¿ä¸Ĭ
ļĮ åŁ
ĠåĲ Ĳ
æĻĭ æ±Łæĸ°éĹ»ç½ĳ
Ċ çĶĺèĤĥ
I6ZmFsc2Us Im
æķ £
å¡ ĺ
Ġagçİ¯äºļ å¹³åı°
K B
¡ ä¸¹
Ġå¤§åıĳ 5åĪĨå½©
æ¡ĥ |
å§Ķ ä¼ļ
ĠæĹ©é¤Ĳ é¦ħé¥¼åĬłçĽŁ
åħįè´¹ æĬķæ³¨
Ġå¤§åıĳ å¹¸è¿Ĳ
15 æĹ¥
an k
Ġå®ľ åĲ
æ´ ģ
/ 1
æĶ¿åºľ ç½ĳ
Ġhmcon :'1',
Ġæ¸¸ æĪı
2 YX
C F
e .
èģ ª
åįķåıĮï¼ļ å¤§åıĳå½©ç¥ŀ
èĤ ¯
ĠåĪ©æĿ¥ app
è© ±
Y R
Ċ <
ĠéĽ ¶
Ġåģ¥åº· æĹ©é¤ĲåºĹåĬłçĽŁ
çļĦç½ĳåĿĢ æĺ¯å¤ļå°ĳ
è¢ ĭ
Ġ365æ£ĭçīĮ æĸ°æīĭåį¡
åī Ĥ
E P
åĢ º
åĽ½ åĬ¡
ä¼ĺ åĮĸ
ä¸ľ åĮĹ
åĭ ¤
Ġåĳ¼ ä¼¦è´Ŀ
è¿Ŀæ³ķ åĲĹ
Ġæľ Ń
M X
èĻ ¹
Ċ æ³ī
u z
éĵ¶è¡Į åį¡
å¯ ¶
ĠåįĹ æĬķ
M J
ĠæĪĳæĥ³ åĬłçĽŁæĹ©çĤ¹
Ġå¹¿ å·ŀ
Ġåħ »
å¤§ ä»Ļ
ç¼ĸè¾ĳ ï¼ļ
Ġæ´ ĭ
ç¥ĸ åĽ½
Ġs port
Ġ4 3
è¾¾ åĪ°
ą ć
Ġå°Ĭé¾Ļæĸ°çīĪ app
Ġå¤§åıĳ 3åĪĨå½©
æ¡Ī ä»¶
å¾Ĺ åĪ°
ã Ī
ä¸ĭ ä¸Ģ
æĺ Ĥ
éķ¿ æľŁ
agæĹĹèĪ°åİħ ä¸ĭè½½
Ġä½ĵèĤ² æ¯ĶåĪĨ365
p age
Ġä¸ºä»Ģä¹Ī ä¸ĩåįļ
Ġ ä»£
ĠéĿ¢ è®®
/æĹ¥ åĿĩ
æĮ ¯
ä» ĵ
Ġ4 2
Ġ1 æĹ¶
ĠéĢ Ł
Ġæīĭ åĬ¨
èĮ Ĥ
pZH Ro
Ċ åħ³éĶ®è¯į
è ¬
Ġåį ³
Ġ9 7
ç½ĳç«Ļ 365
ï¼Ł âĢĿ
ĠäºļæĲı å®ĺç½ĳ
Ġèĩª åĬ©
æŁ ±|
Ġçª ģ
Ġè· ¯
ĠéĦĤ æ¸©
th er
åŁº éĩĳ
e f
äº ķ
å¤ı |
ĠåĲĲ é²ģ
Ċå½ĵåīįä½įç½®ï¼ļ é¦ĸé¡µ
s g
æĤ¨çļĦ ä½įç½®ï¼ļ
H R
M R
æ¡Ī ä¾ĭ
æķ ¬
å¹¿æĴŃ çĶµåı°
A R
Y J
çļĦ æīĭæľº
åħĳ æį¢
çĶµ æ°Ķ
Õ «
· éĥ½
ç§ Ģ|
åıĹ åĪ°
æľĢæĸ° çīĪæľ¬ä¸ĭè½½
99 çĤ¹c0m
å½ĵ æĹ¶
å° º
Y F
å® µ
Ċ å±±è¥¿
ĠæĻ® æ´
æ¸¸æĪıç½ĳåĿĢ å¤§åħ¨
çµ Ĳ
K N
ï¼Į ä»ĸä»¬
-------- --------
æ³ķ æ¡Ī
Ċ æµĻæ±Ł
æ¾İ æ¹ĸ
Ĭ ï¿½
å¹² éĥ¨
ī ï¿½
åħ¬å®ī å±Ģ
å½© ç½ĳç«Ļ
or y
ç½ĳä¸Ĭ å¨±ä¹Ĳ
Ġå¼łå®¶ çķĮ
Ġå°Ĭé¾Ļå°±æĺ¯åįļ æĹ§çīĪ
åħ± æ¬¢ä¹Ĳ
ĠåĪ©æĿ¥ appä¸ĭè½½
Ġ2018 -10
ĠUU å¿«ä¸ī
ĠåĪ©æĿ¥èµĦæºĲ ç«Ļ
Ġçº¿ä¸ĬçľŁéĴ± å®ĺç½ĳ
åħ¬ å¹³
Ġéĥ¨ èĲ½
äºĶå¤§ èģĶèµĽ
æī¶ è´«
æ²³ å¸Ĥ|
Ġé©¬ éŀį
é¢Ŀ åº¦
Ġks8 åĩ¯åıĳ
ob j
ä½ĵ ï¼ļ
ä¸ī ä¸²ä¸Ģ
= ="
ï¼Ī è®°èĢħ
Ċ çĪ±
éļ Ķ
Ġn ba
æĦ Ľ
http s
Ġ3 åĪĨpk10
ï¼Įåħ¶ ä¸Ń
Ġæ»ļçĲĥ 365
å½ »
å¦ ĩ
Ċä¸Ĭ ä¸Ģç¯ĩ
å®ī å¿ĥ
å±ķ å¼Ģ
1 åĪĨå¿«3
å¼ķ åıĳ
æķĻ ç¨ĭ
Ġh ave
Ġbet356 æĢİä¹Ī
K F
Ġäº ¿
ĊçĻ¾åº¦ æĸ°éĹ»
åı° çģ£
Ċ ä¸Ģ
ãĢĳãĢĲ 1ãĢĳãĢĲ
ĠA nd
æ²³ åĮĹ
ãĢĢ âĢľ
Ċ D
Ġåĩ¯åıĳ å¨±ä¹Ĳ
è¿Ļ æĺ¯
èº«ä»½ éªĮè¯ģ
U iOmZhbHNlLCJ
Ijo i
IjpmYWxzZS wi
ĠçĽ Ĭ
ĠçĦ ¦
ãĢĤçĽ®åīį ï¼Į
ĠC ol
å®ĺç½ĳ é¦ĸé¡µ
èĮĥ åĽ´
Ġ appä¸ĭè½½
Ġé£ İ
åĢĭäºº ä¿¡è²¸
Ġæŀ£ åºĦ
çķĻ è»Ĭ
Ġ365betå®ĺç½ĳ çº¿ä¸Ĭ
Ġèı ı
ĠI N
ĠT r
Ġ2 åĪĨæĹ¶æĹ¶å½©
æ¬¢è¿İ åħīä¸´
Ċ bet365
èģ ·
åĲ ĭ
ĠccåĽ½éĻħå½© çĲĥ
æĮī çħ§
Ġè¯ ļ
çĽ´ çº¿
Ċ è¥¿èĹı
å¿« åĲĹ
Ċ ç¬¬ä¸Ģ
çŁŃ ä¿¡
Ġhttp:// www.
ç½ĳåĿĢ _
19 æĹ¥ï¼Į
Ġm od
il d
å¯¼ å¸Ī
Ġ ï¿½ï¿½ï¿½
Ċ |
Ġé¦Ļæ¸¯ åħŃ
Ġè ļĮåŁ
æĸĹ åľ°ä¸»
ĠåĪ©æĿ¥w66 å¨±ä¹Ĳ
æīĵ é±¼
G J
Ċ 365ä½ĵèĤ²æĬķæ³¨
Ġse o
Ġæİ¨ èĸ¦
äºļæ´² çľŁäºº
åĩº å¸Ń
indow s
è´¢ ç¥ŀ
ĠçĭĹä¸ĩ æµģæ°´
å¹´ æĿ¥
Ġagçİ¯äºļ æīĭæľºçĻ»éĻĨ
Ġç« ł
æŃ£ å¸¸
Ġèī ²
A J
å¥ Ķ
Ġæ¯ ķ
åľ¨ ãĢĳãĢĲ
Ã ł
Ġ365betå®ĺç½ĳ æīĭæľº
æĢ ķ
ä¹ĭ åĲİï¼Į
Ġåĩ¯åıĳçĶµæ¸¸ æ³¨åĨĮ
æ¸¸ èīº
ĠçĭĹä¸ĩ mb
äºĴ èģĶç½ĳ
Ġç Ĵ
å®¶ äºº
ä¿Ŀ éĻ©
å®ģ æ³¢
ç±» ä¼¼
Ġ2020-02 -19
Ġåĩ¯åıĳå½©ç¥¨ å®ĺç½ĳ
æĦı çĶ²
Ġä¼ Ĺ
çŃ ¹
å®Į æķ´
. h
Õ ¥
Ġ 2020å¹´
ĠçĶµ èĦĳ
æ¬§ åĨł
S R
Ġä¼ģ ä¸ļ
åĪĻ |
Ġ9 6
Ċ åħ³äºİ
å¤ º
Ġæľī æ²¡æľī
ä¸Ģ çłģ
Ġå·´å½ ¦
Ġ7 4
æĬķ ç¥¨
Ġ1 .5
çī¹åĮº æĬ¥
å¤§ ç¥ŀ
åı° ä¸Ń
æ± ¡
T ype
æĿ¥ æºĲ:
Ĉ Ć
çİ» çĴĥ
å¸Ī |
ä¿¡èªī ç½ĳ_
Ġè ³
ĠèµĮéĴ± æ¸¸æĪı
åĴĮ åĲĪ
Ġä¹ ī
æ¹ĸ åĮĹ
ä¼ĺæĥł å¤ļä¸ĢçĤ¹
W B
Ċ é»Ħ
çĭ ±
æµ· åİ¿|
C L
Ċæ³ī å·ŀç½ĳ
K V
åħ¼ èģĮ
Ċ2019å¹´ 10æľĪ
Ġå°Ĭé¾Ļ app
Ġ7 6
åħ± äº§
æĸĩ |
åĪĨ æ¬¢ä¹ĲçĶŁèĤĸ
Ġè®° èĢħ
ĠçĽ¸ åħ³
æĹ¥æĬ¥ éģĵï¼Į
çĦ ¦
å¾ Ĳ
æ» ĭ
è Ŀ
ç¨ ±
Ċæłĩ çŃ¾ï¼ļ
³ å·ŀ|
ä¸ĸ çŁ³
u ite
åħį çķĻè»Ĭ
åĽ½ ãĢĳãĢĲ
Ġbet36 å¤ĩçĶ¨
K R
è¾½ å®ģ
æ´Ľ |
Ġ365ä½ĵèĤ²æĬķæ³¨ æīĭæľº
æĸ°éĹ»ç½ĳ ...
å® ħ
åħĥ |
ĠæĽ ¾
Ġ365ä½ĵèĤ²æĬķæ³¨ çº¿ä¸Ĭ
å°Ĭé¾Ļ äººçĶŁ
åĪĨ äºĮåħ«
Ġèµ ¢
ont ent
ç¥ŀ å½©äºīéľ¸8
åĿ Ĭ|
ç½ĳä¸Ĭ å¼ĢæĪ·
ä½ľ çĶ¨
W X
åĪĨ é¾ĻèĻİ
â Ī
å ´ĩ
ĥ åľ¾
ak e
çĽ Ĺ
ä¼¦ æĺ¥
Ġwww.d88.com å°Ĭé¾ĻäººçĶŁ
Ġä½ľèĢħ :
Y V
Ġä¸ ģ
ĠäºļæĲı å½©ç¥¨
Ġw ill
IC P
£ à¸
åħ±äº§ åħļ
ä»Ģä¹Ī æĹ¶åĢĻ
ç«ĭ åį³
ĠéĦĤ ä¼¦æĺ¥
èĬĤ |
Ġä½ı å®¿
ç±» åŀĭ
å®ĺæĸ¹ æīĭæľºapp
æ± ¾|
Ġçİ¯äºļ ç½ĳåĿĢ
äºº æīį
Ġ8 6
ĠèĪ Ł
çĲĨ |
Ġdocument.getElement ById
æ³ Ĭ
Ġåıĳè¡¨ äºİ
ĠçľŁäºº å¹³åı°
ç½ĳä¸Ĭ æĬķæ³¨
â ĳ
å¤§ éĩı
ĠåĪ©æĿ¥w66 ä¸ĭè½½
å¸ĥ |
Ġæĸ°èĳ¡ ï¿½ï¿½
lo t
I J
è· Į
è¯ Ĭ
Ġ365betå®ĺç½ĳ å¹³åı°
åĦ¿ ç«¥
Ġå® ŀ
´ ï¿½
Ġåıĳå¸ĥ æĹ¶éĹ´:
åĮ» çĶŁ
- æ¬¢è¿İæĤ¨
åħħ |
åĳĺ å·¥
ĠéĤ ¯éĥ
K J
G R
æŁ ľ
è¿ĩ åİ»
Ġçİ¯äºļag æ³¨åĨĮ
Ġï¼ İ
ä¸į å°ĳ
Õ ¶
Ġbet356 æıĲæ¬¾
åħ¬ è·¯
æĿİ ä¸ĸçŁ³
é¸ Ń
åĽł æŃ¤
4 2
XC9 h
å· ¡
åģ ¿
Ċ åĵģçīĮ
Ġæĸ° åįİç¤¾
ĠUU å¿«3
äº§ çĶŁ
ä¸ĵ æłı
çĶ ļ
ol d
Ġå¾ ½
ĠéĦĤä¼¦æĺ¥ èĩªæ²»
å¼ĢæĪ· _
æĮ ¥
Ġè® ©
å¦ ¹
N z
å¦ »
èĢģ å¸Ī
éĿĴ å²Ľ
ç¼ ĥ
S C
çİ°éĩĳ å¹³åı°
ĠåĨ ·
Ġäº Ĵ
çī §
Ġçİ¯äºļæ¸¸æĪı app
å®ĺç½ĳ å¼ĢæĪ·
[ 0
Ħ |
æł¸ å¿ĥ
æĳ Ĭ
çĽ´çº¿ è·Ŀç¦»
µ |
æ´² |
èĬ± |
Ċ çĥŃ
å±± ç½ĳ
are nt
Ġæ¿ ®
è³ ª
ĠA re
Ġ5 2
éĶ ¦|
è¯Ħ ä¼°
Ġåĩ¯åıĳ ç½ĳæĬķ
çİ¯çĲĥ æĹ¶æĬ¥
ĠæĹ¥åįļ å®ĺç½ĳ
ĠåĸĢ ä»Ģ|
èİ ±|
0 a
ĠçĶµçİ©åŁİ æ£ĭçīĮ
æ¸ ł|
çļ ĭ|
he m
åĽ Ń|
çªģ çĦ¶
Ġèħ ¾
ĠéĶ ¡æŀĹ
ĠèµĮ åįļ
Ġ5 9
Ġè¨ İè«ĸ
å°Ķ åı¤
åīį å¾Ģ
Q D
å®Į åħ¨
365 æ»ļçĲĥ
ç¢ į
åĩĨ å¤ĩ
æľº æ¢°
çĵ ¶
Ġéĺ¿åĭĴ æ³°|
I Z
æĭ ¼
M j
48 XC9
Ļ |
æ´¾ åĩº
Ċäººæ°ĳ æĹ¥æĬ¥
ä¸Ń ãĢĳãĢĲ
Ġåŀ¦ åĪ©|
Ġæ ĬĢ
å¾· å¸Ĥ|
åħ¬ å¯ĵ
åĮħ è£ħ
Ċæłĩ çŃ¾
æł¼ |
» |
ĠéĻ ķ
Q T
äººæ°ĳ å¹¿æĴŃçĶµåı°
å¨±ä¹Ĳ _
éħĴé¬¼éħĴ åħ¬åı¸
åŃĲ çİĭ
Ġæ²³ æ±ł|
Ġé¦Ļæ¸¯ æľĢå¿«
å¥¥ ä¸Ģ
èĩª çĦ¶
Ċ2017 -12
Ġåĩ¯åıĳ AG
ĠæĿ ¡
èĬ ¦
ĠçŁ³ æĻ¯
Ġalert ("
å¹´ |
S tr
e e
ĠåĽ¾æľ¨èĪĴ åħĭ|
ä¼ ¦|
Q X
du ct
æ¥ļ ç½ĳ
å·ŀ å¸ĤéĤ®ç¼ĸ
çĽ´çº¿è·Ŀç¦» ä¸º
Ġåħ¨ æ°ĳ
g c
Ċ ç½ĳæĺĵ
åºĵ |
æĹ¥æĬ¥ ç½ĳ
Ġçļ ®
ç® Ń
çļĦ çĽ´çº¿è·Ŀç¦»ä¸º
æĹ©é¤Ĳ æĢİä¹ĪåĬłçĽŁ
Ġé¢Ŀ å°Ķåı¤
å·ŀ å¸ĤåĮºåı·
6 00
ł æ°´|
æıĲ åįĩ
æ²³ åı£|
ç»ĵ |
ç¥¨ |
d ãĢĳãĢĲ
å¸Ĥ å§Ķ
Ċ ä¸»
å° ¾|
Ġå¤§åıĳ 10åĪĨå½©
å®¹ |
å¥ĩ |
t ag
åĳ ¢
ĸ å·ŀ|
ç¦ı |
Ċ 365betå®ĺç½ĳ
Ġç§ĴéĢŁ å¿«3
Ġå°Ĭé¾Ļ äººçĶŁå°±æĺ¯æĲı
æ¦ Ĩ|
Ġm g
å® ľ|
. f
Ġä¸ĸ æĿ¯æĬķæ³¨365
Ġ6 3
æĿĥ |
t o
= ãĢĳãĢĲ"ãĢĳãĢĲ
Ġçİ¯äºļag æĹĹèĪ°
æı ı
åħ¨ |
æ° ¸|
éĿ¢ æĿ¡
ç«ł |
ä¸ ½|
/ 2
å¡Ķ |
ĠéĿĴ å²Ľ
å® Ĺ|
å½©ç¥¨ åĲĹ
æīĭæľºçīĪä¸ĭè½½ å®īè£ħ
Ġè± Ĩ
( s
ä¸Ĭ |
éĥ ĳ|
S V
éĿ¢ é¦Ĩ
ĠéĦĤä¼¦æĺ¥èĩªæ²» æĹĹ|
ç«¹ |
æµ ª|
åİŁ åĪĽ
åĺ İ|
ķ å®ģ|
çķĻ |
G l
æ½ ¼|
å¥³ å£«
ç¼ ĵ
Ċ1 .
æĿ ľ
² æĺ¥|
é² ģ|
æĲ ŀ
éĿ ĸ
- L
å® ¿|
å§ĭ |
ä¿Ŀ |
é» İ|
ä¸ļ |
Ġåĩ¯åıĳ å®¢æĪ·ç«¯
æ¼ ³|
åĤ ¨
çĻ» |
è¯´ ï¼ļâĢľ
é£İ |
ĠInt ern
çİ¯äºļ app
U H
Ġçī¹èī² æĹ©é¤ĲåºĹåĬłçĽŁ
é»Ħ |
æŁ ı|
23 æĹ¥
å®¶ åħ·
Ġåħ¨çĲĥ åĬłçĽŁç½ĳ
å¡ «
è§ ī|
å³ ¶
æ²¡æľī äºĨ
ãĢĳãĢĲ 0ãĢĳãĢĲ
èĶ ¡|
S L
Ŀ åĮĹ|
Ġæ¾³éĹ¨ ag
ä½ĵ ç³»
å±± å¸Ĥ
Ġæµ· åįĹ
Ġåĩ¯åıĳ å®¢æĪ·ç«¯ä¸ĭè½½
ad e
åķĨ åĬ¡
åĬ¨ æĹ©é¤ĲåĬłçĽŁ
åĲĪ æĪĲ
ic ro
çķĻ è¨Ģ
Ġèĩª åĬ¨
åĬł åħ¥
åĶ ±
çĽ Ĭ|
n ame
ĠçĤ¹åĩ» ï¼ļ
åĨħ éĥ¨
ä¸į è¶³
çī¹èī² æĹ©çĤ¹
æĹ¥æľŁ ï¼ļ
Ġ5 3
æĴŃ æĶ¾
æ² ½|
st r
Ġ4 1
Ċ æ³¨åĨĮ
Ġæĸ ¼
ĠA ir
ç¦ı æĿ¥
æİ¨ è¿Ľ
Ġ8 4
è½¦ ç«Ļ
Ġbet365 æīĭæľº
åĭ ¤|
æ» ©|
Ġ356bet çº¿ä¸Ĭ
æµ· ç½ĳ
å² ³
Ġ8 9
Ġç«¹ å±±|
Ġé ł
be at365
çļĦ éĹ®é¢ĺ
ĠéĦĤæ¸© åħĭ
åĨ ¶|
Ġåı° å®ī|
éĿ¢é¦Ĩ åĬłçĽŁ
Ġé»Ķ æ±Ł|
åĽº |
Ġèµ ŀ
ĠæĹ©é¤Ĳ ç±»åĬłçĽŁ
æĿ¡ æĹ©é¤ĲåĬłçĽŁ
ĠæĻ º
Ġåģ¥åº· æĹ©é¤ĲåĬłçĽŁ
Ġå®ľåĲ Ľ|
Ġä¹Į åħ°|
na HQ
Wl naHQ
åĩº æ¬¾
æĹ¶ æĹ¶
åĽŀ é¡¾
ç¾İ |
Ġ10 åĪĨå¿«3
ï¼Į ä½ł
éĿ¢æĿ¡ åĬłçĽŁ
ĠçĽ ´
ĠèĤĥ å®ģ|
Ġåį ¡
ï¿½ o
W U
Ġ2020-0 6
ç¦ıæĿ¥ æĹ©çĤ¹åĬłçĽŁ
äºĶ çłģ
å¥½ çĶ¨
äºº ãĢĳãĢĲ
Ġä¸ľ åĮĹæĹ©é¤ĲåĬłçĽŁ
Ġä¼ł ç»ŁæĹ©é¤ĲåºĹåĬłçĽŁ
åıĹ ä¼¤
ĠçľŁéĩĳ æįķé±¼
Ġåı £
ĠæĹ©é¤ĲåĬłçĽŁ åĵªä¸ªå¥½
åİ ¦
ä¸ĭè½½ æīĭæľºçīĪ
Ġèİ ĺåİ¿|
Ġv i
Ġ op
ĠéĦĤæ¸©åħĭ æĹıèĩªæ²»
å±± æ¸¯|
re ate
æĽ Ŀ
Ġä¸ī äºļ
è²¸æ¬¾ åĪ©çİĩ
ãĢĤï¼Ī å¤®è§Ĩè®°èĢħ
Ġæ·Ħ åįļ
æ¬§ ç¾İ
ä¸Ģ å¤©
åįķåıĮï¼ļ å¤§åıĳ
åŃ¸ çĶŁ
ĠéĻĪ ä»ĵ|
æµİ çº³
ä¼ł ç»Ł
è²¸æ¬¾ åĹİ
èĭ± è¯Ń
æĸ° èģŀ
èĥ ¶
ĠéĦĤæīĺåħĭ åīįæĹĹ|
äºº ï¼ļ
æ¬§ çĽŁ
è±Ĩ èħĲ
åĪ°è´¦ å¿«
Ġ am
å¿ĺ è®°
å®ļ ä½į
/ 10
Ġäºļç¾İam8 app
ĠéĦĤæ¸©åħĭæĹıèĩªæ²» æĹĹ|
ä¸Ĭ ä¸ĭåĪĨ
Ġ365bet æīĭæľº
åĬł æĭ¿å¤§
Ġé¢Ŀ æµİçº³
éĹ¨ æĪ·
æĻĤ éĸĵ
K X
Q B
åĨ» ç»ĵ
res s
ä¸į åı¯
Ċ ï¼Ī
æ¦ Ĩ
Ġæīİ åħ°
ĠagåĽ½éĻħ é¦Ĩ
ä¿ Ĭ
- åįĥ
é«ĺ åº¦
å¤§ åŀĭ
ä¹ĭ å®¶
åħ± æľī
ĠåĪ©æĿ¥w66 å¹³åı°
aWR 0a
åľ° éĵģ
æ³¨ éĶĢ
l ag
ik e
äº ı
å¥¥ä¸Ģ ç½ĳ
Ġç§ ¯
Q V
çĽ´ å±ŀ
è¯¦ ç»Ĩ
ĠAr t
Ġlo l
æĮĩåĩº ï¼Į
ĠæĻ¯ å¾·
Ġä¸ī éĹ¨
Ġs p
ä»Ģä¹Ī å¥½
Z n
ä¸Ģ å®¶
æ· ®
Ġf alse,
Ġæ ľŁ
Ġï¼Ī 1
ĠçĶ± Hotel
ĠæĹħ æ¸¸
ĠæĶ ¹
å¹³ åĿĩ
Ġ2019-0 5
èĭ ¦
ï¼ Ĵ
aW 5
Ċåıĳå¸ĥ æĹ¶éĹ´ï¼ļ
åĩ Ģ
Ġçī ¡ä¸¹
Ġæ¾³éĹ¨çĻ¾å®¶ä¹Ĳ çİ©æ³ķ
åĲİ çļĦ
Ġ6 9
ç¹Ŀ ï¿½
åĳ¨ åīį
Ġ1 .6
Ċ >
ä¸» æĮģ
U Z
å¯ ¦
t YX
èĢ³ åħ¶
Zn Jhb
Ġå° ±
T V
Ġåĳ¼ åĴĮ
åı ¶
« èĬ¦
ä¸ĵ é¢ĺ
Ġn o
Ġä¸ĭè½½ çİ¯äºļapp
+ 1
æ¯ķ ä¸ļ
æĢİä¹Ī ç®Ĺ
G B
ro id
Ġç§¦ çļĩ
Ċ åĲĪèĤ¥
ĠM ar
ç½ĳç«Ļ å¤ĩçĶ¨çĻ»å½ķ
iver s
è®¾ç½® ä¸Ńæĸĩ
c Ii
Ġç³ »
https ://
Ġåİ »
éī ´
Ġå Ĥ
Ġå°Ĭé¾Ļ ç½ĳç»ľå¹³åı°
Ġ2 åĪĨpk10
è´µ å®¾
æķ ¦
Ġ356bet æīĭæľº
Ġå¨ģ å°¼æĸ¯
éĢ ²
o h
Ġäºļç¾İagæĹĹèĪ°åİħ ä¸ĭè½½
Ċæ±Łè¥¿ äººæ°ĳå¹¿æĴŃçĶµåı°
çİ°åľº çĽ´æĴŃ
å¥ ī
çļĦ æĥħåĨµ
æģ Ĳ
éĢ Ĳ
YWR z
Ġç Ĩ
APPï¼ļ å½©ç¥ŀäºīéľ¸8
E Z
appä¸ĭè½½ âĢķ
è°ĥ æķ´
Ġæī Ģ
Ġ url
ä¾¿ æ°ĳ
äººæ°ĳ å¸ģ
W Z
Ġ2020-02-2 4
C X
äºĮ åĽĽåħŃ
å±ı æĿ±
at ch
ç³ ĸ
åĽ½å®¶ ä¸»å¸Ńä¹łè¿ĳå¹³
ri d
è¥¿ çĶ²
Ġåĩ¯åıĳå½©ç¥¨ ä¸ĭè½½
A H
æ°¸ åĪ©
Ġæİ Ĵ
éĩį å¤§
Ġagçİ¯äºļéĽĨåĽ¢ å®ĺç½ĳ
æĬķæ³¨ ç½ĳ
åĵªéĩĮ çļĦ
as h
é£ŀ æľº
Ġé¢Ŀæµİçº³ æĹĹ|
Ġæ´ ±
å±± åĮº|
å¤§ éĺŁ
åĪ ¥
æĿ¥å°±éĢģ 38
s.com æıĲä¾Ľ
èģ ¯
Ġçİ¯äºļag æīĭæľºçīĪ
ĠçĶ±Hotel s.comæıĲä¾Ľ
Ġå°ı ãĢĳ
Ġå·´æŀĹ å·¦æĹĹ|
Ġæľ º
Q Q
Ġ365bet çº¿ä¸Ĭ
ãĢĤ èĢĮ
Ċ å¤®è§Ĩ
Ġèħ¾è®¯ æĹ¶æĹ¶å½©
ang e
a h
Ġæĸ° èĳ¡äº¬
Ġ2019-0 6
äºļæ¸¸ å®ĺç½ĳ
åĩ Į
L e
çĴ Ĳ
Ġ7 9
ĠçĦ¦ ä½ľ
èĤ ł
åĲį åŃĹ
09 æľĪ
o o
oZ WlnaHQ
ĠagçĽ´æĴŃ åİħ
ĠçĭĹä¸ĩ ç½ĳåĿĢ
æĬ¥ çłģ
æī¾ ä¸įåĪ°
çĶ¨ åĵģ
ç½ĳç«Ļ åľ°åĽ¾
æīĭ æľ¯
Ġ365ä½ĵèĤ²æĬķæ³¨ å¤ĩçĶ¨
Ġ2020-04-0 4
Ġå¤§ èį
Ġagæ¸¸èīĩä¼ļ å®ĺç½ĳ
Ġ365bet å¹³åı°
Ð »
è®² è¯Ŀ
ĠAG äºļ
ĠC on
éĢļ çŁ¥
çł´è§£ åĻ¨
ĠåĲ ķ
åħ±åĴĮ åħļ
æĢĿ æĥ³
åį ľ
è®¸ å¤ļ
Ġçİ¯äºļag ä¸ĭè½½
Ġåĩ ¡
te m
ĠåĪ©æĿ¥w66å®ĺç½ĳ å®ĺæĸ¹ä¸ĭè½½
w ay
à¸Ń à¸
éħį éĢģ
ä¸ī èĤĸ
æı Ń
w66 .com
Ġåı° åīį
æĸĩ ,
Ġçĵ ¦
Ġçİ¯äºļéĽĨåĽ¢ appä¸ĭè½½
æĭ ĸ
åĭŀ å·¥
4 6
Ġ200 8
¢ å²
Ġ8 3
Ġk8å¨±ä¹ĲæīĭæľºçīĪ ç½ĳåĿĢ
G P
Ġ2020-02-2 2
ç¦ı å½©
Ġ$( this
Ċ éĵģ
Ċ æ¯ıæĹ¥
Ġç¥ŀ å½©äºīéľ¸
Ġæīİ åĽ
åĪ©æĿ¥ å®ĺç½ĳ
Ġäº¤ éĢļ
åĲĮ æĹ¶ï¼Į
Ġå² ¢å²
ĵ é±¼
SE O
Ġ365æ£ĭçīĮ çĶµèĦĳ
Ġ2020-03 -29
Ġæķ °
Ġbet -
ä¹ĭ åīį
è¿ ¹
Ġå§ ľ
Ġ2020-02-2 1
Ġh g
Ġ365ä½ĵèĤ²æĬķæ³¨ æıĲçİ°
æĳĺ è¦ģ
ĠåĮĹäº¬ æĹ©é¤Ĳè½¦åĬłçĽŁ
Ġçİ¯äºļ çľŁäººæ¸¸æĪı
Ġçİ¯äºļå¨±ä¹Ĳ ag
éļı çĿĢ
Ġä¼ ĳ
ĠãĢĳãĢĲ s
Ġ36 0
Ġæĸ° æµª
éĩı ï¼ļ
Ġ2020-02 -20
ĠçľŁéĴ±æ£ĭçīĮ ä¸ĭè½½
è¿ľ åİ¿|
Ġåİ¦ éĹ¨
å®ļ åİ¿|
Ġad min
Ġ365å¤ĸåĽ´ ç½ĳ
ç«ŀ æĬĢ
èĬ ¯
æ² ĥ
ãĢĤ 12æľĪ
åĮĹ æºª
d iv
Ġä¹Ŀ é¾Ļ
Ġå¼Ģåħĥæ£ĭçīĮ èĥ½
åĪĹ è¡¨
è® Ģ
Ġ365 çļĩåĨłä½ĵèĤ²
è¯¾ ç¨ĭ
æĪĳä»¬ çļĦ
æĭ Ĩ
åľĭ éļĽ
åĵªä¸ª æĺ¯çľŁçļĦ
æīĭ æ¸¸
Ġè¾½ å®ģ
ĠæŁ ı
æ· ĸ
æģ¢ å¤į
Ġtype :0,
å® ½
éª ¤
Ġçº¿ä¸ĬçľŁäºº ç½ĳæĬķ
ar s
ä¸Ĭ å¸Ĥ
çĶ° åİ¿|
å®Ŀ é©¬
G 9
å¤© åľ°
Ċ çĽ¸åħ³
ç§¯ åĪĨ
Ġèİ Ĩ
æĸ¹ åĲĳ
Ġæį ®
çĹ Ľ
Ġçº¿ä¸ĬçľŁéĴ± å¼ĢæĪ·
Ġä¹° çĲĥ
å³ ª
em pl
p ost
éĮ¢ èİĬ
Ġåĩ¯åıĳ å¤ĩçĶ¨ç½ĳåĿĢ
Ġ7 3
ro w
é¾ į
ĠéĦĤ å°Ķå¤ļ
Ċ2019-10 -23
Ġéĸ ĭ
è®¨ è®º
6 b
A g
å°ıåĲĥ æĹ©çĤ¹åĬłçĽŁ
ĠæĿŃéĶ¦ æĹĹ|
Ġ2020-02-2 3
åĪĨ pkæĭ¾
éķ ľ
Ġ365æ£ĭçīĮ æīĭæľº
Ġçİ¯äºļ æĹĹèĪ°åİħä¸ĭè½½
Ċä¸ĭ ä¸Ģç¯ĩ
Ġæ¾³éĹ¨åħŃ ä¼ļ
- çļĩ
çĶ¨ äºİ
æī ©
ĠåŃ¦ åİĨ
å¿«é¤Ĳ åĬłçĽŁ
ĠA l
Ġ7 2
Ġ6 2
Ġæ¾³éĹ¨ 356bet
ä½ľ åĩº
å¹¿æĴŃ çĶµè§Ĩ
Ġå» Ĭ
U S
Ġæī ¾
èĭ ĳ
ĊåįĹ äº¬
Ġé Ĩ
Ċ æĪĳ
åľ¨ ä¸ŃåĽ½
ä¿¡èªī çļĦ
ĠåĽ¾ çīĩ
Ġäºļæ¸¸app éĽĨåĽ¢
ĠæĻ®æ´ ±|
Ġåıĭ æĥħéĵ¾æİ¥
Ġ365è¶³çĲĥ å¤ĸåĽ´
å¥³ éĥİ
Ġ2020-02 -18
Ġåį «
ĠA P
çľŁäºº æīĭæľºçīĪ
çĻ¾ å§ĵ
Ġ2019-0 7
is play
ĠåĽĽ èĤĸéĢīä¸ĢèĤĸ
Ġbet365 å¹³åı°
Ġè¦ ģ
åħŃ èĤĸ
s k
Ċ æĪĲéĥ½
jcmlwd D
ãĢĳãĢĲ ä¸ĢãĢĳãĢĲ
re pl
åįļçī© é¦Ĩ
3N jcmlwdD
4 )
Ġ}else {
ĊæĺŁ å²Ľ
Ġé ĬĢè¡Į
å¤© ä¸ĭ
__ __
åĬ¨ åĬĽ
-çļĩ æģ©éĿłè°±
æģ Ĵ
æĬ¥ ä»·
ĠæĶ Ģ
ICP å¤ĩ
åĢ ¡
Ġä¹Įåħ° å¯Ł
å½©ç¥¨ å¤§åıĳå¿«ä¸ī
Ġpc èĽĭèĽĭ
Ġè ĸ
èĨ ľ
é¼ İ
æĺ¯ åģĩ
Ġm e
bo ok
S Z
Ġ356bet å¹³åı°
èį ·
äºº ä»¬
å®ĺæĸ¹ç½ĳç«Ļ _
K Z
Ġ2020-02-2 8
æıĲä¸įäºĨ æ¬¾
èĤ¡ ä¸ľ
æĪĲ æľ¬
Ġé½Ĳ é½Ĳ
ä¹Ŀ å·ŀ
w e
æĸĩ ä»¶
åĲĮ å¿Ĺ
Ġ9 3
åĬł å·¥
Q H
æ¹ĸ åįĹ
é¡µ éĿ¢
åįĶ åķĨ
± åİ¿|
$ ("#
æļ´ å¾Ĵ
åĽ½ çļĦ
çīĪæĿĥ æīĢæľī
åı£ å¸Ĥ|
Ġbet36 æľĢæĸ°
èĳ ±
Ġæ¹ Ľ
Ġ ;
æīĭæľº æ£ĭçīĮæ¸¸æĪı
Ġç Ĭ
åį ¢
ĠåĽ½ å®¶
ĠæŃ¦ å¤·
ĠK B
ĠåĪ©æĿ¥w66 æīĭæľºçīĪ
å¤ļ ä¸ª
Ġå·´å½¦ æ·ĸ
h l
Ġ6 1
éļ Ĳ
Ġå¤§åıĳ uuå¿«3
ĠçĭĹä¸ĩ åįļ
Ġé© »
çº¦ ç¿°
å·ŀ åħ¬äº¤
Ġå¹³ é¡¶
ç» ĺ
Ġèĩ ºåįĹå¸Ĥ
äºº å¤§
å½ ª
æį Ĳ
çŁ¥ è¯Ĩ
å¹³ å¸Ĥ|
25 l
æľº ä¼ļ
å½©ç¥¨ å¼Ģåħĥæ£ĭçīĮ
æ² ¿
Ġæ¾³éĹ¨ å¨±ä¹Ĳ
çľŁéĴ± æįķé±¼æ¸¸æĪı
æ¬ ²
Q P
ä¿¡ ä»»
Q Z
6b 25l
åı¯ä»¥ è²¸æ¬¾åĹİ
Ġæģ Ĵ
åĿ Ŀ
ĠçĶµçİ© 8
ok er
å¹´ åīį
ä¸į è¦ģ
Ġæ¾³éĹ¨ ç½ĳé¡µ
äºº åľ¨
æĢİä¹Ī æĬķæ³¨
ï¼Į è¯¥
s ize
å·ŀ å¤©æ°Ķ
æª ¬
ĠäºļæĲıå¨±ä¹Ĳ ç½ĳç«Ļåħ¥åı£
! !
Ġå·´ é©¬|
ĠçĭĹä¸ĩ åħħåĢ¼
ä¼ Ĳ
æĹĹèĪ° åºĹ
ä¸Ń æĸ°ç½ĳ
ç¶ Ń
Ġæ¢ §
éĽ» èħ¦
åĪĨ åĪĨå¿«ä¸ī
æł¼ å°Ķ
æľĢ å¥½
å½ ¹
Ġ2020-04-0 1
ĠæĿ ¯
Ġ( 0)
è¾ ©
è£ħ ä¿®
ĠçľŁäºº æ¸¸æĪıä¸ĭè½½
æ¸ Ķ
æ¨¡ æĭŁ
Ġé¢ Ħ
Ġå¸ ®
Ċ ãĢĬ
2019 -12
çľŁäºº çİ°åľº
Ġäºļç¾İam8 æ³¨åĨĮ
Ġè¥¿ çĽŁ|
æĭ ĺ
E H
æĪĳ åĽ½
Ġéĥ ´
èı² å¾ĭå®¾
ãĢĳãĢĲpãĢĳãĢĲ x
Ġt v
Ć Ć
ĠåĽ ¢
åĪĨ åĪ«
Ġ9 2
ĠæĹ¶éĹ´ï¼ļ 2019å¹´
ä» ĳ
åī ĩ
å¤ª åģĩ
æİĴåĪĹ 5
ĠåŃ Ļ
ĠéĿ ŀ
ĠæĶĢ æŀĿ
å¼ Ħ
Ċ åĲ´
æ°ĳ ä¼Ĺ
ç¯ Ģ
ĠæĿ¨åĽ½ç¦ıéº»è¾£çĥ« åĬłçĽŁè´¹
âĢľä¸Ģå¸¦ä¸Ģè·¯ âĢĿ
ucc ess
C h
ĠçŁ¥ åĲįæĹ©é¤ĲåĬłçĽŁ
tr ue
æī °
Ġç¹Ŀ ï½
m er
åħ¬ åĬ¡
Ġ ribo88
Ġæ²³ åĮĹæĹ©é¤ĲåĬłçĽŁ
Ġä¸ī åİ¢
ç¹§ï½ ¯
åģĩ åĲĹ
Ġæĺ¥åħī æĹ©é¤ĲåĬłçĽŁ
Ġpk10 éķ¿é¾Ļ
å¼Ģ åºĹ
Ċéĵģ è¡Ģ
Ġ2020-04-0 8
Ġæ± ł
Ġ2020-04-0 6
ç¹Ŀï½ ¬
Ċ I
ĠçĤ¹åĩ» :
æµ ´
y XG
Ġèĳ «èĬ¦
åħ¬ å¸ĥ
åĪĨ 11éĢī5
Ã ¡
Ġc lass
ĠReserved .
æł¡ åĽŃ
Ġé©» é©¬
Ċ2 .
Ġagçİ¯äºļ å®ĺç½ĳä¸ĭè½½
ĠåŃ¦åİĨ ä¸įéĻĲ
ä¸¤ ä¸ª
ĠçĪ± å¿ĥæĹ©é¤ĲåĬłçĽŁ
Ċå¤§ä¼Ĺ æĹ¥æĬ¥
ĠæĹ©çĤ¹åĬłçĽŁåºĹ 10å¤§åĵģçīĮ
Ġåįĸ æĹ©é¤ĲåĬłçĽŁ
Ġåĩ¡ å¤«åŃĲæĹ©é¤ĲåĬłçĽŁ
Ġçİ¯äºļ åľ¨çº¿
ĠæĹ©çĤ¹åĬłçĽŁåºĹ æİĴè¡Įæ¦ľ
Ġåľ ĭ
äººæ°ĳ æĹ¥æĬ¥
ĠçĭĹä¸ĩ ä¸įèĥ½
Ġç§ Ł
æľīä»Ģä¹Ī è¦ģæ±Ĥ
æ³ Ľ
Ġ8 2
ou ld
éĸĭ ç®±
å® ´
Ġå¤©æ´¥æĹ©çĤ¹åĬłçĽŁ æľīåĵªäºĽ
èº«ä»½ è¯ģ
ĠæĹ©é¤Ĳ é¥®åĵģåĬłçĽŁ
ĠæĹ©çĤ¹åĬłçĽŁåºĹ æľīåĵªäºĽl
ĠåĪ©æĿ¥w66 å®ĺæĸ¹ç½ĳ
Ġä¸ĭè½½å°Ĭé¾Ļ app
Ġl a
ĠæĹ©çĤ¹æĿ¥ åĬłçĽŁ
Ġå¤©æ´¥ æĹ©çĤ¹å°ıåĲĥåŁ¹è®ŃåĬłçĽŁ
å° ¤
Ġag å®ĺæĸ¹ç½ĳç«Ļ
æĢ» æĺ¯
Â ©
Ġ id
èĥ½ å¤Ł
Ġæ¾³éĹ¨ åįģå¤§
Ġåħ» çĶŁæĹ©é¤ĲåĬłçĽŁ
å·¨ å¤§
u x
off ice
Ġ365betå®ĺç½ĳ å¤ĩçĶ¨
å®ĺæĸ¹ å¼ĢæĪ·
lc 8
ç¦ģ æŃ¢
è¿Ķ æ°´
äºĭ ä¸ļ
éĺ³ å¸Ĥ
ç´§ æĢ¥
Ġ7 1
Ġ ä»¥
ĠèĻ İ
èµ· æĿ¥
Ġä½³ æľ¨
Ġ2018 -12
Ġå¼Ģåħĥæ£ĭçīĮ çīĽçīĽ
5 çłģ
å®ī æİĴ
çľģ æĶ¿åºľ
Ġçİ© å¤§åıĳå¿«ä¸ī
ï¼Į è¦ģ
Ġè¡Į ä¸ļ
ĠåĪ©æĿ¥w66 å®ĺæĸ¹ç½ĳç«Ļ
ç»ĵæĿŁ æĬķæ³¨
Ġç¥ŀ å½©äºīéľ¸8
æĿ ©
éĤ®ç®± éªĮè¯ģ
æ Ĩ
æıĲ äº¤
å¨±ä¹Ĳ æīĭæľºå¹³åı°
OF wi
Ġä¸ľ èİŀ
Ġt ime
/ 3
åĲ¯ åĬ¨
çļĦ å¹³åı°
Ġ2020-04-0 7
å¤ª éĺ³åŁİ
Ġåĩ ī
æ£Ģ æŁ¥
ä½ĵèĤ² å½©ç¥¨
Ġå¿«ä¸ī å¤§åıĳ
æĹ©çĤ¹ æĢİä¹ĪåĬłçĽŁ
åįİ æĹ©çĤ¹æĢİä¹ĪåĬłçĽŁ
ĠåĪ©æĿ¥w66 èĢģçīĮ
Ġæ¾³éĹ¨æ£ĭçīĮ å¨±ä¹Ĳæīĭæľºå¹³åı°
çº ¯
Ċ J
æ±Ł ç½ĳ
T C
Ġ8 1
": "
çĻ»åħ¥ _
Ġ2020-04-0 2
ç½ĳ ,
ĠéĿ ©
æĶ¯ä»ĺ å®Ŀ
éľĢ æ±Ĥ
çļĦ å°ı
ĠccåĽ½éĻħç½ĳæĬķ å¹³åı°
Ġè¶ Ĭ
2l k
Ġçİ¯äºļéĽĨåĽ¢ag å¥³éĥİ
Ġ365betå®ĺç½ĳ æıĲçİ°
Ġagäºļæ¸¸ éĽĨåĽ¢
çĸ Ł
åĲķ å¸ĥ
çİ©æ³ķ _
ç±³ éĵº
Ġå°Ĭé¾Ļ å¹³åı°
æĶ» åĿļ
Ġå¿ ĥ
èº« ä½ĵ
æĹ©çĤ¹ å·¥ç¨ĭåĬłçĽŁ
éĮ Ħ
åı£ é¦Ļ
Ġèħ¾ åĨ²
æĹ©é¤Ĳ å·¥ç¨ĭåĬłçĽŁ
èģĶèµĽ çĽ´æĴŃ
Ġå¸ ¦
Ġå¾ Ĺ
Ġéĥ½ åĮ
ç»ıæµİ ç½ĳ
Ġ365æ£ĭçīĮ å®¢æľį
ĠæķĻ èĤ²
çĽ´æĴŃ _
çĸŁ çĸ¾
Ġ \
ç´ Ħ
å¦Ĥä½ķ è²¸æ¬¾
f ont
® è©¢
h v
Ġèµ ¶
Ċ âĸ
ĠåıĮ é¸Ń
Ċ å±±ä¸ľ
Å Ł
åľ¨çº¿ å¨±ä¹Ĳ
åĩł çĤ¹
è¡Ĺ éģĵ
å¤ľ å®µ
å¹¸è¿Ĳ é£ŀèīĩ
å¼ Ł
Ġ365 you
Ġ2020-04-0 5
Ġç« Ļ
ĠæĿ¯ æĬķæ³¨
Ġæ¼ ¯
Ĺ ï¿½
ä¸ ¦
è±ĨèħĲ èĦĳ
åĵ Ħ
ç¾İ æĹ©é¤ĲåĬłçĽŁ
Ġs im
è±ĨèħĲèĦĳ åĬłçĽŁ
Ġçĵ ·éĥ½
æ³ķ åĪ¶
ĠçĻ½ éĵ¶
åı£é¦Ļ æĹ©çĤ¹åĬłçĽŁ
åı¯ä¿¡ åĲĹ
Ġå°Ĭé¾Ļ æ³¨åĨĮ
å¤ľå®µ åĬłçĽŁ
ä¸į å¥½
åħį è²»
Ġç¥ŀåĨľ æŀ¶
åħįè´¹ åĬłçĽŁ
æĹ©çĤ¹ è½¦
æĹ©çĤ¹è½¦ æĢİä¹ĪåĬłçĽŁ
å°ıåĲĥ åºĹåĬłçĽŁ
çļĦ åĬłçĽŁ
ãĢĤ åİŁæłĩé¢ĺï¼ļ
Ġ2020-02-2 7
å°ļ æĹ©é¤ĲåĬłçĽŁ
ç¦ı æĹ©é¤ĲåĬłçĽŁ
ĠI D
G Z
ĩ ï¿½
Ĺ ç²®
12æľĪ20æĹ¥ çĶµ
æĹ©çĤ¹åĬłçĽŁ å¥½
Ġwh o
î Ŀ
æ´ĭ èĳ±
æľĽ æĹ©é¤ĲåĬłçĽŁ
åľ Ĩ
c i
Ġè» Ĭ
é¥Ń åĬłçĽŁ
æĲľ çĭĲ
ĠA ntiAd
è³ĩ è¨Ĭ
èĤł ç²ī
æĳĬ åĬłçĽŁ
Ġé ŀį
è®¸ åĬłçĽŁ
å¾ģ æĹ©é¤ĲåĬłçĽŁ
æ¿ ł
é«ĺ æ½®
äºŃ åĬłçĽŁ
t op
s u
: office
è¿ŀéĶģ åĬłçĽŁåºĹ
ĠæĹ¥ åĸĢ
å¤ĩçĶ¨ç½ĳåĿĢ åĻ¨
åºĦ éĹ²
Ġäºļç¾İ å¤ļä¸ĢçĤ¹
Ġäºĳ æµ®
æ£Ĵ çĲĥ
n o
èĤłç²ī åĬłçĽŁ
Ġçº¢ é»ĳå¤§æĪĺ
åĮħåŃĲ åºĹåĬłçĽŁ
Ĺç²® æĹ©é¤ĲåĬłçĽŁ
äº¤æµģç¾¤ _
ä¾¿æ°ĳ æĹ©çĤ¹åĬłçĽŁ
éĵº åĬłçĽŁ
èĢģçļĦ åĵģçīĮ
Ċç½ĳæĺĵ æĸ°éĹ»
åıĳ å°Ħ
æĪ ¶
åĩı å°ĳ
ãĢĤ è¯¥
Ċ2019-10 -19
æĮ º
è¡Įä¸ļ åĬłçĽŁ
ä¸Ń ç¾İ
ĠæĻ® åħ°
Ġ10 åĪĨæĹ¶æĹ¶å½©
è¾ħåĬ© åĻ¨
ĠèĲ į
å¿ Ļ
Ġ í
åĲĪæĪĲ æĹ©é¤ĲåĬłçĽŁ
æĸ°äº¬æĬ¥ è®°èĢħ
éĴ¢ æĹ©é¤ĲåĬłçĽŁ
æľī æĹ©çĤ¹åĬłçĽŁ
Ġæľ Ķ
Ġ365 éĿ¢å¯¹éĿ¢
Ġç»¿ èī²
ĠéĴ ¦
æŃ¤ æ¬¡
å¸¦ æĿ¥
éĤ ĵ
ï¿½ï¿½ï¿½ï¿½ ï¿½ï¿½ï¿½ï¿½
12æľĪ 19æĹ¥
åľ° åįĢ(
åħ±èµ¢ åħ±æ¬¢ä¹Ĳ
re at
å®ŀ åĲį
V al
è¸ ª
Ġ365æ£ĭçīĮ ä¸ĬåĪĨ
ĠåĲ ¯
æĲ º
Ġæĸ°èĳ¡ èĲĦäº¬
çİ° ä»£
åĬŀ çĲĨ
Ġèĥ ½
Ġæīĭæľº åı·
Ċ2019-10 -16
Ġ- >
ê ³
Ġåĩ¯æĹ¶ æ¸¸æĪı
æĹłæ³ķ æīĵå¼Ģ
å½© å½©ç¥¨
è« ®è©¢
èĻļ æĭŁ
ä¹° å½©ç¥¨
Ġèİ± èĬ
Ġå¤§åıĳå¿«ä¸ī å¼Ģå¥ĸ
å¹¿ å·ŀ
èİ« æĸ¯ç§ĳ
ï¼Į åıª
åĳ¨åīį ï¼ī
èĭ¹æŀľçīĪ _
Ġï¼Ī1 åĳ¨åīįï¼ī
æ¯ ģ
æķ ¢
Ċ âĢľ
è² ł
Ġéĺ¿ é²ģ
R y
åĪ º
Ġäºļæ¸¸åĽ½éĻħ éĽĨåĽ¢å®ĺç½ĳ
èĦ ¸
æ´¥ åİ¿|
Ġk y
è¯ģ æĺİ
Ġæ» ģ
å·ŀ 30å¤©å¤©æ°Ķ
åĨĽ äºĭ
ĠçĻ¾ èī²
å¤§ ãĢĳãĢĲ
ï¼Įè¿Ļ æĺ¯
æĥ ¨
æ® Ĭ
Ġéĵľ éĻµ
å¤§ ä¼Ĺ
åĨĴ çĶ¨
æ¾³ æ´²
Ġbet365 çľŁäºº
éļı æľº
æĹħæ¸¸ å±Ģ
ĠAre a)
Ġæµİ åįĹ|
Ġå¤© æ°´|
çĶ¨ ä»Ģä¹Ī
Ġå° ¤
èĳ ¬
æĶ Ģ
ic al
æĹłæ³ķ éªĮè¯ģ
å¸ ¶
å·ŀ 15å¤©å¤©æ°Ķ
ĠçľŁäºº çĻ»å½ķ
å°ĳ å¹´
åĮ ¹
c heck
Ġèİ «
æĦŁ è°¢
- m
6 7
ĠC ent
æıĲ éĨĴ
ĠåŃĿ æĦŁ
Ġåħį è²»
æķ ı
Ġ2020-03 -30
ç¦» å¼Ģ
çĪ µ
å½¢ æĪĲ
å·ŀ 10å¤©å¤©æ°Ķ
Ġbet365 äºļæ´²
Ġä¸Ĭ èĻ
è¿Ľ åı£
åĵªè£¡ åı¯ä»¥
Ġå¨Ħ åºķ
èİ İ
çĲĥ æİ¢
åı¯ä»¥ æıĲçİ°
éĩĩ è®¿
Ċ2019-10 -21
Ġå¸® åĬ©
Ġå¼ł æİ
å£ ¹
ĠC o.
Ċä¸Ĭ ä¸ĢæĿ¡
ĠåİŁ æłĩé¢ĺï¼ļ
} |
_ id
Ġe x
Ġåĩ¯åıĳæīĭæľº å®ĺç½ĳ
æĲ ¬
4 9
Ġå· ¢
æ¸¸æĪı _
ĊæĹ¶éĹ´ï¼ļ2020å¹´ 04æľĪ
Ġå¤§åıĳ çº¢é»ĳå¤§æĪĺ
Ġæµıè§Ī æ¬¡æķ°ï¼ļ
æĺ¯ âĢľ
ç§ĳ å°Ķæ²ģ
Ġä¸ĩåįļä½ĵèĤ² 3.0
C Z
Ö Ĥ
åģļ ä»£çĲĨ
ĠåħŃ çĽĺ
Ġ365bet æıĲçİ°
Ġéľį éĤ±|
ĠA pp
ĠåĽ½ åĨħ
s oft
Ġæįķé±¼ æ¸¸æĪı
Ġäºļç¾İä¼ĺæĥł æ°¸è¿ľå¤ļä¸ĢçĤ¹
Ġé» ŀ
åĬ¨ è½¦
Ġé¡ µ
å®ĺç½ĳ æ¬¢è¿İæĤ¨
æľīapp åĲĹ
å¦Ĥ ä»Ĭ
æ² ī
Ġäºļæ¸¸éĽĨåĽ¢ app
ĠäºĮ è¿ŀ
æķ° éĩı
åĬ «
Ġèĩ ³
èµĦ éĩĳ
Ġç½ĳç»ľ çľŁäººèµĮéĴ±
ĠåĲīæľ¨ èĲ¨
Ġçİ¯äºļag æīĭæľºçĻ»å½ķ
T ML
å¤§ å¥ĸ
è®® ä¼ļ
åĹİ ?
å¼¹åĬ¾ æĿ¡æ¬¾
Ġå¾ Ī
ĠåĸĢåĸĩ æ²ģ
èĶ ¡
Ġé¦ĸ çĪ¾
åħ· æľī
Ġåīįå¤© 20
Ġå¼ ĵ
Ġæīĭæľº çīĪ
Ġåĺī å³ª
or ld
v en
Ġå°Ĭé¾Ļ ç½ĳåĿĢ
åľ°ä¸ĭ éĮ¢èİĬ
Ġæ£ĭçīĮ æ¸¸æĪı
ag æĹĹèĪ°
ï¼Į åĽłä¸º
ĊæĤ¨ å½ĵåīį
Ġå¼Ģåħĥæ£ĭçīĮ çļĦ
Ġå¤§åıĳå¿«ä¸ī åĴĮåĢ¼
Ġåľ¨çº¿ å¿«3
Ġè¥¿ èĹı
åħ¬ ç½ĳ
å¼Ģå¥ĸåİĨåı² _
Ġå¤§åıĳå¿«ä¸ī è®¡åĪĴ
Ġçİ¯äºļçĶµæ¸¸ app
å®ļ åĪ¶
Ġä¸ĥ åı°
åĲĪ çĲĨ
ï»¿ï»¿ ï»¿ï»¿
Ġ ç½ĳé¡µ
èĪª æ¯į
Ġ24 6
Ċ2019-10 -18
çĶµæ°Ķ å®ĺç½ĳ
å» ³
çĶµæ°Ķå®ĺç½ĳ åĩ¯åıĳå®ĺç½ĳ
è±¹åŃĲ _
Ġçİ¯äºļçĶµæ¸¸ æīĭæľºçīĪ
ĠIntern ational
ä»ĭç»į ï¼Į
Ġåĩ¯åıĳ çĶµæ°Ķå®ĺç½ĳåĩ¯åıĳå®ĺç½ĳ
Ġå ´
åĮĹäº¬ å¸Ĥ
ĠåĪ©æĿ¥w66 .com
Ġéĥ¨èĲ½ å®¢
åĨħ çļĦ
ĊåįĹäº¬ å¤´æĿ¡
ä¿ Ĺ
Ġå¹³ åĩ
çº ³|
åħīæĺİ ç½ĳ
ĠæīĭæľºèµĮéĴ± æ¸¸æĪı
ç²¾ åĵģ
Ġæ½ ŀ
Ċ2019-0 4
èŃīä»¶ åĢŁéĮ¢
æ³¨ åįķ
åĸ Ĭ
Ġéĺ¿é²ģ ç§ĳå°Ķæ²ģ
ĠL e
aa aa
æ¶ ¦
f t
I s
çļĦ å·¥ä½ľ
h 0
æĿĳ æ°ĳ
Ġå°Ĭé¾Ļå¤ĩçĶ¨ç½ĳåĿĢ å¼ĢæĪ·
9 u
è¿ĳ æĹ¥ï¼Į
ĠèĲ ¬
( ).
åĪĨéĴŁ éĴŁ
.com .cn
Ċ æĻĭæ±Łæĸ°éĹ»ç½ĳ
ãĢĳãĢĲãĢĤãĢĳãĢĲ <ãĢĳãĢĲ/
æ¬ £
æİ ī
Ġåħ« ä¸Ģ
b d
Ġäºļæ´² æ¸¸
è¾ ¨
Ġçļĩ æģ©éĿłè°±
é¾Ļ ç½ĳ
Ġéĵ ĥå£°
è¯Ģçªį _
å£ ®
err or
å¥ Ī
åħįè´¹ åħ¬å¼Ģ
ëĭ ¤
ĠéĤ ¹
365 ä½ĵèĤ²åľ¨çº¿
åĨľ åľº
Ċ2019-10 -15
èĩª æĪĳ
åĴĮåĢ¼ _
çĤ¹ cc
æĦı å¤§åĪ©
ä¸ľ æĸ¹
è» į
åİŁ åİ¿|
å¤§ è¿ŀ
æĬ¥ èŃ¦
æ· ĺ
æµ· å¸Ĥ|
çĨĬ çĮ«
ĠçĽ ĳ
Ċ2019-10 -22
éĤ ĳåİ¿|
å·´ é»İ
å¼Ģå¥ĸç»ĵæŀľ æŁ¥è¯¢
Ġé ¼
çĸ« æĥħ
æĪ¿ åŃĲ
Ġbet365 å®ĺæĸ¹
èģĶ éĤ¦
çĶ· åŃ©
Ġh as
çĶļ èĩ³
Ġ íķ
Ċ2018 -10
çĪĨ åĪĨ
Ġ2020-04-0 3
çĤ Ĵ
å·Ŀ å¸Ĥ|
Ġfunction ()
æ³ī åİ¿|
Ġæķ¦ åĮĸ|
å®¶ å±ŀ
In d
ï¼Į ä¸ŃåĽ½
ìĿ ´
åıª ï¿½
Ġåĩ¯åıĳçĽ´æĴŃ app
Ġåºĵ å°Ķ
æ³½ åİ¿|
Ġèµ¶ éĽĨ
Ġ356bet æıĲçİ°
ĠäºĶ èİ²|
l i
æ·± åħ¥
æĮĳ æĪĺ
Ġçªģ æ³ī|
æľĢæĸ°çĻ»å½ķ ç½ĳç«Ļ
Ġæ³ķ å¾ĭ
æºĲ çłģ
Ġå¤§ åĲį|
æĽ ¹
Ġæ¹ĸ åı£|
ĠæĶ ¾
éĻĲ é¢Ŀ
ĠmainComment Count:0,
Ġcomment Count:0,
ĠCh ina
Ġé¦Ļ æ²³|
ĠæĹ º
+ app
ĠçīŁ å®ļ|
åŀ ĥåľ¾
Ġå°Ĭé¾Ļ å¤ĩçĶ¨ç½ĳç«Ļ
T E
Ġéĺ¿ åŁİ|
èĭ¹æŀľ APPï¼ļå½©ç¥ŀ
Ġæ´± æºĲ|
ĠåĪ©æĿ¥ æ¸¸æĪı
Ġbt365 ä½ĵèĤ²æĬķæ³¨
Ġå² Ĳå±±|
ĠåĴĮ é¾Ļ|
Ċ 365bet
ĠèĬ Ĵ
Ġåĺī ç¦¾|
ï¼ļ å½©ç¥ŀäºīéľ¸8
8 2
5 4
æ» ©
åĲį ç§°
on d
ĠæĿ¾ æ±Ł|
èĩª åĬ©
ï¼Į æĽ´
é© ±
l ic
Ġç¦ı å½©
æİ¥ åı£
ãĢĤ æĪĳ
ä¸Ģ ä½į
åĬ¨ çī©
æĵ ļ
Ġçī Ļ
Ġè° ·
Ġå¯ŁåĵĪå°Ķåı³ç¿¼ åĲİæĹĹ|
Ġå¥ ¥
indow .
Ċ èĲ§
ç½ĳ |
Ġå¤§èį Ķ|
æŃ¥ éª¤
Ġåıĸ æ¶Ī
Ġåı°åīį |
æĲ ¶
æľ µ
ĠæŃ£ éĺ³|
Ġæīİåħ° å±¯|
Ġç ¯
Ġä¹Į é©¬
Ĺ İ
Ġä¸ī åĪĨæĹ¶æĹ¶å½©
ĠæľĢ å¥½çļĦ
A M
Ġ2020-04-0 9
Ġä¹Įåħ° æµ©çī¹|
æĹł äºº
Y 29
èĲ½ å®ŀ
IOS ä¸ĭè½½_
æ¸¯ æ¾³
Ġå®ģ æ³¢
æĸ½ å·¥
Ġåĳ¼ çİĽ|
èĩ ºåįĹå¸Ĥ
Ġ! =
æ£Ģ å¯Ł
Ġç¿ģ æºĲ|
Ġæ¶¿ é¹¿|
ä¸Ńæĸĩ å®ĺç½ĳ
å°ı åĮº
Ġ365ä½ĵèĤ² å®ĺæĸ¹
ä¸ĭè½½ å®¢æĪ·ç«¯
ĠA p
æĹłæ³ķ æıĲçİ°
ï¼Į è¢«
åķı é¡Į
é¢Ĩå¯¼ äºº
è¾ ŀ
Ċ H
Ġä¹Į å½ĵ|
Ġ2019-11 -18
at er
ĠæīİåĽ Ĭ|
è¢ ĸ
ĠæľŃ è¾¾|
ĠåĬ ¡
éĤ Ĭ
ĠåĸĢåĸĩæ²ģ å·¦ç¿¼
Ġå²¢å² ļ|
ces sed
Ġåıĳå¸ĥ æĹ¶éĹ´ï¼ļ2020-0
Ġå¼ĵ éķ¿
èĥ½ æıĲçİ°
å¹ ¼
èĥľ å½ª
Ġè Ľ
èĥľå½ª ä¸ĵæłı
Ġwww. baidu.com/
æķ° ï¼ļ
u i
p >
åĪ© äºļ
ĊåĲ´ èĥľå½ªä¸ĵæłı
Ġæµ® æ¢ģ|
è©ķ æ¯Ķ
Ġé¢Ŀå°Ķåı¤ çº³|
( data
è° Ĭ
Ġä¹Įé©¬ æ²³|
Ġèİ ·
èĦ ±|
éĩĮ éĿ¢
?? ?
Ġæ±Łèĭı å¿«3
Ġå¼ĵéķ¿ å²Ń|
Ġéħ į
ĠåĸĢåĸĩæ²ģå·¦ç¿¼ |
Ġè± ª
Ġa b
èĪ į
ĠæĿľ éĽĨ|
æ²» çĸĹ
Ġéĺ¿é²ģç§ĳå°Ķæ²ģ æĹĹ|
Ġå¢¨ èĦ±|
ä¸ī åħ¬
Ġ365æ£ĭçīĮæ°´æŀľ æľº
Ġåīįå¤©0 4
çľŁäºº çĽ´æĴŃ
ĠæĢĢ æŁ
åĺ İ
èĢģ äºº
Ġåīįå¤© 19
åħ¨å¤© è®¡åĪĴ_
2016 å¹´
Im age
Ġéĺ¿ åĽ¾
Ġå°Ĭé¾Ļ æ£ĭçīĮ
Ġéĺ¿ çĵ¦
æŃ¦ æ±ī
æīĭæľºçīĪ _
ç¼ ´
ãĢĤ ä¹łè¿ĳå¹³
åĲĦ åľ°
äººå·¥ è®¡åĪĴ
e ch
Ġéĺ¿æĭīåĸĦ åı³æĹĹ|
Ġäºļç¾İä¼ĺæĥł å¤ļä¸ĢçĤ¹
æĹ ¢
Ġåħ«ä¸Ģ éķĩ|
UU å¿«3
å±± åİ¿
ĠæĹ¥ åľŁ
lo ck
ĠåĪ©æĿ¥w66æľĢ ç»ĻåĪ©çļĦèĢģçīĮ
Ġ[ ];
ĠäºļæĲı ä¸ĭè½½å®¢æĪ·ç«¯
ï¼ İ
ĠäºļæĲı çľŁäººçĽ´æĴŃ
Ġ2020-03 -31
æĭ¥ æľī
æĪ¿ éĹ´
ãĢĳãĢĲ äººãĢĳãĢĲ
( 0)
ĠéĹ¨ å¤´
Ġéĥ İ
ì Ħ
ä¿¡ åı·
ĠéĦ ¯
ĠçĭĹä¸ĩ ä¹°çĲĥ
ĊT he
ĠçĶµçİ©åŁİ æįķé±¼
à¸ «
Ġå¸®åĬ© ä¸Ńå¿ĥ
ä¸ĩ çĭĹ
ï¼ ĵ
çħ§ çīĩ
æĸ° ç¤¾
åľ¨ åĮĹäº¬
ĸ éľ
Ĥ åİ¿|
ç¼ ©
ĠèģĤ æĭī
éļ Ĭ
æ³¨åĨĮ å¼ĢæĪ·
Ġï ¿¥
ä¿¡èªī ç½ĳç«Ļ
Ġåĩ¯æĹ¶åĽ½éĻħ å¼ĢæĪ·
è§£ ç»ĳ
§ ï¿½
_ å¤§åıĳ
w ord
çº¦ç¿° éĢĬ
å½© èµĦæĸĻ
æ³¨åĨĮéĢģ éĴ±
ä¿ĥ è¿Ľ
ì Ĺ
µ è¡Į
Ġæ±Łèĭı å¿«ä¸ī
Ċ æĺ¥
ĠçĭĹä¸ĩ æľī
Ġ$(' #
Ġæīİ é²ģ
èĭ¹æŀľ app
äºĮ åįģ
Ð¾ Ð
Ġä¹Ĳæ©Ļ åĽ½éĻħ
ŀ ï¿½
Ġ918åįļå¤© å¨±ä¹Ĳ
éĥ½ æľī
æª¬ åıªï¿½
éŁ³ ä¹Ĳ
é«ĺæ½® çīĪ
åĪ°è´¦ æĹ¶éĹ´
Ġ918ï¿½éİıçĦ¯ æª¬åıªï¿½
Ġç¦ »
Ġåĩ¯åıĳå®ĺç½ĳ ä¸ĭè½½ç½ĳåĿĢ
Ġag æ³¨åĨĮ
Ġæ¾³éĹ¨ bet365
ŀ à¸
è¾ĵéĴ± _
Ġè° ĥ
Ġè°¢ éĢļ
æīĭæľº å®ĺæĸ¹å®¢æĪ·ç«¯ä¸ĭè½½
Ċä»ĬæĹ¥ æĹ©æĬ¥
Mj h
å®ŀ æĹ¶
ë Ĭ
Ġå¤§åıĳå¿«ä¸ī çļĦ
n um
it i
éĢī 7
ĠçŁ³ çĭ®
æĢ ª
Ġåĩ¯åıĳæ³¨åĨĮå¹³åı° åħįè´¹ä¸ĭè½½
A S
Ġåīįå¤© 17
åħĭ åħ°
Ċ2019-10 -20
èĩªæ²» åĮº
çº Į
åİ ļ
à¸¥ à¸
Ĺ åİ¿|
ä½ĵèĤ² å®ĺç½ĳ
ä¸º âĢľ
è¡ ¡
åħ´ åİ¿|
æĪĲ åĳĺ
åħ¬ æ°ĳ
çĶ ¯
Ċ 356bet
Ġè¾ ī
Ċ çĻ¼è¡¨æĸ¼
24 æĹ¥
ir st
æıĲ éĹ®
å½© ä¹Ĳ
ä½ł ä»¬
ä¸Ģ å¹´
H J
ĠçĭĹä¸ĩ é»ĳ
Ġéĺ³ æľ
å½© ccåĽ½éĻħ
Ĥ ï¿½
ĠåĬł æĭ¿å¤§
æľĢæĸ° å®ĺç½ĳ
è´§ è½¦
èµ°åĬ¿åĽ¾ _
an ji
Ġçİ¯äºļag å®ĺç½ĳ
ĠçĭĹä¸ĩ è½¯ä»¶
ä¸Ĭ ç½ĳ
Ġå¤§åıĳå¿«ä¸ī å®ĺç½ĳ
çļĦ éĩįè¦ģ
åı¸ æľº
åħ¬å¼Ģ éĢīæĸĻ
å®¢ æĪ¿
æĢ»ä»£ _
æĸ ¤
å·² è¢«
ä¿¡èªī å¥½
n ãĢĳãĢĲtãĢĳãĢĲ
ç² ¹
Ġ66 åĪ©æĿ¥å®ĺç½ĳ
Ġæ¸ łéģĵ
ä»ĺ æ¬¾
æĸ° æĹ¶ä»£
ç´ «
Ġè¯ ¦
åĨľ ä¸ļ
ĠåĮħ åŃĲ
Ġåīįå¤©0 2
çĤ¹ ï¼Į
Ġç¦ ¹
05 ï¿½ï¿½
Ġéĵĥå£° é«ĺæ½®çīĪ
Ġçº¿ä¸ĬçľŁäºº èµĮéĴ±
Ġèµ Ľ
ç¹Ŀï½ «
èĥ ģ
Ġçİ¯äºļag çĻ»å½ķ
çĽĳ çĿ£
ĊT h
Ġç¥ŀåĨľæŀ¶ æŀĹ
8 ,
è¨Ī ç®Ĺ
çĪ ½
Ġåīįå¤©0 5
/ å¤§åıĳ
Ġæķ ħ
ĠL td
ç´ ħ
Ġd es
Ġæ² »
ĠN ew
èµ°åĬ¿ _
ĠO n
Ġ2016 -12
æľĢæĸ° åľ°åĿĢ
u y
ĊæĺĨ ä»ĳ
Ġ à¹
Ġm ore
å¥Ĺ è·¯
éĳ «
èµ «
Ġè¥¿ å®ī
ç®Ĺ åĳ½
åħĥ ï¼Į
Ġæµģ åĬ¨æĹ©é¤ĲåĬłçĽŁ
Ġæ¾³éĹ¨ 365betå®ĺç½ĳ
ĠæĿŃ å·ŀ
Ġ365bet å¤ĩçĶ¨
Ġåīįå¤© 14
Ġåīįå¤© 23
å§ĵ åĲį
ĠB y
ĠæĹ©é¤ĲåĬłçĽŁ åĵªå®¶å¥½
è Ł
Ġæİ¨ èįĲ
Ġå¤§ ä¸ĵ
ĠåŃ¦ çĶŁæĹ©é¤ĲåĬłçĽŁ
e ed
çľŁäºº å¨±ä¹Ĳ
_è®¡åĪĴ å¸Ī
ãĢĳãĢĲoãĢĳãĢĲ rãĢĳãĢĲ
ĠéĽĦå·ŀæĹ©é¤ĲåĬłçĽŁ çĶµè¯Ŀ
Ġå¤©æ´¥æĹ©çĤ¹åĬłçĽŁ è½¦
ĠæĹ©çĤ¹ ç²¥åĬłçĽŁ
Ġå°Ĭé¾Ļd88 ä¸ĭè½½
è´ ¯
ç½ĳç«Ļ å¤ļå°ĳ
ä¸į å¾Ĺ
Ġè±Ĩ æµĨ
ĠåĮħåŃĲ æĹ©çĤ¹åĬłçĽŁ
ĠåĬłçĽŁ çī¹èī²æĹ©çĤ¹
Ġå¹¿ å¼ıæĹ©é¤ĲåĬłçĽŁ
Ġå³ ¡
æ±Ł åį«
Ġå®īå¾½ æĹ©çĤ¹åĬłçĽŁ
æŃ£è§Ħ ç½ĳç«Ļ
ä¹ Ķ
ĠæĹ©çĤ¹ é¤Ĳé¥®åĬłçĽŁ
ĠåĮĹäº¬ æĹ©çĤ¹åĬłçĽŁ
00 00
Ġst yle
Ġæ¹ĸåįĹ çī¹èī²æĹ©çĤ¹åĬłçĽŁ
Ġåīįå¤© 11
Ċ åĲīæŀĹ
Ġçİ¯äºļag æ¸¸æĪı
ĠæĹ©çĤ¹å°ıåĲĥåĬłçĽŁ ç½ĳ
ĠæĹ©é¤Ĳ é¤Ĳé¥®åĬłçĽŁ
èµ ł
è´ º
ĠæĹ©é¤Ĳ åŁ¹è®ŃåĬłçĽŁ
Ġæ²¹ æĿ¡æĹ©é¤ĲåĬłçĽŁ
Ġåĩ¯æĹ¶åĽ½éĻħ å¹³åı°
åĽ½ éĺ²
ĠæĹ©é¤ĲåĬłçĽŁ å¥½é¡¹çĽ®
æ¹ĺ æ½Ń
èİ· åıĸ
Ġu p
Ġ?? ?
Ġæ¾³éĹ¨ 365ä½ĵèĤ²æĬķæ³¨
ĠæĹ©é¤Ĳ éĿ¢é¦ĨåĬłçĽŁ
ãĢģ ãĢģ
Ċ çĩķ
åħ¶ ä¸Ń
ĠéĻķè¥¿ æĹ©çĤ¹åĬłçĽŁ
ä¸¾ åĬŀ
ĠæĹ©çĤ¹åĬłçĽŁ é¡¹çĽ®
ĠéĽĦå·ŀ æĹ©é¤ĲæĢİä¹ĪåĬłçĽŁ
å®īè£ħ _
èµĦ èŀį
Ġè±ĨæµĨ æĹ©é¤ĲåĬłçĽŁ
äºĭ æĥħ
Ġå±±ä¸ľ æĹ©é¤ĲåĬłçĽŁ
Ġåģ¥åº· æĹ©çĤ¹åĬłçĽŁ
Ġåīįå¤© 10
ĠccåĽ½éĻħ å¹³åı°
è¢« åĨĴçĶ¨
ĠæĹ©é¤Ĳ åĮħåŃĲåĬłçĽŁ
ĠæĹ©çĤ¹å°ıåĲĥåĬłçĽŁ æİĴè¡Įæ¦ľ
Ġåīįå¤©0 1
åįĹ æĬķ
è® ¼
Ġé¦Ļ æł¼éĩĮ
Ġæµ ı
å¯¼èĪª ç½ĳ_
ãĢĳãĢĲ äºĨ
ĠæĹ©çĤ¹ è½¦åĬłçĽŁ
è¾ħåĬ© _
åĥ¹ æł¼
ĠæĶ¶ ä¸įåĪ°
ä¿¡èªī æĢİä¹Īæł·
Ġæ¸łéģĵ åĲĪä½ľ
Ġå¤§ ç¦ıæĿ¥æĹ©çĤ¹åĬłçĽŁ
ĠæĶ¶ä¸įåĪ° éªĮè¯ģ
ĠæĹ©çĤ¹ éĿ¢æĿ¡åĬłçĽŁ
Ġæīİé²ģ çī¹æĹĹ|
Ġæ±Łèĭı æĹ©é¤ĲåĬłçĽŁ
4 3
æŀģéĢŁ å¿«ä¸ī
ĠæĹ©é¤ĲåºĹåĬłçĽŁ åĵªå®¶å¥½
çĽ¸ ä¿¡
èĢĥ èĻĳ
ï¼Į å¥¹
ç¶² è·¯
çĿ ¡
æĪĲ ç»©
Ġæ¹ĸ åĮĹæĹ©é¤ĲåĬłçĽŁ
Ġåīįå¤©0 7
æķ Į
Ġæ¾³éĹ¨ ç²¾åĩĨ
Ġå·´æŀĹ åı³æĹĹ|
Ġw66 å®ĺç½ĳ
Ġå¾· éĴ
é¹ ¿
Ġæł ĸéľ
24 6
æ³¨åĨĮ å®ĺç½ĳ
Ġä¸Ĭæµ· æĹ©çĤ¹åĬłçĽŁ
Ġä¸Ń å¼ıæĹ©çĤ¹åĬłçĽŁ
5 åĪĨæĹ¶æĹ¶å½©
ĠçĭĹä¸ĩ ä¸ĭè½½
ĠæĹ©çĤ¹åĬłçĽŁ ç½ĳ
ĠAGäºļ å®ĺæĸ¹
ĠåĲ ¦
° ï¿½ï¿½
ĠæĹ©é¤Ĳ å·¥ç¨ĭåĬłçĽŁ
Ġå¾ Ģ
Ġ ä¾¯
éĥµ å±Ģ
å¸Ĥ éķĩ
æĸ° ç½ĳåĿĢ
ä¸ĭ è¼ī
Ġ è½¦
è ¥Ħ
ĠæĹ©çĤ¹ è¿ŀéĶģåĬłçĽŁ
Ġæĸ° ä¸ĩåįļ
ri p
M z
5 7
æķĳ æı´
å¾ĭ å¸Ī
ĠæĺĨ æĺİ
ĠæĻ ´
ĠæĬ ¥
Ġ365 åľ¨çº¿ä½ĵèĤ²æĬķæ³¨
Ġåīįå¤©0 9
Ġæģ Ń
ĠçĻ¼ è¡¨
ĠèĢ Ĵ
æĬĢå·§ _
æ´Ľ éĺ³
æ£ĭçīĮ å®¤
G anji
ĠåĽ¾ ä»¬
ä»İ åĵªéĩĮ
éĺ µ
ĠçıŃ æĪ
Ġçİ¯äºļ æīĭæľºapp
éĥ½ ä¼ļ
æ© ĭ
Ġäºļç¾İ åĽ½éĻħå¹³åı°
æĩ Ĥ
st yle
Ġ365ä½ĵèĤ²æĬķæ³¨ çľŁäºº
èµĦèŀį åĪ¸
Ġåīįå¤©0 8
Ġäºļç¾İam8 å®ĺæĸ¹ç½ĳç«Ļ
Ġåīįå¤© 16
Ġåĺī èį
éĺ³ åİ¿
Ġå¤§ æ´
å¤§ éĻĨ
Ġä¹ħ æ²»
æĺİ å¹´
Ġè¿ Ń
çº³ å£«
ĠT empl
çĲĨ è´¢
Ġçĵ¦ æĪ¿
ä¼ļ ãĢĳãĢĲ
æĴ ¤
Ġåīįå¤© 12
icro soft
è´¤ çº³å£«
åľŁ èĢ³åħ¶
Ġæ² Ľåİ¿|
è¿ ħ
ĊæĹ¶éĹ´ï¼ļ 2020-0
Ġç¥ŀåĨľæŀ¶æŀĹ åĮº|
rem ove
åįķåıĮï¼ļ å½©ç¥ŀäºīéľ¸8
ĠæĭĽ è´¤çº³å£«
Ġwww.baidu.com/ aaaa
ĠåĬ¨ æ¼«
å®īåįĵçīĪ _
åĮĹäº¬ èµĽè½¦
us h
Ġåĩ Ĩ
ivers ity
Ġæĸ° çĸĨ
Ġäºļæ¸¸app æĢİæł·
æ¸ ¬
ĠèĹ ģ
Ġèĭ¥ ç¾
æ¯ «
å¥ĸéĩĳ ä»£çłģ
Ġç´ ¢
ĠæŃ¦ é¸
I P
c ted
Ġw66 æīĭæľº
å¦Ĥä½ķ æıĲæ¬¾
Ċ âĢĿ
Ġäºķ çłĶ
ou nd
è ļ
Ċ åīį
Ġbet356 ä½ĵèĤ²åľ¨çº¿
ï¼Įä½Ĩ æĺ¯
Ġå£ ¤
ord er
ĠæĹł æ£
ĊæĺĨä»ĳ ç½ĳ
ĊCopyright Â©
ĠçŁ³ æ²³
Ġåºĵ ä¼¦
25 æĹ¥
ĠåĪ©æĿ¥ AGæĹĹèĪ°åİħ
æĺ¯ å¤ĸåĽ´åĲĹ
Ġk8å¨±ä¹Ĳå®ĺç½ĳåľ°åĿĢ å¨±ä¹Ĳ
ä»ĸä»¬ çļĦ
29 æĹ¥
ĠC ity
çĶŁ çī©
æĪª åĽ¾
ãĢı ãĢİ
çĶ¨ è½¦
éĤ£ äºĽ
bo x
Ġå½©ç¥ŀ app
èĭ¹æŀľçīĪ å®ĺæĸ¹ä¸ĭè½½
Ġæł ¹
æĹ¥æĬ¥ éģĵ
ä¼łåªĴ ç½ĳ
è§£ éĻ¤
Ġå² Ĺ
Ġagçİ¯äºļ ç½ĳç«Ļ
ĠçĻ½ æľĹ
æĮ £
Ġåīįå¤© 18
æįŁ å¤±
Ġå Ļ
ĠäºļæĲıä½ĵèĤ² èĭ¹æŀľçīĪå®ĺæĸ¹ä¸ĭè½½
èµ ı
æĭĽåķĨ åĬłçĽŁ
ãĢĳãĢĲiãĢĳãĢĲ nãĢĳãĢĲ
å®ĺç½ĳçĻ»å½ķ ä¸ĭè½½
attr ("
æļ ¨
ĠI t
ä» Ķ
ãĢĤ æĪĳä»¬
ĠåĮº åİ¿
Ġæľ¬ åľŁ
å®£ ä¼ł
è¯ ¸
éİ ®
ĠåĲ «
æŃ£ç½ĳ å¹³åı°
Ċ æĿŃå·ŀ
u a
Ġbet365 æıĲçİ°
ç½ĳé¡µçīĪ çĻ»å½ķ
Ċ 365æ£ĭçīĮ
Ġå·´ é»İ
Ġå¸ Ī
Ġä¸ İ
Ġk8 æ£ĭçīĮ
èı ±
Ġä¸ĭä¸Ģç¯ĩï¼ļ æ²¡æľīäºĨ
å¼Ģ å¿ĥ
ä»£æĽ¸ è²¸æ¬¾
çİ°åľº å¨±ä¹Ĳ
ï¼Į åı¯
ĠçĭĹä¸ĩ ç»ĵç®Ĺ
Ċçĩķ èµµ
Ġåīįå¤©0 6
å¼Ģ ä»Ģä¹Ī
Ġi m
ĠèĬ ¦
Ġçł ´
æ¬ Ħ
ç¼ ĺ
ĠåĪ ļ
b te365
( R
v is
L O
çĤ¹ è¯Ħ
Ġæīĭæľºåı· è¢«åĨĴçĶ¨
Ċåıĳå¸ĥ æĹ¶éĹ´:
ĠåĮºåİ¿ å¯¼èĪª
Ċ æĤ¨çļĦä½įç½®ï¼ļ
Ġst r
V 4
Ġç§ °
éł ħ
Ġå§ ļ
äºļæ¸¸ éĽĨåĽ¢
Ġ365æ£ĭçīĮ å¾®ä¿¡
ä¸į æľĥ
å±ħ æ°ĳ
åħįè´¹ èµĦæŀĵå¤§åħ¨
Ġåĩ¯åıĳçĶµæ¸¸ å®ĺæĸ¹ç½ĳç«Ļ
èĬ± èĵ®
appä¸ĭè½½ å®ĺç½ĳ
ĠC D
Ġé¢Ŀ æķ
Ġæī¿ å¾·åİ¿|
m e
Ġæ¾³éĹ¨ 365bet
ĠæĪ¿å±ĭ æ±Ĥ
æľĢæĸ° æĬķæ³¨
éĿĴå¹´ æĬ¥
æĿĥ åĪ©
å¨±ä¹Ĳ ç½ĳ
Ċä¸Ń æĸ°ç½ĳ
Ġ10 åĪĨpk10
Ġè¾½ éĺ³åİ¿|
ï½ ŀ
ĠéĹ¨ æºĲ|
æ¯ĶèµĽ é¢Ħæµĭ
p er
ine se
Ġé»Ħ å±±å¸Ĥ|
Ċ æ¹ĺæ½Ń
Ġéģµ ä¹īåİ¿|
åĽŀ è¦Ĩ
Ġky å¼Ģåħĥæ£ĭçīĮ
åħĭ æĸ¯
Ġm obile
ĠçĭĹä¸ĩ è®©çĲĥ
Ġå¿ Ĺ
Ġæłªæ´² åİ¿|
Ġæĸ°ç«¹ åİ¿|
Ġä¸Ĭé¥¶ åİ¿|
ĠèĬľæ¹ĸ åİ¿|
ï¼Įä»¥ åıĬ
Ġå®ľå®¾ åİ¿|
åħļ å§Ķ
ç½ Ĳ
æ² Ī
èĦ± æ¬§
Ġqu eries
éĿ¢ ä¸´
ä¸į ä»ħ
Ġä¼Ĭ å®ģåİ¿|
Ġåı°åĮĹ åİ¿|
äººæ°ĳ ç½ĳ
æķ´ ä¸ª
Ġè¡¡ éĺ³åİ¿|
æĬ¥éģĵ ç§°ï¼Į
æĺİ ç¡®
ĠéĢļ åĮĸåİ¿|
Ċä½ľèĢħ :
èµ ĸ
ĠÃ Ĺ
çĻ»ä¸įä¸Ĭ åİ»
çģ Ń
b ack
ä»· ï¼ļ
çĽĳ æİ§
Ċåħ³äºİ Ganji
åħ¨ ç«Ļ
ĠåįĹ æĺĮåİ¿|
ag çľŁäºº
Ġå¤§åĲĮ åİ¿|
æŃ¤ åĪĨé¡ŀ
å¼Ģå¥ĸ _
åĲĪ åĲĮ
ĠçĭĹä¸ĩ æĢİä¹Īä¹°
æĦı ä¹ī
Ġéķ¿æ²» åİ¿|
Image 1
ider Image1
Ġmod ify
ä¸ľ äº¬
Ġagä¸ĭè½½ å®ĺæĸ¹ç½ĳç«Ļ
åĬł æĹ¶
Ġä¹Ŀ æ±Łåİ¿|
Ġå¤§åĲĮ å¸Ĥ|
è©ķæ¯Ķ ,
æĽ´ åĬł
æµĭ è¯ķ
ãĢĳãĢĲ åľ¨ãĢĳãĢĲ
yXG 5
è¥¿ åįĹ
Ġèµ¶éĽĨ æİ¨å¹¿
Ġbet365 å¤ĩçĶ¨
Ġä¸Ń åį«
Ġ365betå®ĺç½ĳ çľŁäºº
Ġåĩ¯åıĳçľŁäºº å¹³åı°
Ġag ç½ĳç«Ļ
çµ ±
ä¾Ŀ æ³ķ
ĠåĲī å®īåİ¿|
Ġåºĵä¼¦ æĹĹ|
Ġåīįå¤© 22
Ġåı° çģ£
å¨±ä¹Ĳ æ¸¸æĪıå¹³åı°
å° ĩ
ç²¾ å½©
ĠéĤµ éĺ³åİ¿|
Ġåı°ä¸Ń åİ¿|
. net
Ċæĺ¥ åħī
ĠæĲ ľ
ĠæľĿ éĺ³åİ¿|
Ċ åģ¥åº·
Ġ ä»ĭ
æĦŁ è§ī
ĠæĬļé¡º åİ¿|
** **
ĠéĨ ´
Ġä¸´å¤ı åİ¿|
Ġå²³ éĺ³åİ¿|
on s
Ġåīįå¤© 21
d G
Ċ2019-10 -14
è½¯ä»¶ _
è¿Ļ ä¹Ī
åŁİ æĸ°éĹ»ç½ĳ
å·ŀ æĹ¥æĬ¥
Ġå¼Ģå°ģ åİ¿|
Ġå®£ åĮĸåİ¿|
Ġéĵģå²Ń åİ¿|
æīĭæľºç«¯ ä¸ĭè½½
æŃ£è§Ħ ç½ĳ_
10 5
ç¯®çĲĥ æ»ļçĲĥ
åĲ ģ
çĻ¾å®¶å®¶ä¹Ĳ app
Ġåĺī ä¹īåİ¿|
è´Łè´£ äºº
æĸ¯ Â·
Ġé«ĺéĽĦ åİ¿|
Ċæ¹ĺæ½Ń åľ¨çº¿
Ġ{ å¤§ç¥ŀ
Ġåı° åįĹåİ¿|
Ġç»įåħ´ åİ¿|
ribo88 çĤ¹cc
æ²Ł éĢļ
Ġæīĭæľº èµ¶éĽĨ
Ġæ¹ĺæ½Ń åİ¿|
æ¯Ķ äºļ
å¿«ä¹Ĳ åħ«
ï¼Į å¦Ĥæŀľ
ZS I6ZmFsc2UsIm
ĠçĭĹä¸ĩ åĴĮ
Ġæĸ° æ²
çĻ¾åº¦ åľ°åĽ¾
æĢ»ç»Ł çī¹æľĹæĻ®
åĴ ĭ
Ċ ï¿½ï¿½
Ġæ» ķ
ĠS P
Ġæ ¦Ĥ
ĠéĤµ éĺ³å¸Ĥ|
Ġ2019-0 3
çĶ° æ£®
åĪĺ æ±Łåį«
Ġæ¾³éĹ¨ æŃ£çīĪ
Õ¸ ÖĤ
Ġ365betå®ĺç½ĳ å®ĺæĸ¹
ä¸ĭ éĻį
Ġç© º
365 .com
Ġ ä½ĵèĤ²åľ¨çº¿
æĸ° æµª
âĢ Ģ
Ġæµ ª
6 çłģ
èĤ ĩ
ĠU N
Ġmodify Time
ĠmodifyTime :0,
r an
ä¼ļ è§ģ
å»º è®®
æŁ ı
èµĦæĸĻå¤§åħ¨ |
å®¾ é¦Ĩ
Ġçİ° åľ¨
CN N
æĬķæ³¨ ç½ĳç«Ļ
Ġåĵª å®¶
c .
åķĨ ä¸ļ
ap k
Ġäºļç¾İagæĹĹèĪ°åİħ appä¸ĭè½½
Ġäºļæ¸¸ çĶµæ¸¸
äºĶ æĺŁ
æŀĹ åİ¿|
Ġsecond (s
val ue
Q u
ĠåĪ©æĿ¥ æīĭæľºapp
Ġéĥ½ æ±Ł
æĹ©çĤ¹ å¿«é¤ĲåĬłçĽŁ
½ ï¿½
ĠçŁ³ åĺ´
æī§ æ³ķ
¦ ï¿½
æ©Łè»Ĭ åĪĨæľŁ
Ġag æīĭæľºå®¢æĪ·ç«¯ä¸ĭè½½
ï¼Įä¹Ł æĺ¯
ost ed
ä¼¯ æ¸©
Ġäºļç¾İ åħ¬åı¸
Ġ365betå®ĺç½ĳ æ»ļçĲĥ
æĺ¯çľŁå®ŀåĲĹ _
ç£ ¨
Ġçİ¯äºļéĽĨåĽ¢ app
ï¼Į åĲĮ
ä¿Ŀ è¯ģ
æĭĽåķĨ ä¸»ç®¡
Ġè¿ ľ
Ġ2018 å¹´
ä¸º æĤ¨
Ġå¹³ åı°
å¦Ĥ æŃ¤
Ġ365ä½ĵèĤ²æĬķæ³¨ å®ĺæĸ¹
Ġ1 .0
æµ· åħ³
çħ ¤
ĠccåĽ½éĻħå½© çĲĥç½ĳ
åħ¬ åħ±
Ġ2020-0 4-10
Ġåīįå¤©0 3
ĠåĽ ´
çļĦ ä½įç½®
éģ į
å¨±ä¹Ĳ å¼ĢæĪ·
çŃī åľ°
ëĬ Ķ
1 å¹´
æĸ¹ æĹ©é¤ĲåĬłçĽŁ
w a
éĩĩ è´Ń
æķĻ å¸Ī
dG g
è· Ŀ
Ċ2019-10 -17
çĦ¶ åĲİ
12 3
ĠS H
2lk dGg
f orm
Ġæ¾³éĹ¨ |
ĠçĪ± å½©ä¹Ĳ
Ġçİ¯äºļçĶµæ¸¸ ag
Ġéĩĳ åĿĽ
ï¿½ï¿½ï¿½ï¿½ ï¿½ï¿½ï¿½
ï¼ī ãĢĤ
æĮĤ æľº
Ġ$ .
A D
Ġçģµ å®Ŀ
ial og
éĢ £
agæĹĹèĪ°åİħ å®ĺç½ĳ
èĢģ æĺ¯
Ġ2018 -07
çķ «
åħ¬ éĸĭ
å®ĺæĸ¹ appä¸ĭè½½
4 OT
å®¶ä¹Ĳ æĹ©é¤ĲåĬłçĽŁ
Ċ2019-12 -06
æ¬§æ´² è¶³çĲĥ
Mjh 4OT
Ġæ°¸ åĪ©
g YWR
å¼ ±
å®ģ å¸Ĥ
éªĹå±Ģ _
æĢİæł· åĬłçĽŁ
- d
Ċ å¨ģ
Ġæ© Ł
åĪĨæİĴåĪĹ 5
Ċ2019-0 3
Ġe å½©ccåĽ½éĻħ
æĹ©çĤ¹ æĢİæł·åĬłçĽŁ
éħįéĢģ åĬłçĽŁ
_ äºļåįļ
è½ ´
Ġæł¼ å°Ķ
Ġé ±¼
æĹ©çĤ¹ åºĹåĬłçĽŁ
Ġ356bet å¤ĩçĶ¨
çº½ çº¦
ç½ĳç«Ļ æĺ¯å¤ļå°ĳ
æľ¬ åľ°
Ġé©¬ è¾¹|
ĠçĭĹä¸ĩ æľĢä½İ
ç¿ ł
Ġ2020-0 7
å®Ĺ æĹ©çĤ¹åĬłçĽŁ
Ġn ull
Ġå±± è¥¿
æľ ±
éĥ¨ éĺŁ
æĿ ł
Ċ èĬ
ĠæĻ¯ ä¸ľ|
åĴ ĸ
æĳ ĩ
èµĦæĸĻ |
âĨ ĵ
Ġä¸ľ ä¹¡|
çł´ åĿı
åĲ§ åĬłçĽŁ
Ġäºļç¾İ AGæĹĹèĪ°åİħ
Ġèį£ æĪĲ
ĊåįĹ æĸ¹
Ġå¿«é¤Ĳ æĹ©é¤ĲåĬłçĽŁ
Ġäºļæ¸¸ å¹³åı°
ç¯®çĲĥ æĬķæ³¨
Ġå®½ åŁİ|
Ġå «
ĠçīĻ åħĭ
Ċ 2020
Ġæ² Ń
ä¸ŃåĽ½ çļĦ
ĠæĻ¯ è°·|
å¼ ĥ
ĠèĤĥ åįĹ|
åĩł ä¹İ
åĮĹ éĥ¨
ĠäºĶ å³°|
Ġä½ ł
ë Į
å¤ĸæĮĤ _
åıĳè¨Ģ äºº
å¿Ĺ æĦ¿
ĠæģŃ åŁİ|
ĠåĪ©æĿ¥ ç½ĳåĿĢ
çł´è§£ çīĪ
Ġé ¤
g ,
çļĦ åľ°æĸ¹
çĽĪ åĪ©
æĶ¹ åıĺ
Ġ ä»Ģ
Ġ6 up
åĲĹ ï¼Ł
æĪ Ĵ
é¢ ľ
ĠäºļæĲı æīĭæľºçīĪ
æĺ ł
åĽ½ äº§
Ġdocument.getElementById ("
ĠO F
èŃīä»¶ åĢŁæ¬¾
ĠçŁ³ æŀĹ|
e c
I M
á º
çļĦ æ¸¸æĪı
Ġâ Ĺı
ĠåĪ©æĿ¥w66 æĹĹèĪ°çīĪ
_ c
Ġèµ «
åĪ° åºķ
å ļ
é¦ Ī
Ġ ä¾Ľ
åı° æĿ±
èĹ į
âĢľ ãĢĳãĢĲ
æĺ¯ä»Ģä¹Ī ä¸ľè¥¿
å°ģ åı·
å¤ļ æ¬¡
Ġif( data
å¤ļä¹ħåĪ° å¸Ĳ
Ġæ±½ è½¦
Ġ2020-02-2 9
repl ace
å ¶
Ġåĩ¯åıĳçĶµæ¸¸ æ¸¸æĪı
Ġçº¿ä¸ĬçľŁäººåıĳçīĮ çİ°åľºå¨±ä¹Ĳ
åįİ ä¸º
Ġåĩ¯åıĳå®ĺç½ĳ æīĭæľºçīĪä¸ĭè½½
ĠçĻ¾å®¶ä¹Ĳ ç½ĳåĿĢ
o y
201 2
Ġåı ³
ight ,
éĿ¢ ç§¯
æĦı åĳ³
ç½ ©
çĪ ¸
Ġåı ¥
ç©º æ°Ķ
ĠçĭĹä¸ĩ çº¢åĮħ
Ċå¤§ è¿ŀ
Ġäºļç¾İ å®ĺç½ĳ
a 8
åķ ¡
åª Ľ
åĩº çļĦ
_ 365bet
çĲ ´
Ġçº¿ä¸ĬçľŁäºº æĸĹçīĽ
äºĳ åİ¿|
åĵªè£¡åı¯ä»¥ åĢŁéĮ¢
P rice
åįĬ å¹´
åĵĪå°Ķ æ»¨
æĽ² åİ¿|
Ġæ¾³éĹ¨çľŁéĴ± åľ¨çº¿ç½ĳæĬķ
/ 5
± è®Ģ
Ġæľ¬ ç§ĳ
èµ¢ å®¶
çĩ Ł
éħį ä»¶
Ġçİ¯äºļ å¤§å¸ĪèµĽ
Ġåĩ¯åıĳæ³¨åĨĮ ä¸ĭè½½ç½ĳåĿĢ
ä»ģ åİ¿|
åĶ¯ä¸Ģ å®ĺç½ĳ
L ist
ĠAG çĻ¾å®¶ä¹Ĳ
o ver
æ¨ ª
èµ ´
ä½ĵéªĮ éĩĳ
21 æĹ¥ï¼Į
åľ°ä¸ĭéĮ¢èİĬ åĢŁéĮ¢
ç´ į
è¯ļ ä¿¡
æĢ Ĵ
åıĬ æĹ¶
Ġ2018éªŀï¿½ 05ï¿½ï¿½
æĬķæ³¨ æĬĢå·§
å¹¿ å¤§
ä¾ĽåºĶ åķĨ
Ġå¤§åıĳæĹ¶æĹ¶å½© è®¡åĪĴ
æ» ´
ĠRo ad
Ġæ¾³éĹ¨çľŁéĴ± ç½ĳ
Ġç ĩ
Ċæĸ°åįİç½ĳ äºĳåįĹ
ĠS p
Ġå¼Ģåħĥæ£ĭçīĮ æĸĹçīĽ
æĮĩ æİ§
å¹¿ ç½ĳ
Ġæ¾³éĹ¨çľŁéĴ± å¹³åı°
çľŁåģĩ _
Ġå½©ç¥ŀ éĢļ
ï¼Į ä¸İ
åĲī åħĭ
åı£ åİ¿|
ĠA M
Ċ å°ı
å¹¿æĴŃçĶµè§Ĩ ç½ĳ
Ġag 9
éģĵ ï¼ļâĢľ
ç«ĭ æ³ķ
F wi
Ġ1 åĪĨå½©
ï¼Į åħ±
éĥ½ åİ¿|
Ġä»Ĭ å¤©
Ð º
ä¹Ĳ åİ¿|
Ġè ¢
ç¡ ķ
Ġ365bet å®ĺæĸ¹
ç²¾éĢī èµĦæĸĻå¤§åħ¨|
åħĥ /
ĠTempl ates
åķĨ åŁİ
Ġæ¾³éĹ¨çĻ¾å®¶ä¹Ĳ ç½ĳç«Ļ
Ġçİ¯äºļæ¸¸æĪı æľĢæĸ°ç½ĳåĿĢ
ĊåįĹ åĽ½
æŃ¦ åİ¿|
ç¼ ħ
å¯ Ĵ
Ġç¥ ¥
éģ ©
Ġä¸Ĭæµ· å¿«3
åħ° åİ¿|
V p
Ġåĩ¯åıĳå®ĺæĸ¹ å½©ç¥¨
åĪĨ 3D
Ġçİ¯äºļag å®¢æĪ·ç«¯
Ġåĩ¯åıĳ ç²¾èĭ±
Ġåīįå¤© 00
Ġæĸ°éĹ» ä¸Ńå¿ĥ
Õ¡Õ ¶
å¤ĩçĶ¨ç½ĳåĿĢ åħ¥åı£
Ġé¦Ļæ¸¯ é©¬ä¼ļ
] [
æĸĩ åı²
åĲĪä½ľ ä¼Ļä¼´
Ġåĩ¤ åĩ°
é¡º åİ¿|
I6 Ij
éĥ½ ç½ĳ
Ċéĵģè¡Ģ ç¤¾åĮº
å¤§ éĢī
ç»ı å¸¸
è£ ½
å¼Ģå¥ĸç»ĵæŀľ _
e X
æ³ ¡
ä¹łè¿ĳå¹³ æĢ»ä¹¦è®°
æŃ£çīĪ åĽĽä¸įåĥı
ä»¥ æĿ¥
åĤ Ļ
Ġå¥ İ
éĺ ª
ä¹ĺ å®¢
åİŁ åĪĻ
ãĢĳãĢĲ ä¸ļ
äº« åıĹ
å¿ħä¸Ń ä¸ĢèĤĸ
åŁ Ķ
ay er
éģĵ è·¯
æ½ ľ
Ġ365æ£ĭçīĮ æľī
Ċ æ¸ħ
å½©ç¥ŀ 8
é ½
äººå·¥ æĻºèĥ½
ĠéŁ© åĽ½
éģĹæ¼ı _
æ£ ī
éĿ¢ è®®
éģ ¥
art icle
ç½ĳä¸Ĭ çĶµåŃĲæ¸¸æĪı
ĠæĹł æ³ķ
ç¹Ŀï½¼ ç¹Ŀï½«
Ġç» ©
L m
ä»£çĲĨ _
Ġæĸ°åįİç¤¾ è®°èĢħ
Ġåīįå¤© 15
2015 å¹´
ĊæĤ¨çİ°åľ¨ çļĦä½įç½®ï¼ļ
éĶ Ĳ
ä¸ĸ çºª
cc lx
ĠæĢİä¹Ī åľ¨
è¶³çĲĥ èµĮåįļ
å¼¹åĬ¾ æ¡Ī
æĭľ çĻ»
å® ª
° Ģ
Ġæ¶ ª
ãĢĳãĢĲl ãĢĳãĢĲeãĢĳãĢĲ
47 99çĤ¹c0m
æ³¢ éŁ³
ĠäºĶ å®¶
çº ł
ï¼Įè¿Ļ äºĽ
åįģ äºĮ
Wl u
Ġåģ ı
ĠAG çİ°éĩĳç½ĳ
Ġå¤ ¹
Ġå¹¿åĳĬ æľįåĬ¡
201 0
y st
nb sp
Ċ æĤ¨çļĦå½ĵåīįä½įç½®ï¼ļ
cclx u
Ċ2019å¹´ 09æľĪ
Ċ2020-0 8
Ċ2018 -11
æħ ¶
åįı ä¼ļ
âĢľ åĮĹæºª
æĬķèµĦ åĬłçĽŁåºĹ
çĲĥ éĺŁ
Ġçİ¯äºļ ç½ĳä¸ĬçĶµåŃĲæ¸¸æĪı
äºĭ åĬ¡
çģ¯ ,
ãĢĳãĢĲpãĢĳãĢĲ> ãĢĳ
åĪ· æµģæ°´
è¡¨ç¤ºï¼Į âĢľ
åĤµåĭĻ æķ´åĲĪ
ĠCP åĢ¼
Ġè¶³çĲĥ å¤ĸåĽ´365
Ġåĩ¯æĹ¶kb88 .com
è®¸ ï¼Į
ä¿¡æģ¯ ç½ĳ
çĪ¶ æ¯į
Ġåĩ¯åıĳ çĶµçİ©
ĠçĭĹä¸ĩ è¦ģ
ĠæĦı çĶ²
14 æĹ¥
Ġg et
Ġå°ı åĲĥ
ĠH e
Ġä¸Ń åľĭ
Ġè² ¸
å¾ Ħ
¢ ç¹Ŀï½³
åĳ¼ åĲģ
è¥¿ äºļ
æ¸¯ åı°
à¸ £à¸
31 æĹ¥
èĲ Ŀ
1 88
Ġåĩ¯åıĳAGæĹĹèĪ°åİħ å®ĺç½ĳ
app iosçīĪä¸ĭè½½
Ġk8å¨±ä¹Ĳ appiosçīĪä¸ĭè½½
ĠåĪ Ľ
ĠP h
Ġåĩ¯åıĳçĶµæ¸¸ æīĭæľºçīĪ
Ġç ĭĹ
å» £
è¿ŀ ç»Ń
Ĺ Ĩ
çī¹é©¬ ç»ĵæŀľ
åľ¨çº¿ å¼ĢæĪ·
æĭħ ä»»
çĳ ļ
Ġåıĸ çİ°
å²ģ ï¼ī
Ġ365ä½ĵèĤ²æĬķæ³¨ çİ°éĩĳ
çŁ¥ åĲį
èĴĻåı¤ è¯Ń
ï¼Į åĲĮæĹ¶
ĠçŃ ĸ
function() {
4 e
Ġåĩ¯åıĳçĶµæ¸¸ å®ĺç½ĳ
Ġé«ĺ éĤ®
Ġèı²å¾ĭå®¾ çĶ³åįļ
Ġ365 æ¸¸æĪı
Ġä» ²
å¹¿æĴŃ çĶµè§Ĩåı°
é£ŀ è¡Į
è¿Ļæł· çļĦ
D1 cIj
é¢Ħæµĭ _
Ġ365 å½©ç¥¨
Ġæ± ª
Ġèĭı å·ŀ
Ġå¼Ģåħĥæ£ĭçīĮ è¾ĵäºĨ
Ġé©¬ å°Ķ
è¿Ľè¡Į äºĨ
Ġæ»ļçĲĥ çĽĺ
æĢĿ èģª
æ¥¼ çĽĺ
ios çīĪ
66 8
æŁĲ æŁĲ
Ġæīĵ åį°
éĢĢ åĩº
Ġå¹³ åº¦
åħ· ä½ĵ
Ġæ¸ħ æ°´
ä¸Ģ èĩ´
Ġå» ī
ĠéĴ ĵé±¼
æŀĹ èĬĿ
Ċæĸ° åįİ
äº¿ åĽ½éĻħ
éĶģ å®ļ
Ċæĸ°çĸĨ æĸ°éĹ»ç½ĳ
ĠæĢĿ èĮ
åİ» å¹´
Ġç¡ ®
Ĭ çĳļ
è¯ģ æį®
ĠäºļæĲıä½ĵèĤ² æīĭæľºçīĪä¸ĭè½½
± çľ
Ġé ª
åĽĽ èĤĸéĢīä¸ĢèĤĸ
Ġå¼Ģåħĥæ£ĭçīĮ æ³¨åĨĮéĢģ
Ġäºļæ¸¸åĽ½éĻħ æ¸¸æĪıå®ĺç½ĳ
Ġwww. w66.com
\ "
200 9
ä¸¥ æł¼
s how
Ġw66åĪ©æĿ¥ å¹³åı°
å£ ĵ
æ¶Ī éĻ¤
ĠM an
ĠäºļæĲı çĶµç«ŀ
æĸĩåĮĸ ç½ĳ
Ċå¹¿è¥¿ èĩªæ²»åĮºæĶ¿åºľ
ia o
11éĢī5 èµ°åĬ¿åĽ¾
ç§» æ°ĳ
) -
ĠçĻ¾å®¶ä¹Ĳ ç½ĳåĿĢå¤§åħ¨
4 d
Ġè¾ Ľ
Ċ è§£æĶ¾
Ċ èĴĻåı¤è¯Ń
å®¢ è½¦
éĽ ¢
Ġç¶ ¦
Ċ æ´Ľéĺ³
Ġs uccess
çİĽ ä¸½
ĠA n
Ċçľĭ çĤ¹
1 æĹ¥
ç½ ¢
Ġ Ä
ä» Ĩ
ĠY ou
Ċ çķª
i 5
ĠçĭĹä¸ĩèµ¢éĴ± æıĲçİ°
ç®Ĺ æ³ķ
å¨± å¤´æĿ¡
å¼ķ èµ·
Ġ365bet ä½ĵèĤ²æĬķæ³¨
pt y
éł »
Ġæ¾³éĹ¨ éĵ¶
ãĢģ ï¿½
% çļĦ
åıĤèĢĥ æ¶Īæģ¯
è¡ Ķ
å¡Ķ åĲīåħĭ
ï¼Į åĮħæĭ¬
è¿Ķ çĤ¹
è·¯ åı£
ï¼Į è¯·
î ī
Ġ è½®
Ġåĩ¯åıĳ çĻ»å½ķç½ĳåĿĢ
Ġ ä¿¡æģ¯
ï¿½ ]
t itle
ä¸° å¯Į
çĽ ¾
ĠAGçİ¯äºļ å®ĺç½ĳapp
å» ł
ĊçľĭçĤ¹ å¨±å¤´æĿ¡
Ġ365è¶³çĲĥ å¤ĸåĽ´ç½ĳç«Ļ
Ġå¤§åıĳæŀģéĢŁ pk10
åĲĦ å¤§
Ġh ost
ĠçĥŁ åı°
ĠåĲĮ å¿ĥ
Ġä¹Ŀ å¯¨
åĽŀè¡Ģ _
Ġéĩ Į
Ġæ¾³éĹ¨éĵ¶ éĵ¶æ²³
Ġä¸ľ æĸ¹
å« ģ
åĤ ²
åı° åįĹ
¤ èĤī
Ċä¸ľ åĮĹ
qq ç¾¤
Ċ æ°´
é»Ħ éĩĳ
Ċ æĹ©çĤ¹åĬłçĽŁåºĹ
ä¸ľ åįĹ
ç¡® ä¿Ŀ
äºº ãĢĤ
Âł Âł
æ°Ķ æ¸©
MT +
è²ł åĤµ
Ġ365ä½ĵèĤ²æĬķæ³¨ ä½ĵèĤ²æĬķæ³¨
Ġd88 .com
çŃ Ĩ
Ġ365 åľ¨çº¿ä½ĵèĤ²
Ġä¸Ĭæµ· æĹ©é¤Ĳè½¦åĬłçĽŁ
å» ·
ĠæĹ©çĤ¹å¿«é¤Ĳ åĬłçĽŁ
ĠS D
Ġè²¸ æ¬¾
us er
h ide
H TML
ĠA d
ĠæĹ©çĤ¹åĬłçĽŁ å¤ļå°ĳéĴ±
åįķåıĮï¼ļ æŀģéĢŁ
ĠagæĹĹèĪ°åİħä¸ĭè½½ ç½ĳç«Ļ
Ġ200 7
æĸĩæ±ĩ æĬ¥
éĤ®ç®± æĹłæ³ķéªĮè¯ģ
mg æīĭæľºçīĪ
He iti
Ġå¤§åıĳå¿«ä¸ī æĢİä¹Ī
Ġåı£ åı£é¦ĻæĹ©çĤ¹åĬłçĽŁ
ĠæĹ©çĤ¹ åºĹåĬłçĽŁ
Ġäºļæ¸¸éĽĨåĽ¢ æīĭæľºå®¢æĪ·ç«¯
01 æľĪ
ĠæĹ©çĤ¹åĬłçĽŁ å¥½é¡¹çĽ®
Ġsim sun
Ġæ¸ħ ç¾İæĹ©é¤ĲåĬłçĽŁ
æĺ¯çľŁçļĦåĲĹ _
ĠæĹ©çĤ¹åĬłçĽŁ åĵģçīĮ
ĠæĹ©çĤ¹ å¤ľå®µåĬłçĽŁ
ĠæĹ©é¤Ĳ è±ĨèħĲèĦĳåĬłçĽŁ
Ġsimsun ,
Ġå®ľ æĺĮ|
Ġæ¸ħçľŁ æĹ©çĤ¹åĬłçĽŁ
Ġæĸ° å°ļæĹ©é¤ĲåĬłçĽŁ
ä»· åĢ¼
. äºĶåĪĨå½©
ä»£æĽ¸ åĢŁæ¬¾
ĠæĿ Ĥ
ĠE X
ĠST Heiti
ä»£ è¾¦
Ġ365æ£ĭçīĮ éĵ¶åķĨ
ĠæĹ© é¥ŃåĬłçĽŁ
Ġåħ¨ ç¦ıæĹ©é¤ĲåĬłçĽŁ
Ċè§£æĶ¾ æĹ¥æĬ¥
æĸĹ åħŃ
SC -L
ag æīĭæľºçīĪ
ĠåĮĹäº¬ çī¹èī²æĹ©çĤ¹åĬłçĽŁ
Ċ201 5
æĹ ĭ
æĪ ²
Ġåĵªå®¶ æĹ©çĤ¹åĬłçĽŁå¥½
Ġèİ ²
ĠæĹ©é¤ĲåĬłçĽŁ é¡¹çĽ®
ĠæĹ©çĤ¹å°ıåĲĥ åºĹåĬłçĽŁ
ĠæĹ©çĤ¹åĬłçĽŁ å°ıåĲĥ
åį± éĻ©
äº¿ ç¾İåħĥ
åĢ¼ å¾Ĺ
Ġåįĸ æĹ©çĤ¹åĬłçĽŁ
Ġè¿ŀéĶģ æĹ©é¤ĲåĬłçĽŁ
Ġå¨ĺå®¶ æĹ©é¤ĲåĬłçĽŁ
Ġå¤©æ´¥ æĹ©é¤ĲåĬłçĽŁ
å¼Ģ åħĥ
6 )
Ġå¤§ åįİæĹ©çĤ¹æĢİä¹ĪåĬłçĽŁ
ĠE T
ĠåĵģçīĮ æĹ©é¤ĲåĬłçĽŁ
ĠæĹ©é¤ĲåĬłçĽŁ ç½ĳ
Ġå±±ä¸ľ æĹ©çĤ¹åĬłçĽŁ
SC-L ight,
ĠSTHeiti SC-Light,
Ġä¼Ĺ æľĽæĹ©é¤ĲåĬłçĽŁ
. j
ĠæĹ©é¤Ĳç²¥ åĬłçĽŁ
ĠæĹ©é¤Ĳç²¥ è½¦åĬłçĽŁ
ç´¯ è®¡
Ċ æ³ķåĪ¶
ĠåĮĹäº¬ æĹ©é¤ĲåĬłçĽŁ
ĠæĹ©é¤Ĳ åºĹ
ĠæĹ©é¤Ĳ åħįè´¹åĬłçĽŁ
æĺ¯æŃ£è§Ħ çļĦåĲĹ
Ġçİ¯äºļ å®ĺæĸ¹
ĠæĹ©é¤Ĳ å°ıåĲĥåºĹåĬłçĽŁ
it t
å¥Ĺ åĪ©
ĠåĮħ åŃĲæĹ©é¤ĲåĬłçĽŁ
æĪĺ æĸĹ
ĠæĹ©çĤ¹å°ıåĲĥåĬłçĽŁ è¿ŀéĶģ
Ġæ±Łèĭı æĹ©çĤ¹åĬłçĽŁ
Ġå°ıåĲĥ æĹ©çĤ¹åĬłçĽŁ
Ġçī¹èī² æĹ©çĤ¹å°ıåĲĥåĬłçĽŁåºĹ
ĠæĹ©çĤ¹ è±ĨæµĨåĬłçĽŁ
Ġç¾İåĳ³ æĹ©é¤ĲåĬłçĽŁ
Ġçķ Į
ĠæĹ©é¤ĲåĬłçĽŁ åĵģçīĮ
Ġçī¹èī²æĹ©çĤ¹åĬłçĽŁåºĹ æİĴè¡Įæ¦ľ
å·Ŀ éº»
Ġå¹¿ å¼ıæĹ©çĤ¹åĬłçĽŁ
çľŁäºº æīĭæľºapp
ĠæĹ©é¤ĲåĬłçĽŁ ä»Ģä¹Īå¥½
çļĦ æĸ°
Ġå¨ĺå®¶ æĹ©çĤ¹è½¦æĢİä¹ĪåĬłçĽŁ
Ġæ²³åįĹ æĹ©çĤ¹åĬłçĽŁ
ĠåĵģçīĮ æĹ©çĤ¹åĬłçĽŁ
ĠæĹ©é¤Ĳç²¥ åºĹåĬłçĽŁ
Ġç§»åĬ¨ æĹ©é¤ĲåĬłçĽŁ
Ġç² Ĺç²®æĹ©é¤ĲåĬłçĽŁ
Ġæ±Łè¥¿ æĹ©çĤ¹åĬłçĽŁ
ĠæĹ©é¤Ĳ èĤłç²īåĬłçĽŁ
Ġä¸Ĭæµ· æĹ©çĤ¹åĬłçĽŁåºĹ
ĠæĹ©é¤Ĳ è±ĨæµĨåĬłçĽŁ
ĠåĮĹäº¬ æĹ©çĤ¹å°ıåĲĥåĬłçĽŁåºĹ
ĠåĬłçĽŁæĹ©çĤ¹ åºĹ
ĠåĪ©æĿ¥ mgæīĭæľºçīĪ
Ġçī¹ è®¸åĬłçĽŁ
æ® ĭ
ĠæŃ£è§Ħ çľŁäºº
Ġæĺ¥åħī æĹ©çĤ¹åĬłçĽŁ
ĠäºĶèĬ³æĸĭ æĹ©é¤ĲåĬłçĽŁ
ĠæĹ©çĤ¹ è¿ŀéĶģåĬłçĽŁåºĹ
Ġåħ¬ ä¸»
ĠåĮĹäº¬æĹ©çĤ¹ æĳĬåĬłçĽŁ
å¯¹ è¯Ŀ
ĠèĮĥ å¾ģæĹ©é¤ĲåĬłçĽŁ
ĠåĪ©æĿ¥w66 æĹĹèĪ°åİħ
Ġè£ ķ
å¸ĸ åŃĲ
äºī 8
ĠæĹ©çĤ¹æĿ¥ åĬłçĽŁåºĹ
ĠåĽĽå·Ŀ çī¹èī²æĹ©çĤ¹åĬłçĽŁ
Ġæĺ¥åħī æĹ©çĤ¹å·¥ç¨ĭåĬłçĽŁ
ĠèĪĴ å¿ĥæĹ©é¤ĲåĬłçĽŁ
Ġ365 çļĦ
åĬŀåħ¬ å®¤
Ġæ¸¯ å¼ıæĹ©é¤ĲåĬłçĽŁ
Ġ356bet å®ĺæĸ¹
ĠåĮĹäº¬ æĹ©çĤ¹å°ıåĲĥåŁ¹è®ŃåĬłçĽŁ
ĠæĹ©é¤Ĳ äºŃåĬłçĽŁ
çķ ª|
çŃĸ åĪĴ
ĠæĹ©çĤ¹åĬłçĽŁ æİĴè¡Įæ¦ľ
Ġç¾İ å¼ıæĹ©é¤ĲåĬłçĽŁ
Ġæĺ¥åħī æĹ©é¤Ĳå·¥ç¨ĭåĬłçĽŁ
ĠæĹ©é¤Ĳ çļĦåĬłçĽŁ
Ċåħ³éĶ®è¯į ï¼ļ
åĴĮåĲĪ å½©
ĠS erv
ĠåĽĽå·Ŀ æĹ©çĤ¹åĬłçĽŁ
åŁİ åĮº
Ġ ä¾¿æ°ĳæĹ©çĤ¹åĬłçĽŁ
ĠåĲĲé²ģ çķª|
è´¡ çĮ®
ĠåĦ ĭ
Ġç§»åĬ¨ æĹ©çĤ¹åĬłçĽŁ
ĠæĹ©çĤ¹åĬłçĽŁ åŁ¹è®Ń
å¹ «
æĢİä¹Ī æıĲçİ°
ĠæĹ©çĤ¹ éĵºåĬłçĽŁ
ĠæĹ©é¤Ĳ åĮħåŃĲåºĹåĬłçĽŁ
ĠæĹ©é¤Ĳ è¡Įä¸ļåĬłçĽŁ
ĠæĹ©é¤ĲåĬłçĽŁ æİĴè¡Įæ¦ľ
å¥³ åŃ©
Ġå¿«é¤Ĳ æĹ©çĤ¹åĬłçĽŁ
ĠæĹ©çĤ¹å¿«é¤Ĳ åºĹåĬłçĽŁ
Ġæ²³åįĹ æĹ©é¤ĲåĬłçĽŁ
ĠæŁ ¯
± à¸
åĲ Ĭ
ĠåıĮ åĲĪæĪĲæĹ©é¤ĲåĬłçĽŁ
å° ĭ
ĠæĹ©çĤ¹å¿«é¤Ĳ åĬłçĽŁåºĹ
ĠæĹ©é¤ĲåĬłçĽŁ å¼ĢåºĹ
ĠæĹ©é¤ĲåĬłçĽŁ è´¹çĶ¨
ĠåĵªéĩĮ æľīæĹ©çĤ¹åĬłçĽŁ
ĠåĮĹäº¬æĹ©çĤ¹ è½¦åĬłçĽŁ
ĠæĹ©é¤Ĳè¿ŀéĶģ åºĹåĬłçĽŁ
èŃ °
Ġæ¹ĸåĮĹ æĹ©çĤ¹åĬłçĽŁ
Ġæ¸ħçľŁ æĹ©é¤ĲåĬłçĽŁ
ĠåĬłçĽŁæĹ©çĤ¹ è½¦
åĿĳ äºº
Ġç¾İåĳ³ æĹ©çĤ¹åĬłçĽŁ
Ġé¦ĸ éĴ¢æĹ©é¤ĲåĬłçĽŁ
Ġé»ĳé¾Ļæ±Ł æĹ©é¤ĲåĬłçĽŁ
ĠA T
Ġä¸Ĭæµ· æĹ©çĤ¹
- èĩºåįĹå¸Ĥ
Ġä¸Ĭæµ· æĹ©é¤ĲåĬłçĽŁ
Ġä¸Ńå¼ı æĹ©é¤ĲåºĹåĬłçĽŁ
å½©ç¥¨ _
X HJ
ĠæĹ©çĤ¹æĿ¥ æĹ©é¤ĲåĬłçĽŁ
èŀį è³ĩ
éĢ ±
æľī åĩłä¸ª
XHJ c
Ġì ŀ
ĠäºĶ æĮĩ
ĠæĹ©çĤ¹ é¡¹çĽ®åĬłçĽŁ
Ġéĺ¿æĭī å°Ķ|
Ġb ut
- 2019
ĠåĵģçīĮ æĹ©é¤ĲåºĹåĬłçĽŁ
ĠåĿ ª
ç¹§ï½¯ ç¹Ŀï½¬
Ġç»¿èī² æĹ©é¤ĲåĬłçĽŁ
ZH M
Ġå ĥ
Ġ$(this ).
ĠæĹ©çĤ¹ åĮħåŃĲåĬłçĽŁ
çĪ¶ äº²
åĩº è¡Į
Ġé¦ Ĩ
æŀĹ éĥŃ
Ġçľ īå±±|
ĠæĹ©çĤ¹å°ıåĲĥ åĬłçĽŁåºĹ
ĠæĹ©çĤ¹åĬłçĽŁè¿ŀéĶģ åºĹ
Ġä¸ĩåįļ APP
d od
Ġæ¾³éĹ¨çĻ¾å®¶ä¹Ĳ å®ĺç½ĳ
Ġbet365 ä½ĵèĤ²åľ¨çº¿æĬķæ³¨
éĩįåºĨ æĹ¶æĹ¶å½©
Ċä¸ŃåĽ½è¥¿èĹı æŀĹèĬĿ
Ġ ï¼ī
æıĲçİ° æ£ĭçīĮæ¸¸æĪı
ĠæĹ©çĤ¹ å·¥ç¨ĭåĬłçĽŁ
ãĢĤè¿Ļ æĺ¯
Ġ0 .0
è½¬ æį¢
éĻ ª
åķĨ å®¶
æīĭ æ©Ł
è§Ĩé¢ĳ æ£ĭçīĮæ¸¸æĪı
çļĦ æĹ¶åĢĻ
éĭ ª
æīĳåħĭ å®ĺç½ĳ
åĨ¬ å¥¥
Ġè¥Ħ æ¨
ï¼Į ç§°
Ġw66åĪ©æĿ¥ æľĢ
Ċæµ· å³¡
Ġåĩ¯åıĳçĶµæ¸¸ äºļæ´²
am F
åŃ Ł
å°ıé¡į è²¸æ¬¾
S S
Ġåĩ¯åıĳ k8
Ġå· §
APPï¼ļ å¤§åıĳå½©ç¥ŀ
Ġå¤§åıĳå¿«ä¸ī æľī
çĻ»å½ķ å®īåįĵçīĪä¸ĭè½½
åħ¬å®ī æľºåħ³
Ġåıĸæ¶Ī åĽŀè¦Ĩ
¢ç¹Ŀï½³ ç¹§ï½¯ç¹Ŀï½¬
ï¼Į å¤§
æ¡ Ĩ
Ġç¨ »
Ġ365ä½ĵèĤ²æĬķæ³¨ å¼ĢæĪ·
Ġé©¬éŀį å±±|
Ġç»¥ åĮĸ|
ĠéĻ Ĳ
å® ĭ
Ġæ¾³éĹ¨ éĩĳæ²Ļ
Ġ365betå®ĺç½ĳ äºļæ´²
¢ç¹Ŀï½³ç¹§ï½¯ç¹Ŀï½¬ ç¹Ŀï½¼ç¹Ŀï½«
Ċ2019-12 -07
/ æŀģéĢŁ
æ¯Ķ ä¾ĭ
Ġåł Ĩ
Ġæ¬¢ è¿İ
çĬ¯ æ³ķ
Ġç½ĳ èµĮ
eX Bl
ä¸ ¨
à¸ ¡
Ġå½©ç¥ŀ v
Ġçģ «
Ċ åĬłçĽŁ
Ġéĺħè¯» ï¼ļ
Ġagçİ¯äºļ çĻ»å½ķ
c 6
æ¼ıæ´ŀ _
ĠéħĴ æ³ī|
ï¼Į å®ĥ
Ġ365ä½ĵèĤ²æĬķæ³¨ æ»ļçĲĥ
åŃ Ķ
ĠUn iversity
Ġåı° å·ŀ|
ç»ı åİĨ
ĠåĴĮ æŀĹ
aW dod
Ġå¼łå®¶çķĮ |
Ġå°Ĭé¾ĻäººçĶŁå°±æĺ¯æĲı æĹ§çīĪ
Ġéľį æŀĹéĥŃ
Ġåº ľ
ot al
ĠéĢŁ åº¦
2 ç«Ļ
Ġäºļç¾İ åľ¨çº¿
d n
éĢļ è®¯
æľĹ çİĽ
å®ŀ ä½ĵ
ä¸į åģĩ
Ġé»Ħ çŁ³|
ä¸¤ å²¸
Ġ365 ç¯®çĲĥæ»ļçĲĥ
Ġæ¾³éĹ¨ èµĮåľº
Ġ1.6 L
éĢ Ĩ
Ġç§ĳ æĬĢ
Ġvi ews
Ġå·´ éĩĮ
ĠæŃ¦å¤· å±±|
é»ĳ ç½ĳ
è¿Ķ è¿ĺ
P HN
om o
Ċè¥¿èĹı èĩªæ²»åĮºæĶ¿åºľ
CB 0
Ċåįİ åķĨæĬ¥
Ġ365ä½ĵèĤ²æĬķæ³¨ äºļæ´²
Ġå¤§åıĳæŀģéĢŁ æĹ¶æĹ¶å½©
Î »
Ġéĺ¿åħĭ èĭı|
Ġì Ŀ
Fwv amF
Ċå¤© æ¶¯
Ġæĸ°å·´å°ĶèĻİ åı³æĹĹ|
Ġå·´ ä¸Ń|
ĠåĮĹ æµ·|
æĤī ï¼Į
Ġä¸ľ ä¹Įçıłç©Ĩæ²ģæĹĹ|
Ġåĩ¯åıĳæľĢæĸ° å®ĺæĸ¹appä¸ĭè½½
Ġå¸¸ å·ŀ|
j ing
Ġå¼łå®¶ åı£|
ar se
Ċ å¨±
Ġéľ ŀ
Ġè¥¿ ä¹Įçıłç©Ĩæ²ģæĹĹ|
ãĢĤ ä»Ĭå¹´
åĨł äºļ
ç¬¬ åĽĽ
é¾Ļ æĹ©é¤ĲåĬłçĽŁ
Ċ å¼Ģåħĥæ£ĭçīĮ
ä¹Į |
é¸ ¿
Ġå¯¿ åħī|
ĠåĵĪ å¯Ĩ|
ĠèģĬ åŁİ|
l ick
Ġå»¶ å®ī|
Ġ our
Ġä¹Ĳ æ¸ħ|
PHN jcmlwd
CB0 eXBl
jcmlwd Fwi
GV 4d
FwvamF 2YX
PHNjcmlwd CB0eXBl
N jcmlwdFwi
wid GV4d
PHNjcmlwdCB0eXBl PV
FwvamF2YX NjcmlwdFwi
PHNjcmlwdCB0eXBlPV widGV4d
PHNjcmlwdCB0eXBlPVwidGV4d FwvamF2YXNjcmlwdFwi
Ġåĺī åĸĦ|
ĠåĪ©æĿ¥w66 ç½ĳåĿĢ
Ġè¾½ æºĲ|
å¿ĺ äºĨ
ĊåĮĹäº¬ çĶµè§Ĩåı°
ãĢĳãĢĲ ä¸ŃãĢĳãĢĲ
æ¯ı å¤©
X 01
éľį æ´Ľ
dH B
æ± ¾
Ġä¸Ĭ ä¸Ģç¯ĩæĸĩç«łï¼ļ
Ġåĩ¯åıĳç²¾èĭ± ä½ĵèĤ²
åħħ åĪĨ
ä¸ĵ çº¿
åĩº æĿ¥
éķ ¶
åıĳçĶŁ éĶĻè¯¯
ĠåįĹ å®ī|
iOi J
Q iOiJ
X01 f
Ġæķ¦ çħ
é¾Ļ å¾·
ä¸ľ æĸ°
Ġæ½® å·ŀ|
Ġäºļæ¸¸éĽĨåĽ¢ ä¸ĭè½½
Ġä¸ī æĺİ|
ĠäºļæĲıçĽ´æĴŃ å¹³åı°app
ĠL a
è¨Ń è¨Ī
ĠåºĦ æ²³|
ĠæĹ¥åľŁ |
Ċé»ĳé¾Ļæ±Ł ä¸ľåĮĹ
èĦ±è´« æĶ»åĿļ
æĶ¶ åĪ°
(R )
Ġéĺľ éĺ³|
ĠèļĮåŁ ł|
Ġå¤© éķ¿|
ĠP ark
éĩĳ éľįæ´Ľ
çł´è§£ _
ç½ĳ appæīĭæľºçīĪ
è¥¿ åĵ¥
ĠäºļæĲı ç½ĳappæīĭæľºçīĪ
éĢģ åĪĨ
Ġç» ĩ
H E
åĪĨéĴŁ å½©
Ġå¥ Ī
1 20
éĶ Ī
Ġåĳ¼ä¼¦è´Ŀ å°Ķ|
ĊéĿĴæµ· çľģæĶ¿åºľ
Ġå¢¨ ç«¹
ĠäºļæĲıå¨±ä¹Ĳ appä¸ĭè½½å®ĺç½ĳ
çĳ Ļ
Ġè¾¾ å°Ķ
Ġå°ıé±¼åĦ¿ çİĦæľº
ĠBe t365
Ċä¸ŃåĽ½ æĸ°éĹ»ç½ĳ
Ġsecond(s ),
Ġéĺ¿ åĿĿ|
ĠåłĨ é¾Ļå¾·
Ġæ³Ĺ æ´ª|
è¿Ľä¸įåİ» äºĨ
å¹´ è½»
Ġä¼Ĭ éĩĳéľįæ´Ľ
ĠèĢģ èĻİ
Ġå¤ª åİŁ
æĮ£ éĴ±
ç¨ ®
âĢĺ ,
æ¶ Ķ
ãĢĤ ãĢĤ
åĩł åįģ
ZnJhb WU
å·¥ åį¡
Ii wid
Ġè® ¾
>> âĢĺ,
æľī ãĢĳãĢĲ
ĠäºļæĲı å¹³åı°
gYWR f
Ġé¼ İ
åºĨ åİ¿|
æ·»åĬł çĶľèľľç´ł
âĢ¦ Ã©
åĽ½åĬ¡ éĻ¢
oZWlnaHQ 9
ĠäºĶ å¤§è¿ŀ
âĢ¦Ã© >>âĢĺ,
çĴ °
éĵ¶ å·Ŀ
Ġå¯ ¹
Ġè¾ ¹
å®¢ æľº
çĻ»å½ķ ä¸įäºĨ
ä»Ģ åħĭ
èĪ ĸ
H t
oc k
Ġçı Ĭçĳļ
Ġæµ· æ·
èĤĩ äºĭ
éĿ¢ å¯¹
ĠèĶ ¡
Ġä»Ĭ æľŁ
Ġ? (R)
ĠåĨ Ģ
æıĲä¸įäºĨ çİ°
Ġå¢¨ç«¹ å·¥åį¡
ä»Ģåħĭ èħ¾
Ġäºļç¾İå¤ļä¸ĢçĤ¹ æīĭæľºçīĪ
æĪ¿ å¹¿åĳĬ
Nz I
Ġçİ¯äºļ å®¢æĪ·ç«¯
4e D
X01f NzI
4eD kw
X01fNzI 4eDkw
Ġåħĭ ä»Ģåħĭèħ¾
çĹ ĩ
ĠéĶ Ļ
"). html
æ±½è»Ĭ åĢŁæ¬¾
Ġç§ĴéĢŁ é£ŀèīĩ
w66 åĪ©æĿ¥
èµļéĴ± åĲĹ
Ġä¸ĩ çĽĽ
èĬ± åĽŃ
åĳ¨ æľŁ
ãĢĭ ï¼Į
Ċ2017 -10
Ġä¸ĭ ä¸Ģç¯ĩæĸĩç«łï¼ļ
å°İ è¦½
éĩĳ é¢Ŀ
Ċ éĶ
Ċä¸ŃåĽ½è¥¿èĹıæŀĹèĬĿ ç½ĳ
çļĦ è¯Ŀ
éĻ ĩ
ãĢĭ ï¼Ī
Ġå° ĸ
Ġbet356 å¨±ä¹Ĳåľº
Ġå© º
h Z
d pZHRo
i ew
ĠéĻĪ å·´å°ĶèĻİ
Ġç¼ĸè¾ĳ ï¼ļ
éĽª çĲĥ
èµĦæĸĻ åħįè´¹
ç° ¡
ĠçľŁéĴ± çīĪ
Ċ æĳĦ
Ġå´ Ĥ
çİĦæľº åĽ¾
èĭ± çĥĪ
ĠçľŁéĴ±çīĪ æ£ĭçīĮappä¸ĭè½½
ï¼ī çļĦ
u al
åĳ Ĩ
Ġå¡ ĺ
èĥľ è´Ł
Ċ åħīæĺİç½ĳ
è¾ ĸ
å¼Ģ é©¬
åĪĳ äºĭ
2 æľĪ
èµĮåľº ç½ĳæĬķ
è¦ ª
éĩį æĸ°
8 00
éĺ ľ
Ġå¾·éĴ ¦|
è¥¿ éĥ½å¸ĤæĬ¥
Ġå½©ç¥ŀ å¤§åıĳå¿«ä¸ī
ĉ çĻ¼è¡¨
ãĢĳãĢĲ ä¼ļãĢĳãĢĲ
æĭī éĿ¢
åķ ¦
Ċ äºĶ
çİĭ æĢĿèģª
æµ ¼
Ċ éĽĦ
ħ é±¼
Ġç¶ ĵ
ç«ŀ äºī
Ġæ¢ħ éĩĮ
8 åħĥ
ç¬¦ åĲĪ
app end
éĽ ¾
ä¹°å½©ç¥¨ å®īåħ¨
èµ ī
è¾£ æ¤Ĵ
çĶ º
Ġåı¯ä»¥ çİ©
æĺİ å®ī
æĪ· åı£
å¯¹ åŃĲ
èª Į
Ġä¹Ŀ é¾Ļ|
æĹ¶ å°ļ
å®Į åĸĦ
ç½ĳç«Ļåľ°åĽ¾ |
èµļéĴ± çļĦ
ĠåĪ Ŀ
Ġæ¾³éĹ¨çľŁéĴ± èµĮåľºç½ĳæĬķ
åī ĳ
ĠçĭĹä¸ĩä½ĵèĤ² -
æŃ ¡
Ġéĺ¿åħĭ éĻ¶|
ãĢĳãĢĲ æĺ¯
çģ ı
ĠåĲī é¦ĸ|
ĠçĭĹä¸ĩ åŃĺæ¬¾
ĊCopyrightÂ© 2020
Ġæīĺ éĩĮ|
éĽ» åŃĲéĥµä»¶
Ġæĸ° éĥ½|
åħ¬åĬ¡ çĶ¨è½¦
Ġå¤§ çĶ°|
ĠagåĽ½éĻħåİħ è¯ķçİ©
ä¼ł æĴŃ
æ² ģ|
Ġå¤§åıĳ åĪĨåĪĨæĹ¶æĹ¶å½©
Ġå»º æĺĮ|
Ġéľ ¸
ĠReserved ç½ĳç«Ļåľ°åĽ¾|
ĠReservedç½ĳç«Ļåľ°åĽ¾| çĻ¾åº¦åľ°åĽ¾
çļĦæīĭæľº æ£ĭçīĮ
èĮĤ æĺİå®ī
ç½ķ èĮĤæĺİå®ī
é«ĺ çº§
é¢Ĩ åıĸ
ĠçŁ³å®¶åºĦ |
ĠèĬĴ åº·|
å¹² åĺĽ
Ġä¹¡ å®ģ|
1 d
åħ« çłģ
Ġå·´éĩĮ åĿ
éªĹäºº çļĦåĲĹ
Ġä¸ĩ å®ī|
Ġéĥİ æºª|
ĠèĢĴ éĺ³|
ĠæĪĲ éĥ½|
03 æľĪ
ĠçİĽ æ²ģ|
Ġå·´ ä¸ľ|
æĭ ĸ|
é¢ Ĺ
å¯¼èĪª ç½ĳ
Ċ3 .
ç½ķèĮĤæĺİå®ī èģĶåĲĪ
ĠæĻ® å®ģ|
Ġå®ī è¾¾|
Ġä¸ Ķ
Ġæ²Ĥ æ°´|
ĠçıŃæĪ Ī|
ĠåĲį ç¨±
ĠæŃ£ å®ģ|
çķĻ åŃ¦
Ġéĺ³æľ Ķ|
Ġéĺ¿åĽ¾ ä»Ģ|
ĠæŃ¦ éļĨ|
ĉçĻ¼è¡¨ è¿´éŁ¿
Ġæĸĩ å®ī|
åħįè´¹ çīĪ
ĠåĲīæľ¨èĲ¨ å°Ķ|
ĠæŃ¦é¸ £|
Ġé¢Ŀæķ ı|
Ġå¸ĥ æĭĸ|
Ġè¾¾å°Ķ ç½ķèĮĤæĺİå®īèģĶåĲĪ
Ċé»ĳé¾Ļæ±Łä¸ľåĮĹ ç½ĳ
Ġå¤§åıĳä¸Ģ åĪĨéĴŁpk10
Ġåĺīèį «|
Ġç© Ĩ
Ġå¼łå®¶ æ¸¯|
æł¹ æľ¬
Ġå¤ª è°·|
Ġé«ĺ éĺ³|
ĠåĵĪå°Ķ æ»¨|
Ċ èĭı
ĠéĿĴ åİ¿|
çİ°éĩĳ çīĪ
ĠåįĹ åĴĮ|
ĠæĪ ·åİ¿|
çıł æµ·
Ġéĩĳ æ¹ĸ|
ĠçĭĹä¸ĩ æĦıçĶ²
Ġæ³° å®ģ|
Ġåı¯ä»¥çİ© éĴ±
Ġé©¬ åħ³|
Ġéĥ½åĮ Ģ|
ĠéĽ» åŃĲéĥµä»¶
Ġæľ¨ åħ°|
Ġåı¯ä»¥çİ©éĴ± çļĦæīĭæľºæ£ĭçīĮ
Ġåĩ¯æĹ¶ å®ĺç½ĳ
è²· ?
Ġå·¦ è´¡|
Ġé»ĳ å±±|
ĠäºĮè¿ŀ æµ©çī¹|
ĠåĽ¾ä»¬ |
Ġå§ ĭ
Ġ365æ»ļçĲĥ ç½ĳç«Ļ
éĢ Ĭ|
Ġ ä½ķ
ĠèģĤæĭī æľ¨|
Ġå¸¸ å±±|
Ġéĥ½ åħ°|
ä¼ į
Ġä¸´ åİ¿|
Ġé¸¡ ä¸ľ|
èµ¢ äºĨ
ĠåįĹ å®ģ|
Ġå¤§ åŁĶ|
Ġå½° æŃ¦|
Ġéĺ¿çĵ¦ æıĲ|
ç´ °
Ġéķ¿ æĺ¥|
Ġæłĸéľ ŀ|
ĠæŃ¦ èĥľ|
Ġä¹ħæ²» |
Ġé©¬ é¾Ļ|
ĠåĵĪ å·´
Ġæ²Ļ æ²³|
Ġæ²ģ æ°´|
åħ ¹
Ġs o
ĠåįĹ åŁİ|
çľ Į
ĠéĢļ æ±Ł|
Ã ¼
ĠæĹłæ£ £|
Ġä¸Ĭ é«ĺ|
Ġç§¦ å®ī|
æĬĺ æī£
Ġå¥ĩ åı°|
éĹ ¯
ĠéĦ¯ åĸĦ|
é ĬĢ
Ġæ¼³ å¹³|
Ġæ²Ļ åĿª
åŀ Ĥ
Ġçº¢ å®ī|
ĠæĹł ä¸º|
Ġæ¹ĺ ä¹¡|
ĠäºķçłĶ |
åŁİ åİ¿
Ġè¿ŀ å·ŀ|
Ġèħ¾åĨ² |
ĠèĢ ¿
Ċä¸ľ æ¥ļç½ĳ
Ġä¸¹ æ£±|
Ġå¼Ģ åĮĸ|
p v
éĹ®é¢ĺ ãĢĤ
æ¬Ħ ä½į
Ġåĩ¯åıĳä½ĵèĤ² å®ĺç½ĳ
è¾ĵ åħ¥
Ġ365bet æ»ļçĲĥ
Ġæĸ° å®ī|
ĠèįĶ æ³¢|
Ġè¾¾å°Ķç½ķèĮĤæĺİå®īèģĶåĲĪ æĹĹ|
Ġå®£ å¨ģ|
ĠäºĶ èĲ¥|
ĠçĽĪ æ±Ł|
Ġå·´éĩĮåĿ ¤|
Ġæµı éĺ³|
Ġå¿ħ è¦ģ
ĠåĽº å®ī|
ĠåĶĲ åİ¿|
ãĢĤ ä¸ŃåĽ½
ĠäºĶ åįİ|
ä½į åĿĢ
Ġå³¡ æ±Ł|
Ġå¤§æ´ ¼|
çĶµèĦĳ å®¢æĪ·ç«¯
Ġäºķ åĨĪ
Ġå¤ª ä»ĵ|
Ġè¿Ń éĥ¨|
Ġé² ħé±¼
Ġæ»¡ æ´²
Ġå£¤ å¡ĺ|
ĠåķĨ æ°´|
ĠéĿĴ çĶ°|
æ¨Ļ è¨ĺ
Ġæ¸ħ æ¶§|
Ġåħ´ å®ī|
ĠåıĮ éĺ³|
ç§ ¯|
Ġä¸ĭ ä¸Ģé¡µ
éŃ Ĥ
Ġåĩ¤ åĨĪ|
Ġæ½¼ åįĹ|
ipad _
Ġèĭ¥ç¾ Į|
è² ¡
Ġæ²Ļ æ¹¾|
Ġåĩ¯åıĳçĶµçİ© å¨±ä¹Ĳå®ĺç½ĳ
ä¿Ŀ å®ī
Ġäºļæ¸¸éĽĨåĽ¢ åľ¨çº¿
ä¸įåĪ° è´¦
ĠåĲ´ æ±Ł|
åĳ¨ è¾¹
ĠW e
Ċæĸ°æµª åı°æ¹¾
Ġäºļæ¸¸ æ¸¸æĪıå¹³åı°
ĠçıĬçĳļ å²Ľ|
æīĵ æ³ķ
Ġäºļæ¸¸éĽĨåĽ¢ appä¸ĭè½½
Ġæīĺåħĭ éĢĬ|
Ġéº¦ ç§¯|
é¸ Ł
ĠG D
ï¿½ ï¼ļ
åħ Ĵ
r \n
Ġå´Ĥ å±±|
.c reate
ĠèĹģ åŁİ|
ĠE D
Ġå¹¿è¥¿ å¿«3
+ 365
Ġè°¢éĢļ éĹ¨|
èµĽäºĭ çĽ´æĴŃ
ĠåĢĭäºº ç¶²ç«Ļ
ĠæĪ¿ å±±|
å®Į ç¾İ
Ġé»Ħ å¤§ä»Ļ
Ġå°Ħ æ´ª|
Ġä¸´ çĮ
ĠåĲĮ å®ī|
Ġçİ¯äºļ æ³¨åĨĮ
Ġé¾Ļ å±±|
ĠåĪ©æĿ¥åĽ½æłĩ å¨±ä¹Ĳ
Ġéĩĳ éĹ¨|
Ġå°¼ çİĽ|
in ess
ä¸įæľĥ è¢«
Ġçıł ç©Ĩ
re vi
Ġæ³ķå¾ĭ å£°æĺİ
ĠæŀĹ åĳ¨|
Ġä¸ľ å±±|
è½¬ è½½
ĠéĿĴ å·Ŀ|
Ġä¸ ¾
ĠçŁ³æĻ¯ å±±|
Ġçıłç©Ĩ æľĹçİĽ
ï¼ī æŃ£æĸĩå·²ç»ĵæĿŁï¼ĮæĤ¨åı¯ä»¥æĮīalt+4è¿Ľè¡Įè¯Ħè®º
Ġæĸĩç«ł å°İè¦½
åħ¬éĸĭ ãĢĤ
åľ Ī|
çī¹åĪ« è¡ĮæĶ¿
ĠéĿ© åĲī|
è® Ĭ
ç· ¨
ĠçĴ §
ĠæĻ® éĻ
æ¨Ļè¨ĺ çĤº
Ġäºĳ æŀĹ|
è¸ ı
Ġå¿ħè¦ģ æ¬Ħä½į
Ġå¿ħè¦ģæ¬Ħä½į æ¨Ļè¨ĺçĤº
ĉ ä½łçļĦ
éĽ»åŃĲéĥµä»¶ ä½įåĿĢ
Ġè¡Į åĶĲ|
ä¸¦ ä¸įæľĥè¢«
éĽ»åŃĲéĥµä»¶ä½įåĿĢ ä¸¦ä¸įæľĥè¢«
éĽ»åŃĲéĥµä»¶ä½įåĿĢä¸¦ä¸įæľĥè¢« åħ¬éĸĭãĢĤ
ĉä½łçļĦ éĽ»åŃĲéĥµä»¶ä½įåĿĢä¸¦ä¸įæľĥè¢«åħ¬éĸĭãĢĤ
Ġ* è¿´éŁ¿
ĊåķĨ éĥ½ç½ĳ
ĠèģĤ èį£|
æ¬¡æķ° :
R C
ĠåµĬ æ³
éĶĢ åķĨ
Ċ2019-11 -12
å¹¶ ä¸į
ĊçĽ¸åħ³ æĸĩç«ł
Ġåģ ĥ
Ġé«ĺ ç¢ĳ
æľĢ éķ¿
MT+ 8,
ess age
ĠåĨħ ä¸ĺ|
Ġæ¢ ¨
Ġéĺ¿åħĭ å¡ŀ|
æĻļ ä¸Ĭ
Ġæ´¥ å¸Ĥ|
Ċ2018 -12
å¥ĭ æĸĹ
ĠæĺĤ ä»ģ|
Ġåĵª ä¸ª
Ġæ¾³éĹ¨æ¸¸æĪıå¹³åı° å¨±ä¹ĲçĻ»å½ķ
s b
æŃ ī
Ġè¾¾ æĭīçī¹
Ġè¥¿ å±±|
ä¼ĺ åĬ¿
ä½ £
ãĢĳãĢĲãĢĤãĢĳãĢĲ<ãĢĳãĢĲ/ ãĢĳãĢĲpãĢĳãĢĲ>ãĢĳ
å¸Ĥ éķ¿
ĠåĲ´ ä¸Ń|
ĠæĬļ æĿ¾|
Ġæ¢ħéĩĮ æĸ¯|
ä»¤ åĵĪ
Ġèİ İ
ï¼Ĭï¼Ĭ ï¼Ĭï¼Ĭ
Ċåįİ è¥¿éĥ½å¸ĤæĬ¥
Ġçıłç©ĨæľĹçİĽ å³°|
Ġæ³ Ĭ
Ġé²ħé±¼ åľĪ|
ĠåįĹ å±±|
æµİ åįĹ
Ġäºĳ å®ī|
Ġéĵľ éĻµåİ¿|
æĢİä¹Ī åħħåĢ¼
ĠçĻ½æľĹ |
æĺ¯ åľ¨
Ġå¸ĥ å°Ķ
t on
æķĳ æĬ¤
Ġå±ı ä¸ľ|
Ġéĺ²åŁİ åĮº|
åı£è¯Ģ _
ĠæĽ² æ°´|
è¿ «
è§ Ģ
Ġæ¾³éĹ¨ åħ¨éĥ¨
ri ct
æĭī å°Ķ
Ġéĸĭ ç®±
Ġä¹Įæĭīçī¹ åĲİæĹĹ|
åĨħ åľ°
Ġs l
èĥĮ æĻ¯
Ġç»¥ èĬ¬
åĪĹ è½¦
ãĢĳãĢĲtãĢĳãĢĲ y
æ·± åº¦
ĠæŀĹèĬĿ éķĩ|
ĠéĦ ¢
å¾· å·ŀ
ĠagæĹĹèĪ°åİħ å®ĺæĸ¹ç½ĳç«Ļ
åĴĮ å¹³
ç¾ ħ
Ġå®Ŀ åºĶ
Ġ356bet çľŁäºº
0 aW
Ġéķ¿ èĳ
ĠéĿĴ éĵľ
å·¥ä½ľ ç»ıéªĮ
Ġèµ£ åİ¿|
Ġæ¯Ķ å¦Ĥ
Ġäºļç¾İ å¹³åı°
å¸Į å°Ķ
Ġå¾· ä»¤åĵĪ
ä¼ģ æ¥Ń
æĢ ¨
åŃĺ åħ¥
c ial
äºº æŃ»äº¡
A ll
Ġåħĭä»Ģåħĭèħ¾ æĹĹ|
IN G
Ġéĵģ å±±|
åĽŀ äºĭ
Ġè¨İè«ĸ ,
å¨ģ èĥģ
è¼ ķ
Ġè¿ŀäºĳ åĮº|
çľŁäºº çīĪ
ĠéĹ »
.00 åħĥ
ĠçĤ ī
æŃ» äºº
Ġä¼Ĭéĩĳéľįæ´Ľ æĹĹ|
åľ° éľĩ
Ġ365æ£ĭçīĮæ¸¸æĪı ä¸Ńå¿ĥ
² ï¿½
æ¯Ķ å¦Ĥ
5 )
æĺİ æĺ¾
ĠéĴĵé±¼ å²Ľ|
Ġèĭıå°¼ çī¹åı³æĹĹ|
Ġåĩ¯åıĳçĶµæ¸¸ å¼ĢæĪ·
Ġé£ ¯åºĹ
åĴĮ ãĢĳãĢĲ
ĠéĻĪå·´å°ĶèĻİ æĹĹ|
ä¸ī åĪĨå½©
ĠåľŁé»ĺ çī¹åı³æĹĹ|
æĭĽ çĶŁ
ä½ĵèĤ² çĽ´æĴŃ
åı¯ åĶ®
æ· ¡
Ġå°¼ åĭĴ
1 10
ï¼Į åĲĳ
ĠåĨ Į
Ġæľī ä¿¡èªīçļĦ
g h
ĠæĺŁ æľŁ
Ġåı Ļ
æŀª åĩ»
çŁ³ å®¶åºĦ
Ġéĺ¿ åĲĪ
ĠäºļæĲıå¨±ä¹Ĳ ç½ĳé¡µçīĪçĻ»å½ķ
Ġåĩ¯åıĳç½ĳåĿĢ æĺ¯å¤ļå°ĳ
ĠåĽĽ åŃĲçİĭ
æ¹ĸ åİ¿|
Ġéº¦ çĽĸ
å¸ĥ æ±Ł
ĠçİĽ çº³
ä¾ ł
Ċ2019-11 -14
å¤ļ æķ°
ä»Ĩ å¯º
è§Ĥ åħī
ĊTh is
æŃ£ç½ĳ _
éĢ ¸
éł ĺ
ĠåįĹ æľ¨
ä¹Į é½Ĳ
çİ¯çĲĥç½ĳ æĬ¥éģĵ
ç½ĳç«Ļ é¦ĸé¡µ
Ġ365ä½ĵèĤ²æĬķæ³¨ å¤ĩçĶ¨ç½ĳåĿĢ
æĿĢ åı·
å¹´ çº§
æĤ ²
ä½ı æ°ĳ
ĠåĲīæľ¨ ä¹
Ġç¿ģ çīĽ
v el
Ġç±» ä¹Įé½Ĳ
ä¿ ĳ
Ġå¤§ æ¸¡
éĹ¨ åİ¿|
200 8
Ġæµª åį¡
Ġèĭ± åĲī
oker st
Ġæīİ èµī
Ġå¤ª ä»Ĩå¯º
s ia
Ġåĳ¼ åĽ¾
ĠCol lect
å®ī åİ¿
åħŃåĲĪ å½©
Ġåĩ¯åıĳ å®ĺæĸ¹ç½ĳç«Ļ
ç½ĳ çĽĺ
Ġåįļå¤© 918
å¥Ĺ æĪ¿
Ġå²³ æĻ®
Ġåĩ¯åıĳapp å®īåįĵçīĪä¸ĭè½½
Ĩ Ĳ
è¿ Ł
Ġä¸ĵ ä¸ļ
Ġæ°ĳ éĸĵ
Ġèĭ¥ å°Ķ
ç§ĳæĬĢ æľīéĻĲåħ¬åı¸
19 8
ï¿½ x
ĠåĪ©æĿ¥ æ³¨åĨĮ
è½ ©
æĬĹ è®®
èµĦ æľ¬
cl ick
Ġ5 åĪĨå½©
Ġä¹Ĳæ©Ļ lc8
ĠåĩĨ æł¼å°Ķ
11 éĢīäºĶ
Ġå·¥ å¸ĥæ±Ł
Ġåľ £
ĠCo. ,
T D
ĠåĲĪä½ľ ä¼Ļä¼´
Ġk8å¨±ä¹Ĳå®ĺç½ĳ åħįè´¹ä¸ĭè½½
æ²» çĲĨ
ĠP M
Ġçķ ª
Ġk8å¨±ä¹Ĳ ç½ĳç«Ļ
Ġpk10 è®¡åĪĴ
èµĮ å½©
åħ¬åı¸ çļĦ
èī ĺ
9 )
é¦ĸ åħĪ
åħ± å»º
åĪ« å¢ħ
åĪĨå¿«ä¹Ĳ 10åĪĨ
ëĭ¤ .
è¡Į æĥħ
Ġæ¾³éĹ¨ç½ĳä¸Ĭ èµĮæĲı
Ġæĸ¹ æŃ£
ĠçľŁäººèµĮéĴ± æ£ĭçīĮæ¸¸æĪıå¹³åı°
çŃī ãĢĤ
Ġéĥ ģ
å±± åĮº
uu å¿«ä¸ī
åĪĨå¿«ä¹Ĳ åįģåĪĨ
XC9h ZHM
ĠåĪ©æĿ¥w66æľĢ èĢģçīĮ
ĠåįĹ å®«
ĠéĻ ¤
çº¿ä¸Ĭ çľŁäºº
åĪĨ ï¼Į
ç²¾ éģ¸
T he
Ġè¶³å½© çĭĹä¸ĩ
ĠH ouse
Ġè°ĥ åħµ
ãĢĳãĢĲtãĢĳãĢĲy ãĢĳãĢĲlãĢĳãĢĲeãĢĳãĢĲ
æľĢæĸ° åľ¨çº¿
.C OM
yst em
èħ¾è®¯ åĪĨåĪĨå½©
å¦Ĥä½ķ æıĲçİ°
Ġç¿ ¼
æĹ ¦
Ġæ² Ĳ
Ġåº Ĳ
éķ¶ çĻ½
ä¸º åķ¥
åľ° äº§
Ġuu å¿«3
10 æĹ¥
ĠQ Q
e p
ĠèĩªåĬ© æĹ©é¤ĲåĬłçĽŁ
äºĭ éķ¿
Ġæ¨ Ł
Ġåĩ¯åıĳæ¸¸æĪı å®ĺç½ĳ
éĩĮ çļĦ
ĠæŃ£ éķ¶çĻ½
Ġåĩ¯åıĳçĶµæ¸¸ å®¢æĪ·ç«¯
æ¶Īéĺ² åĳĺ
Ġè¾ °
17 7
æİ¥ è§¦
ĠçĭĹä¸ĩ å¾®ä¿¡
é£ ¾
.p arent
Ġåĩ¯åıĳçĶµæ¸¸äºļæ´² é¦ĸéĢī
Ċ2019-12 -08
Ġé Ł³
Ġ el
Ġ365æ£ĭçīĮæ¸¸æĪı å¤§åİħ
Ċ O
åħ ©
æ³¨åĨĮ _
èĩ³ å°ĳ
ĠèĮ Į
Ġæ¹ ¾
Ġ365æ£ĭçīĮ è´¦åı·
èĩ º
Ġæ¾³éĹ¨ç½ĳé¡µ å¨±ä¹Ĳç½ĳç«Ļ
ä»Ģ éº¼
è©ķ è«ĸ
ä¿Ŀ äºº
lis h
å® ł
log in
Ċ2019-11 -15
å®ĺæĸ¹ åħ¥åı£
ĠæĬķ ç¨¿
æ± Ĺ
åįİ äºº
ä¸» åĬ¨
åĪĨæŀĲ _
ind ex
J n
èĨ ł
Ġçķ ¥
ĠA B
ãĢĤ æĻ®äº¬
åģľ æŃ¢
Ġåĵ į
ĠäºļæĲıæīĭæľºçīĪ å®ĺæĸ¹ä¸ĭè½½
ĠåĪ©æĿ¥æľĢèĢģçīĮ ç½ĳç«Ļ
ä¹Ł æľī
Ġåĩ¯æĹ¶åĽ½éĻħ app
ãĢĤ ä¸įè¿ĩ
å¹²åĺĽ çļĦ
è¿Ĳ è¡Į
ç¼ĥ ï¿½
éĭ ¼
ç§ĺ ç±į
Ġå¤§ è¿ŀ
å½± éĻ¢
Ġæ½į åĿĬ
ï¼Į æĬĬ
36 0
Ċ ä¹¦
å°Ķ å¤«
sp ort
éĻµ åĽŃ
% ãĢĤ
Ġå·¥ ä½ľ
ĠAG åİħ
Ġæ¶ ¡
ĠéĢļ è®¯
Ġé¤ Ĳ
çĵ ľ
ĠæĽ´ æĸ°
å½©ç¥¨ å®ĺç½ĳ
Ġä¸ ĺ
å¤ļ åĲį
èĭĹ æłĹ
en s
ĠçŃ ī
ãĢĤ ç¾İåĽ½
ç»ı |
åħ Ħ
æĮ ¡
æ³¨åĨĮ æĶ¶ä¸įåĪ°éĤ®ä»¶
è¯Ħ æµĭ
Ġå¤§ çŁ³
å¤§ éģĵ
ĊéĶ ¡æŀĹ
") .c
ĠéĹ µè¡Į
è£ Ĥ
Ġé¾Ļ æ³ī
ĠæľĢæĸ° æīĭæľºçīĪ
ĠæľĿ éĺ³
3 aWR0a
æłĩ çŃ¾
ard o
ĠArt icle
æĹıèĩªæ²»å·ŀ åĮºåı·
ĠæľĢæĸ°æīĭæľºçīĪ çľŁéĴ±æ£ĭçīĮ
appä¸ĭè½½ åľ°åĿĢ
Ġag å®¢æĪ·ç«¯
ot o
ð Ł
èĥľ å®¢
æĹıèĩªæ²»å·ŀ éĤ®ç¼ĸ
Ġè¾¾æĭīçī¹ æĹĹ|
Ġå« ©
u te
H M
è¾¾ äºº
Ġç¦ıå»º å¿«3
åĢŁéĮ¢ ç®¡éģĵ
Ġäºļæ¸¸éĽĨåĽ¢ å¹³åı°
è¾¾ æĪĲ
çĥ ¦
ĊéĶ¡æŀĹ æµ©çī¹
Ġ one
Ġåĩ¯åıĳæīĭæľº å®¢æĪ·ç«¯
ĠåĨ· æ°´
Ġæł ¡
Ċæ³¨åĨĮ æĹ¶éĹ´ï¼ļ2019
Ġstyle ="
ĠéĤ ®
Ġéĵ ħ
æĭħä¿Ŀ ç½ĳ
å½© å¤§åıĳå¿«ä¸ī
ĠM P
app |
http:// www.
åĦ¿ åŃĲ
å®ŀ éªĮ
Ġåı ª
æ® º
ĠS N
Ġåĩ¯åıĳå®ĺæĸ¹ æīĭæľºapp
å±± æĹħæ¸¸
> ãĢĳãĢĲ
ĠéĤ »
èµĶ åģ¿
Ġ918æĲıå¤©åłĤ æīĭæľºçĻ»å½ķ
Ġå ¦
Ġæĸ° å»º
Ġåŀ «
ç¬¬ äºĶ
èĢ Ĳ
é¦Ļæ¸¯ |
éħįèµĦ åħ¬åı¸
ĠæĶ ¯
Ġåĩ Ń
ä¸Ń åħ±
ç¨ĭ åº¦
Ġæµ ĳ
Ġ365betå®ĺç½ĳ ä½ĵèĤ²æĬķæ³¨
ĠçĤ İ
Ġæ¯ ı
çı į
le s
Ġæ¦ ķ
éłĲ è¨Ĥ
ç»Ħ æĪĲ
ĠæľĢ ç»ĻåĬĽ
ĠC F
Ġ è½¯ä»¶
ç¿ Ĵ
Ġæĸ ¯
æĭ Ķ
Ġåĳ Ī
ĠèĢģèĻİ æľº
çī¹ æ®Ĭ
g in
å¥½è¿Ĳ å¿«ä¸ī
éĩİ çĮª
tYX Jn
tYXJn aW5
ĠéĦĤæīĺåħĭ æĹĹ|
ĠåĽĽåŃĲçİĭ æĹĹ|
Ġæµ¦ ä¸ľæĸ°
Ġ365betå®ĺç½ĳ çİ°éĩĳ
ä»Ģä¹Ī æł·
Ċ æŃ¤åĪĨé¡ŀ
Ġç¢ Į
æĭħä¿Ŀç½ĳ å®ĺç½ĳå¹³åı°
åĬł æĸ¯
Ġå¤ªä»Ĩå¯º æĹĹ|
ios ä¸ĭè½½
ĠB l
Int ro
Ġç§Ł æĪ¿å¹¿åĳĬ
Ġæ¹ Ħ
ĠåĮĹ ç¢
Ġæ¾³éĹ¨ç½ĳæĬķ æĭħä¿Ŀç½ĳå®ĺç½ĳå¹³åı°
Ġæ¼ ł
æĸĩåı² çīĪ
æ³¨åĨĮéĢģ 18
ç¢ °
ä¼ĳ éĹ²
Ġåĭ ĥ
æµ· åĨĽ
Ġç¿ģçīĽ çī¹æĹĹ|
cIi B
ĠåĲ Ľ
åĿļ æĮģ
ç² ¤
éĽĨ ä¸Ń
æ´ ®
å¼ĢæĪ· éĵ¾æİ¥
Ġæķ ĸ
è·ĳçĭĹ åĽ¾
Ġä¹ ĥ
å®īåħ¨ ä¹Ī
Ġæĺ Ķ
ĠéĿĴ æµ·
ĠæľĢ è¿ĳ
Ġå¤§åıĳå½©ç¥ŀ 8
åĢ ¾
Ġæīİèµī çī¹æĹĹ|
Ċåıĳå¸ĥ æĹ¶éĹ´ï¼ļ2019
Ġæŀ Ŀ
å·¥ åľ°
Ċæ±Łèĭı å¹¿æĴŃçĶµè§Ĩç½ĳ
é² ¸
ĠæĿŃéĶ¦ åĲİæĹĹ|
Ġè¯ ı
ĠåĸĢåĸĩ æ²ģæĹĹ|
æĽ ¿
ĠåĪ©æĿ¥æľĢ ç»ĻåĬĽ
è¶³å½© åĲ§
ue st
æŁ ±
ĠçĽ ®
Ľ å´
çī ²
ĠO D
Ġæ´ ®
è¯Ĺ æĸĩåı²çīĪ
ï¿½| ï¿½^
ĠæĹ¶éĹ´ï¼ļ2019å¹´ 10æľĪ
Ġä¼ ½
ĠèĽ Ł
åĮ» åŃ¦
ĠLtd .
Ġæ¢ ĵ
Ġå»º çĵ
Ġæ¡Ĳ æ¢
Ġæ¡ĥ åľĴ
ĠåĩĨæł¼å°Ķ æĹĹ|
å¸Ĳ åı·
ä¸Ĭ ä¸Ģç¯ĩï¼ļ
Ġäºļæ¸¸ æīĭæľºçīĪ
Ġæ² ½
åŀ Ĵ
Ġéķ ¶
ĠèĬ ®
Ġå¯Į è£
ajax ({
Ġag 8
æĸ° åİ¿|
Ġäºļæ¸¸app å®ĺç½ĳä¸ĭè½½
èµ ¤
éĻ ½
Ġè´ ŀ
æ°´ å¸Ĥ|
å§ ļ
Ġéĵģ åĬĽ
Ġéĩĳ å±±
Ġå® ķ
ĊæĳĦ è¯Ĺæĸĩåı²çīĪ
ar get
Ġéº Ł
ĠæīĭæľºçĻ¾å®¶ä¹Ĳ æ£ĭçīĮ
æĢ» ç«Ļ
ĠåįĹ æ±ĩ
åıĳå±ķ çļĦ
éĺ´ åİ¿|
UU çĽ´æĴŃ
ãĢĳãĢĲäºĨ ãĢĳãĢĲ
Ġåĩ¯åıĳçĶµæ¸¸ ç½ĳé¡µçīĪ
Ġä¸¹ æ±Ł
Ġ3 åĪĨå½©
at t
Ġäºĳ éľ
æĮĩ ç¤º
åŃĹ ä½ĵï¼ļ
èĹ ¤
å¯¹ æĸ¹
ĠæŃ£éķ¶çĻ½ æĹĹ|
Ġagçİ¯äºļ æ³¨åĨĮç½ĳåĿĢ
çİ¯ ä¿Ŀ
Ġç¹ģ å³
ç¿ Ķ
Ġå½ Ŀ
æ¸ łéģĵ
Ġåĩ¯åıĳæľĢæĸ°çĻ»å½ķ ç½ĳåĿĢ
å¤± åİ»
æĪ¿è²¸ åĪ©çİĩ
ĠæŁ ŀ
ac he
ĠçĭĹä¸ĩ å®ĺç½ĳç½ĳåĿĢ
çĦ¶ èĢĮ
Ġå·§ å®¶
res ult
¿ åĲį
Ġå£ ¶
Ġbet365 åľ¨çº¿
èĭ±è¶ħ èģĶèµĽ
ĠéĢļ æ¸
Ġhost Intro
Ġçł ļ
Ġå¤§åıĳæĹ¶æĹ¶å½© å¼Ģå¥ĸ
Ġç£ ´
é¾Ļ åİ¿|
Ċ2019-11 -18
å¼ĢæĪ· çĻ»åħ¥
ĠåĪ©æĿ¥w66 å¹³åı°æ³¨åĨĮ
02 æľĪ
éŀ Ń
Ġç¨ ·
Ċ *
Ġèķ ī
å¿ §
Ġåħ° èĢĥ
Ġçİĭ èĢħ
Ġéĺ Ĩ
åı¦ ä¸Ģ
Ġæ± ¨
ĠåĨĮ äº
Ġé£ ŀ
Ġä¹Į å®¡
åĩĮ æĻ¨
Ġå®Ŀ åĿ
app åľ¨çº¿
ĠæŃ¦ åĬŁ
æºĲ å¸Ĥ|
Ġæ±Ł æ²¹
åĽŀ æĶ¶
us iness
ĠæŃ¦ éĻ
Ġå¼ ĭ
éªĮè¯ģ çłģ
Ġå®ļ è¥Ħ
Ġäºļç¾İam8 å¹³åı°
Ġå½ĵ æ¶
ĠéĿĸ å®ĩ
Ġå¤§åıĳæŀģéĢŁ å¿«ä¸ī
ä¹Į åħĭåħ°
Ġéĩĳ åłĤ
ĠæľĽ è°
åĬłçĽŁ æĿ¡ä»¶
Ġçº³ éĽ
Ġçļ ĭ
Ġèĭ± éĽĦ
Ġè¥¿ çķ
Ġæŀ ŀ
Ċ2019-12 -09
åįģ ä¸ī
Ġå¤ĸåĽ´ ç½ĳç«Ļ365
Ġå¯Ł éļ
Ġå·´ æ¥ļ
Ġèĭį æ¢
Ġæ¦Ĩ ç¤¾
åĪ¶ å®ļ
é¥° åĬłçĽŁ
Ġæĸ½ ç§
Ġå²ĳ å·
Ġéĥ ĵ
Ġbet356 ä½ĵèĤ²
ĠéĢ Ĭ
å°Ĩ åľ¨
ĠéĤ Ľå´
a ut
Ġå¯Į èķ
æĶ¾å¿ĥ æĹ©çĤ¹
ĠçĽ ±çľ
ĠéĦ ±
Ġæģ¯ çĥ
Ġé«ĺ æ·
Ġæĸ° ç»
Ġä¸´ æľ
å®ĺæĸ¹ æ³¨åĨĮ
Ġd i
ĠçŁ³ éĺ
Ġé¢ į
Ġ12 æľĪ
Ġåįĵ å°¼
Ġä¸´ æ´®
ĠäºĶ å¸¸
Ġä¸¾ æĬ¥
Ġå¾· æĥł
ĠçĶµçİ©å¨±ä¹Ĳ æ£ĭçīĮ
if e
Ġåŀ £
ĠåĴĮ æĶ¿
ĠèĴĻ èĩª
Ġéº» æłĹ
Ġåİ Ĩ
å¹³åı° åĲĹ
Ġä»ª éĻĩ
Ġag äºļç¾İ
ãĢĢ æĿ¥æºĲï¼ļ
Ġä¸Ń æĸĩ
æĺ¯çľŁ æĺ¯åģĩ
Ġæ³ Į
Ġæµ· æĻ
Ġèµŀ çļĩ
Ġéĥ §
Ġæµ· çĽ
åħĪ éĶĭ
ĠåĽ Ĭ
ĠM F
w an
ä¼¯ çī¹
Ġæ²³ éĹ´
Ġæ· ħ
ĠåĴĮ éĿĻ
Ġä¸ĩ è½½
Ġæ¸ ĳ
Ġä¸Ń çī
Ġéķ¿ æ±
Ġç±³ èĦ
ĠåĬł æŁ¥
çī¹ åĮºæĶ¿åºľ
Ġæ½ ¢
Ġæ¿ ī
¤èĤī åĬłçĽŁ
Ġæ°¸ æµİ
Ġä¸Ĭ æĢĿ
ĠH D
ĠæŃ¦ ç©
åĮħ åĬłçĽŁ
99 9
Ġæ´ª æ´ŀ
Ġä¸Ķ æľ«
is s
Ġé»Ħ éª
Ġéĥ ¸
éĻį ä½İ
åįķåıĮ è®¡åĪĴ_
ĠæĹ Į
æĿİ èį£
Ġå¹¿ çģµ
Ġé»Ħ æ¢ħ
Ġä¼Ĭ åĲ
åıª æĺ¯
éĺ¶ æ®µ
Ġçľ ĭ
Ġä¸´ æ¡
Ġä»Ģ éĤ
Ġè® ·
Ġç¾İ å§
æĮĩ å¯¼
æĻº æħ§
Ġå°ī çĬ
ad s
æµľ ï¿½
lo cation
ĠéĶĻ éĤ£
Ġå¤§åıĳå½©ç¥¨ å¿«ä¸ī
çªģ çł´
12æľĪ21æĹ¥ çĶµ
åŁº æĸ¯åĿ¦
éħ ¸
ĠçŁ³ æ¥¼
Ġåįļ çĪ±
Ġå°ļ å¿Ĺ
ĠæĹº èĭ
Ġçİ¯äºļ y
åº¦ åģĩ
ĠæŃ¦ å®£
ç½ĳé¡µ çĻ»å½ķ
Ġä¹Į æģ
çģ °
ĠåĻ ¶
Ġçĵ ®
ä¹ĭ åĲİ
åĬłçĽŁè´¹ åıĬ
åĬłçĽŁè´¹åıĬ åĬłçĽŁæĿ¡ä»¶
Ń å½Ĵ
æĸĻ åºĹåĬłçĽŁ
èĥľå®¢ åĬłçĽŁè´¹åıĬåĬłçĽŁæĿ¡ä»¶
çł´è§£ è½¯ä»¶
ĠèĪŀ éĴ¢
ĠåįĹ æ¾³
Ġå¤§ åİĤ
æ¾³ åįļ
Ġæĸ° éĤ
æ¸¸æĪı æ³¨åĨĮ
Ġçģµ çĴ
Ġä¸ī ç©
Ġå®ģ éĻ
Ġæī¶ ç»
Ġéķ¶ é»Ħ
ĠæĻĭ åŁİ|
Ġå¾Ĳ éĹ»
Ġæ³½ æĻ®
Ġä¸´ é¢
Ġåħ¨ æ¤Ĵ
Ġå¼ ķ
Ġåĩ¯åıĳæ³¨åĨĮ appåľ¨çº¿
ĠK N
ĠåĽĬ è°
Ġç¼ Ļ
é §
ĠæĿ¾ æ½
ĠçĬ į
Ġåįĵ èµĦ
Ġå¤§ æĤ
P ad
en er
åħ´ å¥ĭ
Ġç» Ŀ
Ġå½©ç¥ŀäºīéľ¸8 ä¸ĭè½½
åĳ³ åĬłçĽŁ
Ġå¤§ èĭ±
Ġçł Ģ
Ġå´ĩ ç¤¼
ĠéļĨ å°
Ġéģĵ åŃ
Ġåħ¬ éĩĮ
Y2 F
Ġæ°¸ ä¿®
ĠæĽ² éº»
Ġå¹³ æŀľ
ĊéĶ¡æŀĹæµ©çī¹ æĸ°éĹ»ç½ĳ
px ;
åĩº åıĳ
åºĵ å°Ķ
Ġå¥Ī æĽ¼
Ġä¼ļ åĲĮ
ĠæľĽ å¥
ĠåįĹ åı¬
çº µ
å³° ä¼ļ
Ċäººæ°ĳç½ĳ åĨħèĴĻåı¤
ĠåĪļ å¯Ł
Ġåı¤ èĶ
ĠéĿĴ ç¥ŀ
Ġåĺī é±¼
Ġä¸´ æ¾
Ġå°ģ å¼Ģ
Ġå¾ ª
åĢ¡ è®®
on ardo
ĠçŃ ł
Ġ{ }
E S
ĠéĦ Ħ
Ġç¬¬ ä¸Ģ
al ax
å¹¸è¿Ĳ 28
Ġåı¤ äº¤
Ġ356bet ä½ĵèĤ²æĬķæ³¨
åĩ¡ åĵį
ĠPro cessed
pv bm
Ġå¹³ èĪ
Ģ ã
Ġæº Ĩ
ä¹¦è®° ãĢģ
ç¬¬ä¸Ģ æ¬¡
çĻ¾ ä¸ĩ
on se
Ċ èħ¾è®¯
è¿Ŀ åıį
Ġè¶³çĲĥ å¤ĸåĽ´
Ġåįİ èĵ
ĠåįĹ çļ®
Ġåĩ¯åıĳçĶµæ¸¸ æľĢæĸ°çĻ»å½ķåľ°åĿĢ
éĨ ī
ĠåıĮ çīĮ
ĠæľĢç»ĻåĬĽ åĪ©æĿ¥
è§Ħ èĮĥ
Ġåı¤ ä¸
ä¸Ģ å°į
å¤ļ ç§į
Ġåĩ¯åıĳ æ¬¢è¿İåħīä¸´
Ġç§ Ńå½Ĵ
Ġreturn ;
éģĵ ãĢĤ
ĠåŃ ¸
ï¼Į åı¯ä»¥
ĠéļĨ åĽŀ
Ġ2018 -11
æľŁæľŁåĩĨ é¦Ļæ¸¯|
åĲİ åı°
ĠåĪ© è¾
å¨ ĥ
ĠagèµĮåľº åİħ
çĳ °
Ġæķĸ æ±ī
Ġsport s
Ġæ°´ å¯Į
Ġï¿½ï¿½ï¿½ï¿½ ï¿½ï¿½
åĪĨ åŃĲ
Ġçİĭä¸Ńçİĭ éīĦç®ĹçĽĺå¼Ģå¥ĸç»ĵæŀľ
l ãĢĳãĢĲiãĢĳãĢĲ
Ġman betx
ĠèĲ¨ è¿
ï¼Į éĢļè¿ĩ
Ġç¾İ é£Ł
Ġbt365 ä½ĵèĤ²åľ¨çº¿æĬķæ³¨
; &
é«ĺ ä¸Ń
æĹłæ³ķ åħħåĢ¼
Ġç±³ æĺĵ
alax y
b c
æķĻ æİĪ
Ġæ¾³éĹ¨ ç½ĳåĿĢ
00 88
/å½©ç¥ŀäºīéľ¸ 8
è¢« é»ĳ
ĠåĪ©æĿ¥æľĢ èĢģçļĦåĵģçīĮ
ãĢĳãĢĲ åĴĮãĢĳãĢĲ
le G9
æµ £
Ġéĥ ¯
Ġbest365 æıĲçİ°
aWR 6b25l
Ġæ¾³éĹ¨çĻ¾å®¶ å¼ĢæĪ·
Ġ365bet äºļæ´²
7 3
î Ĭ
26 æĹ¥
Ġçļĩ å®¶
ĊéĽĦ å·ŀ
ĠæĿ¥ èĩª
Ġäºļç¾İam8 æīĭæľºçīĪ
åĪĨ åįģä¸ĢéĢīäºĶ
Ġçĸı éĻĦ
( /
Ġå®£ æģ©
æīĭæľº æ¸¸æĪı
ide o
ä¸į å¤ļ
æĿ Ĩ
ĠçľŁ åģĩ
ãĢĳãĢĲ âĢĿ
ĠC l
XHJc bj
Ġ365bet çľŁäºº
ç»ĵ æŀĦ
ĠçĭĹä¸ĩ åı¯ä»¥
ĠæŃ£ èĵĿ
[0 ];
èĢ Ĺ
Ċå¨ģ æµ·ç½ĳ
ãĢĤ ä¸Ģ
äºº ç±»
Ċ æĲľçĭĲ
è¯ģ åĪ¸
ï¼Į èŃ¦æĸ¹
Ċâ Ĺı
Ġåħ ¨å¤©
Ċå¤©æ´¥ æĹ©çĤ¹åĬłçĽŁ
kw XCI
ub 3NjcmlwdD
cy OFwi
Ġé¡ ¶
ĠE V
æ´¾ å¯¹
Qu ery
å¤ªåģĩ äºĨ
ing s
ĠçĭĹä¸ĩ èĥ½
Ġ Ĉ
å¯ Ħ
Ġ room
re ak
å°Ķ Â·
æĿ¥ è¯´ï¼Į
ä¸ĭåįĪ ï¼Į
çĻ»éĻĨ ä¸ĭè½½
Ċ æĸĩ
Ġè¯ļ èģĺ
ĠæĶ¾ å¿ĥ
Ġæ²Ļ æ´ĭ
ĠW indows
Ġ et
æĿİèį£ èŀį
il y
ç¾İ é£Ł
å¼Ģ å¹ķ
f er
ä¸Ń ãĢĤ
Le onardo
3D æīĵåį°
çĽĳ çĭ±
Ġ1 ,
å¦ Ļ
Ċæĸ°åįİç½ĳ å®ģå¤ı
è¶ ĭ
ĠæĹ¥ æľŁ
ä¸įç»Ļ æıĲçİ°
æĦŁ åĪ°
Ġèŀį èµĦèŀįåĪ¸
ĠèµĦ è®¯
æ©Ł åł´
Ġçī ©
çī ¢
æĬķæ³¨ å®ĺç½ĳ
èĻ ķ
em pty
è´¢ æĶ¿
ĠçŁ³ æ£
Ġçľ ģ
ä¸ĭè½½ æīĭæľºapp
Ġs al
ä¸º ãĢĳãĢĲ
ç¡® å®ļ
ä¼ ı
åħ¨ åľº
æĢİä¹Ī è¿Ľ
å°Ĩ äºİ
çļĦ åīį
Ġd88å°Ĭé¾Ļ å®ĺç½ĳ
è¡ ¢
æµ©çī¹ å¸Ĥ|
çłĶ åıĳ
Ġçİ¯äºļ æīĭæľºçĻ»å½ķ
# ãĢĳãĢĲ
ä¸ĥ çłģ
åĲĪ éĽĨ
ĠéĿĴ å¹´
hide ();
attr ('
ï¼Į è¦ģæ±Ĥ
« åİ¿|
ĠåĪ©æĿ¥åĽ½ åĽ½éĻħ
app éĤĢè¯·çłģ_
éĶĪ éĴ¢
c n
æĢ» ç»ĵ
Ġip hone
ĠåĽĽèĤĸéĢīä¸ĢèĤĸ æľŁæľŁåĩĨé¦Ļæ¸¯|
Leonardo æıĲä¾Ľ
ä¸ĩåįļ APP
è½¬ è´¦
åĲ¸ å¼ķ
Ġå½©ç¥ŀ x
ĠM T
è¿Ľ çĲĥ
åı¤ å·´
Ġå¤§ å§
Ċ éĵ¶å·Ŀ
ĠagçľŁäºº æ¸¸æĪıå¹³åı°
ĊP osted
ç¥ Ŀ|
28 åħĥ
è¿Ķ åĽŀ
ģ åİ¿|
Ġéķĩ èµ
è§Ħå¾ĭ _
Ċ2019-11 -20
Ġå¤© ç¥Ŀ|
ä»ĭç»į ï¼ļ
çľŁå®ŀ çº¿ä¸ĬçľŁäºº
e op
Ġæ¾³éĹ¨ çľŁå®ŀçº¿ä¸ĬçľŁäºº
Ġ356bet æ»ļçĲĥ
ç¤º å¨ģ
éĨ «
åºĶ æĢ¥
ĠéĤ» æ°´|
Ġv ery
ï¼ī ãĢģ
12 æĹ¥
Ġ918ï¿½éİıçĦ¯ ï¿½
- 2017
Ġåĩ¯åıĳæ¸¸æĪı çĻ»å½ķ
ĠçľŁéĴ±æ£ĭçīĮ ç½ĳåĿĢ
ĠE ng
ĠåĪ©æĿ¥æīĭæľº åĽ½éĻħå®ĺç½ĳ
2 70
ĠK F
Ġçİ¯äºļ é¦ĸé¡µ
ãĢĳãĢĲ è¡Į
¡ åİ¿|
Ġçº¿ä¸ĬçľŁéĴ± çĻ»å½ķ
Ġéĵ¶ è¡Į
æ°ĳ çĶŁ
Ġåıĸ æ¬¾
Ġæľī äºº
Z T
é¦ĸ éĥ½
Ġéķ¶é»Ħ æĹĹ|
i ang
çģ« ç®Ń
Ġå± ķ
æ¬ Ĭ
Ġå¤§åİĤ |
Ġæ¾³éĹ¨çľŁéĴ± ç½ĳåĿĢ
Ġæ¾³éĹ¨ æ¾³åįļ
ç¨³èµļ æĬĢå·§
Ġbt365 ä½ĵèĤ²åľ¨çº¿
éĴ »
æ± ¤
Ċ $
Ġåı°åĮĹ å¸Ĥ|
éĿĴ ç½ĳ
bet36 ä½ĵèĤ²åľ¨çº¿
¸ åİ¿|
Ġ365betå®ĺç½ĳ å¼ĢæĪ·
èª ¿
Class ('
Ġçº¿ä¸ĬçľŁéĴ± å¹³åı°
çĤ ī
æ¸¸æĪı æľīåĵªäºĽ
Ġæ¾³éĹ¨çľŁéĴ± çīĽçīĽ
Ġè ł
æĺ¯ ä¸į
Ģ â
è¦ ı
Ġ}) ();
åľ°åĿĢ ï¼ļ
Ġæĸ°ç«¹ å¸Ĥ|
ĠéĿ¢ å¯¹éĿ¢
ç½ĳä¸Ĭ èµĮåľº
Ċ2019-11 -19
èİ ī
å¥ī çĮ®
è³ĩ æĸĻ
® ï¿½ï¿½
ĠæĬķ èµĦ
Ġä¹Įå®¡ æĹĹ|
ĠA F
åĿ ł
Ġçº¿ä¸Ĭ ä½ĵèĤ²å¹³åı°
ĠagåĽ½éĻħåİħ app
çī º
Ġåĩ¯åıĳå®ĺç½ĳ æ³¨åĨĮ
Ġåĩ¯æĹ¶åĽ½éĻħ ç½ĳç«Ļ
å¥¹ çļĦ
Ġå½©ç¥ŀ ç½ĳ
22 6
Ċæ¹ĸåĮĹ çĶµè§Ĩåı°
ä¾¦ æŁ¥
Ġäºļç¾İ è§Ĩè®¯
ĠW h
éĽĨ åħ¨
ĠåĪ©æĿ¥æīĭæľº åĽ½éĻħ
Ġæµ¦ä¸ľæĸ° åĮº|
å»ī å¸Įå°Ķ
.create Element
Ġçº¿ä¸Ĭ æ¸¸æĪıæľīåĵªäºĽ
çĲĨ å¿µ
åħ´ å¸Ĥ|
e 7
æľĢæĸ° çīĪä¸ĭè½½
L I
b ãĢĳãĢĲ
æĤ ¬
Ġæ½ ĺ
ĠæĬļé¡º å¸Ĥ|
° åİ¿|
Ġ html
un g
ä¸į ãĢĳãĢĲ
Ċ 2020å¹´
çļĦ éĴ±
w in
ag es
Ġéķ¿æ²» å¸Ĥ|
Ġ ar
Ġæķĸæ±ī æĹĹ|
ä¿Ħç½Ĺæĸ¯ æĢ»ç»Ł
Ġéħ ī
Ġå¥ĪæĽ¼ æĹĹ|
Ġbet356 æ³¨åĨĮ
U n
ĠåĮĹ æĸ¹æĹ©é¤ĲåĬłçĽŁ
çī¹é©¬ èµĦæĸĻ
Ġå¼Ģåħĥæ£ĭçīĮ åı¯ä»¥
.c c
30 æĹ¥
Ġå®īå¾½ æĹ©é¤ĲåĬłçĽŁ
æ©Łè»Ĭ è²¸æ¬¾
re d
å°¼ äºļ
Ġå¹´ èıľ
æĸ° åĮº
Ġæ¸ħ èĭ
è³¼çī© ç¶²
Ġé«ĺéĽĦ å¸Ĥ|
åĳ¨ æľ«
ĠæŀĹèĬĿ åİ¿|
Ġä¸Ĭé¥¶ å¸Ĥ|
Ġ365 B
Ġçī¹èī² å°ıåĲĥæĹ©çĤ¹åĬłçĽŁ
Ġbet356 ä½ĵèĤ²æĬķæ³¨
365 .tv
æ´Ľ è¥¿
ios &
Ġæī¿ å¾·å¸Ĥ|
ĠI F
ĠæĶ¾å¿ĥ æĹ©çĤ¹åĬłçĽŁ
ĠéĢļ åĮĸå¸Ĥ|
ios& å®īåįĵappä¸ĭè½½
Ġäºļæ¸¸ä½ĵèĤ² appä¸ĭè½½
éĢģ åį¡
å½©ç¥¨ éĤĢè¯·çłģ_
Ġäº¿ å®¶ä¹ĲæĹ©é¤ĲåĬłçĽŁ
ç§ĺ ä¹¦
V D
Ġèģ ļ
ĠæľĿ éĺ³å¸Ĥ|
Ġ365ä½ĵèĤ²æĬķæ³¨ åľ¨çº¿
ĠåįĹ æĺĮå¸Ĥ|
çİ°éĩĳ ä¸Ģä¸ĭ
éĢı éľ²
le m
Ġæłªæ´² å¸Ĥ|
ĠèĬľæ¹ĸ å¸Ĥ|
Ġé©¬ ä¸Ĭ
Ġéģµ ä¹īå¸Ĥ|
7 9
Ġå®£ åĮĸ
ĠèĲ¥åħ» æĹ©çĤ¹åĬłçĽŁ
ĠccåĽ½éĻħ å½©ç¥¨
Ġä¸Ń å¼ıæĹ©é¤ĲåĬłçĽŁ
ãĢĳãĢĲä¸ļ ãĢĳãĢĲ
ĠæŃ£èĵĿ æĹĹ|
ĠçĻ½ æ²Ļ|
s By
ĠagçľŁäºº æĹĹèĪ°åİħä¸ĭè½½
¾ æ¿
çīº çī²
Ġåĺī ä¹īå¸Ĥ|
Ġä¹Ŀ æ±Łå¸Ĥ|
éģŃ éģĩ
Ġæ¸¯ å¼ıæĹ©çĤ¹åĬłçĽŁ
Ġä¼Ĭ å®ģå¸Ĥ|
ĠæĹ©é¤Ĳ éħįéĢģåĬłçĽŁ
Ġåħ¨åĽ½ è¿ŀéĶģåĬłçĽŁ
ĠæĻ¯ å®ģ|
å¨±ä¹Ĳ å¼Ģåħĥæ£ĭçīĮ
ĠæĹ©çĤ¹ æĭĽèģĺ
Ġå½ ±
æľĢ å°ĳ
ä¸ĵ éĹ¨
è¥¿ å®ī
Ġå²³ éĺ³å¸Ĥ|
Ġ365æ£ĭçīĮæĸ°æīĭåį¡ æĢİä¹Ī
Ġå¼Ģå°ģ å¸Ĥ|
28 æĹ¥
ĠæĹ©é¤Ĳ æĹ©çĤ¹åºĹåĬłçĽŁ
åħ¨å¤© åħįè´¹è®¡åĪĴ
ĠéĻµ æ°´|
èº«åĪĨèŃī åĢŁæ¬¾
å± ¥
çº¿è·¯æ£Ģæµĭ ä¸Ńå¿ĥ
Ġè¾½ éĺ³å¸Ĥ|
ç¢ Ł
Ġçī¹èī² æĹ©çĤ¹å°ıåĲĥåĬłçĽŁ
ĠåĲī å®īå¸Ĥ|
Ġåı°ä¸Ń å¸Ĥ|
é¢ ģ
365betå®ĺç½ĳ å®ĺç½ĳ
ï¼Į äºİ
æķĳ ä¸ĸ
å¤§åħ¨ |
de t365
æĴ ¥
05 æľĪ
Ġç»įåħ´ å¸Ĥ|
Ġåĩ¯åıĳçĶµæ¸¸ æ³¨åĨĮéĢģ
ĠçĻ½ äºĳ
æĢİä¹Ī ä¸ĭ
s ert
ĠäºĶèĬ³æĸĭ æĹ©çĤ¹æĢİæł·åĬłçĽŁ
Ġä¸´å¤ı å¸Ĥ|
ĠéĵľéĻµ å¸Ĥ|
Ġéĵģå²Ń å¸Ĥ|
å¤§åıĳ å½©ç¥¨
Ġå°Ĭé¾Ļd88 å®ĺç½ĳ
è¥¿ æĸ¹
A -
ä½© æ´Ľè¥¿
ĠæĹ©é¤Ĳ é¡¹çĽ®åĬłçĽŁ
Ġå®ľå®¾ å¸Ĥ|
Ġæ¹ĺæ½Ń å¸Ĥ|
ef ore
ĠçĶĺ åŃľ|
Ġåħ¨åĽ½ æĭĽåķĨåĬłçĽŁ
Ġè¡¡ éĺ³å¸Ĥ|
åıĸ åĲį
ĠäºĴ åĬ©
ĠåĬ¨æ¼« åĬłçĽŁ
îĿ ¹
ĠæĬĢ æľ¯
Ġåĩ¯åıĳæ³¨åĨĮ å¤ĩçĶ¨ç½ĳåĿĢ
ĠæŃ£ å®ĹæĹ©çĤ¹åĬłçĽŁ
å° ¸
çĽ® çļĦ
Ġåı°åįĹ å¸Ĥ|
ĠåĬłçĽŁ åĮħåŃĲ
Ġä¸Ńå¼ı æĹ©çĤ¹å¿«é¤ĲåĬłçĽŁ
Ġå½ĵ åīį
Ġéķ¿æ²Ļ åİ¿|
åģ ¶
æ¯į äº²
ĠagæĹĹèĪ°åİħ app
åŁº åľ°
ç¸º ï½
Ġtype :
7 )
åŁº éļĨ
Ġç½ĳ åĲ§åĬłçĽŁ
å¤ĸäº¤ éĥ¨
ç®¡ åĪ¶
å¯¹ æİ¥
è´· æ¬¾
èķ ī
æīĭæľºçīĪ åħ¥åı£
Ċ 0
oogle tag
ĠçĲ¼ ä¸Ń|
ĠãĢĳãĢĲs ãĢĳãĢĲtãĢĳãĢĲyãĢĳãĢĲlãĢĳãĢĲeãĢĳãĢĲ
om ain
Ġä¿Ŀ äºŃ|
ī èĢ
ĠæĹ©çĤ¹åĬłçĽŁ åķĨ
bet365 ä½ĵèĤ²
ref ix
ĠçĦ ¡
Ġå°Ĭé¾Ļ æ¸¸æĪı
² æŀĹ
Ġæ¾ ľ
æĸĩ çī©
çİ°åľº å¼Ģå¥ĸç»ĵæŀľ
Ġç½ĳç«Ļ ;
æ¸ħ æ¥ļ
Ġäºļç¾İ é¦ĸé¡µ
å¼ Ĺ
çĹħ ä¾ĭ
å¾ ª
åºĶ å¯¹
Ċå¤®è§Ĩ ç½ĳ
è¿Ķ åĪ©
Ġå®ģ èĴ
Ġåįļ é³
N ode
ĠAir port
M CB
empty ();
ĠG N
6 å¹´
ĊG MT+8,
Ġ$. ajax({
1 a
eop le
çĲĥ åĳĺ
ä¹Ĳ åŁİ
3 å¹´
ĠçĦ īèĢ
Ġ$(' .
ìĿ Ħ
Ġk8å½©ç¥¨ åľ¨çº¿çĻ»å½ķ
æĪ Ī
çķ¶ éĭª
ĠèĬ ·
éģ µ
åħµ é©¬
Ġåĩ¯åıĳ æ£ĭçīĮ
ĠC B
Ġs u
Ġä¸ī åĪĨpk10
Ġæ» ´
æĹ Ń
åģĩ ä¸įåģĩ
Ġæĸ° æĻ
Ġåĩ¯åıĳæľĢæĸ°çĻ»å½ķ åľ°åĿĢ
Ġå· į
å½ ¼
Ġk8å¨±ä¹Ĳ çĻ»å½ķå®īåįĵçīĪä¸ĭè½½
Ġäºļæ¸¸ä¼ļ æ¸¸æĪıå¹³åı°
Ċ2019-11 -22
ä½ĵ å½©ç½ĳ
( e
ä»ª å¼ı
éĢļ æĬ¥
Ġåį Ĭ
é¦ĸæ¬¡ è³¼å±ĭåĦªæĥł
ä¸Ń è¶ħ
Ġéķĩ æ²
éĤ®ç®± æĶ¶ä¸įåĪ°
MCB tYXJnaW5
ĠRes ort
Ċ ç¦ı
ĠI B
Ġéģĵ çľŁ
åħįè´¹èµĦæŀĵå¤§åħ¨ |
Ċæ°´ æ¯į
éĺ¿ éĩĮå·´å·´
Ġî ĺ
ä¸ĭè½½ èµ°åĬ¿åĽ¾
am es
ï¼Į æŃ¤
Ġå² «
æĸ° èĥ½æºĲ
ace book
ç²¾åĩĨ è®¡åĪĴ
Ġç§¯ çŁ³
åĪĨ 28
å¤§å°ı è®¡åĪĴ_
Ġ118 åĽ¾åºĵ
Ċ2019-12 -10
åĪ· åĪĨ
å·¥ä½ľ ãĢĤ
Ġåĩ¯åıĳçĶµçİ©å¨±ä¹Ĳå®ĺç½ĳ åĩ¯åıĳå®ĺç½ĳ
® ï¿½
B cIj
Ġè¶³å½© åĲ§
Ġé©¬ä¸Ĭ é¢Ħè®¢
L o
æĬķæ³¨ app
åħ ģ
i um
æ¯ĶèµĽ çĽ´æĴŃ
Ġçī Ī
ĠèµĦ æĸĻ
Ġ ï»¿
ĠçĶµç«ŀ ç«ŀçĮľ
çĤ¹ èµŀ
ĠæĹħ é¡º
Ġç¦Ħ åĬ
çģ« çģ¾
æĪª èĩ³
ç¾İ å¥³
ĠU F
ĠW D
Ġåĩ¯åıĳå®ĺç½ĳ æīĭæľºapp
Ċæľ¬ æĸĩ
âĢĿ ãĢģ
+ P
è®¯ ï¼Īè®°èĢħ
å®¡ åĪ¤
æĺŁ æľŁ
Ġæ¼ ¾æ¿
æĸĩ çĮ®
å°Ī æ¡Ī
Ġdocument .createElement
Ã Ĺ
ãĢĳãĢĲ å¤§ãĢĳãĢĲ
ĠäºļæĲıè§Ĩé¢ĳ è½¯ä»¶
Ġ qq
åĪĽ ä¸ļ
Ċ2020-02 -18
Ġèİ« åĬĽ
è¢Ń åĩ»
æĤ ¦
ap er
â Ĥ¬
Ġå¤§åıĳç§ĴéĢŁ å¿«ä¸ī
å®ĺ åĳĺ
æĪ¿ |
Ġå® Į
çĶµ æ¢¯
åĬł åĿ¡
.s rc
ï¼ĮèĢĮ æĺ¯
ĠC T
item ap
y y
Ġåĩ¯åıĳAGæĹĹèĪ° å®ĺç½ĳ
ĠæĿ± äº¬
ä¸į è®©
ĊåĲĪèĤ¥ çĥŃçº¿
ĠåĪ©æĿ¥æľĢ ç»ĻåĪ©
æĪ °
Ġé¦Ļæ¸¯ |
å¹´ å·¥ä½ľç»ıéªĮ
é¢Ħæµĭ è½¯ä»¶
äºº çīĽçīĽ
ĠäºļæĲı æīĭæľºappä¸ĭè½½
èµŀåĬ© åķĨ
çĲĨ è§£
Ġä¼Ĭ éĢļ|
è¡ĵ èªŀ
è©¦ç®Ĺ è¡¨
éª Ħ
Ġä¸° åİ¿|
Ġç¿ ł
ĊèįĨ å·ŀæĸ°éĹ»ç½ĳ
Ċ2020-02 -17
Ġåĩ¯åıĳAGæĹĹèĪ°åİħ çĻ»å½ķ
åľ¨ä¸ŃåĽ½ åĲĪæ³ķ
Ċ2017 -11
Ġèĸ Ľ
Ġåĩ¯æĹ¶åĽ½éĻħ ä¸ĭè½½
ĠçĶ± LeonardoæıĲä¾Ľ
ĠçĦīèĢ Ĩ|
ä¿¡èªī å¹³åı°
ĠéĿĴ é¾Ļ|
åĲĦ çķĮ
å¡ĶåĲīåħĭ æĸ¯åĿ¦
æĺ¯ è°ģ
S h
D ata
Ġ2020-02 -17
Ġç¶² è·¯
ĠäºļæĲıå¹³åı° appä¸ĭè½½
ite d
ĠY J
ĊçĻ¾åº¦æĸ°éĹ» æĲľç´¢
ĊæĲľçĭĲ æĸ°éĹ»
Ġè´¡ å±±|
æŃ ¥|
Ġæµ Ļ
çİ¯çĲĥ æĬ¥
Ġåĩ¯åıĳçľŁäºº æīĭæľºçīĪ
1 |
Ġåĩ¯8 å¨±ä¹Ĳå®ĺæĸ¹ç½ĳç«Ļ
é©¬ä¼ļ åħ¨å¹´
Ġå®¿ è±
Ġæ±Ł åįİ|
ĠM J
Ċ æŃ£
ĠG oogle
Ġåīį éĥŃ
ĠåıĮ æ±Ł|
Ġåĩ¯åıĳçĶµæ¸¸ ç½ĳåĿĢ
æĺŁ |
Ġä¸ī éĥ½|
ä¼ĺæĥł æ°¸è¿ľå¤ļä¸ĢçĤ¹
ĠåĮĹ å·Ŀ|
æķ´ çĲĨ
Ġé»Ķ è¥¿|
å´ ©
ĠåŁİ æŃ¥|
Ġ0 ;
\ \
Ġæľ¨ éĩĮ|
Ġéķ¿ éĺ³|
Ġæĸ° å¹³|
Ċæ¯ıæĹ¥ çĶĺèĤĥ
å¤ļå°ĳ æľŁ
5 jb
ãĢĳãĢĲ åĽ½ãĢĳãĢĲ
âĢĿ çŃī
ĠY F
Ċ ä»ĬæĻļ
ĠæĺĮ æ±Ł|
çĬ ¬
ĠA J
Ġé©¬ä¸Ĭé¢Ħè®¢ ;
5 9
ĊæĺŁå²Ľ çİ¯çĲĥæĬ¥
Ġåĩ¯åıĳæľĢæĸ°çĻ»å½ķ é¦ĸé¡µ
ĠåĮĸ éļĨ|
æ¡ Ĥ
ĠåįĹ æ¶§|
Ġè¿ŀ åįĹ|
Ġ365å¤ĸåĽ´ ç½ĳç«Ļ
Ġæĸ°æĻ ĥ|
Ġéķ¿ çĻ½|
Ġå¾ª åĮĸ|
ĠäºĴåĬ© |
ĠäºļæĲıå®ĺç½ĳ å®ĺç½ĳçĻ»å½ķä¸ĭè½½
de f
Ġä½¿çĶ¨ æĿ¡æ¬¾
æľĢæĸ° çīĪæľ¬
Ċ2019-11 -21
ä¸ĭ çļĦ
Ġé¥ ®
Ġå³¨ å±±|
r op
æĿ¥ è¯´
AG åĽ½éĻħåİħ
Ġå¯» çĶ¸|
Ġä¸° å®ģ|
ĠçŁ³ æŁ±|
Ġå¢¨ æ±Ł|
Ġéº» éĺ³|
Ġéħī éĺ³|
6 9
Ġä¸ī æ±Ł|
ĠæĢ »
Ġè´ ¾
ĠéĢļ éģĵ|
Ġå¯Į å·Ŀ|
ĠåŃŁ æĿĳ|
ĠéļĨ æŀĹ|
Ġçİ¯ æ±Ł|
ĠåŃŁ è¿ŀ|
ą Ĉ
Ġå¨ģ å®ģ|
or g
Ġæ¾ľ æ²§|
Ġè¿ŀ å±±|
Ġéĩĳ å¹³|
ĠæĿ¾ æ¡ĥ|
Ġæ²¿ æ²³|
çĸ Ĩ|
ĠèĬ· æ±Ł|
Ġä»ĬæĻļ åħŃ
è´µå®¾ ä¼ļ
ĠåĬ¡ å·Ŀ|
çŃī å¾ħ
ĠagçľŁäºº æīĭæľºçīĪä¸ĭè½½
ĠèĤĥ åĮĹ|
ãĢĳãĢĲpãĢĳãĢĲx ãĢĳãĢĲ;ãĢĳãĢĲ
n ing
Ġåħĥ æ±Ł|
Ġèŀį æ°´|
¯ å±Ģ
ĠC ar
Ġå®½ çĶ¸|
Ġç»´ è¥¿|
å¤§ ä½¿
åİĨåı² å¼Ģå¥ĸè®°å½ķ
Ġå¼łå®¶ å·Ŀ|
Ġé¾Ļ èĥľ|
Ġæ±Ł åŁİ|
Ġéĩĳ ç§Ģ|
åĸ Ŀ
ĠäºļæĲıå¨±ä¹Ĳ çĻ»å½ķ
Ġå®ģèĴ Ĺ|
é« ®
æ¶ĵ ï¿½ï¿½ï¿½
åĮ ¿åĲį
ĠéĿĸ å·ŀ|
Ġæ²§ æºĲ|
æ¶Īæģ¯ ï¼Į
Ġéķĩæ² ħ|
Ġå²« å²©|
Ġå½Ń æ°´|
Ġbt365 å®ĺç½ĳ
Ġåį° æ±Ł|
Ġèĭ±éĽĦ èģĶçĽŁ
Ġåĩ¯åıĳç½ĳåĿĢ èĭ¹æŀľçīĪä¸ĭè½½
Ġæ¶ ĵ
7 e
Ġæ°ĳ åĴĮ|
Ġå³¨ è¾¹|
ĠèĢ¿ é©¬|
ĠèĹ ¤
ĠU D
Ġå¥½ åº·
Ġä¹Ĳ ä¸ľ|
B ox
1 c
Ġéķĩ å®ģ|
Ġç´« äºĳ|
ĊæĹ©çĤ¹ æĿ¥
çº¿ä¸Ĭ æĬķæ³¨
èĪª å¤©
Ġæĸ° çĸĨ|
æĸ¯ç§ĳ çī¹
5jb 21
5jb21 cL
å¤©åłĤ ä¸ĭè½½
Ġç§Ģ å±±|
ç½ĳä¸Ĭ å¹³åı°
ĠéģĵçľŁ |
Â °
ï ¾
ä¼ ª
Ġç½Ĺ åŁİ|
Ġå¹¿ è¥¿|
Ġåħ³ å²Ń|
Tag Name
Ġéĥ½ å®ī|
Ġæ¸ħ åİŁ|
Ġç¦ĦåĬ Ŀ|
Ġdocument.getElement sBy
æ³¨åĨĮ éĤĢè¯·çłģ_
Ġçİī å±ı|
ĊæµĻæ±Ł åľ¨çº¿
s um
Ġæ¡ĵ ä»ģ|
r t
Ġå±ı è¾¹|
Ġå±± ä¸ľ|
Ġç§¯çŁ³ å±±|
Ġå®ģ å¤ı|
äººæ°ĳ åħ±åĴĮåĽ½
0 c
çĶµåŃĲ æ¸¸èīº
ï¼Į çĶ¨
+ "
Ġæįķé±¼ çİĭ
3J j
åıĳå±ķ ãĢĤ
gc 3Jj
gc3Jj PV
Ġåħ° åĿª|
_ p
ï¼Į éĤ£
Ġè¥¿èĹı |
Ġ" https://
çĴ ĩ
éĳ ĳ
å°Ĩ ä¼ļ
èĲĿ åįľ
00 1
å°ı åŃ¦
æīĵ éĢł
åĽ¾ ]
çĮ Ľ
ç´ Ģ
8 çłģ
ĠC om
â ī
ĠK V
Ġæĭī èĲ¨
Ġå¤§ åĮĸ|
éĢ ®
Ġå·į å±±|
Ċ E
ä¸Ģ èĪ¬
è¯´ ãĢĤ
94 94
ĠæĢ ¥
æ´» åĭķ
æĸ° åįİç½ĳ
ĠM N
Ġç»ı æµİ
IB _
å¥½ åĲĹ
ç»ĵ åĲĪ
Ġæ¼¾æ¿ ŀ|
Ġæ¼ Ķ
Ġå»º çŃĳ
ĠP ort
Ġçİī é¾Ļ|
åĲĦ åĽ½
çľŁçļĦ åģĩçļĦ
è® ĵ
ãĢĤæŃ¤ å¤ĸï¼Į
2019å¹´ 12æľĪ
Ġåĩ¯åıĳå®ĺç½ĳçĻ»å½ķ åħįè´¹ä¸ĭè½½
ĠO J
I G
Ċä¸ī äºļ
æĢ» ç½²
Ġ2019-0 4
Ġè «
Ġå¤§åıĳå¿«ä¸ī è±¹åŃĲ
Ġbet365 å¼ĢæĪ·
è¿Ļ æ¬¡
åħļ çļĦ
Ġåĩ¯åıĳAGæĹĹèĪ°åİħ æīĭæľºçīĪ
ãĢĳãĢĲ å¹´
èĩ £
ä¸ĭ éĿ¢
B efore
Ġå¿«ä¹Ĳ æĹ¶æĹ¶å½©
ĠC H
âĢķ å¤§åıĳæĹ¶æĹ¶å½©
ĠB ook
Ċéĵ¶å·Ŀ æĸ°éĹ»ç½ĳ
HA /
ĠP K
Ġ out
ìĿ ĺ
èģĶ ç¤¾
çľĭ ï¼Į
re ad
C E
å¿ Ĩ
5 wa
Ġåĩ¯åıĳapp ç½ĳåĿĢ
5wa HA/
ĠèĭĹ æłĹ
a ,
Ġ( function()
Ġåĩ¯åıĳæīĭæľº ç½ĳé¡µçīĪ
Ġä½Ľ å±±
äºļ æĲı
ï¿½ï¿½ ãĥ
èĳ ī
Ġag å®¢æĪ·ç«¯ä¸ĭè½½
18 æĹ¥ï¼Į
ĠW F
ĠèĬ± èĵ®
1 .9
Ġåĩ¯æĹ¶åĽ½éĻħ äººçĶŁ
Ġç¹ §ï½
Ċ åľ¨
ĠæĬķç¨¿ æĮĩåįĹ
re load
ĠK ing
å¼ µ
å©ļ å«ģ
Ġæ¬§ ç¾İ
çĻ½ å®«
æĤ£ èĢħ
ĠQ D
Ġè® º
è§ī å¾Ĺ
k y
e ll
åĿ Ĥ
") [0];
Ġdocument.getElementsBy TagName
Ht ml
Ġæīĭæľºäºļæ¸¸ app
ç»ı éĶĢåķĨ
å¤§ éĥ¨åĪĨ
se o
ï¿½ g
Ġè£ ħ
Ġèı ¯
.in sert
å½© èī²
æıĲ ä¸įåĩº
.parent Node
1 66
Ġs );
ä¸ §
if i
èİ« éĩĮ
ãĢĳãĢĲæĺ¯ ãĢĳãĢĲ
çĪ± åĽ½
æĶ¶è´¹ æłĩåĩĨ
ç¾İåĽ½ çļĦ
ä¹ĭ å£°
µ ï¿½
Ċ ç¦ıå»º
ĠåĪ©æĿ¥å®ĺæĸ¹ç½ĳç«Ļ w66åĪ©æĿ¥
è£ ľ
Ċ äº¤éĢļ
çĽ ¤
ĠG J
Ġè¯ļèģĺ ç²¾èĭ±
åĹ ¨
Ġ âĢĿ
ĠD es
r l
ç¾ ½
Before (
Ġ Ø
æĺ¯åĵª ä¸Ģä¸ª
Ġå®ī åħ¨
Ġæ¾³æ´²å¹¸è¿Ĳ 10
.insert Before(
æº «
Ġæ¬¢ ä¹Ĳ
Ġè§ £
Ġå®ī åºĨ
è½¦ çĤ¹
ĠW N
Ġä¸Ģ èĤĸ
å£ ³
- com
ĠçľŁäºº çĶµåŃĲ
æŀľ æ´¾å¯¹
Ġäºļç¾İ å¨±
æļĤ åģľ
.parentNode .insertBefore(
æĶ¶ä¸įåĪ° éĤ®ç®±
Ġ356bet å¤ĩçĶ¨ç½ĳåĿĢ
çĴ ģ
M C
u be
j ay
å·´ åŁºæĸ¯åĿ¦
çĹ ´
æĤ Ķ
ĠU J
å¤§ çģ«
ĠéĽ ģ
ãĢĳãĢĲ :ãĢĳãĢĲ
æ³¨åĨĮéĢģ 38
appä¸ĭè½½ _
å¤§åıĳ äºĳ
Ġèµ ·
è¿Ŀ è§Ħ
ĠçĽ Ľ
Ċ 19
at ed
P C
æ¸ Ĳ
è¡¨ çİ°
6 2
ï¼Įè¿Ļ ä¸ª
Ġéķ¿ æľŁ
ĠU R
Ċ èĵĿ
Ġåĩ¯åıĳçĶµæ¸¸ å¹³åı°
4 æĹ¥
æķ¸ æĵļ
ĠåĪ©æĿ¥w66æľĢ ç»ĻåĬĽçļĦèĢģçīĮ
Ġåħ³äºİ æľ¬ç«Ļ
("script ")[0];
å®ĺç½ĳç½ĳåĿĢ å¤ļå°ĳ
Ġç¹Ŀï½ ¢ç¹Ŀï½³ç¹§ï½¯ç¹Ŀï½¬ç¹Ŀï½¼ç¹Ŀï½«
Ġdocument.getElementsByTagName ("script")[0];
Ġä¸ĭ ä¸Ģç¯ĩ
Ġs .parentNode.insertBefore(
("script ");
Ġéķ¿ çĻ½
Ġéĺħè¯» (
Ġdocument.createElement ("script");
Ċé¦Ļæ¸¯ æĶ¿åºľ
æĺ ¨å¤©
Ġagæįķé±¼ çİĭ
Ġäº¬ éĥ½
Ġåħ¨æ°ĳ çĻ¾å®¶ä¹Ĳ
ĠK J
Ġ365bet åľ¨çº¿
Ġ0 )
hm ,
éĸ ±è®Ģ
æķħ æĦı
ĠW J
Ġ365ä½ĵèĤ² ç½ĳ
Ċ åħ±
å½© å¼Ģå¥ĸ
ĠG R
åıĳ ãĢĳãĢĲ
ĠagåĽ½éĻħåİħ æ¸¸æĪı
ĠY N
ĠU V
Ġå¾Ģ æĹ¥
åĽ½éĻħ å¨±ä¹ĲåŁİ
è° ĵ
éĢ® æįķ
Ġäºļç¾İagæĹĹèĪ°åİħ app
æ°ĳ å®¿
á ł
ħ ï¿½
Ġs.parentNode.insertBefore( hm,
Ġç¤¾ ä¼ļ
Ġhm .src
à¸¡ à¸²à¸
ĠåĪ©æĿ¥w66 agæīĭæľºçīĪ
æĿĥ å¨ģ
åħ¨æ°ĳ è¡Ĺæľº
re en
Ġè¦ ª
åįķåıĮï¼ļ å¿«éĢŁ
ay s
ĠagåĽ½éĻħäºļæ¸¸å®ĺç½ĳ æīĭæľº
ĠI J
Ġ( 2)
Ġå¾ĢæĹ¥ åĽŀé¡¾
Ġåı ²
Ġå¯ Ĵ
æĹ¶ åĪ»
ç¢ ±
æĹ¥æĬ¥ ...
Ġ918 å¤©åłĤä¸ĭè½½
Ġ( è¡ĵèªŀ
Ġ(è¡ĵèªŀ )
ĠM ay
æĺ¯ä»Ģä¹Ī åħ¬åı¸
ä¸² åħ³
é¡¯ ç¤ºåħ¨éĥ¨
HR 0c
ĠæĪ ļ
å¤Ħ ç½®
Ġçİ° åľº
è¿ĩ åĲĹ
Ċ å¤ĸ
ä»į æľī
ï¿½ T
æ²¡ åĪ°è´¦
æĭī æĸ¯
Ġçķª ç¦
æİ¨ åĩº
w ia
åħ ¸|
Ġæ¾³éĹ¨å¨±ä¹Ĳ æ¸¸æĪıç½ĳåĿĢå¤§åħ¨
Ġ365betå®ĺç½ĳ åľ¨çº¿
çİ© åħ·
Ġè® ¡
ĠI V
iO S
b y
åĢįçİĩ _
çĳ ķ
replace (/
ĠäºĮæīĭ å¸ķ
Ġåįļ å¤©åłĤ
æĵ ¦
åħ¬ ä¼Ĺ
Ċ åĽĽ
Ġ| é¡¯ç¤ºåħ¨éĥ¨
28 60
ĠåĲĪ èĤ¥
äºĮèĥİ æĪ¿è²¸
åı¥ è¯Ŀ
Ġæ¦Ĥ åĨµ
è¦ ĭ
ä¸¤ é¡¹
æĶ¹ éĢł
js ?
okerst ars
Ġ365bet çİ°éĩĳ
wia HR0c
ĠF or
åĩ Ŀ
æ°ĳä¸»åħļ äºº
Ġå¤§åıĳä¸ī åĪĨéĴŁpk10
hm. baidu.com/
hm.baidu.com/ hm.
hm.baidu.com/hm. js?
çĻ» å±±
æ»ļçĲĥ 365
lo se
çĶµ æ±ł
n ull
Ġæ¾³éĹ¨çĻ¾å®¶ æ¬¢ä¹Ĳ
Ġäºº æīį
ĠåĽ½éĻħåĪ©æĿ¥ ag
Ġåĩ¯åıĳæīĭæľº å¨±ä¹Ĳappä¸ĭè½½
æ³ ¥
Ġk8å¨±ä¹Ĳå®ĺç½ĳåľ°åĿĢ å®ĺæĸ¹ç½ĳç«Ļ
Ċ ä½ł
Ġ"https:// hm.baidu.com/hm.js?
64 e
g PS
ç¹ģ èį£
ĠI nd
Ġæ¾³éĹ¨æ£ĭçīĮæ¸¸æĪı appä¸ĭè½½
Ġåĩ¯åıĳçĶµæ¸¸ ä¸ĭè½½åľ°åĿĢ
d ";
ì ł
Ġå½ ¬
ä¸Ĭ è¿°
ĠccåĽ½éĻħ å¨±ä¹Ĳ
45 82
c6 cc
äºļæ´²çīĪ å®ĺç½ĳ
"). empty();
ãĢĤ ç»ı
a8 78
çĶµ æĬķ
éĢī äºº
å¤§åİħ ä¸ĭè½½
bd 7e
åįķåıĮï¼ļ ç§Ĵç§Ĵ
æŃ£ å½ĵ
1a 75
eb 2860
4582 e7
Ġ"https://hm.baidu.com/hm.js? c6cc
64e 1a75
a878 eb2860
bd7e 4582e7
Ġ"https://hm.baidu.com/hm.js?c6cc 64e1a75
a878eb2860 d";
Ġ"https://hm.baidu.com/hm.js?c6cc64e1a75 bd7e4582e7
Ġ"https://hm.baidu.com/hm.js?c6cc64e1a75bd7e4582e7 a878eb2860d";
å¸ ħ
Ġä¸ľ äº¬
åħ¨ éĽĨ
â Ĺı
çĲ ª
d ãĢĳãĢĲeãĢĳãĢĲ
ĠM on
Ħ åŃĲ
Ġåĩ¯åıĳçĶµæ¸¸æ³¨åĨĮéĢģ 8åħĥ
Ġä¸» é¡µ
å®Ŀ å®Ŀ
ãĢĤ æł¹æį®
ĠS V
èĤ¡ä»½ æľīéĻĲåħ¬åı¸
å·´ è¥¿
æ´¾åĩº æīĢ
æĬ¥ åĲį
Ġèĭ±è¶ħ èģĶèµĽ
å°ıé¡į åĢŁéĮ¢
éĢģ è½¦çĤ¹
åĨľ æ°ĳ
ĠäºĮ åĪĨæĹ¶æĹ¶å½©
è®¡åĪĴ å¸Ī
ç»ı åħ¸
ĠåķĨ ä¸ĺ
ä¾ §
å¾ ¡
æĭį æĳĦ
ĠåĮħ å¤´|
çľŁ ç½ĳç«Ļ
Ġçĥ Ī
Ċ æµİåįĹ
çĬ¶ åĨµ
Ġåŀ ĭ
è·¯ çº¿
Ġ365betå®ĺç½ĳ å¤ĩçĶ¨ç½ĳåĿĢ
æ¸¯ éĵģ
é¦ĸé¡µ åħ¥åı£
_ m
img ":
ĠçľŁäºº åıĳçīĮ
ĠAG äºļæ¸¸
ç¥ŀ å½©äºīéľ¸
Ġæĸ° åŁİ
Ċ åĬłçĽŁæĹ©çĤ¹
Ġ|é¡¯ç¤ºåħ¨éĥ¨ å¸ĸåŃĲ
ãĢĤ å½ĵ
Ġå¤§åıĳä¸ī åĪĨéĴŁæĹ¶æĹ¶å½©
åĽ° éļ¾
æŃ£ çļĦ
Ġå¤§åıĳåįģ åĪĨéĴŁæĹ¶æĹ¶å½©
ä¿¡èªī æİĴåĲį
ĠçľŁäººåıĳçīĮ çĻ¾å®¶å®¶ä¹Ĳapp
çīĽ å£«
Ġè´µå·ŀ å¿«3
ĠæĿ ŀ
gPS BcIj
ï¼Į å¸ĮæľĽ
Ġå¤§åıĳäºĶ åĪĨéĴŁæĹ¶æĹ¶å½©
ä¹Ł ä¸į
éĥ¨ èģĶç³»
XHJcbj x
c ode
Ġçİ¯äºļ ç½ĳ
ĠæĹ©é¤ĲåĬłçĽŁ è¿ŀéĶģ
Ġç«ŀ å½©
è¶ħ çº§
_ d
Ġå¤§åıĳäºĮ åĪĨéĴŁæĹ¶æĹ¶å½©
Gl jay
jb Gljay
çº ¬
N um
æĴ¥ æ¬¾
å¼Ģ çļĦ
ï¼Ī N
ĠåĪĨ åĪĨpk10
å¹³ åĮºæĸ°éĹ»ç½ĳ
å°Ķ ä¼¯çī¹
æĬķ åħ¥
éĿłè°± çļĦ
q X01fNzI4eDkw
Ġbet365æ»ļçĲĥ çĽĺ
å¥½ |
æ»ļ éĽªçĲĥ
ç¬Ķ è®°
å¯¹ å¤ĸ
Ġs erv
Ġå¤§åıĳä¸Ģ åĪĨéĴŁæĹ¶æĹ¶å½©
çŃ Ľ
å¥½ å¤ļ
æ¼« çĶ»
ä¸Ģ ä½ĵ
ĠæĹ©çĤ¹åĬłçĽŁ åĵªå®¶å¥½
/ ç§Ĵç§Ĵ
éŀŃ çīĽå£«
æ¸ħ åįİ
0 g
é¦ĸæ¬¡è³¼å±ĭåĦªæĥł æĪ¿è²¸
Ċç¬¬ ä¸ī
Ġ3 .8ä¸ĩ
Ċè¥¿ å®īæĸ°éĹ»ç½ĳ
ĠS R
éĢī ä¸¾
Ġä¸Ń å±±
ĠæĹ© é¾ĻæĹ©é¤ĲåĬłçĽŁ
ãĢĢ |
Ċ ä¿¡æģ¯
re et
éį ĭ
å®Ŀ åħ¸|
Ġw66åĪ©æĿ¥ æ³¨åĨĮ
Ġag èµĮåŁİ
Ġå°Ĭé¾ĻäººçĶŁå°±æĺ¯åįļ æĬķæ³¨å¹³åı°
¤ ï¿½
è§Ĥ ä¼Ĺ
2019 -11
Ã ¬
ĠåĵĪå°Ķ æ»¨
R es
Ġæ¾³éĹ¨ç²¾åĩĨ èµĦæĸĻå¤§åħ¨
d er
ĠåĪ©æĿ¥ag æĹĹèĪ°
åħħ éĴ±
æ¸¯ å¸Ĥ|
æĤ Ł
âĶ Ĥ
Ġ2019-11 -17
ĠM X
Ġä¸ĩåįļä½ĵèĤ²3.0 app
çº¢ åĨĽ
æĭ ĵ
/ å¿«éĢŁ
ä¼ļ è°Ī
æĥ³ è¦ģ
ĠAp art
¥ ï¿½ï¿½
æ¹¾ åĮº
F i
æĻ¶ å®«
å®ĺæĸ¹ éĤĢè¯·çłģ_
ĠæĺĮ åĲī|
Ġ+ =
åĮ¹ éħį
Ġä¸į éĻĲ
æĮĩ å°ĸ
ĠM y
ç¾İ æĸ¹
ï¼ Ķ
æµ £ï¿½
Ċé¦Ļæ¸¯æĶ¿åºľ æĸ°éĹ»ç½ĳ
Ġ ..
ĠæĹ¥åįļ ä½ĵèĤ²
æī© å¤§
æĸ° ãĢĳãĢĲ
å¼ ·
æī¾ åĽŀ
æľ¬ äºº
å¤© ï¼Į
Ġè´ §
Ġ ä»Ģä¹Ī
èİ«éĩĮ æ£®
å°ıé¡į åĢŁè²¸
åĪĨ pcèĽĭèĽĭ
å®īè£ħ æĿ¿
åĪĨ ãĢĳãĢĲ
å·´ ä½ĵèĤ²
å® ¸
éĩįè¦ģ çļĦ
Val ue
Ġp refix
åģľ è½¦
æĺ¯ ä¸Ģä¸ª
Ġäºļç¾İåľ¨çº¿ æ¸¸æĪıå¹³åı°
çİĦæľº èµĦæĸĻ
ĠM ore
Ġagæīĭæľºå®¢æĪ·ç«¯ å®īè£ħæĿ¿
Ġåĩ¯åıĳ æ¸¸æĪıå¹³åı°
èŀ º
ä»İ äºĭ
çº· çº·
Ċ2019-12 -12
Ġå¤§ åºĨ|
ĠåħŃåĲĪ å¼Ģå¥ĸç»ĵæŀľ
ĠE x
"," IB_
è¡Ķ æİ¥
Ġ356bet çİ°éĩĳ
å±Ģ éķ¿
çĬ¹ å¤ª
æıı è¿°
å¸Ĥ åħ¬å®īå±Ģ
æŀģéĢŁ pk10
ĠåĪ©æĿ¥åĽ½æłĩ ä¸ĭè½½
æĺ ı
é¥ ¶|
Ċ æĸ°éĹ»
Ġ ç½ĳæĬķ
Ġ} ;
è®Ń ç»ĥ
è³¼å±ĭåĦªæĥł è²¸æ¬¾
Ġagäºļæ´² éĽĨåĽ¢å®ĺç½ĳ
v 1.0
ª ï¿½
u se
5 2
æĭ ī|
å°½ å¿«
å±ŀäºİ å¤ĸåĽ´åĲĹ
ĠæŀģéĢŁ å¤§åıĳ
Ġè¿ ª
Ad vis
Ġ356bet äºļæ´²
Ġå°Ĭé¾Ļ ãĢĲ
Ġ ãĢĮ
ï¼ ķ
Ã Ń
æĪĲ å°±
èĢħ ï¼ļ
æľŁéĹ´ ï¼Į
Ä ±
ãĢĤï¼Ī æµ·å¤ĸç½ĳ
Ġ365 .tv
æĺŁ éĻħ
5 ãĢĳãĢĲ
ĠèµĮéĴ± app
ĠåŃĹ åı·ï¼ļ
å¤® ä¼ģ
ĠC X
ab y
ĠçľŁäººèµĮéĴ±æ¸¸æĪı è½¯ä»¶
c G
ĠåĪ©æĿ¥åĽ½éĻħ w66
åį± æľº
ĠCh inese
çĽ Ĩ
ĠçĭĹä¸ĩ çĽ´æĴŃ
æµģ çķħ
ĠæĹł éĶ¡
å¼Ģ åĲ¯
9 2
çģ« çĪĨ
å¦ Ĩ
appâĢķ å¤§åıĳ
ig h
ä¸Ĭ çº¿
çļĦ å®īåħ¨
ĠåĪ©æĿ¥ çĻ»å½ķ
çĻ»å½ķ å¹³åı°
ĠåĪ©æĿ¥ag å®ĺç½ĳ
åĮĸ å·¥
Ġå®īå¾½ å¿«3
åĲĮ è¡Į
ĠçĻ» å½ķ
ĠhostIntro :'',
ä¿Ŀ çķĻ
è®¡åĪĴ ç½ĳ_
Ġæ¾³éĹ¨ç½ĳæĬķ ä¿¡èªīæİĴåĲį
ï¼ĮèĢĮ ä¸Ķ
éļı åĲİ
Ġæ¨ ¡
Ġä¿Ŀ å®ļ|
ï¿½ @
åŀĭ åı·
åĩº çĶŁ
ĠçĶŁ æ´»
è¿ĳ æĹ¥
åħ¨ åĬĽ
çŃĸ çķ¥
B A
ä¸Ĭç½ĳ çļĦ
Ġèıı æ³½
Ġçº¿ä¸ĬçľŁéĴ± ç½ĳ
æ¶ī åıĬ
Ċ #
è¯ģ ä¹¦
Ġbet365 å¤ĩçĶ¨ç½ĳåĿĢ
Ġçİ°éĩĳç½ĳ å®ĺç½ĳçĻ»å½ķ
- 2018
æħ °
åŃĹ å¹ķ
å¹´ æĿ¥ï¼Į
ç» ķ
Ġg ood
Ġåĩ¯åıĳAG åĽ½éĻħ
å½ Ń
Ċä¸Ĭä¸ĢæĿ¡ ï¼ļ
ĠæĹ¶ å°ļ
3 ãĢĳãĢĲ
Ġçº¿ä¸ĬçľŁäºº æ¸¸æĪıå¹³åı°
ä¸ĩ èĥ½
ä¸į èī¯
ĠF R
åįķåıĮï¼ļ å¥½è¿Ĳ
Ġå¾· å·ŀ
Ġ10 00
ä¸ĬåįĪ ï¼Į
è¯ģ å®ŀ
ä¸Ĭç½ĳçļĦ çľŁéĴ±æ£ĭçīĮ
åľ¨ éĤ£
Ġæīĭæľº ä¸Ĭç½ĳçļĦçľŁéĴ±æ£ĭçīĮ
Ġ2017 -01
ad ing
Ġæ¾³éĹ¨å¹³åı° æ¸¸æĪıç½ĳåĿĢ
/ åĪĨ
å¼ ĺ
Ġ365æ£ĭçīĮ ä¸Ĭä¸ĭåĪĨ
åĿĳ äººçļĦ
æ£ł agæĹĹèĪ°
Ġ918åįļå¤© æ£łagæĹĹèĪ°
" +
ĠY V
Ġå¤ª éĺ³åŁİ
ĠçĶµçİ© æ¸¸æĪı
Ċ å¼Ģ
Ġåĩ¯åıĳag å®ĺç½ĳ
æĴ °
çĻ½ èıľ
ç¼ ģ
ä¹Ĳ æ©Ļ
Ġ200 6
Ġéĺ¿ éĩĮå·´å·´
ĠçľŁäººèµĮéĴ± æ¸¸æĪıä¸ĭè½½
å¤Ħ äºİ
Ġæ°¸ å®ī
æµģ è¡Į
ĠåįĹ æµ·
Ġåĩ¯åıĳå®ĺç½ĳ -æ¬¢è¿İæĤ¨
if ic
å¨ īï¿½
Ġåĩ¯åıĳag ç½ĳç«Ļ
éģ¿ åħį
Ġåģ ĩ
Y 3J
Ġw indow.
ĠåįĹäº¬ |
Ġåĩ¯åıĳag æľĢæĸ°çĻ»å½ķåľ°åĿĢ
éĽ ķ
is m
çĥĪå£« éĻµåĽŃ
ĠM R
Ġåĩ¯æĹ¶åĽ½éĻħ æīĭæľºçīĪ
Ċ éĤ
åĪ« äºº
ĠåįĹ æµ
Ġ ãĢĭ
åıĳ è¡Į
ĠæĹ¶éĹ´ :
æ¶ Ĥ
com å¤ĩçĶ¨ç½ĳåĿĢ
Ġ1 .
Ġ918 comå¤ĩçĶ¨ç½ĳåĿĢ
Ġåĩ¯åıĳçĶµæ¸¸ å¨±
Ġå¤©æ´¥ æĹ¶æĹ¶å½©
åº ļ
16 8
Ġè¯ ·
Ġåİ¦ éĹ¨|
æīĵ æ°´
å¸ĥ æŁ¥
[ çİ¯çĲĥæĹ¶æĬ¥
Ġåºĵå°Ķ åĭĴ|
å¿ ł|
Ġäºļæ¸¸å®ĺæĸ¹ç½ĳ ä¸ĭè½½æīĭæľºçīĪ
æĹ¥ èªĮ
Ġç µ
ĠæŁ³ å·ŀ|
Ġæ´Ľ éĺ³|
Ġå¤§ è¿ŀ|
Ġçī¡ä¸¹ æ±Ł|
ä»Ģ åºĵå°Ķ
177 .com
Ġåĩ¯åıĳag å®ĺç½ĳçĻ»å½ķ
ve lo
Ġè¦ ĥ
å¤ª åİŁ
æīĵ çłģ
æĸ° ä¸Ģ
æľĢä½İ éĬĢè¡Į
ĠæĺŃ éĢļ|
å¹¸ ç¦ı
ĠS un
I I
ãĢĳãĢĲ æľīãĢĳãĢĲ
ook ie
ĠåĲ´ å¿ł|
æµ· æ´ĭ
éº Ĺ
Ġ365 .
Ġm in
ä¹ĭ è·¯
Ġç»µ éĺ³|
å· ¦|
ĠåĴ¸ éĺ³|
Ġ365bet å¼ĢæĪ·
ĠéĢļè®¯ åĳĺ
ĠæĹ¥åĸĢ åĪĻ|
æľŁ æľĽ
Ġç Ł
Ġclass ="
ĠåĪ©æĿ¥åĽ½éĻħ èĢģçīĮ
Ġä¸´ æ±¾|
Ġå®ģ æ³¢|
Ġ ć
Ġhg 0088
a id
éħ ·
Ġå°Ĭé¾ĻäººçĶŁå°±æĺ¯åįļ æīĭæľºçīĪ
op e
åı Ļ
Y3J pc
æīĭæľº å®ĺç½ĳ
ĠåĲī æŀĹ|
Ċ åķĨåĵģ
çłĶç©¶ éĻ¢
åĲĪä½ľ ï¼Į
ĠæĪĳ ä»¬
åħ´å¥ĭ åīĤ
æĺ¯ å¹²åĺĽçļĦ
Ġæ¾³éĹ¨èµĮæĲı ç½ĳç«Ļå¤§åħ¨
7 çłģ
åĪ¶éĢł ä¸ļ
æ£ĭçīĮ å¨±ä¹Ĳ
æ» ¿
Ġå¤© å®ī
ĠæĪĳ çļĦ
Ġå³ °
åĪĽ éĢł
10 ä¸ĩ
ï¼Į çİ°åľ¨
-2 âĢĿ
Ċ ag
Ċ2019-12 -11
Ġèĳ Ĺ
ç§ ©
æĹ¶ æľŁ
Ġä»» ä¸ĺ|
ĠéĢļ è¾½|
åįķåıĮï¼ļ åĪĨ
æİ ĺ
Ġä¸īäºļ |
Ġå¸ Į
ĠæĢİä¹Ī ä¸ĭè½½
ĠæĽ² éĿĸ|
Ġå°± æĺ¯
on y
æī¹ è¯Ħ
èģĬ å¤©
å°ı çİĽä¸½
Ġç ·
. 11
å¤į åĪ¶
Ġæ¯ķ èĬĤ|
Ġä¹Įåħ°å¯Ł å¸ĥ|
Ġå®ī éĺ³|
ĠBe ach
5 1
ê µ
Ġæ¾³éĹ¨ éĵ¶æ²³
ï¼Į æīĢä»¥
06 æľĪ
çŃ¾ ç½²
æ»ĭ çĹħ
ç¢ İ
Ġäºļç¾İå¨± ä¼ĺæĥłæ°¸è¿ľå¤ļä¸ĢçĤ¹
åħĪ åĲİ
åı¯èĥ½ ä¼ļ
Ġå¡Ķ åŁİ|
ĠçģĮ åįĹ|
æ°´ ä½į
ĠçĶĺ åįĹ|
Ġèµ£ å·ŀ|
å¼Ĥ å¸¸
Ġæ²§ å·ŀ|
äººæ°ĳ æ³ķéĻ¢
Ġä¹Į æµ·|
çĻ»éĻĨ ä¸įäºĨ
ç§į æ¤į
ĠäºļæĲıä½ĵèĤ²app å®ĺç½ĳä¸ĭè½½
æĶ Ŀ
Ġäºļæ¸¸éĽĨåĽ¢ åĽ½éĻħå®ĺç½ĳ
ä¸į å¤Ł
åºĹ å¸Ĥ|
o int
Ġæ¸ħ æ²³
ç®Ĺ åĬłæĹ¶
åľº |
> <
Ġæ³° å·ŀ|
å° ģ|
Ġ2018 -09
å·¥ ä¼ļ
è½¦ é¾Ħ
åħ¨ ç¨ĭ
å½¢ å¼ı
ĠçĭĹä¸ĩ ç½ĳç«Ļ
k ey
").val ()
Ġé¸¡ è¥¿|
éŁ© è±Ĩ
Advis or
åŁ ĭ
ĠåĴĮ çĶ°|
app å®ĺç½ĳ
Ġå´ĩ å·¦|
åĬ³ åĬ¨
å¥½ è¿ĺæĺ¯
èħ Ĭ
èī¾ æ»ĭçĹħ
æĳ ¸
çµ ²
åĨľ æĿĳ
rip Advisor
è· º
(" ");
Ġæĸ° ä½Ļ|
ĠV S
è¾© è®º
Ċ æŁ¥çľĭ
Ġ356bet åľ¨çº¿
æľĢæĸ° å¤ĩçĶ¨ç½ĳåĿĢ
Ġé¹¤ å£ģ|
æ¯ı å¹´
Ġu se
Ġbet365ä½ĵèĤ² å®ĺç½ĳå¹³åı°
revi ous
Ġèµ¤ å³°|
Ċ2019-11 -17
å¹´ è½¦é¾Ħ
ĠåĪ ¶
ĠG V
æĢ Ģ|
å¯¿ åİ¿|
Ġä¸Ńåį« |
å¨ Ł
ĠAGçİ¯äºļ çĶµæ¸¸
æ²¡ äºº
ĠéĨ´ éĻµ|
çİĭä¸Ńçİĭ éīĦç®ĹçĽĺå¼Ģå¥ĸç»ĵæŀľ
ä¸Ń å¸Ĥ|
çĶŁ æĦı
åº· åİ¿|
ĠåİĨ åı²
æŀĹ å¸Ĥ|
æİ¥ åĪ°
Ġyabo äºļæĲı
è¤ °
Ġèħ¾è®¯ 3åĪĨå½©
Ġä»ģ æĢĢ|
ĠæŀģéĢŁ å¿«ä¸ī
0 226
Ġå®ľ éĥ½|
ï¼Į æĪĲä¸º
åľ ³|
Ġä¼Ĭ æĺ¥|
åľ° åįģ
Ġæ¼¯ æ²³|
çħ §|
. ãĢĳãĢĲ
åħģ è®¸
åĵªä¸ª åĽ½å®¶
n ow
Ġçģ ŀ
Ġåİ» åĵª
Ġäºļæ¸¸appéĽĨåĽ¢ ä¸ĭè½½å®īè£ħ
åıĸæ¬¾ éĹ®é¢ĺ
ĠéĩĳåĿĽ |
ĠçĭĹä¸ĩ æĺ¯åĵªä¸ª
Ġbet365 -
ĠåįĹ éĺ³|
Ġæ·± åľ³|
Ġæ¸Ń åįĹ|
Ġåĩ¯åıĳapp åľ°åįģ
è§Ĩ ç½ĳ
/ 6
ĠAN D
Ġéĩĳ æĺĮ|
ĠæĻ Ĥ
æ¸ħ åİ¿|
å± ¤
ĠQ V
Ġåĩ¯æĹ¶ æīĭæľºapp
Ġä¸ľ æµ·|
çĭ¬ ç«ĭ
ĠéĤ£ æĽ²|
ĠA L
Ġä¿Ŀ å±±|
Ġä¹Ĳ å¹³|
éļĨ åİ¿|
åįĹ å¸Ĥ|
Ġå®¿ å·ŀ|
ĠæŃ¦ å®ī|
i -
Ġä¸ĩ å®ģ|
ĠåįĹ åħħ|
ãĢĤ æŃ¤åīį
Ġæ¶¿ å·ŀ|
ãĢĳãĢĲ ä½ľ
Ġé©»é©¬ åºĹ|
ĠY B
åħ³ åİ¿|
ĠçĮ ®
Ġbest365 å®ĺç½ĳ
Ġåıĳå¸ĥ æĹ¶éĹ´ï¼ļ
ĠåĲ¯ ä¸ľ|
Ġè¿ŀäºĳ æ¸¯|
Ġç¥ŀ æľ¨|
Ġé¹¤ å²Ĺ|
ä¸Ģ åľº
ĠéĤ¢ åı°|
Ċ4 .
æĪĸ ä»¥ä¸Ĭ
Ġä¸ľ æĸ¹|
Ġæµ· ä¸°|
æ¾³éĹ¨ åĽŀå½Ĵ
å½© ä¹ĲåĽŃ
æ³ī å¸Ĥ|
ĠèįĨ å·ŀ|
æŀģéĢŁ æĹ¶æĹ¶å½©
æĺ¥ å¸Ĥ|
Ġæ· ĩ
Ġå¼łæİ ĸ|
éĩĩ çĶ¨
Ġèıı æ³½|
çĴ §
Ġå¾· éĺ³|
ĠåĴ¸ å®ģ|
Ġéĺ³ æ±Ł|
Ġé¾Ļ åı£|
ĠæĺĨ å±±|
ä¸Ń åİ¿|
Ġå¾Ĳ å·ŀ|
è§Ĥåħī å±Ģ
æºª å¸Ĥ|
Ġéĩĳ åįİ|
Ġæµİ å®ģ|
Ġéļı å·ŀ|
Ġç²¾ åĩĨ
Ġ( æĸĩçĮ®
/ g,
Ġæ³° åħ´|
Ġåħ´ åĮĸ|
èĸ Ħ
ĠåĽº åİŁ|
ĠçĽĲ åŁİ|
ç¸ ½
Ġçł´ è§£
æ± º
Ġåĩ¯æĹ¶åĽ½éĻħ ç½ĳåĿĢ
Ġçģµå®Ŀ |
ĠéŁ¶ åħ³|
ĠçĻ¾èī² |
ł æ´²
ï½ ľ
çº¢ ç½ĳ
Ġæ³ī å·ŀ|
ĠæĹ¥ çħ§|
ĠéĿĴ å·ŀ|
Ġä¸´çĮ Ĺ|
Ġåįģ åł°|
Ġåı° å±±|
ĠèĤ¥ åŁİ|
Ġéķĩ æ±Ł|
Ġéĺ²åŁİ æ¸¯|
Ġå¾· æ¸ħ|
Ġäºĳæµ® |
Ċ 12
æ¸¸æĪı ç½ĳç«Ļ
Ġå®ļ å·ŀ|
Ġåĩ¯åıĳç½ĳåĿĢ app
æµ¦ åİ¿|
ï¼Į å·²
ĠéĤ¯éĥ ¸|
Ġå¾· å·ŀ|
Ġæĥł ä¸ľ|
ĠèĲį ä¹¡|
Ġé«ĺ å¯Ĩ|
ĠéĤ ³å·ŀ|
éĥ¨ è§Ĥåħīå±Ģ
Ġè®¸ æĺĮ|
Ġåģĥ å¸Ī|
Ġæ³¸ å·ŀ|
Ġè¥Ħ éĺ³|
Ġç¦¹ å·ŀ|
ĠE R
ĠçĭĹä¸ĩæĦıçĶ² è¥¿çĶ²
Ġæ¼³ å·ŀ|
Ġæ»¨ å·ŀ|
äºĨè§£ åĪ°ï¼Į
Ġ(æĸĩçĮ® )
Ġå®ľ æĺ¥|
Ġæµ· éĹ¨|
Ġä¸ľ åı°|
Ġæ±ī å·Ŀ|
Ġä¸´æ² Ĥ|
çķĻ ä¸ĭä¸Ģ
Ġä¸ľ èĲ¥|
Ġæ¢§ å·ŀ|
ĠèĤĩ åºĨ|
Ġå¤§ ä¸°|
/ å¥½è¿Ĳ
Ġæĸĩ æĺĮ|
Ġèİ± å·ŀ|
ä¸Ģ .äºĶåĪĨå½©
ĠçĥŁ åı°|
ä¸ľ å¸Ĥ|
Ġ365æ¸¸æĪı æ£ĭçīĮ
ĠèİĴ åİ¿|
Ġå·¢ æ¹ĸ|
Ġä¹Ĳ å±±|
Ġå§ľ åł°|
f ind
ĠèįĨ éĹ¨|
Ġåįļ ç½Ĺ|
£ åİ¿|
ĠåĶĲ å±±|
ĠæĿ¥ å®¾|
Ġé¡ ¹åŁİ|
ĠéĿĸ æ±Ł|
å·ŀ åİ¿|
ĠéĽħ å®ī|
Ġæŀ£åºĦ |
Ġæº§ éĺ³|
ĠåĲķ æ¢ģ|
Ġæ¸ħ è¿ľ|
Ġæĸĩ å±±|
Ġæ¡ĵ åı°|
Ġæ±ł å·ŀ|
Ġæĥł å·ŀ|
Ġæ³Ĺ éĺ³|
Ġæ¢ħ å·ŀ|
Ġåį³ å¢
ĊT ag
å¾ Ĳ|
Ġä¸ľ éĺ³|
Ġè´º å·ŀ|
Ġå¼ł åĮĹ|
ĠåĽĽ æĸ¹
Ġæ±Ł éĹ¨|
Ġæ·® åįĹ|
ĠçĽĬ éĺ³|
man bet
Ġå¹¿ æ±ī|
ĠçŁ³çĭ® |
Ġæĭī èĲ
Ġå®ī å²³|
Ġèĩª è´¡|
ĠèµĦ éĺ³|
ĠçĻ½ å±±|
èĤ ¥|
Ġç«ł ä¸ĺ|
Ġçİī æŀĹ|
ĠåıĮé¸Ń å±±|
Ġæ¸ħ å¾Ĳ|
Ġæ°¸ æĸ°|
è¿ Ī|
Ġæĸ° æ³°|
ĠéĴ¦ å·ŀ|
ĠçĻ½ åŁİ|
ĠO B
Ġçĳŀ å®ī|
æĸ ½|
Ġæ½ľ æ±Ł|
ĠæĻ¯å¾· éķĩ|
Ġä¸ĸæĿ¯æĬķæ³¨365 .tv
Ġèµµ åİ¿|
Ġéĵľ å·Ŀ|
Ġå»Ĭ åĿĬ|
è¿ ģ|
Ġå¹¿ åħĥ|
Ġè´µ æ¸¯|
è°ĥ çłĶ
ag 0226
Ġæ·Ħåįļ |
Ġæ²³ æºĲ|
Ġç§¦çļĩ å²Ľ|
Ġæµ· å®ģ|
Ġab out
ĠçŁ³æ²³ åŃĲ|
ï¼Į çľĭ
åı ī
æ±ł åİ¿|
å¤ļ åİ¿|
ĠéĤ¹ å¹³|
Ġæ·® åĮĹ|
Ġèİ±èĬ ľ|
Ġä»Ļ æ¡ĥ|
Ġä¸½ æ±Ł|
Ġæ¡Ĥ æŀĹ|
ĠæĬļ å·ŀ|
Ġå®ļ å®ī|
Ġå¦Ĥ ä¸ľ|
Ġæµİ æºĲ|
å®¤ 1
ĠåįĹ å¹³|
ĠéĦ¢ éĻµ|
ĠçĻ½éĵ¶ |
ĠX uite
k j
Ġæ¾Ħ è¿Ī|
Ġæ¹Ľ æ±Ł|
Ġä¸ĥåı° æ²³|
æħ ķ
ĠéĦĤå°Ķå¤ļ æĸ¯|
Ġçıł æµ·|
Ġå¿» å·ŀ|
Ġæĸ°æ² Ĥ|
Ġåħ¬ä¸» å²Ń|
Ċåıĳå¸ĥæĹ¶éĹ´: 2019-12
ĠæŃ£ å®ļ|
Ġæ»ģ å·ŀ|
Ġéĥ´ å·ŀ|
çĻ»å½ķ ä¸įä¸Ĭ
Ġçİī æºª|
Ġåľ° åĽ¾
Ġçĵ¦æĪ¿ åºĹ|
Ġé¡ ¹
Ġå®¿ è¿ģ|
Ġèĳ«èĬ¦ å²Ľ|
Ġå¤© éĹ¨|
ĠçģĮ äºĳ|
Ġå¨ģ æµ·|
Ġè¿Ĳ åŁİ|
Ġèĭį åįĹ|
Ġé¡º å¾·|
Ġå±¯ æĺĮ|
ĠäºĶå®¶ æ¸ł|
Ġå¸¸ å¾·|
ĠI R
Ċäº¤éĢļ éĥ¨è§Ĥåħīå±Ģ
Ġè¡¢ å·ŀ|
Ġæ°¸ å·ŀ|
== ==
Ġä¸ĩåįļä½ĵèĤ² APP
ĠæĺĮ éĥ½|
Ġå»º æ¹ĸ|
ĠæıŃ éĺ³|
ĠåķĨ ä¸ĺ|
å¥½ çī©
Ġå®ļ è¥¿|
Ġ3 åĪĨé£ŀèīĩ
Ġæµ· åįĹ|
Ġä¸¹ éĺ³|
ĠæľĶ å·ŀ|
356bet å®ĺç½ĳ
Ġäº ³å·ŀ|
çµ ¦
ĠèĲ¥ åı£|
ĠA X
ĠçĽĺ éĶ¦|
ĠåħŃçĽĺ æ°´|
Ġæ¡Ĳ åŁİ|
Ġè¯¸ åŁİ|
éĹ¨ å¸Ĥ|
é¸ ¡|
åĪ© åİ¿|
Ġé»Ħ åĨĪ|
èĵĿ æľĪäº®
Ġä¸¹ ä¸ľ|
Ġå®ī åĲī|
Ġèį£æĪĲ |
Ġæģ© æĸ½|
ĠéĶ¦ å·ŀ|
Ġèĵ¬ èİ±|
ĠåħŃ å®ī|
Ġå¹³åĩ ī|
ĠmainComment Count
ĠåįĹ éĢļ|
Ġå¹¿ å®ī|
Ġå®ģ åĽ½|
Ġå®ī åº·|
Ġ365æ£ĭçīĮæ¸¸æĪı ä¸ĬåĪĨ
Ġæ·® å®ī|
Ġåĺī åħ´|
Ġå®ī åºĨ|
ï¿½ r
Ġé»ĳ æ²³|
Ġä½Ľ å±±|
Ġè¾¾ å·ŀ|
è´¢ å¯Į
Ġå¹³é¡¶ å±±|
Ġæ±ķ å¤´|
Ġå®īåįĵ æīĭæľº
Ġä»ģ å¯¿|
Ġæī¬ å·ŀ|
Ġå®ģ å¾·|
ĠæŃ¦ å¨ģ|
Ġå¤§ çĲĨ|
Ġæ¹ĸ å·ŀ|
ĠæĢĢ åĮĸ|
ĠéĤ ¹åŁİ|
ĠæĭĽ è¿ľ|
ĠæĶĢæŀĿ èĬ±|
çĲ ¼
ĠåºĨ éĺ³|
Ġ Ā
ĠéģĤ å®ģ|
ĠäºĶæĮĩ å±±|
é¾Ļ å±±
èİ ŀ|
amp ;
Ġæ¦Ĩ æŀĹ|
ĠæĲ ŀ
Ġæŀ£ éĺ³|
Ġä½³æľ¨ æĸ¯|
ä¸Ń åı¤
Ġå¨Ħåºķ |
Ġæ¥ļ éĽĦ|
Ġçº¢ æ²³|
ĠagåĽ½éĻħäºļæ¸¸ æīĭæľºçīĪ
ĠçŁ³åĺ´ å±±|
ĠèİĨ çĶ°|
$("# resp
Ġæ³° å®ī|
Ġæ¿® éĺ³|
ĠçĦ¦ä½ľ |
Ġ' ';
ĠæĻĭ æ±Ł|
Ġéķ¿ åħ´|
éĶ ¡|
ĠæħĪ æºª|
åĬł å¿«
Ġä¸ľ èİŀ|
Ġ365æ£ĭçīĮ å®īåįĵçīĪ
æĢİä¹Ī æīĵä¸įå¼Ģ
Ġä¸´æ² §|
+365 .
Ġå¹³ æ½Ń|
Ġä¸īéĹ¨ å³¡|
Ġåįķ åİ¿|
Ġåĩ¯åıĳæ¸¸æĪı åľ¨çº¿æ³¨åĨĮ
Ġäºļåįļ yabo
Ġéĺ³ æ³ī|
Ġé¦Ĩ éĻ¶|
å®¶ çļĦ
Ġæĸ° ä¹¡|
æĺ¯ åĽ½å®¶çļĦ
åĵĪ å°Ķ|
Ġéŀį å±±|
Ġå®Ŀ é¸¡|
her e
Ġé¾Ļ å²©|
Ġæī¬ ä¸Ń|
Ċ å®ī
Ġåĳ¨ åı£|
ĠæĿ¾ åİŁ|
Ġæ»ķ å·ŀ|
æľīæķĪ æµģæ°´
ĠæĹł éĶ¡|
ĠçĲ¼ æµ·|
ĠåķĨ æ´Ľ|
Ġé½Ĳé½Ĳ åĵĪå°Ķ|
Ġéĵľ ä»ģ|
Ġæĸ° åĮĹ
Ġæµ· å®ī|
Ġå¨ģ å»īå¸Įå°Ķ
èį£ èĢĢ
Ġéĺ³ æĺ¥|
Ġå¦Ĥ çļĭ|
Ġ2019-11 -19
Ġæ±ī ä¸Ń|
Ġæľį åĬ¡
Ġåĩ¯åıĳé¦ĸé¡µ åľ°åĿĢ
ç¾İ ä¸½
ä¼ļ ï¼Į
ĠèĮĤ åĲį|
æĥ §
Ġä¸Ń å±±|
Ġä¿Ŀ å®ļ
ç¤¾ äº¤
ĠåĦĭ å·ŀ|
ĠæĽ ¹åİ¿|
Ġå¹¿ é¥¶|
Ġåĩ¯åıĳ ä½ĵèĤ²æĬķæ³¨
Ċ2017 -09
Ġk m
ï §
Ġè¡¡ æ°´|
çĶ¨ ç½ĳåĿĢ
ä½¿ åĳ½
Ġå®ī é¡º|
Ġç®Ģ éĺ³|
Ċ å¥½
ĠagæĹĹèĪ°åİħ å®¢æĪ·ç«¯ä¸ĭè½½
Ġä¸½ æ°´|
Ġæ±Ŀ å·ŀ|
Ġæ²Ń éĺ³|
Ċ æł
Ġæ±ķ å°¾|
Ġs c
ĠæĻĭ ä¸Ń|
æĹ¥ ãĢĳãĢĲ
ist rict
ĠåĴĮ åİ¿|
ĠO T
Ġ365æ£ĭçīĮæ¸¸æĪı å®ĺç½ĳ
Ġä¿¡ éĺ³|
Ġ$(" .
Ġéķ¿èĳ Ľ|
Ġä¸ī æ²³|
ĠæĦ Ł
ĠJ an
Ġéķ¿ åŀ£|
Ġçİī æłĳ|
ĠæĿŀ åİ¿|
è© ²
ĠåĨħ æ±Ł|
3 000
åİĨåı² ä¸Ĭ
è¾ Ľ
æ³¨åĨĮ éĵ¾æİ¥
ĠåŃĿæĦŁ |
ĠAnd roid
çļĦ ãĢĬ
Ġå®£ åŁİ|
Ġw eb
è¨Ĥ è³¼
Ġc omp
Ċ2019-10 -24
æł¼ è¾¾
ĠæĶ¹ åĪĻ|
ĠW B
Ġagçİ¯äºļ æ³¨åĨĮ
Ġéĥĳ å·ŀ
Ġæ¾³éĹ¨å¨ģå°¼æĸ¯äºº å®ĺç½ĳ
ĠåĽĽ å¹³|
éĶ ħ
Ġéĺ İ
Ġå¤© å±±
Ġä¸Ĭ çĬ¹
Ġè¨ Ĥ
ĠçĻ¾å®¶ä¹ĲçľŁäºº å®ĺæĸ¹ç½ĳåĿĢ
ä¹łè¿ĳå¹³ ä¸»å¸Ń
Ġé» ĺ
Ġæ½į åĿĬ|
ĠQ X
all y
èĲ¥ éĶĢ
æłĩ å¿Ĺ
ĠæŃ£è§Ħ æ£ĭçīĮ
åı°æ¹¾ å®ĺç½ĳ
ĠéĻĩ åįĹ|
u k
Ġå¹¿ å·ŀ|
ĠåĲī ç¥¥
Ġåı ¬
ç¿» è¯ĳ
ĠåĮĹ æĪ´
Ġam8äºļç¾İ åĽ½éĻħå®ĺç½ĳ
æīĭ ï¼Į
ĠO ct
Ĳ å¾ħ
ĠW X
ĠQ B
Ġv ip
éŁ ĵ
ĠèĮ ĦåŃĲ
åºĨ æĸ°éĹ»ç½ĳ
åľŁåľ° éĬĢè¡Į
æĺ¯ åĵªéĩĮçļĦ
Ġäºļæ¸¸å¹³åı° ä¸ĭè½½
åģļ å¥½
S e
çĤ ®
ä½ĵèĤ² ä¸ĭè½½
Ġåĩ¯åıĳ æīĭæľºçīĪä¸ĭè½½
æ¢ ¦|
ĠåįĹ æĺĮ
Ġåĺīå³ª åħ³|
æŀģéĢŁ å¿«3
ĠçĭĹä¸ĩ æ³¨åĨĮ
Ġ$("#resp wb
ĠXuite æĹ¥èªĮ
æİ§ èĤ¡
éħį åĲĪ
¾ åŃĲ
S c
åºĦ |
ĠåŁº éļĨ|
Ċ2020-02 -19
å¤ĸåĽ´ ç½ĳ
ĠèµĮéĴ± æ¸¸æĪıä¸ĭè½½
Ġä¸´ æµ·|
ĠçľŁäººèµĮéĴ± æ¸¸æĪıç½ĳåĿĢå¤§åħ¨
ï¼Į åĽł
éĬĢè¡Į åĢĭäººä¿¡è²¸
´ Ģ
ç³»ç»Ł ç»´æĬ¤
çĥ ĺ
çĤ İ
èģĮ åĬ¡
æľº åĪ¶
ate g
Ġæ²³ åįĹ|
u ild
ĠéĤ Ĺ
åĲ ¹
åİŁ ä½ıæ°ĳ
_app éĤĢè¯·çłģ
ãĢĤ æľī
è¡Į é©¶
ä»¥ åĨħ
æĺ¯ é»ĳ
çİ°åľº æ»ļçĲĥ
åĩº åľº
Ġåħ« è¾¾
çķ¶ èĪĸ
æĭ Ĳ
ĠW V
åĶ® åĲİ
Ġäºļæ¸¸éĽĨåĽ¢ æīĭæľºappä¸ĭè½½
S lot
Ġ5 åĪĨé£ŀèīĩ
am ily
k8 .com
( function
Ġ356bet å¼ĢæĪ·
çĻ» è®°
ĠK X
ĩ à¸
ä¸Ń å¤§å¥ĸ
ä¸² åŃĲ
åİ ¨
ï¿½ a
H ER
è·¯ |
çļĦ æĸ¹æ³ķ
Ġéĩĳ å±±|
åıĬ åħ¶
Ġå¤© æ±ł|
Ġè¯Ħè®º ï¼ļ0
¯éĥ ¸
Ġk8 å½©ä¹ĲåĽŃ
ä¸ŃåĽ½ å®ĺç½ĳ
Ã §
è§£ éĩĬ
Ġæ¿ ł
æī ĺ|
ä¾Ŀ çĦ¶
æ¹ ¿
Ġæŀ ľ
æł¼ å°Ķ|
è¦ĸ è¨Ĭ
æĹħ å®¢
åįķåıĮï¼ļ å¹¸è¿Ĳ
Ġag é¦Ĩ
Ġse t
Ġé»Ħ éĻ
Ġw ork
Ġçĵ ¯
é¾ĻèĻİ å®ĺæĸ¹ç½ĳç«Ļ
Ċæĸĩç«łæĿ¥æºĲï¼ļ SEO
Ġæµıè§Ī ï¼ļ
å¥³ åĦ¿
çºł çº·
ª æĥł
æ¿ Ł
åĳĨ èĲĿåįľ
ĠäºķéĻ ī
Ġc ontent
th or
åĬ ²
ĠY T
æľ¬ éĩĳ
Ġæ¾³éĹ¨ æ°¸åĪ©
Ġèĭı å®¶
Ġçİī å±±|
Ġ6 00
åľĺ è³¼
/ å¹¸è¿Ĳ
Ġä¸ľ æ¸¯|
ĠåĴĮæŀĹ æł¼å°Ķ|
ĠåįĹ æºª|
å®ī å¸Ĥ
æĢİä¹Īçľĭ æ¯ĶèµĽ
Ġå¼Ģ å¿ĥ
Ġ365ä½ĵèĤ²æĬķæ³¨ æ³¨åĨĮ
Ġ365æ£ĭçīĮ å®īåįĵ
Ġä¸ľ å¹³|
d y
éĽĨ åį¡
Ġä¸´ æ·
åıª èĥ½
Ġå®īåįĵæīĭæľº å¦Ĥä½ķ
æĻĵ æĸ°
Ġåı° åĦ¿
èĥĮ å¿ĥ
Ġå¤ ·
Ġ %
b lock
Ġæ¾³éĹ¨çĻ¾å®¶ä¹Ĳ ç½ĳåĿĢ
ĠPl us
ç¥ Ń
å®¡ çĲĨ
Ġæ²³ åı£|
åĽ½å®¶ å®īåħ¨
l ist
ï¼Į åį´
Ġæ»¡æ´² éĩĮ|
Ċ 11
è®¢ éĺħ
5 000
Ġåħ°èĢĥ |
åĵªä¸ªå¹³åı° å¥½
Ċ2018 :
Ġæ¸ħæ°´ æ²³|
-åįĥ èµ¢
éĽ» è©±
Ġurl :
ĠåĬł åħ¥
ĠèĻİ æŀĹ|
Ġå®ļ æĹ¥|
ï¼Į å°±æĺ¯
Ġè¾¾ åĿĤ
ĠäºĮ éģĵ
Ġn s
Ä ģ
æĢ» å±Ģ
Ġåº· å®ļ|
ĠåĪĨ åĪĨé£ŀèīĩ
Ġä¸ľ åħ´|
Ñ ı
ch ool
ç½¢ å·¥
Ġåħ´ éļĨ|
é«ĺ éĵģ
æ¹ ĺ|
ĠæĮ ĩ
ĠéĢļ å·ŀ|
èĲ¥ åŃĲ
éŃ ı
Ġåĩ¯æĹ¶åĽ½éĻħ åľ¨çº¿
ĠåĲĪ æ°´|
Ġæīĺåħĭ æīĺ|
ä»¤ äºº
ĠçīĻåħĭ çŁ³|
ĠéĤĹ æ±Ł|
( function(){
Ġæ²Ī ä¸ĺ|
ĠæŀĹ è¥¿|
Ġæµ· éĺ³|
å°± ä¸ļ
äº ķ|
Ġä¹ łæ°´|
åĺ ī|
é¹ °
çĽ¸ äºĴ
åł ¡|
Ġæ¶ŀ æºĲ|
Ġåħ¬ å®ī|
Ġæ¡Ĥ ä¸ľ|
æ¶ĵ ï¿½ï¿½
åĴĸ åķ¡
Ġè¯ı å®ī|
ĠK R
ç½ĳç«Ļ å¼ĢæĪ·
åĨ² çªģ
Ġä¸´ æ¹ĺ|
Ġæ¡ĳ æ¤
Ġå°¤ æºª|
ĠåĮĹ å®ī|
Ġå¯Įèķ ´|
Ġå¹³ å®ļ|
Ġé¾Ļ åįĹ|
Ġäºĳéľ Ħ|
å·® ä¸įå¤ļ
Ġæĸ¹ å±±|
å¸ĥ åħĭ
Ġ2 åĪĨé£ŀèīĩ
rou nd
Ġå¹³åº¦ |
ĠçĽĺ å±±|
Ġå°ļ ä¹ī|
Ġçİī çĶ°|
Ġå·´å½ ¦|
ĠæŃ¦éĻ Ł|
å°º å¯¸
ĠèİĴ åįĹ|
Ġæĥł æ°ĳ|
Ġæ°¸ æĺ¥|
ĠæĹ¥æľŁ ï¼ļ
Ċç¬¬ äºĮ
Ġæ°¸ å·Ŀ|
Ġæĸ° åĮĸ|
Ġè¥¿ åħħ|
Ġä¹Į å°Ķ
æī¹ åĩĨ
Ġå½©ç¥ŀ 2
è¾ °|
è¦ ģ|
Ġå®ģ åįĹ|
Ġåĳ¨ èĩ³|
se arch
Ġæ¡ĳæ¤ į|
Ġå·© çķĻ|
Ġä¾Ŀ åħ°|
Ġéĩį åºĨ|
Ġä¸¹ å¾Ĵ
Ġæĸ° æ²³|
Ġåı¤ åİ¿|
Ġé»ĳ é¾Ļ
Ġçĳŀ ä¸½|
Ġä½³ åİ¿|
Ġå¤§ åŁİ|
Ġæ´ª æ³½|
Ġè´¡ åĺİ|
Ġéĥĵ åŁİ|
ĠæĿ¥ å®ī|
åĸ ľ|
Ġä¸ľ å·Ŀ|
ĠæĻ¯ æ³°|
Ġå°¼åĭĴ åħĭ|
Ġèµ¤ åŁİ|
çľĭ å®Ī
Ġå¯Łéļ ħ|
ĠäºķéĻ ī|
Ġæ¡ĥ æ±Ł|
åĮº åĪ«
ĠéľįæŀĹéĥŃ åĭĴ|
Ġéķĩ åº·|
Ġæĸ° å¹²|
å¨ģ å°Ķ
Ġå®ļ è¿ľ|
Ġæ²³ æĽ²|
ç¿ Ķ|
æŀ ģ|
ĠéĶ¡æŀĹ æµ©çī¹|
Ġæ¢ħ åİ¿|
ĠéĤĵ å·ŀ|
Ġæ²Ĥ æºĲ|
Ġåħĥ æ°ı|
Ġéķ¿ å²Ľ|
ĠæŃ¦ å·Ŀ|
ĠæĺŃ è§ī|
Ġè£ķ æ°ĳ|
Ġå·´æ¥ļ |
Ġç«ĭåį³ ä¸ĭè½½
Ġæ³Ĭ å¤´|
Ġè¿ŀ åŁİ|
çĽ ĸ|
Ġéº» æ±Ł|
ĠåįĹ éĿĸ|
Ġäºļç¾İæ¸¸æĪı çĻ»å½ķé¦ĸé¡µ
æĭ Ĳ|
Ġå¹³ éģ
Ġç£´ åı£|
Ġå¤§ åħ³|
Ġå¢ ŀåŁİ|
Ġæ±¾ è¥¿|
Ġéº¦çĽĸ æıĲ|
Ġå§ĭ åħ´|
å¼º çĥĪ
Ġå¹³ è¿ľ|
Ġå¯Įè£ ķ|
Ġå¹³ åĪ©|
Ġéĩĳ ä½Ľ
à ¥
ĠçĽĲ æºĲ|
æĬ¥ è®°èĢħ
Ġä¹Ŀ åı°|
Ġå®ī åĮĸ|
Ġå¤§ æĸ°|
ĠæĹ¬ éĤĳ|
Ġæ²Ĥ åįĹ|
Ġæ°¸ éĿĸ|
æĹ¶æĹ¶å½© èµ°åĬ¿åĽ¾
Ġéķ¿ ä¸°|
Ġå´ĩ å·ŀ|
Ġèĭ¹æŀľ æīĭæľº
è¶ ³|
ĠéĽ· æ³¢|
Ġä½Ļ å¹²|
Ċæĸ° äº¬æĬ¥
Ġå®ī å¤ļ|
Ġåħ¨ å·ŀ|
ĠåįĹ éĥĳ|
Ġäºļç¾İåĽ½éĻħ app
Ġæµ¦ æ±Ł|
ĠçŁ³ æ³ī|
Ġç²¾ æ²³|
Ġé»ĦéĻ Ĥ|
æ² ĥ|
Ġæµ łæ°´|
ĠåįĹå®« |
Ġå¹³ å±±|
ĠæŃ¦ å¼º|
Ġè¥¿ å³°|
Ġæ»¨ æµ·|
Ġå®ģ éĥ½|
Ċèħ¾è®¯ æĸ°éĹ»
Ġæ°¸ å®ļ|
Ġå¡Ķ æ²³|
Ġä¹Įæģ °|
ĠçŁ³ æĭĲ|
Ġå¹³ éĺ³|
Ġç»¥èĬ¬ æ²³|
Ġæ´Ľ åįĹ|
Ġæµĳ æºĲ|
Ġé»Ħ å±±åĮº|
Ġæµ· åİŁ|
Ġä¸´æľ Ĳ|
Ġåĩ¤ åºĨ|
ĠåĲī åİ¿|
Ġä¼Ĭ å·Ŀ|
ĠçŁ³æ¥¼ |
Ġæ¯Ķå¦Ĥ |
Ġæ½¢ å·Ŀ|
Ġå·´ å¡ĺ|
Ġä¸° é¡º|
ĠæĻ¯ åİ¿|
Ġéĺľ åįĹ|
Ġæµ· ä¼¦|
æīĵ å·¥
ĠåĵĪå·´ æ²³|
æĹ §|
Ġæ´ŀ åı£|
Ġæł¾ å·Ŀ|
Ġå®ī åĽ½|
Ġäºļæ¸¸ çĻ»éĻĨ
Ġé»İ å¹³|
Ġå®ļ éĻ¶|
Ġç¦Ħ ä¸°|
Ġå»¶ å¯¿|
ĠéŁ© åŁİ|
ĠåºĲ æ±Ł|
Ġç¹ģå³ Ļ|
ĠæĽ² æ²ĥ|
Ġå¯Į éĺ³|
Ġå¢¨ çİī|
Ġç£Ĳ å®ī|
Ġåĩī åŁİ|
ĠéĺĨ ä¸Ń|
Ġæ¶ łæ´²
Ġå»º éĺ³|
ç¡ ķ|
Ġä¹Į èĭı|
æ¸¸æĪı ç½ĳ
å¾ħ å¤ĦçĲĨ
ol id
ĠçŁ³æ£ ī|
ä½ĵéªĮ åį¡
ĠçĽĲ è¾¹|
ĠæĺĮ ä¹Ĳ|
ĠO X
å¾ ģ|
ĠåķĨ åŁİ|
ĠèĤ¥ ä¹¡|
Ġæ±Ł å¤ı|
Ġå¤§çŁ³ æ¡¥|
ĠçĿ¢ åİ¿|
ĠæĹł æŀģ|
Ġæ°¸ å¾·|
ĠèĮĮ å¹³|
Ġæ°ĳ ä¸°|
éĺ³ åħī
Ġæ¸ĳ æ±ł|
Ġæ³¾ åİ¿|
ĠæŃ¦ éĻµ
Ġéĥ§ è¥¿|
Ġä½ľèĢħï¼ļ admin
Ġç«¹ æºª|
Ġå®ģ å®ī|
Ġæ³¸ åİ¿|
ĠæĿŃ å·ŀ|
Ġæ±Ł æ°¸|
Ġæĸĩ æ°´|
Ġéķ¿ é¡º|
Ġå»º å¹³|
Ġç¨» åŁİ|
Ġåħī æ³½|
Ġå¤¹ æ±Ł|
ä¸į éĶĻ
ĠåĴĮ é¡º|
ĠèĤĩ æºĲ|
ĠèĬ± åŀ£|
Ġå¤ı æ²³|
Ġå²³ è¥¿|
ĠéĽĨ å®ī|
ĠçĲ¼ ç»ĵ|
Ġä¿Ŀ å¾·|
Ġä¸´ æŃ¦|
Ġé«ĺ å·ŀ|
t ion
ĠåĲĪ èĤ¥|
Ġä»Ļ æ¸¸|
ĠåĲĪä½ľ |
Ġé¾Ļæ³ī é©
åĩ Į|
Ġç¦ı æ¸ħ|
ĠåķĨ æ²³|
Ġæ¸© æ±Ł|
Ġå®ģ åİ¿|
Ġä»» åİ¿|
Ġåħ ĸå·ŀ|
çĮ ľ|
æ° ı
ĠåķĨ åįĹ|
ĠèĴĻ å±±|
Ġä»ªéĻĩ |
Ġåħ° è¥¿|
ĠæŁĺ åŁİ|
Ġæ³ķ åºĵ|
Ġæ²ħ æ±Ł|
Ġèµ£ æ¦Ĩ|
ĠéĹ» åĸľ|
Ġç¾İå§ ĳ|
Ġå´ĩ éĺ³|
Ġæ³¸ å®ļ|
ĠçĽ ĸå·ŀ|
ĠæŀĹ çĶ¸|
ĠèĲ¥ å±±|
ĠæŁ³ æŀĹ|
Ġé¹¿ éĤĳ|
Ġæľ¨ åŀĴ
ĠåĬłæŁ¥ |
Ġè¥¿ æĺĮ|
Ġä¹Ĳ èĩ³|
Ġæ¶ŀ æ°´|
Ġçİ¯äºļå¨±ä¹Ĳag 88
Ġéĥ½æ±Ł åł°|
Ġå·§å®¶ |
Ġéĺ³ æĸ°|
éĺ ¿|
Ġçº³éĽ į|
å®¤1 åİħ
ĠåĩĮ æºĲ|
ä½£ éĩĳ
Ġæĥł éĺ³|
ĠåµĬæ³ Ĺ|
Ġåı¥ å®¹|
Ġé«ĺ è¦ģ|
Ġä¸Ńçī Ł|
Ġä½Ľ åĨĪ|
Ġå¤§ ä½Ļ|
æŃ£è§Ħ ç½ĳåĿĢ
Ġè°· åŁİ|
æĿ Ń|
Ġçĭ¬ å±±
Ġæĸ° æ´²|
Ġéĩĳä½Ľ å±±|
Ġé¾Ļ æµ·|
Ġæ°¸ å¹³|
Ġå¤ª åĴĮ|
Ġä¸´ æ±Ł|
.h ref
Ġæķ¦çħ Į|
Ġæ¨Ł æłĳ|
Ġç»¥ æ±Ł|
ĠåĬł æł¼è¾¾
Ġå¾Ĳ æ°´|
ĠåĩĮ æµ·|
ĠåĨħ ä¹¡|
Ġå¿» åŁİ|
ĠåıĮ å³°|
ĠåĮĹ æµģ|
Ġåįİ å®¹|
ĠåķĨ éĥ½|
Ġåı¶ åŁİ|
Ġå«© æ±Ł|
Ġå®ľ ç«ł|
Ġç¡® å±±|
Ġæĸ¹æŃ£ |
Ġå¹³éģ ¥|
Ġåĺī ç¥¥|
ĠçĻ½ çİī|
å¯ °
Ġæĺİ æºª|
Ġèĵ¬ å®ī|
ä¾¿ åĪ©
Ġä¸Ĭ æµ·|
Ġéķ¿ åŃĲ|
Ġé»Ħ å¹³|
Ġå»¶ åĲī|
ĠéĿĴ åĨĪ|
ĠçĭĹä¸ĩ å®¢æĪ·ç«¯
Ġæģ© å¹³|
æĸ¹ ç±³
ĠéĿĴ å²Ľ|
Ġåĩ¤ åŁİ|
Ġæ±Łæ²¹ |
Ġçģµ å±±|
Ġæ°¸ å¹´|
Ġèµŀçļĩ |
Ġå´ĩ ä»ģ|
Ġæŀŀ éĺ³|
ĠåĮĹ è¾°|
Ġè¥¿ å®ī|
ĠæĢĢ è¿ľ|
Ġéķ¿ å®ģ|
Ġå®Ŀ åħ´|
Ġæ¸© æ³ī|
Ġä¼ĳ å®ģ|
Ġæ¢ĵ æ½¼|
ĠéļĨ å®ī|
ĠèĮĥ åİ¿|
Ġè¥¿ å¹³|
8 7
Ġäºĳ é¾Ļ|
Ġå¤ª åº·|
ĠçĲĨ å¡ĺ|
ĠåİŁ å¹³|
Ġè¿ģ å®ī|
Ġä»ģ åĮĸ|
Ġæ±Ł å®ī|
Ġé¾Ļ å·ŀ|
ĠåĶĲ æ²³|
Ġåħĭ ä¸ľ|
ĠéĤ ķå®ģ|
Ġéķ¿ æ³°|
Ġå®¾ å·Ŀ|
Ġå¯Į æ°ĳ|
ĠçŃĸ åĭĴ|
ĠåįļçĪ± |
Ġé¾Ļ å·Ŀ|
Ġè¾¾åĿĤ åŁİ|
éĺ ľ|
Ġå»¶ åºĨ|
Ġéĥ¸ åŁİ|
Ġå®¾ åİ¿|
ĠçĽĳ åĪ©|
Ġè¾½ ä¸Ń|
Ġæ¡Ĳæ¢ ĵ|
Ġä¸ª æĹ§|
Ġæ¢ģ å±±|
Ġé¾Ļ æ¸¸|
ĠéĴŁ å±±|
ĠéĢļ æ¦Ĩ|
ĠåįĹæ±ĩ |
Ġå¸Ī å®Ĺ|
Ġé«ĺ åı°|
Ġä¿¡ ä¸°|
ĠåºĨ åħĥ|
Ġä¸ľ éĺ¿|
ĠéĻĩ å·Ŀ|
ä¼ ĳ|
Ġç¥ģ ä¸ľ|
Ġå¾· æ±Ł|
Ġæ¾Ħ æµ·|
Ġå½Ń å·ŀ|
ĠèĪĴ åħ°|
Ġç¨· å±±|
Ġä»ª å¾ģ|
Ġè¾ īåİ¿|
Ġä»İ æ±Ł|
Ġåħĭ å±±|
ĠæĺĮ åĽ¾|
Ġåĩ¯åıĳå®ĺç½ĳ åĿĢ
Ġéľį å·ŀ|
Ġæµ· æŀĹ|
ĠåĨĮäº ¨|
Ġåīĳ å·Ŀ|
Ġæ¡¦ åįĹ|
ĠæŃ¦ è¿Ľ
Ġä»£ åİ¿|
Ġåĩ¤ ç¿Ķ|
Ġä¸ľ æĺİ|
Ġæ»¦ åİ¿|
ĠæĿ¨ åĩĮ|
Ġé¾Ļ æ³ī|
Ġç¦ı æµ·|
çļĦ ä¸ŃåĽ½
Ġè¿Ľ è´¤|
Ġæ±ª æ¸ħ|
Ġä¹Ĳ éĻµ|
Ġç±»ä¹Įé½Ĳ |
Ġæ³° é¡º|
Ġé¹¤ åºĨ|
Ġçłļ å±±|
Ġå»ºçĵ ¯|
ĠO P
Ġå®ī æ³½|
ĠçŁ³ åŁİ|
é¦Ļ èķī
ĠåĲĮ å¾·|
Ġæ¾Ħ åŁİ|
ĠéĩĳåłĤ |
Ġå¹¿ ä¸°|
éĢĢ ä¼ĳ
Ġèĭ± å±±|
Ġäºļç¾İæ¸¸æĪı ä¼ĺæĥłå¤ļä¸ĢçĤ¹
Ġå½ĵ éĽĦ|
ĠæĻĭ å®ģ|
Ġæĸ½ç§ ī|
Ġäº¤ åŁİ|
Ġå½ĵæ¶ Ĥ|
Ġä¹Į ä¼Ĭ
Ġå¹³ ä¹Ĳ|
Ġæī¶ é£İ|
Ġæ±ī éĺ´|
å©´ åĦ¿
Ġå¾ĲéĹ» |
ĠèµĦ æºª|
Ġå½Ŀ èī¯|
Ġä¸° åŁİ|
Ġå¾· åĮĸ|
Ġéĺľ å®ģ|
Ġåħ´ åĴĮ|
Ġå¼Ģ æ±Ł|
Ġæ¢ģ æ²³|
Ġé¥¶ éĺ³|
Ġéĩĳ å·Ŀ|
è¾ ī|
Ġç«Ļ éķ¿
Ġæł¾ åŁİ|
Ġåħ´ æĸĩ|
Ġå¹¿ å®ģ|
ĠåŁİ åı£|
Ġå±ı åįĹ|
Ġä¸´æ² Ń|
ĠæĽ² éĺľ|
Ġåħ´ ä¹ī|
Ġè¥¿çķ ´|
Ġå¤§ éĤĳ|
Ġæ´Ľ éļĨ|
Ġé¸¡ æ³½|
Ġæ·® æ»¨|
ĠçĶĺ æ³ī|
Ġå°Ĩ ä¹Ĳ|
Ġç»¥ æ£±|
Ġå¼ĭ éĺ³|
Ġå½Ń éĺ³|
Ġè¥Ħ åŀ£|
Ġåį¢ æ°ı|
Ġéĥ½ æĺĮ|
åĨ ľ|
Ġæ°¸ èĥľ|
ĠçŁ³ å±ı|
Ġæ±Ł æ´¥|
ĠæľĽè° Ł|
åĩ °|
Ġæ³° æĿ¥|
Ġè´º åħ°|
ĠæŃ¦ éĥ½|
Ġæ¹Ħ æ½Ń|
Ġéķ¿ æ¸ħ|
çĥ ¦|
Ġè½® åı°|
Ġåŀ« æ±Ł|
Ġåįļ åħ´|
Ġè¾¾ æĹ¥|
Ġåĳ¼åĴĮ æµ©çī¹|
å¿«3 èµ°åĬ¿åĽ¾
Ġç»µ ç«¹|
Ġéĺ³ åŁİ|
Ġæ©Ł è»Ĭ
Ġé«ĺç¢ĳ åºĹ|
ĠçİĽçº³ æĸ¯|
Ġåħ´ æµ·|
Ġæ²¾ çĽĬ|
ĠæľĽ éĥ½|
Ġå¯Į æºĲ|
Ġéĺ¿åĲĪ å¥ĩ|
ĠåĮĹ å®ģ|
Ġç½Ĺ å¹³|
ĠåĭĲ æµ·|
Ġç´¢ åİ¿|
Ġåĳ¼åĽ¾ å£ģ|
ĠæŀĹ åı£|
ĠæŃ¦ ä¹¡|
Ġä¹Ĳ å®ī|
åħĭ æĸ¯|
ĠèĴĻ éĺ´|
Ġå®ī ç¦ı|
Ġäºĳ æ¢¦|
ĠæĪĲ æŃ¦|
Ġæĸ° çĶ°|
ĠåĮĹäº¬ |
Ġéĥ «åİ¿|
Ġå²ĳ æºª|
ĠéĢļ æµ·|
Ġæ²¾ åĮĸ|
Ġå®ī åİ¿|
Ġä¸ī éĹ¨|
ĠæŁĺ èį£|
ĠåįĹ æµ·|
Ġå¤ļ ä¼¦|
Ġéģĵ åİ¿|
Ġå¹³ ç½Ĺ|
Ġæ°¸ å®ī|
ĠéĿĸå®ĩ |
ĠèµĦ ä¸Ń|
Ġæ¼³ æµ¦|
ĠèĤĩ ä¸ľ|
Ġå¹³ å®ī|
Ġç¢Į æĽ²|
Ġéķĩ åİŁ|
ĠéĿĴ éĺ³|
Ġå¹³ åĴĮ|
ĠåĪĨ å®ľ|
ĠæŁ¯ åĿª|
ĠåĲ´ æ¡¥|
Ġå½Ń æ³½|
Ġå¤§ åħ´|
Ġæ¶Ł æ°´|
Ġå½Ń å±±|
ĠéĵģåĬĽ |
Ġç»¥ ä¸Ń|
Ġå®ľ å·ŀ|
Ġæ³½æĻ® |
Ġå®ľ åħ°|
Ġä¹Įé²ģæľ¨é½Ĳ |
Ġå¤§ è¶³|
Ġæ·± æ³½|
Ġçģµ å¯¿|
Ġå¯Ł å¸ĥæŁ¥
Ġå®ģ éĺ³|
ĠçĽ±çľ Ļ|
Ġæĸ°ç» Ľ|
Ġä¸¹æ±Ł åı£|
ĠæŃ¦å®£ |
Ġåį³å¢ ¨|
Ġåµ© æĺİ|
Ġæ±ī æºĲ|
Ġèĥ¶ å·ŀ|
Ġç©Ĩ æ£±|
Ġç¥ŀ æ±ł|
Ġè¥¿ ä¸°|
Ġå¹¿ æĺĮ|
Ġæ°¸ é¡º|
Ġå¹³ åįĹ|
ĠæŁ³ æ±Ł|
Ġæ» ĳåİ¿|
Ġæ´ª æ±Ł|
Ġä¸¹ åĩ¤|
Ġä¸´ åŁİ|
Ġçģµ åı°|
Ġä»ĭ ä¼ĳ|
Ġåĩ¯åıĳæīĭæľº çĻ»å½ķ
ĠèµĦ åħ´|
Ġå°¼ æľ¨|
Ġå»¶ æ´¥|
ĠåĨ·æ°´ æ±Ł|
ĠåºĶ åŁİ|
Ġç¥ģ éĺ³|
Ġæ¾Ħ æ±Ł|
Ġéľį å±±|
ĠèįĶ æµ¦|
ĠèĵĿ çĶ°|
Ġå¼Ģ å¹³|
Ġä¸¹ å¯¨|
Ġä¸Ķæľ« |
Ġäºĳ éĺ³|
Ġå¾· å®ī|
Ġé«ĺ åİ¿|
Ġä¼½ å¸Ī|
ĠåĴĮæĶ¿ |
Ġå¨Ħ çĥ¦|
Ġç¦ı å·ŀ|
ĠåĲ´ èµ·
ĠèĪŀ éĺ³|
Ġé¾Ļ éĹ¨|
ĠåĳĪ è´¡|
Ġæĥł åĨľ|
Ġå¹³ éĻĨ|
Ġå¯Į åİ¿|
Ġæĭľ åŁİ|
Ġæģ¯ åİ¿|
Ġå·¦ æĿĥ|
Ġå®ī ä¹ī|
ĠæĢĢ ä»ģ|
Ġä¸´æ¡ Ĥ|
Ġå¤ª çĻ½|
Ġäº¤ åı£|
Ġæ¦ķ æ±Ł|
Ġè´µ æºª|
ĠåĲĮ æ±Ł|
ĠèĪŁ æĽ²|
Ġå°Ħ éĺ³|
Ġå¥ī è´¤|
Ġéĵħ å±±|
Ġæ²» å¤ļ|
Ġå®ī æĸ°|
ĠåįĹæľ¨ æŀĹ|
ĠçĲĨ åİ¿|
Ġä¼ļ æĺĮ|
ĠåĲ« å±±|
Ġèĵ¬ æºª|
Ġæ°¸ åĸĦ|
ĠçĶ° éĺ³|
Ġæµ® å±±|
Ġè´µ å®ļ|
ĠåĴĮéĿĻ |
ĠåŁº éļĨ
ĠåĲīæľ¨ä¹ ĥ|
ĠçĽĲ éĥ½|
Ġå¼Ģ é²ģ|
ĠæŃ¦ å¹³|
Ġä¹¾ å®ī|
Ġæĭī åŃľ|
ĠçĬį ä¸º|
èĭĹ åĨĽ
Ġå¯» ä¹Į|
Ġæĸ° ä¼ļ|
ĠåĽº éĺ³|
Ġæĸ° æ°ĳ|
ĠéĿĻ æµ·|
Ġä¸´ æ³ī|
Ġå®¿ æĿ¾|
ĠåįĹ ä¸¹|
Ġå®ģ æ´¥|
i èĭĹåĨĽ
Ġé«ĺ éĻµ|
Ġå¹³ åİŁ|
Ġç½Ĺ çĶ¸|
Ġåħ± åĴĮ|
Ġé¹¤ å±±|
ĠæĻ® å®ļ|
Ġé«ĺæ· ³|
Ġç¦ı æ³ī|
Ġèķī å²Ń|
ĠéĽ· å±±|
Ġå°ī æ°ı|
Ġé«ĺ å®ī|
Ġå¯Į å¹³|
ĠåįĹåı¬ |
Ġåħ´ åİ¿|
ĠæĻ®åħ° åºĹ|
Ġéĺľ å¹³|
Ġæµ ļåİ¿|
Ġæ²Ļ éĽħ|
Ġä¸´ æ³½|
Ġæĸ°åŁİ åŃĲ|
Ġç±³ æ³ī|
Ġæĸ° åħ´|
Ġæĺİ åħī|
Ġæ´® åįĹ|
ĠæŃ¦åĬŁ |
Ġé«ĺ éĤĳ|
Ġ5 åĪĨæİĴåĪĹ3
Ġæ¸ łåİ¿|
ĠèĻ ŀåŁİ|
Ġä½Ļ æ±Ł|
Ġå²± å±±|
Ġæ¡Ĳ æŁı|
Ġä¸´ å®ī|
Ġéĩĳ å¯¨|
é¼ ĵ|
Ġæ¼ł æ²³|
ĠåįĹ å·Ŀ|
Ġèĭ±åĲī æ²Ļ|
Ġå¹³ è°·|
Ġåı¤ æµª|
ĠåĲĮå¿ĥ |
Ġæ±¶ ä¸Ĭ|
Ġèĭįæ¢ §|
Ġå¡Ķ ä»Ģåºĵå°Ķ
Ġå®Ŀ æ¸ħ|
ĠçĻ½ æ²³|
Ġé©¬ å±±|
ĠéļĨ åŃĲ|
Ġåįİ éĺ´|
ĠçīŁ å¹³|
Ġçĳŀ éĩĳ|
Ġé¥¶ å¹³|
ĠåıĮ æµģ|
ĠåĽĽ ä¼ļ|
å¤© ä½ĵèĤ²
ĠåĨĢ å·ŀ|
Ġæĸ° åİ¿|
Ġæ²ĻåĿª åĿĿ|
Ġçģµ å·Ŀ|
Ġåĩ¤ åİ¿|
Ġæ°¸ åĲī|
Ġç´« éĺ³|
ĠæŃ¦ç© ´|
ĠæĿ¾ æºª|
Ġå®ļè¥Ħ |
Ġéľį åŁİ|
Ġå¤ı åİ¿|
Ġå¤©å³ ¨|
Ġå®ģéĻ ķ|
ĠæŃ¦ æ±ī|
Ġç»ĩ éĩĳ|
Ġäºİ çĶ°|
Ġè¿ģ è¥¿|
Ġåįİ äºŃ|
Ġä¸´ è¥¿|
ĠåĶĲ æµ·|
Ġéĩĳ å¡Ķ|
Ġå¯Į å®ģ|
Ġè´µ å¾·|
èħ Ĭ|
Ġä¸ī åİŁ|
Ġæĸ° æ´¥|
Ġå´ĩ ä¿¡|
Ġåĩ¤ åĩ°|
~ ~
å¯ «
Ġèĥ¶ åįĹ|
ĠéĹ¨å¤´ æ²Ł|
Ġå®ī æºª|
Ġåį¢ é¾Ļ|
Ġä¸ĬæĢĿ |
ĠéĤ£ åĿ¡|
Ġä¸´ æ¼³|
ĠåįĹ åİ¿|
ĠèĢģ æ²³åı£|
ĠéĿĴéĵľ å³¡|
Ġæ±Ł éĺ´|
éģĩ åĪ°
Ġå®ģ æ²³|
ĠæĢĢ éĽĨ|
Ġæ¦Ĩç¤¾ |
Ġç¦ı å®ī|
ĠæĪ¿ åİ¿|
Ġå®ī åĽ¾|
Ġå®ľ èī¯|
ĠèĶ ļåİ¿|
Ġçļ® å±±|
Ġç¤¼ æ³ī|
Ġå¹¿ æ²³|
Ġé»Ħæ¢ħ |
Ġéķ¿ ä¹Ĳ|
Ġéĥ ıåİ¿|
Ġæĸ¹ åŁİ|
Ġä¸ľ èĥľ|
æŀ Ŀ|
åľ ª
Ġé±¼ åı°|
Ġæ±Ł éĥ½|
Ġä¼ļ çĲĨ|
Ġæĸ° ä¹Ĳ|
Ġæ±Ł åı£|
è° ĭ|
ĠæĸĹ éĹ¨|
Ġç¥¥ äºĳ|
Ġåı¤ çĶ°|
Ġä¸´ æ¸ħ|
ĠåĮĹ ç¥¨|
ĠæĽ² åĳ¨|
ĠæŃ¦ æ¸ħ|
Ġå¯Į é¡º|
ĠäºĶ å¯¨|
Ġçģµ æŃ¦|
Ġ1 åĪĨé£ŀèīĩ
Ġå¼Ģ åİ¿|
é¼ İ|
Ġå¹³ æĺĮ|
Ġä¸Ń æ±Ł|
ĠæŁŀ æ°´|
ĠåŃŁ å·ŀ|
Ġå»º å®ģ|
ĠèĬ® åŁİ|
Ġå®£ æ±ī|
ĠçłĢ å±±|
Ġé½Ĳ æ²³|
Ġæł¹ æ²³|
ĠçĶĺ å¾·|
ĠåįĹ éĥ¨|
ĠèĬ± éĥ½|
Ġä¼ĬåĲ ¾|
Ġä¸¤ å½ĵ|
Ġåįĥ éĺ³|
Ġè¡¡ ä¸ľ|
Ġéĺ³ é«ĺ|
Ġå¯Ĩ å±±|
ĠéĴŁ ç¥¥|
Ġå±± éĺ³|
Ġéľ¸ å·ŀ|
Ġåº· ä¹Ĳ|
ĠæĹºèĭ į|
Ġéĺľ åŁİ|
ĠæĬļ è¿ľ|
Ġè¥¿ åĴĮ|
Ġèĭį å±±|
Ġåįİ åİ¿|
Ġå®ģ åŁİ|
Ġéķĩ åĿª|
Ġåħ īå±±|
Ġé»ĳ æ°´|
Ġå®ī ä¹¡|
Ġè¥¿ åįİ|
Ġæ¡¦ å·Ŀ|
ĠèĬ¦ å±±|
Ġä¼ļ ä¸ľ|
Ġé¡º å¹³|
ĠéĿĴ æ²³|
Ġé¡º ä¹ī|
Ġå°ģ ä¸ĺ|
Ġè±¡ å·ŀ|
Ġå®ģ ä¹¡|
çĽĹ çīĪ
ĠåįĹæ¾³ |
ĠåįĹ ä¸°|
Ġä¼ļåĲĮ |
Ġæ±Ł å·Ŀ|
Ġå¹³ æ±Ł|
Ġæ¸ħ æ°´|
Ġæ³¾ æºĲ|
Ġç±³ æŀĹ|
ĠçģĮ éĺ³|
Ġæī¶ æ²Ł|
Ġéĺ³ ä¿¡|
ĠçĽĲ æ´¥|
Ġä¸Ĭ èĶ¡|
Ġ2 åĪĨå½©
Ġèķ ²æĺ¥|
Ġæ²³éĹ´ |
ĠéĽĦ åİ¿|
ä¾ ¯|
Ġéķ¿ å²Ń|
ĠåĽº å§ĭ|
Ġå¾· æł¼|
Ġéķĩ å·´|
Ġå®ľ åħ´|
Ġæ¾ §åİ¿|
ĠåĿ Ĭ
ĠçĶ³ æīİ|
Ġéĩĳ æ²Ļ|
Ġå¹³ éĤĳ|
Ġåħ´ å¹³|
Ġéĺ³ å±±|
Ġå®¾ éĺ³|
Ġå¾· ä¿Ŀ|
ĠéĿĴç¥ŀ |
Ġåº· å¹³|
æĳ Ĩ
Ġç¦ ¹åŁİ|
Ġåŀ£ æĽ²|
ĠèĤ¥ ä¸ľ|
Ġæ¢ģ å¹³|
ĠåŃĲ æ´²|
Ġç¥ģ éĹ¨|
Ġåºľ è°·|
ĠäºĶå¸¸ |
ĠéĶĻéĤ£ |
Ġä¹Ĳ éĥ½|
Ġçı Ļåİ¿|
Ġæ°¸ä¿® |
ĠåĭĲ èħĬ|
ĠçŁ³ é¦ĸ|
Ġä¾Ŀ å®ī|
Ġç¦» çŁ³|
ĠåħŃ æŀĿ|
ĠåįĹ ä¹Ĳ|
ĠéĻĨ èī¯|
Ġè¥Ħæ¨ Ĭ|
Ġèį£ åİ¿|
Ġåºĵ è½¦|
Ġéķĩ è¿ľ|
Ġå¤© æŁ±|
Ġæ°¸ æĺĮ|
Ġæ·³ å®ī|
ĠçĽ Ĥåİ¿|
Ġåĭĥ åĪ©|
Ġæ¸ħ ä¸°|
ĠæĶ¿ åĴĮ|
Ġæģ¯çĥ ½|
è¡ Ĺ|
Ġä¹Į ä»Ģ|
Ġä¸ģ éĿĴ|
ĠæĭīèĲ ¨|
ĠåºĨ å®ī|
ĠéģĤ æºª|
Ġæĺİ æ°´|
åıĳ åĩº
Ġä¿® æ°´|
Ġåµ© åİ¿|
ĠéĽĨ è´¤|
Ġå°īçĬ ģ|
Ġå®ģ åĮĸ|
Ġéĵľ é¼ĵ|
ĠåĲĪ æµ¦|
Ġç»¥ æ»¨|
Ġæ±Ŀ åŁİ|
ĠäºĶ åİŁ|
Ġé¾Ļ äºķ|
Ġå¹¿ å®Ĺ|
Ġæĸ° å®ģ|
Ġå¤§æĤ Ł|
Ġå½¬ åİ¿|
Ġå»º æ°´|
Ġè´ŀ ä¸°|
Ġæĸ°å»º |
Ġåį« è¾ī|
ä» ĳ|
Ġä¸ľ å®ī|
Ġåįļ ä¹Ĳ|
Ġå·« å±±|
Ġåģı åħ³|
Ġèİİ è½¦|
Ġè¿ľ å®ī|
Ġä¸ĩè½½ |
ĠéģĵåŃ ļ|
Ġä¸ľ åħ°|
Ġä¸ī åı°|
Ġå¯¿ éĺ³|
ĠåĨľ å®ī|
ĠéĿĸ è¿ľ|
ĠèĶ¡ çĶ¸|
Ġæµªåį¡ åŃĲ|
ĠèĸĽ åŁİ|
Ġéĺľ åº·|
Ġå¤§ éĢļ|
Ġåħ° æºª|
Ġæ³¢ å¯Ĩ|
ĠæĻ® å®ī|
Ġæ¥ļ å·ŀ|
Ġæ·³ åĮĸ|
Ġè¾° æºª|
ĠèĴĻèĩª |
Ġå®Ŀ ä¸°|
Ġåįĵå°¼ |
Ġç¿ł å³
ĠåĮĸ å·ŀ|
Ġåħĥ è°ĭ|
Ġæĥł æ°´|
æ» ĭ|
Ġä¸ľ ä¸°|
ĠéĽ· å·ŀ|
Ġåįļ æ¹ĸ|
ĠæĺŃ èĭı|
Ġæ¡Ĥ éĺ³|
Ġæ²ģ æºĲ|
ĠåºĨ äºĳ|
ĠçĶ° æŀĹ|
Ġæ±¶ å·Ŀ|
Ġæ°¸ ä»ģ|
Ġåĳ¨ æĿĳ|
Ġä¸¹å¾Ĵ |
Ġä¸° éķĩ|
ĠèĴĻ åŁİ|
ĠåĩĮ äºĳ|
Ġæµ·çĽ Ĳ|
Ġæ±Ł å®ģ|
Ġåı° æ±Ł|
Ġå® ¹åŁİ|
ĠèĽŁ æ²³|
Ġé»Ħéª ħ|
Ġåħ´ å®ģ|
Ġå±± ä¸¹|
ĠèĪĴ åŁİ|
Ġå¿Ĺ ä¸¹|
Ġæ±Ł å±±|
ĠçķĻ åĿĿ|
Ġæ·ĩ åİ¿|
Ġçī¹ åħĭæĸ¯|
ĠçİĽ æĽ²|
Ġéĩĳ ä¹¡|
ĠèĮĤ åİ¿|
ĠåıĻ æ°¸|
ĠçŁ³éĺ ¡|
Ġä¸ĬèĻ ŀ|
æ³¨åĨĮéĢģ å½©éĩĳ
Ġå®ľ åŁİ|
Ġå²ļ çļĭ|
Ġä¸ī æ°´|
Ġæĸĩ åİ¿|
ĠæĪĲ åİ¿|
Ġæ¹Ł ä¸Ń|
ĠæŃ¦ å®ļ|
Ġå²³ æ±ł|
Ġéķĩ å¹³|
ĠéĿĻ ä¹Ĳ|
Ġè¾ī åįĹ|
Ġå¸ĥå°Ķ æ´¥|
ĠåĲį å±±|
Ġä¸ľ åħī|
Ġæ¸ħ éķĩ|
Ġé«ĺéĤ® |
Ġä¸´æ¾ §|
Ġæ»¦ å¹³|
Ġæĸ° éĩİ|
Ġå¨ģ åİ¿|
ĠçĤİ éĻµ|
Ġç¦ı é¼İ|
Ġæ¢¨ æłĳ|
åİ» åĵª
Ġåħ´ å±±|
Ġæ¨ª åİ¿|
Ġæ²ħ éĻµ|
Ġå¾·æĥł |
Ġå»¶ éķ¿|
Ġæ¶Ł æºĲ|
ĠæĻ´ éļĨ|
Ġéķ¿ æµ·|
Ġä¸Ń éĺ³|
Ġæ³° åĴĮ|
Ġè¶Ĭ è¥¿|
Ġæ³½ åºĵ|
Ġå¤ı éĤĳ|
å¤ļ åĲĹ
Ġå¹³ éĺ´|
Ġäºĳ åİ¿|
Ġç» Ľåİ¿|
ĠéļĨå° §|
Ġéº» åŁİ|
Ġå¨ģ è¿ľ|
h ai
Ġå¥ī åĮĸ|
Ġæľ¨åŀĴ |
Ġæ°¸ å®ģ|
ĠæĿ¥ åĩ¤|
ĠéĹ½ ä¾¯|
ĠçĶĺ è°·|
Ġæ±¤ åİŁ|
Ġå·© ä¹ī|
ĠçĴ§ å±±|
Ġç»¥ éĺ³|
ĠèĤĩ å·ŀ|
Ġå¹¿ å¾·|
Ġå® ¹åİ¿|
Ġç±³èĦ Ĥ|
Ġåı¤èĶ º|
Ġè´µ éĺ³|
ĠéĿĴ æµ¦|
ĠåīįéĥŃ å°Ķ
ĠåĨ łåİ¿|
Ġèİ± éĺ³|
ĠéĢļ å±±|
Ġç¥ģ åİ¿|
Ġæ¸ħ æ²³|
Ġåįİ åĿª|
ĠæŀĹ å·ŀ|
Ġæ°¸ ç¦ı|
ĠåĩŃ ç¥¥|
Ġç§Ńå½Ĵ |
çļĦä½įç½®ï¼ļ é¦ĸé¡µ
Ġéĥģ åįĹ|
Ġé»İ å·Ŀ|
Ġä¸´é¢ į|
Ġçĭ¬ å±±|
Ġé¦Ļæł¼éĩĮ æĭī|
Ġåįİ å±±|
Ġæ·® éĺ´|
ĠåįĹ æ±Ł|
ĠæŀĿ æ±Ł|
Ġçģµ çŁ³|
Ġæ¸Ń æºĲ|
Ġèĭ± å¾·|
ĠæŃ¦ éĤĳ|
ĠåĲĪ å·Ŀ|
ĠçıŃ çİĽ|
Ġæ·ħ å·Ŀ|
Ġèµ¤ å£ģ|
Ġä¸° åįĹ|
Ġåħ«è¾¾ å²Ń|
ĠæĿ¾ æ»ĭ|
Ġäºļç¾İam8 æ¸¸æĪıå¤§åİħ
Ġäºİ éĥ½|
Ġä½Ľ åĿª|
Ġæ°ĳ åĭ¤|
ĠåįĹ åįİ|
ĠçĽĲ å±±|
M ore
Ġæ²ģ éĺ³|
Ġåħ¨æ¤Ĵ |
Ġç¼Ļ äºĳ|
Ġåĭ īåİ¿|
ĠçĻ» å°ģ|
Ġå®ļ è¾¹|
Ġç¤¾ æĹĹ|
Ġæ¢ħ æ²³åı£|
Ġæ½ŀ è¥¿|
Ġéķ¿ å¯¿|
Ġåħ« å®¿|
Ġæĸ°éĤ µ|
ĠæĢĿ åįĹ|
ĠæĻ¯ æ´ª|
Ġæ¦Ĩ ä¸Ń|
Ġåĺī å®ļ|
Ġå¾® å±±|
Ġåĺī é»İ|
ĠèĵĿ å±±|
Ġæ´Ľ æµ¦|
Ġéķĩèµ ī|
Ġæ³Ĺ æ°´|
Ġä¸¹ å·´|
ĠåĨħ é»Ħ|
Ġå®ķ æĺĮ|
ĠåĴĮ å¹³|
ĠæĺĮ å¹³|
Ġé©¬å°Ķ åº·|
Ġè¾Ľ éĽĨ|
Ġåĺīé±¼ |
Ġåħ´ åŁİ|
Ġé²ģ å±±|
ĠçİĽ å¤ļ|
Ġæĥł æĿ¥|
Ġå®ī å¡ŀ|
Ġä¸ĩ æºĲ|
Ġå·« æºª|
Ġé¹¤ å³°|
Ġä¿¡ å®ľ|
ĠéĻĩ åİ¿|
ĠçŃł è¿ŀ|
ĠéĻĨ å·Ŀ|
Ġå¤§ ç«¹|
Ġå¨ģ ä¿¡|
Ġä¾¯ é©¬|
ĠæŃ¦ å®ģ|
Ġä¸´ éĤĳ|
ĠçĶ° ä¸ľ|
Ġé²ģ çĶ¸|
ĠéĦĦ åŁİ|
Ġå¤©æ´¥ |
Ġå¹¿ åįĹ|
ĠèĴ² æ±Ł|
ĠåŃĲ éķ¿|
ĠçĲ¼ å±±|
Ġåı¤ä¸ Ī|
Ġé»Ħ éĻµ|
ĠçĽĲ äºŃ|
ĠéĻµ åİ¿|
Ġç»¥ å¾·|
ĠéļĨ æĺĮ|
ĠåĲĪ æ±Ł|
ĠçģµçĴ §|
Ġç£ ģåİ¿|
Ġå®ľ ä¸°|
æ¶ ¦|
Ġå¤§ åĨ¶|
Ġä¸° éĥ½|
Ġæ±Ł éĻµ|
ĠäºĶ æ²³|
Ġçģ¯ å¡Ķ|
Ġæ¶łæ´² å²Ľ|
æĳ© æīĺ
ĠéºŁ æ¸¸|
Ġç¥ģ è¿ŀ|
Ġçı ²æĺ¥|
Ġå®ģ æĺİ|
Ġæĭľ æ³ī|
Ġè¥¿ å®ģ|
Ġ365å¤ĸåĽ´ è¶³çĲĥ
Ġå¾Ĺ èį£|
Ġèĭ¥å°Ķ çĽĸ|
Ġå¹¿ æ°´|
Ġä¹Ĳ äºŃ|
Ġäº¬ å±±|
Ġæ¦Ĩ æłĳ|
Ġæĸ° å¯Ĩ|
Ġå®ĿåĿ »|
Ġä¹¾ åİ¿|
Ġé«ĺ åĶĲ|
Ġå®ļ åħ´|
Ġå¤© åħ¨|
ĠæĿ¾æ½ ĺ|
Ġæ³Ĺ åİ¿|
Ġæ¨ª å±±|
Ġå¹¿ å¹³|
Ġä¼ļ æ³½|
Ġé«ĺ å¹³|
Ġæ´ª æ¹ĸ|
ĠåĪ© å·Ŀ|
ĠæĺĮ å®ģ|
Ġæī¶ç» ¥|
Ġæ´Ľ å®ģ|
Ġéĺ³ åİŁ|
Ġæ¶¡ éĺ³|
ĠçĻ½ æ°´|
Ġå°ı éĩĳ|
Ġæµ·æĻ ı|
Ġè¥Ħ åŁİ|
ĠæĺŁ åŃĲ|
ç¥ ĸ|
ĠæĺĶ éĺ³|
Ġæ±Ł è¾¾|
åĲ ´|
Ġçķ¥ éĺ³|
Ġä¿Ŀ åº·|
Ġåĳ¨ å®ģ|
Ġå²³æĻ® æ¹ĸ|
Ġç»¥ å®ģ|
ĠåºĶ åİ¿|
Ġè¡¡ åįĹ|
Ġå¤ª åİŁ|
Ġæ´¥ åįĹ|
Ġåįİ æ±ł|
Ġæµ· åħ´|
Ġæ°¸ æ¸ħ|
Ġå¯Į éĶ¦|
Ġåįİ å®ī|
ĠæĺĨ æĺİ|
ĠéĢļæ¸ Ń|
Ġä½Ļ åºĨ|
Ġæ¾İ æ¹ĸ
Ġæ´ªæ´ŀ |
Ġæ°ĳ ä¹Ĳ|
Ġå¤§ å®ī|
ĠéĿĸ å®ī|
Ġå¹³ æ³ī|
ĠæħĪ åĪ©|
Ġå¤©å³ »|
Ġè¥¿ æŀĹ|
Ġå±± éĺ´|
Ġæ±¨ ç½Ĺ|
ĠéĢļ æ²³|
ĠåıĮ è¾½|
Ġæ°¸ åŁİ|
Ġåı³ çİī|
Ġçļĭ åħ°|
ĠåĴĮ ç¡ķ|
Ġèµ« ç«ł|
çŃ ī|
ĠèĹ¤ åİ¿|
ĠæĻ® æł¼|
Ġå®ī å¹³|
ä¸Ĭ äºĨ
ĠéģĤ å¹³|
ĠèĪŀéĴ¢ |
Ġå®ī å®ģ|
Ġå£¶ åħ³|
Ġå¤ı æ´¥|
Ġç¦ı è´¡|
Ġé»İ åŁİ|
ĠåĲ´ å·Ŀ|
Ġå´ĩ ä¹ī|
Ġåįļ å±±|
ĠæŁ³ åŁİ|
app çĻ»å½ķ
Ġä¸´ æ½Ń|
Ġå®ī é¾Ļ|
Ġå¯Ĩ äºĳ|
æīĭ èĲ¥åŃĲ
Ġçº¢ åİŁ|
ĠéĻĩ è¥¿|
ĠæĹ¬ éĺ³|
Ġåįļ çĻ½|
ï¿½ W
ĠçĿ¢ å®ģ|
ĠåĮĹç¢ ļ|
ĠåįĹçļ® |
ĠéĽħ æ±Ł|
Ġå¾·ä»¤åĵĪ |
è® ¸|
Ġèį£ æĺĮ|
Ċèĭı å·ŀæĸ°éĹ»ç½ĳ
Ġéĵ¶ å·Ŀ|
Ġèĭį æºª|
ĠéģĤ æĺĮ|
Ġè¡¡ å±±|
ĠåĮĹ ä»ĳ|
Ġå®ģ éĻµ|
Ġå¥ī èĬĤ|
Ġéĥĳ å·ŀ|
Ġæ±Ŀ éĺ³|
ĠéĶ¦ å±ı|
Ġå®ļ åįĹ|
ĠæĬļ å®ģ|
ĠéŃ ıåİ¿|
Ġå®ľ å·Ŀ|
Ġå¼¥ åĭĴ|
Ġæ¸ ĿåĮĹ|
é¡ ¶|
ĠèµĦ æºĲ|
ĠæĢĢæŁ Ķ|
Ġå¹³ æŃ¦|
Ġéĩĳ å·ŀ|
Ġå¹³ æ¹ĸ|
Ġæ°¸ çĻ»|
Ġå¤§å§ ļ|
ĠçĶµ çĻ½|
Ġæµ·æ· Ģ|
Ġæ´ª éĽħ|
Ġå´ĩç¤¼ |
Ġé¡º æĺĮ|
ĠåŃĻ åĲ´|
ĠæŃ£ å®ī|
Ġå®ģ å¼º|
ĠéļĨåĽŀ |
æĻ ĭ|
Ġæ·± å·ŀ|
Ġå¤© éķĩ|
ĠèĴ² åŁİ|
ĠæĺŃ å¹³|
ĠçŁ³ éĹ¨|
Ġéľŀ æµ¦|
Ġå®ī ä»ģ|
Ġåĵį æ°´|
ĠèĬ± æºª|
Ġå°ģå¼Ģ |
T T
ĠåİŁ éĺ³|
Ġæ´ŀ å¤´|
ĠãĢĳãĢĲ 0
Ġæ²½ æºĲ|
Ġå¥ī æĸ°|
Ġä¸° æ¶¦|
Ġæ°´ åŁİ|
éľ į|
Ġä¸Ĭ æŀĹ|
Ġæ³¾ éĺ³|
Ġå¸¸ å®ģ|
Ġæµ¦ åĮĹ|
Ġæµİ éĺ³|
çĨ Ł|
Ġæĸ° éĥĳ|
Ġé¾Ļ éĻµ|
ĠåĨ ķå®ģ|
Ġæ³¾ å·Ŀ|
Ġçİ¯ åİ¿|
Ġèĵ Łåİ¿|
ĠéĿĻ å®ģ|
Ġç»¿ æĺ¥|
é«ĺéĢŁ åħ¬è·¯
ĠçĮ® åİ¿|
ĠåĮĹæĪ´ æ²³|
ĠéĢļ è®¸|
ĠéĦ± éĺ³|
Ġä»İ åĮĸ|
ĠéĻµ å·Ŀ|
Ġæ°¸ åħ´|
Ġå¹¿çģµ |
ĠéĿĸ è¥¿|
Ġæ±ī å¯¿|
Ġèĭıå®¶ å±¯|
Ġæ¶ īåİ¿|
Ġæ²³ æ´¥|
Ġçķªç¦ º|
Ġæµ· åŁİ|
ĠçŁ³ åı°|
Ġæĸ½ çĶ¸|
Ġä¹ īåİ¿|
Ġå¹³ ä¹¡|
Ġå¾· åºĨ|
Ġä¿® æĸĩ|
Ġå±ı å±±|
Ġä¸ĩ å¹´|
Ġåĩ¤ åı°|
ĠæĻ® åħ°|
Ġå¯¿ å®ģ|
Ġå² ·åİ¿|
Ġæ²ģ åİ¿|
Ġä¸ľ å®ģ|
ĠèĴ² åİ¿|
Ġæĸĩ çĻ»|
ĠåŁİ åĽº|
ĠæĿĤ å¤ļ|
Ġåı° æ¹¾|
Ġé¾Ļ éĩĮ|
ĠäºķåĨĪ å±±|
ĠåįĵèµĦ |
Ġéģµ åĮĸ|
ĠéļĨ åĮĸ|
éĺ ģ|
ĠåįĹ éĽĦ|
Ġå®ĿåºĶ |
Ġp h
Ġé«ĺ éĿĴ|
Ġä¸´æ´® |
ĠåµĬ å·ŀ|
ĠæĢĢ å®ģ|
ĠæĢĢ å®ī|
Ġå¹³èĪ Ĩ|
ĠæıŃ è¥¿|
Ġåįİ å®ģ|
ĠåįĹ æ²Ļå²Ľ|
Ġä»ĢéĤ ¡|
Ġå¹³ é¡º|
Ġè¿ŀ æ±Ł|
ĠåĬłæł¼è¾¾ å¥ĩ|
Ġåħ´ ä»ģ|
Ġçĳŀ æĺĮ|
ĠagåĽ½éĻħ æīĭæľºå®¢æĪ·ç«¯ä¸ĭè½½
Ġæ·Ħ å·Ŀ|
Ġæ½¼ åħ³|
Ġå®ľ éĺ³|
ĠåįĹ åº·|
Ġåĳ¼ åħ°|
Ġç½Ĺ å®ļ|
ĠæĺĮ é»İ|
Ġæ¨ª å³°|
Ġå»¶ å·Ŀ|
Ġå½ĵ éĺ³|
ĠåįĹ å²³|
ĠéĤµ æŃ¦|
ĠåĽº éķĩ|
ĠéĢĬ åħĭ|
Ġç½Ĺ å±±|
Ġå·´ éĿĴ|
Ġå·¨ é¹¿|
Ġèµ¤ æ°´|
Ġæ³¸ æºª|
ĠçĤī éľį|
ĠéĤĽå´ ĥ|
Ġå®ī éĻĨ|
ĠæŃ¦ å±±|
Ġå»º å§ĭ|
åħįè´¹åħ¬å¼Ģ èµĦæĸĻ
3 4
Ġä¸ĩ å±±|
Ġéĥ ¾
ĠæŁ³ æ²³|
ĠåĮĸ å¾·|
ĠåħŃåĲĪ |
Ġagè§Ĩè®¯ æīĭæľºå®¢æĪ·ç«¯ä¸ĭè½½
ĠåĪ©æĿ¥w66 å¤ĩçĶ¨
ĠçĽĲ æ±ł|
Ġå¾· åħ´|
Ġå©º æºĲ|
æīĭèĲ¥åŃĲ çŁ¿
Ġä¸´ æ½¼|
è½¬æį¢ ä¸Ńæĸĩ
Ġç´« éĩĳ|
Ġå·¦ äºĳ|
Ġæ³¸ æ°´|
Ġæĸ°éĹ» èµĦè®¯
Ġå·´ åįĹ|
Ġæµ· åı£|
Ġå¤· éĻµ|
Ġé©¬ ç¥ĸ|
ĠæĹ©é¤Ĳ ç³»åĪĹ
Ġæĸ° ä¸°|
ĠåĲĪ éĺ³|
Ġæĸ° åĴĮ|
Ġç»© æºª|
Ġé»Ħ é¾Ļ|
Ġå®ģ æĻĭ|
Ġéĺ³ æĽ²|
ĠæºĨ æµ¦|
ĠæĹĮ å¾·|
Ġå¤§ å®ģ|
ĠæľĽ æ±Ł|
ĠåĲĮ ä»ģ|
Ġæ»¡ åŁİ|
Ġæº§ æ°´|
ĠåįĹ æ¼³|
Ġæ°¸æµİ |
Ġå¯Łå¸ĥæŁ¥ å°Ķ|
Ġåħ´ åĽ½|
Ġåħ° å·ŀ|
Ġéĺľæĸ° èĴĻåı¤
Ġæ¸ħ æµģ|
Ġå¼Ģ è¿ľ|
Ġæķħ åŁİ|
Ġç½Ĺ çĶ°|
ĠéŁ¶ å±±|
Ġéº»æłĹ åĿ¡|
Ġæ´Ľ å·Ŀ|
ĠçĽ ĺåİ¿|
ĠåŃĿ ä¹ī|
Ġåħĥ éĺ³|
Ġæ¸© å®¿|
Ġç§Ģ å±
Ġå¸¸ çĨŁ|
i be
Ġå¹³ é²ģ|
ĠéļĨ å¾·|
Ġå»ī æ±Ł|
ĠéĤµ ä¸ľ|
Ġéķĩ å®ī|
Ġå·¨ éĩİ|
Ġä¹Ĳ æĺĮ|
Ġåı°åĦ¿ åºĦ|
Ġâ ĺħ
Ġéķ¿ æ²Ļ|
ri v
Ġå¤© çŃī|
Ġå¡ĺ æ²½|
Z C
Ġç¿¼ åŁİ|
Ġæ±Ŀ åįĹ|
Ġæµ¦ åŁİ|
Ġè¥Ħ æ±¾|
Ġæŀ£ å¼º|
ĠéĢļ åŁİ|
Ġå¤ª æ¹ĸ|
Ġæ¡Ĥ å¹³|
Ġæ½ľ å±±|
Ġå¯¿ åİ¿|
Ġå¿ łåİ¿|
ĠåŃŁ æ´¥|
ĠåĽĬè° ¦|
Ġè´µ åįĹ|
Ġé¢į ä¸Ĭ|
Ġä¸ĩ åħ¨|
Ġèī² è¾¾|
Ġéķ¿ æŃ¦|
Ġæ²Ī éĺ³|
Ġä¹Ĳ ä¸ļ|
ĠæĺĮ éĤĳ|
Ġèł ¡åİ¿|
Ċ åĽ½éĻħ
Ġè¥¿ åĲī|
ĠéĤ ±åİ¿|
ĠåıĮ åŁİ|
Ġä¸ĩçĽĽ |
ĠæŃ Ļåİ¿|
ĠæŁı ä¹¡|
ĠåįĹ éĻµ|
Ġå§ļ å®ī|
ĠæĻ®éĻ Ģ|
Ġæ¿ī æºª|
Ġé¾Ļ æ±Ł|
Ġåı¶ åİ¿|
Ġæ´ĭ åİ¿|
Ġçģ¯ é¥°åĬłçĽŁ
ï¼Į å½ĵ
Ġæĺĵ éĹ¨|
Ġæĺ¯ åĲ¦
Ġæĸ° é¾Ļ|
Ġèĭı å·ŀ|
Ġèİ· åĺī|
åĵ Ģ
ĠåĴ¸ ä¸°|
Ġåº· ä¿Ŀ|
ĠäºĶå¤§è¿ŀ æ±ł|
ĠæŃ¦ åŁİ|
çķĻä¸ĭä¸Ģ åīĩ
ĠèĲ §åİ¿|
Ġæ¼³ åİ¿|
ĠåĪ©è¾ Ľ|
Ġæ¹Ł æºĲ|
Ġåº· åİ¿|
Ġè¥¿ éĿĴ|
ĠéĹ½ æ¸ħ|
Ġå²ĳå· ©|
Ġèİ² èĬ±|
Ġå¼Ģ åİŁ|
Ġæ¡ĥ æºĲ|
Ġçº³ æºª|
Ġå°ļå¿Ĺ |
ĠéĿĸ è¾¹|
Ġä¸° åı°|
ĠåıĮçīĮ |
Ġå®ľ é»Ħ|
Ġæł¼å°Ķ æľ¨|
Ġæ°¸ ä¸°|
Ġå®ī ä¸ĺ|
Ġè´ ¹åİ¿|
Ġéĩĳ éĺ³|
Ġ365ä½ĵèĤ² è¶³çĲĥ
Ġèŀį å®ī|
Ġå¤§ æ¸¯|
Ġç¤¼ åİ¿|
ĠæŃ¦ åĨĪ|
ĠéģĤ å·Ŀ|
Ġçĵ® å®ī|
Ġä¹Įä¼Ĭ å²Ń|
Ġå¼Ģ éĺ³|
Ġéĵľ æ¢ģ|
Ġä¸ľ è¾½|
Ġå¡Ķä»Ģåºĵå°Ķ å¹²|
Ġéķ¿ å®ī|
Ġæ³Į éĺ³|
Ġæ°¸ æ³°|
ĠæĢĢ æĿ¥|
Ġæ²Ļ åİ¿|
Ġä¿Ŀ éĿĸ|
éĿĴå¹´åīµæ¥Ńè²¸æ¬¾ æ¢Ŀä»¶
Ġå®ģ æŃ¦|
Ġéķ¿æ± Ģ|
Ġä¹¡ åŁİ|
Ġç£Ĳ çŁ³|
Ġé¾Ļæ³īé© ¿|
Ġæ»¦ åįĹ|
Ġå®ģ è¿ľ|
Ġéĩĳ æºª|
ĠåĬłçĽŁ æĶ¾å¿ĥæĹ©çĤ¹
æľĢæĸ°çĻ»å½ķ é¦ĸé¡µ
ĠçĶĺ æ´Ľ|
Ġç½Ĺ æ±Ł|
Ġåĩ¤ éĺ³|
Ġé» Łåİ¿|
Ġå¨ģ æµ·
ĠçŁ³ æ¸ł|
ĠéĻĨ ä¸°|
Ġéĩĳ åı£
Ġæ°¸ å¯¿|
Ġä¸´ é«ĺ|
ĠçķĮ é¦ĸ|
Ġéĵĥå£°é«ĺæ½®çīĪ æŃĮè¯į
ĠèĲ ĿåĮĹ|
Ġäºļç¾İam8 å®ĺç½ĳ
å¤© |
Ġçľ īåİ¿|
Ġåĸľ å¾·|
Ġéĥ §åİ¿|
æ¸¡ åģĩ
æ²Ĵ æľī
Ġå°ĸ æīİ|
Ġåĩ¯ éĩĮ|
Ġé¹° æīĭèĲ¥åŃĲçŁ¿
Ġä¸ľ ä¸½|
ĠåĪļå¯Ł |
ĠåĴĮ å¸ĥåħĭ
æİĴ æĶ¾
Ġæ¶ª éĻµ|
Ġå¹³æŀľ |
åŃĲ æ¹ĸ|
Ġä¸ľ èĩ³|
ĠæĽ² æ±Ł|
Ġå¹³ å¡ĺ|
Ġä¸īç© Ĺ|
Ġæ±¤ éĺ´|
Ġæĺĵ åİ¿|
Ġä¿® æŃ¦|
ĠçĶĺèĤĥ |
ĠY X
Ġè¿ŀ å¹³|
Ġåĩ¤ å±±|
Ġåīĳ æ²³|
Ġå´ĩ æĺİ|
Ġå¾½ åİ¿|
Ġæ°ĳ æĿĥ|
Ġæ±¾ éĺ³|
ç«ŀ çĮľ|
Ġä¸ľ æ²Ļå²Ľ|
ĠæŃ¦ å½ĵ
ĠåĪ© æ´¥|
Ġç¶¦ æ±Ł|
Ġä¹Ŀå¯¨ æ²Ł|
Ġæ±Ł è¥¿|
Ġæ¹ĺ éĺ´|
ĠéĿĴ çĻ½
ĠåºĦ æµª|
Ġå»º å¾·|
Ġä¹ī é©¬|
ĠåĲ´ åł¡|
Ġå±± æµ·
çĲ ³
Ġåħ¨ åįĹ|
Ġç¹ģ æĺĮ|
ĠæĶ ¸åİ¿|
Ġè¾½ å®ģ|
Ġä¸Ń æĸ¹|
Ġå¾· æīĳ
Ġæ²³ åĮĹ|
Ġåı° ä¸ľ|
ĠçĶĺ æ£ł
Ġæ¡¦ çĶ¸|
ĠK T
ĠæĪĲ å®ī|
ĠæĹ©é¤Ĳè¿ŀéĶģ åºĹ
s d
æ¸ ¡|
ĠåıĮ æŁı|
èĬ± åĽŃ|
ĠæĽ²éº» èİ±|
Ġå¹³ åĿĿ|
Ġç½Ĺ æºĲ|
Ġèİ± è¥¿|
Ġå¤´ å±¯
åľ¨çº¿ å®¢æľį
Ġå®ī è¿ľ|
Ġè®· æ²³|
åĽ¾ æºĲï¼ļ
Ġç¿łå³ ¦|
Ġå±¯ çķĻ|
Ġä¼ļ å®ģ|
Ġæĸ° æºĲ|
ĠåłĨé¾Ļå¾· åºĨ|
Ġbet365 çİ°éĩĳ
Ġåīĳ éĺģ|
Ġå² ļåİ¿|
Ġèİ«åĬĽ è¾¾
Ġæ·® éĺ³|
Ġç§° å¤ļ|
ãĢĤ æľ¬
Ġä¸Ń å®ģ|
ĠèĲ¨ åĺİ|
Ġåįļé³ Į|
ĠçĻ½ äºĳ|
Ġçĵ¯ æµ·|
Ġä¸ĩ èį£|
Ġç±³æĺĵ |
Ġç¢ ¾åŃĲ
Ġä¸ĬçĬ¹ |
Ġä¸´æ· Ħ|
ĠçĽĲ çĶ°|
åı¸ æ³ķ
ĠæĽ² éĺ³|
Ġéĺ³ è°·|
Ġéĺ³ è¥¿|
Ġä¸ĺ åĮĹ|
ĠåįĹ å²
Ġæ±Ł æºĲ|
ĠçĻ½ ç¢±
Ġéķ¿çĻ½ å±±|
Ġçķ ¹
æĭīå°Ķ åŁº
Ġä¸Ĭ æĿŃ|
Ġçİī éĹ¨|
Ġæĥł å®ī|
Ġæ°¸ åĴĮ|
Ġæī¶ ä½Ļ|
æł Ĺ|
ĠåĲ´èµ· |
å®ĺç½ĳ ãĢĳ
Ġèį¥ ç»ı|
Ġæ´Ľ æīİ|
12æľĪ 21æĹ¥ï¼Į
Ġé¹¿ å¯¨|
ĠèĲ¥åħ» ç²¥åĬłçĽŁ
Ġå¼¥ æ¸¡|
è·¯ éĢı
Ġæ½ ŀåŁİ|
åĦ Ł
Ġé¥¶ æ²³|
Ġå®ģ æµ·|
Ġæ±ī æ²½|
å¥Ķ é©°
ĠåĻ¶ å°Ķ|
Ġéĥ¯ åŁİ|
Ġæ³¸ è¥¿|
Ġçĥ ¤èĤīåĬłçĽŁ
ĠéĻĨ æ²³|
Ġå®ī è¥¿|
a ur
ĠäºĶ åı°|
ĠéĹµè¡Į |
ĠæĹ©é¤ĲåĬłçĽŁ åºĹ
æħ Į
ĠæĿ¥ åĬłçĽŁ
Ġåº Ĳå±±|
å¢¨ è¥¿åĵ¥
Ġæľ Ĺåİ¿|
ä½ľå¼Ĭ è½¯ä»¶
ĠèĮĦåŃĲ æ²³|
Õ¸ÖĤ Õ
ĠçĶĺæ£ł éķĩ|
æĲľ å°ĭ
Ġæ²Ĳ å·Ŀ|
ï¿½ M
Ġæĸ° èĶ¡|
Ġæµ¦ åı£|
å¾ ½|
ĠæĿľ å°Ķä¼¯çī¹
Ġå¹¿ ä¸ľ|
ĠåŃĿ æĺĮ|
Ġbet365 çĽĺåı£
Ġå¾· æĺĮ|
Ġå®Ŀ å±±|
ĠæıŃ ä¸ľ|
Ġæ¡ĳ æĹ¥|
.... ..
Ġæ±Łèĭı |
Ġéķĩ éĽĦ|
Ġåħ« åħ¬
çķĻä¸ĭä¸Ģåīĩ è¿´éŁ¿
Ġæ¡ĥ åĽŃ|
ĠæĿ¨åĽ½ç¦ıéº»è¾£çĥ« åĬłçĽŁ
Ġæ´ĭ å±±æ¸¯|
Ġåįļ éĩİ|
Ġçī¹èī² æĹ©é¤Ĳ
ë ¡
åĶ¯ä¸Ģ å¤§åĵģçīĮ
Ġç¦ıå»º |
Ġä»ģ å¸ĥ|
å®ĺæĸ¹ çĻ»å½ķ
Ġå¤§åıĳå¿«ä¸ī ä¸Ńå¥ĸ
Ġä¸ĭ éĻĨ|
Ġè°¢ å®¶
ĠåįĹ èĬ¬
Ġè®© èĥ¡
Ġéļ °åİ¿|
Ġè¥¿ ä¹¡|
Ġå¯Į æĭīå°ĶåŁº
Ġé¹°æīĭèĲ¥åŃĲçŁ¿ åĮº|
Ġä¸Ĭ çĶĺ
Ġå°ı æĬķèµĦåĬłçĽŁåºĹ
ĠæĽ² æĿ¾|
Ġçº¢ åı¤
Ġç¦ı å±±|
Ġå±± è¥¿|
Ġè´µ å·ŀ|
Ġåº· é©¬|
Ġæ±Ł åŃľ|
Ġå®ľ ç§Ģ|
æīĵä¸įå¼Ģ äºĨ
æŃ£ æĺ¯
ĠåĽ´ åľº|
Ġå¤§ åºĨ
Ġæ½® éĺ³|
Ġæ±ī åı£|
Ġä¸´ å·Ŀ|
Ġå·¥å¸ĥæ±Ł è¾¾|
Ġèį¥ éĺ³|
Ġé»ĳé¾Ļ æ±Ł|
Ġè´¾ æ±
Ġç¥ŀåĨľ é¡¶|
Ġéĥ¾ åŁİ|
Ġå®ī å¾½|
çİ© çĲĥ
ĠæµĻ æ±Ł|
Ġæ¹ĸ åĮĹ|
Ġæ³½ å·ŀ|
Ġçĭ¬å±± åŃĲ|
ĠæĺĤ æĺĤ
Ġæ»´ éģĵ|
ri c
Ġå¿ħ èĥľå®¢åĬłçĽŁè´¹åıĬåĬłçĽŁæĿ¡ä»¶
Ġéĺľæĸ°èĴĻåı¤ æĹıèĩªæ²»åİ¿|
ĠåĲī æ°´|
ĠæľĽå¥ İ|
éĲ ĺ
ĠæĹ©é¤Ĳç²¥ è½¦
åľª åł
ĠèĮĤ æ¸¯|
Ġå®£æģ© |
Ġæ¸© åİ¿|
ç®¡çĲĨ å±Ģ
Ġå²Ĺ å·´|
Ġå®ļ ç»ĵ|
Ġéº» å±±|
Ġæ±¤ æĹº
ĠåĲī éļĨ|
Ġå·´å½¦æ·ĸ å°Ķ|
éĺ² å¼¹
Ġæ±¤ åĮħåĬłçĽŁ
Ġéĩĳåı£ æ²³|
Ġå¥İ å±¯|
Ġéĺ³ ä¸ľ|
Ġæ¿ł æ±Ł|
ĠæĿİ æ²§|
Ġä¹Į è¾¾|
Ġå¾½ å·ŀ|
Ġåħ´ ä¸ļ|
Ġå½° åĮĸ|
ĠéħĴ åºĹåĬłçĽŁ
ĠéĿĴ æµ·|
Ġçİ¯äºļ å¹³åı°æ³¨åĨĮ
åľªåł µ|
Ġè¿ŀéĶģ åºĹåĬłçĽŁ
Ġé«ĺ æĺİ|
ĠèĭĹ æłĹ|
ĠæĢĿèĮ ħ|
ĠåĲī åĪ©|
Ġåĩ¯åıĳçĶµæ¸¸ æ¸¸æĪıå®ĺç½ĳ
Ġagäºļæ´²åĽ½éĻħ éĽĨåĽ¢
ĠæľĽ åŁİ|
ĠåįĹæĬķ |
ĠæĪļ å¢ħ
è° Ĭ|
ĠG P
ĠçĽ¸ åŁİ|
Ġæ²Ļ åľªåłµ|
çĶµ åķĨ
ĠåĽĽ å·Ŀ|
çıŃ çīĻ
ĠçĻ½ç¢± æ»©|
Ġæ¹¾ éĩĮ|
Ġæ°´å¯Į |
ĠæĿ¾ éĺ³|
ĠéĻķ åİ¿|
ĠãĢĲ åŃĹä½ĵï¼ļ
Ġç½ĳèµĮ å¼Ģåħĥæ£ĭçīĮ
Ġæ² §åİ¿|
ĠæĿľå°Ķä¼¯çī¹ |
é«ĺ æ¢ħ
Ġæ½® åįĹ|
çľĭå®Ī æīĢ
ĠåīįéĥŃå°Ķ ç½Ĺæĸ¯
Ġéĩĳ æ¹¾|
Ġè·¯ æ¡¥|
ĠåĨħèĴĻåı¤ |
ĠåįĹæµ Ķ|
ĠagçľŁäºº çĻ¾å®¶å®¶ä¹Ĳ
ĠéĽĨ ç¾İ|
Ġçģµ ä¸ĺ|
Ġè´µ æ±ł|
ĠèĲ¨è¿ ¦|
Ġå¤§èĭ± |
Ġå®Ŀ å®ī|
Ġçº¢ å²Ĺ|
Ġé¥® æĸĻåºĹåĬłçĽŁ
Ġæĥł å±±|
Ġå¤©å±± å¤©
Ġæİª ç¾İ|
åįı åĬ©
Ġè¾¾ åŃľ|
Ġæľ¬æºª æ»¡
å¤ª éĺ³
Ġä¸ľ èĲ¥
Ġè¦ĥ å¡ĺ|
ĠæĻĭ å·ŀ|
22 270
Ġä¸ĭ èĬ±åĽŃ|
Ġåı¤äº¤ |
ĠéĻķ è¥¿|
ĠéĽģ å±±|
Ġæİª åĭ¤|
Ġå³° å³°
Ġé«ĺ æ¸¯|
Ġäºĳ åįĹ|
Z 2
ç½ĳåĿĢ è°ģæľī
Ġæ¹ĸ åįĹ|
Ġåıĭ è°Ĭ|
Ġåĩ¯åıĳæ³¨åĨĮ é¦ĸé¡µ
ĠèĬ± èİ²|
çĶ º|
Ġæ£ĭçīĮ 365
Ġçĸı åĭĴ|
Ġè¾¾ åİ¿|
Ġå¸¦ å²Ń|
Ġéĵľ å±±|
Ġä»² å·´|
Ġåįİèĵ ¥|
é¾Ļå±± éķĩ|
Ġéĩĳå±± å±¯|
Ġéĺİ èī¯|
ag äºļ
ĠåĽ¢ é£İ|
Ġåħĥ åĿĿ|
Ġæ²Ļæ´ĭ |
Ċæĸ°çĸĨ æĶ¿åºľ
Ġè¾¹ åĿĿ|
Ġæĸ° éĿĴ|
Ġåį° åı°|
ì ŀ
Ġå¢¨ç«¹å·¥åį¡ |
ĠæģĴ å±±|
Ġä¹Ŀé¾Ļ åĿ¡|
ĠçĸıéĻĦ |
ĠçĥĪ å±±|
Ġå°ı æ²³|
Ġé¹¿ æ³ī|
Ġèİ± å±±|
Ġä¸Ĭ è¡Ĺ|
ĠæĹħé¡º åı£|
Ġé¾Ļ æ¹¾|
ï¼Į ä¸¤
Ġæ³ī æ¸¯|
Ġæľ¬æºªæ»¡ æĹıèĩªæ²»åİ¿|
ĠçĻ½äºĳ çŁ¿|
ĠæŃ¦è¿Ľ |
Ċåĩ¤åĩ°ç½ĳ åı°æ¹¾
Ġçķ¹ çĶº|
Ġè´¡ è§ī|
Ġç§ĳå°Ķæ²ģåı³ç¿¼ åīįæĹĹ|
Ġæ¢ģ åŃĲæ¹ĸ|
ĠæĹ©çĤ¹åĬłçĽŁ è½¦
Ġè´¾æ± ª|
ĠE P
åĩ ½
Ġå¤§ é¾Ļå±±éķĩ|
Ġæ¸ħèĭ ĳ|
Ġå¤©å®ī éĹ¨|
Ġå²ļ å±±|
Ġd omain
Ġå¤§æ¸¡ åı£|
ĠæľĿ å¤©|
Ġè¡¢ æ±Ł|
Ġçº¢ æĺŁ|
Ġæ¾İ æ¹ĸ|
Ġçģŀ æ¡¥|
å¡ŀ å°Ķ|
Ġå¯Ł éĽħ|
æ· ĩ
r am
Ġæ¹ĺ ä¸ľ|
Ġé¾Ļ åĩ¤|
Ġåħ«åħ¬ å±±|
ĠçĪ ±ä¹Ĳ
sport s
ĠåĽĽæĸ¹ åı°|
Ġå²± å²³|
ĠçĭĹä¸ĩè½¯ä»¶ æīĭæľºçīĪä¸ĭè½½
Ġè¥¿ åĽº|
Ġæĸ° èį£|
ĠåįĹ ç¥¨|
ĠäºĮéģĵ æ±Ł|
Ġåı¤ åĨ¶|
Ġæ½® å®ī|
ĠåįĹå² Ķ|
ĠåįĹèĬ¬ |
ä¸ī ä¸ª
ĠéĿĴçĻ½ æ±Ł|
ĠåŁİ éĺ³|
Ġæ²¿ æ»©|
å¿«ä¸ī éªĹå±Ģ
Ġé»Ħ åŁĶ|
Ġé¾Ļ å²Ĺ|
Ġå±± äºŃ|
äºĭ åıĳ
ĠåĴĮå¸ĥåħĭ å¡ŀå°Ķ|
Ġçİĭ çĽĬ|
Ġæµ· æ²§|
ìĹ Ĳ
ĠæĪļå¢ħ åł°|
Ġé»Ħ å²©|
Ġä¹ĥ ä¸ľ|
åıĳ æĮ¥
æľº åĬ¨è½¦
Ġåı¬ éĻµ|
Ġçİ¯äºļ ç½ĳç«Ļ
Ġè¥¿ æ²Ļå²Ľ|
Ġå¤©å±±å¤© æ±ł|
ĠäºĶ éĢļ
ĠåıĮ æ¡¥|
Ġäºļ ä¸ľ|
Ġç»Ŀ åĳ³åĬłçĽŁ
Ċ åĲĪä½ľä¼Ļä¼´
Ġç§Ģå± ¿|
Ġå¼ł æ¹¾
å·¥ èµĦ
Ġäºĳ æºª|
Ġå¯Ĵ äºŃ|
çĵ ¦|
ĠåĲĪ å±±|
ĠéĽ ¶éĻµ|
åĺ ²
Ġæ½ĺ éĽĨ|
Ġå¹³ æĪ¿|
Ġç½ĳä¸ĬçĻ¾å®¶ åºĦéĹ²
Ġè¥¿ éĥ¨
Ġè°¢å®¶ éĽĨ|
è¯Ń è¨Ģ
ĠåįĹ éĢļ
åħĪ çĥĪ
Ġéĵģ å±±æ¸¯|
Ġæ±ī åįĹ|
Ġä¸ĬçĶĺ å²Ń|
Ġagå¹³åı° å®ĺç½ĳ
ĠçĭĹä¸ĩ éĽĨåĽ¢å®ĺç½ĳ
ĠæĲıå¤©åłĤ918 æ£ĭçīĮ
Ġç¾İ æºª|
Ġè°ĥåħµ å±±|
æĽ¾ ç»ı
Ġå¤´å±¯ æ²³|
å¹´ é¾Ħ
æĸ¹éĿ¢ çļĦ
Ġå³°å³° çŁ¿|
Ġä¸ĩ å·ŀ|
ç¾İ åľĭ
Ġå¹³ å·Ŀ|
Ġç¢¾åŃĲ å±±|
Ġagäºļæ´²éĽĨåĽ¢å®ĺç½ĳ agäºļ
Ġæ±¤æĹº æ²³|
Ġå®¿è± «|
Ġå±±æµ· åħ³|
è°ĥæŁ¥ ãĢĤ
ĠçŁ³ é¾Ļ|
Ġçº¢åı¤ |
ĊåĲĪä½ľä¼Ļä¼´ ï¼ļ
Ġæĸ° éĤ±|
éķ¿ ãĢģ
ĠåįĹæµ· éķĩ|
Ġæ¸ħæ²³ éĹ¨|
ĠæŃ¦éĻµ æºĲ|
Ġè®©èĥ¡ è·¯|
ĊèĲ§ å±±
Ġ365 å¤©ä½ĵèĤ²
Ġäºĳ éĽĨ
Ġé¼İ æ¹ĸ|
ĠäºķéĻī çŁ¿|
ĠåīįéĥŃå°Ķç½Ĺæĸ¯ |
Ġå¼łæ¹¾ éķĩ|
å¾Ī å¥½
éı ¡
Ġå¯Įæĭīå°ĶåŁº |
äºĴ åĬ¨
ĠæŃ¦å½ĵ å±±|
Ġ365æ£ĭçīĮ åħħåĢ¼
Ġèİ«åĬĽè¾¾ çĵ¦|
æ¯į æļĹ
Ġé»Ħ å²Ľ|
ï ¿¥
Ġæ±ī éĺ³|
ĠæĺĤæĺĤ æºª|
Ġäºļæ¸¸ åıªä¸ºéĿŀåĩ¡
Ġå¤§åĲĮ åĮº|
ĠæŃ¦ æĺĮ|
åĽ¾ è§£
Ġåĩ¯åıĳå¼ĢæĪ· å®ĺç½ĳ
åĩ Ń
Ġag å°Ĭé¾Ļ
åįķåıĮï¼ļå½©ç¥ŀ 8
å½© çĲĥ
Ġåĩ¯åıĳå®ĺç½ĳ åľ°åĿĢ
æ¯įæļĹ æ²Ļ|
Ġåıĭ å¥½|
æ°ĳ æĶ¿
O W
èĢĮ è¨Ģ
Ġåĩ¯åıĳag å®ĺæĸ¹ç½ĳç«Ļ
Ċ2019-12 -15
ä¸Ń åŃ¦
app ç½ĳç«Ļ
å ¬
Ġä¹Įå°Ķ ç¦¾|
ĠQ T
ĠæĽ¾ æ¯įæļĹæ²Ļ|
èĤ¡ä»½ èĤ¡ç¥¨|
Ċæł ªæ´²
å½± è§Ĩ
Ċ çŁ³å®¶åºĦ
å®ĺç½ĳ å¤ĩçĶ¨
ĠäºĶéĢļ æ¡¥|
Ġåľ° åĿĢ
ĠåĿĬ åŃĲ|
Ġw66åĪ©æĿ¥ æīĭæľºçīĪ
Ġé©¬ å°¾|
Ċ çº¢
èº«ä»½ èŃī
7 å¹´
ĠäºĳéĽĨ éķĩ|
ĠéĢ ģ
ĠåĪ «
åıĸ çİ°
ą Ććą
ark et
Ġ20 00
ä¸į çŁ¥éģĵ
Ċç¦ıå»º çĶµè§Ĩåı°
åĨ ¯
æ¾³éĹ¨ çĻ¾å®¶
ë ª
ĠåĲĽ å±±|
ãĢĤ ä¸Ń
sc hem
Ġå®£åĮĸ åĮº|
ä½Ļ å¹´
Ġ365betå®ĺç½ĳ æĹ¥åįļ
Ġæ¾³éĹ¨çĻ¾å®¶ä¹Ĳ å®ĺæĸ¹ç½ĳç«Ļ
ç§© åºı
ĠçĻ¾å®¶ä¹Ĳ appä¸ĭè½½
å®¶ åĽŃ
Ġåĩ¯åıĳæŃ£è§Ħ ç½ĳåĿĢ
n ew
æ£ °ï¿½
Ġä¹Ŀ æ±Ł
åĬĽ åº¦
Ġ ä¿¡çĶ¨åį¡
ãĢĤ ãĢĬ
å¾ ©
365ä½ĵèĤ²æĬķæ³¨ å®ĺç½ĳ
æµĭ éĢŁ
Ġ918ï¿½éİıçĦ¯æª¬åıªï¿½ çīĪ
ĠåĨħèĴĻåı¤ èĩªæ²»åĮº
åī Ĭ
ĠæĳĦ å½±
å°ı åĵ¥
ç±»ä¼¼ çļĦapp
æł¼ å¼ı
å®ª æ³ķ
Ã ³
Ġg o
Ġéĺ¿ å·´
æĶ¶ çĽĬ
_ b
Ġæĸ° å¿«3
ĠW R
èĥ ¸
æ¼Ķ åĩº
Ġå°ıé±¼åĦ¿çİĦæľº 2ç«Ļ
å¿«ä¸ī èµ°åĬ¿åĽ¾
æĳĦ å½±
æķĳä¸ĸ ç½ĳ
et h
Ġagçİ¯äºļç½ĳç«Ļ æĺ¯åĵªä¸Ģä¸ª
æıĲ ç¤º
ĠY R
ĠæĲŀ ç¬ĳ
Ċæ±Ł åįĹ
ï¼Į åį³
ç¦ ¹
Ġh ref
âĢ ³
æ°Ķ è±¡
able d
éĢ Ľ
27 æĹ¥
Ġ200 5
æĢ ¡
. vip
Ġåĩ¯åıĳå¼ĢæĪ· ç½ĳç«Ļ
Ġ365æ£ĭçīĮ èĭ¹æŀľçīĪ
ĠæĲıå¤©åłĤ918 æĹĹèĪ°
è¿ĩç¨ĭ ä¸Ń
Ġåĩ¯åıĳ 668
Ġäºļç¾İam8 æ¸¸æĪı
B e
- å®ĺç½ĳæ³¨åĨĮ
è½® èĥİ
çł ¸
çº¿ä¸Ĭ æ¸¸æĪı
Ġåħ¬ åħ±
Ġé¦ĸ éłģ
Ġcomment Count
æķĳ æ²»
v b
å© ·
éĤ ±
365æ£ĭçīĮ ãĢĭ
Ġagçİ¯äºļæīĭæľºçĻ»å½ķ åľ°åĿĢ
æŁ ´
ä¿Ħç½Ĺæĸ¯æĢ»ç»Ł æĻ®äº¬
y b
( A
åľ° çĲĥ
Ġ à¤
è· µ
ĠN ov
365ä½ĵèĤ²æĬķæ³¨ ç½ĳç«Ļ
æľīä»Ģä¹Īè¦ģæ±Ĥ åĲĹ
çº¿ ç´¢
å¼ Ī
ä¼ļ æľī
âĢĻ s
ç£ ģ
ãĢĳãĢĲ åĪĨãĢĳãĢĲ
æĶ¹ åĸĦ
æĽĿ åħī
r ap
Ġè ª
Ġäºº æ°£
æĦıåĳ³ çĿĢ
çĸ ı
å·¥ä½ľ ï¼Į
Ġåĩ¯åıĳçĶµæ¸¸ å®ĺç½ĳä¸ĭè½½
Ġsp an
å¿«ä¸ī è®¡åĪĴ
Ġc ont
æ°´ åĻ¨
ä¼ ¸
Ġagçİ¯äºļ çĶµåŃĲ
Ċ äº¬
Ċ å¤ļ
9 50
Ġg oogletag
å¤§ éļĬ
Ġagçİ¯äºļçĶµåŃĲ çĻ»éĻĨä¸ĭè½½
Ġ ä¾ĽåºĶ
å¤§ åİ¦
Ġåĩ¯åıĳæľĢæĸ° çīĪæľ¬ä¸ĭè½½
Ġ365bet å¤ĩçĶ¨ç½ĳåĿĢ
Ġå¤ĸ åªĴ
æ¸ħ æĺİ
à¹ Į
Ġéĺ¿å·´ åĺİ
7 6
æĿ© ï¿½
Ġåĩ¯åıĳçĶµæ¸¸ å¹³åı°å¼ĢæĪ·
æ© ĺ
æ½ ĩ
èµĮéĴ± ç½ĳç«Ļ
åĪĿ å¿ĥ
åĬ© çĲĨ
' +
ä»į çĦ¶
çŃ Ĵ
æ «
éĽĨ ä½ĵ
ĠS E
è¯Ħ ç½ĳ
ĠagçľŁäºº å¹³åı°
ï¿½ l
Y29 t
ç° §
. length
Ġ365æ£ĭçīĮ æľīæ²¡æľī
æĦŁ æŁĵ
Ġag æīĭæľºçīĪå®¢æĪ·ç«¯
Ġåı Ĭ
é¬ Ĩ
.c o
å¿Ĺ ä¼Ł
Ġåħ ¥
ç» ¾
Ġçī ĩ
éľ ŀ
Ġçİ¯äºļ åĽ½éĻħå¨±ä¹Ĳ
éĢĢ å½¹
1 .5
Ġæ¾³éĹ¨ åľ¨çº¿
Ġä¸ĸçķĮæĿ¯ å¤ĸåĽ´æĬķæ³¨
Ġäºļæ¸¸çĻ»å½ķ åĻ¨
schem as
çļĦ åħ¨éĥ¨
æľĢæĸ°çĻ»å½ķ ç½ĳåĿĢ
ĠD isc
od el
Ġæ¾³éĹ¨åħŃä¸ĭ å½©ç½ĳç«Ļ
Ġæ¾³éĹ¨ æĬķæ³¨å¹³åı°
Ġåĩ¯åıĳä½ĵèĤ²æĬķæ³¨ å®ĺæĸ¹
è®°èĢħä¼ļ ä¸Ĭ
åıį åħ´å¥ĭåīĤ
æĭ ³
ĠçĭĹä¸ĩ å®ĺç½ĳä¸ĭè½½
H D
ç³ ķ
Ġè´ £
Ġèĥ ¡
ĠåĬ¨ çĶ»
æŃ£ ç¡®
éļı åĲİï¼Į
ĠçĻ¾å®¶ä¹Ĳ ä¿¡èªī
Ġ365ä½ĵèĤ²æĬķæ³¨ çĽĺåı£
ãĢĤ ä»İ
Ġæ¾³éĹ¨ag çİ¯äºļçľŁäºº
é¼ĵ åĬ±
å°Ķ å¸Ĥ|
ĠL ED
ĠçĭĹä¸ĩ èĭ¹æŀľ
åĲĮ æł·
ãĢĳãĢĲ ä¸Ĭ
ĠE xp
Ġåĩ¯åıĳ å¹³åı°æ³¨åĨĮ
ä¸ĭ åįķ
åıĭ è°Ĭ
è¾ħåĬ© è½¯ä»¶
Ġçİ¯äºļagå¹³åı° å®ĺæĸ¹åħ¥åı£
è¾° åľ¨çº¿
æīĭæľºæĬķæ³¨ ç½ĳåĿĢ
å°± åľ¨
åħŃ çłģ
çĶ³è¯· ag
ĊåĮĹäº¬ æĻļæĬ¥
åĲ Ĳ
éĴ± åĲĹ
Ċ åŁİå¸Ĥ
ï¼ī æµ·å¤ĸç½ĳ
Ġå¼Ģåħĥæ£ĭçīĮ å¼ĢæĮĤ
æľĢ çīĽ
æµ ĵ
ãĦ §
èĬĤ çĽ®
Ġè¿ Ķ
log y
çŃī çº§
ä¿Ŀ èŃ·
Ċâ ĨĲ
å¤ĸ åĽ½
å· ¾
ĠåĪ©æĿ¥ æīĭæľºå®¢æĪ·ç«¯ä¸ĭè½½
ĠåĪ©æĿ¥w66å¹³åı°æ³¨åĨĮ çĻ»å½ķ
æľī äºĽ
re n
Ċæ°´æ¯į ç½ĳ
Ġæ¯ Ľ
Ġäºļç¾İam8app åı¯éĿł
ĠäºļæĲıè§Ĩé¢ĳ appä¸ĭè½½
åĪļ åĪļ
æĥħåĨµ ï¼Į
æ£ĭçīĮæ¸¸æĪı å¤§åħ¨
Ċé¦Ļæ¸¯ æĹħæ¸¸å±Ģ
Ġ365 è¶³å½©
Ġ1 )
ĠagåĽ½éĻħ éĽĨåĽ¢å®ĺç½ĳ
çĽĽ é¡¿
æ£ĭçīĮ ,
Ġäºļç¾İam8 agæĹĹèĪ°åİħ
Ċ åĲī
éĽ» è¦ĸ
èµ°åľ° çĽĺ
l and
ĠçĻ¾å®¶ä¹Ĳ ç½ĳæĬķ
Ġæīĺ ç¦ı
O K
èİ Ĩ
.p ush
åĮĹ æµģ
Ġwh ich
ï¼ī åİŁæłĩé¢ĺï¼ļ
è·¯ åįķ
Ġ365betå®ĺç½ĳ æĬķæ³¨
ä¹ł ä¸»å¸Ń
åĽ½ è¶³
æĥ³ åĪ°
Ġäºļæ¸¸éĽĨåĽ¢å®ĺç½ĳ çĶ³è¯·ag
çį ¨
Ġé»ĺ è®¤
ä¸ª åĪ«
è¼ ª
æĭ ¨
èĩª èº«
Ġ2 .
çŃĶ æ¡Ī
Ġåĩ¯åıĳçĻ»å½ķ é¦ĸé¡µ
éĥ¨ ç½²
Ġæĥ ³
Ċæ±ŁåįĹ éĥ½å¸ĤæĬ¥
Ġ ä»·æł¼
Ġæİ¨èĸ¦ ,
Ġæķ ´
ä¸Ńåħ± ä¸Ńå¤®
ï¼Į æ²¡æľī
é«ĺ æł¡
ãĢĳãĢĲ ä¸ºãĢĳãĢĲ
èĢģ éħĴé¬¼éħĴ
urn :
åĩł å¹´
çº¿ä¸Ĭ å¨±ä¹Ĳ
Ġåĩ¯åıĳæ³¨åĨĮå¹³åı° å®īåįĵçīĪä¸ĭè½½
åĮĹäº¬ pk10
çĲĨ æĥ³
æĭħ å¿ĥ
Ċ çĻ¾
A Y
¸ °
schemas -m
urn: schemas-m
icrosoft -com
urn:schemas-m icrosoft-com
Ġé¸¿è¿Ĳ åĽ½éĻħå¨±ä¹Ĳ
ä¸įèĥ½ æıĲçİ°
åº «
è¦ģ åĩłå¤©
é» ĥ
æıĲçİ° ä¸įäºĨ
Ġåĩ¯åıĳ ç½ĳç«ĻçĻ»å½ķ
é½Ĳ é²ģ
çľĭ çľĭ
æ±Ł åİ¿
Ġæ¾³éĹ¨ç½ĳä¸Ĭ çĻ¾å®¶ä¹Ĳ
ä¸Ńæĸĩ ç½ĳåĿĢ
"). append
ĠçľŁäººæ¸¸æĪı åľ¨çº¿
velo p
çķĮ éĿ¢
ic on
ä¿¡ å¿ĥ
Ġå°ı é¡į
å¦» åŃĲ
Ġæ¾³éĹ¨åħŃä¸ĭ å½©å¼Ģå¥ĸç»ĵæŀľ
4 ãĢĳãĢĲ
éĵ¶æ²³ å¼ĢæĪ·
éģĬ æĪ²
çº¢ èī²
æĢİä¹Ī åĽŀäºĭ
ä¸Ģ é©¬
Ċ R
, äºļåįļ
æµ· ä¸Ĭ
Ċä¸ŃåĽ½è¥¿èĹı ç½ĳ
èģ ²
éĺħè¯» æ¨¡å¼ı
è¢« éĶģå®ļ
3 åĪĨå¿«3
ï¼Į çĦ¶åĲİ
Ġå¥ Ĺ
Ġ365æ£ĭçīĮ çĤ¹åį¡
Ġ3 00
æıĲä¾Ľ äºĨ
A V
æ¬§æ´² æĿ¯
æ²¡ äºĨ
Ċ2018-0 7
Ġèµ¢ éĴ±
Ġ| éĺħè¯»æ¨¡å¼ı
å¸¦ çĿĢ
Ġ8äºļæ¸¸ éĽĨåĽ¢
Ġal so
Ġåĩ¯æĹ¶åĽ½éĻħ å®ĺç½ĳ
Ġå¤§åıĳå¿«ä¸ī å¦Ĥä½ķ
M y
åħ§ å®¹
éĻĲ æĻĤ
ĠS uite
urn:schemas-microsoft-com :office
åİ ī
ĠçĭĹä¸ĩ åĩºæ¬¾
é«ĺ èĢĥ
ent al
åħµé©¬ ä¿ĳ
åºĨ ç¥Ŀ
å¨±ä¹Ĳ è®¯
ĊæĹ©é¤Ĳ ç²¥
Ġç½ĳä¸ĬçĻ¾å®¶ä¹Ĳ appä¸ĭè½½
Ġag å®ĺæĸ¹å¹³åı°
æĿ¥ æºĲ
ç»ıæµİ åıĳå±ķ
æŃ£è§Ħ çļĦ
Ġå°ı è¯´
çĶµè¯Ŀ ï¼ļ
ì §
è¥¿ éĥ¨
Ġæĥ ħ
ĠåĽŀ å¤į
å°Ī åįĢ
çī¹ çº¦
ç®Ģ ç§°
ĊåĮĹäº¬ æĹ©çĤ¹
éª ĳ
Ġp eople
ĠJ ul
åı Ķ
æİ¨ çī¹
Ġag 166
èģĶèµĽ é¢Ħæµĭ
æĵ ĩ
ĊæĪĲéĥ½ åķĨæĬ¥
å¾· èİ±
ãĥ ¼
éĺ³ å¤©æ°Ķ
S I
ĠåĪĺ ä¼¯æ¸©
ĠçĭĹä¸ĩ è´¦åı·
é£ŀ èĪ¹
Ġå¹¸è¿Ĳ 28
Ġåĩ¯åıĳå®ĺç½ĳçĻ»å½ķ èĭ¹æŀľçīĪä¸ĭè½½
åįĹ æĸ¹
Ċ æ¸©
è¿Ľ å±ķ
é¦ĸ çĽ¸
ĠÐ ²
ĠN ext
ĠæİĴ åĪĹ
æĹ¶ ç©º
è§¦ å¤´
Ġ2020-01 -19
80 åĪĨ
èħ °
Ġs itemap
ä¾¿ æį·
ĠçľŁéĴ±æ£ĭçīĮ app
ãĢĳãĢĲ s
éĵ¶è¡Į éªĮè¯ģ
ä¹ ¾
äºĭ å®ľ
åı£ éķĩ
as on
ĠçľŁéĴ±æ£ĭçīĮ å®ĺç½ĳ
Ġäºļæ¸¸éĽĨåĽ¢ æ³¨åĨĮ
ä¸ĭè½½ èĭ¹æŀľ
Ġçº¿ä¸ĬçľŁéĴ± æ³¨åĨĮ
å¤ª å¤ļ
Ġå¤§åıĳç§ĴéĢŁ é£ŀèīĩ
åľ° çĤ¹
åĴĮ çĭĹä¸ĩ
ĠåįĹ å±±
Ġæľīä»Ģä¹Ī å¥½çļĦ
Ġäºļç¾İam8 å®¢æĪ·ç«¯ä¸ĭè½½
Ġä¸Ń è¶ħ
f ter
ï¼ļ å¤§åıĳå½©ç¥ŀ
ĊçĥŃ éĹ¨
ĠçľŁéĴ±çº¿ä¸Ĭ æ¸¸æĪı
ĠæŀģéĢŁ æİĴåĪĹ3
æĦ¿ æĦı
ãĢģ ä¸Ń
è¿İ æĿ¥
é¤Ĳ å»³
èĢģ çīĪ
Ċ åĺī
bet365 å®ĺç½ĳ
Ċ2019-0 1
ĠV ill
çī¹ åĥ¹
èĤ ©
å®¢æĪ·ç«¯ å®ĺç½ĳ
c olor
Ġ365æ£ĭçīĮ å®ĺæĸ¹
ĠçľŁéĴ±çº¿ä¸Ĭ æ³¨åĨĮ
zh ou
Ġæ¾³éĹ¨çľŁéĴ± é¾ĻèĻİå®ĺæĸ¹ç½ĳç«Ļ
ä¸į å¹¸
é²¸ è´¢ç»ı
æ¸¸æĪı å®ĺæĸ¹ç½ĳç«Ļ
ID 0g
c d
IOS ä¸ĭè½½
æĺ¯åĽ½å®¶çļĦ å½©ç¥¨åĲĹ
yabo 88
kb88 .com
çħ§ æĺİ
Ġåĩ¯æĹ¶ ç½ĳåĿĢ
Ġçº¿ä¸ĬçľŁäºº ç½ĳç«Ļ
éĽ ģ
Ġ2018 ä¸ĸçķĮæĿ¯
ĠçľŁéĴ± ç½ĳç«Ļå¼ĢæĪ·
æĺ¯ å®ĺæĸ¹
Ĉą Ĉ
Ġå¤§åıĳæŀģéĢŁ é£ŀèīĩ
Ġ Ćą
ĠçľŁéĴ±æ£ĭçīĮ æİĴè¡Į
H I
ĠagåĽ½éĻħäºļæ¸¸ å®ĺç½ĳä¸ĭè½½
åįĩçº§ 80åĪĨ
33 3
ĠçľŁéĴ±æ£ĭçīĮ æľĢå¥½
Ġçº¿ä¸ĬçľŁäºº åįĩçº§80åĪĨ
è·ĳ è·¯
æĢİä¹Ī åģļ
å¤ļ å®¶
Ġå®ŀ ä¹ł
æİ¨èįĲ ï¼ļ
Ġçº¿ä¸ĬçľŁéĴ± èµĮéĴ±ç½ĳç«Ļ
èĸ ĩ
Ġ2018 -01
Ġ http
25 8
åľ¨çº¿ è¯Ħçº§
äºĳ æ¸¯
å¤ª ç©º
ĠM ac
201 4å¹´
ë ĵ
èĤ Į
èĢĥ åı¤
æ¸ £
ĠçĭĹä¸ĩ æĬķæ³¨ç½ĳåĿĢ
ĊèĵĿ é²¸è´¢ç»ı
ĊæĺŁ è¾°åľ¨çº¿
Ġæ¾³éĹ¨çĻ¾å®¶ è·¯åįķ
ĠçľŁéĴ±æ£ĭçīĮ å¹³åı°
åł µ
15 0
Ġï¿½éİıçĦ¯ï¿½918 æĹĹèĪ°ä¸ĭè½½
Ġçº¿ä¸ĬçľŁäººèµĮéĴ± ç½ĳ
Ġæľīä»Ģä¹Īå¥½çļĦ æ£ĭçīĮå¹³åı°
ĠçľŁéĴ± åľ¨çº¿è¯Ħçº§
æĮī ï¿½o
ĠçľŁéĴ±æ£ĭçīĮå¹³åı° å¤§åİħ
åĪ¤ åĨ³
7 00
or th
åħ¨åĽ½ äººå¤§
å¹³åı° |
Ġçº¿ä¸ĬçľŁéĴ± ä¿¡èªīç½ĳç«Ļ
D F
éĺ³ ç½ĳ
Ġåĩ¯æĹ¶åĽ½éĻħ kb88.com
ĠçľŁéĴ±çº¿ä¸Ĭ æĶ»çķ¥
ĠçĭĹä¸ĩmb æıĲçİ°
Ġçº¿ä¸ĬçľŁéĴ± éĵ¶æ²³å¼ĢæĪ·
æīĭæľºç½ĳåĿĢ å¤ļå°ĳ
à¹ Ħà¸
çłĶç©¶ çĶŁ
Ġl ike
Ġæ¬§ æ´²
ãĢĤ å¥¹
æ³° åĽ½
åģļ æ³ķ
éĺ³ å¸ĤéĤ®ç¼ĸ
Ċ ä¹Ŀ
Ġäºļç¾İ ç½ĳåĿĢ
ID0g XCI
éĥ ¡
ãĥ ³
Y3Jpc HQ
Ġåĩ¯åıĳAGæĹĹèĪ°åİħ app
è¾ Ī
å½ ¬
éĽ¶ åĶ®
od y
åĭ Ł
æĻĤ å°ļ
éĤĵ æŁĲ
æĮĩ æłĩ
æ¯Ķ åĥ¹
Ġ365betå®ĺç½ĳ çĽĺåı£
åĭ ¿
æķĪ æŀľ
Ġå¤§åıĳå¿«ä¸ī å¤§å°ıåįķåıĮ
Y2 xp
Y2xp Y2
Y2xpY2 su
Ġagäºļ éĽĨåĽ¢
è¿ĩç¨ĭ ä¸Ńï¼Į
æ¯Ķè¼ĥ å¥½
æĺ¯ è¦ģ
Ġçº¿ä¸ĬçľŁéĴ± åľ¨çº¿
ĠèµĮéĴ±çļĦè½¯ä»¶ çĤ¸éĩĳèĬ±
Ġæ¾³éĹ¨çľŁéĴ± çº¿ä¸Ĭæ¸¸æĪı
åĽł ç´ł
ç»ıæµİ æĹ¥æĬ¥
Ġéĺ¿å·´åĺİ æĹĹ|
è¿ĳ æľŁ
Ġäºļæ¸¸ æīĭæľºå®¢æĪ·ç«¯
Ġéļ ¨
æı Ľ
T -
ĠçľŁäººçĻ¾å®¶å®¶ä¹Ĳ æīĭæľºçīĪ
L G
è¬ Ŀ
ĠæĲıå¤©åłĤ918 æĹĹèĪ°ä¸ĭè½½
æĬµ è¾¾
éı Ī
ar m
éĺ³ åħ¬äº¤
æĭĽåķĨ æĢ»ä»£
åĳ Ī
æĶ¿ åĬ¡
E vent
åħ¬ ãĢĳãĢĲ
çī© è´¨
Ġy ear
2 .5
ĠçĻ¾å®¶ä¹Ĳåľ¨çº¿ æ¸¸æĪı
åįķåıĮï¼ļ çĸ¯çĭĤ
Ġå² ©
Ċæ²³ åįĹ
è´¯ å½»
ł éĻ¤
çĳ ľ
ĠåĨ Ľ
2 F
ĠãĢĳãĢĲ b
Ġä¸Ģ åĹ¨
ç¹ ³
éĺ³ å¸ĤåĮºåı·
ĠæľĢç»ĻåĬĽåĪ©æĿ¥ èĢģçīĮ
ĠagçľŁäºº æīĭæľºæĬķæ³¨
Ð ¤
Ġåĩ¯åıĳçĶµæ¸¸ æīĭæľºapp
Ġä¸ĢåĹ¨ ç§Łè½¦-
Ġåĩ¯åıĳæīĭæľº appä¸ĭè½½
è¶ĭ åĬ¿
ãĢĢ ãĢģ
çī¹é©¬ç»ĵæŀľ |
æĬĬ æı¡
éĤ®ä»¶ éªĮè¯ģ
Ġåĩ¯åıĳ æĬķæ³¨å¹³åı°
è·¯éĢı ç¤¾
Ġp age
re am
Ġçī¹ é©¬
t a
ĠåĽ½éĻħ agæĹĹèĪ°åİħ
æ½ ĺ
ç½ĳç«Ļ æĬķæ³¨
Ġåĩ¯æĹ¶åĽ½éĻħ æľĢæĸ°åľ°åĿĢ
2019 -10
ä¸į çĶ¨
çĶ¨ä»Ģä¹Ī æµıè§ĪåĻ¨
Ġè¿ ĳ
èµ ģ
æ© ¡
Ġ???? ?
è§Ĥå¯Ł èĢħ
Ċ2020-02-2 2
æºª éķĩ
æħ Ī
js 12
ĠçĭĹä¸ĩ å®īåįĵ
ĺ Ĩ
åĿļ å®ļ
ç½ĳç»ľ å¨±ä¹Ĳ
er i
Ċæłªæ´² æĸ°éĹ»ç½ĳ
å¿ĥ çĲĨ
ç§ĺ è¯Ģ
åĸ ·
Ġw66åĪ©æĿ¥ å®ĺç½ĳå¹³åı°
æ¨ ĵ
åįķåıĮï¼ļ 2
åĩ ī
é¢Ĩ è¢ĸ
æ³ķ åºŃ
èµĦ æł¼
ç¤¾ä¼ļ ä¸»ä¹ī
æĹł è®º
r .
Ġåĩ¯åıĳ æīĭæľºçīĪapp
çĽ´ éĶĢ
æĹ¥ åīį
ï¼ĮæĪĳ ï¼ĮæĪĳ
Ċç¾İåĽ½ CNN
Ċ ä¸»é¡µ
çĽ¸ æ¯Ķ
çĻ¾ ä¹Ĳå½©
Ċ äº§åĵģ
Ġå°Ĭé¾ĻäººçĶŁå°±æĺ¯åįļ appä¸ĭè½½
ĠC omment
ĠäºļæĲı appä¸ĭè½½
æ¡ ¶
ĠéŁ© å¼ı
Ġæĸ°èĳ¡èĲĦäº¬ å®ĺç½ĳ
ï¼Į ä½¿
ç« Ĭï¿½
åĴĮ âĢľ
æİ¢ ç´¢
æĪĺ äºī
ĠçľŁ æŃ£çļĦ
åįķåıĮ _
Ġçİ¯äºļ æĹĹèĪ°åİħ
æķĪ çİĩ
1 wv
ud io
Ġ" "
ï¼ ı
Ġå½© 61
font -
ĠçĭĹä¸ĩ åľ°åĿĢ
ĠçĲ ĥ
æ±¡ æŁĵ
åĵ ¦
è¿ŀ äºĳæ¸¯
æĹ ģ
Ġåĩ¯åıĳçĶµæ¸¸ ç½ĳåĿĢå¤ĩçĶ¨çĻ»å½ķ
Ġthe y
ç¾İåĽ½ æĢ»ç»Łçī¹æľĹæĻ®
iv es
Ġèħ¾è®¯ 1.5åĪĨå½©
ï½ ¼
ĠæĿ ¿
_å½©ç¥¨ éĤĢè¯·çłģ_
Ċ ä»Ĭ
Ġ365æ£ĭçīĮæ¸¸æĪı è´¦åı·
å¹¿ æ³Ľ
Ġä¸º åķ¥
Ġç«Ļéķ¿ å·¥åħ·
t he
Mz M
å©ļ ç¤¼
Ġ" ";
Ġéķ ·
Ħ ï¿½
è®°èĢħ ï¼ļ
ä¸ĭ äºĨ
Ġæľª çŁ¥
åĭ ĭ
ĠFR OM
åĩº åľĭ
Ġçī Į
åĽ½éĻħ èµĮåľº
éĢģ ä½ĵéªĮéĩĳ
m .
æıĲæ¬¾ éªĮè¯ģ
Ġåĩ¯åıĳ å¹³åı°å®ĺç½ĳ
å·¥ èīº
çļĦ åıĳå±ķ
Ġ12 æĹ¶
Ġæ¾³æ´²å¹¸è¿Ĳ 5
åĬ© èµ¢
éĬĢè¡Į ä¿¡çĶ¨è²¸æ¬¾
æ³ķ è§Ħ
Ġa cc
éĤ »
Ġçİ°éĩĳç½ĳ appä¸ĭè½½
ä¸ĢèĤĸ ä¸Ńçī¹
Ġåĩ¯åıĳå®ĺç½ĳ æ¬¢è¿İæĤ¨
our ce
éĢģ éĩĳå¸ģ
Ġåĩ¯åıĳæ¸¸æĪı å¤§åİħ
èĻ «
ç¡® å®ŀ
ç³ĸ æŀľæ´¾å¯¹
ä½ľ ä¸ļ
Ġåĩ¯åıĳ å®ĺæĸ¹ä¸ĭè½½ç½ĳç«Ļ
ãĢĳãĢĲ å·¥
éħĴåºĹ >
ĠâĢĶ âĢĶ
éĽ¶ ä»¶
/ 4
çĢ¹ ï¿½
Ġthe ir
Ġåĩ¯æĹ¶åĽ½éĻħ åħ±èµ¢åħ±æ¬¢ä¹Ĳ
ĠN ews
ĊéĤ ¯éĥ¸
Ġåĩ¯åıĳæŃ£è§Ħ ä¸ĭè½½
äº¤ èŃ¦
ąĆćą ąć
c el
ä¸ĸçķĮæĿ¯ çīĪ
èµĮåľº å¨±ä¹Ĳ
Ććą ąĆćąąć
éĬ Ĩ
ç´ Ķ
æĭī èĲ¨
F lag
Ġä¹Ŀ å·ŀ
Ġåįģ ä¸Ģ
ĠæĢİä¹Ī èģĶç³»
Ġ" urn:schemas-microsoft-com:office
çĽ® å½ķ
ä¸Ńåįİ äººæ°ĳåħ±åĴĮåĽ½
Õ¥ Õ
åĵªéĩĮ æľī
éĩį è§Ĩ
çī µ
Ġåĩ¯åıĳ Ag
Ġåĩ¯åıĳ è´¦åı·
Ġåĩ¯åıĳæīĭæľº é¦ĸé¡µ
Ġåĩ¯åıĳçľŁäºº åľ¨çº¿
çľŁ çļĦåĲĹ
ĠagåĽ½éĻħäºļæ¸¸ å®ĺç½ĳçĻ»å½ķ
Ġé£ Ł
ĊèĲ§å±± æĹ¥æĬ¥
å¿«éĢĴ å°ıåĵ¥
ĠÐ ¸
Ġé«ĺ ä¸Ń
è¡¨ è¾¾
åıĺ æĪĲ
Ġ365æ£ĭçīĮ çĶµçİ©åŁİ
Ġagå¹³åı° æľĢæĸ°çĻ»å½ķåľ°åĿĢ
ĠæĻ¯å¾· éķĩ
Ġåĩ¯åıĳä¸ĭè½½ è¿Ľåħ¥
çºª å½ķ
å®ĺæĸ¹ _
Ċ2019 -8
Ġapp è¿Ľä¸įåİ»
Ġä¸ĩåįļapp æĢİä¹Ī
Ċä¸īäºļ æĹ¥æĬ¥
å®ī å¤ĩ
æīĳåħĭ ä¹ĭæĺŁ
è° Ĳ
Ġåĩ¯åıĳçĶµæ¸¸ æľĢæĸ°ç½ĳåĿĢ
Ġåĩ¯åıĳæŃ£è§Ħ åľ¨çº¿
ro ll
k b
Ġåĩ¯åıĳå®ĺæĸ¹ åľ°åĿĢ
ãĢĤ ä»ĸä»¬
çļ Ĩ
Ġäºļç¾İåĽ½éĻħ ä¼ĺæĥłå¤ļä¸ĢçĤ¹
ç§ģ äºº
ìĿ Ģ
ä¼ļ ä¸Ĭ
Ġåĩ¯åıĳæīĭæľº è¿Ľåħ¥
Ġåĩ¯8 å¨±ä¹Ĳ
çĪ± å¿ĥ
888 bc
Ġå¤§åıĳäºĶ åĪĨéĴŁpk10
ang u
Ġæľ¬ æ¸¯åı°
ç¬¬ä¸Ģ æĹ¶éĹ´
èĥ½ æīĵå¼Ģ
Ġäºļç¾İ å¼ĢæĪ·
Ġç¬¬ äºĮ
ç§»åĬ¨ çīĪ
æ¦Ĥ çİĩ
çĽĳ å¯Ł
ĠéĴ ±
Ġåħ³äºİ æĪĳä»¬
æ´Ľ ä¼Ĳ
æķĻèĤ² å±Ģ
æĢİä¹Īä¹° çĲĥ
ĊæĹ©é¤Ĳ è¿ŀéĶģ
èµĮåľº å®ĺç½ĳ
çľĭ åĬ¨çĶ»
ĠçĶ³ åĭĩ
ï¼Į è¿ĺæľī
Ġ365ä½ĵèĤ² å¤ĩçĶ¨ç½ĳåĿĢ
æıĲä¾Ľ çļĦ
å®īåħ¨ ä¸į
Ġagåľ¨çº¿ å¹³åı°ç½ĳç«Ļ
y s
ç¥ ¸
ç¨ į
æ¸¸æĪıå®ĺç½ĳ æ³¨åĨĮ
L S
Ġé Ĭ
5 å¹´
Ġåĩ¯åıĳå®ĺç½ĳ å¤ĩçĶ¨
æ´Ľä¼Ĳ åħĭ
é£ ²
Ġåıĭ æĥħ
Ġåĩ¯åıĳåľ¨çº¿å¹³åı° ä¿¡èªī
æĢİä¹Ī å¼Ħ
Ġh is
è» Ł
åľ°ä¸ĭéĮ¢èİĬåĢŁéĮ¢ èº«åĪĨèŃī
éĵ ®
è³ ½
Ġäºļç¾İag å¨±ä¹Ĳappä¸ĭè½½
æŃ£ç½ĳ å¼ĢæĪ·
ĠåĪ©æĿ¥ å¨±ä¹Ĳ
çĶ» éĿ¢
åĽ½ ç½ĳ
1 ,
åįı å®ļ
éĺ Ģ
Ġm omo
å¼ ¦
u ang
éĿłè°± ä¸į
ĠçĭĹä¸ĩ çĻ»å½ķç½ĳåĿĢ
åī ©
/ çĸ¯çĭĤ
åı¯ä»¥ ä¸ĭè½½
Ġåįĥ èµ¢
Ġäºļç¾İæ¸¸æĪı åĽ½éĻħå¹³åı°
Ġäºļç¾İåĽ½éĻħ æīĭæľºçīĪ
Ġåĩ¯åıĳä¸ĭè½½ å¹³åı°
Ġbet365 -ä½ĵèĤ²æĬķæ³¨
ç§ĺ å¯Ĩ
Ċ çīĪæĿĥæīĢæľī
æ¦Ĩ æŀĹ
î ĭ
Ġäºļç¾İç½ĳ ä¸ĭè½½
æĬ¥ ç½ĳ
Ġj Query
Ġäºļç¾İç½ĳ å®ĺç½ĳ
Ġäºļç¾İ æ¸¸æĪıå®ĺç½ĳæ³¨åĨĮ
æķ° åŃ¦
éĥ¨ ä»¶
èĤ º
ĠèµĮ çĲĥ
c ount
ĠW orld
ĠçĤ¹åĩ» æķ°ï¼ļ
Ġ1 .8
ner HTML
èĥ½æıĲçİ° åĲĹ
"). attr("
Ġäºļç¾İ éĽĨåĽ¢å®ĺç½ĳ
a ir
Ġæº ª
Ġè¢ «
Ġv al
ãĢĢ æĿ¥æºĲ:
d om
Ġagçİ¯äºļ å®ĺç½ĳç½ĳåĿĢ
Ġäºļæ¸¸ æīĭæľºå®¢æĪ·ç«¯ä¸ĭè½½
æĻº åĪ©
äºº ä¸º
Ġè´ Ŀ
ĠåĪ©æĿ¥èµĦæºĲ ç½ĳç«Ļ
Z W
8 6
æľĢå¿« å¼Ģå¥ĸç»ĵæŀľ
ĠåĮ »
Ġå¤§åıĳäºĮ åĪĨéĴŁpk10
Ġå¤§ éĻĨ
æĺ¯ å¸¸
åĨĽ ç½ĳ
Ġs how
Ġ00 :00
æĢ ĸ
ãĢĤ åı¦
å¯» æ±Ĥ
Ġç½ĳä¸Ĭ èµĮåľº
æĢİä¹Īä¸ĭè½½ app
Ċ æľŁæľĽ
ĠçĭĹä¸ĩ æīĭæľº
ãĢĳãĢĲ é¢ĺ
Ġ360 æĲľç´¢
ip hone
åħ Ĩ
çĥ ¤
ĠçŁ¥ ä¹İ
5 6
Ġ10 åĪĨå½©
åĽŀ å®¶
äºĭ ï¼Į
æĬ Ľ
ä¸Ĭ åĳ¨
ĠçļĩåĨł å¼Ģåħĥæ£ĭçīĮ
åľ¨ æĬ¼
è¡ «
ç³ ľ
åįĹ äº¬
ĸ ´
ä¸Ńåįİ æ°ĳæĹı
æĳ©æīĺ è½¦
ĠæĹ¥åįļ ä½ĵèĤ²åľ¨çº¿
Ġ365æ£ĭçīĮ æīĵé±¼
i se
ÖĢ Õ
Ġå¤§åıĳå¿«ä¸īæĺ¯ ä¸įæĺ¯
é» Ķ
äºº æĥħ
Ġå½©ç¥ŀ8 å¿«3
æĺİ çıł
â Ĵ
é«ĺæīĭ è®ºåĿĽ
Ġsl iderImage1
x x
èĭ¹æŀľ æīĭæľº
is æŁ¥è¯¢
ä¼Ł å¤§
ition al
å¹´ ä»¥ä¸Ĭ
à¸ ±à¸
+ +
æĸ Į
¼ çºĮ
åľ¨æĬ¼ äººåĳĺ
E C
èµ· ï¼Į
ĠåķĨ åĬ¡
Ġs it
æŃ¦ åĻ¨
Ġé¦Ļæ¸¯åħŃ åĴĮ
Ġ1 .5åĪĨå½©
å¥ ı
Ġè¶³çĲĥ æ¯ĶåĪĨ
é£İ äºĳ
ĠagçľŁäººåľ¨çº¿ ç½ĳåĿĢ
Ġäºļæ¸¸ appä¸ĭè½½
æĢİä¹Ī å®īè£ħ
æĬĢ èĥ½
. 12
Ġå¤§åıĳåįģ åĪĨéĴŁpk10
éĢģ éĩĳ
ĠçĭĹä¸ĩ æĺ¯ä»Ģä¹Ī
Ċæ±Łè¥¿ æĶ¿åºľ
918 æĹĹèĪ°åİħ
é Ī
é¦ ¨
Ġagçİ¯äºļ å¹³åı°app
äºĮåħ« æĿł
Ċ 365
å°½ ç®¡
å®ĺç½ĳä¸ĭè½½ å®īè£ħ
% ï¼Į
æĻļ ï¼Į
Ġtrue ,
æĥ ¯
å¨±ä¹Ĳå®ĺç½ĳ ç½ĳåĿĢ
Ġwho isæŁ¥è¯¢
ë ¦
ä¼ļ ä¸įä¼ļ
ĠccåĽ½éĻħç½ĳæĬķ å®ĺç½ĳ
çļĦ é«ĺ
Ġä¸ĩåįļ çĭĹä¸ĩ
a æİĴåĲį
æ¸¸ æ£ĭçīĮ
Ġæ¾³éĹ¨ å¨±
éĦ Ĥ
éĵ¶æ²³ æīĭæľºç½ĳåĿĢ
æ±½è»Ĭ è²¸æ¬¾
Ġä¸´æ² Ĥ
ä¹° æ¯ĶåĪĨ
Ġæ¾³éĹ¨å¨± éĵ¶æ²³æīĭæľºç½ĳåĿĢ
ãĢĳãĢĲ å¸Ĥ
åĪĨ åī²
æ°ĳ ä¿Ĺ
äº ©
'). html
2 åı·
ç¼ĸè¾ĳ åĻ¨
å¨ ĺ
ĠæĤ Ł
Ġç§¦çļĩ å²Ľ
Ċ æ±ī
v s
.d isplay
Ġäºļæ¸¸ æīĭæľºå®¢æĪ·ç«¯app
ä¸¾è¡Į çļĦ
ĠSt reet
Ġçİ¯äºļçĶµæ¸¸ å¹³åı°
ĠSt ation
Ġç¾ ¤
ãĢĤ 19
ç»ĵç®Ĺ æĹ¶éĹ´
Ċ2020-02-2 4
éĺ³ 30å¤©å¤©æ°Ķ
ä¼ĺ ç§Ģ
ä¹ī åĬ¡
Ġal ex
ä¸ĸ çĪµ
éªĹ éĴ±
ĠH ong
è§Ĥå¯ŁèĢħ ç½ĳ
Ġæ¸ħ éĻ¤
ç»ĻåĪ©çļĦèĢģçīĮ ç½ĳç«Ļ
æ¸ ł
Ċ åŁŁåĲį
check ed
éĺ³ 15å¤©å¤©æ°Ķ
Ġ1.5 L
åĪ¤ æĸŃ
Ġag çľŁéĴ±
i Phone
Ċäººæ°ĳç½ĳ éĩįåºĨ
æĹ¥ éŁ©
Ċ2019-12 -14
å± Ī
ä» ¿
çļĦ æĦıè§ģ
Ġæ¾³éĹ¨åħŃä¼ļ å½©èµĦæĸĻ
å¤©åłĤ èĪªæ¯į
åĨľ çī§
A I
åŃ¸ è²¸æ¬¾
äºĨ ä¸Ģä¸ª
ãĢĤä½Ĩ æĺ¯
éĺ³ 10å¤©å¤©æ°Ķ
ä¼¼ ä¹İ
æķĻ åŃ¦
åŃĲ åİ¿|
Ġå¼Ģåħĥæ£ĭçīĮ åľ¨åĵª
å½ĵ ä»£
201 4
ç»Ĩ èĬĤ
å¤ĸåĽ´æĬķæ³¨ ç½ĳ
åĲİ æĿ¥
Ġï¿½éİıçĦ¯ï¿½918 å®ĺæĸ¹
è¾¾ åİ¿|
Ġ äºĨ
çĵ ·
éĢģ 50
éĻ· åħ¥
Ċ æĳĺè¦ģ
æĦ ģ
çļ ĭ
å¤© 918æĹĹèĪ°åİħ
Ċ2020-02-2 3
id th
ĠæĲı å¤©918æĹĹèĪ°åİħ
Ġsal e.
T $
ern ame
21 h
Ġå¼Ģå¥ĸ ç»ĵæŀľ
æĢİä¹Ī æıĲæ¬¾
b r
P lx
å¤§åıĳå¿«3 è®¡åĪĴ
ë ¥
aW 4
åħįè´¹æĬķæ³¨ ä¼ĺæĥł
çª ©
ĠæĲıå¤©åłĤ918 å¨±ä¹Ĳåľ¨çº¿
21h aW4
å®ĺæĸ¹çĻ»å½ķ å®¢æĪ·ç«¯
Ġbtt918 å®ĺæĸ¹çĻ»å½ķå®¢æĪ·ç«¯
u o
çĨ± è³£
Ġæ´ »
åĴĮ æĹĹèĪ°åİħ
ĠçĻ¾å®¶äºĨ æ£ĭçīĮ
Ġo ther
éĴ ®
ĠçľŁäºº æ³¨åĨĮå¹³åı°
Ġä¸ĭ åįĪ
C ode
åħ ½
Ġç Ģ
éĶĽ ï¿½ï¿½ï¿½
Ġå ª
Ġ918æĲıå¤©åłĤ å¤©åłĤèĪªæ¯į
é¢Ħ æĬ¥
é£ Ľ
3 45
èĢģ åŁŁåĲį
Ġ ä»ĸ
æľª èĥ½
æĿ± è¥¿
Ġalex aæİĴåĲį
Ġp okerstars
ĠçĪ± åĲį
åıį åºĶ
ĊåŁŁåĲį ä»ĭç»įï¼ļ
ĠçĪ±åĲį ç±³éĵº
Ġè¥¿éĥ¨ ç±³éĵº
Ġä¹° èĢģåŁŁåĲį
æĦı è¯Ĩ
å¯¹æŃ¤ ï¼Į
éķ¿ çļĦ
Ġåĩ¯åıĳå®ĺç½ĳ é¦ĸé¡µ
ĠåĲĮ ä¹ĲåŁİ
å®¶ ãĢĳãĢĲ
Ġçİĭä¸Ńçİĭ ä¸Ńçī¹
_ t
ä¼ĺ è´¨
æīĢ å±ŀ
ç¯®çĲĥ å¤ĸåĽ´
åįķåıĮï¼ļ 3
æĻ®éĢļ çĻ»å½ķ
å®ĺç½ĳç½ĳåĿĢ appçĻ»å½ķ
ĠæĲıå¤©åłĤ å®ĺç½ĳç½ĳåĿĢappçĻ»å½ķ
åĢį æµģæ°´
ĠæŃ£è§ĦçľŁäºº å®ŀä½ĵ
éĶĽ ï¿½ï¿½
çĹħ æ¯Ĵ
Ġbtt918 æĻ®éĢļçĻ»å½ķ
Ģ à¸
èµĽ ç¨ĭ
æľŁ è®¡åĪĴ
çľģ å§Ķ
Ġåĩ¯åıĳ å¹³åı°ç½ĳåĿĢ
å¹³åı° çĻ»å½ķ
Ġæĳ ©
Ġéĵ ¾
æ³¨åĨĮéĢģ 365
Ġreserved. More
_å½©ç¥¨ éĤĢè¯·çłģ
åħ¬ç½ĳ å®īå¤ĩ
Ċ2020-02-2 1
b b
Ġ ä½į
s ite
Ġåĩ¯åıĳå¼ĢæĪ· é¦ĸé¡µ
Ġäºļç¾İåĽ½éĻħå¹³åı° çĻ»å½ķ
ä» °
k a
Ċ2020-02 -20
. apk
Ċ å®Ŀ
ĠS UV
èĥ ªï¿½
P W
ç³ľ èĥªï¿½
ç³ľèĥªï¿½ å»ī
é«Ķ é©Ĺ
Ġåĩ¯åıĳå®ĺç½ĳ æīĭæľºä¸ĭè½½
Ċä¸Ĭä¸Ģç¯ĩ :
ed ia
á Ģ
çİ© å¤§åıĳå¿«ä¸ī
çĶµ åĬ¨
Ċ2020-02-2 6
ĠæĤŁ ç©º
Ġï¿½éİıçĦ¯ ç³ľèĥªï¿½å»ī
æĻ ´
+P Fwv
å¿Ĺ åĭĩ
èĤ¯ å®ļ
åŀ «
ĠãĢĳãĢĲ0 ãĢĳãĢĲpãĢĳãĢĲxãĢĳãĢĲ;ãĢĳãĢĲ
/ ä¸ī
ĠæĤ ¨
ä¸² æĬķ
p f
Ġt itle
m it
Ġ2019å¹´ 11æľĪ
çķ¥ ï¿½
11éĢīäºĶ å¼Ģå¥ĸç»ĵæŀľ
æīĵçłģ éĩı
ĠT o
ech no
æ¥¼ ä¸»
c ãĢĳãĢĲ
åĮĸ å¸Ĥ
å¹´ ä»£
50 8
æīĵ åĩ»
è¿½ æ±Ĥ
Ġbet365 æĹ¥åįļ
app å¤§åħ¨
å°ĳ éĴ±
Ġå® ĭ
è®¼ çķ¥ï¿½
_ g
Ċ æĿ¨
æī¿ è®¤
Ġè»Ĭ è²¸
Ġèĭ± æĸĩ
Ġé«ĺ é¢ĳ
Ġè³ ¼
äº® çĤ¹
Ġ2017 -10
Ġç» ĵ
Ċ2020-02-2 5
ä¹¡ éķĩ
Ġw66åĪ©æĿ¥ agæĹĹèĪ°åİħä¸ĭè½½
æĸĩæĺİ ç½ĳ
Ċ å¤®
m ar
ĠçĭĹä¸ĩ å®ĺæĸ¹app
Ġåĩ¯åıĳapp èĭ¹æŀľçīĪä¸ĭè½½
Ġ356bet æĬķæ³¨
Ġh k
im age
å¸ Ĩ
ä¼¤ å®³
22270 .COM
çİ ĸ
äºĮåĽĽåħŃ å¤©å¤©å¥½å½©
ĠO ff
in fo
Ċä¸ľ èİŀ
ç½ĳç«Ļ è°ģæľī
èĻļæĭŁ è¶³çĲĥ
çĪĨ çĤ¸
ĠçĻ¾å®¶ä¹Ĳ æīĭæľºçīĪapp
ĠæĪ¿ è²¸
ä¾¿å®ľ ,
/ 12
äºĮèĥİ åĢŁæ¬¾
æīįèĥ½ èµ¢
æµ· åįĹ
è¿ĺ åľ¨
ĠâĢ ķ
å²Ĺ ä½į
è¨Ĥ é£¯åºĹ
ä¿¡è²¸ åĪ©çİĩ
æĩ Ī
çİ© çļĦ
åįķåıĮï¼ļ 1
Ġbet36 å¤ĩçĶ¨ç½ĳåĿĢ
ĠåĲ Ħ
èµ¢éĴ± åĲĹ
Ñ ĭ
Ġäºļæ¸¸ag 105
å°ıè¯´ ç½ĳ
Ġ365ä½ĵèĤ²æĬķæ³¨ æĹ¥åįļ
çĽĳ æµĭ
î ĺ
vi ew
æĿ¥ äºĨ
Ġå°Ĭé¾Ļ æīĭæľºç½ĳé¡µçīĪ
Ġå¦Ĥä½ķ çĻ»å½ķ
LE D
æľ¬ æ¬¡
ç´ ĵ
ä¸ľ éĥ¨
ĠæĽ ¼
ĠJ un
j g
Ċä¸» æ¼Ķ
4 çłģ
èĶ ĵ
ic s
Ċ2019-12 -16
åģļ åĩº
æľī éĹ®é¢ĺ
èĢģçīĮ w66
å¸¸ å§Ķ
-- -
Ġå¤ĸåĽ´è¶³çĲĥ 365
çĶµåŃĲ å¹³åı°
L ink
äº ¦
åºĨ ä½Ļå¹´
Ġa v
å¤§å°ı _
ĠçľŁéĴ±æ£ĭçīĮ åı¯æıĲçİ°
/ 11
c o
Ċ å®ľ
Ġif(data =="
ãĢĳãĢĲ -ãĢĳãĢĲ
è¡¨ æ¼Ķ
Ġt e
ĠAGçİ¯äºļçĶµæ¸¸ æĥ³èµļå°±è½¬
Ġå°Ĭé¾ĻäººçĶŁå°±æĺ¯åįļ æīĭæľºçīĪä¸ĭè½½
èĢĥ çĶŁ
æº ĥ
Ġb reak
èĭ¹æŀľ æīĭæľºçīĪ
j e
ĠéĿ ł
ä¸» åĬŀ
Ġæ±ķ å¤´
éĿĴå¹´ ç½ĳ
å¨ģ å°¼æĸ¯
æķħ éļľ
å®¶ å±ħ
åľ¨ ä¸Ģèµ·
").val ("");
å¾· æĸ¯
æ¡¥ éķĩ
Ġæ¯Ķ è¼ĥ
åħĥ é¦ĸ
ç¨³èµ¢ è®¡åĪĴ
æŃ£ç½ĳ æ³¨åĨĮ
Ġtype :2,
åįļå½© åħ¬åı¸
è®¡åĪĴå¸Ī _
å¼¹åĬ¾ çļĦ
èŀį èµĦ
Ġ ent
ä¸ĩåįļ ä½ĵèĤ²
åįĥ ä¸ĩ
K ey
Ġ2020-01 -20
ĠéĤĵ å¿Ĺåĭĩ
èĲ¥ åħ»
ï¼Į å¦Ĥ
Ġäº¤ åıĭ
æģ °
Ġagæīĭæľºå®¢æĪ·ç«¯ äºĮç»´çłģ
è°ĥæŁ¥ ï¼Į
ï¼ļ ä¸Ģ
_ url
l w
Ġæ¾³éĹ¨å¹³åı° appä¸ĭè½½
åĴ ª
åĽ½ å¤ĸ
çĥ Ĥ
å¤§å¸Ī ièĭĹåĨĽ
çį İ
r al
å§ĭ ç»Ī
ä½ı å®ħ
Ġå¤§åıĳå¿«ä¸īæĺ¯ åĽ½å®¶
Ġåĩ¯åıĳä½ĵèĤ² APP
éļ¾ æ°ĳ
Ġæ² Ĵ
æĭ Į
Ġå¤§åıĳæĹ¶æĹ¶å½© ç½ĳç«Ļ
èŃ ¯
ä¸įèĥ½ åŃĺæ¬¾
¢ à¸
åŃĹ ï¼ļ
ç½ĳä¸Ĭ å¨±ä¹Ĳåľº
app y
ãĢģ çİĭ
Ġå¤§åıĳ èħ¾è®¯åĪĨåĪĨå½©
Ġ2017 -09
Ġæłĩ åĩĨ
ï¿½ D
æ° Ľ
ä¸¤ åĪ¶
as ia
éħ ĭ
() );
éĽ» åŃĲ
è´¦åı· è¢«å°ģ
Ġad d
ĠC N
ä»İ æľª
é£Ł åłĤ
æ¼ ³
åĳĬè¯ī è®°èĢħ
AG çİ°éĩĳ
Ġå¤ĸåĽ´ bet365
éłĲ è³¼
çļĦ ä¼ģä¸ļ
Ã ª
ĠæĤŁç©º ç§Łè½¦-
Ġè´£ ä»»
Ġäºļ ï¿½_
è© ¹
Ġ365ä½ĵèĤ² å¤ĩçĶ¨
Ġäºļç¾İag åĽ½éĻħåİħ
è½¦ ï¼Į
Ġåĩ¯åıĳ668 k8
Ġa u
ä¸Ńæĸĩ åŃĹå¹ķ
é¦ĸé¡µ .
éĺ² æİ§
Ċ åĨħèĴĻåı¤
å¥¥ è¿Ĳ
Ċ çĳŀ
Ġäºļæ¸¸ çĻ»åħ¥
ç¶ ł
Ġpro te
åĽŀ é¦Ī
B cIiB
å¤§ å¹³åı°
ãĢĤ åĲĮæĹ¶ï¼Į
åıĳçĶŁ äºĨ
å¨±ä¹Ĳå¹³åı° å®ĺç½ĳ
_å¤§å°ı è®¡åĪĴ
ĊçŁ³å®¶åºĦ æĸ°éĹ»ç½ĳ
Ġå¤§ çĲĨ
é¢ ĸ
ï¿½ C
Ċ2020-03 -29
Ġhg0088 çĤ¹
Ġhg0088çĤ¹ pr
ĊåįĹ æĸ¹ç½ĳ
æĹł ä¸į
âĢĶå¤§åıĳ å½©ç¥¨
Ġk8 æīĭæľºçĻ»å½ķ
ĠçīĽ çīĽ
çİ°åľº åİħ
å°ı ç»Ħ
å¿«ä¸ī å½©ç¥¨
Ġå°Ĭé¾ĻäººçĶŁå°±æĺ¯åįļ app
Ġ365bet æĬķæ³¨
åĮĹäº¬ åĨ¬å¥¥
åı°æ¹¾ å¤ĩçĶ¨ç½ĳç«Ļ
èĪ Ł
Ġäºļç¾İçľŁäºº å®ĺæĸ¹ç½ĳåĿĢ
èĪ Ī
æ¬ ł
Ġä¸ĩåįļä½ĵèĤ²app èĭ¹æŀľ
10 èĲ¬
éĲ µ
| |
å¼Ģå¿ĥ å·Ŀéº»
ĊéĤ¯éĥ¸ æĸ°éĹ»ç½ĳ
èģĮä½į :
l in
Ġä¸ĩçĭĹ app
æķĻ åŃ¸
å¥½çĶ¨ åĲĹ
ï¼ Ĺ
åĲĮ ä¸Ģ
æ£ĭçīĮ æįķé±¼
Ġag çİ°åľºåİħ
æ¸¸æĪıå¹³åı° ç½ĳåĿĢ
Ċ åħŃ
Ġäºļç¾İam8 çľŁäººæ¸¸æĪı
å®ĺæĸ¹ æīĭæľºçīĪ
Class ("
ç»ıæµİ æĸ°éĹ»
è°Ī åĪ¤
åħ¨ æĸ°
ĠæľĢè¿ĳ æĽ´æĸ°
Ċ2020-02-2 7
id ate
æľĢæĸ°ä½ĵèĤ² å¤ĩçĶ¨ç½ĳåĿĢ
èĥĮ åĮħ
ä¿Ŀ è²¸æ¬¾
çİ©æ³ķ æĬĢå·§
åħļ ç»Ħ
æ¤ ħ
Ċ 365ä½ĵèĤ²
åľ¨åĵªéĩĮ ä¸ĭè½½
çİ°åľ¨ è¿ĺ
æĵ Ĭ
ĊæľŁæľĽ èģĮä½į:
9 æĹ¥
ç¬¬ åħŃ
åĲĮ æĦı
èµĶçİĩ æĢİä¹Īçľĭ
ì ĭ
Ġéĥ¨ éĹ¨
ï¼Į çĶļèĩ³
æ¸Ķ èĪ¹
Ġpk10 äºĶçłģ
èī² çĲĥ
äºĨ ãĢĬ
Ġåĩ¯åıĳæīĭæľº åľ¨çº¿
Ġ365æ£ĭçīĮ ä¸Ńå¿ĥ
x 1
æĴ ĳ
æķĳæĬ¤ è½¦
ä¸Ģ æ®µ
.get Value
ç¼ĸè¾ĳ :
æ¨¡ æĿ¿
p s
ĠãĢĬ 365æ£ĭçīĮãĢĭ
æ·± åĮĸ
èī °
çİ° è±¡
å®¡ æŁ¥
âĨ Ĳ
Ġé¦Ļæ¸¯é©¬ä¼ļ èµĦæŀĵå¤§åħ¨
Ġ365ä½ĵèĤ²æĬķæ³¨ æĬķæ³¨
ic es
çº ¹
æ¯į å©´
Ġkb88 .com
æŁ ¯
Ċçī¹èī² æĹ©çĤ¹åĬłçĽŁåºĹ
å¤§åŃ¦ ç«Ļ
éŁ© å¼ı
Ġè ¼
è¿ĺ èĥ½
U rl
ain er
å¾Ī åį¡
å¨±ä¹Ĳ éĢģå½©éĩĳ
åĬĽ ãĢĤ
ì ļ
Ġæ±Łèĭı 11éĢīäºĶå¼Ģå¥ĸç»ĵæŀľ
Ġæ¾³éĹ¨å¹³åı° æ³¨åĨĮéĢģ
çº¦ åĲĪ
åħ¨ æĺ¯
ĠçĶµ å½±
Ġäºļæ¸¸æ¸¸æĪı å®ĺç½ĳä¸ĭè½½
åĽ¾ ä¹¦
æĿĥ çĽĬ
å®ģ åİ¿
åľ¨çº¿ä½ĵèĤ² èµĮåįļ
ĠåĪ©æĿ¥ å¤ĩçĶ¨ç½ĳåĿĢ
äºĭ é¡¹
Ĥ à¸
LE CT
è² Į
æħ ĭ
å¥½ ï¼Į
true ,
Ċ2020-02-2 8
å®ŀ è·µ
å¥³ çĶŁ
Ġæİ ¥
å°Ĩ çĸĳ
Ġçİ¯äºļ æīĭæľºå®¢æĪ·ç«¯
ĠP C
åºĶ å½ĵ
ĠèĮĤ åĲį
çĽĺ ä»Ģä¹ĪæĦıæĢĿ
å¼º åĽ½
ad er
Ġåĩ¯åıĳçľŁäºº é¦ĸé¡µ
ai wan
å¤ ¹
èĹ Ŀ
å·¨ å¤§çļĦ
ĠæĢİä¹Ī æł·
Ġå¾· åĽ½
ï¼Į åĲĦ
p g
Ċ æĸĩç«ł
ãĢĳãĢĲ åĩº
Ġäºļç¾İ å¨±ä¹Ĳ
Ġäºļæ¸¸éĽĨåĽ¢ æīĭæľºä¸ĭè½½
Ġæ±Łèĭı11éĢīäºĶå¼Ģå¥ĸç»ĵæŀľ åĽ¾
è²· è»Ĭ
Ġé¢Ħ è®¢
å¤§å°ı çĽĺä»Ģä¹ĪæĦıæĢĿ
çĥŃ çĤ¹
æģ ĭ
Ġìŀ Ī
Ġæº Ĳ
Ġæ¾³éĹ¨ç½ĳæĬķ å®ĺæĸ¹ç½ĳç«Ļ
ĠåĪ©æĿ¥ å¤ĩçĶ¨ç½ĳç«Ļ
ç´ĵ åĽ°
éĥ½ åľ¨
åįķåıĮï¼ļ ä¸ī
å¾ ŀ
å¤Ħ ç½ļ
æ¶ĪéĻ¤ çĸŁçĸ¾
è± Ĳ
Ġå®¢ æĪ¿
åħĥ ãĢĤ
ĠåĲīæŀĹ å¿«3
è½¬ è¿Ĳ
çĶµ åĻ¨
ĠB ar
i en
èħ ¿
åĳ¨ è½ī
i er
Ġå¼Ģåħĥæ£ĭçīĮ éĥ½æĺ¯
ĊèĴĻåı¤è¯Ń æĸ°éĹ»ç½ĳ
èº« ä¸Ĭ
Ġä¸ĩåįļapp 2.0
Ġ365 åħįè´¹
ä¾µ å®³
çŁ Ľ
Ġå°Ĭé¾ĻäººçĶŁå°±æĺ¯åįļ ä¸ĭè½½appåľ°åĿĢ
Ċ åįĸ
Ġbet365 æĬķæ³¨
ĠæĿ¥æºĲï¼ļ æľªçŁ¥
æİĮ æı¡
style .display
åı« ä»Ģä¹Ī
Ġä¿¡èªīå¥½çļĦ æ£ĭçīĮæ¸¸æĪı
ĠãĢĲ <ãĢĳãĢĲpãĢĳãĢĲ>ãĢĳãĢĲ
å¡Ķ å°Ķ
Ġåĩ¯åıĳapp æĿ¥å°±éĢģ
åıĳçİ° ï¼Į
ä¸ŃåĽ½ å®¢æľįçĶµè¯Ŀ
Ġå½©ç¥ŀäºīéľ¸ å¤§åıĳå¿«3
ï¼Į ä¿Ħç½Ĺæĸ¯
ç¢ ĵ
æľįåĬ¡åĻ¨ ä¸Ģ
èı łèıľ
çĭ ¼
Ġbest365 æĢİä¹Ī
åĨħ æĶ¿
ãĢĤ æĸ°åįİç¤¾
èį ¡
Ġ365æ£ĭçīĮ é¦ĸ
Ċ äºļåįļ
æľī äºĨ
æıĲåīį ç»ĵæĿŁæĬķæ³¨
æº ĸ
ç²¾éĢī æĸĻ
( this
åıĹ è®¿
Ċæµ· åı£
8 5
Ċ2020-04-0 5
ãģ ®
Ġåĩ¯åıĳçĶµæ¸¸ çľŁäºº
Ġåİ ¿
èµ· è¯ī
Ċ åįģ
aur ant
ĠæĹ¥åįļ ä½ĵèĤ²æĬķæ³¨
un d
å¤ĸ çļĦ
Ġ???? ????
æĭ ¦
åĽ½éĻħå¹³åı° æ¸¸æĪı
ĠçĭĹä¸ĩ è¶³å½©
Ġäºļç¾İ appä¸ĭè½½
a w
æī¿ æĭħ
Ġç¯ ®
å¢ŀ è²¸
Ċéķ¿ æ²Ļ
æ¯ı çªģ
Ð¤ è®¼çķ¥ï¿½
æ¯ıçªģ Ð¤è®¼çķ¥ï¿½
Ġ918ï¿½éİıçĦ¯ æ¯ıçªģÐ¤è®¼çķ¥ï¿½
éĤ£ä¸ª æĺ¯çľŁçļĦ
ï¿½ \
aãĢĳãĢĲ dãĢĳãĢĲ
å·¥ åķĨ
å¢ Ĭ
è·¨ å¢ĥ
ï¼Į ä¸Ķ
çĶŁ ãĢĳãĢĲ
åľ°åĮº åĮºåı·
Ġå¼Ģåħĥæ£ĭçīĮ ä¸īåħ¬
æķ°æį® çĽ´æĴŃ
æ£ĴçĲĥ æ¸¸æĪı
äºĮ äºº
åľ°åĮº éĤ®ç¼ĸ
åº· å¸Ĥ|
æŃ£è§Ħ ç½ĳ
è¾ ²
j ect
åĩł ä¸ĩ
ĠçĶµåŃĲæ¸¸æĪı æīĭæľº
ĊæµİåįĹ æĹ¥æĬ¥
åıįåħ´å¥ĭåīĤ æľºæŀĦ
åŃľ åİ¿|
, ãĢĳãĢĲ
Ġäºļç¾İ app
èĪ¹ åĳĺ
å·´ åİ¿|
2 åĪĨéĴŁå½©
ä¸ ĺåİ¿|
Ċè¥¿ å®ī
ĠE d
çº³ ç¨İ
åİŁ å¸Ĥ|
7 1
Ġé»ĺè®¤ åĪĨç±»
æīĭæľºçīĪ ç½ĳåĿĢ
iOi I
åĽ¾ æĸĩ
ï¼ Ĳ
Ġ918ï¿½éİıçĦ¯ï¿½ appä¸ĭè½½
Ġè¨Ĥ æĪ¿
Ġbest365 æıĲæ¬¾
åĮĹ åİ¿|
èį£ åİ¿|
åĲį åįķ
åıĤ è®®åĳĺ
ä¹ĭ çªĹ
Ġæ²³åĮĹ å¿«3
å¡ĳ æĸĻ
æİ¨ ç®Ĺ
æľī å¤ļå°ĳ
æĺ¯ éªĹäººçļĦåĲĹ
éģ Ĥ
æĬ¥ ä¸ļ
ĠN o
å®ŀ è¡Į
è© ŀ
Ġå¼Ģåħĥæ£ĭçīĮ éĢıè§Ĩ
å½©ç¥¨ å¹³åı°æ³¨åĨĮ
ç¦ º
æĿİ åĪ©
ä¸ī çłģ
ä½ı æĪ¿
åĿª åİ¿|
éģİ ä»¶
Ċ2020-04-0 1
å§ ľ
èĢ ¿
Ġ ĆćąąĆćąąć
è¯ķçİ© å¹³åı°
è¥¿ å¸Ĥ|
Ġå®¶ è£ħ
ï¼Įè¿Ļ ä¸Ģ
ĠçĻ¾å®¶ä¹Ĳ æ£ĭçīĮ
ç©º è°ĥ
Z E
2012 å¹´
æĪĲ æŀľ
ĠåİŁ åĪĽ
ä¿¡ :
ãĢĳãĢĲ ä¸įãĢĳãĢĲ
åĳ¼ ä¼¦è´Ŀ
é ®
5 20
Ġåı Ĥ
Ċä¸ĭ ä¸ĢæĿ¡
ä¼ļ æīĢ
ot a
bt n
æĿİåĪ© å¨Ł
è°· åİ¿|
åģ¥ èº«
ĠåĮħ å¤´
ĠèİĨ çĶ°
åĲī åİ¿|
ĠçĨ ±
æł ĭ
Ġçº ¦
Ġäºļæ¸¸å®ĺç½ĳ ç½ĳé¡µçīĪ
åŃĲ æĻļæĬ¥
åį³æĹ¶æ¯ĶåĪĨ ç½ĳ
Ġ0.0 L
i ]
çĶ¸ åİ¿|
ä¸Ģ å¯¹
æĺİ åİ¿|
ä¸Ńçī¹ åħįè´¹èµĦæĸĻ
åĳ¼ä¼¦è´Ŀ å°Ķ
Ġê ²
ãĢĳãĢĲ åıĳãĢĳãĢĲ
æĻ¯ é»ŀ
f or
m y
Ġçİ »
ĠéĦĤå°Ķå¤ļ æĸ¯
Ġä¸ĩåįļ å¨±ä¹Ĳ
re turn
éĹ ¹
- >
éĤ®ä»¶éªĮè¯ģ ä¸įäºĨ
te l
ĠåĲ İ
èº« äº¡
æ³¨åĨĮéĢģ38 5
å½±åĵį ï¼Į
ĠæĿ ī
Ġåĩ¯æĹ¶ ç½ĳç«Ļ
æī ĩ
æľĢåĩĨ ä¸ĢèĤĸä¸Ńçī¹
ãĢĤ å¯¹äºİ
ĠçľŁéĩĳ æ£ĭçīĮæįķé±¼
Ġç¨ ³
-d ialog
éļ ª
å¡ ĺåİ¿|
åĪ· æ°´
ä»¥ âĢľ
Ġå°Ĭé¾Ļd88 æīĭæľºçīĪå®ĺç½ĳ
ĠM e
ä¹¡ å¸Ĥ|
åįļ å£«
å¿ħ éĢīä¸ĢèĤĸ
å£° éŁ³
ĠSe p
ãĢĳãĢĲ âĢľãĢĳãĢĲ
ä» ²
ĠåĪ©æĿ¥åĽ½æłĩå¨±ä¹Ĳ èĢģçīĮw66
âĢ ¢
Ġ2020-03 -28
Im h0
âĢľåĮĹæºª -2âĢĿ
r u
à ¦
è»Ĭè²¸ åĪ©çİĩ
æ³ ³
æľĢæĸ° å¤ĩçĶ¨
Ġæ¾³éĹ¨å¹³åı° å¤§åħ¨
åī¯ ä¸»ä»»
Ġæ·® åĮĹ
å¹³åı° å¤§åħ¨
èµĦæŀ ĵ|
ĠåĪ©æĿ¥åĽ½ äº§
æĬ¥ æ¡Ī
Ġåıĭæĥħ è¿ŀæİ¥
Ċ äºļ
Ġ Ĉć
çĽ¸ å¯¹
éĵ Ń
à¹ ĥ
ì Ĭ
å¼ķ çĶ¨
ãĢĳãĢĲ ï¼ļ
éī´ å®ļ
ĠåŃĹ ä½ĵï¼ļ
24 å°ıæĹ¶
æĪĲ å®¶
å¹³åı° å¼Ģåı·
le ase
se s
æĢİéº¼ è¾¦
Ġå°Ĭé¾Ļd88.com ç½ĳä¸Ĭæ³¨åĨĮ
ç«ĭ åľº
æī¾ä¸įåĪ° çĽ´æĴŃ
å¼Ģä»Ģä¹Ī çī¹é©¬
æ´Ĺ è¡£
Ġof f
èĥľ åĪ©
Ġin t
ä¼ĺæĥł æ´»åĬ¨
ï¼Į å¯¼èĩ´
æĽ¾ éģĵ
èī ³
è¨Ģ è®º
æĺ¯ éªĹå±Ģ
ä¸½ åªĽ
nbsp ;
Ġäºº æ°Ķ
æīĭæľºæĬķæ³¨ å¼ĢæĪ·
è§£éĻ¤ éĻĲåĪ¶
èĩ Ģ
Ġè®º åĿĽ
ä¹ħ ä¹ħ
ĠCCåĽ½éĻħ ç½ĳæĬķ
_ h
æĪĳ åĢĳ
èı łèıľäºº
ou th
Ġ365æ£ĭçīĮ åĬł
Ċ2020-04-0 4
èĢħ çļĦ
Ġå°±æĺ¯ è¯ĪéªĹ
åĪĨåī² #
ĠçĭĹä¸ĩ å®ĺç½ĳåľ°åĿĢ
èī¯ å¥½çļĦ
wid th
Ġs pe
Ġì ł
éķ¿ æĺ¥
Ġé¦ ¬
æłĩé¢ĺ åĪĨåī²#
èĪ Ĩ
ĠA ug
Ġè ľ
çµ Ĥ
åįĬ æľĪ
Ġè¶³çĲĥ æ¯ĶåĪĨçĽ´æĴŃ
ĠåĽ½éĻħ åİħ
å½ °
å¿«éĢŁ æĴ¥æ¬¾
Z y
Ġag æīĭæľºçīĪ
Ċåıĭæĥħéĵ¾æİ¥ :
2YX I
åĤµåĭĻ åįĶåķĨ
Ġa j
åħį æīĭç»Ńè´¹
Ċ æĽ´æĸ°
ç¿» å¢Ļ
çķ¶éĭª æ©Łè»ĬåĢŁæ¬¾
æĸ¯ æ´Ľä¼Ĳåħĭ
è¡Įä¸º ï¼Į
Ġä¸ĵ é¢ĺ
æ¸¸ çİ©
Ġw ere
å µ
æħ İ
ĠH ome
ĠåĢ Ł
èµĦ äº§
Ġd88å°Ĭé¾Ļ AGæĹĹèĪ°åİħ
è§£ å°ģ
Ġä¸ĩåįļ åħ¨ç«Ļ
Ġ3 D
æ³¨éĶĢ åĲĹ
äºĮèĥİ è²¸æ¬¾
Ċ2020-03 -30
æ±Ł å¸Ĥ
çł Ĥ
Ġäºļæ¸¸éĽĨåĽ¢ æĹĹèĪ°åİħ
Ġ2019-11 -22
ï¼Į æ¾³éĹ¨
ï¼Į ç»Ļ
Ġåĩ¯åıĳag ä½ĵèĤ²å¹³åı°
Z j
åĬł å¤§
Ġå¥½ çĶ¨
Ġå¤§åıĳ äºĳ
ĠæĢİ æł·
ĊæĿ¥æºĲï¼ļ ä¸ŃåĽ½
Ġå®ĺç½ĳ 4799çĤ¹c0m
Ġbeat365 å®ĺç½ĳ
æ´»åĬ¨ ï¼Į
åĪ°è´¦å¿« ä¹Ī
ml http
ĠW est
Ġè· ĳ
åī ª
c 2
Ċ2020-04-0 2
Z2 h0
09 æĹ¥
æ± ª
éĥ¨åĪĨ åľ°åĮº
çİ¯ èĬĤ
2010 å¹´
èµĦæĸĻ åĽ¾
çİ© å¼Ģåħĥæ£ĭçīĮ
c z
æľĢåĩĨä¸ĢèĤĸä¸Ńçī¹ åħ¬å¼ĢéĢīæĸĻ
éĺŁ ä¼į
} );
Ġå¤§åıĳ éŁ©å¼ı
t n
up er
ĠæĿ Ģ
Ġbt365 æıĲæ¬¾
ë¡ ľ
å®³ äºº
åĦªæĥł ,
246 ç²¾éĢīèµĦæĸĻå¤§åħ¨|
Ġäºļç¾İ å¤ĩçĶ¨ç½ĳç«Ļ
ĠåĪ©æĿ¥ ä¸ĭè½½
ä»£çĲĨ ç½ĳ
Z A
Ċ éĿĴå²Ľ
Ġå·´é»İ äºº
Ġ365ä½ĵèĤ² ç½ĳåĿĢ
Ġåĩ¯æĹ¶ ä¸ĭè½½
èĹ ī
ç½ĳç»ľ è¶³çĲĥèµĮåįļ
åıĳ èµ·
X 2
å¤ļ å¹´
Ġ4 00
Ċ åħ´
æİ§åĪ¶ åľ¨
æĶ¯ä»ĺ è´¦åı·
å¤© ç©º
ĠQ P
Gl t
Ġ .co
(' .
ĠY P
éį Ĭ
åªĴ ï¼ļ
æľĢåĩĨä¸ĢèĤĸä¸Ńçī¹åħ¬å¼ĢéĢīæĸĻ 1|
ç¾İ å®¹
ç»´ äºļ
one y
ãĢĳãĢĲ2ãĢĳãĢĲ 0ãĢĳãĢĲ
å®ĺæĸ¹å¼ĢæĪ· ç½ĳ
æ¶ī äºĭ
Ġéĵ¾ æİ¥
æ± ģ
ç½ĳä¸Ĭ å¨±ä¹Ĳå¹³åı°
ä¸Ģ ä»½
_åįķåıĮ è®¡åĪĴ
ĠéħĴ æ³ī
å¾ģ å©ļ
Ġäºļæ¸¸app èĭ¹æŀľä¸ĭè½½
å®ĺ åħµ
pc L
pcL 1wv
Ġpk10è®¡åĪĴ å¤§å¸ĪièĭĹåĨĽ
èµĮ éĩĳèŀį
æ¶ µ
cclxu X
he ight
. g
Ġé«ĺé¢ĳ å½©å¤§åıĳå¿«ä¸ī
åĽ½ èµĦ
å°± åı¯ä»¥
éĢģå½©éĩĳ æľīä»Ģä¹Īè¦ģæ±Ĥ
ĠKing dom
å¹³åı° æĢİä¹Īæł·
Ċ å¨
Ġæ¾³éĹ¨ç½ĳæĬķ å®ĺç½ĳ
äºº æĿĥ
Ġäºļç¾İçĶµæ¸¸ ä¸ĭè½½
éĽħ éĺģ
p le
Ġè´¢ ç»ı
çķĮ ç½ĳ
s er
å¤§åıĳå¿«ä¸ī è®¡åĪĴ
å°ĳéĴ± ä¸Ńå¤§å¥ĸ
çŁ³ æ²¹
çľ ¾
Ġå°Ĭé¾Ļå®ĺç½ĳ å¼ĢæĪ·
Ġbet365ä½ĵèĤ² å¹³åı°
æľī èµļéĴ±çļĦ
Ġè©ķ åĥ¹
èĥ½ åĲ¦
ãĢĬ åºĨä½Ļå¹´
ar am
å¸Ĥ åł´
æł¼ åħ°
å»¶ è¾¹
Ġå¤§åıĳ åĮĹäº¬
å¤©çĦ¶æ°Ķ ç®¡éģĵ
Ġ365bet æĹ¥åįļ
Ċ æĹ©é¤ĲåºĹåĬłçĽŁ
é¡¾ éĹ®
ä¸¥ ç¦ģ
ç¡ ħ
Ġäºļæ¸¸appéĽĨåĽ¢ ä¸ĭè½½
ĊéĽĦå·ŀ æĹ©é¤ĲåĬłçĽŁ
_app éĤĢè¯·çłģ_
Y ou
åĳ½ è¿Ĳ
ĠæĦı å¤§åĪ©
æ¸¸æĪı å¼ĢæĪ·
A C
Ġ( data
Ġæīĭæľºäºļæ¸¸ appä¸ĭè½½å®īè£ħ
_å¤§å°ı è®¡åĪĴ_
ä¼ł æī¿
ä¸į æĩĤ
ï¼Į ï¿½
ļ åĲį
Ġth ere
èŃ ľ
è±ª åįİ
é©¾é©¶ åĳĺ
ä»ĺ è´¹
ĠCPåĢ¼ ,
Ċ å¯¼
³ æĥħ
av a
Ġ19 97
Ġå¤ĸ åĽ½çļĦ
ĠäºļæĲıä½ĵèĤ² å®ĺç½ĳ
é¤ Ĭ
çĲĥæİ¢ è¶³çĲĥæ¯ĶåĪĨ
Ġåĩ¯åıĳå½©ç¥¨ ç½ĳåĿĢ
ä¸įèĥ½ è½¬è´¦
Ġå»Ĭ åĿĬ
.... ....
u ZX
åį ¸
R O
è¥¿ å·ŀ
Ġe xp
Ġ1 88
íķ ľ
Ġäºļç¾İåĽ½éĻħ å¼ĢæĪ·
æĻ¨ æĬ¥
ĠãĢĲ åĬł
y n
å±¥ è¡Į
ä¸Ģ åı·
è¿½ æĿĢ
æĶ¯ éĺŁ
Ġå¤§åıĳ PK10
ĠéĤ¢ åı°
æ³ ª
è¡¨ ï¼Į
Â »
åİŁ ç½ĳ
ç¼ĸ åı·
æľį è£ħ
ĠZ h
æľī ä¸Ģä¸ª
çļĩ å®«
æľĢæĸ° å¤ĩçĶ¨ç½ĳç«Ļ
æµł ï¿½
æĻ¯ åĮº
ĠèĵĿæľĪäº® 246ç²¾éĢīèµĦæĸĻå¤§åħ¨|
å¦ ¹åŃĲ
ĠçĶµçİ©åŁİ æ¸¸æĪı
ä¸Ń åįĪ
5 3
è¯¦æĥħ ]
çĩ Ī
ä¿¡æģ¯ æ¸¯
Ġèĭ¹æŀľ æĢİä¹Īä¸ĭè½½
HER E
Ġå¢ ŀ
ç»ĵ å©ļ
Ġbt365 ä½ĵèĤ²
Ġäºļæ¸¸éĽĨåĽ¢å®ĺç½ĳ ag0226
å¼ķ å¯¼
æ·· åĲĪ
èª ²
Ċ2020-04-0 6
T o
Ġéĸĭç®± æĸĩ,
çĽ´æĴŃ ç½ĳ
Ġåŀĭ åı·
11 æĹ¥
èīºæľ¯ åįļçī©é¦Ĩ
Ċ2020-02-2 9
åįİ çĽĽé¡¿
Ġè§Ĩé¢ĳ -
Ġäºļç¾İam8æ³¨åĨĮ å¤ĩçĶ¨ç½ĳåĿĢ
Ġå¼ķ çĶ¨
Ġé¦Ļæ¸¯ æľĢåĩĨä¸ĢèĤĸä¸Ńçī¹åħ¬å¼ĢéĢīæĸĻ1|
dH lw
åħ Ķ
pb W
Ġç» ¼åĲĪ
Ġâ Ī
Ċ éŀŃçīĽå£«
Ġ918 æ£ĭçīĮæ¸¸æĪı
å®³ æŃ»äºº
æľ¬ æĸĩ
Ġ6up æīĳåħĭä¹ĭæĺŁ
åľ¨ æŃ¤
å·¦åı³ ï¼Į
ä»į åľ¨
å°ĳ å¥³
Ġå¤§åıĳ ä¸ľäº¬
Ġæ¾³éĹ¨çľŁéĴ± ç½ĳæĬķ
ç½ĳé¡µçīĪ å®ĺç½ĳãĢĳ
Y2xpY2su Y29t
uZX hv
uZXhv Y2xpY2suY29t
å¦ ¨
Ġbt365 æīĭæľº
Ġæ¾³éĹ¨çľŁéĴ±ç½ĳæĬķ åħ¥åı£
ä¸Ģ åĪĩ
ĠéĤ¯éĥ ¸
åĤ³ æĴŃ
è¿ħ éĢŁ
çº¿ä¸Ĭ çľŁéĴ±
ĠéĹ¨ éĿ¢
æĿ¡ çº¦
Ġ error
éĺ³ éķĩ
z Y3JpcHQ
è® ½
é©» é©¬
è¡¨ åĨ³
Ġç«ŀ çĮľ
dHlw ZT
èģĶåĲĪ ä¼ļ
Ġäºļç¾İåħ¬åı¸ å®ĺæĸ¹ç½ĳç«Ļ
Ġäºļç¾İçľŁäºº appä¸ĭè½½
Ġåĩ¯æĹ¶kb88 å®ĺç½ĳ
ĠçĮ ĩ
ĠåĽ½ äº§
Ġd k
ä¸Ģ åĪĨå¿«ä¸ī
çī¹åĪ«è¡ĮæĶ¿ åĮºæĶ¿åºľ
å®ĺç½ĳä¸ĭè½½ æīĭæľºçīĪ
ä¸Ģ äºº
ĠçľŁäººçĻ¾å®¶å®¶ä¹Ĳ å®ĺç½ĳ
/ äºĶ
ĠåĪ©æĿ¥ å®ĺç½ĳçĻ»å½ķ
è£ ¤
w o
ĊçĥŃ æĲľ
æ¬§æ´²æĿ¯ è¶³çĲĥ
Ġå½° åĮĸ
æıĲä¸įäºĨæ¬¾ æĢİä¹ĪåĬŀ
æĹłæ³ķ çĻ»å½ķ
å¿« è®¯
Ġåħ Ī
Ġ365æ£ĭçīĮ å¦Ĥä½ķ
Ã ¨
ang hai
Ġæ±½ è»Ĭ
Ġå¤§åıĳå¿«ä¸ī å®ĺæĸ¹
çĶŁ æ¶¯
t xt
ãĢĳãĢĲ æĿ¥
èĸ ¯
è¦ º
é£Łåĵģ å®īåħ¨
åĿ ¤
_å®ĺæĸ¹ éĤĢè¯·çłģ
ç³» çµ±
Ġw66åĪ©æĿ¥ å®ĺç½ĳåľ°åĿĢ
Ġäºļæ´² åŁİ
ri m
å®ĺç½ĳ |
åįĢ èŃīä»¶åĢŁæ¬¾
ag er
æĮī éĴ®
å·¥ åİĤ
ä¸Ń ä¸ľ
Ġä¸ī åĲĪ
ç§Ł èµģ
Ġçı ¾
åĽº å®ļ
Ċ Home
p ass
Ċ æĿ¾
ĠHotel )
ĠçļĩåĨł çº¿ä¸ĬçľŁéĴ±
å¹² æ¶ī
Ġsuccess :
Ġè©ķ éĳĳ
æĮ ĸ
å½©ç¥¨ æ³¨åĨĮ
Ġå¥ Ķ
åħĭ Â·
åı¯ä»¥ä¹° ä¸īä¸²ä¸Ģ
åı¯ä»¥ä¹°ä¸īä¸²ä¸Ģ åĲĹ
Ġ365ä½ĵèĤ² app
Ġp er
å®Ŀ éĺģ
ĠçĮĩ äºŃ|
ä¸ĵ çĶ¨
Ġäºļç¾İ å®ĺç½ĳapp
ä¸ĸçķĮæĿ¯ è¶³çĲĥ
ç¢ĵ çŁ
Ð ¼
ĠçľŁäººçĻ¾å®¶ä¹Ĳ å®ĺç½ĳ
Ġ obj
1 b
ĠO ne
ĠçļĩåĨł bet365
à¹Ī à¸²à¸
Ġèµ¤ å£ģ
Ġt op
Ġ ä½ľ
- C
ĠæĬķèµĦ åĬłçĽŁåºĹ
¼çºĮ éĸ±è®Ģ
Ġå¼Ģåħĥæ£ĭçīĮ ç½ĳåĿĢ
m ãĢĳãĢĲaãĢĳãĢĲ
sl and
N X
2 åĲį
åŁİå¸Ĥ æĮĩåįĹ
Ġé½Ĳé½Ĳ åĵĪå°Ķ
ĠW HERE
Ċ æĹ¥æľ¬
Ġä¸ºä»Ģä¹Īä¸ĩåįļ +app
çĻ¾å§ĵ ç½ĳ
ĠæĲı å½©ç½ĳç«Ļ
å¯Į æ¸ħ
Ġåĩ¯åıĳ æĬķæ³¨
Ċ è´µ
_æ³¨åĨĮ éĤĢè¯·çłģ
è¶³å½© app
å¼ł å¯Įæ¸ħ
Ġæ¯Ķè¼ĥ è©ķæ¯Ķ,
Ġå°Ĭé¾ĻäººçĶŁå°±æĺ¯åįļ æīĭæľºapp
Ġé į
ä¼Ĭ æľĹ
Ġä¸´ æ±¾
ĠU SB
å¤§ åŃ¸
Ġèģ ¯
å²ģ ãĢĤ
Ġå®Ŀ é¸¡
Ċ2020-03 -31
ãĢĳãĢĲiãĢĳãĢĲnãĢĳãĢĲ gãĢĳãĢĲ
Ġwww. k8.com
Ġä¹ ĭ
Ġäºļæ¸¸ag 8
ĠèĵĿæľĪäº® ç²¾éĢīæĸĻ
ä¿¡åı· æºĲ
2 R
é¢Ħæµĭ ç½ĳ
Ġ2018 -08
æ¯ĶåĪĨçĽ´æĴŃ ç½ĳ
éģĭ åĭķ
é¦ĸ ä¸ļ
å½© å¨±ä¹Ĳå¹³åı°
Ġ365æ£ĭçīĮ åı¯ä»¥
äºĮ ä¸ī
ver y
ä¸ĭæ³¨ ç½ĳç«Ļ
éĢ± è½ī
ĠæŀģéĢŁ PK10
in ed
Ġå¤§åıĳå¿«ä¸ī å¼Ģå¥ĸç»ĵæŀľ
ä¿¡çĶ¨ ä¸įèī¯
ĠæŃ£è§Ħ æ£ĭçīĮæ¸¸æĪıå¹³åı°
æĹ¥ï¼Į åĽ½å®¶ä¸»å¸Ńä¹łè¿ĳå¹³
åĵªä¸ª æµıè§ĪåĻ¨
Ġagäºļ å®ĺç½ĳ
ĠD i
Ġéĵ¶è¡Į ä¸įèĥ½è½¬è´¦
Ġ918æ£ĭçīĮæ¸¸æĪı å®ĺæĸ¹ä¸ĭè½½
Ġå°Ĭé¾ĻãĢĲ ç½ĳé¡µçīĪå®ĺç½ĳãĢĳ
æ® ĸ
âĢĿ æĺ¯
æķ°åŃĹ èµĶçİĩ
è®¾ç½® æķ°åŃĹèµĶçİĩ
Ċ åħ°
åıĤ è§Ĥ
åĬł è½½
Ġäºļæ¸¸ ä¸ĭè½½
ĠAGçİ¯äºļ æīĭæľºçīĪ
çħ Į
èĤ² åĦ¿
åľ°åĿĢ :
æīĢ è°ĵ
Ġä¸Ĭæµ· 11éĢī5
Ċç¦ı å·ŀæĸ°éĹ»ç½ĳ
Ġ365å¤ĸåĽ´ æĢİä¹Ī
èĩ Ń
ĠçľŁäºº æ¾³éĹ¨
ãĢĳãĢĲ æĹ¶
ç½ĳç«Ļ éªĹå±Ģ
å®īå¿ĥ æĪĲå®¶
çİ°åľ¨è¿ĺ å®īåħ¨åĲĹ
Ġ918æĲıå¤©åłĤ ç½ĳåĿĢ
Ġæ Ĵ
Ġbte365 å®ĺç½ĳ
Ġ356bet çĽĺåı£
, .
ĠccåĽ½éĻħç½ĳæĬķ ä»£çĲĨ
ĠAGçİ¯äºļ å®ĺç½ĳ
çĮ Ľï¿½
d ate
Ċ2020-04-0 7
çĮĽï¿½ æĬķ
è§Ĩè®¯ app
Ġï¿½éİıçĦ¯ çĮĽï¿½æĬķ
Ġå® ¤
Ġåįļå¤© å¨±ä¹Ĳå®ĺç½ĳ
Ċ æł¼
åħ¼ èģ·
7 2
Ġæ¾³éĹ¨å¹³åı° å¨±ä¹Ĳ
åīį æĻ¯
è¥¿ åħ°
æºª ä¹¡
Ċæ¾³éĹ¨ åŁİå¸ĤæĮĩåįĹ
å¯Ĩçłģ å¿ĺäºĨ
å³° ä¹¡
åĵªä¸ªæµıè§ĪåĻ¨ èĥ½æīĵå¼Ģ
å¤± èģĶ
ĠEng lish
ĠApp le
æĹ¶ è®¸ï¼Į
Ġíķ ľ
åĮĹ æĸ¹
Ġag166 äºļæ¸¸
Ġh otel
çľĭ äºº
ĠåľŁ åľ°
çª ĥ
å°±æĺ¯ åĿĳäººçļĦ
é£İéĻ© åĲĹ
ĠçľŁäººæ¾³éĹ¨ æ£ĭçīĮapp
åħ³ å¿ĥ
u id
Ġé¾Ļ æ½Ń
åĽ½éĻħ ç½ĳ
éĽĨåĽ¢ ç½ĳåĿĢ
Ġé¡¶ çĽĽ
Ġå¹¸è¿Ĳ èµĽè½¦
åķĨ æ¥Ń
æľĪ åĽŀé¦Ī
æľĪåĽŀé¦Ī 28åħĥ
Ġä¹¡ éķĩ
Ġ918åįļå¤©å¨±ä¹Ĳ æīĭæľºçīĪ
ä¸º ä½ķ
Ġç¯® çĲĥ
åħ¬å¼ĢéĢīæĸĻ |
Ġåĩ¯åıĳag å¹³åı°å®ĺç½ĳ
ĠåĽĽ ä¸įåĥı
âĢĿ åľ¨
è®² è§£
Ġp art
/ äºĮ
ĠåĪ©æĿ¥æľĢç»ĻåĬĽ èĢģçīĮ
Ġå¹¿ä¸ľ å¿«ä¹ĲåįģåĪĨ
çľŁ å¿«
ç½ĳ èµļ
¼ ï¿½ï¿½
æĸ¹éĿ¢ ï¼Į
éĤ ª
æī¬ åŃĲæĻļæĬ¥
ç«¯ app
Ġå® ¡
ĠagæĹĹèĪ°åİħ çĻ»å½ķ
Ġä¹Įåħ°å¯Ł å¸ĥ
çİ°åľº è¡Ķæİ¥
o se
ĊæĺĨ æĺİ
äºĨ âĢľ
"> <
è´ ¿
« çĳ°
äºº æĸĩ
ç½ĳæĬķ å®ĺç½ĳ
åı°æ¹¾ ç½ĳ
å¼ĢæĪ· çĽĺåı£
Ġäºļæ¸¸ æ£ĭçīĮ
åħ» èĢģ
ĠåĮĹäº¬pk10 éķ¿é¾Ļ
Ġb ack
åŀ Ń
ä¸ĢçĽ´ åľ¨
ä¸ĩåįļ åĲĹ
ä¸ºä»Ģä¹Ī æıĲä¸įäºĨçİ°
å¤§ æ¹¾åĮº
å®¶ å²Ĺ
åĪ¤ å¤Ħ
ãĢĳãĢĲ åľ°
æľ¬ æľĪ
åįĹ éĥ¨ãĢģ
æ¸¸æĪı å®īåįĵçīĪ
¹ à¸
Ġä¸ĩåįļä½ĵèĤ²app 3.0
èĪ ľ
Ġ365æ£ĭçīĮæ¸¸æĪı åħħåĢ¼
Ċ åĵĪå°Ķæ»¨
ĠG H
ĠèĤĩ åºĨ
· à¹Ī
ãĢĤ ç»ıè¿ĩ
Ċçĩķèµµ æĻļæĬ¥
Ġåĩ¯æĹ¶ äººçĶŁå°±æĺ¯åįļ
é«ĺ çļĦ
com e
å¥½ åº·
åı ĥ
åįķåıĮï¼ļ ç¥ŀå½©äºīéľ¸8
ĠåĲ §
ĊåįĹ å®ģ
Ġi tem
Ġåĩ¯åıĳAG åĽ½éĻħåİħ
Ġä¼ģä¸ļ æĭĽèģĺ
:office "
åİŁ çĶŁ
ï½ ½
Ġéĵģ è¡Ģ
al e
resp content
âĢĶ æŀģéĢŁ
æĻ Ĵ
é©¬ä¼ļåħ¨å¹´ èµĦæĸĻ|
Ġéķ¿ æĺ¥
is o
æĢģ åº¦
Ĵ æŀľ
ĠagæĹĹèĪ°åİħå®ĺæĸ¹ç½ĳç«Ļ å®ĺç½ĳ
Ġåħ¬ å¯ĵ
6 3
Ġä¾Ľ æ±Ĥ
Ċâ ĺħ
Ċ å®ģæ³¢
åĬ¨ ä½ľ
åıĳ ä¿¡æģ¯
s on
Ġæīĭæľº çľĭ
-1 3
åĴĮ ä¹¡
A W
5 ä¸ĩ
åĬ¨ æ¼«
âĨĵ âĨĵ
ĠæĪ¿å±ĭ åĩºç§Ł
Ry an
åįķåıĮï¼ļ äºĶ
Ġ2017 .Company
Ġä¸ĥ æĺŁ
åħĥ çļĦ
Ġw66åĪ©æĿ¥ å®ĺç½ĳçĻ»å½ķ
** *
ĠçĭĹä¸ĩ ä¸ĸçķĮæĿ¯
è¶³å½© æĬķæ³¨
ã ħ
Ċ å¨±ä¹Ĳ
åħĪ è¿Ľ
âĢķ å¤§åıĳå¿«3
Ġçİ¯äºļ åĽ½éĻħå¹³åı°
æĹ¶æĹ¶å½© å®ĺç½ĳ
Ċ ç®Ģä»ĭ
Ġè©ķéĳĳ å¤§éļĬ
åįķåıĮï¼ļ äºĮ
Ġçķ ¶
Ġæ¾³éĹ¨æĸ° èĳ¡äº¬
æ¶Īæģ¯ ï¼ļ
ĠAG è§Ĩè®¯
Ġä¸ĢèĤĸ ä¸Ńçī¹åħįè´¹èµĦæĸĻ
æĹ¥æĬ¥ ãĢĭ
ĉ åħ¶ä»ĸ
S _
Ġæ ®
çºªå¿µ é¦Ĩ
å¹¶ æ²¡æľī
äºļæ¸¸ çĻ»å½ķ
éŃ ļ
å» Ĭ
èĳ£ äºĭéķ¿
ĠD istrict
Ġagäºļæ´² å®ĺç½ĳå¹³åı°
88 06
èĦ ı
æľ¨ æ¡¥
æ³Ĭ å°Ķ
Ġf ont
èĴ ĭ
Ġä¸ĢèĤĸä¸Ńçī¹åħįè´¹èµĦæĸĻ åħ¬å¼ĢéĢīæĸĻ|
æ¯ ħ
ĠæĹ¶æĹ¶å½© å¤§åıĳ
ĠæĿ¨ æŁ³
ĠåĨ ł
Ġk8å¨±ä¹Ĳ ä¿¡èªī
æĹł æķĪ
Ċ æ¢ħ
Ġk8å¨±ä¹Ĳ æ¸¸æĪıå®īåįĵçīĪ
Ġä¸Ń åįİ
æŃ Ĳ
æī« çłģ
2.0 app
èĭ¹æŀľ å®¢æĪ·ç«¯
çī¹ å¸ģ
d o
æł¹ å»·
Ġéĩĳ åįİ
ä¸Ĭ çıŃ
Ġå¤§åıĳå¿«ä¸ī æĺ¯ä»Ģä¹Ī
ĠB usiness
Ġä¸ĩçĭĹ æĢİä¹Ī
à¹ī à¸Ļ
Ġè®¸ å®¶
å®īåįĵ æīĭæľºçīĪ
Ġå°Ĭé¾Ļd88 æīĭæľºçīĪä¸ĭè½½
åľŁ äººæĥħ
Ġè±ª åįİ
Ċ V
ä¿Ŀ åģ¥
¡ ç¿ł
ç¼ĸ åĪ¶
æ°Ķ ï¼Į
Ġ3 .0
ĠDe c
Ġè§ Ħ
Ġlo cation
x yXG5
å£° åľ¨çº¿
Ġè§Ĩé¢ĳ åľ¨çº¿
ì ķ
Ġå¤§åıĳäºĮ åĪĨéĴŁéĴŁ
è´Ł æķ°
Ġåĩ¯åıĳæīĭæľºçīĪ åĶ¯ä¸Ģ
Ġè¯¦ æĥħ
ĊæµĻæ±Ł æĹ¥æĬ¥
Ċ åıĤèĢĥæ¶Īæģ¯
Ġéĺ¿åħĭ èĭı
ç»ı çº¬
Ġagçİ¯äºļ å®ĺæĸ¹ç½ĳç«Ļ
( 1)
éģŃ åĪ°
ç»ĵç®Ĺ æħ¢
f ãĢĳãĢĲoãĢĳãĢĲ
ĉ ç»¼åĲĪ
æĪĳ è¦ģ
å®īå¿ĥæĪĲå®¶ è³¼å±ĭåĦªæĥłè²¸æ¬¾
æľī å¤ļ
å¾· é²ģ
ç¦ı æ¡¥
Ġin st
èµĶçİĩ ä½İ
é¦Ļæ¸¯ é©¬ä¼ļ
å°¾ æķ°
Ð ²
è¢«å°ģ äºĨ
Ġæ· ĺ
app è½¯ä»¶
Ġà¹ ģà¸
Ġagçİ¯äºļ è´µå®¾ä¼ļ
Ġåħ¶ä»ĸ ç»¼åĲĪ
Ġ0 ,
Ķ æŀĿ
ç¥ŀ åĻ¨
Ġå¹¸è¿Ĳ åĪĨåĪĨå½©
ĠåķĨ è®¯
ĠIn c.
å®¶ éķ¿
Ġagçİ¯äºļæīĭæľºå®¢æĪ·ç«¯ èĢģèĻİ
çªģ åıĳ
ĠèĪĴ éĢĤ
ĠçĶµåŃĲ ç½ĳç«Ļ
Ġèī º
æĤ Ħ
que st
Ġè©ķ æ¸¬
åľ¨çº¿ æīĭæľºçĻ»éĻĨ
Ġä¸ī å®ĺ
åľ¨çº¿ä½ĵèĤ²æĬķæ³¨ ç½ĳ
Ġagçİ¯äºļéĽĨåĽ¢ çľŁäºº
å®Įæķ´ çīĪ
Ċåĺī åħ´
").c ss
ê³ ł
Ġä¸ľ å²³
çŃĽ éĢī
ãĢĳãĢĲ åĪ°
ĠæĪ¿å±ĭ åĩºåĶ®
Ġdata Type
ĠæĹ¥ çħ§
Ġçİ¯äºļag åľ¨çº¿æīĭæľºçĻ»éĻĨ
èĩªæĪĳ è¯Ħä¼°
é«ĺ å°Ķå¤«
æ® ¼
æĢİä¹Ī æĵįä½ľ
å²© ä¹¡
éĽĨåĽ¢ æľīéĻĲåħ¬åı¸
éĢģ å¾Ģ
åįı è°ĥ
ĠéħĴåºĹ éłĲè¨Ĥ
al k
ĊåįĹ æĺĮ
Ġé£İ åľŁäººæĥħ
o -
ĠçĶµçİ©åŁİ ä¸ĭè½½
ç»ĳå®ļ è®¾å¤ĩ
éĿŀ ç»ĳå®ļè®¾å¤ĩ
æĦ ¤
æŁ Ķ
åº Ł
ĉ æķĻèĤ²
Ġk8 å®ĺç½ĳ
Ġå°Ĭé¾Ļd88 æľĢæĸ°é¦ĸé¡µ
Ġì ķ
Ġçİ¯äºļagæĹĹèĪ°åİħ 8806
Ġçİ¯äºļ å®ĺç½ĳapp
æķ´ ä½ĵ
com ment
Ġbet356 æıĲçİ°
Ġ" m
ãĢĳãĢĲ çĲĨ
ĉ å¨±ä¹Ĳ
Ġå¤§åıĳå¿«ä¸ī æĢİä¹Īçľĭ
Ġå¼Ģåħĥæ£ĭçīĮ åĮ¹éħį
ä¸Ŀ è·¯
ĠåĪ©æĿ¥ å®ĺç½ĳapp
ĠçľŁäºº ag
å¹³ åĪ·
ĠçĭĹä¸ĩ man
åŀŃ éķĩ
ĉ åģ¥åº·
.com/ news
ãĦ ¨
à¸²à¸ ¡
Ġé«ĺ æ¡¥éķĩ
-0 8-0
Ċé¦ĸéłģ >
ĉ åĽ¾çīĩ
Ġn um
æ³¨åĨĮéĢģ åĪĨ
Ġmg å¹³åı°
Ġå¹¿ ç¦ıæ¡¥
ĠM ag
Ġé¾Ļæ½Ń æ²³
Is Im
ç¤¾äº¤ åªĴä½ĵ
Ġäº¤åıĭ å¾ģå©ļ
ĉ ä¸ĵé¢ĺ
ĠP ar
æ£ĭçīĮæ¸¸æĪı ä¸ĭè½½
ĉ äººçī©
åł° ä¹¡
m ãĢĳãĢĲ
k8 ä¸ĭè½½app
Ġæºª åı£éķĩ
ãĢĤ æĸ°
Ġéĩĳ å²©ä¹¡
Ġå°Ĭé¾Ļd88 æľĢæĸ°ç½ĳç«Ļ
æµ·å¤ĸ çīĪ
_åįķåıĮ _
èµ¢ å¾Ĺ
ĠF eb
Ġè±¡ å¸Ĥéķĩ
ĠN an
æ´¥ éĵº
Ġé«ĺ å³°ä¹¡
åı¯ çĶ¨
ĠéĽ¶ éĺ³éķĩ
ĠéĽ¶ æºªéķĩ
Ġåĺī ç¾©
Ġæ´ŀ æºªä¹¡
Ġäººæīį æ±ĤèģĮ
å®ĺç½ĳ æ¬§ç¾İ
ĠéĿł è°±
Ġæ±Ł åŀŃéķĩ
ĠèĭĹ å¸Ĥéķĩ
g 5
ĉ è´Ńçī©
ĉ æ¥¼çĽĺ
ĠæĿī æľ¨æ¡¥
ĠåįĹå±± åĿª
ĠéĹ¨éĿ¢ åĩºç§Ł
ĠæĪ¿å±ĭæ±Ĥ ç§Ł
Ġè´§ åı·
ĠäºĮæīĭ è½¦è¾Ĩ
ĠéĢļ æ´¥éĵº
ĉ æ¯įå©´
ĠæĪ¿å±ĭæ±Ĥ è´Ń
Ġèµµ å®¶å²Ĺ
ĉ æĭĽåķĨ
Ġä¸ľå²³ è§Ĥ
æ³Ĭ æ¸¡
éĩĳ èİİ
Ġè®¸å®¶ åĿĬ
Ġå²© æ³Ĭæ¸¡
ĉ å©ļå«ģ
Ġä¸īå®ĺ å¯º
ĉ å®¾é¦Ĩ
ĉ æ°ĳä¿Ĺ
ĠæĿ¨æŁ³ éĵº
ĉ ä¹¡éķĩ
ĉ æ¸¸çİ©
Ġä¾Ľæ±Ĥ äºĮæīĭ
ĠåķĨè®¯ å¿«æĬ¥
ĠæĪĳè¦ģ åıĳä¿¡æģ¯
Ġæľ¬åľŁ åĬ¨æĢģ
Ġä¹¡éķĩ ç«Ļ
Ġéĺ³ åĴĮä¹¡
ĠçĶĺ åł°ä¹¡
åĿĬ åĿª
ĠäºĮ åĿĬåĿª
Ġæľ¬åľŁ çĶŁæ´»
ĠæĺĮ åĲī
ore m
s ub
Ġ2 .5
å®ĺæĸ¹ çīĪ
Ġæī ¹
åĳ Ĺ
è¿ŀ èµ¢
äºº åıĹä¼¤
ç¾İ æ´²
æīĳåħĭ ç½ĳ
å¾ µ
ĠæĬĢæľ¯ æĶ¯æĮģ
ç£ ĭ
å¤§å°ı è®¡åĪĴ
è´ ¾
å¤ļ å®Ŀ
ĠçĭĹä¸ĩèµ¢éĴ± æıĲæ¬¾
ä¹Ŀå·ŀ å¥½
ĠDes ign
å¥½è¿ĺæĺ¯ ä¹Ŀå·ŀå¥½
Ġçİ¯äºļç½ĳåĿĢ çĻ»å½ķ
è´ ©
Ġåĩ¯åıĳag å®ĺç½ĳä¸ĭè½½
ĠF l
Ġ ãĥ»
Ċ æĹ©çĤ¹å°ıåĲĥåĬłçĽŁ
å± ł
åĲİ æĦŁ
Ġåįģ åł°
Ġçİ¯äºļçľŁäºº åľ¨çº¿
å®¶ æĹı
Z O
Ġæĸ° æ¿ł
f l
Ġpk10 æľĢçīĽ
åĮĹäº¬èµĽè½¦ pk10
+ '
æĦı å¤ĸ
Vp Y
æĿĤ è°Ī
æĥ ©
åħ¬äº¤ ç½ĳ
m all
x s
C I6Ij
è¾¨ åĪ«
i ,
Ġç®¡ çĲĨ
. value
Ġc f
Â ²
å¹³ åİ¿
Ġd el
åįģ ä¹Ŀ
data -
ï¼Įä¸Ģ äºĽ
Ġä¹°çĲĥ å¿ĥå¾Ĺ
Ġon ly
ĠçĽ´ æĴŃ
uz !
Ġçľ ī
Ġ2019-11 -12
ç¼ħ æĢĢ
å´ Ķ
æ³¢éŁ³ åħ¬åı¸
Ġå¤§åıĳå¿«ä¸ī èµ°åĬ¿åĽ¾
Ġåĩ¯åıĳAGæĹĹèĪ° ä¸ĭè½½
Ġåĭ ŀ
Ð ¹
ĠåįĹ åħħ
Ġå¤§åıĳ 5åĪĨ
oh n
æ²¡ åĪ°
åħįè´¹ å¤§åħ¨|
î Į
è¶ĬæĿ¥è¶Ĭ å¤ļ
åħµ åĽ¢
ĊåįĹåĽ½ éĥ½å¸ĤæĬ¥
æĵįä½ľ ç®Ģåįķ
???????? ????????
ç½ĳçĲĥ æ¯ĶåĪĨçĽ´æĴŃ
å£ ¢
V s
Ġ365 -ä½ĵèĤ²æĬķæ³¨
ãĢĤ éļıåĲİï¼Į
5 æĹ¥
ç¾İ å¥½
O n
éĵ ĥå£°
Ġé ĳ
æĺ¯ è¢«
F t
ç¦ı å½©ç½ĳ
_è®¡åĪĴ ç½ĳ_
Ġip sum
Ċ2019-0 2
è¶³çĲĥ ä½ĵèĤ²
è¨ ĵ
Ii wi
åĪĽ å»º
em ber
çĽ¸ å½ĵ
ä¸²åŃĲ æĢİä¹Īä¹°
Ĺ ĭ
Ġä¹° ä¸²åŃĲæĢİä¹Īä¹°
æĸ° ç«¹
Ġ"urn:schemas-microsoft-com:office :office"
Ġäºļæ´² åĽ½éĻħ
arse Int
ãĢĳãĢĲ åĬ¨
çł´è§£ æĸ¹æ³ķ
ĠåĪ©æĿ¥ æľĢæĸ°çīĪæľ¬ä¸ĭè½½
åħ· ,
Ċçĩķèµµ éĥ½å¸ĤæĬ¥
ç½ĳä¸Ĭ åħħåĢ¼
ĠãĢĳãĢĲsãĢĳãĢĲtãĢĳãĢĲyãĢĳãĢĲlãĢĳãĢĲeãĢĳãĢĲ =ãĢĳãĢĲ"ãĢĳãĢĲ
åŃ£ åº¦
çĶµåŃĲ å¨±ä¹Ĳ
æŀģéĢŁ èµĽè½¦
Ġé©¬ ä¼ļ
ä¸¤ åĲį
æģĲ æĢĸ
:1 3
ãĢĳãĢĲtãĢĳãĢĲ :ãĢĳãĢĲ
Ċ å¤ªåİŁ
æ¬§æ´²è¶³çĲĥ èµĽ
echno logy
Ġ365æ£ĭçīĮ éĿŀç»ĳå®ļè®¾å¤ĩ
æŃ¤ æĸĩåŃĹ
Ċ çĶĺ
æľī çļĦ
ä¸ĵä¸ļ å¹³åı°
æıĲåīį ç»ĵæĿŁ
ĠåħŃ åĴĮåĲĪå½©
åĢ «
çĶµ ç«Ļ
èĥ½ çľĭåĬ¨çĶ»
NX z
A iLCJ
å°ıå§Ĳ -
å¯» æī¾
ct or
å¾· éĩĮ
æľī ä¸Ģ
ĠæĶĢæŀĿ èĬ±
Ġ365æ£ĭçīĮ +
ĠM in
Ġbet. 365ä½ĵèĤ²åľ¨çº¿æĬķæ³¨
å·Ŀ åİ¿
- B
cl ud
ä»£çłģ æĺ¯ä»Ģä¹Ī
ï¿½ ãĥ
ĠæĻ® éĢļ
S ON
æľŁæľŁ ä¸Ń
èµĮåŁİ ç½ĳä¸ĬåħħåĢ¼
çļĦå®īåħ¨ ä»£çłģæĺ¯ä»Ģä¹Ī
æ£Ģå¯Ł éĻ¢
åİĭ åĬĽ
ĠåĴĮ çĶ°
åħįè´¹åħ¬å¼ĢèµĦæĸĻ éĢīæĸĻ
resp onse
Ĭ åıĳ
åıį æĺł
æĶ¿ åįı
ĠI H
V 2lkdGg
Ġéļ¨ æĦı
Ġæ¾³éĹ¨ç½ĳç«Ļ æ¸¸æĪı
Ġ365 258
Ġnba çĽ´æĴŃ
å¥ĸ åĬ±
Ċ2018-0 9
åĽĽ çłģ
âĶ Ģ
ĠçĭĹä¸ĩ åıįæ°´
Ġçıł æµ·
è£ħ é¥°
çĶµåŃĲå¹³åı° éĢģ
Ġæ´ Ĺ
88 7
åĭŀå·¥ ç´ĵåĽ°
ĠçĶĺèĤĥ å¿«3
Ġä¸½ æ°´
è©¹ å§Ĩ
Ġæ¾³éĹ¨ç½ĳç«Ļæ¸¸æĪı çĶµåŃĲå¹³åı°éĢģ
ì ĸ´
çļĩåĨł å¹³åı°
å¹¸è¿Ĳ å¿«ä¸ī
ï¼ĮæĪĳ åĽ½
æĬ¢ åºĦ
é»Ķ è¥¿åįĹ
åįĹ ç½ĳ
è®² å®¶
fãĢĳãĢĲoãĢĳãĢĲ nãĢĳãĢĲtãĢĳãĢĲ
Ġäºļç¾İam8 å®¢æĪ·ç«¯
Ġåħ¶ å®ĥ
Ġæįķé±¼ è¾¾äºº
åĪ©æĿ¥ w66
Ġbet36 å®ĺç½ĳ
æľīapp ä¹Ī
Ć Ĉ
èµĮåľº æ¸¸æĪı
· ¸
Ġå¼Ģåħĥæ£ĭçīĮ åĿĳ
Ġæ¾³éĹ¨ åľ¨çº¿å¹³åı°
Ġäºļç¾İam8å®¢æĪ·ç«¯ åı¯éĿł
Ġäºļæ´² 365bet
Un it
ĠåĪ©æĿ¥æľĢç»ĻåĪ© èĢģçīĮ
Ġè§ Ĭåıĳ
å° ĺ
he F
Y2 x1
æ¯ĶåĪĨçĽ´æĴŃ 001
z Y2
zY2 hl
Ġæľ ±
2R l
ZSI6ZmFsc2UsIm V4
ZSI6ZmFsc2UsIm 1
b Wlu
0aW 1
lem 9u
iOmZhbHNlLCJ jb
UiOmZhbHNlLCJ kb
ZH Vs
heF dpZHRo
Y2x1 ZG
2Rl Ijoi
zY2hl ZHVs
UiOmZhbHNlLCJkb 21haW4
0aW1 lem9u
ZSI6ZmFsc2UsIm1 heFdpZHRo
ZSI6ZmFsc2UsImV4 Y2x1ZG
iOmZhbHNlLCJjb 2RlIjoi
bWlu V2lkdGg
zY2hlZHVs ZSI6ZmFsc2UsIm1heFdpZHRo
0aW1lem9u ZSI6ZmFsc2UsImV4Y2x1ZG
UiOmZhbHNlLCJkb21haW4 iOmZhbHNlLCJjb2RlIjoi
0aW1lem9uZSI6ZmFsc2UsImV4Y2x1ZG UiOmZhbHNlLCJkb21haW4iOmZhbHNlLCJjb2RlIjoi
Ġéļ¨æĦı çª©
12æľĪ 20æĹ¥ï¼Į
ãĢĳãĢĲ éĥ¨
OH g5
cy OHg5
æ±Ł éĹ¨
Ġth an
å¨±ä¹ĲåŁİ å¹³åı°
ï¼Įä¸į è¿ĩ
åŁº å±Ĥ
ĠæŀģéĢŁ åĪĨåĪĨå½©
ä¸į ä¸Ģæł·
Ċæµ·åı£ ç½ĳ
è¿ŀ çº¿
Ġæ¾³éĹ¨æĸ° èĳ¡
) (
ĠA pr
i el
å¨±ä¹Ĳ å®ĺ
Ċæ²³åĮĹ æĸ°éĹ»ç½ĳ
åŃĺéĴ± æ²¡åĪ°
Ġ@ CC
åĳ¢ ï¼Ł
ers on
(' #
é«ĺ è´¨éĩı
ĠåĽ½éĻħcc ç½ĳæĬķ
Ġçİ¯äºļ åĽ½éĻħ
ĠV iew
.m sg
p ro
åĪĨ ç½ĳ
Ġ365æ£ĭçīĮçĶµèĦĳ çīĪä¸ĭè½½
Ġ365ä½ĵèĤ²åľ¨çº¿ å¤ĩçĶ¨
Ċ æ·®
Ġ2019-10 -21
åľ°åĮº çļĦ
r ay
èİĨ çĶ°
Ċ éĺľ
æİ ©
çĶµ åĬĽ
çĻ½èıľ ç½ĳ
ml k
çļĦ æīĢæľī
Ġäºļæ¸¸éĽĨåĽ¢ æľĢæĸ°ç½ĳåĿĢ
æĮĩå°ĸ æ£ĭçīĮ
Ġåįĵ è¶Ĭ
ï¼Į èĩª
èĩªåĬ¨ æĬķæ³¨
3N jg
å±ķ è§Ī
ãĢĤ æĬ¥éģĵç§°ï¼Į
æģ© æĸ½
çĻ»å½ķ æ³¨åĨĮ
ä¼ļ å½©å¼Ģå¥ĸç»ĵæŀľ
iOiI 3Njg
iOiI3Njg iLCJ
Ġ2.0 L
Ġåĩ¯æĹ¶ æīĭæľºçīĪ
ĠçľŁäººæ¸¸æĪıä¸ĭè½½ æīĭæľºçīĪ
åħįè´¹åħ¬å¼ĢèµĦæĸĻéĢīæĸĻ |
Ġäºļæ¸¸ çĽ´èĲ¥ç½ĳ
å®ī åľ¨çº¿
Z K
Ġæ°¸å®ī æĹħéģĬ
Ċ åĮħåŃĲ
å°Ĩ åħ¶
ĠçĶµèĦĳ çĻ»éĻĨä¸įäºĨ
it al
âĢĶ åľ¨çº¿
Ġæĸ° åįİç½ĳ
ĠâĶ ľ
Ċ2020-04-0 9
æµģ éĩı
Ġåĩ¯æĹ¶ AGæĹĹèĪ°åİħ
17 åĪĨ
Ġåĩ¯æĹ¶ å¤ĩçĶ¨ç½ĳç«Ļ
å®¢ æĪ¶
9 3
à¸Ńà¸ ¢
çļĦ çĲĥéĺŁ
å¤©åłĤ å®ĺæĸ¹ç½ĳç«Ļ
ĠG T
ĠAG åĩ¯åıĳ
ç¤¾ä¼ļ åĲĦçķĮ
æ»ļçĲĥ æĬķæ³¨
Ċ é¦ĸ
Ġag ç½ĳä¸Ĭ
365 å½©éĩĳ
ç»Ł æĪĺ
Ġ3 000
äººæ°ĳ æĶ¿åºľ
ĠçľŁäººag æ£ĭçīĮæ¸¸æĪı
çļĦ è½¦
æĸĹ äºī
Ġå¼Ģåħĥæ£ĭçīĮæĺ¯ ä¸įæĺ¯
Ċ èģĶåĲĪåĽ½
Ñ ħ
Ġéĥ¨èĲ½å®¢ æİ¨èĸ¦,
Plx yXG5
ĠI sland
ĠåĪ©æĿ¥ æīĭæľºçīĪapp
Ċ éĴ±
ĠéħĴåºĹéłĲè¨Ĥ >
æľŁ æĿĥ
çľŁæŃ£ ç½ĳç«Ļ
è²¼ çı¾
SB N
Ġ2018 -05
C M
é«ĺéĽĦ å¸Ĥ
Ġst ud
æŃ£ç½ĳ çĽĺåı£
83 Mjh4OT
0aW1lem9uZSI6ZmFsc2UsImV4Y2x1ZGUiOmZhbHNlLCJkb21haW4iOmZhbHNlLCJjb2RlIjoi PHNjcmlwdCB0eXBlPVwidGV4dFwvamF2YXNjcmlwdFwi
zY2hlZHVsZSI6ZmFsc2UsIm1heFdpZHRo IjpmYWxzZSwi
NXz cyOHg5
bWluV2lkdGg iOiI3NjgiLCJ
TV 83Mjh4OT
0aW1lem9uZSI6ZmFsc2UsImV4Y2x1ZGUiOmZhbHNlLCJkb21haW4iOmZhbHNlLCJjb2RlIjoiPHNjcmlwdCB0eXBlPVwidGV4dFwvamF2YXNjcmlwdFwi PlxyXG5
NXzcyOHg5 MC
zY2hlZHVsZSI6ZmFsc2UsIm1heFdpZHRoIjpmYWxzZSwi bWluV2lkdGgiOiI3NjgiLCJ
TV83Mjh4OT AiLCJ
zY2hlZHVsZSI6ZmFsc2UsIm1heFdpZHRoIjpmYWxzZSwibWluV2lkdGgiOiI3NjgiLCJ 0aW1lem9uZSI6ZmFsc2UsImV4Y2x1ZGUiOmZhbHNlLCJkb21haW4iOmZhbHNlLCJjb2RlIjoiPHNjcmlwdCB0eXBlPVwidGV4dFwvamF2YXNjcmlwdFwiPlxyXG5
åįģ åħ«
æĢİä¹Īçľĭ çĽ´æĴŃ
Ġåĩ¯æĹ¶ åħ±èµ¢åħ±æ¬¢ä¹Ĳ
éĿĴ å°ĳå¹´
Ċ æ¼
"). hide();
ĠåĮĹäº¬ å¿«3
Ħà¸ §
ä¸Ģ çº§
Ċ æĹ©çĤ¹å°ıåĲĥ
ĠP ost
å¾®ä¿¡ åı·
ĠçĭĹä¸ĩæĺ¯ æĮĩ
Ġ* /
ĠèļĮåŁ ł
æ°ĳéĸĵ åĢŁè²¸
N vb
ĠL ong
å½© appä¸ĭè½½
Ġ365æ£ĭçīĮ æ¸¸
æ©ĺ åŃĲ
éĩı åŃĲ
ĠäºļæĲıä½ĵèĤ² å¹³åı°
Ġè´ ´
ĠèĵĿæľĪäº®ç²¾éĢīæĸĻ åħįè´¹å¤§åħ¨|
ĠæĻº èĥ½
ĠåĤ µ
ä½Ļé¢Ŀ ä¸įåĪ°
éļıæľº ä½Ļé¢Ŀä¸įåĪ°
Lm Nvb
æĶ¾ åľ¨
éĩĩè®¿ æĹ¶
aW N
å¤§åıĳå¿«ä¸ī èµ°åĬ¿åĽ¾
èĳĹ åĲį
ard en
Ġagä½ĵèĤ² åįļå½©
è¼ ¯
Ġbtt918 å®ĺæĸ¹ç½ĳç«Ļ
Ġagç½ĳç«Ļ äºļæ¸¸çĻ»å½ķ
æĪĲåĬŁ æ¡Īä¾ĭ
è¢ ģ
çģ« è½¦ç«Ļ
Ġå®īåįĵ çīĪ
å®¢æĪ· çĶµè¯Ŀ
1c Imh0
ĠDisc uz!
é ¨
ç´ Ļ
èĢĥ å¯Ł
çĻ»å½ķ åĻ¨
Ġè§ Ĥ
V wv
èĥĮ åĲİ
I GF
Ċ èģĶç³»
Ġè©ķéĳĳå¤§éļĬ ,
/ 2019
ĠæĽ² éĿĸ
Ġ2 .4
ation s
ĠAntiAd .
è®¾ ç«ĭ
Ġè¯¦ ç»Ĩ
æľīéĻĲ é¢Ŀ
Ġå®¢ æĪ·
æ²Ĵ éĮ¢
ay a
å®¢ åĬłçĽŁ
500 ml
.getValue ()
æĺ¯ä¸įæĺ¯ æľīéĻĲé¢Ŀ
Ġbtt918 çĻ»å½ķ
. data
x 7
ç¨İ åĬ¡
éĢļ éģĵ
- 365ä½ĵèĤ²æĬķæ³¨
Ġc m
5 åĪĨæİĴåĪĹ3
Ġbtt918 å¤©åłĤå®ĺæĸ¹ç½ĳç«Ļ
Ġåĩ¯æĹ¶åĽ½éĻħ äººçĶŁå°±æĺ¯åįļ
Ġå¤§ éĺª
è¶³çĲĥ çĽ´æĴŃ
çĲĥæİ¢ å®ĺç½ĳ
LmNvb Vwv
ï¼Į åıĪ
Ċ æŀ
app å®ĺæĸ¹ç½ĳç«Ļ
Ġæľ ĥ
Ġè©ķæ¸¬ æĸĩ,
ä¸Ńæĸĩ å®ĺæĸ¹ç½ĳ
çļĦ æĶ¿æ²»
Ġäº§åĵģ ä¸Ńå¿ĥ
Ġbt365 æıĲçİ°
ä¸į åı¯ä»¥
ĠAr ch
Ħà¸§ à¸²à¸¡
êµ Ń
åĪĹ åħĭ
èµ° åĲĳ
åŃ ¤
éł ĵ
çĲĨ çĶ±
YWRz L
Ġçİĭä¸Ńçİĭä¸Ńçī¹ åħįè´¹åħ¬å¼ĢèµĦæĸĻéĢīæĸĻ|
çĳŀ å£«
950 5
Ġu dn
äºĨ è¯¥
åŁİ ç½ĳ
èº«ä»½èŃī åĢŁéĮ¢
å¯¹ ãĢĳãĢĲ
Ġç½ĳä¸Ĭ åħ¼èģĮ
åŃĺæ¬¾ å°¾æķ°
ç½ĳä¸Ĭ æīĭæľºæĬķæ³¨
Ġçİ» çĴĥ
æ¼ Ĩ
Ċ ç§»åĬ¨
Ġäºļæ´² 365betå®ĺç½ĳ
Ġ356bet æ³¨åĨĮ
ĠæĲıå¤©åłĤ å®ĺç½ĳ
ĠçļĩåĨł æĸ°
Z Y
Ġ2019å¹´ 12æľĪ
ä»İåĵªéĩĮ ä¸ĭè½½
æĺ¯åĵª çļĦç½ĳç«Ļ
Ġ7 æĹ¶
Ģ æĶĢ
ï¼Į æİ¨åĬ¨
éĵ¶è¡Į æıĲæ¬¾éªĮè¯ģ
ãĪ ¢
ç½ĳç«Ļ åŁŁåĲį
éĵ ¸
¿ ï¿½
è¨ ´
show ();
æĪ¿ äº§
ĠåĲĲé²ģ çķª
åįĬæľĪ è°Ī
ĊæĤ¨ æīĢåľ¨
èĪŀ åı°
Ġ365æ£ĭçīĮ æīĭæľºçīĪ
o ll
Ġå¼Ģåħĥæ£ĭçīĮ å¥½
ä¸ĸçķĮ è¶³çĲĥ
ust om
ĠçĭĹä¸ĩ çĻ»å½ķ
âĸ ²
Ġå¤§åıĳç§ĴéĢŁ æĹ¶æĹ¶å½©
ä½ĵ åĿĽ
å¹´ ä¼ļ
è¶³çĲĥ å¹³åı°
éĢļ çĶ¨
åĲĦ é¡¹
æľª ç»ĵç®Ĺ
ĠçĭĹä¸ĩå®ĺç½ĳ è¶³å½©åĲ§
ï¼Į ä¸įèĥ½
Ī ĺ
çĬ¯æ³ķ åĲĹ
ĠåĪ©æĿ¥åĽ½åĽ½éĻħ æľĢ
Ġhg 9505
Ġhg9505 çĤ¹c0m
ĠR est
Ġp rice
Ġc ase
Ċ æŁ³
éĿĴ åľ¨çº¿
Ġæ¸ħ è¿ľ
ĠäºĮæīĭ å®Ŀé©¬
Ċ åıĮ
è´§ æºĲ
Ġ365æ£ĭçīĮ çĪĨåĪĨ
l ink
ä¸į éĶĪéĴ¢
ç»Ī äºİ
à¹īà¸Ļ à¸«
æ¬§æ´² äºĶå¤§èģĶèµĽ
å¤ĸ ç½ĳ
åĲįç§° ï¼ļ
Ġåİ Ĥ
åĽ½éĻħ çİ°éĩĳ
éļ ¨
å¤© çļĦ
Ċ çıłæµ·
Ġä½³æľ¨ æĸ¯
èµĮåŁİ åħħåĢ¼
ĊâĢ º
y a
/ ä¸Ģ
Ġf irst
Ġå®¿ è¿ģ
ot t
çıł å³°
Ġè¶³çĲĥæ¯ĶåĪĨ è§Ĩé¢ĳ
æ³¨åĨĮéĢģ 35
ä¸Ĭæµ· å¸Ĥ
éª ¸
æĸ°éĹ» åĳ¨åĪĬ
ĠçĭĹä¸ĩèµ¢éĴ± åıĸçİ°
åįķåıĮï¼ļ ä¸Ģ
L K
Ċ ç¼ĸè¾ĳï¼ļ
å¼Ģå¥ĸ ç½ĳ
èµŀåĬ©åķĨ (ä¸ĩåįļapp)
Ġt ext
ĠæĪ¿ äº§
éĢ Ĺ
ç¶ĵ é©Ĺ
æŃ£ç½ĳ å¨±ä¹Ĳ
å½©ç¥¨ çĻ»å½ķ
Ġin ter
b an
è½¯ä»¶ 365
æĸ° å¢ŀ
è· ĥ
ĠçļĩåĨł 365bet
å¦Ī å¦Ī
Ġèĩª è´¡
Ġuu å¿«ä¸ī
é«ĺ è¾¾
A K
æĦŁ åıĹ
ä¸»ç®¡ éĥ¨éĹ¨
- S
Ľ à¸¥à¸
0 .1
ç¦ ¾
åľ¨åĵª ä¸ĭæ³¨
Ġçİ° ä»£
å¹² æī°
å¦Ĥä½ķ ä¹°æ¯ĶåĪĨ
ä¹ Ļ
Ċ é²ģ
å®ŀæĹ¶ åĬ¨çĶ»
R a
å²Ľ æ¹ĸ
çľŁäººæ¸¸æĪı ç½ĳç«Ļ
äºī è®®
ĠG alaxy
Ġé»Ħ çŁ³
ĠçľŁäºº æ³¨åĨĮé¦ĸé¡µ
æ¾¶ ï¿½
Ġs ome
åŃ¦ åİĨ
ı è¦½
M an
Ħà¸ ³
ä»» æĦı
in o
æµ¦ åĮº|
ç·ļ ä¸Ĭ
g o
app èµ°åĬ¿åĽ¾
ä¸Ńæĸĩå®ĺç½ĳ å½©ç¥¨
ç²¾ç¥ŀ ï¼Į
éĵ ł
Ċ æĭīèĲ¨
lo l
èĲ¥ ä¸ļ
æ¡ĳ å¾·æĸ¯
ĠServ er
ç¡®è®¤ å¿«åĲĹ
Ġ365bet çĽĺåı£
ä¸ĸ æĿ¯æĬķæ³¨365
äºı æĮĩæķ°
ĠçļĩåĨł 365ä½ĵèĤ²æĬķæ³¨
éĺ¿ åĪĹåħĭ
Ġfunction() {
Ġè´ Ń
åĵģ è´¨
Ċ å®£
èĢ¿ çĪ½
Ġbte365 ç½ĳç«Ļ
èĭı å·ŀ
æ´»åĬ¨ ãĢĤ
éĤ® æĬ¥ãĢĭ
ibe x
ĠåĸĢ ä»Ģ
zh an
Ġ2019-10 -18
èº« è¾¹
Ġä½¿çĶ¨ è©ķæ¯Ķ,
ĠçĽĪ äºıæĮĩæķ°
Ġå¦Ĥä½ķ ä¸ĭè½½
ar a
Ġwh en
æĥ ľ
æĢİä¹Īä¹° ä¸²åħ³
Ċå¤© ä¸ĭ
Ġo ver
YX A
Ċå½ĵåīį ä½įç½®
ĠæĬ ĺ
T ube
ï¼Į åĪ°
ï¼Į éĥ½
å¼ºè°ĥ ï¼Į
Ġà¹ģà¸ Ľà¸¥à¸
ï¼ģ ï¼ģ
ä¸Ńæĸĩ ç½ĳç«Ļ
è² Ŀ
Ġèĳ«èĬ¦ å²Ľ
ĠCent er
åĽ½ ä¸¤åĪ¶
lo b
Ġè¯ Ŀ
åĽŃ èīº
/ é£
Ġ365betå®ĺç½ĳ æ³¨åĨĮ
Ġæ£ĭçīĮæ¸¸æĪı 365
å¹¼ åĦ¿
08 æĹ¥
Ġå½©ç¥ŀäºīéľ¸å¤§åıĳå¿«ä¸ī è§Ħå¾ĭ
Str ing
èµŀåĬ© çļĦçĲĥéĺŁ
ä¸ī æľŁ
Ġ365æ£ĭçīĮ éĢģ
js );
æ£ĭçīĮæ¸¸æĪı 365
Ġå°Ĭé¾Ļ æīĭæľºå®¢æĪ·ç«¯app
Ġy äºļæ´²
Ġnba æĸ°éĹ»
ĠæĹłæ³ķ æİ¥åıĹ
velop ment
O l
ä¿® æŃ£
ä¸į æ»¡
æŁ¥ è©¢
åĪ· æŀª
Ġåı ·
KT V
Ġåĩ¯åıĳä½ĵèĤ² ä¸ĭè½½
å¹¶ æľª
Ġå¦Ĥä½ķ å®īè£ħ
Ġ118 kj
ĠB ET
Ċ2020-04-0 8
è´£ä»» ï¼Į
ï¿½ï¿½ æ¶ĵï¿½
ĠåĤµ åĭĻ
ï¿½ P
Ċéķ¿ æ±Ł
ĠçĻ½å°ıå§Ĳ åħŃ
çĶµè§Ĩ åī§
é¦ĸ åŃĺ
Ċ å¿«é¤Ĳ
ĠèĻ ¹
gãĢĳãĢĲ h
æıĲæ¬¾ åŃĺåħ¥
å½©ç½ĳ å¤§åıĳå¿«ä¸ī
Ġcf åĪ·æŀª
in c
Ġåĩ¯æĹ¶ çº¿ä¸Ĭ
ä¸Ĭ è¯ī
Ġåĩ¯åıĳ å¹³åı°å¼ĢæĪ·
è± ¹
0 "
æĳ º
å¾Īå¤ļ äºº
ãĢĳãĢĲå¸Ĥ ãĢĳãĢĲ
ĠæĺŃ éĢļ
Ġä¸ĭè½½ åĩ¯åıĳ
ĠO f
ĠA H
Ġæ¾³éĹ¨ç½ĳæĬķ app
æĬµ æĬ¼
åįĹ åİ¿
æĿ¥ çľĭï¼Į
ĠéŁ¶ åħ³
Ġâĸ ²
çĻ½ èī²
Ċ åħ¬åı¸
m ail
åŁİ åĮºæĸ°éĹ»ç½ĳ
æĹ¥ å¸¸
æĹ¶éĹ´ï¼ļ 2020å¹´
æİĴ æŁ¥
ĠçĭĹä¸ĩ å®ĺæĸ¹æ³¨åĨĮ
èĵ Ħ
Ġ2019-10 -15
Ċåıĭæĥħéĵ¾æİ¥ ï¼ļ
Ċä¸ŃåĽ½ æ±Łèĭı
9 00
- çİ¯çĲĥç½ĳæĬ¥éģĵ
ĠäºļæĲı åĽ½éĻħ
å¨ģå°Ķ å£«
ĠçĭĹä¸ĩå®¢æĪ·ç«¯ appä¸ĭè½½
å°¤ åħ¶
Ð ´
è¯· æ±Ĥ
ĠçĭĹä¸ĩçº¢åĮħ æıĲæ¬¾åŃĺåħ¥
çģ ĺ
ç½ĳç»ľ èµĮ
æ¨¡æĭŁ ä¸ĭæ³¨
Ġåĩ¯åıĳ åĶ¯ä¸Ģ
6 78
èĦ ī
è¿ŀ ä¸Ĭ
å¤ĸ éĢģ
ç»Ļ ä¸įç»ĻæıĲçİ°
Ċå¤§ åĲĮ
Ġå°Ĭé¾Ļd88 æīĭæľºapp
æľŁ åĩĨ
Ċ æĻļ
å¦Ĥä½ķ è®¾ç½®ä¸Ńæĸĩ
.p ost
å½©å¼Ģå¥ĸç»ĵæŀľ è®°å½ķ
ĠåķĨ åĵģ
Ġéĥ¨èĲ½å®¢ ,
ĠS an
Ġå°Ĭé¾Ļ å®¢æĪ·ç«¯ä¸ĭè½½
Ġå°Ĭé¾ĻäººçĶŁå°±æĺ¯åįļ å®ĺæĸ¹å®¢æĪ·ç«¯ä¸ĭè½½
w it
å§Ķåĳĺ ãĢģ
åŀĭ ï¼ļ
éĺ¿åĪĹåħĭ è°¢
èĢħ :
äº¤æĺĵ å¹³åı°
Ġagçİ¯äºļ å®¢æĪ·ç«¯
åħį ä¿Ŀäºº
æĤ ł
åľº æ³¨
æ°ĳéĸĵ ä»£æĽ¸
ĠåĪ©æĿ¥åĽ½éĻħ å¨±ä¹Ĳ
çĭ¬ èµ¢
Ġä¸ĩåįļapp ä¸ºä»Ģä¹Ī
ĠæŀģéĢŁ 3åĪĨå½©
Ġå°Ĭé¾Ļd88 AGæĹĹèĪ°åİħ
ĠæµİåįĹ æĸ°éĹ»ç½ĳ
ĠåĪĿ ä¸Ń
Ċ æ¸¯
å¤ĸåĽ´ åľºæ³¨
èĮ ¨
å¯¹ éŁ©
æ¾³éĹ¨ è¶³çĲĥå¹³åı°
ĠæĿ Ĳ
åĽ½ä¼ļ ä¼Ĺè®®éĻ¢
ç´ ĭ
éĢļ ä¿¡
å¹ ¾
ĠHotel s
Ġå°Ĭé¾ĻäººçĶŁå°±æĺ¯åįļ æīĭæľºçĻ»å½ķ
çĽĽ å®´
Ġ2020-01 -18
ìĦ ľ
æ±Ł æĻļæĬ¥
å½©èī² ç½ĳ
1.2 8
å¤§ä¼ļ åłĤ
/ åĤ³æĴŃ
/é£ ¯å±Ģ
ä»ĸ äºº
[çİ¯çĲĥæĹ¶æĬ¥ -çİ¯çĲĥç½ĳæĬ¥éģĵ
æĸĩæ±ĩ ç½ĳ
Ċé»Ħ æ²³
r on
2 åİħ
å¯ °ï¿½
ç½ĳç»ľèµĮ è¾ĵéĴ±
Ġå°Ĭé¾ĻäººçĶŁå°±æĺ¯åįļ æ¸¸æĪı
äºº æķ°
er ry
å½© å¨±ä¹Ĳ
å½ĵ æĹ¥
çļĦ èĢģ
æ¸¸æĪı å¤§åħ¨
è¡Į ç¨ĭ
å§ĭ çļĩ
çļĦ ç»ıæµİ
ä¸įç»Ļ æıĲæ¬¾
10 8
æı ½
ĠM G
Ċ å¤´æĿ¡
Ċ èħ¾
iosçīĪ è½¯ä»¶
Ġå°Ĭé¾Ļag å®ĺç½ĳ
ä¸į èµ·
ĠçĭĹä¸ĩå®īåįĵ iosçīĪè½¯ä»¶
Ġl ayer
Ċæĸ° åįİç¤¾
çªĹ åı£
201 1
åĽĽèĤĸéĢīä¸ĢèĤĸ æľŁåĩĨ
Ġ2019å¹´ é¦Ļæ¸¯
Ċ çĶ±
æĬ¢ çº¢åĮħ
æĸ°éĹ» å±Ģ
ĠçŁ Ń
Ġå°Ĭé¾ĻäººçĶŁå°±æĺ¯åįļ çľŁäºº
ĠæĺĮ å¹³åĮºæĸ°éĹ»ç½ĳ
Ġæ¹ĸåĮĹ å¿«3
Ġ2019-12 -06
ĠåĪ©æĿ¥å®ĺæĸ¹ç½ĳç«Ļ åħ¥åı£
ä¸įèĥ½ è®¿éĹ®
çĻ»å½ķ å®ĺç½ĳ
Ġbet- 365ä½ĵèĤ²æĬķæ³¨
ĠC an
éĺ ±
å¤ ķ
Ġç½ĳé¡µ æ¸¸æĪıå¹³åı°
arseInt (
éĢģ åĪ°
Ġw idth
Ċ æ¥ļ
Ġå°Ĭé¾Ļå®ĺç½ĳ æīĭæľºçīĪappä¸ĭè½½
ç¾İ æľ¯
åĨį åº¦
åŁİ æĻļæĬ¥
æİªæĸ½ ï¼Į
ç»´ åĬłæĸ¯
çļĦ æĹ¶éĹ´
çŁŃ æľŁ
èķ ¾
èľ Ĥ
æĶ¯ ç¥¨
Ċ2019-09 -23
æĻ® éģį
éĥĳ å·ŀ
Ġ10 æĹ¶
Ċä½ł å¥½
Ċ 18
ä¼Ĺ å¤ļ
0 .5
æĳĦ åĥı
/ 8
æ¬§æ´²è¶³çĲĥ é¢ĳéģĵ
çİĭä¸Ńçİĭ å¼Ģå¥ĸç»ĵæŀľ
un j
ĠèµĮçĲĥ ç½ĳç«Ļ
éĽ £
åİ» ãĢĤ
èģĮä½į ï¼ļ
è¶ħ å¸Ĥ
Ġè¿Ļ éĩĮ
æľĢæĸ°æĬķæ³¨ å¤ĩçĶ¨ç½ĳåĿĢ
è¦ª åŃĲ
Ġæĸĩ åĮĸ
æľīä»Ģä¹Ī æĬĢå·§
åħ±å»º âĢľä¸Ģå¸¦ä¸Ģè·¯âĢĿ
Ġë °
çĶ¨æĪ· çĻ»å½ķ
app å¤§åıĳå¿«3
æ½ Ķ
Ġ365æ£ĭçīĮ å®¢æľįçĶµè¯Ŀ
Ġåĩ¯åıĳ å¹³åı°
Ċ çĮ«
ãĢĳãĢĲ èĢħ
C ontent
åĩ ¶
è¶³å½© è®ºåĿĽ
é¢ľ èī²
é»ĳ å±ı
ç¾Ĭ ç½ĳ
é©»é©¬ åºĹ
ä¸Ńçī¹ |
Ġå¼Ģåħĥæ£ĭçīĮæľī äºº
åīĬ åĩı
L W
Ċ æ´¥
ï¼ ĸ
ĠĠĠĠ ĠĠĠĠ
h p
åĽĽä¸įåĥı å¿ħä¸Ńä¸ĢèĤĸ
Ċ æľªæĿ¥
Ġ365 æīĭæľº
åŁİ ç½ĳç«Ļ
ĠìĿ ´
Ġé¦Ļæ¸¯æľĢå¿« å¼Ģå¥ĸçİ°åľºçĽ´æĴŃ
Ċ çĸ¯çĭĤ
¡ ï¿½
å®ŀéªĮ å®¤
æ¡Ī ï¼Į
Ġ365ä½ĵèĤ² æīĭæľº
ĠèĵĿæľĪäº® æĸĻ
dãĢĳãĢĲeãĢĳãĢĲ rãĢĳãĢĲ
Ġæ±ķ å°¾
åĨ ¶
¹ ï¿½
Ċ ä¼ł
Ġ365bet æ³¨åĨĮ
çĶ¨ èº«åĪĨèŃīåĢŁéĮ¢
èŃ ĺ
ãĢĳãĢĲ æĥħ
Ġä¸ī æĺİ
ç´ Ŀ
OS T
ä½ĵåĿĽ åį³æĹ¶æ¯ĶåĪĨ
æĹł çłģ
O U
Ċ æ¶Īè´¹
å¹´åº¦ è®°èĢħä¼ļ
Ġæ¶ ²
= 0
ain t
Ċå¤® å¹¿ç½ĳ
åģı ä¸į
L D
ĠæľĢç»ĻåĬĽåĪ©æĿ¥èĢģçīĮ ç½ĳç«Ļ
ĠæĦ Ľ
ĠæĹħ éģĬ
Ġä½ Ĩ
Ġ365æ£ĭçīĮ è¾ĵäºĨ
é«ĺ å³°
Ind ex
Ġ2020-01 -28
Ġå¼Ģåħĥæ£ĭçīĮ åħ¬åı¸
cted ]
è¡¨ æĪĸ
åħ³ ç¨İ
1 +1
å¦ ®
Ċä¸ĭä¸Ģç¯ĩ :
å¦Ĥä½ķ è¿ŀä¸Ĭ
3 èĲ¬
6 æĹ¥
Ġä½ıå®¿ åĦªæĥł
é¸ £
ĠåĵĪ å¯Ĩ
Ġ2019-10 -17
èĪĨ è®º
Ġæµ· åı£
è¿ĺ è¦ģ
Ċåįİ å¤ı
Ġ| æĲľç´¢
Ġä¸į åģıä¸į
ì ĩ
æĸĩ åŃ¦
Lo Ra
åľ¨çº¿ è§Ĩé¢ĳ
æ³¨åĨĮ å°±éĢģ
åĪĨ è£Ĥ
æŃ ·
Ġå¹¿ä¸ľ 11éĢī5
Ġæ¾³éĹ¨ éĩĳèİİ
[...]
