#version: 0.2
ä ¸
Ġ å
ä º
å ı
ç ½
Ġ æ
å ®
ç½ ĳ
ã Ģ
Ġ ç
æ ľ
å ¤
ï ¼
æ Ĺ
3 6
36 5
ç ī
å ħ
ä ¹
åı ĳ
å® ĺ
ä ½
æ ĸ
å Ī
å Ľ
å ½
äº ļ
æ ¸
æ Ī
è ½
b e
Ġ é
å İ
å į
å®ĺ ç½ĳ
å Ĭ
Ġ 365
be t
æ ī
2 0
ä¸ ĭ
è Ĥ
å ľ
å ¹
æ¸ ¸
Ġå ĩ
æ ³
ï¼ Į
ä »
Ġåĩ ¯
æ Ĭ
ä¸ ĩ
ç Ľ
ä½ ĵ
ç «
ç Ķ
è½ ½
ä¸ĭ è½½
èĤ ²
Ġ è
ç ļ
ä½ĵ èĤ²
æľ º
Ġåĩ¯ åıĳ
å½ ©
å Ĳ
çļ Ħ
ãĢ ĳ
ãĢ Ĳ
æī ĭ
¿ ½
ï ¿½
a g
çī Į
a p
æ³ ¨
æĹ ¶
å °
ap p
æ Ŀ
ãĢĳ ãĢĲ
ç İ
å ·
é Ĺ
å¤ ©
æ £
åİ ¿
æīĭ æľº
å ¸
ä¹ Ĳ
å ¼
å Ŀ
å ¿
åĽ ½
æ ĺ
Ġå ¤
äº º
ĭ çīĮ
å¹ ³
è µ
åı °
é Ļ
æ£ ĭçīĮ
åİ¿ |
ç º
åĬ ł
è ¿
æĬ ķ
è ®
åĪ Ĩ
çĽ Ł
ç Ļ
Ġ |
Ġ äºļ
ï¼ ļ
åĬł çĽŁ
åľ ¨
ç« Ļ
åĿ Ģ
å Ĩ
å¹³ åı°
å º
çī Ī
ç ¥
æĸ ¹
å¤ §
ç »
å¿ «
ä¸ Ń
é Ģ
ç½ĳ ç«Ļ
å ±
Ġå¤ §
20 1
ĭ Ĺ
ä¸ Ģ
Ġ ag
å Į
â Ģ
è ¯
æĪ ı
ç ľ
å¼ Ģ
æ¸¸ æĪı
æĸ °
ç Ĳ
å ¨
ãĢ Ĥ
æĿ ¥
æĬķ æ³¨
¯ äºļ
çº ¿
Ġ -
å¸ Ĥ
ç½ĳ åĿĢ
ä¸ Ĭ
ä ¼
æ °
ĭĹ ä¸ĩ
± ä¹Ĳ
æĪ ·
å Ń
é ĩ
è §
è ´
Ġç ĭĹä¸ĩ
å¨ ±ä¹Ĳ
1 0
å ¥
- 0
æĺ ¯
æ µ
çĻ »
æ Ģ
å®ĺ æĸ¹
Ġæ ĺ
æ ¬
ä¸ ī
æĹ ©
Ġ bet
Ġ365 bet
ç Ĥ
å® ¶
éĻ ħ
Ġå¤§ åıĳ
æ ŀ
ä¹ Ī
Ġç İ
æ ²
¾ Ļ
éĹ ¨
çĤ ¹
é ĺ
ä¸ į
å½ ķ
ï¿½ ï¿½
è ¡
åĽ½ éĻħ
å½© ç¥
æ ±
å Ł
æ ´
åį ļ
Ġå Ī
å ĩ
ä ¿
© æĿ¥
å® ¢
é ¾Ļ
Ġ365 ä½ĵèĤ²
å® ī
é ¤
¨ å¤©
ç ¾
é Ľ
çľ Ł
çĻ» å½ķ
çĲ ĥ
é Ĵ
å ¾
Ġæ Ĺ
é¤ Ĳ
3 5
é ¡
åľ¨ çº¿
æĹ Ĺ
¾ ³
Ġæĺ ¨å¤©
Ġäºļ æ¸¸
çĶ µ
Ġ 1
è Ģ
å· ŀ
æīĭæľº çīĪ
Ġå °
å± ±
åħ ĥ
¾³ éĹ¨
35 6
Ġçİ ¯äºļ
æľ ī
201 9
æ Ń
åĨ Į
Ġå ®
çĶ ¨
å ¯
å¸Ĥ |
æĹ ¥
æ³¨ åĨĮ
å ĵ
ç¾ İ
æ ł
åŁ İ
å½©ç¥ ¨
è Ī
ĠåĪ ©æĿ¥
- 1
çİ °
æ¬ ¾
ä¸ĩ +
é ĥ
æĢ İ
æľ Ģ
é Ŀ
æ º
å¿« ä¸ī
æ İ
Ġbet 365
Ġæ ¾³éĹ¨
ç« ¯
æ ı
é ¢
Ĭ é¾Ļ
åľ °
å¹ ´
æ Ķ
ī į
å®¢ æĪ·
Ġå ¼
Ġ ä¸
Ġ 0
éĴ ±
é ¦
³ |
Ġ365 æ£ĭçīĮ
æĢİ ä¹Ī
å®¢æĪ· ç«¯
åİ ħ
äº Ĩ
Ġ365ä½ĵèĤ² æĬķæ³¨
ãĢ ģ
ç §
8 8
æı Ĳ
¥ ¿
i n
åħĥ æ£ĭçīĮ
è ¾
Ġå į
Ġ365bet å®ĺç½ĳ
Ġ >
æĬ ¥
éĽ Ĩ
20 20
356 bet
æ± Ł
æ ĭ
å° ı
åħ ¬
åį Ĺ
Ġå ħ
åħ ¨
o n
Ĵ Į
å¤ ļ
Ġå¼ Ģ
Ġå° Ĭé¾Ļ
å ĳ
e r
åĲ Ĺ
éĩ ĳ
æĹ¶ å½©
æĹ© é¤Ĳ
è¡ Į
æ ķ
çľŁ äºº
a n
ä¼ ļ
è ¶
å Ģ
ĠæĹ ©
çİ ¯äºļ
6 6
æĹ¶ æĹ¶å½©
Ġ 356bet
Ġæ ĸ
é¡ µ
åĽ ¢
åŃ Ĳ
çĶ Ł
æĹ© çĤ¹
åĽ ¾
èĪ °
å īį
o m
ç ł
é Ĥ
ä¿ ¡
è ĥ
æĹĹ èĪ°
åľ º
æº Ĳ
è½ ¦
app ä¸ĭè½½
åº Ĺ
é ģ
å±± |
äº ¬
2020 -0
å ĴĮ
- 2
: 0
éĽĨ åĽ¢
å¼Ģ æĪ·
¾ å®¶
Ġ 2
Ġå ı
éĹ »
è ĭ
æŀ ľ
Ġå¼Ģ åħĥæ£ĭçīĮ
r e
åĮ º
Ġå ¹
æ´ ²
s t
å¤ ĩ
æ Ļ
è ¥¿
å¿« 3
æ ¯
æĸ ĩ
ä½ ľ
ç ®
a t
è ĩ
å¥ ĸ
âĢ Ŀ
è ²
æµ ·
æ³ ķ
âĢ ľ
åı ·
æ° ´
Ġ c
çī ¹
æľ Ī
é¦ ĸ
è® ¡
æĸ° éĹ»
Ġ A
a l
çĲ Ĩ
Ġ b
åı £
Ġ äº
è ī
æĹ©é¤Ĳ åĬłçĽŁ
e n
Ġäºļ ç¾İ
ä» ¶
w 66
æ Į
æ Ĵ
« ĺ
åĪ °
éĢ Ł
æ ĥ
Ġ ä¸ĩ
Ġ t
è ģ
å®ĺæĸ¹ ç½ĳç«Ļ
Ġåĩ¯ æĹ¶
é ķ
çĽ ´
: 4
èµ Ħ
å¥ ½
Ġæĸ °
: 5
å ģ
æĹĹèĪ° åİħ
å¤ ĸ
ä¸ º
åĮ Ĺ
è´ ¹
å¤ĩ çĶ¨
Ġag çİ¯äºļ
åĲ Ī
: 2
è °
ä¸ ª
Ġæĺ¨å¤© 0
æŃ £
è ¦
æ »
å¤§ åıĳ
ä» £
æ Ĳ
ģ |
å¼Ģ å¥ĸ
éĺ ³|
è§ Ĩ
é ľ
Ġæ Ŀ
æĴ Ń
åĪ Ĵ
p k
è¶ ³
çİ ©
æ° ĳ
åĩ º
å° Ķ
ä¸ ľ
Ġç Ķ
å·ŀ |
æĹĹ |
Ġå ½
s e
ä» ¥
ç ķ
ľ Ł
æ° Ķ
ä» Ģ
èĢ ħ
a r
èµ Į
è§ Ħ
å· ¥
: 1
éĥ ¨
åŁİ |
Ġ /
åĪ ©
éĹ ´
0 0
é Ķ
ç ¤
o r
ä ¾
å ²
Ċ 2019
é £
çł ģ
åĽ ´
Ġæ ±
è®¡ åĪĴ
è ·
åı ¯
Ġé ĺ
çĶµ æ¸¸
. c
pk 10
Ġå Į
. .
æĹ©çĤ¹ åĬłçĽŁ
ç ¨
æľĢ æĸ°
Ġæ ľ
è² ¸
: 3
Ġå¤§åıĳ å¿«ä¸ī
æ ¹
çĻ ¾å®¶
Ġæ ī
èµ °
i s
èĥ ½
ç¥ ŀ
Ġç ľŁ
å° ±
è¦ ģ
ç Ń
Ġç Ļ
ç» ĵ
é ©
é »
åħ į
Ġ 201
d 88
æ į
Ġ 3
å¿ ĥ
Ġæĺ¨å¤© 1
Ġå Ĳ
åĵ ª
Ġ 5
é¦ĸ é¡µ
t e
åĬ ¿
é ª
ä»Ģ ä¹Ī
é ĵ
å ķ
åį ķ
æĸ°éĹ» ç½ĳ
ç½ĳ æĬķ
åĬ ¨
æ¸ ¯
æľ Ł
èµ Ľ
Ġæ ²
o u
æ±Ł |
çľ ĭ
è Ĭ
Ń ¦
Ġæ µ
è¿ Ĳ
ä¸ ļ
è Ĳ
èĩ ª
çĽ´ æĴŃ
å¯ ¹
Ł ³
Ġ C
ä¸Ń åĽ½
éĩ Į
åĮ ĸ
æĸ ¯
åħ ¥
Ġ 2019
l e
æ Ħ
å· Ŀ
Ġ k
äº Į
å®ī |
æ¯ Ķ
Ġ S
æĪ ĳ
è¶³ çĲĥ
ļ çĲĥ
Ł ¥
çº¿ ä¸Ĭ
ä¸ »
å®¢æĪ·ç«¯ ä¸ĭè½½
æ Ľ
èĢ ģ
åĲ į
Ġ ä¹
Ġåį Ĺ
h e
ä½ĵèĤ² æĬķæ³¨
åľ° åĿĢ
Ġ 2020-0
æĲ ı
éĥ ½
è¿ Ľ
åĪĨ å½©
èµ° åĬ¿
¦ Ĥ
Ġ (
å¤© æ°Ķ
åħį è´¹
åħ ³
ĠåĮ Ĺ
ĠæĹ© é¤Ĳ
æ ¶
éĺ ³
° |
Ġå½ ©
Ġå Ľ
å® ļ
æĪ Ĳ
ä½ į
æĶ ¿
åĵ ģ
å §
åŃ ¦
ç ¦
è £
è¡ ¨
é «ĺ
ç» ı
éģ ĵ
åħ ĭ
ĠæĹ© çĤ¹
åĲ İ
Ġä¸ĩ åįļ
éĢ ī
Ġåĩ¯åıĳ å®ĺç½ĳ
é ħ
a m
h t
Ġ 9
è¿ Ļ
å½©ç¥ ŀ
æ ¡
æľ ¬
åį İ
ï¼ ī
æĬ Ģ
äº ī
ç ¯
1 8
åı Į
åı ¸
å¼ ı
éķ ¿
ä½ĵèĤ² åľ¨çº¿
l o
i t
æŀ Ĺ
å »
Ġ T
éĢ ļ
ï¼ Ī
æ» ļçĲĥ
æĸ Ļ
éĢ ģ
ģ éĢŁ
äº ¤
å £
Ġ P
è® °
Ġ f
Ġåĩ¯åıĳ ä½ĵèĤ²
æĹ¶ éĹ´
å ł
æıĲ çİ°
å° ĳ
å½ ĵ
Ġc c
.c om
Ġ }
ä» ĸ
åķ Ĩ
åº ¦
Ġæ °
Ġé ķ
ç ²
å¾ ·
èµ°åĬ¿ åĽ¾
è ¢
åİ Ł
r i
æ ģ
Ġå¤ ©
æľ į
- 10
äºļ æ´²
Ġ 4
éľ ¸
é© ¬
Ġæ ³
Ġ =
æ Ĥ
å¤ĸ åĽ´
ç ¬
Ġå® ī
ç ©
äº ĭ
. 0
äºļ æ¸¸
è½ ¯
åĳ ĺ
é ļ
Ġå½© ç¥ŀ
Ġé ĩ
æĺ İ
äº İ
ç ³
éĿ ¢
åĪ ©æĿ¥
ä¿ Ŀ
Ġæ ŀ
Ġ M
Ġ be
w w
åħ¬ åı¸
ä» ¬
Ġ s
Ġè µ
å® ģ|
äºī éľ¸
å¸ ĥ
è® º
è½¯ ä»¶
ãĢ Ģ
à ¸
çĻ¾å®¶ ä¹Ĳ
æ² ³
åĬ Ľ
æºĲ ï¼ļ
Ġcc åĽ½éĻħ
¹ æŀľ
Ġ m
ç Ī
é¢ ĳ
æİ Ĵ
åĲ Į
è· ¯
Ġ v
ĠæĹ ¥
) ;
ī |
Ġk 8
åį ĵ
Ġå ·
ç ±
åįķ åıĮ
ç ¼
en t
Ġäºļ æĲı
æıĲ æ¬¾
Ġå¹ ³
Ġç º
Ġæ ¸
Ġ p
ç ´
å ĭ
ç³ »
è® ¯
» ¿
Ġ d
Ġå ¾
èī ²
è²¸ æ¬¾
è į
Ġ ä¸Ń
Ġé »
ĠåĮĹ äº¬
t 365
è¢ «
Ġä¸ ľ
i on
Ġ B
åĢ Ł
ä»£ çĲĨ
åı ĸ
ç¯ ĩ
ĠçľŁ äºº
å¤© å¤©æ°Ķ
Ġäºļæ¸¸ éĽĨåĽ¢
ĠçĶ µ
æĢ »
è§ £
ĠåĪ©æĿ¥ w66
é¢ ĺ
å ¦Ĥ
èµ ¢
èģ Ķ
Ġé Ŀ
åĪ ¶
è Ļ
Ġçİ¯äºļ ag
? ?
å® ŀ
å Ļ
æī ĵ
è ¨
Ġ 6
Ġ R
Ġ w66
ç½ĳ ä¸Ĭ
Ċ 2020-0
e s
Ġ 8
èĭ ¹æŀľ
æĭ ī
ç ĥ
Ġ H
ç»ĵ æŀľ
æ² ³|
è İ
æł ·
çī ĩ
äº Ķ
åĻ ¨
æĪ ¿
è¿ ŀ
ä½ ķ
Ļ æ¸¯
ï¿½ï¿½ ï¿½ï¿½
ï »¿
å± Ģ
æ¸¸æĪı å¹³åı°
ä¸Ģ ç¯ĩ
Ġç §
æº ª
Ġ 7
åįĹ |
Ġbet 356
æł ĩ
æĹ ł
Ġå ¯
åį ģ
Ġ 10
ç¨ ĭ
æµ ģ
ç ģ
1 2
c t
è Ħ
' ,
å¤§ åħ¨
ä¹ ĭ
çİ ĭ
è¿ ĩ
å·Ŀ |
ç ĸ
åĢ ¼
Ġå°Ĭé¾Ļ d88
Ġæī ĭ
å» º
Ġ {
ĠæĿ ¥
éĴ Ł
åĬ ¡
Ġè ĭ
å¤ĩçĶ¨ ç½ĳåĿĢ
Ċ 201
ç½ ®
çĽ ĺ
-1 2
å¤ļ å°ĳ
æķ °
æİ ¥
è ª
ä» Ĭ
Ġbet 36
Ġå¤§åıĳ æĹ¶æĹ¶å½©
Ġæ± Ł
è´ ¦
åĽ ŀ
-1 1
åħ Ń
Ġæ Ī
ç® ¡
ç¬ ¬
è£ ħ
± ¼
åĪĨ å¿«3
Ġåĩ¯åıĳ æīĭæľº
ç¤ º
éĩ į
Ġ a
Ġæ° ¸
æ¹ ĸ
è§Ĩ é¢ĳ
Ġ ãĢĳãĢĲ
Ġä¸ ´
å®ĺç½ĳ ä¸ĭè½½
åİ »
è¯ ģ
: '
Ġ ä¸Ĭ
i c
å° Ĩ
æĦ ı
åĽ Ľ
çĽ ®
Ġè ¥¿
åº Ĩ
i d
æĺ Į
ç½ Ĺ
å®ī åįĵ
Ġå¹ ¿
éĤ ®
Ġå īį
Ġéĩ ĳ
å¹³ |
ç Ħ
æĹ ħ
å¹ ¿
é ±¼
éĻ Ĩ
ï ½
å ĸ
u n
æ ·
è¯ ·
Ġç ī
åģ ĩ
åį ¡
çķ Į
å· §
A P
æ ¼
èµĦ æĸĻ
ä¸ ĸ
ç¥ ¨
Ġæ Ļ
ä¹ °
åĪĨ éĴŁ
Ġåĩ¯åıĳ app
Ġæ Ń¦
1 1
å°± æĺ¯
Ġ I
æ¬ ¡
æ°´ |
æĥ ħ
Ġé ¦
æ ¢
æİ ¨
åº ľ
æĹ¥ æĬ¥
åĨ ħ
Ġ Â
. 5
Ġ L
Ġéķ ¿
g ht
Ġ âĢ
è¯ ´
éĻ ¢
çī ©
æĬĢ å·§
Ġ D
ç® Ĺ
æī Ģ
ĠçĻ ¾å®¶
äº ĳ
Ġé «ĺ
Ġ i
å ŀ
´ |
Ġå ¿
æ´ ¥
A G
å ³
ĠA G
åŃ Ĺ
Ġåīį å¤©
åĬ ©
éĹ ®
éĿ Ĵ
in g
å¼Ģ åħĥæ£ĭçīĮ
e d
åĨ ł
Ġ :
3 0
æĤ ¨
åºĹ åĬłçĽŁ
ç¤ ¾
æ² »
Ġåĩ¯åıĳ çº¿ä¸Ĭ
äº §
Ġç Ľ
Ġæīĭ æľº
å ¢
å® ģ
ĠæĹ¥ åįļ
æīĭæľºçīĪ ä¸ĭè½½
Ġåı °
Ġç »
éĿ ł
èĤ ĸ
åĮ ħ
çŃ ī
äºº çĶŁ
o p
æ ©
æł ¼
AP P
æ Ł¥
å¼Ģå¥ĸ ç»ĵæŀľ
æīĭæľº çĻ»å½ķ
ä¸ İ
æĶ¿ åºľ
åįķåıĮ ï¼ļ
æīĭæľº å®¢æĪ·ç«¯
æ² ¡
å¨±ä¹Ĳ å®ĺç½ĳ
èĢģ çīĮ
¡ |
å± ķ
ä¸Ģç¯ĩ ï¼ļ
e t
Ġ w
Ġw66 åĪ©æĿ¥
çİ° éĩĳ
Ġt he
Ġå° ı
ç» Ł
.. .
Ġè ¿
æ ¥
è¯ Ŀ
Ġb t365
åĪ Ĺ
å ¡
Ġè ´
å®ĺæĸ¹ ä¸ĭè½½
åħ ±
å°ı æĹ¶
1 5
è¾ ¾
Ġ ãĢĲ
åı¯ ä»¥
æ ¨
éħ Ĵ
Ġéĺ ¿
èĤ ¡
ç« ŀ
Ġå Ĭ
ç§ ĳ
èĭ ±
365 bet
ä¹ Ł
Ġé Ģ
åħ ħ
ç ¿
Ġå ¨
çľŁ éĴ±
åħ ī
è¿ ĳ
Ġç ļ
çº §
è¯ Ħ
r o
é» ĳ
æ¸ ħ
Ġé ĵ
èµ ·
a d
Ġæŀ ģéĢŁ
Ġ G
ç² ¾
çİ ĩ
. 2
å®ĺç½ĳ çĻ»å½ķ
é£ ŀ
è® ®
- -
ç¾ ¤
å¾ ĭ
é¢ Ħ
åº ·
¸ è¿Ĳ
è® ¾
ag æĹĹèĪ°åİħ
Ġ ä¸ī
æŃ£ è§Ħ
Ġæ Ń
åĩ Ĩ
å ī
Ġåĩ¯åıĳ çĶµæ¸¸
Ġå ¥
æºĲ |
è¿ ĺ
Ġå º
å· ²
å¸ Ī
n t
Ġå® ģ
Ġé Ľ
éª Į
¦ |
å¾ Ĺ
æĶ ¶
l l
çī Ľ
Ġé ĥ
æ£ĭçīĮ æ¸¸æĪı
ä½į ç½®
ĠåĪ Ĩ
èĬ ±
æ Ł
Ġäºļ æ´²
Ġæ ´
a c
æĿ ¡
è ±
åĲ ĥ
éķ ĩ
è ı
an d
Ġ F
å Ķ
å° Ĭé¾Ļ
. 1
ç» Ļ
Ġ N
å¤§åıĳ å¿«ä¸ī
è ³
ç¦ ı
è º
ĠæĿ¥ æºĲï¼ļ
çĻ» éĻĨ
Ġå »
åł Ĥ
Ġæ ¹
Ġ n
æĿ ĥ
ä» »
ç© º
o f
ä½ĵèĤ² app
am 8
st 365
( "
Ġag åĽ½éĻħ
å¯ ¼
æĺ Ł
æµ ĭ
Ġé Ļ
äºº æ°ĳ
Ġäº Į
éĻ Ĳ
åħ ¶
Ġ re
ç½ĳ é¡µ
æį ®
ç« ł
ç ĭĹ
ç¼ ĸ
æģ ¯
ç Į
Ġå ±
a y
æĻ ļ
Ġ ä¹Ĳ
Ġçº ¿
æ¯Ķ åĪĨ
Ġ W
çīĪ ä¸ĭè½½
Ġé Ĥ
åĪĨ æĹ¶æĹ¶å½©
è »
å°ıæĹ¶ åīį
m ent
Ġçº¿ ä¸Ĭ
èª ī
Ġag äºļæ´²
Ġ "
2 -2
åı Ĭ
. 6
Ġ365æ£ĭçīĮ æ¸¸æĪı
Ċ2019 -0
Ġ E
å° ¼
âĢ Ķ
ãĢ ĭ
. 8
éĻ µ
æīĭæľº app
Ġä¹ Į
Ġ h
éĿ ŀ
é Į
èº «
ľ |
èµĽ è½¦
ä¸ľ |
æ¬ ¢
a s
æŃ ¤
Ġæµ ·
Ġåĩ¯æĹ¶ åĽ½éĻħ
è§ Ĥ
Ġç Ł³
ãĢ Ĭ
æĮ ĩ
åģ ļ
1 9
. 3
å· ´
Ń |
ä» İ
æ¹ ¾
Ġè ¾
æºª |
. 4
ç¾İ åĽ½
Ġ ä¼
å¨±ä¹Ĳ åľº
. 9
Ġå¤ ĸ
æĭ Ľ
Ġåĩ¯åıĳ å½©ç¥¨
èĻ İ
äººçĶŁ å°±æĺ¯
ç Ŀ
Ġæĺ¨å¤© 2
èĭ ı
æĽ ´
çĽ ¸
Ġæ ·
Ġç ¦
ä¸Ń å¿ĥ
Ġæ Ģ
ĠæŃ £
åĮº |
æ ¾³éĹ¨
å® Ŀ
å®¢ æľį
Ġ 20
æĻ ®
Ġ201 8
å Ħ
ä» ·
éĩ ı
ï¿½ï¿½ ï¿½
èī ĩ
æĺ¯ ä»Ģä¹Ī
Ġé ¾Ļ
Ġ #
å² Ľ
ä¿¡ èªī
ç ¹
. 7
å ĥ
éĵ ¶
4 -0
Ġæ ¡
æ ½
) .
æĥ ł
æĪĳ ä»¬
Ġäº Ķ
Ġå ¸
Ġ $
ķ é±¼
Ġå ľ
å ©
è®° èĢħ
é ¥
è ĳ
al se
ĠçĻ¾å®¶ ä¹Ĳ
å¾ ®
åĲ §
u r
é¡ ¹
æĪ ĺ
ä¸ ¤
çĻ ¾
æ² Ļ
çİ° åľº
è Ń¦
e l
Ġæ »
æ¡ Ī
Ġåį ļ
o d
ç ı
è» Ĭ
æ´ »
å¦Ĥ ä½ķ
Ġå® ľ
ç§ °
Ġå¾ ·
åĮĹ äº¬
æķ Ļ
å¤ ´
Ġbe st365
ww w
Ġ in
åº Ķ
æ¶ Ī
365 ä½ĵèĤ²æĬķæ³¨
èµĮ åľº
o l
è Ĺ
æŀ ģéĢŁ
äº Ľ
ä¸ ĵ
é ĸ
Ċ ä¸Ĭ
âĢ ķ
èĲ ¥
Ġè ¯
Ġå Ĩ
Ġ U
åĩ ¯
åĳ ¨
Ġ y
æĺ ĵ
è¶ ħ
è¥¿ |
é¦ Ļæ¸¯
ĩ åĨł
å®ī åħ¨
ä½ľ èĢħ
ç± »
éĤ Ģ
éĮ ¢
Ċ æĸ°
äººçĶŁå°±æĺ¯ åįļ
Ġ O
åŀ ĭ
o s
é£ İ
åŃ ĺ
Ġå ²
å· ¦
æ± Ĥ
Ġ [
éª Ĺ
Ĭ Ģ
te 365
æĹ¶éĹ´ ï¼ļ
éĤĢ è¯·
è¾ ĵ
Ġ ä¸Ģ
ĠåĬ ł
ç ĭ
æĺĮ |
Â ·
å°ı åĲĥ
u s
Ġ d88
Ġ ä½
å®ī è£ħ
åı ¤
æµ İ
åı ª
æµ· |
éħ į
æĺ ¥
ä¸ĸ çķĮ
çł ´
o w
é ²
æľĢæĸ° çĻ»å½ķ
ç ª
åĨ Ľ
ĠéĿ Ĵ
æľ ¨
½ |
Ġ V
å£ «
å¤© åłĤ
æĹħ æ¸¸
Ġæ² ³
Ġv ar
é» Ħ
åĽ½ å®¶
æĮ ģ
Ġ K
ä¸Ń æĸĩ
Ġ of
¾ İ
è° ±
åħ¥ åı£
æĥ ³
Ġå ĵ
Ġ J
ï¼ ģ
Ġæ¸ ħ
ĠæĹ©çĤ¹ åĬłçĽŁ
ä½įç½® ï¼ļ
çº ¢
Ġå· ´
ĠéĢ ļ
Ġäºļæ¸¸ åĽ½éĻħ
Ġå¤ĸ åĽ´
å½ ±
åĵª ä¸ª
c c
ĺ ī
å§ Ķ
ĠåĽ ½
éĤĢè¯· çłģ
åĳ Ĭ
alse ,
å¼ º
å½ĵ åīį
éĽ Ħ
ç« ĭ
Ġd88 å°Ĭé¾Ļ
ç Ł¥
è½ ¬
ĠAG çİ¯äºļ
æ²¡ æľī
t h
èĦ ĳ
èĪ ª
åħ °
éĶ ģ
ç» ľ
ä¸ĩ åįļ
è ħ
ĠçľŁ éĴ±
åħ ļ
Ġé» Ħ
Ġk8 å¨±ä¹Ĳ
Ġ365 æ»ļçĲĥ
çĶµ åŃĲ
Ġb te365
ä¾ Ľ
Ġäºļç¾İ am8
ĳ |
æĿ ¯
Ġå½©ç¥ŀ äºīéľ¸
å¹ ¶
ä¿ ®
åĬ ŀ
c om
o te
é Ł
åı ³
ä¹ ¦
å¥ ³
åĿ Ľ
ç» ´
å·¥ ä½ľ
åĪĨ åĪĨå½©
ç ¡
çĶµ è¯Ŀ
lo g
ri ght
ç§ Ĵ
ä¼ ĺ
ç ¶
ï¼ Ł
Ġæ Ľ
Ġ â
Ġ pk10
ç½ĳ ç»ľ
Ġçİ¯äºļ çĶµæ¸¸
ç Ł
ä½ ł
Ġag çľŁäºº
ĠçĻ ½
èµĮ éĴ±
Ġè ¶
ct ion
Ġç ģ
: f
éĿł è°±
åĲ ĳ
æĺ¯ çľŁ
é£ŀ èīĩ
åı£ |
åİ Ĩ
i p
Ġå¿ «
èĲ ½
ä¹ ħ
åĮĸ |
ä½ Ĩ
å¸ ¸
12 æľĪ
Ġ is
çĦ ¶
è ©
å½©ç¥ŀ äºīéľ¸
Ġ1 2
é º
Ġ ä½ĵèĤ²
èĢ Į
Ġéĺ ³
Ġ &
åŁ º
ã ĥ
Ġ and
è® ¤
èµ ļ
çļĦ åĲĹ
:f alse,
çľ ģ
ĬĢ è¡Į
- 20
Ġè Ĭ
æ ¦
æĶ ¾
æ ĳ
åĽ Ń
i m
åħħ åĢ¼
åı Ĺ
åĽ ł
ŀ į
Ġå Ń
Ġ2019 -0
Ġåħ ´
æ ļ
ä¸į äºĨ
è´¦ åı·
www .
æ¬ §
-1 9
ä¹ ł
ĠccåĽ½éĻħ ç½ĳæĬķ
çĿ Ģ
èĹ ı
å¿« ä¹Ĳ
æľ ª
è° ĥ
æĢ Ŀ
éĹ® é¢ĺ
Ġç¦ ı
åı ²
e w
æīĭæľº å®¢æĪ·ç«¯ä¸ĭè½½
Ġè İ
åĢŁ æ¬¾
2 8
èĤ¡ ç¥¨
ĠåĲ ī
Ġé ©
å¾ Ī
Ġå°Ĭé¾Ļ äººçĶŁå°±æĺ¯åįļ
ç® ±
bet 365
Ġæ Ĭ
Ġ1 1
at 365
åĪ Ļ
åı ĭ
æĶ ¯
è§Ħ å¾ĭ
è ĸ
åĩ ł
Ġè ¡
Ġå ĳ
æį ķé±¼
Ġäºļæ¸¸ å®ĺç½ĳ
è Į
ä¸Ģ ä¸ª
Ġæ ł
Ġç ¥
m l
ä¹ ī
è¯ »
Ġå ĴĮ
Ġt o
ä¼ Ĺ
Ġåħ Ń
Ġé ģ
å¤§ å°ı
æĮ Ĥ
æ© Ł
ç¨ ³
Ġæ ½
ä¿ Ħ
Ġåı ĳ
Ġé¦ Ļæ¸¯
Ġä¸ĩ çĭĹ
Ġæľ Ģ
Ġ365 å¤ĸåĽ´
é¡ º
çİ ¯
ç Ĭ
-1 8
è¡¨ ç¤º
ä¸ ¾
Ġ ï¿½
ä» ĭ
Ġåĩ¯åıĳ çľŁäºº
Ġé Ħ
ç Ł³
å ª
:' ',
è¯ ¥
éªĮ è¯ģ
å¿ ħ
é¡¹ çĽ®
Ġåħ ¨
çĻ ½
ç ¢
é ĬĢè¡Į
Ġåĩ¯åıĳ æ¸¸æĪı
b 88
Ċ2019 -10
åĢŁ éĮ¢
Ġè ®
å® ¾
365 æ£ĭçīĮ
b o
ĠçĭĹä¸ĩ åıĸ
ç¿ ¼
Ġèĭ ±
åħ¬ äº¤
èĩ ³
c h
å¤ Ħ
æĿ¥ æºĲï¼ļ
é ł
Ġ: :
å¨ ģ
å ¦
Ġ g
éĺ Ł
åĪ «
è¯ ķ
Ġ X
Ġæ ı
9 18
è Ĵ
Ġäº ĳ
å£ °
è¿Ľ è¡Į
æĬ ¤
ä¸ °|
æ ®
è¾ ¹
å® ¹
Ġè ģ
åĲ Ħ
éĤ £
Ġ1 5
ä» ½
åĵ Ī
ĠçĶµ çİ©
Ġå ĺī
æľ ¯
æ· ±
éĻµ |
çģ «
è®º åĿĽ
åĮ »
è® ©
Ġ0 9
Ġå¹ ¸è¿Ĳ
ä¸ĭ ä¸Ģç¯ĩï¼ļ
åĩ¯ åıĳ
éĺ³ åİ¿|
ç ĭĹä¸ĩ
èĢ ĥ
æ ħ
è Ń
Ġ +
un ction
ãĢĤ âĢĿ
åı° |
åĩ »
.8 ä¸ĩ+
.6 ä¸ĩ+
.0 ä¸ĩ+
.7 ä¸ĩ+
.5 ä¸ĩ+
.9 ä¸ĩ+
.3 ä¸ĩ+
å¾® ä¿¡
æĢİä¹Ī ä¸ĭè½½
Ġ Y
çĶ ±
.2 ä¸ĩ+
.1 ä¸ĩ+
åħ ´
.4 ä¸ĩ+
Ĩ |
u b
åıĳ å±ķ
åħ «
å¤ ª
2 1
æ± ł
Ġ1 9
å¤ ı
æľį åĬ¡
åį Ģ
Ġ2020-0 2-2
Ġåĩ¯åıĳ æĹĹèĪ°åİħ
éĢ ł
ç ħ
Ġç «
Ġå± ±
8 -0
è´ Ń
éĺ ²
åĲ ī
æ¼ ı
è¿ŀ éĶģ
åı į
Ġé© ¬
ä¾ ¿
ĠåĽ Ľ
Ġæ Ķ
çİ© æ³ķ
Ġåı Į
Ġåĩ¯åıĳ ç½ĳåĿĢ
ĠæĹ©é¤Ĳ åĬłçĽŁ
æĦ Ł
åħ Ī
ĺ |
ç»ı æµİ
å Ĥ
Ċ ä¸ŃåĽ½
èģ Į
éĹ¨ |
çĪ ±
Ġçī ¹
æİĴ åĪĹ
¿ |
ï¼ Ľ
Ġ '
æ² ģ
åĮº åı·
éĤ® ç¼ĸ
c e
Ġ ?
Ġ1 6
é¢Ħ æµĭ
Ġæ ¢
Ġbe at365
Ġäºļæ¸¸ ag
åį ³
ä¼ ł
æĶ ¹
Ġ9 18
Ġåľ ¨
æĢİä¹Ī æł·
åĪĨ pk10
Ġbet365 ä½ĵèĤ²
ä¼ ģ
èı ľ
Ġèµ Į
ç§ į
çķ Ļ
èĬ Ĥ
ç» Ń
æĹ¥ ï¼Į
å¤ ®
èģ ĺ
Ġåį İ
365bet å®ĺç½ĳ
ç½ĳé¡µ çīĪ
Ġæ ¶
Ġå İ
åĵģ çīĮ
Ġä¸Ĭ æµ·
u e
Ġè¶ ³
ä½ İ
èµ¢ éĴ±
å¤ į
æķ ´
å¾· |
Ġ/ /
çĥ Ń
æŀĹ |
:0 0
éľ Ģ
è´ ¢
ĠåĬł çĽŁ
çł´ è§£
å¸ ¦
i l
Ġ201 7
op y
ç± ³
v e
A N
çĶµ è§Ĩ
ote l
æĸ ½
Ġåĩ¯åıĳ åľ¨çº¿
æ³ ¢
Ġé Ĺ
Ġç ¾İ
Ġ ä¸ĭè½½
åŃĹ åı·
Ġæ Ĳ
éĥ½ |
Ġå¯ Į
Ġ1 7
æ¯ ı
è¿ İ
å·¥ ç¨ĭ
åª Ĵ
Ġ ãĢĳ
Ġ2020-0 4-0
å¤§ åİħ
ou nt
Ġå¼ ł
Ġé ļ
éĵ ¾
Ġåĩ¯åıĳå½©ç¥¨ app
åı° æ¹¾
Ġä¸ĩåįļ ä½ĵèĤ²app
ä¸į èĥ½
Ġé ¹
ä¹ ¡
ĠâĢ ĵ
æİĴ è¡Į
Ġè į
Ġi f
t p
æİ §
Ġ èĤ
ä¿¡ æģ¯
Ġæ ķ
opy right
æĺ¯ å¤ļå°ĳ
ç» Ħ
15 å¤©å¤©æ°Ķ
2 2
30 å¤©å¤©æ°Ķ
10 å¤©å¤©æ°Ķ
åħ ·
Ġä¸ĩåįļ app
Ċ C
åĵª éĩĮ
Ġå® ļ
Ġéķ ĩ
å½ĵåīį ä½įç½®ï¼ļ
åıĳ å¸ĥ
å± ĭ
1 6
æ³¨åĨĮ éĢģ
Ġ ä»
éĢī 5
æĹ ı
Ġ1 4
Ġçİ¯äºļ éĽĨåĽ¢
æŃ ¥
èĩª æ²»
Ġå ķ
åı Ĥ
è¨ Ģ
ä½ ¿
1 7
/ /
i ght
Ġæ ¬
åħ ´|
å® ¤
on e
é¡ į
çĶµ èĦĳ
ĠåĽ½ éĻħ
Ġæĸ ĩ
åĸ Ħ
-1 7
ĠæĹ ł
é¢ Ĩ
Ġè Ĳ
æ³ ī|
Ġå¤ ª
s p
ĠçĶµ åŃĲ
Ġd e
Ġå¨ ģ
å¤ļ ä¹ħ
åĦ ¿
é¦ Ĩ
ç Ĺ
o t
ç¦ »
Ċä¸Ĭ ä¸Ģç¯ĩï¼ļ
Ġ l
æľ Ĺ
Ġ Q
å¤ ±
é İ
åĨ ³
?? ??
ä¸į åİ»
æĿ ĳ
èį £
5 0
è§Ĥ çľĭ
äº «
è´ §
Ġæ¹ ĸ
( '
åĲİ ï¼Į
1 4
Ġåĩ¯åıĳ ç½ĳ
Ġ1 8
åį °
æīĢ æľī
å·ŀ å¸Ĥ|
Ġåķ Ĩ
c on
å¹ ²
ĠåĪ©æĿ¥ æľĢ
åŁ ¹
00 0
Ġåĩ¯åıĳä½ĵèĤ² app
ä¸į åĪ°
ħ è¯»
Ġå» º
æłĩ é¢ĺ
Ġçİ ĭ
åº ĵ
é² ģ
Ġ Z
æ¡ ¥
è® Ń
i os
ç ĳ
ï¼Į ä½Ĩ
Ġ0 8
å® Į
åĭ Ĵ
ĠåĲ Ī
éħĴ åºĹ
çº ¦
çº ³
Ġæ ĥ
Ġ ä¸į
Ġæ¾³éĹ¨ çĻ¾å®¶ä¹Ĳ
-2 1
Ġæ¾³éĹ¨ çĻ¾å®¶
¾ è®¯
æŀ Ĳ
åİĨ åı²
Ġæ ĭ
æīĭæľºçīĪ å®ĺç½ĳ
Ġåīįå¤© 0
Ġ @
Ġè ĩ
å¼ ł
o st
Ġåĩ¯åıĳ å®ĺæĸ¹
åĩ ¡
æ¨ ¡
å· ±
Ġ e
å¯ Ł
åĪ Ľ
åĬ Ł
é¢ Ŀ
ĳ åħĭ
å¸Ĥ éĤ®ç¼ĸ
ï¼Į è¿Ļ
å¸Ĥ åĮºåı·
ĠagåĽ½éĻħ äºļæ¸¸
Ġ app
åĶ ®
ä¹ ¡|
9 9
çł Ķ
åĥ ı
è¯Ħ è®º
p e
er v
Ġå ¦Ĥ
æ¦ ľ
åľ Ł
APP ï¼ļ
åĪĨéĴŁ å¿«ä¸ī
æĪ ĸ
æĸ Ĺ
Ġè¿ ŀ
ĠæĻ ®
æ ĵ
ç¹ Ŀ
æĸĩ ç«ł
è§ Ī
åº Ħ
ĠÂ »
Ġçļ ĩåĨł
¥ åº·
æĬ¥ éģĵ
å¹ ¸è¿Ĳ
ht tp
Ġ www.
k b88
æľī éĻĲ
at ion
Ċ201 7
± |
éĵ¾ æİ¥
ä½ľèĢħ ï¼ļ
æ¹ĸ |
ç¶ ²
ç ĵ
.c n
è Ľ
Ġag æĹĹèĪ°åİħ
Ġæľ ī
Ġçİ °
å¨±ä¹Ĳ å¹³åı°
å¤§åıĳ æĹ¶æĹ¶å½©
æĿ ¿
-2 2
é ¸
è³ ¼
Ĩ Ĵ
æ± ½
æł ¡
ä¸Ń çİĭ
è®° å½ķ
å®ĺç½ĳ ç½ĳåĿĢ
11 éĢī5
æĭĽ èģĺ
äºĮ æīĭ
è ¼
Ġè´ µ
æ° ¸
å¿ Ĺ
å° ģ
ĠæĹ ¶
éĤ ¦
an g
Ġåıĳ å¸ĥ
è° ·
çĽ ĳ
åľ ĭ
åį «
Ġå¤§åıĳ å¿«3
åį ĥ
½ Ĳ
ª |
ä½ ı
ä¸Ń |
èĳ ¡
at e
çŃ ¾
ĠçĶ ĺ
åİŁ |
èĩª å·±
Ġå¤© æ´¥
æ¸¸æĪı å®ĺç½ĳ
æłĩé¢ĺ ï¼ļ
ç Ĵ
Ġéĺ ľ
åĢ į
è§Ĩ è®¯
åľ° åĽ¾
ï¼Į åľ¨
èµĮ åįļ
k 8
è ĵ
Ġk8å¨±ä¹Ĳ æīĭæľºçīĪ
æī į
in d
ç ĩ
å¼ Ĭ
éªĹ å±Ģ
ä¾ Ŀ
" ).
éķĩ |
ĠèµĮ éĴ±
ĠçĭĹä¸ĩ æıĲæ¬¾
Ġè Į
Ġ ,
Ċ2019 -11
æĮ ī
å§ ĭ
Ġ> >
å¤ĩçĶ¨ ç½ĳç«Ļ
Ġå¥ ½
´ ĩ
å ĺ
Ġç§ Ĵ
Ġæĺ Į
Ġ0 7
åĲĪ ä½ľ
å¯ Ĩ
Ġæ¾³éĹ¨ çľŁéĴ±
å®ļ |
æĻ ¯
or t
§ |
at a
Ġåħ ¬
éŁ ©
ç µ
ç§ Ł
ĠéĦ Ĥ
è¡¨ç¤º ï¼Į
o k
åħ ¸
Ġæı Ĳ
2020 å¹´
æŁ Ĳ
Ġåĩ¯åıĳ agæĹĹèĪ°åİħ
Ġåĩ ¤
å°¼ æĸ¯
-- --
ä½ Ļ
AG æĹĹèĪ°åİħ
å½© éĩĳ
ĠäºĮ æīĭ
åĬłçĽŁ åºĹ
åĪ° è´¦
åĪĨ æŀĲ
-2 3
Ġt h
Ġæ ¼
å¸ Ń
åįİ ç½ĳ
æĢ ģ
æ¥ ¼
åħ °|
æľ Ľ
Ġåĩ¯æĹ¶ kb88
it or
Ġçİ ī
æŃ »
æ¬¢ ä¹Ĳ
é¾Ļ |
éĵ ģ
è¿ ľ
Ġ se
ç®¡ çĲĨ
ĠçĻ ¾
å© Ĩ
Ġ ç½ĳä¸Ĭ
åĳ ½
åŃĹåı· ï¼ļ
éĺ³ å¸Ĥ|
æĿ İ
æĽ ²
Ġå® Ŀ
è§ ģ
æ ¿
-1 6
ä¼ĺ æĥł
i f
è¯ Ń
Ġag äºļæ¸¸
ä¿¡ è²¸
è¶³ å½©
ï¼Į ãĢĳãĢĲ
Ġä¹ Ŀ
Ġçº ¢
2 5
çĶ °
èĴ Ļ
æ£ Ģ
æıĲ ä¾Ľ
çķ ¥
é Ł³
å°ı é¡į
æī ¾
ç¡ ®
æĻļ æĬ¥
Ġæ³ °
Ġ lo
Ġå ģ
ag e
ãĢĳãĢĲ ï¼ĮãĢĳãĢĲ
:0 ,
Ġç ®
çĽĺ åı£
å² ģ
ĠãĢĲ åŃĹåı·ï¼ļ
è® ¸
ä¸ĭè½½ ç½ĳåĿĢ
çĶ ²
çĶ ³
è ŀį
en d
è «
éĶ Ģ
u m
Ġç§ ĳ
Ċ2019 -12
æĲ ľ
çİ Ľ
åĨ ľ
( )
Ġè Ī
å® ¡
å¤ «
åĽ½éĻħ åİħ
åı ĺ
Ġçº¿ä¸Ĭ çľŁéĴ±
ĊC opyright
å¼ ¹
Ġagçİ¯äºļ éĽĨåĽ¢
çī¹ èī²
åį ı
ĠæĲ ı
ĠæĽ ²
è¿ ľ|
ä½ľ å¼Ĭ
ç½Ĺ æĸ¯
Ġç» ¥
is itor
å¤© å¤©
åŁ¹ è®Ń
C ount
Ġ .
İ |
åĨ į
åį ĩ
æĹł æ³ķ
äº ¿
Ġ2 2
å®ĺç½ĳ app
ç¬¬ ä¸Ģ
Ġ0 5
æĹ©é¤Ĳ åºĹåĬłçĽŁ
å¯¼ èĪª
Ġè ı
¯ |
i a
Ġ0 6
å¡ Ķ
Ġæĥ ł
Ġæ± ī
ç´ ¢
éĻ ¤
å®ĺæĸ¹ å®¢æĪ·ç«¯ä¸ĭè½½
Ġ2 3
èµĦæĸĻ å¤§åħ¨
è¡ Ģ
Ġ2 1
-1 5
æ´ ŀ
Ġé¦ ĸ
Ġf unction
æīĭæľºçīĪ appä¸ĭè½½
èĽ ĭ
é£ Ł
æ´ Ľ
å¤§ åŃ¦
= "
Ġè ĵ
æľīéĻĲ åħ¬åı¸
è¶ Ĭ
è¯ ¢
çĶ °|
Ġé ¡
å²Ľ |
ç Ĩ
ĠçĭĹä¸ĩ æıĲçİ°
å®ĺæĸ¹ ç½ĳ
: //
Ġ ä¿Ŀ
Ġä¸ °
éĽ »
Ġä¼ Ĭ
A d
Ġç ı
Ġæľ ¬
çĶ »
æİĴè¡Į æ¦ľ
Ċ å¤§
è´ ¨
Ġçģ µ
Ġé» ĳ
am e
å¢ ŀ
Ġ st
ĠæĪ ĳ
çĶµè§Ĩ åı°
" ,
æ± ī
åĴĮ |
¨ |
èĸ ¦
æķ Ī
æµģ æ°´
å·¦ æĹĹ|
åľ¨çº¿ è§Ĥçľĭ
ä½ ³
Ġ0 1
Ġ365ä½ĵèĤ² åľ¨çº¿
èį Ĳ
èĥ ľ
Ġæ İ
æ¸¯ |
ĠH otel
Ġç Ĥ
å±± åİ¿|
åİŁ æłĩé¢ĺï¼ļ
è¯ Ģ
Ċ é¦ĸé¡µ
âĢĿ ãĢĤ
ı çĦ
éħį èµĦ
éİ ıçĦ
éİıçĦ ¯
ç§° ï¼Į
åŁ Ł
Ġé ¢
ï¼Į å¹¶
ĠçĽ Ĳ
o c
ĠåĪ©æĿ¥ ag
Ġåĩ¯åıĳ æ³¨åĨĮ
Ġé º
å¼ ķ
Ġä¸ ¹
Ĺ |
æ© Ļ
éĻ ©
Ġè ħ
Ġ0 4
å± ŀ
ç® Ģ
ĠåĮĹäº¬ pk10
I n
Ġf or
ä»ĸ ä»¬
Ġåĩ¯åıĳå®ĺç½ĳ å¹³åı°
88 8
I j
çİ° åľ¨
Ġ0 0
Ġçº¿ä¸Ĭ çľŁäºº
Ġ ...
ä¸Ģ çĤ¹
i r
æ¬¢ è¿İ
éĥ¨ èĲ½
éĿĴ å¹´
ĠT I
Ġè Ģ
Ġ ì
å®ĺç½ĳ å¹³åı°
æĤ¨ çļĦ
ı è§Ī
Ġ ç½Ĺ
ä¿¡ çĶ¨
2 4
å¯ Į
å®¶ å©Ĩ
m an
Ġå Ł
Ċ æĹ©é¤Ĳ
çĶ ¸
Ċ äººæ°ĳ
Ġçļ Ħ
Ġè¶³ çĲĥ
æĺ ¾
è´ µ
æī ĳåħĭ
¾ |
I d
W R
Ġ0 3
7 7
éĢ Ģ
æ±ł |
Ġag å¹³åı°
/ å½©ç¥ŀäºīéľ¸
æ¥ Ń
à ¹
æ² ¹
Ġ0 2
ĠåĲ ´
Ġé ľ
çĽ¸ åħ³
:3 0
Ġå» ¶
3 1
è¾ ħ
Ġ201 6
Ġç¥ ŀ
ı |
y pe
Ġæ² Ļ
æł ¸
u l
20 0
çĻ ¼
Ġæŀ Ĺ
Ġè¯ Ħ
éº »
å½©ç¥¨ 365
çĸ Ĩ
èĭ¹æŀľ çīĪ
çļ ĩåĨł
ĠæĢ Ģ
Ġäºļæ¸¸ app
" :
-1 4
ä¸Ģ èĤĸ
åĴĮ åĢ¼
Ġå ´ĩ
è´ £
æĹ©çĤ¹ å°ıåĲĥ
ä» ĺ
ä¿Ħ ç½Ĺæĸ¯
èī º
Ġå¨ ±ä¹Ĳ
å¾ ½
èŃ ī
Ġç ±
ä¸į å¼Ģ
Ġåĩ¯åıĳ æľĢæĸ°çĻ»å½ķ
Ġä¸ ĸ
Ġè °
Ġéĩ į
u t
æ ¤
å¨ ±
ä¼ģ ä¸ļ
è¯´ ï¼Į
å¥½ çļĦ
èĩ ´
æīĭæľº çĻ»éĻĨ
éļ ¾
e m
åĨ µ
Ġå¯ Ł
ĠæĻ ¯
Ġåĩ¯åıĳ æľĢæĸ°
Ġå¤© ç©º
Ġæ ¯
åı³ ç¿¼
å°Ķ |
å°Ķ æ²ģ
æŃ£ ç½ĳ
åİ Ĥ
âĢ ¦
æ ¾³
ĠæĪ ¿
æĺ¯çľŁ çļĦåĲĹ
éĤ® ç®±
åĩ ¤
o re
} ,
æ¸ħ |
Ċ åįĹ
åľ° åĮº
æīĭæľº æĬķæ³¨
å¥ Ĺ
ĠåĨ ħ
Ġé ħ
æīĵ ä¸įå¼Ģ
æĿ Ł
åĥ ¹
åĲĪ æ³ķ
åħ¨ éĥ¨
åı¯ éĿł
Ġ20 0
Ġ$ ("
Ġåĩ¯åıĳ k
ä¼ ¦
ĠæĿ ¾
è® ¿
è¿ĳ å¹³
Ġag ä½ĵèĤ²
æ³ ī
æµ ª
Ġè¯Ħ è®º
æĿ ±
ĠæĪ Ĳ
Ī æĿĥ
æ¸ ©
ĠæĲı å¤©åłĤ
Ġ2019 -11
éģ Ĺ
éĸ ĵ
æł ¹
æĬ Ĭ
çĮ ľ
Ġ *
åĳ ³
è¯ į
æĢİä¹Ī ä¹°
Ġ ä»Ĭ
Ċ ä¸ĭä¸Ģç¯ĩï¼ļ
æ¯Ķ èµĽ
è¡ Ĺ
å®ĺç½ĳ åľ°åĿĢ
. p
Ġçī¹ èī²
èİ ·
éĢļ è¿ĩ
ä¹ Į
E T
åľ ³
æµ ©
ĠçľŁéĴ± æ£ĭçīĮ
èµĦ æºĲ
æģ ©
Ċ ãĢĲ
ä¸Ń æĹĹ|
Ġæ±Ł èĭı
Ġå ĸ
æ¶ ĵ
å¥ ĩ
Ġæ¾³éĹ¨ ç½ĳæĬķ
æķ ĳ
Ġæ į
ĠÂ ©
åºĨ |
äº¤ æµģ
ç¹Ŀ ï½
æĢİ æł·
åŃ ¸
-0 9
è¾ħ åĬ©
: 10
g et
åį Ī
Ī |
Ĭ |
æį ¢
Ġåĩ¯åıĳk å¨±ä¹Ĳ
Ġéĵ ľ
æ± ĩ
è¦ģ æ±Ĥ
çħ §
çĶµ ç«ŀ
ä¸Ń ï¼Į
æĢ» ç»Ł
çļ ĩ
éĿŀ åĩ¡
Ġåħ ĥ
Ġèµ Ħ
ä¾ ĭ
ä¹ł è¿ĳå¹³
å³ °
åĪ ·
é ¹
Ġäºļæ´² æ¸¸æĪı
é ¬
æĻ º
ĠagåĽ½éĻħ åİħ
éĩ ĩ
Ġåĩ¯åıĳä½ĵèĤ² ç½ĳåĿĢ
t r
Ġ ç½ĳç«Ļ
erv ed
ä½ĵèĤ²åľ¨çº¿ æĬķæ³¨
çĻ» åħ¥
ĠçĭĹä¸ĩåıĸ æ¬¾
è§Ħ åĪĻ
j s
ä¹Ĳ |
it y
ä¸ĸçķĮ æĿ¯
å®īåįĵ çīĪ
Ġä¹Ĳ æ©Ļ
ä¸ °
åĪ© çİĩ
çĶµ çİ©
æ´¥ |
" );
Ġä½ĵèĤ² å½©ç¥¨365
å² Ń|
æī ¹
:1 4
è´ ´
æ¸¸æĪı ä¸ĭè½½
åıĳ çĶŁ
Ġæĺ¨å¤© 20
Ġéļ Ĩ
: 35
Ġåı ¤
:4 5
: 20
:1 8
Ġå¤©ç©º éĥ¨èĲ½
æĸ¹ æ³ķ
ĠTI AN
Ġåĩ¯åıĳæĹĹèĪ°åİħ æ³¨åĨĮ
:1 2
:1 5
æ¯ į
ĠçĭĹä¸ĩ ä»£çĲĨ
Ġç Ĳ
:2 8
æķ° æį®
:0 1
ç« ¹
ç»Ļ åĬĽ
Ŀ |
Ġæ´ Ľ
Ġ ä¸ŃåĽ½
( );
:2 6
Ġæ ģ
æĢİä¹Ī çİ©
ç² ¥
:0 5
âĢĿ ï¼Į
:5 0
é ½Ĳ
:2 5
a in
åº ķ
:1 6
Ġé ¸
Ġ ä¸ĭ
:3 8
åĽ¾ çīĩ
:5 9
:5 5
:1 1
æŃ ¦
:4 6
:4 0
äºº åĳĺ
:3 1
:0 4
:2 4
:0 6
:1 9
æİ¨ èįĲ
¯ åºĹ
:3 2
å Ĵ
è® ¢
åħ »
èģĶ èµĽ
:1 7
:3 4
èĤ¡ç¥¨ |
:5 8
å¾ Ģ
å»º è®¾
Ġk8 å½©ç¥¨
å¤§åıĳ å½©ç¥ŀ
Ġæĺ¨å¤©1 9
:5 2
Ġbet365 å®ĺç½ĳ
:4 7
ĠA ll
:0 3
ä¸ ²
:2 3
å Ĺ
:3 9
:0 2
: 36
:4 4
å®ī åİ¿|
:4 1
Ġæ £
Ġæĺ¨å¤©0 4
:2 7
æĶ »
:5 3
:5 1
:4 2
:2 2
:2 1
:2 9
:3 3
:5 7
:4 9
:0 9
Ċ æ¾³éĹ¨
Ġk8å¨±ä¹ĲæīĭæľºçīĪ å®¢æĪ·ç«¯
:4 8
:0 8
æ® µ
çļĦ èĢģçīĮ
:3 7
ĠæĢ İ
:4 3
:0 7
t er
Ġ äºº
åĦ ª
:5 6
Ġb y
ä¼ļ åĳĺ
:5 4
åĪĨ å¿«ä¸ī
å°¼æĸ¯ äºº
Ġçİ° éĩĳ
è½¦ åĬłçĽŁ
ç»ĵ æĿŁ
å¥ ¥
2 3
å®¶ ä¹Ĳ
ä¹ Ŀ
å¼ĢæĪ· ç½ĳåĿĢ
Ġ ç½ĳ
p l
Ġç Ī
æĹ¥ æľ¬
i te
Ġæĺ¨å¤©1 7
Ċ æĿ¥æºĲï¼ļ
å¸Ĥ åľº
é¾Ļ èĻİ
Ġè¾ ½
åħįè´¹ è§Ĩé¢ĳ
ä» ģ|
Ġç Ĺ
Ġåĩ¯åıĳ ä¸ĭè½½
Ġè Ĵ
Ġå¸ ¸
http ://
åĨ ²
ĠåĮĹäº¬ èµĽè½¦
p ãĢĳãĢĲ
çĽ® åīį
æĹ §
Ġæĺ¨å¤©0 2
-2 4
éĺ ¿
Ġæĺ¨å¤©0 5
201 8
äºĮæīĭ è½¦
æ´» åĬ¨
åĵĪ å°Ķ
Ġæĺ¨å¤©1 4
åŃ ©
Ġçİ¯äºļ æ¸¸æĪı
éĽ ħ
åĪĨ æİĴåĪĹ
Ġè¾ ¾
éĿłè°± åĲĹ
å® £
Ġç ķ
çİ°éĩĳ ç½ĳ
èĴĻ åı¤
Ġæĺ¨å¤©2 3
å° ļ
æİ¨ èĸ¦
Ġ al
æŀ Ħ
Ġæĺ¨å¤©1 1
åŁİ åİ¿|
æ¼ı æ´ŀ
æī ĺ
å®ĺç½ĳ appä¸ĭè½½
éĤĢè¯·çłģ _
Ġæĺ¨å¤© 10
æķ ħ
Ġæµ İ
t ãĢĳãĢĲ
-0 7
Ġæĺ¨å¤©0 1
æŃ ¦|
çĥ Ī
åįļ å½©
è¿ Ŀ
å®īåįĵ çīĪä¸ĭè½½
çĲĥ ç½ĳ
åĮĹ |
Ķ |
Ġæĺ¨å¤©0 7
v ip
2019 å¹´
æīĭæľºçĻ»å½ķ ä¸ĭè½½
æĹ¶ ï¼Į
åĿ ĩ
æ´ ĭ
è¿Ľ ä¸įåİ»
ht ml
Ġæĺ¨å¤©0 9
ŀ å®¢
Ġæĺ¨å¤©1 6
Ġæĺ¨å¤©1 2
Ġå¤§åıĳ å½©ç¥ŀ
ŀå®¢ éĤ¦
å¸ Į
Ġæĺ¨å¤©0 8
ĠåĪ ©
ĠçĹ ŀå®¢éĤ¦
è§Ĩé¢ĳ åľ¨çº¿è§Ĥçľĭ
ç ¸
v er
: {
å¹³åı° æ³¨åĨĮ
çĶŁ æ´»
æľĹ æĻ®
ä¸į æĺ¯
Ġæ° ĳ
ä¸ ¥
ç¯ ®
äºĳ |
çľŁäºº æ¸¸æĪı
è² ·
æľĢæĸ° ç½ĳåĿĢ
p t
ou r
Ġæĺ¨å¤©1 8
b a
Ġ365betå®ĺç½ĳ å®ĺç½ĳ
ĠèĬ ±
è¯ ī
çĪ °
çĶ ·
Ġå® £
Ġæĺ¨å¤©0 6
el se
Ġä¸ĩåįļ ä½ĵèĤ²
éļ ı
Ġagçİ¯äºļ çĶµæ¸¸
ĠåĲ Į
Ġæ· ®
Ġèĩ ª
ä¸ ¹
e x
åİ ĭ
ç© ¶
ä¸ĭè½½ app
è¾ Ĩ
i g
ĠæĬ ļ
åħįè´¹è§Ĩé¢ĳ _
å¢ ĥ
åģļ çĪ°
æ³ ½|
ĠçĭĹä¸ĩ èµ¢éĴ±
Ġå¤§åıĳ æŀģéĢŁ
Ġä¸Ģ çº§
ç³» ç»Ł
å·² ç»ı
i le
4 0
ac k
Ġ u
æ£ ®
Ġè¡ ¡
Ġèĭ ı
éĤ ĳ|
åŁİ å¸Ĥ
Ġåĩ¯åıĳæīĭæľº å¨±ä¹Ĳå®ĺç½ĳ
åģļçĪ° çīĩ
é»Ħ çīĩ
Ġæĺ¨å¤©2 2
éĺ ´|
Ġåĩ¯åıĳæ¸¸æĪı æīĭæľºçĻ»å½ķ
Ġæ» ļçĲĥ
æīĭæľº ä¸ĭè½½
A åģļçĪ°çīĩ
åħįè´¹ é»Ħçīĩ
Ġåĳ ¼
Ġæĺ¨å¤©2 1
åħįè´¹è§Ĩé¢ĳ_ åħįè´¹é»Ħçīĩ
åħįè´¹è§Ĩé¢ĳ_åħįè´¹é»Ħçīĩ è§Ĩé¢ĳåľ¨çº¿è§Ĥçľĭ
AåģļçĪ°çīĩ åħįè´¹è§Ĩé¢ĳ_åħįè´¹é»Ħçīĩè§Ĩé¢ĳåľ¨çº¿è§Ĥçľĭ
AåģļçĪ°çīĩåħįè´¹è§Ĩé¢ĳ_åħįè´¹é»Ħçīĩè§Ĩé¢ĳåľ¨çº¿è§Ĥçľĭ 2019
çī¹ æľĹæĻ®
Ċäººæ°ĳ ç½ĳ
Ġv isitor
Ċ [
åĵª äºĽ
äº ®
èĤ ĥ
è¨ Ĥ
Ġåĩ¯åıĳå½©ç¥¨app æīĭæľºçīĪä¸ĭè½½
äºļ ç¾İ
Ġç§ĳ å°Ķæ²ģ
ç¤¾ ä¼ļ
Ġä¸Ģçº§ AåģļçĪ°çīĩåħįè´¹è§Ĩé¢ĳ_åħįè´¹é»Ħçīĩè§Ĩé¢ĳåľ¨çº¿è§Ĥçľĭ2019
n d
:{ },
3 d
Ġåĩ¯åıĳçº¿ä¸Ĭ æīĭæľºå®¢æĪ·ç«¯ä¸ĭè½½
Ġå¨±ä¹Ĳ åĩ¯åıĳ
æľ ĥ
ĠçĶµçİ© åŁİ
ĠéĿ ĸ
Ġä¸ º
æĻ Ĥ
Ġç ²
çŃ ĸ
æµ© çī¹
X C
æĸĩ åĮĸ
Ġ2019 -10
Ġåĩ¯åıĳçº¿ä¸Ĭ æīĭæľºçĻ»å½ķä¸ĭè½½
â ĸ
æĦı æĢĿ
éĩį åºĨ
Ġæĺ¨å¤©0 3
Ġç ´
å§ Ĳ
Ġå ¢
ĠæľĢ æĸ°
Ġåľ¨ çº¿
ä¸» é¡µ
å® ľ
åį Ĭ
å± Ĥ
-0 6
æīĭæľº appä¸ĭè½½
æĿ Ģ
Ġç ¬
Ġ ä¼ļ
ãĢĳãĢĲ pãĢĳãĢĲ
B log
Ġç§Ĵ éĢŁ
èĥ İ
Ġ2020-0 1
bet x
L C
Ġèģ Ķ
Ġéĥ ½
Ġå¤§åıĳ å½©ç¥¨
è´ Ł
é¥ ®
Ġéĵ ¶
Ċ 1
æľĢæĸ°çĻ»å½ķ åľ°åĿĢ
å¸ ģ
Ġ365ä½ĵèĤ²æĬķæ³¨ å®ĺç½ĳ
éķ¿ é¾Ļ
Ġé Ł
å± ħ
Ġç® ¡
s c
com Blog
å¤§ å¸Ī
å¨±ä¹Ĳ åŁİ
Ġå¤§åıĳ ä¸Ģ
å¹³åı° å®ĺç½ĳ
çĹ ħ
åħ³ ç³»
æĭ ħ
æŃ£ çīĪ
åĵ į
Ġèħ ¾è®¯
t t
Ġ ï¿½ï¿½
åħįè´¹ ä¸ĭè½½
çº ª
åĭ Ļ
Ġåĩ¯åıĳ ag
æĽ ¾
æļ ´
å¥ ¹
å¤§åıĳ å¿«3
Ċ ä¸Ń
å¤ļ ä¸ĢçĤ¹
å¨±ä¹Ĳ å®ĺæĸ¹ç½ĳç«Ļ
äº Ĵ
Ġagäºļæ´² æ¸¸æĪı
çı Ń
Ġåĩ¯åıĳapp å®ĺæĸ¹ä¸ĭè½½
åŃĺ æ¬¾
Ġåĩ¯åıĳapp æĢİä¹Īä¸ĭè½½
f o
éľĢ è¦ģ
å½ ¢
æ¼ Ķ
çĭ Ĥ
3 8
Ġæĺ¨å¤©0 0
Ġ on
Ġéĵ ģ
åı Ī
Ġæĺ¨å¤©1 5
ĸ |
Ġé Ķ
in e
Ġåħ ĭ
å½ĵ åľ°
Ġåĩ¯åıĳæīĭæľº å®ĺæĸ¹å®¢æĪ·ç«¯ä¸ĭè½½
æ¢ Ŀ
æĿ Ĳ
æĺ¥ |
é¬ ¼
æ¬§ æ´²
çı ł
è± Ĩ
ĠæĢİ ä¹Ī
Ġåĩ¯åıĳå®ĺç½ĳ æīĭæľºçīĪappä¸ĭè½½
çīĽ çīĽ
èĭ¹æŀľ çīĪä¸ĭè½½
Ġå® ĺ
è¾ ĳ
å¥½ å½©
ä¸ ĺ|
å «
2 9
a b
Ġåĩ¯åıĳ æīĭæľºçīĪå®ĺç½ĳ
åº· |
å®¢æľį çĶµè¯Ŀ
" )
æŀ ģ
Ġæ· ±
å¤ ľ
éĶ Ļ
ï¼Į ä¸Ģ
åħ ³|
ç» į
365 ä½ĵèĤ²
èµ Ķ
æķĻ èĤ²
on g
æĸ ¼
é£ ¯åºĹ
æľĢ ä½³
201 7
ĠÂ ·
Ġç ĥ
æŀ ¶
ç½ĳæĬķ å¹³åı°
ç§ »
Ġ} );
Ġè §
çĶ¸ |
Ġé Ĵ
ar t
åĦª æĥł
éĵ¶ è¡Į
Ċ201 6
è° Ī
åĢ Ļ
åĲ ¦
çĶµåŃĲ æ¸¸æĪı
èĮ ĥ
å¾ ħ
Ġéĩį åºĨ
è¿ Ķ
Ġ ]
é¾Ļ æ±Ł
Ċæĸ° åįİç½ĳ
æ¸¸æĪı ç½ĳåĿĢ
å© ļ
Ġçī ĪæĿĥ
ĠåĽ ¾
ãĢĤ âĢľ
äº ²
Ġæ¾³éĹ¨ å¹³åı°
Ċ201 8-0
åĽĽ åħŃ
çĶ ĺ
é¡º |
8 0
Ł |
åŃĲ |
åĮħ åŃĲ
æľī åĵªäºĽ
lo w
Ġæ¹ ĺ
éĺ ħè¯»
Ġäºļæ¸¸éĽĨåĽ¢ å®ĺç½ĳ
Ġç¬ ¬
çĽ Ĭ
¥ Ħ
ï¼Į ä¸į
ãĢĳãĢĲ tãĢĳãĢĲ
æĭĽ åķĨ
r a
Ċ æĹ¶éĹ´ï¼ļ
ĠæŃ£ è§Ħ
om ment
åħ¨ åĽ½
R e
èµļ éĴ±
ç £
åģ ľ
å®ĺæĸ¹ ç½ĳåĿĢ
èŃ¦ æĸ¹
ä¸» å¸Ń
éĽĨåĽ¢ å®ĺç½ĳ
Ġåĳ ¨
éĵ¶ æ²³
æĸ¹ å¼ı
åıª ä¸º
a bo
æ©Ł è»Ĭ
åĬ ¾
Ċ å¤©
Ġ356bet å®ĺç½ĳ
ç§ ¯
ç ·
Ġå¤ĸåĽ´ 365
ä½¿ çĶ¨
è¿Ľ åħ¥
ä»ĭ ç»į
Ġ ï¼Į
æŃ Į
æĬĢ æľ¯
l is
bet 356
åīį æĹĹ|
æĬķ èµĦ
çĸ ĳ
è´ «
w i
ĠéĹ ¨
é¦ Ļ
åħ ¨å¤©
åħ µ
¾ Ħ
æ½ Ń
è Ķ
¹ åŃĲ
ĠC h
Ġåĩ¯åıĳapp å®ĺæĸ¹ç½ĳç«Ļ
Ġæ Ł
æĽ´ æĸ°
i st
æĿ¥ ï¼Į
o g
èİ ±
ä¸ ½
Ġåº ·
å³ °|
ãĥ »
ĠåĪ©æĿ¥ åĽ½éĻħ
Ċ 2
åľ¨ åĵª
Ġå ³
66 6
å® ¿
å® «
Ċ2020-0 2-2
Y X
Ġåĩ¯åıĳä½ĵèĤ² å®ĺç½ĳä¸ĭè½½
Ġåį ģ
å¼¹ åĬ¾
æĹı èĩªæ²»
-2 9
ç¯® çĲĥ
åĪĨ å¿«ä¹Ĳ
Ġå¿ ħ
æ» ¡
ç»ĵ ç®Ĺ
Ġå Ķ
çľŁ åģĩ
0 4
èĢģ èĻİ
æ±Ł åİ¿|
çĻ¾å®¶ å®¶ä¹Ĳ
è®¡åĪĴ _
on t
ĠçĭĹä¸ĩåıĸ çİ°
éĴ ¢
Ġ365 è¶³çĲĥ
ï¼Į æĪĳ
åĵ ¥
Ġï¿½ éİıçĦ¯
Ġbet365 ä½ĵèĤ²æĬķæ³¨
è¥¿ èĹı
æĢ ¥
Ċ æµ·
èµĦ è®¯
Z S
é ¼
ç´ ł
è°ĥ æŁ¥
Ċ æ±Ł
äº§ åĵģ
äºĳ åįĹ
10 0
Ġæ³ ¸
Ġ2020-0 2
ĠçĶµåŃĲ æ¸¸æĪı
çĽ Ľ
éĢģ å½©éĩĳ
è° ģ
-2 5
ç½ ª
om e
æĭī çī¹
æĽ ¸
çª ģ
åªĴ ä½ĵ
Ġ365ä½ĵèĤ² å½©ç¥¨
at us
Ġ Ð
ĠçľŁäºº èµĮéĴ±
-0 8
Ġè ĳ
ç½ĳ _
ã Ĥ
ĠåĪ©æĿ¥ åĽ½
åĩ °
å¼Ģå¥ĸ è®°å½ķ
åŃ¦ éĻ¢
P K
åĪ ĺ
Ġæ ¨
Ģ |
Ġç ¹
ĠR es
ĠæĻ ĭ
è´´ åĲ§
ç«ŀ çĮľ
Ċ Â·
èĳ¡ äº¬
o b
Ġå¦Ĥ ä½ķ
e ãĢĳãĢĲ
æĥħ åĨµ
èģĶ ç³»
çī¹ é©¬
Ġ am8
Ġåĩ¯åıĳæľĢæĸ° æīĭæľºçĻ»éĻĨ
ur n
åħ¬ å¼Ģ
åħ¶ ä»ĸ
å¿« éĢŁ
Ġæ¬ ¡
Ġ$(" #
.com /
æľŁ æľŁ
Ċ æĹ©çĤ¹
çļĦ ä¸Ģ
å®ģ åİ¿|
Ġ at
ï¼ļ âĢľ
20 æĹ¥
ĠçīĪæĿĥ æīĢæľī
æ´ ¾
Ġ2 4
as s
å¿« é¤Ĳ
èº« ä»½
èĲ ¨
ä¸ĭ æ³¨
Ġæ£ ĭçīĮ
éļ Ĩ|
Ġåĩ¯åıĳå®ĺæĸ¹ æīĭæľºçīĪ
Ġag è§Ĩè®¯
éĤ® ä»¶
Ġ Ġ
åħŃ åĲĪ
ä¸¾ æĬ¥
ç§ĳ æĬĢ
Ġå½©ç¥ŀäºīéľ¸ 8
Ġ ï¿½ï¿½ï¿½ï¿½
çĻ¾ åº¦
ä¸ĩåįļ app
æĶ¯ æĮģ
Ġå¨±ä¹Ĳåĩ¯åıĳ appä¸ĭè½½
¶ |
åĪĨéĴŁ pk10
åĿ ĳ
Ġå¹ ´
-2 6
æĺİ |
Ċ åĮĹäº¬
ç»´ æĬ¤
å±± å¸Ĥ|
Ġè ·
ĠS t
ĠäºļæĲı å¨±ä¹Ĳ
åįķåıĮï¼ļ å½©ç¥ŀ
åĹ İ
çĶŁ èĤĸ
man betx
Ċ åıĳå¸ĥ
6 0
ã Ħ
Ġç®¡ å®¶å©Ĩ
Ġå¤§åıĳ äºĶ
éĢ ı
ç» Ī
Ġåĩ¯åıĳæīĭæľº å®¢æĪ·ç«¯ä¸ĭè½½
æĹ©çĤ¹åĬłçĽŁ åºĹ
Ġ ä½ľèĢħï¼ļ
éĻ Ħ
Ġå² ³
Ġå¥½ è¿Ĳ
Ġå¼ł å®¶
çĻ»å½ķ ä¸ĭè½½
p p
åī ¯
å® ³
Ġag æīĭæľº
Ġæ ¾³
ç» Ŀ
ĠæĹ©çĤ¹ å°ıåĲĥ
åįģ åĪĨ
å®īåħ¨ åĲĹ
q u
ä¼ ¤
æĢİä¹Ī çľĭ
ĠçĪ ±
ĠåĽ º
Ċ ç¬¬
è³ ĩ
7 0
è¾ĵ éĴ±
å¡ ŀ
Ġâ ĨĴ
åĽ½éĻħ å¹³åı°
Ļ æ±Ł
Ġif (
ä¸Ń å¤®
éģ Ĭ
çŃ Ķ
Ġåĩ¯åıĳ çĽ´æĴŃ
æī §
åĶ ¯
ä¸º ä»Ģä¹Ī
Ġéħ Ĵ
ĠçĭĹä¸ĩ app
æ±½ è½¦
éĿ ©
:2 ,
. t
åĵª å®¶
ãĢĤ åľ¨
ç³» åĪĹ
Ġæĸ° éĹ»
Ċ âĢ
Ġ <
ĠèģĶ ç³»
ãĢĤ æį®
æ¶Ī æģ¯
Ġéľ į
å¾ ģ
a x
æŃ ¢
ç²¾ åĩĨ
èģĶ åĲĪ
å·¥ç¨ĭ åĬłçĽŁ
Ġé¹ ¤
æĹ¶éĹ´ :
201 6
åı³ æĹĹ|
ĠçĤ ¹
Ċ Â
è¯ķ çİ©
èµ ŀ
re s
æĤ¨çļĦ å½ĵåīįä½įç½®ï¼ļ
es s
Ġåĩ¯åıĳæľĢæĸ°çĻ»å½ķ ç½ĳç«Ļ
Ġåħ °
-0 1
åģ ¥åº·
Ġäºļç¾İ ag
æĬķæ³¨ å¹³åı°
åĸ ľ
éĵ º
ä»· æł¼
I N
im e
ĠäºļæĲı ä½ĵèĤ²
Ġ ï¼Ī
çļĦ âĢľ
äº Ń|
6 åĲĪ
Ċ 3
æŁ¥ è¯¢
Ġ1 åĪĨå¿«3
Ġ ë
çļ ®
ĠI n
Ġæį ķé±¼
èĪ ¹
ä¹ ī|
Ċ2020-0 4-0
ä¸ ĥ
ï¼Į âĢľ
éĻ į
ç§ ĺ
æĢ» ä»£
§ ï½
Ġam8 äºļç¾İ
è· Ł
éĩį è¦ģ
åĪ© |
å¹¿ æĴŃ
æĽ² |
æ¢Ŀ ä»¶
Ġbet365 ä½ĵèĤ²åľ¨çº¿
åĲ ¬
Ġåĩ¯åıĳå®ĺç½ĳ ä¸ĭè½½
Ġå ĭ
Ġèİ ±
¥ |
0 5
H N
çĤ ¸
Ġå ¡
åĭ ķ
Ġæ ¦
Ġç ĳ
Ġåİ Ł
Ġde t365
0 ,
éģĹ æ¼ı
æ³ °
è ľ
ä¸ĵ ä¸ļ
æµ ¦|
st atus
th is
ac h
Ġæµ ¦
çĪ Ĩ
è® ²
è¾¹ |
æľĢ å¿«
éĶ ®
Ċ å½ĵåīįä½įç½®ï¼ļ
åĵĪå°Ķ åı³ç¿¼
è© ķ
åĢ ĭ
çĽ´ èĲ¥
æĭ ¿
ç¦ ģ
Ġå¯Ł åĵĪå°Ķåı³ç¿¼
çłĶ ç©¶
Ġæĺ ¥
- 30
è¾¾ |
d ata
k8 å®¢æĪ·ç«¯ä¸ĭè½½
ä¼ ¼
å·¦ ç¿¼
Ġ2020-0 3
Ċ201 8
å¼ı æĹ©é¤ĲåĬłçĽŁ
æĺ¾ ç¤º
ĠåĽ½éĻħ åĪ©æĿ¥
p c
è´ ¥
ĠæıĲ çİ°
å¿ µ
Ġbet365 è¶³çĲĥ
4 8
Ġæī İ
ay ou
Ġåĵ ģ
çļĦ ç½ĳåĿĢ
çļĦ äºº
Ġè ĥ
E R
éĶ Ľ
åĪ ¤
i O
èĦ ±
Ġåĩ¯åıĳçº¿ä¸Ĭ å¼ĢæĪ·
æĺ¯ åĵªä¸ª
é į
éĢī äºĶ
åĪĨ é£ŀèīĩ
m in
a k
h ow
æĻ® äº¬
Ċ2016 :
Ġ x
åĲİ æĹĹ|
ç²¾ éĢī
å¤© åīį
ī åİ¿|
Ġè ±
Ġ2019 å¹´
4 5
åį ĸ
Ġæ Ł³
Ġåħ «
Ĉ ą
666 k8å®¢æĪ·ç«¯ä¸ĭè½½
Ġåĩ¯åıĳçº¿ä¸Ĭ å¹³åı°
è± ¹åŃĲ
Ġåĩ¯åıĳ 666k8å®¢æĪ·ç«¯ä¸ĭè½½
åı· çłģ
å½© äºīéľ¸
Ġ2019 -12
è´ ¸
åĽ °
Ġåı ¯
Ġæ¸ ©
è°· |
Ġçİĭ ä¸Ńçİĭ
Ġäºļ åįļ
h one
é¬¼ éħĴ
éĥ½ å¸Ĥ
éħĴ é¬¼éħĴ
ç»ĻåĬĽ çļĦèĢģçīĮ
Ġåĩ¯åıĳç½ĳ å¨±ä¹Ĳå®ĺç½ĳ
ķ è¥¿
ä¸ ´
éĥ¨ åĪĨ
äº¤æµģ ç¾¤
Ċ å¹¿
ĠåħŃ åĲĪ
Ġå §
ĠâĢ º
é Ń
åĶ¯ ä¸Ģ
è· ĳ
æ¯ĶåĪĨ çĽ´æĴŃ
çīĪ æľ¬
åıĳ è¡¨
Ġåĩ¯åıĳç½ĳå¨±ä¹Ĳå®ĺç½ĳ å®ĺç½ĳçĻ»å½ķ
ĠåĶ Ĳ
èİ «
æĪĲ åĬŁ
Ġåĵ Ī
éĩĳ èĬ±
å¤ļå°ĳ éĴ±
3 3
è¡Į ä¸ļ
10 æľĪ
æĶ¶ ä¸įåĪ°
v al
åįģ ä¸Ģ
Ċ2020-0 1
u d
i ãĢĳãĢĲ
In fo
çĬ ¯
éĥ¨ éĹ¨
Ġéģ Ĥ
Ġåĵ ª
å½ Ĵ
åĽĽ å·Ŀ
çİĭ ä¸Ńçİĭ
Ġéĺ¿ æĭī
é» ĺ
éĩĮ |
* *
Ġçİ ©
åĮĹ æĹ©é¤ĲåĬłçĽŁ
æ¶ ī
Ŀ ç¦»
0 1
ĠT he
Ġæ¾³éĹ¨ æ£ĭçīĮ
æħ ¢
ï¼Į ä¹Ł
in k
a re
Ġ )
çĽ Ĵ
å¹ ķ
åı¯éĿł åĲĹ
Ġé £
æīĭæľºçīĪ app
ä»Ĭ å¤©
è¾ ĥ
Ġç ¿
çļĦ ç½ĳç«Ļ
ä»Ĭ å¹´
Ġå¤§åıĳ ä¸ī
Ġå¤§åıĳ äºĮ
è¿Ļ ä¸ª
åº §
¯ çĭĤ
è¡ £
Ċ 4
Ġåįļ å½©
Ġçĳ ŀ
ĠåĮ ħ
Ġåħ į
it h
Ġäºļç¾İ agæĹĹèĪ°åİħ
åħ¬ å¼ı
åĪ Ŀ
Ġp ub
ä¼ Ł
è®¤ ä¸º
Ġy ayou
Ġåĩ¯åıĳä½ĵèĤ²app å®ĺç½ĳ
æľ Ŀ
ar d
æĹ¥ åįļ
å½©ç¥ŀäºīéľ¸ 8
Ġæ´ ª
æī ¿
æ¬¢è¿İ æĤ¨
Ġåģ ¥åº·
Ġèĵ Ŀ
Ġå½ Ń
Ġå®ī åįĵ
è½ ®
er t
Ġéĺ ħè¯»
al l
å¤©å¤© å¥½å½©
Ġé¦ĸ é¡µ
Õ ¡
æ¨ Ļ
Ġ= =
-0 5
r om
éļ Ĩ
çŁ¥ éģĵ
ol low
æ·± åľ³
æĲı å¤©åłĤ
çĩ ķ
æĵ į
Ġåĩ¯åıĳç½ĳåĿĢ å¨±ä¹Ĳ
ĠæĿ Ń
åįĹ åİ¿|
Ġçİ°éĩĳ ç½ĳ
Ġå¢ ¨
r k
Ġ365ä½ĵèĤ²æĬķæ³¨ è¶³çĲĥ
çĻ¼ è¡¨
ac e
Ġè ¥Ħ
çľ ¼
Ġéº »
æłĩ åĩĨ
Ġæµ ıè§Ī
åŃ £
ï¼Į ä»ĸ
åħ¬ éĩĮ
Ġ ä¸ĭä¸Ģç¯ĩï¼ļ
åĲ ī|
ĠçĶ ³
ĠçľŁäºº çĻ¾å®¶ä¹Ĳ
a W
Ġ5 åĪĨå¿«3
Ġb tt
éĿĴ æµ·
æ ĩ
Ġå ī
æ¡ ĥ
h b
çŁ Ń
APP ä¸ĭè½½
ï»¿ ï»¿
Ġæ ĳ
å¼Ģå¥ĸ çİ°åľº
Ċ ä¸ľ
åĪ ĩ
Ġå½© ç¥¨
Ĳ |
Ġå ŀ
Ġèµ ¤
éĸ ĭ
éģ Ń
r ou
ä¸Ĭ æµ·
éĽ ¨
Ġæľ Ľ
åľ Ĵ
Ċ æĤ¨
ç¤ ¼
åī §
åĿ ļ
æĹ§ çīĪ
¤ |
p ort
å§Ķ åĳĺ
Ĥ |
ä¹° çĲĥ
ä¹¦ è®°
Ġæ¾³éĹ¨ ç½ĳä¸Ĭ
ĠåŁ İ
åĿ Ŀ|
Ġ201 5
è®¾ è®¡
ĠæĿ ¨
åıĳ çİ°
åıĸ æ¬¾
Ġå± ı
i ll
è¯ ¯
è¼ ĥ
-2 7
è± ¡
æĸ Ń
Ġç ¼
Ġç ¤
ĠçĤ¹ åĩ»
Ċ2019-0 9
åĲĪæ³ķ åĲĹ
Ġèĭ± åĽ½
Ġç ĵ
Ġæ¼ ³
å®ģ å¤ı
Ċ é¦Ļæ¸¯
è² »
Ġå¿« 3
çļĦ ãĢĳãĢĲ
ł èıľ
æīĵ å¼Ģ
ĠæĿ İ
çİ Ħ
Ġåĩ¯åıĳ éĽĨåĽ¢
¼ åĲĪ
ç¨ İ
èĥ Į
ãĢĳãĢĲ eãĢĳãĢĲ
ç§Ĵ éĢŁ
ä¼ ´
Ġæ º
© |
å½©ç¥¨ å¹³åı°
ew s
ï¼Į æĺ¯
èĵ Ŀ
æĭ ¾
ĠèģĶç³» æĪĳä»¬
è´ Ŀ
åı¯ èĥ½
Ġ356bet è¶³çĲĥ
-2 8
Ġ365betå®ĺç½ĳ è¶³çĲĥ
9 8
ic e
Ġç¥ ģ
3 D
ĵ |
i v
å¥½ è¿Ĳ
Ġ http://
åĽ½éĻħ å®ĺç½ĳ
å¹³åı° ç½ĳåĿĢ
Ġäº ¤
ï¼Į ä»¥
Ċ T
åĨ Ļ
ãĢĳãĢĲ çļĦãĢĳãĢĲ
ĠR ight
ĠéĤ µ
åĤ µ
Ġ365betå®ĺç½ĳ ä½ĵèĤ²
o od
ç¨³ å®ļ
å·ŀ æĸ°éĹ»ç½ĳ
åĪĨ äº«
é «
âĢĶ âĢĶ
åı£ è¯Ģ
å¤§ æĪĺ
ï¼Į èĢĮ
ĠçĭĹä¸ĩ ä½ĵèĤ²
ĠâĢ ¢
Ġæĺ İ
æ¯ Ľ
Ġè¯Ħè®º (
èµĶ çİĩ
c k
ĠäºĮ åĽĽåħŃ
éļ ľ
æĭ į
çģ ¯
å¤§ åĪ©
æľī ä»Ģä¹Ī
Ġç² ¾
Ġæ¢ ħ
Ġç« ĭ
å°ıé¡į åĢŁæ¬¾
åĿ Ĭ
ç» ĩ
äº ¡
æĿ ¾
çŃ¾ ï¼ļ
æ³ °|
æ¥ ļ
Ġç ľ
ç» §
å¼Ģ å§ĭ
Ġåĩ¯åıĳä½ĵèĤ²app æīĭæľº
Ġåĵģ çīĮ
å® ĥ
åĪĨéĴŁ æĹ¶æĹ¶å½©
t urn
Ġä» ģ
Ġä¹Į æĭīçī¹
Ġç ¶
Ġre s
æľĢ å¤§
åŃ¦ çĶŁ
ä» ¤
æŃ£ åľ¨
å¯ ¿|
h m
ç Ģ
ï¿½ï¿½ï¿½ï¿½ ï¿½
å®Ŀ åħ¸
éĥ½å¸Ĥ æĬ¥
åĮ» éĻ¢
.8 ä¸ĩ
Ġé¢ Ŀ
Ġå® ¿
Ċ2017 :
Ġå±± ä¸ľ
Ġåĩ¯æĹ¶ AG
Ġ365bet è¶³çĲĥ
Ċ æ²³
Ġå½ ĵ
ĠåĪĨ åĪĨå½©
Ċ â
åº Ń
ä¸į åĥı
åĮº æĸ°éĹ»ç½ĳ
Ġç ĸ
èµĮ åŁİ
Ġç± ³
Ġåĸ Ģ
åĩ¤ åĩ°
Ġåĩ¯åıĳåľ¨çº¿ çĻ»å½ķä¸ĭè½½
Ġlo f
Ġ365ä½ĵèĤ²æĬķæ³¨ ä½ĵèĤ²
Ġ365bet ä½ĵèĤ²
æ¡¥ |
i z
Ġæĺ¥ åħī
åŁ¹è®Ń åĬłçĽŁ
å± ı
-10 0,
é©¬ |
rk :
rk: -100,
status :'
Info :{},
ä¼ Ĭ
æĪ¿ è²¸
åįİ ç¤¾
ĠéĽ Ħ
re sp
O T
åħ³ äºİ
Ġ3 åĪĨå¿«3
æĽ´ å¤ļ
é¡ ¶
åħ¨ çĲĥ
or d
Ġä½ Ľ
3 .0
è ¿½
æľĢ ä½İ
éĶ ¦
365 æ£ĭçīĮæ¸¸æĪı
éĽ ·
ä¸Ń çī¹
ĠRight s
ç¹ §ï½
ĠåĪ©æĿ¥ èĢģçīĮ
5 00
Ġ _
I m
i al
ãĢĤ è¿Ļ
Ġ365betå®ĺç½ĳ ä½ĵèĤ²åľ¨çº¿
Ġåħ ³
H Q
èĭ± åĽ½
ĠçĭĹä¸ĩ (
ä¸ĭè½½ åľ°åĿĢ
9 0
Ġæ¡ Ĥ
æ¶Ī è´¹
äºº çļĦ
Ġçİ¯äºļ å®ĺç½ĳ
Ġ ç½ĳç»ľ
LC J
åº ı
Ġåº Ĩ
n g
äºĨ ä¸Ģ
ä¸Ģ çĽ´
h er
ĠæĬ ķ
Ġå¾ Ĳ
ä»¥ ä¸Ĭ
an t
å² Ń
Ġæ Ł¥
éł ģ
a v
Ġæ½ ®
å« Į
an y
Count :0,
u ment
çľ ģ|
æµ Ĩ
åħ¬ å®ī
ä»Ĭ æĹ¥
Re comBlog
2 6
åł ´
Ġ ãĢĤ
Ġå ľŁ
Ġåı° åĮĹ
Ġäºļæ¸¸ æ¸¸æĪı
è¯ Ĩ
U U
ãĢĤ ï¼Ī
£ |
å°ı å§Ĳ
åĨħ å®¹
) {
ĠèĤ ĩ
æĲľ ç´¢
C B
U s
. get
æĹ¶ æĬ¥
å£° æĺİ
Ġåĩ¯åıĳ AGæĹĹèĪ°åİħ
éĽĨ |
- 31
19 æĹ¥
o ãĢĳãĢĲ
è®® éĻ¢
æĶ¿ æ²»
i e
Ġåħ ¶
Ġå Ģ
ã ģ
åĵªå®¶ å¥½
a ãĢĳãĢĲ
Ċ2019 å¹´
Ġé«ĺ éĽĦ
Ġäºļæ¸¸ å®ĺæĸ¹
æĦ ¿
æ³¨åĨĮ ç½ĳç«Ļ
a i
çı ¾
Ġé¡ º
7 8
æŀ ª
' ).
Ġ ï¼
ĊâĢ ¢
om p
Ġå Ĵ
åħ³ éĶ®
Ġé ¥
è§ Ĵ
åĪ ¸
çĬ ¶
çĶµèĦĳ çīĪ
Ġæī ĺ
ç» Ĩ
Ġåĩ¯åıĳagæĹĹèĪ°åİħ æīĭæľºå®¢æĪ·ç«¯
åĳ ¼
æĶ» çķ¥
è´µ å·ŀ
å° ½
10 åĪĨ
Ġå Ń¦
Ġæ¡ ĥ
Ġç Ń
ĠçĻ¾å®¶ä¹Ĳ çľŁäºº
ĠèĲ ¥
Ġæ° ´
Ġæ³ ķ
æĬ¥éģĵ ï¼Į
çİĦ æľº
Ġå¤§åıĳ åĪĨåĪĨå½©
éĺ ħ
ĠRes erved
e b
ä¼ ĳ
Ġy ou
0 8
oc ument
äº¤ éĢļ
en g
åĪ »
è¯Ħ ä»·
ì Ŀ
èĢģèĻİ æľº
äºļ åįļ
Ġ365ä½ĵèĤ²æĬķæ³¨ ä½ĵèĤ²åľ¨çº¿
çĻ»å½ķ ç½ĳåĿĢ
æľº æŀĦ
Ġæĸ ¹
a o
çĵ ¦
ãĢĢ ãĢĳãĢĲ
11 æľĪ
O S
ä¾ Ĩ
Ġè¡ Į
0 ãĢĳãĢĲ
ãĢĳãĢĲ iãĢĳãĢĲ
se t
Ġçİ Ľ
çĭ ¬
èħ ¾è®¯
ĠèĢ ģ
å¤® è§Ĩ
è° ¢
è¾ ¦
ĠæĹ ħ
0 6
Ġæĺ Ń
l d
èī ¯
æĪĲ ä¸º
21 æĹ¥
èµĽ äºĭ
æİ ¢
å·´ å°Ķ
çī¹èī² æĹ©çĤ¹åĬłçĽŁ
éĢī ä¸ĢèĤĸ
Ġå¤§åıĳå¿«ä¸ī æĺ¯
é¢Ħ è®¢
åįİ |
0 9
æĢİä¹Ī åĬłçĽŁ
åľ¨ åĵªéĩĮ
å¤ĸ æĮĤ
pk æĭ¾
" ;
éģ ĩ
Ġt ype
è¾ £
Ġç ł
ç¨³ èµļ
l ass
Ġæ¾³éĹ¨ æŃ£è§Ħ
æ³ ½
Ċ P
å¼Ģå¥ĸ åİĨåı²
Ġæ¦ Ĩ
Ċ æ¹ĸ
Ġ j
åĲ ´
Ġbtt 918
çĳ ŀ
å·´å°Ķ èĻİ
ĠçĻ¾ åº¦
èĢ ³
Ġ right
ä¸Ń å¥ĸ
ĠM B
.6 ä¸ĩ
åķĨ æĬ¥
æĹ¶éĹ´ï¼ļ 2019
æīĭæľº ç½ĳåĿĢ
æ¢ ħ
s :
äº¬ æĬ¥
Z H
ä¼ Ļ
åįļ å®¢
å¿ ĺ
Ġåı° ä¸Ń
æľŁæľŁ åĩĨ
Ġæľ Ŀ
ĠæĶ ¶
---- ----
Ġå¤ ı
Ġä¸º ä»Ģä¹Ī
.5 ä¸ĩ
Ġæł ĩ
Ġ356bet ä½ĵèĤ²
Ġå¾ ®
Ċ åįİ
èĲ ¬
ĠçľŁäºº æ¸¸æĪı
éģ İ
ä¿¡çĶ¨ è²¸æ¬¾
åŁİ å¸Ĥ|
æįķé±¼ æ¸¸æĪı
Ġä¸ĸ çķĮ
-0 3
Ġæ¯ Ķ
I C
æ½ Ń|
æĳ Ħ
ĠæĲıå¤©åłĤ 918
åįģä¸Ģ éĢīäºĶ
.2 ä¸ĩ
Ġ2 åĪĨå¿«3
Ġåĩ¯åıĳapp å®ĺç½ĳ
le ment
ĠèĴ Ļ
æ¼ «
åī µ
Ġæ ļ
ç» ¼åĲĪ
à¸ ²
å° Ī
æĸ¯ |
Ġbet36 ä½ĵèĤ²
ĊÂ ©
è¿ĺ æĺ¯
a a
è¿Ŀ æ³ķ
Ġå¯ ¿
Ġå®ī å¾½
æĸ¹ |
Ġæ ¿
Ġå· ¥
Ġåı ĭ
çŁ ³|
Ġ918 æĲıå¤©åłĤ
çĤ¸ éĩĳèĬ±
åĨ Ī|
AG æĹĹèĪ°
ç© Ĩ
å¤§å¸Ī èµĽ
Ġæ³ Ĺ
Ġ else
è¿ ª
éĥ Ń
Õ¡ Õ
æŃ£ æĸĩ
éĩ İ
M T
äºĮ åħ«
æºĲ :
ĠæĹ©çĤ¹åĬłçĽŁ åºĹ
Ġèĭ ¹æŀľ
åĽł ä¸º
ĠçĭĹä¸ĩ æĢİä¹Ī
Ċ ãĥ»
id e
è§£ åĨ³
Ġ 2020
è®¾ å¤ĩ
ãĢĳãĢĲ ãĢĤ
Ġ365bet ä½ĵèĤ²åľ¨çº¿
Ġå½©ç¥ŀ 8
å¡ ĺ|
¿ è¿Ĳ
äºĮ èĥİ
0 3
å¤ĩçĶ¨ çĻ»å½ķ
.9 ä¸ĩ
æīĭæľº å¨±ä¹Ĳ
Ġå¼Ģåħĥæ£ĭçīĮ æľī
Ġéĺ¿ åħĭ
Ġw ith
Ġå¥ ī
èį£ |
.3 ä¸ĩ
Ġçİ¯äºļ çľŁäºº
ĠæĹ¶ éĹ´
ĠB e
åŃ© åŃĲ
å·ŀ å¸Ĥ
ĠéĻ Ĩ
åĿ ª
æ£ĭçīĮ æ¸¸æĪıå¹³åı°
Ġç§ĳå°Ķæ²ģ å·¦ç¿¼
è½ »
Ġäºļç¾İ åĽ½éĻħ
åĮº æĶ¿åºľ
Ġ356bet ä½ĵèĤ²åľ¨çº¿
è¾ĵ äºĨ
.7 ä¸ĩ
å¤± è´¥
æĸ° |
éĻ Ī
æ²Ļ |
Ċ 5
ĠæĹ¶ æĹ¶å½©
ä» į
éĽ ª
.1 ä¸ĩ
è¡Į æĶ¿
å» ¶
u p
Ġbet365 æ»ļçĲĥ
ä¸¾ è¡Į
äºº ï¼Į
Ġ äº¬
ĠéĻ Ī
çĸ Ĺ
ĠåĪ©æĿ¥æľĢ èĢģçīĮ
.4 ä¸ĩ
i es
Ġå¤ ļ
Ġæ²³ åįĹ
Ġäº ķ
è£ ¡
è Ĩ
w v
âĢĶ å¤§åıĳæĹ¶æĹ¶å½©
w d
æ¸ ¡
æ¯Ķ è¼ĥ
Ġre turn
Ġb log
ç¬¬ äºĮ
æ¬¡ æķ°
å¼ı æĹ©çĤ¹åĬłçĽŁ
Ġh m
ç§ ģ
çĶĺ èĤĥ
è®¿ éĹ®
al t
æİ§ åĪ¶
ĠçľŁäºº çĻ¾å®¶å®¶ä¹Ĳ
Ċ ä½ľèĢħï¼ļ
Ġ ä¿¡
ç² ī
åį ´
å®ī å¸Ĥ|
Ġè Ļ
é ī
Ġåĩ¯åıĳçľŁäºº æ¸¸æĪı
çĶ¨ æĪ·
åĽ½éĻħ å¨±ä¹Ĳ
è®¡åĪĴ è½¯ä»¶
æĸ¹ éĿ¢
ä¼ ¯
ç¼ĸ è¾ĳ
Ġæ² ģ
ĠæĹ©é¤Ĳ ç²¥
9 4
Ġç £
Ġåĩ¯åıĳç½ĳ å¨±ä¹Ĳå®ĺæĸ¹ç½ĳç«Ļ
çº¿ è·¯
åĿ ª|
çĶŁ äº§
å¹³åı° å¼ĢæĪ·
åĭĴ |
ä» ģ
é©¬ ä¼ļ
âĢĿ çļĦ
åĮĸ åİ¿|
Ġæ¾³éĹ¨ æĸ°
Ġå¤§ åĲĮ
é»ĳ é¾Ļæ±Ł
å®ī å¾½
çĮ ®
Ġå°Ĭé¾Ļ ag
Ġäºļæ¸¸å®ĺç½ĳ éĿŀåĩ¡
Ġag åľ¨çº¿
ï¼Į æľī
Ġé ²
æ ¾
äºº å·¥
Ġåĩ¯åıĳæĹĹèĪ°åİħæ³¨åĨĮ ä¸ĭè½½ç½ĳåĿĢ
æĿ¥ çļĦ
åĵªä¸ª å¥½
çĶ³ è¯·
Ġå¼Ģåħĥæ£ĭçīĮ æĺ¯
Ġä¸ĩåįļ manbetx
å·ŀ æīĳåħĭ
åĢŁ è²¸
ĠåĪ©æĿ¥ å®ĺç½ĳ
a st
æ²³ åİ¿|
Ġ 36
çĮ «
-0 4
æ³¨åĨĮ ç½ĳåĿĢ
åĪĨæİĴåĪĹ 3
ĠçĲ ¼
Ġright s
1 )
Ġäºļæ´²æ¸¸æĪı ag
Ġèĭ į
Ġæ¢ ģ
ä» ħ
åĪ ļ
æµ ¦
_ _
å®ĺæĸ¹ å¹³åı°
ĠæŀģéĢŁ å¿«3
å¹´ ï¼Į
Ġæ Ħ
Ċ2019-0 8
èı ²
ĭ |
Ġäºļæ¸¸éĽĨåĽ¢ ç½ĳç«Ļ
ä¸į ä¸Ĭ
į |
Ġæīĭæľº çĻ¾å®¶ä¹Ĳ
æĺĮ åİ¿|
èĽĭ èĽĭ
ä»£ è¡¨
ĠèĪ Ĵ
ĠåŃ Ł
Ġåľ °
åĪ ĳ
ï¼Į æĤ¨
ĠåĪ©æĿ¥w66 å®ĺç½ĳ
3 åĪĨå½©
Ġç Ħ
Ġäºļç¾İ æ¸¸æĪı
ĠæŁ¥ çľĭ
od e
å¨ģ å°¼æĸ¯äºº
Ċ ä¸ī
åĽ º
äºĭ ä»¶
åĽĽ ä¸įåĥı
Ġè ¨
Ľ |
Ġç ¨
0 )
çĪ ¾
å ´
èĪ Ĵ
.0 ä¸ĩ
å½± åĵį
§ åİ¿|
æµ©çī¹ |
2 7
æŃ£ å¼ı
Ġæ± Ŀ
ä¸Ĭ ä¸įåİ»
æĶ¯ ä»ĺ
åħįè´¹ èµĦæĸĻ
å¤ļ |
æł ĳ
Ġæī ¶
Ġå³ ¨
Ġæĳ Ħ
Ġ 66
åĪ° äºĨ
Ġå¤ į
Ġè¶³ å½©
æīĭæľº å¹³åı°
éĹ Ń
ä¸ĭè½½ å®īè£ħ
Ġæĺ Ł
è ĭĹ
éĽ ¶
Ġå°Ĭé¾Ļ å®ĺç½ĳ
æµ Ļæ±Ł
Ġå¤§åıĳ pk10
å¹³ åİ¿|
å¯Ĩ çłģ
u cc
ĠéĻ ĩ
ä¸» ç®¡
å·Ŀ åİ¿|
å¤Ħ çĲĨ
éĿĴ |
æ°´ åİ¿|
Ġæ³ ¨
ä½ Ľ
Ġ2019-0 9
XC 9
æī £
f unction
Ċ ä½ľèĢħ
ĠçĻ¾å®¶ä¹Ĳ åľ¨çº¿
é² ľ
å¸Į æľĽ
Ġä¹ °
Ġåº ĵ
ç» ¿
I D
Ġé» Ķ
ç¿ »
Ġagçİ¯äºļ å®ĺç½ĳ
ĠéĽ Ĩ
L E
ic k
Ġå°Ĭé¾Ļ å¤ĩçĶ¨
æ» ¨
Ġd ocument
Ġå µ
åĩ ı
åı¯ä»¥ æĮī
ä¸Ńæĸĩ çīĪ
çĤ º
æµ ľ
æŃ£è§Ħ åĲĹ
æĹ¶ åĢĻ
æİĴ åĲį
Ġæĭ ī
å¿ħ ä¸Ń
å·² ç»ĵæĿŁ
łèıľ äºº
å¸ ®
ī å±±|
+ 4
Ġåĩ¯åıĳå½©ç¥¨ é¦ĸé¡µ
âĸ ³
Ġåĩ¯åıĳä½ĵèĤ² å®ĺç½ĳappä¸ĭè½½
Ġåĩ¯åıĳ å¼ĢæĪ·
ĠèĤ ĥ
ĠæĪ¿ å±ĭ
ç¤¾ åĮº
ï¼Į æĪĳä»¬
ĠåĪĨ ç±»
Ġ2 5
å½© ç½ĳ
ĠAGçİ¯äºļ éĽĨåĽ¢
ãĢĳãĢĲ oãĢĳãĢĲ
Ġï¿½éİıçĦ¯ ï¿½
P S
Ġæľ Ī
Ġä¸´ æ²
å¾Ī å¤ļ
Ġç¦ı å»º
Ġéĵ¶ æ²³
Ġå¤©æ´¥ æĹ©çĤ¹åĬłçĽŁ
ç« ¥
d e
Ġæ¡ Ĳ
Ġag æ¸¸
Ġæ ¾Ħ
Ċ åĩ¤åĩ°
åĽŀ è¡Ģ
alt +4
ĺ åİ¿|
äºĨ è§£
er s
éĥ½ æĺ¯
èĬ Ŀ
æĺ¯çľŁ çļĦ
Ġäºļæ¸¸ ä¼ļ
è£ ģ
Ġå¸ ĥ
Ċ éĿĴæµ·
ç» ĳ
ĠåĽĽ å·Ŀ
çĻ¼è¡¨ æĸ¼
çª į
åı «
å¤´ æĿ¡
åħ³ æ³¨
ç· ļ
è¿Ľè¡Į è¯Ħè®º
é ŀ
ï¼ĮæĤ¨ åı¯ä»¥æĮī
alt+4 è¿Ľè¡Įè¯Ħè®º
ï¼ĮæĤ¨åı¯ä»¥æĮī alt+4è¿Ľè¡Įè¯Ħè®º
å·²ç»ĵæĿŁ ï¼ĮæĤ¨åı¯ä»¥æĮīalt+4è¿Ľè¡Įè¯Ħè®º
å ĺī
çĶµ å½±
æŃ£æĸĩ å·²ç»ĵæĿŁï¼ĮæĤ¨åı¯ä»¥æĮīalt+4è¿Ľè¡Įè¯Ħè®º
æİ ª
Ġag æīĭæľºå®¢æĪ·ç«¯
Ġå° ¼
è¿ °
Ġ2 8
ä¸ĭ ï¼Į
ä¼ļ è®®
Ġå® ¶
æ¶ĵ ï¿½
æ±Ł å¸Ĥ|
ĠåĴ ¸
æĸ¹ æ¡Ī
Ć ć
E lement
PK 10
âĢ Ļ
ç´ §
èĬ ³
ou t
ĠéĽĦ å·ŀ
ĠçĶ ±
åŃ¦ ä¹ł
j c
äºļæ´² çīĪ
Ġè ¦
æĭ ©
q q
d88 .com
çļĦ æĺ¯
èģĶ çĽŁ
Ġw h
u u
Ġbet36 ä½ĵèĤ²åľ¨çº¿
èĦ ļ
Y 2
ãĢĳãĢĲãĢĤ ãĢĳãĢĲ
åĩ¯ æĹ¶
APPï¼ļ å½©ç¥ŀ
Ġwww. d88.com
Ġæ³ ¾
æ ¾İ
Ġéģ µ
ļ |
Ġæ± ¤
x t
_ å®ĺæĸ¹
bet 36
å§ Ĩ
æĶ¿ çŃĸ
ind ow
éģ ¸
Ġf rom
Ġäºļæ¸¸ å®ĺç½ĳçĻ»å½ķ
' );
ĠçĭĹä¸ĩ æĺ¯
ä¸ª äºº
æµ ıè§Ī
B l
Ġåį ĥ
èĤĸ éĢīä¸ĢèĤĸ
ç¸ £
Ġt r
å¾ĭ å®¾
ľ æ¹ĸ
ĠéĽ ·
è« ĸ
éĶĻ è¯¯
d u
åıį æ°´
Ġæŀ £
è© ¦
åľ¨çº¿ ä½ĵèĤ²æĬķæ³¨
è³¼ çī©
Ċ2019-0 5
Ġæĭ Ľ
å¦Ĥ æŀľ
åĲ ¯
å¨±ä¹Ĳ ç½ĳåĿĢ
Ġåı ĸ
Ġé¸ ¡
ç§ Ģ
éĸ Ģ
ç½ĳç«Ļ çĻ»å½ķ
Ġèµ £
ios çīĪä¸ĭè½½
> >
æĸ° çīĪ
Ċ åİŁæłĩé¢ĺï¼ļ
Ġç± »
éĢ Ļ
ul t
ĠåĪ©æĿ¥æľĢ ç»ĻåĬĽçļĦèĢģçīĮ
å¤ĸåĽ´ ç½ĳç«Ļ
Ġå· ¦
åħ¨ å¹´
éŁ© åĽ½
Ġç«ĭ åį³
èİ ²
Ġéĺľ æĸ°
æı ´
åĨ ·
æľ ĭ
äºĨ ï¼Į
æĢİä¹Ī åĬŀ
Ċ è¥¿
è¯ ¦
å± ¯|
Ġé¦ Ļ
è± ª
Ġäºļæ¸¸ag ç½ĳç«Ļ
Ġçİ¯äºļ app
è¨ Ī
éª ŀ
çİ¯ çĲĥç½ĳ
Ġä½ Ļ
éĥ µ
Ġé¸ ¿è¿Ĳ
ç»Ħ ç»ĩ
éĢ Ĥ
", "
çī¹ å·¦æĹĹ|
Ġ3 0
Ġ ????
æĬ ¢
æ£Ģ æµĭ
èĤ ī
å°± éĢģ
ŀ |
: ãĢĳãĢĲ
X N
çģ £
ä»£ æĽ¸
ç¨ ¿
Ġç ĭ
è¯ ļ
jc ml
jcml wd
å° į
ĠåĮ ĸ
å¼Ģå¥ĸ çĽ´æĴŃ
Ġäºļæ´² å®ĺæĸ¹ç½ĳç«Ļ
ĠèµĮéĴ± ç½ĳç«Ļ
è ¸
åĩº çİ°
ĠæĹ©çĤ¹å°ıåĲĥ åĬłçĽŁ
ĠåĪ©æĿ¥ èµĦæºĲ
Ġk8 å¨±ä¹Ĳå®ĺç½ĳ
W l
Ġéĺ¿æĭī åĸĦ
e st
è½¦ è¾Ĩ
ĠéŁ ©
çŃ ĳ
ĠæĹ©çĤ¹ æĿ¥
å¼Ģ åıĳ
åĪĨ èŃī
Ġä»Ĭ æĻļ
er n
é¤Ĳ é¥®
Ġäºļæ¸¸ å®ĺæĸ¹ç½ĳ
ĠP ro
ĠçĶµ ç«ŀ
Ġæİ ¨
ç²¾ ç¥ŀ
x p
ç¬ ĳ
ł |
ĠçĭĹä¸ĩ çļĦ
Ċ2020-0 2
çİ ī
ĠéĿ ¢
åŃ¦ æł¡
åľ¨çº¿ ä½ĵèĤ²
åįģ å¤§
äº¤ æĺĵ
Ġäºļæ¸¸ çĻ»å½ķ
Ġäºļæ¸¸åĽ½éĻħ ag
æĳ ©
éĿŀ åĲĮ
é»ĳ å¤§æĪĺ
Ġp ost
å¾ Ĵ
å® Ī
åģĩ çļĦ
åķĨ åĵģ
Ġå¡ Ķ
åľ° æĸ¹
Ġéĺ ²
ĠU U
ĠåĪ©æĿ¥åĽ½ æłĩ
2 .0
Ġæĺ Ĩ
èĥ ľ|
è¡Į ä¸º
Ġäºļæ¸¸ ä½ĵèĤ²
ä¸Ń çļĦ
åº Ĭ
åı ¬
Ġy abo
æ°ĳ éĸĵ
. 00
ï¼Į åħ¶
ä½ľå¼Ĭ åĻ¨
ãĢĳãĢĲ "
Ġa re
è§ ī
åħįè´¹ èµĦæĸĻå¤§åħ¨
rou p
Ġp ro
æĭ ¬
æĹ¥ æľŁ
é» İ
à¸² à¸
ur l
èį ī
æµģ ç¨ĭ
èµĮ æĲı
Ġ ä¿®
. C
' ;
Ġæ ¥
ª æ´²
æľĢ é«ĺ
Ġæľ ¨
è¯ ¾
Ġå¨ģ å°¼æĸ¯äºº
ä¿Ŀ æĬ¤
Ġè ©
Ġæı Ń
l y
æ¢ °
ä¸Ģ æŃ¥
A T
é« Ķ
Ġæ¸ ¯
Ċæĸ° æµª
Ð ¾
B C
Ġåĩ¯åıĳæĹĹèĪ°åİħæ³¨åĨĮ çĻ»å½ķ
Ġç´ «
æł Ĺ
å³ ¡
ä»¥ åıĬ
èº« åĪĨèŃī
å® Ĺ
è¡ ¥
ĠC C
æĬ ĺ
Ġa d
åĬ¨ æĢģ
i an
Ġåĩ¯åıĳ æīĭæľºçīĪ
èµ ¶
ä¸Ģ åĲį
7 5
è´¸ æĺĵ
æĸĹ çīĽ
Ġåħ¶ ä»ĸ
ä¸Ĭ åĪĨ
å¯ Ĩ|
âĢķ æŀģéĢŁ
Ġèį £
æĭ Ł
æ¨¡ å¼ı
Ġåıĳå¸ĥ æĹ¶éĹ´
é¡ ¾
ĠçĶ °
Ġå¤į åĪ¶
Ċ æĹ©çĤ¹åĬłçĽŁ
Ġçİ¯äºļag æĹĹèĪ°åİħ
Ġres erved
æĻ ĵ
M L
æľ¨ |
-0 2
Ġå¹¿ ä¸ľ
åħ± åĴĮ
ä»Ģ |
Z G
å®Į æĪĲ
åģ ¥
éŁ ¿
è´ ¡|
æºĲ åİ¿|
Į |
ĠåĬłçĽŁ æĹ©çĤ¹
å° Ħ
çķ ª
é¤ ¨
çķ ¶
æĥħ éĵ¾æİ¥
_ å½©ç¥¨
æ¬¢ä¹Ĳ çĶŁèĤĸ
éĩĳ æ²Ļ
å³ ¡|
è¨Ĥ æĪ¿
ĠçĽ ¸
Ġæ¾³éĹ¨ åħŃ
Ġä¸ ĥ
Ġæľ¬ æºª
æĢİä¹Ī æ³¨åĨĮ
åł ±
ĠåĪ©æĿ¥w66 æľĢ
Ċ æłĩ
çģ µ
Ġæīĭæľº èµĮéĴ±
ä¹ ĺ
O F
æĸ° çĸĨ
å¾· åĽ½
ĠéĤ £
åį° åº¦
æµ· å¤ĸ
ãĢĤ ä»ĸ
Ġw66 .com
c m
Ġä¸ĸçķĮ æĿ¯
.. ..
æĿ¥ èĩª
Ġa s
a il
Ġç½ĳç«Ļ åľ°åĽ¾
re f
éĻĦ è¿ĳ
ĠæŀģéĢŁ æĹ¶æĹ¶å½©
æ¹¾ |
Ġåĩ¯åıĳå®ĺç½ĳ çĻ»å½ķ
èľ ľ
é ĳ
ç»§ ç»Ń
çĶ ¢
ĠæĽ ´
Ġagæīĭæľº äºļæ¸¸
Ġæĺ ¯
èĤ ¥
S T
è½ ī
Ġä¹Į åħ°
ç»ı éªĮ
å® ĩ
æĹ¶éĹ´ï¼ļ 2020-0
è¨ ĺ
Ġ201 4
» åĬ¨
è¯Ģ çªį
èį ¯
è¨ Ĭ
èĭ± è¶ħ
åı ¦
å§ ĵ
ï¼Į ä¸º
Ċ2019-0 6
¡ æŀĹ
Ĥ æĹł
åĿ ¦
æĻº èĥ½
èīĩ ä¼ļ
éĢļ |
Ġå®ĺ ç½ĳ
æĹħ éģĬ
Ġag èµĮåľº
5 5
Ċ A
Ċ æĹ©é¤ĲåĬłçĽŁ
Ġåıĳå¸ĥæĹ¶éĹ´ ï¼Ľ
åĪ¶ éĢł
ä¸Ń å°ı
ĠäºļæĲı ä½ĵèĤ²app
ĠçĶµçİ© å¨±ä¹Ĳ
z h
ĠéĿ Ļ
ä» ª
ä¸¤ åĽ½
ri bo
çª Ĺ
æ°ĳ ä¸»
ĠæıĲ æ¬¾
ribo 88
Ġå°Ĭé¾Ļd88 æ³¨åĨĮ
èħ ¾
Ġæ³¨ åĨĮ
è¿Ļ äºĽ
Ġ r
ĥ |
éĴ Ī
åķ Ĭ
æŃ» äº¡
Ġå¹¸è¿Ĳ é£ŀèīĩ
= =
æł¹ æį®
ĠåĲ į
er y
ãĢĳãĢĲpãĢĳãĢĲ >
åĪĨ 3d
ä¸ ģ
ĠåŃ Ŀ
çĽ Ī
ĠåĪ©æĿ¥ æīĭæľº
åĩº ç§Ł
è¿ŀ |
Ġäºļæ¸¸éĽĨåĽ¢ æ¸¸æĪı
Ċæĸ° çĸĨ
ħ |
Ć ą
ar k
éģĵ ï¼Į
ĠæŃ£ æĸĩ
Ġ âĢľ
be r
çİ¯ çĲĥ
ĺ ħ
r ãĢĳãĢĲ
ä¹ İ
ä¸ Ķ
åĪ Ĭ
u ll
ĠéĽ ħ
1 ãĢĳãĢĲ
- 8
Ġ Õ
O D
è®¤ è¯ģ
å¤ ´|
ãĢ Į
å±± ä¸ľ
P ro
B y
i ve
å± Ĭ
åħ ¼
ä» Ļ
åŃ ľ|
å½© åĽ¾
ĠæĹ©çĤ¹ å¿«é¤Ĳ
ä¾¿ å®ľ
ä¸Ĭ ï¼Į
ç»Ļ åĪ©
çļĦ ï¼Į
æıĲ ä¸įäºĨ
æ¹ ĺ
æķ ¸
å¤ļä¹ħ åĪ°è´¦
Ġäºļæ¸¸ å®ĺæĸ¹ä¸ĭè½½
çĻ ½|
éľ ²
HN l
è« ĭ
Ġæĸ° å·´å°ĶèĻİ
i k
Ġéģ ĵ
åīµ æ¥Ń
ä¸Ģ æĿ¡
çº¢ åĮħ
ĠäºĮåĽĽåħŃ å¤©å¤©å¥½å½©
Ġ365æ£ĭçīĮ æĢİä¹Ī
æĺ¯ åĲ¦
éĩĳ |
Ġäºļæ¸¸å®ĺç½ĳ ç½ĳç«Ļ
Ġåĩ¯æĹ¶ å¨±ä¹Ĳ
æ¸¸æĪı å¤§åİħ
ä½ĵ éªĮ
Ġï¿½éİıçĦ¯ï¿½ 918
è®¡åĪĴ ç½ĳ
Ġä¸ ½
åģ ·
è®¾ ç½®
:1 ,
Ġå¤įåĪ¶ çĻ»å½ķ
Ġå £
u re
åį³ æĹ¶
c y
Ġs h
O N
âĢĶ å¤§åıĳ
åį ±
åºĹ |
Ġk b88
å§Ķåĳĺ ä¼ļ
çĶ ľ
æĪ¿ å±ĭ
con t
è¿ĺ æľī
çī¹ æĹĹ|
Ġ ãĢģ
æĹ©é¤Ĳ è½¦åĬłçĽŁ
ĠÂ ¥
å· ¨
Ġagçİ¯äºļ æīĭæľºçĻ»å½ķ
å¹³åı° ç½ĳç«Ļ
i b
Ġth at
ç»´ çłģ
åĮħ æĭ¬
Y WR
å· ®
Ġçļ ĩ
Ġäºļæ¸¸ æ³¨åĨĮ
Ċ ä¸ĭ
ä¾Ľ åºĶ
ãĢ į
æ° £
Ġèı łèıľäºº
ä¹ĭ æĺŁ
éĢī æĭ©
Ġæ±Ł è¥¿
ow er
ĠäºļæĲı çĽ´æĴŃ
Ġä¸ĭè½½ å°Ĭé¾Ļ
5 åĪĨå½©
æĭ Ĵ
é£İ éĻ©
0 2
å®ŀ æĸ½
Ċ çĭĹä¸ĩ
åĺ Ľ
ç½ĳ ...
Ĺ ı
ä½įç½® :
¹ åŁİ|
ĠèĤ ¥
Ġåįļå½© bet356
æ¢ ¦
åł °|
ĠåĪ©æĿ¥ agæĹĹèĪ°åİħ
æĬ Ĺ
Ġé¹ °
app _
w id
Ġæ² Ĥ
æĸ° æīĭ
éĿ ĸ|
I i
Ġ 888
å² ¸
Ċ 6
é Ĭ
çļĦ è½¯ä»¶
åħĭ |
äºĮ ç»´çłģ
ĠçľŁ éĩĳ
ķ |
Ġèĵ ¬
u st
æĻ ¶
æł ĳ|
Ġå¸ Ĥ
Ġäºļç¾İ ä¼ĺæĥł
æ¿ Ģ
Ġ è½¬
æľĭ åıĭ
Ġåĩ¯åıĳ çĻ»å½ķ
ĠæĹ¶éĹ´ ï¼ļ
éĽĦ |
Ċæ±Ł è¥¿
æ°¸ è¿ľ
Ċå¹¿ è¥¿
com m
Ġagæ¸¸ èīĩä¼ļ
çľŁäºº çĻ¾å®¶ä¹Ĳ
Ġç Ł¥
é¸ ¡
æ°ĳ |
èĩª åĬ¨
ä¸Ģ èµ·
ä»Ģä¹Ī æĦıæĢĿ
4 7
P V
Ġçİ¯äºļ å¨±ä¹Ĳ
æ±½ è»Ĭ
èĩªå·± çļĦ
Ġ201 2
èĭ± éĽĦ
er m
æĹ¶ ä»£
ä¿ ĥ
å¯ ¨|
Ġäº §
ĠP I
æĿ¡ ä»¶
åįı è®®
_ s
å½©ç¥¨ ç½ĳ
ĠccåĽ½éĻħ å½©
èī ¯|
T ag
æ²ģ æĹĹ|
åĨł åĨĽ
Ġçİ ¯
o v
é» ŀ
Ġ ãĢĬ
å®¶ åºĦ
åĲ ¸
H A
æľĪ äº®
å· ´|
éĿ Ļ
å¼Ģå¥ĸçİ°åľº çĽ´æĴŃ
Ġç ©
åı ¥
é¤Ĳé¥® åĬłçĽŁ
Ġé» İ
å¿«ä¹Ĳ åįģåĪĨ
é¥ ¶
çİĽ |
ç½ĳåĿĢ å¤§åħ¨
E D
å¿ĥ æĹ©é¤ĲåĬłçĽŁ
çĥ Ł
åķ ¥
æľª æĿ¥
ä¸į åĲĮ
Ġd ata
ĠagåĽ½éĻħäºļæ¸¸ çĻ»å½ķ
f f
æĹ©çĤ¹å°ıåĲĥ åŁ¹è®ŃåĬłçĽŁ
Ġç½ĳ æĺĵ
åĩº åı£
ç °
O M
éĿŀ å¸¸
n e
r y
w b
ä¸Ģ è·¯
Ġç« ¹
æĵį ä½ľ
é¥ °
Ġ it
Ġåĩ º
L A
æĻ ĭ
åįĹ å¸Ĥ
éĢ Ĵ
æĬķæ³¨ ç½ĳåĿĢ
ä¸ĭ åĪĨ
m b
Ġæķ Ļ
. s
æ¶Ī éĺ²
9 7
Ġåĩ Į
ad min
å² Ĺ
ä¸ĭè½½ _
l f
åŁº æľ¬
Ġ ê
Ġç§ ¦
æ² Ł
Ġèĳ ¡
è´£ ä»»
åħ §
Ġåĩ¯åıĳä½ĵèĤ² vip
Ġçģ Į
ç¢ ĳ
æĪ ª
ur re
ĠèĮ Ĥ
åĭ ĩ
è¿ ´
Ġag äºļ
æİ¥ åıĹ
é Ħ
Ġè ī
æĽ ¼
Ġä¹ ¡
å®ĺç½ĳ æ³¨åĨĮ
Ġèĭ± è¶ħ
éľ ĩ
ç½ ²
Ġæ¸ ¸
H ome
é Ĳ
Ġ ä»İ
XN ET
Ġ !
ĠåĪ ĺ
1 .0
æį Ł
æľŁ è´§
ĠPI XNET
ex t
éº ¼
Ġå¹¸è¿Ĳ å¿«3
è±Ĩ æµĨ
ĠåĬ ¨
å¹¿ åĳĬ
ĠèĬ ľæ¹ĸ
è´¹ çĶ¨
åĨ Ī
ä¹ī åİ¿|
è©¦ ç®Ĺ
ĊæĹ¶éĹ´ï¼ļ 2020å¹´
âĢ ĺ
è· ¨
4 4
æ£ĭçīĮ å¹³åı°
æĸĩç«ł ï¼ļ
çī¹ åĪ«
éĹ ľ
ä¼ °
Ġå Ŀ
] ,
åħ± åĲĮ
é ı
çľŁ å®ŀ
be st365
çĪ ¶
Ġagçİ¯äºļ æ¸¸æĪıå®ĺç½ĳ
ç© ¿
æĬ ¼
æĿ ¨
æľº åħ³
æĢ Ģ
é© ¶
s s
Ċ éĩįåºĨ
æĮģ ç»Ń
Ġæ ħ
Ċ çľĭ
C T
Ċæ²³ åĮĹ
åĪĨ ç±»
éĩĳ èŀį
Ġ o
Ċ S
ç± į
Ġå½ °
Ġåī ĳ
è¿´ éŁ¿
å½©äºīéľ¸ 8
çĸ ¾
çĸ «
Ġæ³ ½
å°ı è¯´
ç¬ Ķ
é© ¾
çļĦ ä½įç½®ï¼ļ
o ok
å¾· åİ¿|
æ¨ Ĥ
æĺ Ĩ
2 ãĢĳãĢĲ
Ġäºļæ¸¸éĽĨåĽ¢ ag
Ġ ä¿¡èªī
Ġ365æ£ĭçīĮ å®ĺç½ĳ
æĹ©çĤ¹å°ıåĲĥ åĬłçĽŁåºĹ
æıĲ åĩº
è¯ º
I 6
Ġä¸ »
Ġag çĶµæ¸¸
X G
éĶ ĭ
å¸ Ĳ
Ð µ
Ad d
ä¸ĩ åħĥ
ä½ĵèĤ² å¹³åı°
Ġè ŀį
æľº åĻ¨
æīĭ ç»Ń
çĶŁ æĹ©é¤ĲåĬłçĽŁ
åĬłçĽŁ æĹ©çĤ¹
é¢Ĩ å¯¼
èĤ¡ç¥¨ éħįèµĦ
3 7
0 7
ãĢĳãĢĲ" ãĢĳãĢĲ
5 8
ä»Ĭ æĻļ
in a
Ġå¼Ģåħĥæ£ĭçīĮ æĢİä¹Ī
æĶ¶ä¸įåĪ° éĤ®ä»¶
ç¤º åħ¨éĥ¨
ç®¡ éģĵ
Ċ æ·±åľ³
Ġæĺ ĵ
Ġ918 åįļ
å®¡ æł¸
U R
í ķ
çľŁ çļĦ
Ġçİ¯äºļ å¹³åı°
s 8
ä¼Ļ ä¼´
Ġæ» ¡
Ġæĸ° èĳ¡
çĥ «
åį³æĹ¶ æ¯ĶåĪĨ
201 5
Ġ2 6
ĠåĪ©æĿ¥ çĶµæ¸¸
Ġé¹ ¿
ä¸» è¦ģ
éĢŁ åº¦
ä¸į ä¼ļ
Ġè® ¢
ĠéĽ »
Ċ æľ¬
Ġæ¨ ª
æ´ Ĺ
æĬ¥ åĳĬ
ä¿Ŀ éļľ
Ġç§ »åĬ¨
èģ ļ
ĠåĮĹäº¬ æĹ©çĤ¹
å®īåįĵ app
å¥½ é¡¹çĽ®
Ġè´ ¡
è· Ŀç¦»
ĠåĪĨ åĪĨå¿«3
èµļ å°±
) ,
åĽ½ åĨħ
æĿ¡ æ¬¾
æºª åİ¿|
å¤§ å®¶
ä¸» ä»»
Ġå®ĺ æĸ¹
åĩł ä¸ª
Ġæīĭæľº äºļæ¸¸
Ġèį Ĩ
n ãĢĳãĢĲ
Ċå¤© æ´¥
ä¸ľ åİ¿|
ç¥ ¥
æ£ĭçīĮ ä¸ĭè½½
ï¼Į å¯¹
Ġ| |
ç¶ ĵ
å¥ĸ éĩĳ
ä»£ çłģ
å®ŀ çİ°
èµ µ
åħ¨ éĿ¢
Ġæ¡ ¦
å¯ ¨
åĩº çīĪ
he d
Ġé¥ ¶
æĸ°æīĭ åį¡
Ċ æĺŁ
åĮħåŃĲ åĬłçĽŁ
è¾ ī
omp any
Ġçĭ ¬
è¾ ½
æī ¬
Ġçİ¯äºļ appä¸ĭè½½
ĠA r
æ ª
çĽ ĸ
Ġ8 äºļæ¸¸
æĥ³ èµļå°±
Ġæ·± åľ³
è ĺ
åıĤ åĬł
åıªä¸º éĿŀåĲĮ
9 5
å° ¾
Ġåĩ¯åıĳ æŃ£è§Ħ
æ¯ Ĵ
è ķ
ĺ ï¿½
Ġre m
y le
Ġbet36 6
è³ £
åĸĦ |
Ġç» į
èĲ Ħ
Ġ365è¶³çĲĥ ä½ĵèĤ²
Ġæļ ĤæĹł
iz e
å¹´ çļĦ
ĠåľŁ é»ĺ
æ´ ª|
å®ģ å¸Ĥ|
æ¢ ģ|
ment s
Ġèĭı å°¼
éĹ ²
å¤ĸåĽ´ æĬķæ³¨
èĮ ¶
ĠåĲī æŀĹ
ĠåĮĹäº¬èµĽè½¦ pk10
å¨±ä¹Ĳ å½©ç¥¨
urre nt
éĢ Ķ
è¿Ļ æł·
le ct
Ġæ¹ĸ åĮĹ
Ã ©
æľ «
P hone
æ³¨åĨĮ å¹³åı°
Ġ$ ('
ĠåĪĨç±» ï¼ļ
åıªä¸º éĿŀåĩ¡
ç½ĳåĿĢ æĺ¯å¤ļå°ĳ
n one
2 )
ï¿½ éİıçĦ¯
çİ¯äºļ çľŁäºº
çº ¸
Ġ918 ï¿½éİıçĦ¯
a ve
Ġæ² Ī
Ġæ± ķ
å¯¹ éĿ¢
Ġçı ł
Ġåħĭ æĭī
Ċ åĽĽå·Ŀ
æ¢ ģ
Ġçİ¯äºļ çĻ»å½ķ
Ġagäºļæ´² çĻ»éĻĨ
O P
è¿Ľ ä¸ĢæŃ¥
Ġäºļæ¸¸åĽ½éĻħ æīĭæľºå¨±ä¹Ĳ
ri end
m Z
ä¸Ĭ çļĦ
Ġ} )
a se
Ġ ç½ĳåĿĢ
Ġç§ĳå°Ķæ²ģ åı³ç¿¼
; ãĢĳãĢĲ
Ð ¸
Ġèı ²
æĸ¯ åĿ¦
æī ¶
æĿ °
Ġå® ¾
ä¹ ±
Ċ 7
æľĢæĸ° ç½ĳç«Ļ
åĬ© æīĭ
Ġäºļç¾İ çĶµæ¸¸
Ġè° ¢
å¼Ģ åı·
Ġæī ¿
ï¿½ I
Ċ2020-0 7
Ġå·´ æŀĹ
ri pt
éĥ ĳ
åħ ĳ
åŃĲ æĹ©é¤ĲåĬłçĽŁ
¶ éĻµ|
èĭ± æĸĩ
ļ åİ¿|
ĠåĪ °
Ġç»į åħ´
Ġ le
æ°´ æŀľ
çĸ ¯çĭĤ
Ċ åıĳè¡¨
èª ŀ
æĶ¶ è´¹
ĠéĻ µ
âĢ¦ âĢ¦
ç´ ļ
ĠåĨħ èĴĻåı¤
å¼ĢæĪ· å¹³åı°
å½ĵåľ° æĹ¶éĹ´
æĿ Ń
å¤© æ´¥
æ¸¸ |
èīº æľ¯
Ġæ» ¨
æ°ĳ èŃ¦
æŀ Ŀ
è½¯ä»¶ ä¸ĭè½½
Ġc omment
çĥĪ å£«
Ġå½©ç¥ŀäºīéľ¸ å¤§åıĳå¿«ä¸ī
Ġ he
Ġæī ¬
éº» è¾£
æīį èĥ½
Ġå¿« éĢŁ
Ġåį °
Ġçİ¯äºļag æīĭæľºå®¢æĪ·ç«¯
æľĢ è¿ĳ
12æľĪ 20æĹ¥
æĥ³èµļå°± è½¬
ä½ ©
æľŁ éĹ´
æ½ ®
Ġçİ¯äºļ æīĭæľºçīĪ
æĭ¿ å¤§
åĪĨ 6åĲĪ
Ġæ¬ §
N ew
è´ ¡
çµ Ħ
Ġæĸ° ç«¹
æŃ¤ åīį
è¦ ĸ
Ġ 35
éĺ ģ
ãĢģ ãĢĳãĢĲ
Ġä» Ļ
åĲ «
ç²¥ åĬłçĽŁ
é¡ ŀ
3 9
ç®¡ å®¶å©Ĩ
ä»» ä½ķ
Ġagçİ¯äºļ æīĭæľºå®¢æĪ·ç«¯
- ãĢĳãĢĲ
æľī åħ³
é© »
Ð °
Ġåıĳ è¡¨
ĠæĹ©é¤Ĳ è¿ŀéĶģ
éĻ ķè¥¿
å¤ĸ ï¼Į
Ġ ??
å®ĺæĸ¹ app
ĠçĶ Ł
hb HNl
iO mZ
hbHNl LCJ
iOmZ hbHNlLCJ
5 æľĪ
ĺ å®¶
Ġk s8
Ġ ä½ĵèĤ²æĬķæ³¨
ä½ľ ä¸º
Ġæµ ģ
I B
éĥ¨ ãĢģ
ĠèĴ ²
Ċ äºĳåįĹ
åĬł å¼º
365 å¤ĸåĽ´
å±± è¥¿
Ċæµ· åįĹ
å®¾ |
æĸ° ç½ĳ
Ġå¤§åıĳ ç§ĴéĢŁ
Ġæ¾³éĹ¨çĻ¾å®¶ åĪ©
çİĽ ä¾Ŀ
ç®Ģ ä»ĭ
å½© å¼Ģå¥ĸç»ĵæŀľ
Ġè§ Ĩ
æĮĩ æķ°
åĽ½ ç¦ı
Ġå¼Ģ å°ģ
èĳ Ĺ
æł ı
Ġf alse
Ċ å®ģå¤ı
äº Ń
app âĢķ
éº»è¾£ çĥ«
åıĳ çīĮ
éł Ĳ
ĠâĢ Ķ
èĸ ª
Ġåħį è´¹
ĠæĿ¥æºĲï¼ļ ä¸ŃåĽ½
å¤ Ł
n et
éĶĽ ï¿½
ĠR e
åĸ ĩ
ç¡® è®¤
Ċä¸Ĭ æµ·
åĨ Ĵ
Ġé ½Ĳ
Ġå¤§åıĳä¸Ģ åĪĨéĴŁå¿«ä¸ī
åĬ¨ çĶ»
Ġè ²
æĢ» ä»£çĲĨ
Ġåħĭæĭī çİĽä¾Ŀ
åĬłçĽŁ è´¹
çª Ŀ
æģ© éĿłè°±
in ce
ä¸¥ éĩį
æīĭæľº ç½ĳé¡µçīĪ
åĬ ³
ç«ŀ å½©
å¹³åı° app
æŁ¥ çľĭ
.5 åĪĨå½©
an s
åĽ½ç¦ı éº»è¾£çĥ«
S D
çī Ļ
ĠçĲ Ĩ
æķ´ åĲĪ
ãĢĳãĢĲ ãĢģãĢĳãĢĲ
ĠåŃ Ĺ
Ġ365betå®ĺç½ĳ æĢİä¹Ī
ĠåĪ©æĿ¥æľĢç»ĻåĬĽçļĦèĢģçīĮ å¹³åı°
G V
æĸĩç«ł æĿ¥æºĲï¼ļ
åħ± èµ¢
é«ĺ æīĭ
Ġn ame
ç± ¤
c Ij
Ġagçİ¯äºļ æ¸¸æĪı
èµĦ æŀ
æİª æĸ½
åĲĮ æĹ¶
åĢį æĬķ
æ±Ł èĭı
è¡Į åĬ¨
ĠçľŁéĴ± çľŁäººçĻ¾å®¶ä¹Ĳ
è±ĨæµĨ åĬłçĽŁ
èŃ¦ å¯Ł
éĻĲ åĪ¶
è¿ŀéĶģ åĬłçĽŁ
Ġæ» ¦
Ġè £
ĠåĪĨ äº«
çĶµçİ© åŁİ
ing le
v i
Ġæķ ¦
å¯ ĵ
Ij o
º åįĹå¸Ĥ
Ġ} ,
å®ĺç½ĳ æīĭæľºçīĪ
åĲī æŀĹ
Ġäº İ
æıĲ åīį
ï¼Į å°±
æĸ° äº¬æĬ¥
Ġagçİ¯äºļ æĹĹèĪ°åİħ
Ġåħ ±
.get Element
åİŁ åĽł
è¿ĩ ç¨ĭ
Ġ ï¼ļ
Us er
C omment
Ġç »¿
Ġc h
Ġè Ĺ
å£ ģ
.t v
ı åİ¿|
S how
æİ¨ å¹¿
2 åĪĨå½©
Ġ2 7
ĠçĻ¾å®¶ äºĨ
Ġå¿ħ èµ¢
çº ·
éĤ£ ä¸ª
ç§» åĬ¨
Ġf riend
èĥ½ æºĲ
ä¸Ģç¯ĩ æĸĩç«łï¼ļ
ĠåĽ½éĻħ cc
Ġçİ¯äºļéĽĨåĽ¢ ag
çĥŃ çº¿
E L
Ġæłĩ çŃ¾ï¼ļ
æĤ ī
é¢ĳ éģĵ
Ġèĳ¡ äº¬
åīµæ¥Ń è²¸æ¬¾
Ġéĥ ¨
å¥ ĭ
æī İ
æİ¨ åĬ¨
Ċ2020-0 5
æĺ¯ä»Ģä¹Ī æĦıæĢĿ
Ġth is
è¨ Ń
l c
ä¸Ģ äºĽ
Ġç» ı
Ġæ¹ĸ åįĹ
Ċ 10
6 4
ï¼ Ĭ
èĭı |
Ġçİ¯äºļ AG
Ġéĥ ĳ
è£ Ŀ
ĠçĶ³ åįļ
åįķ ä½į
ç½ĳç«Ļ å¤§åħ¨
åĴ ¨
Ċ éķ¿
Ġbet356 å®ĺç½ĳ
Ġå°Ĭé¾Ļ å¤ĩçĶ¨ç½ĳåĿĢ
W F
ç§ĳ åŃ¦
Ġæł ªæ´²
è´¦ æĪ·
åĽ¾ åºĵ
14 7
Ġagäºļæ´²æ¸¸æĪı éĽĨåĽ¢
æ¤ į
åĢĭ äºº
Ġç¼ ĸ
é¥ ¼
XC I
éĹ ª
Ġæ²³ åĮĹ
ç§Ł è½¦
Ġc urrent
æ³¢ |
Ġèģ Ĥ
ä¸Ģ æł·
0 ',
ä¸Ĭ åįĪ
è´¢ ç»ı
éĻµ åİ¿|
Ġè° ģ
åį ·
ri ce
æľĢ åĲİ
ç®Ĺ çĽĺ
ä¸» ä¹ī
Ġ Ã
æĿ¯ æĬķæ³¨
Ġä¸ ª
Ġåĩ¯åıĳåľ¨çº¿ å¹³åı°
æ ¦Ĥ
ub lis
Ġè®¢ éĺħ
- 5
Ġæ³ ī
Ġåį ĵ
ĠD e
Ġ5 0
comm end
Ġæ¾³ æ´²
Y W
æīĺ åħĭ
S H
å½©ç¥¨ å¨±ä¹Ĳ
èĭ¹æŀľ ä¸ĭè½½
åħ ī|
éĻ ¶|
Ġçī¹èī² æĹ©çĤ¹åĬłçĽŁåºĹ
U V
:' 0',
Ġç¤ ¾
èİ ŀ
y abo
g å¼Ģåħĥæ£ĭçīĮ
æĮĩ åįĹ
éķ¿ |
æ» ¨|
çľŁäºº å¹³åı°
ob ile
Ċ 8
å¯ º
¼ |
ĠæĿ ľ
æ¨Ļ ç±¤
çīĪæľ¬ ä¸ĭè½½
åĿ ¡
åĪ Ģ
ï¿½ï¿½ï¿½ï¿½ ï¿½ï¿½
å¨±ä¹Ĳ ç½ĳç«Ļ
Ġä¹ ¦
å¼Ģå¥ĸ åı·çłģ
ä¸ Ŀ
ĠçĻ½ å°ıå§Ĳ
Ġç½ĳä¸Ĭ çĻ¾å®¶ä¹Ĳ
èı ¯
é¡ ¿
æĸ ĭ
æķ° åŃĹ
è¯ Ĺ
ĠåŁ º
- 3
Ġ/ >
åł °
Ġèĭ ¥
Ġagçİ¯äºļ ä¸ĭè½½
é«ĺ |
ĠåĪ© èİ±
å» ī
Ġ ä»»
èĥ ¡
Ġ918åįļ å¤©
æ£ ±|
Ċ å½ĵåīį
é¦ĸ |
Ċåıĳè¡¨ äºİ
Ċ èį
ä¸° åİ¿|
æ°ĳä¸» åħļ
ĠéĦĤ æīĺåħĭ
é¡ »
Ġåº Ķ
è´¨ éĩı
Ċåĩ¤åĩ° ç½ĳ
éĶĢ åĶ®
ç½ĳ èµĮ
åĨ ¬
Ġåį ĸ
ä¸ ĺ
åį ł
ç¦ı åĪ©
j i
è² ¼
Ġå¹¿ è¥¿
æĮĩ åĩº
Ġå®ľ å®¾
ĠåįĹ äº¬
èĩª çĶ±
ä» ĵ|
æĿ ¾|
Ġ$ (
è®© çĲĥ
åľ Ī
o ve
æ² Ĵ
ç»Ł ä¸Ģ
Ġ- -
ĠéħĴ åºĹ
Ġå°Ĭé¾Ļd88 .com
_ å¤§å°ı
æľī æ²¡æľī
å¾ Į
æĴ ŀ
åĢį çİĩ
Ċå¤§ ä¼Ĺ
Ġå¤§ æĸ¹|
Ġf ollow
éĺ ´
Ġæ´ ŀ
. m
Ġat t
Ġåĩ¯åıĳ AGæĹĹèĪ°
g ood
p r
Ġæµ ®
åĤµ åĭĻ
Ġçİ¯äºļag å¹³åı°
Ġå¯ Ĩ
æľī æķĪ
Ġéķ¿ æ²»
ãĢĤ ä½Ĩ
ç£ Ĭ
åŁŁ åĲį
äº§ ä¸ļ
è¯ Ī
ĠéĩįåºĨ æĹ¶æĹ¶å½©
ĠS h
cont ent
ï¼ļ å½©ç¥ŀ
O L
Ġagäºļæ´² åĽ½éĻħ
æľº åľº
èµŀ åĬ©
æĹ º
å®£ å¸ĥ
ä¸į éĻĲ
3 N
Ġg roup
Ġagçİ¯äºļ æ¸¸æĪıå¹³åı°
å¤§ åĵģçīĮ
g ãĢĳãĢĲ
Ġè® ¸
å¨±ä¹Ĳ appä¸ĭè½½
Ġk8å¨±ä¹Ĳå®ĺç½ĳ åľ°åĿĢ
æī§ è¡Į
Ġä¸Ĭ é¥¶
ĠæŃ£ çīĪ
ic le
åĲĹ ?
6 1
çİ¯ å¢ĥ
Ġæ¹ĺ æ½Ń
P T
Ġäºļæ¸¸åĽ½éĻħ é¦ĸé¡µ
ĠéĶ ¦
Ġ9 9
é Ĩ
Ġbet365 æĢİä¹Ī
å¤§ ä¸Ńå°ı
æį ·
å¾® åįļ
Ċ2020-0 3
Ġ èĤ¡ç¥¨
å¤ĸåĽ´ 365
b log
ĠçĶ ·
âĢľ ä¸Ģ
Ġ ä½ľèĢħ
] ;
ä¸Ģ ä¸ĭ
å·¥ åħ·
Ġä½ ³
æ· »
Ċ éĺħè¯»
â ĨĴ
é ĭ
Ġç¿ ģ
Ġ365ä½ĵèĤ²æĬķæ³¨ æĢİä¹Ī
Ġç ¢
Ġ ~
i x
å¹ ¸
å¢ ħ
Ġå Ħ
ab le
åħ³éĶ® è¯į
ĠS e
è®¡ ç®Ĺ
åı¯ æıĲçİ°
Ġä¸´ å¤ı
Ġ ï½
æĬ ĵ
ĠæĬļ é¡º
ä¼ļåĳĺ çĻ»å½ķ
åĪĨ åĪĨæĹ¶æĹ¶å½©
Ġkb88 åĩ¯æĹ¶
Ġåĩ¯ 8
Ġéĵģ å²Ń
Ġå¤© ä¸ĭ
Ġåħ ī
èĬ³ æĸĭ
¹ åİ¿|
ĠåĪ©æĿ¥ag åĽ½éĻħåİħ
Ġagçİ¯äºļå®ĺç½ĳ æľĢä½³
à ¤
ĠåĪĨ åĪĨæĹ¶æĹ¶å½©
p m
è®°èĢħ ä¼ļ
æį ķ
Ġæ¶ ¿
èŃī ä»¶
Ġse lf
Ġi st
ĠR o
æ£ĭçīĮ app
é¡¹çĽ® åĬłçĽŁ
F ile
0 m
å¢ ĵ
U N
Ġæĺ ¾
Ġ365bet æĢİä¹Ī
åľŁ åľ°
Ġm ain
Ġçİ¯äºļçĶµæ¸¸ ç½ĳç«Ļ
æ´ ª
æĸ¯ ç§ĳ
Ġè§Ĩ é¢ĳ
Ġn ew
Ġ1 18
= {
äºĭ æķħ
åİĤ å®¶
ł åİ¿|
åĽ½ |
æĻ ¨
Ġdocument .getElement
Ġc on
ä¸» æĴŃ
éĿ© åĳ½
Ġè¿ŀ äºĳ
è§ ¦
ĠæĿŃ éĶ¦
ĠéĻ ķè¥¿
Ġä¼ ł
è´Ł è´£
çİĩ åĪ©
ä¾ ¯
Ľ åİ¿|
è² ¨
ublis hed
åĵª è£¡
ç§Ĵ ç§Ĵ
Ġäº§ åĵģ
åĢ Ĵ
a WR
èĪ ŀ
- 6
Ġ356bet æĢİä¹Ī
Ġçı Ń
Ġçİ¯äºļag åĽ½éĻħåİħ
å² ©|
Ġåº Ħ
Ċ é»ĳé¾Ļæ±Ł
æĿĲ æĸĻ
å¯ ¸
ĠéĽĦå·ŀ æĹ©é¤ĲåĬłçĽŁ
se d
æĸ° åįİç¤¾
Ġ7 5
ĠçĭĹä¸ĩ å®ĺç½ĳ
ĠæĹ©é¤Ĳ åºĹåĬłçĽŁ
Ġåħ¨ åĽ½
Ġ ï
Ġåį ¢
Ġåĩ¯åıĳ appä¸ĭè½½
åķ ı
ĠçĻ¾å®¶ æ¬¢ä¹Ĳ
å± ı|
å¥³ åŃĲ
ip ad
Ġåı° åįĹ
å¢ŀ éķ¿
Ġ} else
å° Ĭ
Ġéĺľæĸ° å¸Ĥ|
Ġæĸ ½
Ġä¸ ĵ
£ ï¿½
p x
åł ¡
ä½Ļ é¢Ŀ
Ġ2 9
ä¹Ł æĺ¯
Ġs an
æ §
åĩº äºĨ
1 åĪĨå½©
erm al
v ince
j b
é¥ Ń
Ġè´ º
æµ ®
è´Ń ä¹°
çĨ ±
èĩªæ²» åĮºæĶ¿åºľ
å¤§åĪ© äºļ
Ġå¤§åıĳ å¤§åıĳå½©ç¥ŀ
æ°ĳ æĹı
ĠçĽ ĺ
ä¿¡çĶ¨ åį¡
çĨ Ĭ
å¼Ģ æĮĤ
Ġw66åĪ©æĿ¥ èĢģçīĮ
7 147
èĤ¡ ä»½
I F
åĨ °
æ² §|
C ity
ä¿ ±ä¹Ĳ
åħĪ çĶŁ
Ġç½ĳæĺĵ åįļå®¢
Ġ4 7
Ġå¼Ģ åħĥ
å¼ĢæĪ· å®ĺç½ĳ
ĠæļĤæĹł è¯Ħä»·
è¥¿ åİ¿|
ä¿±ä¹Ĳ éĥ¨
æĹ© æĬ¥
Ġ www
éĢł æĪĲ
ermal ink
Ġç® Ģ
ĠåĸĢ åĸĩ
ĠC opyright
2018 å¹´
I H
Ġ365ä½ĵèĤ²æĬķæ³¨ å¨±ä¹Ĳåľº
åĬ ±
Ġæģ ©
con :'',
ä¸ĭ åįĪ
ĠçĶĺ èĤĥ
x z
ä¸Ń åįİ
ĠT h
æĹĹèĪ°åİħ ä¸ĭè½½
æİĴåĪĹ 3
4 æľĪ
æĢ» çĲĨ
åĶ Ĳ
ĠåŃ Ĳ
n a
Ġç» µ
é¦ĸ éłģ
â Ķ
Ċ2020-0 6
åıĮ æĸ¹
Ġå·´ å½
éŀ ĭ
this .p
Ġå¥ ³
Ġé ĸ
Ġé¸¿è¿Ĳ åĽ½éĻħ
Ġsan 7147
Ġsan7147 çĻ¼è¡¨æĸ¼
ä¸ª æľĪ
G N
R E
ĠæŀģéĢŁ pk10
å¤§ çļĦ
à¸ Ļ
e y
Ġæ¬ ¢
- 4
ĳ åİ¿|
ĠæĿ¥ æºĲ:
Ġç«ĭåį³ é¢Ħè®¢
æĭ ľ
æ± ī|
n ight
åĽŀ åºĶ
Ġ us
éĥ İ
éĥ ¸
Ġ qu
æĸ¹ ç½ĳ
Ġ 88
s .
åºĶ è¯¥
id u
æ°¸è¿ľ å¤ļä¸ĢçĤ¹
C P
æĺ¯ åĵª
ç¬ ¦
Ġå° ģ
è¾ °
s h
åıĳ è´¢
Ġæ² §
[ ],
Ġäºļç¾İ ç½ĳ
ĠagæĹĹèĪ°åİħ ä¸ĭè½½
Ġå¤© å¤©
èģĶ ç½ĳ
åľ¨çº¿ æ³¨åĨĮ
ç į
Bl ack
Ġæ Ĥ
ĠéĹ¨ åºĹ
è¦ģ å¤ļä¹ħ
¯ éĥ¸
ĵ å¤§åħ¨
Ġä¸ ¤
çİ »
æĸ° çļĦ
çĶľ èľľ
Ġå° ļ
ĠS T
æ¥¼ å±Ĥ
å¼ Ĥ
ĠæĢ Ŀ
Ġæ Į
18 æĹ¥
ç» ĥ
it ion
æ¡ Į
Ġpub lis
è§Ħ å®ļ
Ġåİ ¦
g e
è© ¢
Ċ åįĥ
k w
ï¿½ ^
ï¼ģ âĢĿ
Ġå¥½è¿Ĳ å¿«3
å£ ģ|
è¾ ½|
Ġis Show
Ġåį ķ
å¹´ èıľ
ĠçĻ »
ä½Ļ |
88 çİ¯äºļ
1 18
Ċ this.p
b m
Ċthis.p ={
Ġv ote
ĠéĹ¨åºĹ åľ°åĽ¾
æĳ ĺ
ĠåĪ©æĿ¥w66 ç½ĳç«Ļ
ä¸Ģ æ¬¡
çĢ ¹
ç½Ĺ |
T ime
é¡ Į
è° ĭ
æ² Ł|
Id :0,
Ġéĺ² åŁİ
åŀ £|
è°ģ æľī
æľŁè´§ éħįèµĦ
ĠéŁ ¶
Y T
å¤ĸåĽ´ åĲĹ
å®¢æĪ·ç«¯ å®ĺç½ĳä¸ĭè½½
_ åįķåıĮ
æĺ¯ ä¸įæĺ¯
åĽ½å®¶ çļĦ
é»ĳ éĴ±
æĹ¥ |
æľŁæľŁåĩĨ |
ç¦ ®
æĭĴ ç»Ŀ
ç¾İ åħĥ
W D
åĿ Ĺ
å² Ĺ|
äºĶ åĪĨå½©
Ġçĸ ¯çĭĤ
Ġç¹ Ŀ
å² ³|
F ollow
æ¯ ķ
ç¼ º
Ġ0 äºº
Ġre commend
ä¿¡ |
çĬ ¹
H otel
Ġ4 5
Ġå¿« ä¸ī
ow n
éĵ ľ
Ġ an
ä¹ī å¸Ĥ|
æµ ģ|
M B
æĪĲ ç«ĭ
æ° ı|
æĶ¹ éĿ©
åĴ¨ è¯¢
ĠæĶ ¿
æ¶Īè´¹ èĢħ
å¹² |
çİ ī|
im g
Ñ Ĥ
ä¼¦ è´Ŀ
æĿ¥ |
è´ ¤|
ç¥ ĸ
æ³¨ æĦı
èĩ ³|
ç¥ ¥|
in t
D 1
å¼º |
æľºåĻ¨ äºº
çļĩåĨł ä½ĵèĤ²
ä¸¹ |
Ġæ¸ Ń
Ġåĩ¯åıĳ é¦ĸé¡µ
S ucc
t P
Ġæī ĳåħĭ
èµĮ çĲĥ
000 ',
ŀ åŁİ|
º |
æĮ ĳ
çĿ £
ĠåĲī æľ¨
Ġ3 8
æĿ¥ å°±éĢģ
S t
C H
å¤© çĦ¶
éĻĨ |
Ġé»ĳ é¾Ļæ±Ł
Ġb s
Ġé² ģ
åĿ ¡|
Ġrem ind
åĪ° ï¼Į
æī İ|
Ġatt ach
ĠCC åĽ½éĻħ
æ¶ ¨
è¿ ·
éĩ İ|
P ublished
Pro vince
åĳĬ è¯ī
åıĳè´¢ ç½ĳ
åĩ¤ |
Ġè ĭĹ
pc èĽĭèĽĭ
éĽħ |
çĴ ĥ
å¤ ·
Ġç Ŀ
ĠP l
åĨ³ å®ļ
ĠèµĮéĴ± çļĦè½¯ä»¶
Ġæ¥ ļ
Ġlof ter
a j
ä¼ł åªĴ
_s ingle
R o
Ġæ· Ħ
æ£ ĭ
6 æľĪ
Ġå¿ »
Ġçī Ł
V isitor
"). val
æľĢæĸ° çīĪ
ï¼Ĭ ï¼Ĭ
Id s:
none ',
Ġw66åĪ©æĿ¥ å®ĺç½ĳ
Ġ| ä¸¾æĬ¥
e ar
Y od
æļ ĸ
Ġist op
Ġm :2,
Ġb :2,
Ġ| åŃĹåı·
æĺ¾ç¤º ï¼Į
Ġè¿ Ľ
Ġ|åŃĹåı· å¤§ä¸Ńå°ı
ĠèĲ ¨
ermalink :'',
Ġlof tP
ĠloftP ermalink:'',
æ²Ļ å²Ľ|
æī¹ åıĳ
Ġç¹ ģ
æĪĲ éĥ½
Ġattach ments
set :'
Ġå¤§åıĳäºĶ åĪĨéĴŁå¿«ä¸ī
Ġgroup Info:{},
good night
Ġbs rk:-100,
Ġvote :{},
Ġs rk:-100,
Ġistop :false,
status:' un
Ġfriend status:'
Follow ',
Ġfriendstatus:' none',
status:'un Follow',
Ġis Black
New User
Ġvisitor Province
ĠvisitorProvince :'',
Visitor :false,
ĠisBlack Visitor:false,
Ġvisitor NewUser
ĠvisitorNewUser :false,
Ġis Published
ĠisPublished :1,
Ġfollow status:'unFollow',
Ġvisitor City
File Ids:
ĠvisitorCity :'',
Ġattachments FileIds:
ĠattachmentsFileIds: [],
ao Ad
ĠisShow Yod
ĠisShowYod aoAd
Ġpost Add
blog :false,
Ġpub Succ
Ġremind goodnight
ĠpostAdd Info:{},
ĠpubSucc :'',
Ġremindgoodnight blog:false,
Ġm con:'',
Ġpublis her
Ġm set:'
Ġmset:' 000',
Ġcurrent RecomBlog
ĠcurrentRecomBlog :false,
Ġlofter _single
Ġlofter_single :'
Ġä½ ¿
æ£ Ĵ
Ġå° Ħ
æĬ µ
åĩ¯åıĳ å®ĺç½ĳ
çļĦ æ£ĭçīĮæ¸¸æĪı
æĹħ è¡Į
Ġåĩ¯åıĳæīĭæľº app
èĬ ¬
Ġpublisher Id:0,
Ġre comBlog
ĠrecomBlog Home
Ġç§Ĵ ç§Ĵ
éĿĴå¹´ åīµæ¥Ńè²¸æ¬¾
_ app
æ³¨åĨĮ åľ°åĿĢ
ig n
Ġå¨ Ħ
I T
çĶ· åŃĲ
Ñ ģ
Ġp c
Ġå® ¢
é¢Ĩ åŁŁ
çĻ» ä¸įä¸Ĭ
ä½ĵ å½©
S E
æ¯ı æĹ¥
æĸ¹ ä¾¿
æĪ ´
function ()
ç¾ Ĭ
ç»ı èĲ¥
éĶ ĺï¿½
è»Ĭ è²¸
a u
çŁ ¿|
Ċ å®īå¾½
å®ĺæĸ¹ç½ĳç«Ļ ä¸ĭè½½
æīĢ ä»¥
çĶľèľľ ç´ł
å¤§ ä¼ļ
éĵ¶ åķĨ
ç¬¬ ä¸ī
Ġagçİ¯äºļ 88
ĠçľŁäººèµĮéĴ± æ¸¸æĪı
è¦ Ĩ
Ġå°Ĭé¾ĻäººçĶŁå°±æĺ¯åįļ å®ĺç½ĳ
Ġ2019-0 1
ĠåĢ ĭ
Ġag æĹĹèĪ°
ä¸ĵ å®¶
Ġè© ķ
çİ© å®¶
Ö Ģ
ĠrecomBlogHome :false,
_ è®¡åĪĴ
çĽĴ å®Ŀåħ¸
Ġæ´ ¥
å² ©
Ġéº ¦
Ġ1 å°ıæĹ¶åīį
ĠP ower
Ġåĩ¯åıĳ ç½ĳç«Ļ
ĠåĲĪ ä½ľ
Ġå ©
æ¸¸ å®¢
ĠåĪ©æĿ¥ æīĭæľºçīĪ
å·ŀ ç½ĳ
åĩł å¤©
Ġçĥ Ń
åľ¨çº¿ æĬķæ³¨
ĠæŃ¦ æ±ī
åŃĺ åľ¨
Ċ2020-0 8-0
ĠèĮ ĥ
åĸ ®
å¼ĢæĪ· ç½ĳç«Ļ
M P
° ï¿½
ãĢĤ çĽ®åīį
ä¸į ç»Ļ
o .
Ġè· Ŀç¦»
Ġ q
åħ¨å¤© è®¡åĪĴ
Ġæ¾³éĹ¨ æ¸¸æĪıå¹³åı°
å¯ »
æİ Į
å° İ
ç®Ģ åįķ
Ġ6 0
åŁ ĥ
ĠæĪĲ éĥ½
å¸¦ ä¸Ģè·¯
æ±Ł æĸ°éĹ»ç½ĳ
ĠçĶµåŃĲ æ¸¸æĪıå¹³åı°
éĩĳ å¸ģ
Ċ ?
åĬłçĽŁ ç½ĳ
ĠåĪ©æĿ¥ å®ĺæĸ¹ç½ĳç«Ļ
Ġè¶ ħ
04 æľĪ
åıĤ ä¸İ
æ¬¡æķ° ï¼ļ
æ£ĭçīĮ 365
éĺ³ åŁİ
Ġagçİ¯äºļ å®ĺç½ĳçĻ»å½ķ
æİ Ī
v ent
Ċ B
äºº äºº
å¾· å·ŀæīĳåħĭ
å¼ĢæĪ· åľ°åĿĢ
åıĸ å¾Ĺ
K T
æ³ķ éĻ¢
Ġèį Ķ
ç²¾ èĭ±
Ġæ¾³éĹ¨ èĳ¡äº¬
ä¼Ĺ è®®éĻ¢
Ġå· ¨
çļĦ ãĢĤ
Ġreserved .
çī¹ åĮº
å¢ Ļ
æīĭç»Ń è´¹
çİ© åĲĹ
Ġ4 0
é© °
é¦ĸ æ¬¡
å¿ĥ å¾Ĺ
Ġèı² å¾ĭå®¾
c 0m
åľ £
à¸ Ń
æĿŃ å·ŀ
o og
Ġå¿« é¤Ĳ
Ġæ¾³éĹ¨æĸ° éĵ¶æ²³
S B
Ġæ± ½
é ¾
äºº åı£
çĤ¹ c0m
Ġi os
çıł ç©Ĩ
or m
Ċ åĮĹ
A L
â ķ
Ġä» ª
1 æľĪ
it le
èģ Ĭ
æµ·å¤ĸ ç½ĳ
åĽŀ çŃĶ
é ĨĴ
at tr
c es
ł éģĵ
Ġ365betå®ĺç½ĳ å¨±ä¹Ĳåľº
èĻ ļ
è´ ¤
è¶ £
O H
Ġæīĺ åħĭ
Ġå¼Ģåħĥæ£ĭçīĮ æ¸¸æĪı
æĺ¯çľŁ å®ŀ
ç§¯ æŀģ
Ġå¤§åıĳä¸ī åĪĨéĴŁå¿«ä¸ī
åıĸ æ¶Ī
oog le
æŁ ĵ
éī Ħ
è´Ń å½©
Ġ3 å°ıæĹ¶åīį
Ġu u
ç»Ł è®¡
ĠéĴ Ł
Ġ or
ba idu
ç» ©
çľŁäºº èµĮéĴ±
åľ° ä¸»
" >
Ġåı¯ ä»¥
æ¤ Ĵ
æīĵ åį°
Ġåħ¨ çĲĥ
Ġå¤§åıĳäºĮ åĪĨéĴŁå¿«ä¸ī
çĤ¹ åĩ»
ic h
- 9
Ġ2 å°ıæĹ¶åīį
åĮĸ å¸Ĥ|
Ċ -
ç§Łè½¦ -
ä»¥ ä¸ĭ
ç¨³ èµ¢
ç½ĳåĿĢ å¤ļå°ĳ
éĢı è§Ĩ
Ġagäºļæ´² å®ĺæĸ¹
åĭ ŀ
6 8
Ćć ą
ĠåĽ ŀ
c L
Ġæ¾³éĹ¨ æ£ĭçīĮæ¸¸æĪı
Ġæ½ ľ
çĻ¾ ç§ĳ
Ċ è´µå·ŀ
åħ³ éĹŃ
Ġå± ¯
Ġæº §
5 åĪĨ
å¹¿ åľº
ä½į äºİ
Ġæľ¬æºª å¸Ĥ|
( {
ĠæĪĳ è¦ģ
Ġ4 å°ıæĹ¶åīį
m m
æĩ ī
c l
Ġæħ Ī
ĠæĹ¥ æľ¬
èĵ ®
åĬ ª
Ġhm con
å¨±ä¹Ĳ åľ¨çº¿
Ċ ï¿½
Ġ un
he ck
ä¹Į çıłç©Ĩ
Ġ356bet å¨±ä¹Ĳåľº
Ġ à¸
é¦ ħ
Ġäºļæ¸¸å®ĺç½ĳ åıªä¸ºéĿŀåĲĮ
Ġ365æ£ĭçīĮ èĭ¹æŀľ
Ġå® ½
á »
å¿ ł
è¯Ī éªĹ
Ł åİ¿|
éĢ Ĭ
æħ §
Ġ365æ£ĭçīĮ èĢģèĻİæľº
3 J
Ġ5 åĪĨæĹ¶æĹ¶å½©
ä¿Ŀ æĮģ
å¿«ä¹Ĳ 8
Ġæĸ Ĺ
é£Ł åĵģ
W V
åįĢ (
åľ ĸ
èİ· å¾Ĺ
åĪĨæİĴåĪĹ ä¸ī
Ġ5 å°ıæĹ¶åīį
ç®ĹçĽĺ å¼Ģå¥ĸç»ĵæŀľ
Ġ7 å°ıæĹ¶åīį
åĪĨå¿«ä¹Ĳ 8
è´« åĽ°
åĿ Ĳ
Ġ9 å°ıæĹ¶åīį
è®¡åĪĴ app
3 æľĪ
xz ZS
ç½ĳ åıĭ
Ġ6 å°ıæĹ¶åīį
Ij pm
YW xzZS
Ijpm YWxzZS
èĻ ½
Ġ î
æīĭæľº ç«¯
ä¹Ĳ åĽŃ
Ġ8 å°ıæĹ¶åīį
ation al
åį« æĺŁ
ç»ĻåĪ© çļĦèĢģçīĮ
- 7
è· ³
Ġæ½ ¼
ĠçľŁéĴ± çº¿ä¸Ĭ
Ġç¾İ åĳ³
è ¤
cc åĽ½éĻħ
ĠæĦ ı
Ġèĥ ¶
Ġæ¸ħ çľŁ
â Ĩ
åĵ ¡
Ċ 9
a )
Ġæĸĩ ç«ł
çīĪ æĿĥ
C D
åģ ı
åĪ© æģ¯
ç½ĳåĿĢ å¤ĩçĶ¨çĻ»å½ķ
æĹıèĩªæ²» å·ŀ
RecomBlog Count
Ġself RecomBlogCount
èĥ Ĩ
ĠæŀĹ èĬĿ
å«Į çĸĳ
ç¡ Ģ
8 æľĪ
Ġè¡ ¢
ĠæĿ¨ åĽ½ç¦ıéº»è¾£çĥ«
A X
ä½ľ åĵģ
æ²³ åįĹ
baidu .com/
16 æĹ¥
åĽ½ ä¼ļ
lo ad
ãĢĳãĢĲpãĢĳãĢĲ> ãĢĳãĢĲ
Ġå¨ ĺå®¶
çĦ ¡
åĲ ķ
æ¹ ĥ
å¸ ķ
é¢ ¨
b t365
å¨ ľ
ĠçĭĹä¸ĩ æ»ļçĲĥ
u g
é¦ĸ éĢī
8 3
æĥ Ĭ
Ġ0 å°ıæĹ¶åīį
ä¸ĭè½½app åľ°åĿĢ
é¦ħ é¥¼
ĠæĪĳ æĥ³
Ġè® °
è´Ń çī©
çºª å¿µ
uu å¿«3
çº¢ é»ĳå¤§æĪĺ
ĠçĽ Ī
Ġæ¡ ĳ
Ġåı° æ¹¾
ä½ł çļĦ
17 æĹ¥
æĦı è§ģ
ĠæĹ©çĤ¹åĬłçĽŁ è¿ŀéĶģ
ol or
Ġæ ¾
ãĢĳãĢĲ /
ç¹Ŀï½ ³
åĬŀ åħ¬
è¯´ æĺİ
10 åĪĨå½©
é ³
èģ ŀ
è®¤ä¸º ï¼Į
æļ´ åĬĽ
éĬĢè¡Į è²¸æ¬¾
ä¸ľ è¥¿
Ġè¿ ģ
77 7
æīĭæľºå®¢æĪ·ç«¯ app
Ġäºļç¾İ çľŁäºº
æĺ¯ æŃ£è§Ħ
Ġå¿« ä¹Ĳ
å¤ĸ äº¤
ou se
ï¼Į å°Ĩ
365 ä½ĵèĤ²åľ¨çº¿æĬķæ³¨
ï¼Į è®©
Ġéķ¿ æ²Ļ
å¸ ĸ
æĸĩ æĺİ
Q L
Ċ N
éªŀ ï¿½
Ġçİ¯äºļ æīĭæľº
åľ¨çº¿ ä¸ĭè½½
Ġç¥ŀ åĨľ
æĿ¯æĬķæ³¨ 365
a ct
. html
åĪ© çĽĬ
Ġéĵ¶æ²³ åĽ½éĻħ
ĠselfRecomBlogCount :'0',
Â ł
é¦ħé¥¼ åĬłçĽŁ
201 8-0
è¯ ĳ
åĨħ èĴĻåı¤
Ċ çĻ¾åº¦
ä¹Įçıłç©Ĩ æ²ģæĹĹ|
Ġ$("# resp
å½©ç¥¨ app
ç½ĳ çĲĥ
y ou
Ġåĩ¯åıĳå®ĺç½ĳ åħ¥åı£
Ġæľ ª
Ġåħ¬ åı¸
Ġä¼ ģ
Ġæ³ ¢
Ġ201 0
é±¼ åĦ¿
ĠC P
çĽ´ æİ¥
æĺ¯ ä¸Ģ
æĺ¯çľŁå®ŀ åĲĹ
åĨ »
Ġçİ¯äºļçĶµæ¸¸ æĥ³èµļå°±è½¬
Ġw e
Ġç§ĴéĢŁ æĹ¶æĹ¶å½©
è§Ĥ å¯Ł
C C
Ġw as
ĠèĵĿ æľĪäº®
è¿ŀ æİ¥
con d
èĻ ĳ
7 æľĪ
å±ŀ äºİ
å»º çŃĳ
Ħ ĥ
Ġè± ¡
ĠI nt
æ¾³ å¤§åĪ©äºļ
Ġ2020-0 5
åľ¨çº¿ å¹³åı°
ĠèĪ ŀ
åį« çĶŁ
æĹħæ¸¸ ç½ĳ
Ġçİ¯äºļ æīĭæľºä¸ĭè½½
äºĨ ãĢĤ
Ġåħ³ äºİ
Ġy our
p ZH
åĲį |
æ³ķ å¾ĭ
ro om
æī ĳ
å¯¹ æŃ¤
Ġm an
å¦ Ī
ä¹ĭ ä¸Ģ
èħ Ĳ
5 åĪĨå¿«3
I OS
Ġ5 8
ç§ ¦
Ġå· ©
ç½ĳ æĺĵ
Ġå¤ĸåĽ´ è¶³çĲĥ
åįĩ çº§
éĤ ±|
éļ Ľ
Ġç¤ ¼
è³¼ å±ĭ
Ġag 88çİ¯äºļ
Ġmain Comment
åİ ¢
ä½ı å®¿
9 æľĪ
or k
åıª æľī
äººçĶŁå°±æĺ¯ æĲı
æĺ¯ä»Ģä¹Ī ç½ĳç«Ļ
Ġè½¬ åıĳ
Ĉ ć
Ġ3 2
è¿Ļ ä¸Ģ
çĽŁ |
ä¸į åĩº
ä¸Ńæĸĩ ç½ĳ
Ġ ä¾Ŀ
Ġå¹¿ åĳĬ
Ġ365æ»ļçĲĥ çĽĺ
ĠéĦĤ å·ŀ|
å»º ç«ĭ
I R
æľª çŁ¥
Ġ4 8
Ġåĸ ľ
èµ° åľ°
Ġæī ĵ
Ġæĸ°å·´å°ĶèĻİ å·¦æĹĹ|
æľ¬ ç«Ļ
Ċ2018-0 1
ç¹ ģ
Ġè ķ
é«ĺ éĢŁ
éĥµ ä»¶
ç¨ĭ åºı
åĮ» çĸĹ
Ċéĺħè¯» (
ad d
Ġæĭ ľ
ĠåħĭæĭīçİĽä¾Ŀ |
å¹¿ ä¸ľ
Ġ3 4
æ©Łè»Ĭ åĢŁæ¬¾
è®® åĳĺ
æľĢæĸ° ä½ĵèĤ²
éģ ĭ
A pp
Ġag å®ĺæĸ¹
é ¾Ħ
çĻ»å½ķ é¦ĸé¡µ
ĠagåĽ½éĻħäºļæ¸¸ å®ĺç½ĳ
' )
çľŁ æŃ£
Ġè½¬åıĳ (
å¼Ģ å±ķ
pl ay
Ġâ ĸ
ï¿½ |
ra ct
åŃĲ éĥµä»¶
åĿ ı
ç¹Ŀï½ ¼
Ġçģ ¯
Ġä¸Ń å¼ı
ç§ ĭ
è¿Ļ éĩĮ
1 .2
åŃĺ éĴ±
åĽŀ å¤į
Ġå³¨ çľ
å½ĵ |
æĮĤ çīĮ
ç¶² ç«Ļ
æ¯ĶåĪĨ ç½ĳ
å¿ħ é¡»
Ġ5 00
Ċ M
sc ript
Ġå¯ŁåĵĪå°Ķåı³ç¿¼ ä¸ŃæĹĹ|
Ĳ å±±|
å¤§å°ı åįķåıĮ
æŃĮ è¯į
èİ² |
é¹ ¿|
çĩķ çªĿ
Ġw66.com åĪ©æĿ¥
çĶµ åı°
.C ompany
Ġk gå¼Ģåħĥæ£ĭçīĮ
æĺĮ å¸Ĥ|
åĽĽ èĤĸ
è¿Ĳ èĲ¥
ä¸Ģ é¡µ
çĭ ®
æľī app
Ġå¯ŁåĵĪå°Ķåı³ç¿¼ åīįæĹĹ|
Ġ ä»£çĲĨ
éķ ·
Ġæµİ åįĹ
Ġå°Ĭé¾Ļd88 ç½ĳåĿĢ
é²ģ æľ¨
Ġbet365 å¨±ä¹Ĳåľº
Ġç§ĳå°Ķæ²ģå·¦ç¿¼ åĲİæĹĹ|
Ġç§ĳå°Ķæ²ģåı³ç¿¼ ä¸ŃæĹĹ|
æ¹ĥ æĸ°éĹ»
Ġè°ģ æľī
é²ģæľ¨ é½Ĳ
èĺ Ń
l ine
_ æ³¨åĨĮ
ç¦ ¾|
Ġæīĳåħĭ ä¹ĭæĺŁ
app å®ĺæĸ¹ä¸ĭè½½
Ġçİ¯äºļag 88
Ċ æĸĩç«łæĿ¥æºĲï¼ļ
å¹ »
è¶ħ è¿ĩ
ĠèĮ ¶éĻµ|
Ġè´µ å·ŀ
ä¸ĩåįļapp )
åĳ¨ åĪĬ
å¼Ģ æĶ¾
çļĦ app
Ġç ª
Ġç§ĳå°Ķæ²ģå·¦ç¿¼ ä¸ŃæĹĹ|
ar y
er e
ĠIn n
æ»ļçĲĥ çĽĺ
Ċæ¹ĸ åįĹ
Ġal ert
æĭħ ä¿Ŀ
re e
ou s
Ġèµ µ
Ġå· ²
ç¥ Ŀ
é©¬ æĬ¥
æļ Ĺ
è® ¨
Ġæ¾³ åįļ
Ġ365ä½ĵèĤ² ç½ĳæĬķ
ĠĠ ĠĠ
åı° åĮĹ
r and
Ġ3 1
Ġfalse ;
Ġæ¾³éĹ¨ å¨ģå°¼æĸ¯äºº
çİ¯äºļçľŁäºº æ¸¸æĪıå¹³åı°
Õ ¸
ç»ı çĲĨ
} }
i o
èĲĦ äº¬
i ver
çī¹ åı³æĹĹ|
è¦ ½
Ġæĺ Ĥ
éĺ »
Ċ çī¹èī²
G L
åľ° ä¸ĭ
¿ ¥
Ħ à¸
å¸ «
èī ¾
Ġ5 5
ĠU n
å®¶ åºŃ
éĹ®é¢ĺ ï¼Į
å¸® åĬ©
èĢ Ģ
eng th
Ġçº ³
Ġ4 9
s .com
Ġç¼ĸ è¾ĳ
èĪ ĩ
äºº çī©
äºº å£«
Ġ365ä½ĵèĤ²æĬķæ³¨ æıĲæ¬¾
Ġ201 1
o Z
ë ĭ
æģ ¶
Ġæł ¼
n er
åĳ¨ å¹´
çı¾ éĩĳ
G H
Ġä½ ı
åħī æĺİ
ĠåĮ º
Ġéĺ¿ åĭĴ
Ġn ot
Ġç±» ä¼¼
/ æĹ¥
Ġçĥ Ł
ç´ ¹
Ġäºļæ´² çİ¯äºļçľŁäººæ¸¸æĪıå¹³åı°
Ġ10 0
Ġå°Ĭé¾Ļå¤ĩçĶ¨ å¼ĢæĪ·
é«ĺ æ¸ħ
Ġçķ Ļ
Ġè Ķ
æĲ Ń
æľĢ ç»Ī
ç»ı è¿ĩ
Ġ Ĉą
åŁº ç¡Ģ
éĵģ è·¯
Ġ3 åĪĨæĹ¶æĹ¶å½©
Ċ (
E N
ĠéĹ ½
Ġ5 1
è ¹
æĶ¶ èĹı
ĠäºĶ èĬ³æĸĭ
æĢ» ä¹¦è®°
æľĢä½³ çľŁäººæ¸¸æĪı
. in
äºĶ å¤§
appä¸ĭè½½ å®īè£ħ
Ġ365bet å¨±ä¹Ĳåľº
S P
æ£ĭçīĮ å®ĺç½ĳ
Ġè¿ Ĳ
å®īåįĵ appä¸ĭè½½
ĠæŀģéĢŁ èµĽè½¦
çĭ Ĳ
ä»» åĬ¡
ãĢ İ
l x
ç½ ļ
ĠäºļæĲı è§Ĩé¢ĳ
èµĦæŀ ĵå¤§åħ¨
Ġå¤§åıĳå¿«ä¸ī å½©ç¥¨
ç»´ ä¿®
ĠâĢ ¦
Ġåµ Ĭ
åĸ Ģ
çĤ¹ åį¡
6 5
Ġåĩ¯åıĳæ³¨åĨĮ å¹³åı°
çī© æµģ
8 ä¸ĭè½½
Ġ1 åĪĨæĹ¶æĹ¶å½©
Ġçİ¯äºļ æľĢä½³çľŁäººæ¸¸æĪı
ä¾ µ
Ä Ł
id er
éĿłè°± ä¹Ī
ç½ĳä¸Ĭ æ³¨åĨĮ
Ġbet365 æıĲæ¬¾
é¼ ĵ
æľĢå¤§ çļĦ
åľ¨çº¿ è®¡åĪĴ
æĮĩ å®ļ
éª ¨
åŃ Ļ
Ġblog Tag
å¤©çĦ¶ æ°Ķ
Ġéĺ¿ èį£
åħ¬ åĽŃ
éł Ń
of f
a f
re m
ĠblogTag :'',
æ£® æŀĹ
Ċèį Ĩ
é¦ ¬
ä»ĭ ç´¹
ä»¥ æĿ¥ï¼Į
éĢ ĥ
è¡Ĺ æľº
çº¿ä¸Ĭ å¹³åı°
å¸ Ŀ
Ġæĺ¾ ç¤ºåħ¨éĥ¨
å¹´ åº¦
Ġ9 0
I V
Ġå¼ ¥
åħ¨ æ°ĳ
åĽŀ å½Ĵ
çŁ³ ç£Ĭ
Ċ éĻķè¥¿
å© ´
Ġåĩ¯åıĳ å¤ĩçĶ¨
åľ¨çº¿ å®ĺç½ĳ
æ°´ å¹³
Ġå· «
of t
å®īåįĵ ä¸ĭè½½
Ð ½
ä¹Ĳ å½©
Ġ6 4
Ġäºļæ¸¸ å®ĺæĸ¹ç½ĳç«Ļ
ç¦ı å»º
æł¼ éĩĮ
C lass
çģ ¾
Ġçİ¯äºļag çĶµæ¸¸
U D
ĠæĽ´ å¤ļ
ç´ ¯
J hb
Ġ9 4
éģ ¿
æ¡ ĳ
äº Ī
Ġag çĽ´æĴŃ
ĠåĪ©æĿ¥ ç½ĳç«Ļ
Ċ ä»ĬæĹ¥
à¸ ¥
ĠçŁ³ å®¶åºĦ
å¤ļä¹ħ åĪ°
Ġå¯ »
æĪĳ çļĦ
Ġç¶ ²
åĽ¢ éĺŁ
çĶŁ æĢģ
æľĿ é²ľ
Ġagçİ¯äºļ å®ĺç½ĳå¹³åı°
èĭ ¥
èĥ½ åĬĽ
Ġçİ¯äºļçĶµæ¸¸ å¨±ä¹Ĳå®ĺç½ĳ
Ġçİ¯äºļ 88
è²¸æ¬¾ çİĩåĪ©
Ġæ¾³éĹ¨ èµĮæĲı
èİ Ĭ
ï¼Į æ¯ı
éĩ Ĭ
æľ¨ èĪĴ
ï¼Į ç¾İåĽ½
Ġå² ĳ
Ľ ï¿½
Ġéĺ¿èį£ æĹĹ|
12æľĪ 21æĹ¥
Ġ{ {
æĿ Ĥ
Ġagçİ¯äºļçĶµæ¸¸ å®ĺç½ĳ
e ct
Ġçİ¯äºļéĽĨåĽ¢ æīĭæľºçīĪ
Ġä¼ ĺ
Ġå¼Ģ å¥ĸ
åıĭ æĥħéĵ¾æİ¥
Ġ365ä½ĵèĤ²æĬķæ³¨ å¹³åı°
å¯¹ äºİ
éº» å°Ĩ
Ġå°Ĭé¾ĻäººçĶŁå°±æĺ¯åįļ æĹ§çīĪ
Ġç£ Ĳ
æĹĹèĪ° ä¸ĭè½½
ï¼Į è¿ĺ
è½¦ |
ä¿® å¤į
è¿Ĳ åĬ¨
O R
ï¼Į ä»İ
å·¥ç¨ĭ å¸Ī
9 1
3 00
Ġå¤§åıĳ åįģ
E X
ĠæŀģéĢŁ é£ŀèīĩ
ĠåĽ¾ æľ¨èĪĴ
Ġ3 7
è®¾ æĸ½
åĪĨ èµĽè½¦
ĠagçľŁäºº åľ¨çº¿
ï¼ ĳ
Ġ4 4
Ġä½¿ çĶ¨
Ġ z
æ¾İ æ¹ĥæĸ°éĹ»
Ġæ¾³éĹ¨åħŃ ä¸ĭ
A B
ĠagçľŁäºº æ¸¸æĪı
ĠæĹ ¬
Ġæł ¾
çĮ ª
åħ¬ åĳĬ
Ġæ± ¾
C N
å¼º è°ĥ
Ġæ· ³
çİ°éĩĳ å®ĺç½ĳ
æ·» åĬł
Ġæ¾³éĹ¨ ç½ĳç«Ļ
Ġä¹ ħ
Ġæ± ¶
è§Ħ åĪĴ
2 N
Ġ8 5
Ġå° ī
éĽ Ļ
Ġè´ ¢
Ġæ¹ Ł
U F
A b
åħĥ èµ·
Ġæ¡ ĵ
Ġ äººçĶŁå°±æĺ¯åįļ
Ġæ¾³éĹ¨ æĬķæ³¨
ĠæŁ ĺ
åıĺ åĮĸ
Ġçĸ ı
å½ĵ å¤©
å¸Ĥ æ°ĳ
èŃ ·
ç±» åĬłçĽŁ
te d
æ³¨åĨĮ é¦ĸé¡µ
åı° åİ¿|
Ġå¤© å³
Ġåı ¶
çĽ´èĲ¥ ç½ĳ
if y
æµ ł
Ġæ² ħ
Ġæ¶ ŀ
is c
( ä¸ĩåįļapp)
æ¶ §|
Ġæ² ¾
ç»Ł æĹ©é¤ĲåºĹåĬłçĽŁ
æ¯ĶåĪĨ 365
t d
æĢ» éĥ¨
éĤ£ ä¹Ī
3 2
åĨį æ¬¡
i re
Ċ ç¾İåĽ½
äº¿ åħĥ
Ċæ±Ł èĭı
ĠæĪ ĸ
Ġç Į
ĠåĵĪ å°Ķ
çļĦ å¤§
Ġ365bet æıĲæ¬¾
æ» ĳ
æĶ¾ å¿ĥ
at h
Ġâ Ķ
Ġæ¶ Ł
Ġæİ ª
åŃ ľ
Ġtr ue
æī¾ åĪ°
åħįè´¹ è®¡åĪĴ
é ŀį
ç¾¤ ä¼Ĺ
Ġæ² ¹
Ġç¾İ åĽ½
å¤®è§Ĩ è®°èĢħ
Ġbet36 ä½ĵèĤ²æĬķæ³¨
s ,
å± ¯
æı ¡
Ġèį ¥
æĸĩ åŃĹ
éĴĪ å¯¹
ä¸Ģ æľŁ
ĠAGçİ¯äºļ ç½ĳåĿĢ
ç² ®
Ġ365betå®ĺç½ĳ æıĲæ¬¾
è§Ħ æ¨¡
è®¸ åı¯
Ġag ä¸ĭè½½
Ġc an
ä¸Ģ å®ļ
l ength
ç¡ ¬
a z
Ġal l
Ġrecommend Count:0,
çĽ® æłĩ
st ract
Ġ9 8
çĬ¶ æĢģ
ĠisShowYodaoAd :false,
æĪĸ èĢħ
Ġæĸ° å®¾|
çŁ ¿
Ġèħ¾è®¯ åĪĨåĪĨå½©
4 -10
Ġagçİ¯äºļ å¤ĩçĶ¨ç½ĳåĿĢ
é«ĺ éĽĦ
æ³ķ åĽ½
Ġbet .
b t
å¿« éĢĴ
å¹ ħ
çĽĳ ç®¡
éĩĮ å·´
O B
ãĢ ı
is h
åĪĽ æĸ°
Ġè¿ Ļ
åĪ¶ è£ģ
Ġw66åĪ©æĿ¥ æīĭæľºapp
éľ į
åı¯ ä¿¡
åıĤ è®®éĻ¢
ļ Į
éĬĢè¡Į ä¿¡è²¸
ä¸ĩåįļ ä½ĵèĤ²app
å¨±ä¹Ĳ ä¸ĭè½½
å¯ ¿
æĪĺ çķ¥
ç ĺ
åĩº åĶ®
Ġå°Ĭé¾Ļ ä¸ĭè½½
ĥ å£°
I nt
2 l
Ġäºļæ¸¸ ç½ĳåĿĢ
é© Ĺ
ä½ľ æĸĩ
éĬ ·
çľĭ åĪ°
Ġ `
G D
ãĢĤ æŃ£æĸĩå·²ç»ĵæĿŁï¼ĮæĤ¨åı¯ä»¥æĮīalt+4è¿Ľè¡Įè¯Ħè®º
èµ¶ éĽĨ
å®ŀ åĬĽ
èĦ± è´«
Ġ2 .0
æ¶ ¯
Ġm y
è¢ Ń
Ġè¥¿ çĶ²
Ġç¦ Ħ
Ċ æĺĨ
ãĢĳãĢĲ l
ãĢĳãĢĲ aãĢĳãĢĲ
Ġ6 5
çĶ³ è«ĭ
Ġå¥ ĩ
äºĭ å®ŀ
m p
' s
ĠçĭĹä¸ĩ -
Ġå°Ĭé¾Ļ äººçĶŁ
Ġag ç½ĳæĬķ
ç½ĳç»ľ å¹³åı°
Ċ æĹ¶éĹ´:
ĠçĶ ¨
èĢĥ è¯ķ
d H
æ³ µ
ĠåĨ ľ
æľĢ å¤ļ
M F
9 6
Ġ1 åĪĨpk10
???? ????
Ġä½ĵèĤ² 365
åºĶ çĶ¨
æ¾ ¶
Ċæ¹ĸ åĮĹ
å±ķ ç¤º
Ċ éĩĳ
ä¸»å¸Ń ä¹łè¿ĳå¹³
Ļ åİ¿|
åĪĨ é¡ŀ
èĪª ç©º
èģĮ ä¸ļ
Ġå ł
Ġagçİ¯äºļçĶµæ¸¸ ç½ĳåĿĢ
ĠéĤ ¢
å«Įçĸĳ äºº
Ġå°Ĭé¾Ļ æĸ°çīĪ
Ġ en
Ġçİ¯äºļ çĻ¾å®¶ä¹Ĳ
çº ½
âĢķ å¤§åıĳ
Ġag çĻ»å½ķ
Ġçº¿ä¸ĬçľŁäºº åıĳçīĮ
Ġæľī ä»Ģä¹Ī
éĹª éĢĢ
Ġd o
Ġ4 6
Ġ( )
ĠagåĽ½éĻħåİħ ä¸ĭè½½
Ċ W
æģ ¢
éªĹ åŃĲ
åĬŁ èĥ½
å°ıé¡į ä¿¡è²¸
ĠçĻ ¼
æ¡ĥ åľĴ
ĠPower ed
Ġç ¾
åĲ ¨
éĻ¤ äºĨ
æķħ äºĭ
Ġ6 8
Ċ åķĨ
æĬ ±
Ġè¿ŀ éĶģ
å° ĸ
Ġ8 0
æļ Ĥ
èª ª
10 00
å®¹ æĺĵ
à¹ Ī
Ġçİ¯äºļ ä¸ĭè½½
er ies
èģĶåĲĪ åĽ½
åĪĨå¿«ä¹Ĳ åħ«
ç©º éĹ´
åŃ¦éĻ¢ âĸ³
é¢Ħ è®¡
ãĢĤ æŃ¤
è¡ ĵ
çķ ħ
åĪ¶ ä½ľ
èħ ¦
æ Ł³
åıĤ èĢĥ
Ĥ ¬
ä¸ļ åĬ¡
èĲ¥ |
Ñ Ģ
js on
éĻ ·
Ġ3 3
Ġä¹¦ åºĹåĬłçĽŁ
æĶ¶ åħ¥
ä¸į æĸŃ
Ġ9 5
Ġå¼Ģåħĥæ£ĭçīĮ çĤ¸éĩĳèĬ±
åĸľ æ¬¢
æ¨ £
åıĳ è¨Ģ
Ġå° Ĩ
Ab stract
æīĭæľºçīĪ å®¢æĪ·ç«¯
å·ŀ äºĮæīĭè½¦
Ġç« ŀ
Ġä¹ ¾
æĹĹèĪ° çīĪ
2017 å¹´
å¸ ½
t ype
å¨±ä¹Ĳ æ³¨åĨĮ
Abstract :'
te xt
Ġ2020-02-2 5
å®ī æĸ°éĹ»ç½ĳ
m F
æĤ £
æľįåĬ¡ åĻ¨
çĬ¯ ç½ª
æ¶ ²
é©¾ é©¶
ĠæĿ ±
Ġæ¾³éĹ¨ çļĩåĨł
å¿« æĬ¥
è¢« å°ģ
å¢ŀ åĬł
èĻ Ł
Ġd88å°Ĭé¾Ļ å¤ĩçĶ¨ç½ĳåĿĢ
éĢī æĸĻ
åħ±åĴĮ åĽ½
ag åıĳè´¢ç½ĳ
Ċ ç¾İ
å¨ ģ|
Ġæĺ¾ç¤ºåħ¨éĥ¨ æ¥¼å±Ĥ
åĬŀ æ³ķ
Ġéĩĳ æ²Ļ
ç»¿ èī²
Ġç ³
Ġç½ĳä¸Ĭ çĻ¾å®¶
éģ Ķ
åħ¨ æĸĩ
èĳ £
åįĵ äºĳ
â ĺħ
r c
v ar
åı¯ä»¥ ä¹°
æľī äºº
nt i
è½ ¨
ï¿½ _
Ċ2019-0 7
ite m
Ċä¸ŃåĽ½ è¥¿èĹı
aj ax
Y P
åĪ¶ åº¦
Ġèıłèıľäºº çĶµç«ŀ
ç ŀ
W J
è¿Ĳ è¾ĵ
æĬ ½
çľŁéĴ± æ£ĭçīĮ
Ġæ ¾İ
Ġé¹° æ½Ń|
ĊæĤ¨ çİ°åľ¨
å¿«ä¹Ĳ 10åĪĨ
UU å¿«ä¸ī
Ġå¤§åıĳ 2åĪĨå½©
ï¼ļ 0
éªĹ äºº
æľį åĭĻ
Ġæģ ¯
3 )
éīĦ ç®ĹçĽĺå¼Ģå¥ĸç»ĵæŀľ
åĵªä¸ª å¹³åı°
åį Ķ
c ation
éĥ¨ |
Ġéļ ı
at es
Ċ L
Ċ æīĭæľº
çĩ ĥ
åĩºçīĪ ç¤¾
Ġ365ä½ĵèĤ² å®ĺç½ĳ
G F
Ġ6 7
æ±Ł è¥¿
s un
ĠçĻ¾å®¶ åĪ©
Ġçİ¯äºļ æ¸¸æĪıå¹³åı°
Ġag å®ĺç½ĳ
« |
å°Ķ å¤ļ
æıĲ |
æ£ĭçīĮ appä¸ĭè½½
å¢ ¨
Ġä¸ľ è¥¿
Ġ& &
ä¸º |
ç¸ º
s l
æĹħ é¤¨
Ġ356bet æıĲæ¬¾
Ġé Ń
Ġèİ Ĵ
è´ ·
Ġ7 7
M N
· åİ¿|
å·¦ åı³
Ġç§ Ģ
Z X
ç½ ķ
âĢĿ âĢľ
ãĢĳãĢĲ ;ãĢĳãĢĲ
æĹ¶æĹ¶å½© å¹³åı°
Ġæ½ į
å¾Ī å¿«
åĳ¨ |
Ġä¿¡èªī å¥½çļĦ
ä¾ ¦
Ñ ĥ
1 ',
è¶³çĲĥ æ¯ĶåĪĨ
O X
By Id
åĶ Ĳ|
22 æĹ¥
ãĢĳãĢĲ 2ãĢĳãĢĲ
V I
å¡ŀ |
æĿ¥ è¶Ĭ
Ġè¥¿ å³¡|
å®ĺæĸ¹ä¸ĭè½½ ç½ĳç«Ļ
Ġçİ¯äºļçĶµæ¸¸ ä¸ĭè½½
å·¥ ä¸ļ
å°±æĺ¯ åįļ
åŁ Ķ|
åĬĽ éĩı
é¥® åĵģ
ĠA N
Ġ5 åĪĨpk10
çĥ §
Ġ5 4
ĠåĪ©æĿ¥ æ£ĭçīĮ
è¼ ī
ï¼Į çĽ®åīį
æ¯Ķ è¾ĥ
é¹ ı
ç¿ °
ç½ĳç«Ļ _
æĭ ¥
Ġå³¨çľ īå±±|
ar ch
è¶Ĭ æĿ¥è¶Ĭ
à¹ ī
éĺ ¶
æµıè§Ī åĻ¨
Ġä¸ľè¥¿ æ¹ĸ|
(" #
Ċ G
Ġåĵª éĩĮ
è©ķ åĥ¹
p b
çĶ± äºİ
éĦ ī
è¿Ļ ç§į
Ġblog Abstract:'
Ġåŀ ¦
æĿ¥ åĪ°
Ġagçİ¯äºļéĽĨåĽ¢ å¨±ä¹Ĳ
Ġè »
çĶŁ åĳ½
éº ¦
è§£ æĶ¾
ä¸Ģ ãĢĳãĢĲ
æİ¨èĸ¦ ,
æĻ® éĢļ
åīį ï¼Į
çľĭ æĸ°éĹ»ç½ĳ
Ġä¹Įæĭīçī¹ åīįæĹĹ|
è¯Ħ çº§
æ£ ł
Ġagçİ¯äºļ æīĭæľºçīĪ
æīĢ åľ¨
app æīĭæľºçīĪ
èĴ Ĥ
ĠåľŁé»ĺ çī¹å·¦æĹĹ|
è¯¦ æĥħ
åı· ï¼ļ
Ġä¹Įæĭīçī¹ ä¸ŃæĹĹ|
- ä½ĵèĤ²æĬķæ³¨
Ġèĭıå°¼ çī¹å·¦æĹĹ|
æıĲ é«ĺ
éĿŀ æ³ķ
Ġéĺ¿æĭīåĸĦ å·¦æĹĹ|
n ews
ĠéĤ ĵ
Ġagäºļæ´²åĽ½éĻħ æ¸¸æĪı
Ċçľĭ çľĭæĸ°éĹ»ç½ĳ
Ġ3 9
åĴĮ åİ¿|
ä¸² ä¸Ģ
éĩį çĤ¹
åĺ ´
æľĢ å¥½çļĦ
æĹ©çĤ¹å°ıåĲĥ åĬłçĽŁ
åĪĨ æľŁ
æ¶ī å«Į
Ġæ² ¿
éĩĩ åıĸ
è³¼å±ĭ åĦªæĥł
ä¹¡ åİ¿|
< ãĢĳãĢĲpãĢĳãĢĲ>ãĢĳãĢĲ
Ġå¤§åıĳæĹ¶æĹ¶å½© æĺ¯
â Ħĥ
Ġåĩ¯åıĳå®ĺç½ĳ æīĭæľºçīĪ
. d
Ġä»Ĭ æĹ¥
å²ģ çļĦ
¥ ï¿½
Ġåĭ Ĳ
èĪ ¬
åľ¨çº¿ ç½ĳæĬķ
am p
æ¢ ¯
å¹¿ è¥¿
ä¸Ń æĸ¹
sp an
Ġå¾® ä¿¡
åıį å¯¹
åįļ çī©
åī ²
o x
éĤ Ħ
Ġagçİ¯äºļ æĹĹèĪ°
Ċå½ĵåīį ä½įç½®:
åı¬ å¼Ģ
ä¸ĩ äºº
Ċ F
Ġ7 0
è ŀ
ç¢ ¼
æĬ¥ ãĢĭ
æĬķ è¯ī
Ġ2018 éªŀï¿½
İ è«ĸ
æľīåĵªäºĽ l
å®ĺç½ĳ _
ģ ï¿½
Ġ5 6
ä¼ļ |
i LCJ
= '
æ±Ĥ èģĮ
ä¸» é¢ĺ
èº«åĪĨèŃī åĢŁéĮ¢
çĶ¢ åĵģ
ĠçĿ ¢
Ġagçİ¯äºļ æīĭæľºå¹³åı°
æī «
\ n
Ġåµ ©
èģĮ ä½į
Ċ é¦ĸéłģ
æ¡ £
Ġä¹Į é²ģæľ¨é½Ĳ
A F
U L
s o
çĶ³ åįļ
Ġå¤ ´
Ġåıĳå¸ĥ æĹ¶éĹ´ï¼ļ2019
ä»ĸ çļĦ
éĻ ¶
ä¿¡èªī ç½ĳ
Ġè¯ ¸
Ġç§ĴéĢŁ èµĽè½¦
U J
å¹³åı° _
o ol
\ /
Ġå¤©ä¸ĭ çİ°éĩĳç½ĳ
æĢİ éº¼
éģĵ |
åĽ¾ |
F wv
è¿ Ī
20 æĹ¥ï¼Į
ĠåĢĭ äºº
en ce
Ġæµ Ļæ±Ł
Ġç» ´
Ġäºĳ åįĹ
åľ¨çº¿ çĻ»å½ķ
åħī ä¸´
4 å¹´
10 å¤§åĵģçīĮ
Ġc om
Ġ( 1)
Ġæľ į
< /
Ġèģ Ĭ
Ġçİ¯äºļçĶµæ¸¸ å®¢æĪ·ç«¯
ä¸į è¿ĩ
Ġåĩ¯æĹ¶ app
m g
æĹıèĩªæ²» åİ¿|
an ce
æ¯Ľ åįĵäºĳ
Ġå² ļ
E V
è¿Ľ åİ»
Ġ7 8
çĨ Ł
ĠäººçĶŁå°±æĺ¯åįļ d88
æı Ĵ
ï¼ į
å·¥ä½ľ äººåĳĺ
åĲį æĹ©é¤ĲåĬłçĽŁ
Ċ çİ¯çĲĥç½ĳ
åĪ© çĶ¨
H e
éĿ¢ å¯¹éĿ¢
(" script
Ġ9 1
hm t
éĩĮå·´ å·´
Ġ5 7
Ġ_ hmt
er r
Ġå² ±
æ²³ ç½ĳ
nti Ad
Ġæ¾³æ´² å¹¸è¿Ĳ
ä¸º äºĨ
ç¾ ©
å¤« åŃĲæĹ©é¤ĲåĬłçĽŁ
ï¼ī ï¼Į
Ġ365æ£ĭçīĮ æ°´æŀľ
éŃ Ķ
Ġæ ©
ä¿® æĶ¹
çº¿è·¯ æ£Ģæµĭ
20 00
Ġåĩ¯åıĳ ä¸»æĴŃ
ĠæĶ¶ èĹı
Ġ2020-02-2 6
æľĢæĸ° é¦ĸé¡µ
åĲ Ľ
âĢľä¸Ģ å¸¦ä¸Ģè·¯
é¥®åĵģ åĬłçĽŁ
ç½ĳç«Ļ åħ¥åı£
æ· ·
Ġç ¡
ģ à¸
åľ ĺ
Ġäºķ éĻ
Ġ8 7
Ġ2019-0 8
Ġæ± Ĥ
ĠèĲ¥ åħ»
æĸĩ æ±ĩ
å¯¼ èĩ´
ä¹ĭ éĹ´
Ġ200 9
Ġå°Ĭé¾Ļ å°±æĺ¯åįļ
W N
< ãĢĳãĢĲ/
èĩª æİĴ
æľĢ åĩĨ
è¿ ģ
Ġå¤§åıĳ 1åĪĨå½©
Ġçī Ľ
ĠåĪ©æĿ¥w66 æ³¨åĨĮ
åĢ ĳ
å¾®ä¿¡ ç¾¤
èĲ §
Ġd88å°Ĭé¾Ļ çĶµåŃĲæ¸¸æĪı
Ġåįļ å¤©
éĶ ¡
O J
åĲĪ èĤ¥
Y B
æĸ¯ çī¹
Ġå°ı é±¼åĦ¿
Ġag æįķé±¼
hm .
æĿ ĳ|
ĠåĪ©æĿ¥ æīĭæľºå®¢æĪ·ç«¯
1 .5åĪĨå½©
åľ ¾
èĻ½ çĦ¶
:' 1',
å¡ ĳ
ç»ĳ å®ļ
Ġi Phone
èĢģ çļĦ
q ue
äºĨ åĲĹ
ĠåħŃ çĽĴå®Ŀåħ¸
åĬª åĬĽ
è·ĳ çĭĹ
Ġse cond
Ġ365ä½ĵèĤ²åľ¨çº¿ æĬķæ³¨
Ċ åıĭæĥħéĵ¾æİ¥
p h
ĠæĬķ æ³¨
ç« Ł
Ġå¾· å·ŀæīĳåħĭ
äº ŀ
åĤ ³
éĥ¨ éķ¿
Y N
éŁ ¦
Ġå°Ĭé¾ĻäººçĶŁ çİ°éĩĳå®ĺç½ĳ
S N
å® ı
Ġi p
n b
sc 2
u an
ä½ĵ çİ°
å¨±ä¹Ĳ çĻ»å½ķ
Z mF
ZmF sc2
I6 ZmFsc2
I6ZmFsc2 Us
åĮº åŁŁ
æİ ĪæĿĥ
iO i
å®ŀ éĻħ
Ġæ¾³éĹ¨ åĽ½éĻħ
é¡ ¯
æİĴåĪĹ ä¸ī
ç½ĳç«Ļ å¹³åı°
æķ £
b j
åĲĦ ç§į
è®¡åĪĴ ç¾¤
æ» ļ
Ġp l
4 00
å½© çĲĥç½ĳ
Ġï½ ľ
N ame
ļĮ åŁ
Ġbet365 çº¿ä¸Ĭ
I6ZmFsc2Us Im
Ċ çĶĺèĤĥ
å¨±ä¹Ĳ app
æĻĭ æ±Łæĸ°éĹ»ç½ĳ
ĠåĲ Ĳ
å¡ ĺ
Ġagçİ¯äºļ å¹³åı°
å§Ķ ä¼ļ
K B
¡ ä¸¹
Ġå¤§åıĳ 5åĪĨå½©
æ¡ĥ |
æ´ ģ
an k
ĠæĹ©é¤Ĳ é¦ħé¥¼åĬłçĽŁ
åħįè´¹ æĬķæ³¨
15 æĹ¥
èĤ ¯
Ġå®ľ åĲ
/ 1
Ġå¤§åıĳ å¹¸è¿Ĳ
æĶ¿åºľ ç½ĳ
Ġæ¸¸ æĪı
Ġhmcon :'1',
2 YX
åįķåıĮï¼ļ å¤§åıĳå½©ç¥ŀ
C F
è© ±
è¢ ĭ
e .
èģ ª
Ċ <
Y R
ĠéĽ ¶
ĠåĪ©æĿ¥ app
çļĦç½ĳåĿĢ æĺ¯å¤ļå°ĳ
Ġåģ¥åº· æĹ©é¤ĲåºĹåĬłçĽŁ
åī Ĥ
Ġ365æ£ĭçīĮ æĸ°æīĭåį¡
åĢ º
E P
åĽ½ åĬ¡
ä¼ĺ åĮĸ
ą ć
ä¸ľ åĮĹ
åĭ ¤
èĻ ¹
Ġåĳ¼ ä¼¦è´Ŀ
M X
è¿Ŀæ³ķ åĲĹ
Ġæľ Ń
Ċ æ³ī
å¯ ¶
M J
u z
ĠåįĹ æĬķ
éĵ¶è¡Į åį¡
Ġå¹¿ å·ŀ
ç¼ĸè¾ĳ ï¼ļ
ĠæĪĳæĥ³ åĬłçĽŁæĹ©çĤ¹
Ġåħ »
å¤§ ä»Ļ
è¾¾ åĪ°
ã Ī
æ¡Ī ä»¶
Ġæ´ ĭ
ç¥ĸ åĽ½
å¾Ĺ åĪ°
Ġs port
Ġ4 3
ä¸ĭ ä¸Ģ
Ġå°Ĭé¾Ļæĸ°çīĪ app
Ġå¤§åıĳ 3åĪĨå½©
æĺ Ĥ
éķ¿ æľŁ
agæĹĹèĪ°åİħ ä¸ĭè½½
åŁº éĩĳ
Ġä½ĵèĤ² æ¯ĶåĪĨ365
æĮ ¯
/æĹ¥ åĿĩ
Ġä¸ºä»Ģä¹Ī ä¸ĩåįļ
Ġ ä»£
p age
ä» ĵ
ĠéĿ¢ è®®
Ġ4 2
è ¬
ï¼Ł âĢĿ
Ġ1 æĹ¶
ĠéĢ Ł
pZH Ro
Ġæīĭ åĬ¨
Ċ åħ³éĶ®è¯į
èĮ Ĥ
Ġ9 7
Ġåį ³
ç½ĳç«Ļ 365
ĠäºļæĲı å®ĺç½ĳ
Ġèĩª åĬ©
æŁ ±|
Ġçª ģ
Ġè· ¯
th er
ĠéĦĤ æ¸©
äº ķ
e f
æķ ¬
s g
å¤ı |
Ċå½ĵåīįä½įç½®ï¼ļ é¦ĸé¡µ
æ¡Ī ä¾ĭ
æĤ¨çļĦ ä½įç½®ï¼ļ
ĠåĲĲ é²ģ
H R
M R
A R
å¹¿æĴŃ çĶµåı°
Y J
åıĹ åĪ°
åħĳ æį¢
Õ «
çļĦ æīĭæľº
çĶµ æ°Ķ
ç§ Ģ|
· éĥ½
å° º
å½ĵ æĹ¶
æľĢæĸ° çīĪæľ¬ä¸ĭè½½
99 çĤ¹c0m
Y F
çµ Ĳ
å® µ
Ċ å±±è¥¿
ï¼Į ä»ĸä»¬
ī ï¿½
å¹² éĥ¨
æ¸¸æĪıç½ĳåĿĢ å¤§åħ¨
ĠæĻ® æ´
K N
Ĭ ï¿½
Ċ æµĻæ±Ł
æ¾İ æ¹ĸ
-------- --------
æ³ķ æ¡Ī
or y
å½© ç½ĳç«Ļ
åħ¬å®ī å±Ģ
ç½ĳä¸Ĭ å¨±ä¹Ĳ
Ġå¼łå®¶ çķĮ
Ġå°Ĭé¾Ļå°±æĺ¯åįļ æĹ§çīĪ
æī¶ è´«
åħ± æ¬¢ä¹Ĳ
ĠåĪ©æĿ¥ appä¸ĭè½½
Ġ2018 -10
ĠUU å¿«ä¸ī
Ġçº¿ä¸ĬçľŁéĴ± å®ĺç½ĳ
åħ¬ å¹³
ĠåĪ©æĿ¥èµĦæºĲ ç«Ļ
Ġéĥ¨ èĲ½
æ²³ å¸Ĥ|
äºĶå¤§ èģĶèµĽ
Ġé©¬ éŀį
Ġks8 åĩ¯åıĳ
é¢Ŀ åº¦
éļ Ķ
ä½ĵ ï¼ļ
æĦ Ľ
ä¸ī ä¸²ä¸Ģ
ï¼Ī è®°èĢħ
ob j
å½ »
= ="
Ċ çĪ±
Ġn ba
ï¼Įåħ¶ ä¸Ń
http s
Ġ3 åĪĨpk10
Ġæ»ļçĲĥ 365
å¦ ĩ
å®ī å¿ĥ
Ċä¸Ĭ ä¸Ģç¯ĩ
å±ķ å¼Ģ
å¼ķ åıĳ
1 åĪĨå¿«3
åľ¨ ãĢĳãĢĲ
Ġh ave
æķĻ ç¨ĭ
Ċ ä¸Ģ
Ġbet356 æĢİä¹Ī
K F
åı° çģ£
æ²³ åĮĹ
ĊçĻ¾åº¦ æĸ°éĹ»
Ġäº ¿
ãĢĢ âĢľ
ĠA nd
è¿Ļ æĺ¯
Ċ D
èº«ä»½ éªĮè¯ģ
U iOmZhbHNlLCJ
Ijo i
Ġåĩ¯åıĳ å¨±ä¹Ĳ
IjpmYWxzZS wi
èĮĥ åĽ´
ĠçĦ ¦
ĠçĽ Ĭ
ãĢĤçĽ®åīį ï¼Į
ĠC ol
å®ĺç½ĳ é¦ĸé¡µ
åĢĭäºº ä¿¡è²¸
Ġé£ İ
Ġ appä¸ĭè½½
çķĻ è»Ĭ
Ġæŀ£ åºĦ
Ġ365betå®ĺç½ĳ çº¿ä¸Ĭ
Ġèı ı
ĠT r
ĠI N
æĮī çħ§
èģ ·
Ġ2 åĪĨæĹ¶æĹ¶å½©
æ¬¢è¿İ åħīä¸´
æĸĹ åľ°ä¸»
Ċ bet365
åĲ ĭ
çĽ´ çº¿
ĠccåĽ½éĻħå½© çĲĥ
Ġè¯ ļ
Ċ è¥¿èĹı
19 æĹ¥ï¼Į
Ċ ç¬¬ä¸Ģ
å¿« åĲĹ
G J
çŁŃ ä¿¡
Ġhttp:// www.
ç½ĳåĿĢ _
Ċ |
Ġm od
il d
Ġ ï¿½ï¿½ï¿½
å¯¼ å¸Ī
Ġè ļĮåŁ
æīĵ é±¼
Ġé¦Ļæ¸¯ åħŃ
ĠåĪ©æĿ¥w66 å¨±ä¹Ĳ
Ġse o
Ċ 365ä½ĵèĤ²æĬķæ³¨
åĩº å¸Ń
äºļæ´² çľŁäºº
Ġæİ¨ èĸ¦
è´¢ ç¥ŀ
å¹´ æĿ¥
indow s
ĠçĭĹä¸ĩ æµģæ°´
æŃ£ å¸¸
Ġagçİ¯äºļ æīĭæľºçĻ»éĻĨ
å¥ Ķ
ãĢĳãĢĲ 1ãĢĳãĢĲ
A J
Ġèī ²
Ġæ¯ ķ
Ġç« ł
æĢ ķ
ä¹ĭ åĲİï¼Į
Ã ł
äºĴ èģĶç½ĳ
Ġ365betå®ĺç½ĳ æīĭæľº
Ġåĩ¯åıĳçĶµæ¸¸ æ³¨åĨĮ
ä¿Ŀ éĻ©
æ¸¸ èīº
ĠçĭĹä¸ĩ mb
å®ģ æ³¢
å®¶ äºº
Ġç Ĵ
ç±» ä¼¼
Ġ2020-02 -19
çŃ ¹
Ĉ Ć
Ġåĩ¯åıĳå½©ç¥¨ å®ĺç½ĳ
æĦı çĶ²
å®Į æķ´
Ġä¼ Ĺ
. h
Õ ¥
Ġ 2020å¹´
å¤ º
æ¬§ åĨł
S R
Ġä¼ģ ä¸ļ
ĠçĶµ èĦĳ
åĪĻ |
Ċ åħ³äºİ
Ġ9 6
åı° ä¸Ń
æ± ¡
Ġå·´å½ ¦
4 2
Ġæľī æ²¡æľī
æĬķ ç¥¨
ä¸Ģ çłģ
Ġ1 .5
çī¹åĮº æĬ¥
çİ» çĴĥ
æĿ¥ æºĲ:
T ype
å¤§ ç¥ŀ
æ¹ĸ åĮĹ
å¸Ī |
ĠèµĮéĴ± æ¸¸æĪı
ä¿¡èªī ç½ĳ_
Ġè ³
Ġä¹ ī
Ċ é»Ħ
çĭ ±
W B
åĴĮ åĲĪ
ä¼ĺæĥł å¤ļä¸ĢçĤ¹
C L
æµ· åİ¿|
Ċæ³ī å·ŀç½ĳ
K V
Ġ7 6
åħ¼ èģĮ
Ċ2019å¹´ 10æľĪ
åħ± äº§
Ġå°Ĭé¾Ļ app
çĦ ¦
åĪĨ æ¬¢ä¹ĲçĶŁèĤĸ
æĸĩ |
Ġè®° èĢħ
è Ŀ
å¾ Ĳ
ĠçĽ¸ åħ³
æ» ĭ
æĹ¥æĬ¥ éģĵï¼Į
ç¨ ±
ä¸ĸ çŁ³
åĽ½ ãĢĳãĢĲ
Ċæłĩ çŃ¾ï¼ļ
åħį çķĻè»Ĭ
³ å·ŀ|
u ite
K R
è¾½ å®ģ
å® ħ
Ġbet36 å¤ĩçĶ¨
Ġ365ä½ĵèĤ²æĬķæ³¨ æīĭæľº
æ´Ľ |
æĸ°éĹ»ç½ĳ ...
ä½ľ çĶ¨
åħĥ |
Ġ365ä½ĵèĤ²æĬķæ³¨ çº¿ä¸Ĭ
ĠæĽ ¾
åĪĨ äºĮåħ«
ç¥ŀ å½©äºīéľ¸8
å°Ĭé¾Ļ äººçĶŁ
ont ent
Ġèµ ¢
åĿ Ĭ|
â Ī
ç½ĳä¸Ĭ å¼ĢæĪ·
W X
åĪĨ é¾ĻèĻİ
å ´ĩ
çĽ Ĺ
ĥ åľ¾
ak e
ä¼¦ æĺ¥
Ġä½ľèĢħ :
Ġwww.d88.com å°Ĭé¾ĻäººçĶŁ
Y V
äºº æīį
ĠäºļæĲı å½©ç¥¨
Ġä¸ ģ
IC P
Ġw ill
åħ±äº§ åħļ
ç«ĭ åį³
£ à¸
ä»Ģä¹Ī æĹ¶åĢĻ
ç±» åŀĭ
ĠéĦĤ ä¼¦æĺ¥
Ġä½ı å®¿
èĬĤ |
æ± ¾|
å®ĺæĸ¹ æīĭæľºapp
Ġçİ¯äºļ ç½ĳåĿĢ
Ġdocument.getElement ById
Ġ8 6
I J
å¤§ éĩı
ĠèĪ Ł
â ĳ
æ³ Ĭ
çĲĨ |
ç½ĳä¸Ĭ æĬķæ³¨
Ġåıĳè¡¨ äºİ
è· Į
ĠçľŁäºº å¹³åı°
åĦ¿ ç«¥
è¯ Ĭ
ĠåĪ©æĿ¥w66 ä¸ĭè½½
å¸ĥ |
Ġæĸ°èĳ¡ ï¿½ï¿½
´ ï¿½
lo t
åĳĺ å·¥
åĮ» çĶŁ
Ġ365betå®ĺç½ĳ å¹³åı°
æŁ ľ
Ġå® ŀ
è¿ĩ åİ»
Ġåıĳå¸ĥ æĹ¶éĹ´:
åħħ |
ä¸į å°ĳ
åĽł æŃ¤
G R
- æ¬¢è¿İæĤ¨
K J
Ġçİ¯äºļag æ³¨åĨĮ
é¸ Ń
å· ¡
ĠéĤ ¯éĥ¸
åģ ¿
Ġï¼ İ
çĶ ļ
æĿİ ä¸ĸçŁ³
Õ ¶
Ġ7 4
åħ¬ è·¯
Ġbet356 æıĲæ¬¾
XC9 h
äº§ çĶŁ
Ċ åĵģçīĮ
æĮ ¥
ol d
Ġæĸ° åįİç¤¾
ä¸ĵ æłı
èĢģ å¸Ī
å¦ »
ĠUU å¿«3
å¦ ¹
Ġå¾ ½
å®ĺç½ĳ å¼ĢæĪ·
ĠéĦĤä¼¦æĺ¥ èĩªæ²»
éĿĴ å²Ľ
Ġè® ©
N z
çī §
ç¼ ĥ
æł¸ å¿ĥ
S C
çİ°éĩĳ å¹³åı°
Ġäº Ĵ
ĠåĨ ·
Ġçİ¯äºļæ¸¸æĪı app
å¼ĢæĪ· _
çĽ´çº¿ è·Ŀç¦»
Ħ |
[ 0
æĳ Ĭ
µ |
æ´² |
Ċ çĥŃ
èĬ± |
è³ ª
ĠA re
å±± ç½ĳ
Ġæ¿ ®
çİ¯çĲĥ æĹ¶æĬ¥
are nt
è¯Ħ ä¼°
Ġ5 2
éĶ ¦|
Ġåĩ¯åıĳ ç½ĳæĬķ
ĠæĹ¥åįļ å®ĺç½ĳ
0 a
ĠåĸĢ ä»Ģ|
çªģ çĦ¶
èİ ±|
æ¸ ł|
çļ ĭ|
å®Į åħ¨
ĠçĶµçİ©åŁİ æ£ĭçīĮ
he m
åĽ Ń|
ĠéĶ ¡æŀĹ
Ġèħ ¾
åīį å¾Ģ
ĠèµĮ åįļ
Ġ5 9
Ġè¨ İè«ĸ
å°Ķ åı¤
åĩĨ å¤ĩ
Q D
æľº æ¢°
ç¢ į
365 æ»ļçĲĥ
ä¸Ń ãĢĳãĢĲ
I Z
çĵ ¶
æĭ ¼
Ġéĺ¿åĭĴ æ³°|
æ´¾ åĩº
M j
48 XC9
Ļ |
Ċäººæ°ĳ æĹ¥æĬ¥
åħ¬ å¯ĵ
Ġåŀ¦ åĪ©|
Ġæ ĬĢ
å¾· å¸Ĥ|
æł¼ |
åĮħ è£ħ
Ċæłĩ çŃ¾
» |
Q T
èĩª çĦ¶
ĠéĻ ķ
å¨±ä¹Ĳ _
éħĴé¬¼éħĴ åħ¬åı¸
äººæ°ĳ å¹¿æĴŃçĶµåı°
Ġæ²³ æ±ł|
åŃĲ çİĭ
å¥¥ ä¸Ģ
Ġåĩ¯åıĳ AG
èĬ ¦
Ċ2017 -12
Ġé¦Ļæ¸¯ æľĢå¿«
ĠæĿ ¡
ĠçŁ³ æĻ¯
e e
ĠåĽ¾æľ¨èĪĴ åħĭ|
å¹´ |
ä¼ ¦|
S tr
çĽ´çº¿è·Ŀç¦» ä¸º
Ġalert ("
Q X
æ¥ļ ç½ĳ
å·ŀ å¸ĤéĤ®ç¼ĸ
æıĲ åįĩ
du ct
Ġåħ¨ æ°ĳ
g c
ç® Ń
çļĦ çĽ´çº¿è·Ŀç¦»ä¸º
å¸Ĥ å§Ķ
Ġçļ ®
åºĵ |
Ċ ç½ĳæĺĵ
æĹ¥æĬ¥ ç½ĳ
åĳ ¢
6 00
Ġé¢Ŀ å°Ķåı¤
æĹ©é¤Ĳ æĢİä¹ĪåĬłçĽŁ
å·ŀ å¸ĤåĮºåı·
ł æ°´|
ç¥¨ |
ç»ĵ |
æ²³ åı£|
Ċ ä¸»
d ãĢĳãĢĲ
å° ¾|
Ġå¤§åıĳ 10åĪĨå½©
å¥ĩ |
å®¹ |
ĸ å·ŀ|
t ag
ç¦ı |
Ċ 365betå®ĺç½ĳ
Ġç§ĴéĢŁ å¿«3
Ġå°Ĭé¾Ļ äººçĶŁå°±æĺ¯æĲı
æ¦ Ĩ|
å® ľ|
Ġm g
Ġ6 3
æĿĥ |
Ġä¸ĸ æĿ¯æĬķæ³¨365
. f
æı ı
t o
Ġçİ¯äºļag æĹĹèĪ°
= ãĢĳãĢĲ"ãĢĳãĢĲ
åħ¨ |
éĿ¢ æĿ¡
æ°¸ |
ç«ł |
ĠéĿĴ å²Ľ
/ 2
ä¸ ½|
å¡Ķ |
å® Ĺ|
S V
( s
å½©ç¥¨ åĲĹ
æīĭæľºçīĪä¸ĭè½½ å®īè£ħ
Ġè± Ĩ
åİŁ åĪĽ
éĥ ĳ|
ä¸Ĭ |
ç¼ ĵ
ĠéĦĤä¼¦æĺ¥èĩªæ²» æĹĹ|
éĿ¢ é¦Ĩ
ç«¹ |
æµ ª|
åĺ İ|
G l
æĲ ŀ
ķ å®ģ|
çķĻ |
æĿ ľ
åĤ ¨
æ½ ¼|
Ċ1 .
å¥³ å£«
éĿ ĸ
è¯´ ï¼ļâĢľ
² æĺ¥|
é² ģ|
- L
å® ¿|
Ġåĩ¯åıĳ å®¢æĪ·ç«¯
å§ĭ |
ä¿Ŀ |
é» İ|
æ¼ ³|
çĻ» |
U H
ä¸ļ |
å®¶ åħ·
é£İ |
çİ¯äºļ app
ãĢĳãĢĲ 0ãĢĳãĢĲ
ĠInt ern
Ġçī¹èī² æĹ©é¤ĲåºĹåĬłçĽŁ
å¡ «
é»Ħ |
23 æĹ¥
ä½ĵ ç³»
æŁ ı|
Ġåħ¨çĲĥ åĬłçĽŁç½ĳ
å³ ¶
åķĨ åĬ¡
è§ ī|
æ²¡æľī äºĨ
S L
Ġæ¾³éĹ¨ ag
å±± å¸Ĥ
èĶ ¡|
Ŀ åĮĹ|
Ġåĩ¯åıĳ å®¢æĪ·ç«¯ä¸ĭè½½
åĬł åħ¥
åĶ ±
Ġæµ· åįĹ
ad e
ic ro
Ġèĩª åĬ¨
åĲĪ æĪĲ
æİ¨ è¿Ľ
çķĻ è¨Ģ
åĬ¨ æĹ©é¤ĲåĬłçĽŁ
åĨħ éĥ¨
ä¸į è¶³
æĴŃ æĶ¾
ĠçĤ¹åĩ» ï¼ļ
çĽ Ĭ|
çī¹èī² æĹ©çĤ¹
n ame
æĹ¥æľŁ ï¼ļ
Ġ5 3
Ġ4 1
æ² ½|
Ċ æ³¨åĨĮ
ĠA ir
st r
è½¦ ç«Ļ
å² ³
Ġæĸ ¼
ç¦ı æĿ¥
Ġ8 4
çļĦ éĹ®é¢ĺ
åĭ ¤|
Ġbet365 æīĭæľº
æ» ©|
be at365
Ġ356bet çº¿ä¸Ĭ
æµ· ç½ĳ
Ġ8 9
Ġé ł
Ġç«¹ å±±|
ĠéĦĤæ¸© åħĭ
ï¼Į ä½ł
åĨ ¶|
Ġåı° å®ī|
éĿ¢é¦Ĩ åĬłçĽŁ
äºº ãĢĳãĢĲ
åĽº |
Ġé»Ķ æ±Ł|
Ġèµ ŀ
ĠæĹ©é¤Ĳ ç±»åĬłçĽŁ
æĿ¡ æĹ©é¤ĲåĬłçĽŁ
na HQ
Wl naHQ
ĠæĻ º
Ġåģ¥åº· æĹ©é¤ĲåĬłçĽŁ
Ġå®ľåĲ Ľ|
åĽŀ é¡¾
Ġä¹Į åħ°|
åĩº æ¬¾
ï¿½ o
ç¾İ |
æĹ¶ æĹ¶
éĿ¢æĿ¡ åĬłçĽŁ
Ġ10 åĪĨå¿«3
Ġåį ¡
W U
ĠçĽ ´
ĠèĤĥ å®ģ|
Ġ2020-0 6
å¥½ çĶ¨
ç¦ıæĿ¥ æĹ©çĤ¹åĬłçĽŁ
åıĹ ä¼¤
åİ ¦
äºĶ çłģ
Ġä¸ľ åĮĹæĹ©é¤ĲåĬłçĽŁ
Ġä¼ł ç»ŁæĹ©é¤ĲåºĹåĬłçĽŁ
Ġåı £
ä¸ĭè½½ æīĭæľºçīĪ
ĠæĹ©é¤ĲåĬłçĽŁ åĵªä¸ªå¥½
Ġèİ ĺåİ¿|
æĽ Ŀ
è²¸æ¬¾ åĪ©çİĩ
Ġ op
ĠéĦĤæ¸©åħĭ æĹıèĩªæ²»
å±± æ¸¯|
Ġv i
ĠçľŁéĩĳ æįķé±¼
re ate
åįķåıĮï¼ļ å¤§åıĳ
Ġä¸ī äºļ
ä¼ł ç»Ł
ä¸Ģ å¤©
èĭ± è¯Ń
Ġæ·Ħ åįļ
ãĢĤï¼Ī å¤®è§Ĩè®°èĢħ
æ¬§ ç¾İ
åŃ¸ çĶŁ
èĥ ¶
è²¸æ¬¾ åĹİ
ĠéĻĪ ä»ĵ|
æµİ çº³
äºº ï¼ļ
æĸ° èģŀ
ĠéĦĤæīĺåħĭ åīįæĹĹ|
æ¬§ çĽŁ
åĪ°è´¦ å¿«
Ġ am
è±Ĩ èħĲ
å¿ĺ è®°
å®ļ ä½į
åĬł æĭ¿å¤§
/ 10
Ġäºļç¾İam8 app
ĠéĦĤæ¸©åħĭæĹıèĩªæ²» æĹĹ|
ä¸Ĭ ä¸ĭåĪĨ
Ġ365bet æīĭæľº
éĹ¨ æĪ·
Ġé¢Ŀ æµİçº³
æĻĤ éĸĵ
K X
Ċ ï¼Ī
ä¸į åı¯
Q B
res s
ä¿ Ĭ
åĨ» ç»ĵ
å¤§ åŀĭ
ĠagåĽ½éĻħ é¦Ĩ
æ¦ Ĩ
é«ĺ åº¦
Ġæīİ åħ°
åħ± æľī
- åįĥ
ä¹ĭ å®¶
ĠåĪ©æĿ¥w66 å¹³åı°
aWR 0a
åľ° éĵģ
äº ı
æ³¨ éĶĢ
l ag
ik e
å¥¥ä¸Ģ ç½ĳ
è¯¦ ç»Ĩ
Q V
Ġç§ ¯
æĮĩåĩº ï¼Į
çĽ´ å±ŀ
Ġlo l
ĠAr t
æ· ®
ĠæĻ¯ å¾·
Ġä¸ī éĹ¨
ä¸Ģ å®¶
ä»Ģä¹Ī å¥½
Ġs p
Z n
èĭ ¦
Ġæ ľŁ
Ġf alse,
å¹³ åĿĩ
ĠçĶ± Hotel
ĠæĹħ æ¸¸
åĩ Ģ
Ġï¼Ī 1
ĠæĶ ¹
ï¼ Ĵ
Ġ2019-0 5
aW 5
Ċåıĳå¸ĥ æĹ¶éĹ´ï¼ļ
Ġæ¾³éĹ¨çĻ¾å®¶ä¹Ĳ çİ©æ³ķ
Ġçī ¡ä¸¹
åĲİ çļĦ
å¯ ¦
ä¸» æĮģ
Ġ6 9
ç¹Ŀ ï¿½
U Z
Ġ1 .6
Ċ >
åĳ¨ åīį
t YX
åı ¶
èĢ³ åħ¶
Zn Jhb
Ġå° ±
Ġåĳ¼ åĴĮ
T V
ä¸ĵ é¢ĺ
æ¯ķ ä¸ļ
« èĬ¦
G B
Ġn o
Ġä¸ĭè½½ çİ¯äºļapp
+ 1
æĢİä¹Ī ç®Ĺ
ro id
Ġç§¦ çļĩ
Ċ åĲĪèĤ¥
ĠM ar
iver s
è®¾ç½® ä¸Ńæĸĩ
Ġå Ĥ
c Ii
https ://
ç½ĳç«Ļ å¤ĩçĶ¨çĻ»å½ķ
éĢ ²
Ġç³ »
éī ´
Ġåİ »
è´µ å®¾
Ġ2 åĪĨpk10
æķ ¦
o h
Ġå°Ĭé¾Ļ ç½ĳç»ľå¹³åı°
æģ Ĳ
Ġ356bet æīĭæľº
Ġå¨ģ å°¼æĸ¯
éĢ Ĳ
å¥ ī
Ġäºļç¾İagæĹĹèĪ°åİħ ä¸ĭè½½
çļĦ æĥħåĨµ
Ċæ±Łè¥¿ äººæ°ĳå¹¿æĴŃçĶµåı°
çİ°åľº çĽ´æĴŃ
APPï¼ļ å½©ç¥ŀäºīéľ¸8
YWR z
E Z
Ġç Ĩ
è°ĥ æķ´
appä¸ĭè½½ âĢķ
Ġæī Ģ
äººæ°ĳ å¸ģ
Ġ url
ä¾¿ æ°ĳ
W Z
Ġ2020-02-2 4
å±ı æĿ±
C X
äºĮ åĽĽåħŃ
ç³ ĸ
at ch
è¥¿ çĶ²
åĽ½å®¶ ä¸»å¸Ńä¹łè¿ĳå¹³
ri d
éĩį å¤§
A H
Ġåĩ¯åıĳå½©ç¥¨ ä¸ĭè½½
æ°¸ åĪ©
åĪ ¥
Ġæİ Ĵ
Ġagçİ¯äºļéĽĨåĽ¢ å®ĺç½ĳ
é£ŀ æľº
æĬķæ³¨ ç½ĳ
èģ ¯
as h
Ġé¢Ŀæµİçº³ æĹĹ|
å±± åĮº|
åĵªéĩĮ çļĦ
Ġæ´ ±
s.com æıĲä¾Ľ
Ġçİ¯äºļag æīĭæľºçīĪ
å¤§ éĺŁ
ĠçĶ±Hotel s.comæıĲä¾Ľ
æĿ¥å°±éĢģ 38
Q Q
Ġå°ı ãĢĳ
ãĢĤ èĢĮ
Ġæľ º
Ġå·´æŀĹ å·¦æĹĹ|
Ċ å¤®è§Ĩ
Ġ365bet çº¿ä¸Ĭ
a h
Ġèħ¾è®¯ æĹ¶æĹ¶å½©
ang e
åĩ Į
çĴ Ĳ
Ġæĸ° èĳ¡äº¬
äºļæ¸¸ å®ĺç½ĳ
L e
Ġ2019-0 6
èĤ ł
Ġ7 9
ĠçĦ¦ ä½ľ
åĲį åŃĹ
09 æľĪ
o o
oZ WlnaHQ
ĠçĭĹä¸ĩ ç½ĳåĿĢ
ĠagçĽ´æĴŃ åİħ
çĶ¨ åĵģ
æĬ¥ çłģ
æīĭ æľ¯
æī¾ ä¸įåĪ°
ç½ĳç«Ļ åľ°åĽ¾
Ġ365ä½ĵèĤ²æĬķæ³¨ å¤ĩçĶ¨
Ġagæ¸¸èīĩä¼ļ å®ĺç½ĳ
Ġ2020-04-0 4
æĢĿ æĥ³
Ġå¤§ èį
Ð »
è®² è¯Ŀ
éĢļ çŁ¥
Ġ365bet å¹³åı°
åħ±åĴĮ åħļ
ĠAG äºļ
è®¸ å¤ļ
çł´è§£ åĻ¨
ĠC on
ĠåĲ ķ
Ġçİ¯äºļag ä¸ĭè½½
åį ľ
Ġåĩ ¡
te m
w ay
æı Ń
ĠåĪ©æĿ¥w66å®ĺç½ĳ å®ĺæĸ¹ä¸ĭè½½
éħį éĢģ
ä¸ī èĤĸ
à¸Ń à¸
æĭ ĸ
Ġçĵ ¦
åĭŀ å·¥
Ġçİ¯äºļéĽĨåĽ¢ appä¸ĭè½½
4 6
w66 .com
Ġåı° åīį
æĸĩ ,
ç¦ı å½©
¢ å²
Ġ200 8
Ġ8 3
G P
Ġk8å¨±ä¹ĲæīĭæľºçīĪ ç½ĳåĿĢ
Ġ2020-02-2 2
Ġ$( this
Ċ éĵģ
Ċ æ¯ıæĹ¥
Ġç¥ŀ å½©äºīéľ¸
åĲĮ æĹ¶ï¼Į
Ġæīİ åĽ
Ġäº¤ éĢļ
åĪ©æĿ¥ å®ĺç½ĳ
ĵ é±¼
Ġå² ¢å²
SE O
ä¹ĭ åīį
Ġ365æ£ĭçīĮ çĶµèĦĳ
Ġ2020-03 -29
Ġæķ °
è¿ ¹
Ġbet -
Ġå§ ľ
éļı çĿĢ
Ġ2020-02-2 1
Ġh g
æĳĺ è¦ģ
Ġ365ä½ĵèĤ²æĬķæ³¨ æıĲçİ°
Ġçİ¯äºļ çľŁäººæ¸¸æĪı
ĠåĮĹäº¬ æĹ©é¤Ĳè½¦åĬłçĽŁ
Ġä¼ ĳ
Ġçİ¯äºļå¨±ä¹Ĳ ag
éĩı ï¼ļ
Ġ36 0
ĠãĢĳãĢĲ s
èĬ ¯
Ġæĸ° æµª
Ġåİ¦ éĹ¨
è¿ľ åİ¿|
Ġ2020-02 -20
å®ļ åİ¿|
ĠçľŁéĴ±æ£ĭçīĮ ä¸ĭè½½
æ² ĥ
ç«ŀ æĬĢ
Ġad min
Ġ365å¤ĸåĽ´ ç½ĳ
ãĢĤ 12æľĪ
æĪĳä»¬ çļĦ
è¯¾ ç¨ĭ
Ġä¹Ŀ é¾Ļ
Ġå¼Ģåħĥæ£ĭçīĮ èĥ½
è® Ģ
åĪĹ è¡¨
æĭ Ĩ
d iv
åĮĹ æºª
Ġ365 çļĩåĨłä½ĵèĤ²
åľĭ éļĽ
æģ¢ å¤į
æīĭ æ¸¸
åĵªä¸ª æĺ¯çľŁçļĦ
Ġè¾½ å®ģ
å® ½
ĠæŁ ı
æ· ĸ
Ġtype :0,
ar s
æĸ¹ åĲĳ
éª ¤
ä¸Ĭ å¸Ĥ
å®Ŀ é©¬
Ġçº¿ä¸ĬçľŁäºº ç½ĳæĬķ
çĶ° åİ¿|
G 9
ç§¯ åĪĨ
çĹ Ľ
å¤© åľ°
Ċ çĽ¸åħ³
Ġèİ Ĩ
p ost
Ġæį ®
å³ ª
é¾ į
Ġçº¿ä¸ĬçľŁéĴ± å¼ĢæĪ·
Ġä¹° çĲĥ
éĮ¢ èİĬ
em pl
Ġåĩ¯åıĳ å¤ĩçĶ¨ç½ĳåĿĢ
Ġ7 3
è®¨ è®º
ro w
ĠéĦĤ å°Ķå¤ļ
Ċ2019-10 -23
A g
Ġéĸ ĭ
6 b
éķ ľ
å°ıåĲĥ æĹ©çĤ¹åĬłçĽŁ
ĠæĿŃéĶ¦ æĹĹ|
Ġ2020-02-2 3
æī ©
çĶ¨ äºİ
åĪĨ pkæĭ¾
Ġ365æ£ĭçīĮ æīĭæľº
Ġçİ¯äºļ æĹĹèĪ°åİħä¸ĭè½½
Ġæ¾³éĹ¨åħŃ ä¼ļ
Ċä¸ĭ ä¸Ģç¯ĩ
- çļĩ
ĠA l
ä½ľ åĩº
å¿«é¤Ĳ åĬłçĽŁ
Ġ7 2
ĠåŃ¦ åİĨ
Ċ æĪĳ
Ġæ¾³éĹ¨ 356bet
Ġ6 2
å¹¿æĴŃ çĶµè§Ĩ
Ġå» Ĭ
U S
èĭ ĳ
Ġæī ¾
åľ¨ ä¸ŃåĽ½
ĠåĽ¾ çīĩ
Ġé Ĩ
ĊåįĹ äº¬
ä¿¡èªī çļĦ
Ġäºļæ¸¸app éĽĨåĽ¢
ĠæĻ®æ´ ±|
å¥³ éĥİ
Ġåıĭ æĥħéĵ¾æİ¥
Ġ365è¶³çĲĥ å¤ĸåĽ´
Ġåį «
Ġ2020-02 -18
ãĢĳãĢĲ ä¸ĢãĢĳãĢĲ
ĠA P
çĻ¾ å§ĵ
is play
Ġ2019-0 7
çľŁäºº æīĭæľºçīĪ
ĠåĽĽ èĤĸéĢīä¸ĢèĤĸ
Ġbet365 å¹³åı°
Ġè¦ ģ
åħŃ èĤĸ
s k
åįļçī© é¦Ĩ
jcmlwd D
Ċ æĪĲéĥ½
3N jcmlwdD
re pl
æģ Ĵ
4 )
ĊæĺŁ å²Ľ
Ġ}else {
æĬ¥ ä»·
åĬ¨ åĬĽ
Ġé ĬĢè¡Į
å¤© ä¸ĭ
åĢ ¡
__ __
ICP å¤ĩ
-çļĩ æģ©éĿłè°±
ĠæĶ Ģ
Ġä¹Įåħ° å¯Ł
Ġpc èĽĭèĽĭ
å½©ç¥¨ å¤§åıĳå¿«ä¸ī
Ġè ĸ
èĨ ľ
é¼ İ
äºº ä»¬
æĺ¯ åģĩ
èį ·
Ġm e
bo ok
S Z
Ġ356bet å¹³åı°
æĪĲ æľ¬
å®ĺæĸ¹ç½ĳç«Ļ _
K Z
æĸĩ ä»¶
èĤ¡ ä¸ľ
Ġ2020-02-2 8
w e
åĲĮ å¿Ĺ
æıĲä¸įäºĨ æ¬¾
ä¹Ŀ å·ŀ
åĬł å·¥
Ġé½Ĳ é½Ĳ
æ¹ĸ åįĹ
Ġ9 3
åįĶ åķĨ
èĳ ±
Q H
é¡µ éĿ¢
± åİ¿|
åĽ½ çļĦ
$ ("#
çīĪæĿĥ æīĢæľī
åı£ å¸Ĥ|
æļ´ å¾Ĵ
Ġæ¹ Ľ
Ġ ;
Ġbet36 æľĢæĸ°
åį ¢
æīĭæľº æ£ĭçīĮæ¸¸æĪı
Ġç Ĭ
éļ Ĳ
ĠæŃ¦ å¤·
ĠåĽ½ å®¶
å¤ļ ä¸ª
ĠK B
ĠåĪ©æĿ¥w66 æīĭæľºçīĪ
h l
Ġå·´å½¦ æ·ĸ
çŁ¥ è¯Ĩ
Ġå¤§åıĳ uuå¿«3
Ġ6 1
ĠçĭĹä¸ĩ åįļ
äºº å¤§
Ġé© »
çº¦ ç¿°
ç» ĺ
å·ŀ åħ¬äº¤
æį Ĳ
Ġå¹³ é¡¶
Ġèĩ ºåįĹå¸Ĥ
å½ ª
å¹³ å¸Ĥ|
æľº ä¼ļ
æ¬ ²
æ² ¿
25 l
Ġæ¾³éĹ¨ å¨±ä¹Ĳ
å½©ç¥¨ å¼Ģåħĥæ£ĭçīĮ
ä¿¡ ä»»
Q P
Q Z
åı¯ä»¥ è²¸æ¬¾åĹİ
6b 25l
åĿ Ŀ
Ġæģ Ĵ
å¹´ åīį
ä¸į è¦ģ
ok er
çľŁéĴ± æįķé±¼æ¸¸æĪı
ĠçĶµçİ© 8
äºº åľ¨
Ġæ¾³éĹ¨ ç½ĳé¡µ
ï¼Į è¯¥
æĢİä¹Ī æĬķæ³¨
ä¼ Ĳ
s ize
å·ŀ å¤©æ°Ķ
! !
ĠäºļæĲıå¨±ä¹Ĳ ç½ĳç«Ļåħ¥åı£
Ġå·´ é©¬|
æª ¬
Ć Ć
ĠçĭĹä¸ĩ åħħåĢ¼
ç¶ Ń
æĹĹèĪ° åºĹ
ä¸Ń æĸ°ç½ĳ
Ġæ¢ §
å½ ¹
æľĢ å¥½
æł¼ å°Ķ
éĽ» èħ¦
åĪĨ åĪĨå¿«ä¸ī
Ġ2020-04-0 1
è£ħ ä¿®
è¾ ©
ĠæĿ ¯
Ġ( 0)
Ċ ãĢĬ
æ¨¡ æĭŁ
Ġé¢ Ħ
ĠçľŁäºº æ¸¸æĪıä¸ĭè½½
æ¸ Ķ
Ġå¸ ®
2019 -12
çľŁäºº çİ°åľº
æĪĳ åĽ½
E H
Ġäºļç¾İam8 æ³¨åĨĮ
Ġè¥¿ çĽŁ|
èı² å¾ĭå®¾
æĭ ĺ
Ġéĥ ´
åĪĨ åĪ«
Ġt v
ãĢĳãĢĲpãĢĳãĢĲ x
ĠåĽ ¢
Ġ9 2
åī ĩ
ä» ĳ
ĠæĹ¶éĹ´ï¼ļ 2019å¹´
å¤ª åģĩ
æİĴåĪĹ 5
å¼ Ħ
ĠéĿ ŀ
ç¯ Ģ
ĠåŃ Ļ
æ°ĳ ä¼Ĺ
ĠæĶĢ æŀĿ
Ċ åĲ´
âĢľä¸Ģå¸¦ä¸Ģè·¯ âĢĿ
ĠæĿ¨åĽ½ç¦ıéº»è¾£çĥ« åĬłçĽŁè´¹
ucc ess
C h
æī °
tr ue
ĠçŁ¥ åĲįæĹ©é¤ĲåĬłçĽŁ
Ġç¹Ŀ ï½
m er
Ġä¸ī åİ¢
åħ¬ åĬ¡
Ġ ribo88
ç¹§ï½ ¯
Ġæ²³ åĮĹæĹ©é¤ĲåĬłçĽŁ
å¼Ģ åºĹ
Ġæĺ¥åħī æĹ©é¤ĲåĬłçĽŁ
Ċéĵģ è¡Ģ
Ġpk10 éķ¿é¾Ļ
åģĩ åĲĹ
æµ ´
Ġ2020-04-0 8
Ġ2020-04-0 6
ç¹Ŀï½ ¬
Ġæ± ł
Ċ I
åħ¬ å¸ĥ
ĠçĤ¹åĩ» :
y XG
ä¸¤ ä¸ª
Ġèĳ «èĬ¦
Ã ¡
æł¡ åĽŃ
åĪĨ 11éĢī5
ĠReserved .
Ġc lass
Ċ2 .
Ġé©» é©¬
Ġagçİ¯äºļ å®ĺç½ĳä¸ĭè½½
ĠçĪ± å¿ĥæĹ©é¤ĲåĬłçĽŁ
Ġåįĸ æĹ©é¤ĲåĬłçĽŁ
Ġåĩ¡ å¤«åŃĲæĹ©é¤ĲåĬłçĽŁ
ĠæĹ©çĤ¹åĬłçĽŁåºĹ 10å¤§åĵģçīĮ
Ċå¤§ä¼Ĺ æĹ¥æĬ¥
æ³ Ľ
ĠæĹ©çĤ¹åĬłçĽŁåºĹ æİĴè¡Įæ¦ľ
ĠåŃ¦åİĨ ä¸įéĻĲ
Ġçİ¯äºļ åľ¨çº¿
Ġåľ ĭ
äººæ°ĳ æĹ¥æĬ¥
ĠçĭĹä¸ĩ ä¸įèĥ½
æľīä»Ģä¹Ī è¦ģæ±Ĥ
Ġç§ Ł
éĸĭ ç®±
Ġ8 2
ou ld
èº«ä»½ è¯ģ
å® ´
å° ¤
Ġå¤©æ´¥æĹ©çĤ¹åĬłçĽŁ æľīåĵªäºĽ
ĠæĹ©é¤Ĳ é¥®åĵģåĬłçĽŁ
èĥ½ å¤Ł
ĠæĹ©çĤ¹åĬłçĽŁåºĹ æľīåĵªäºĽl
Ġl a
ĠåĪ©æĿ¥w66 å®ĺæĸ¹ç½ĳ
ĠæĹ©çĤ¹æĿ¥ åĬłçĽŁ
Ġå¤©æ´¥ æĹ©çĤ¹å°ıåĲĥåŁ¹è®ŃåĬłçĽŁ
Ġä¸ĭè½½å°Ĭé¾Ļ app
æĢ» æĺ¯
Ġag å®ĺæĸ¹ç½ĳç«Ļ
Â ©
Ġæ¾³éĹ¨ åįģå¤§
lc 8
å·¨ å¤§
Ġ id
Ġåħ» çĶŁæĹ©é¤ĲåĬłçĽŁ
äºĭ ä¸ļ
off ice
u x
Ġ365betå®ĺç½ĳ å¤ĩçĶ¨
å®ĺæĸ¹ å¼ĢæĪ·
ç¦ģ æŃ¢
èµ· æĿ¥
è¿Ķ æ°´
Ġ ä»¥
éĺ³ å¸Ĥ
æĿ ©
ç´§ æĢ¥
ï¼Į è¦ģ
Ġ7 1
ĠèĻ İ
Ġä½³ æľ¨
å®ī æİĴ
Ġå¼Ģåħĥæ£ĭçīĮ çīĽçīĽ
Ġ2018 -12
çľģ æĶ¿åºľ
5 çłģ
æ Ĩ
Ġç¥ŀ å½©äºīéľ¸8
Ġè¡Į ä¸ļ
Ġçİ© å¤§åıĳå¿«ä¸ī
ç»ĵæĿŁ æĬķæ³¨
åĲ¯ åĬ¨
å¨±ä¹Ĳ æīĭæľºå¹³åı°
ĠåĪ©æĿ¥w66 å®ĺæĸ¹ç½ĳç«Ļ
æıĲ äº¤
éĤ®ç®± éªĮè¯ģ
æ£Ģ æŁ¥
OF wi
Ġä¸ľ èİŀ
Ġt ime
çļĦ å¹³åı°
/ 3
å¤ª éĺ³åŁİ
Ġ2020-04-0 7
ä½ĵèĤ² å½©ç¥¨
Ġåĩ ī
çº ¯
ç½ĳ ,
Ġæ¾³éĹ¨æ£ĭçīĮ å¨±ä¹Ĳæīĭæľºå¹³åı°
éľĢ æ±Ĥ
æĹ©çĤ¹ æĢİä¹ĪåĬłçĽŁ
åįİ æĹ©çĤ¹æĢİä¹ĪåĬłçĽŁ
Ġå¿«ä¸ī å¤§åıĳ
ĠåĪ©æĿ¥w66 èĢģçīĮ
Ċ J
çļĦ å°ı
T C
Ġ8 1
æ±Ł ç½ĳ
çĻ»åħ¥ _
": "
æĶ» åĿļ
Ġ2020-04-0 2
ĠéĿ ©
æĶ¯ä»ĺ å®Ŀ
Ġè¶ Ĭ
2l k
ĠccåĽ½éĻħç½ĳæĬķ å¹³åı°
çĸ Ł
Ġagäºļæ¸¸ éĽĨåĽ¢
Ġçİ¯äºļéĽĨåĽ¢ag å¥³éĥİ
Ġ365betå®ĺç½ĳ æıĲçİ°
åĲķ å¸ĥ
èº« ä½ĵ
çİ©æ³ķ _
ç±³ éĵº
Ġå¿ ĥ
éĮ Ħ
Ġå°Ĭé¾Ļ å¹³åı°
æĹ©çĤ¹ å·¥ç¨ĭåĬłçĽŁ
åı£ é¦Ļ
Ġå¸ ¦
Ġèħ¾ åĨ²
æĹ©é¤Ĳ å·¥ç¨ĭåĬłçĽŁ
èģĶèµĽ çĽ´æĴŃ
Ġå¾ Ĺ
Ġéĥ½ åĮ
çĸŁ çĸ¾
ç»ıæµİ ç½ĳ
Ġ365æ£ĭçīĮ å®¢æľį
ç´ Ħ
ĠæķĻ èĤ²
çĽ´æĴŃ _
å¦Ĥä½ķ è²¸æ¬¾
Ġ \
f ont
h v
® è©¢
å¼ Ł
Å Ł
Ċ âĸ
Ġèµ ¶
ĠåıĮ é¸Ń
Ċ å±±ä¸ľ
è¡Ĺ éģĵ
åľ¨çº¿ å¨±ä¹Ĳ
åĩł çĤ¹
å¹¸è¿Ĳ é£ŀèīĩ
å¤ľ å®µ
åĵ Ħ
Ġ365 you
Ġ2020-04-0 5
Ġç« Ļ
ĠæĿ¯ æĬķæ³¨
Ġæ¼ ¯
ä¸ ¦
Ĺ ï¿½
è±ĨèħĲ èĦĳ
ç¾İ æĹ©é¤ĲåĬłçĽŁ
è±ĨèħĲèĦĳ åĬłçĽŁ
Ġs im
ä¸į å¥½
æ³ķ åĪ¶
Ġçĵ ·éĥ½
åı£é¦Ļ æĹ©çĤ¹åĬłçĽŁ
åı¯ä¿¡ åĲĹ
ĩ ï¿½
ĠçĻ½ éĵ¶
å¤ľå®µ åĬłçĽŁ
åħį è²»
æ´ĭ èĳ±
Ġå°Ĭé¾Ļ æ³¨åĨĮ
Ġç¥ŀåĨľ æŀ¶
åħįè´¹ åĬłçĽŁ
æĹ©çĤ¹ è½¦
æĹ©çĤ¹è½¦ æĢİä¹ĪåĬłçĽŁ
çļĦ åĬłçĽŁ
å°ıåĲĥ åºĹåĬłçĽŁ
G Z
åľ Ĩ
ãĢĤ åİŁæłĩé¢ĺï¼ļ
Ġ2020-02-2 7
ç¦ı æĹ©é¤ĲåĬłçĽŁ
ĠI D
å°ļ æĹ©é¤ĲåĬłçĽŁ
Ĺ ç²®
12æľĪ20æĹ¥ çĶµ
Ġè» Ĭ
Ġwh o
c i
æľĽ æĹ©é¤ĲåĬłçĽŁ
æĹ©çĤ¹åĬłçĽŁ å¥½
æĲľ çĭĲ
é¥Ń åĬłçĽŁ
î Ŀ
ĠA ntiAd
è³ĩ è¨Ĭ
èĤł ç²ī
æĳĬ åĬłçĽŁ
å¾ģ æĹ©é¤ĲåĬłçĽŁ
è®¸ åĬłçĽŁ
s u
Ġé ŀį
äºŃ åĬłçĽŁ
ĠæĹ¥ åĸĢ
æ¿ ł
: office
åºĦ éĹ²
t op
è¿ŀéĶģ åĬłçĽŁåºĹ
é«ĺ æ½®
å¤ĩçĶ¨ç½ĳåĿĢ åĻ¨
Ġäºļç¾İ å¤ļä¸ĢçĤ¹
Ġäºĳ æµ®
n o
æ£Ĵ çĲĥ
èĤłç²ī åĬłçĽŁ
Ĺç²® æĹ©é¤ĲåĬłçĽŁ
åĮħåŃĲ åºĹåĬłçĽŁ
Ġçº¢ é»ĳå¤§æĪĺ
åĩı å°ĳ
ä¾¿æ°ĳ æĹ©çĤ¹åĬłçĽŁ
äº¤æµģç¾¤ _
Ċç½ĳæĺĵ æĸ°éĹ»
éĵº åĬłçĽŁ
æĪ ¶
ãĢĤ è¯¥
ä¸Ń ç¾İ
åıĳ å°Ħ
èĢģçļĦ åĵģçīĮ
æĮ º
å¿ Ļ
Ċ2019-10 -19
è¡Įä¸ļ åĬłçĽŁ
ĠæĻ® åħ°
è¾ħåĬ© åĻ¨
Ġ10 åĪĨæĹ¶æĹ¶å½©
ĠèĲ į
åĲĪæĪĲ æĹ©é¤ĲåĬłçĽŁ
Ġ í
éĴ¢ æĹ©é¤ĲåĬłçĽŁ
æĸ°äº¬æĬ¥ è®°èĢħ
ï¿½ï¿½ï¿½ï¿½ ï¿½ï¿½ï¿½ï¿½
å¸¦ æĿ¥
æľī æĹ©çĤ¹åĬłçĽŁ
æŃ¤ æ¬¡
Ġæľ Ķ
Ġ365 éĿ¢å¯¹éĿ¢
Ġç»¿ èī²
ĠéĴ ¦
éĤ ĵ
åľ° åįĢ(
è¸ ª
12æľĪ 19æĹ¥
re at
åħ±èµ¢ åħ±æ¬¢ä¹Ĳ
æĲ º
å®ŀ åĲį
åĬŀ çĲĨ
çİ° ä»£
V al
ĠåĲ ¯
Ġ365æ£ĭçīĮ ä¸ĬåĪĨ
Ġæĸ°èĳ¡ èĲĦäº¬
Ġèĥ ½
Ġæīĭæľº åı·
Ċ2019-10 -16
Ġ- >
Ġåĩ¯æĹ¶ æ¸¸æĪı
ê ³
å½© å½©ç¥¨
Ċ âĢľ
æĹłæ³ķ æīĵå¼Ģ
è« ®è©¢
ï¼Į åıª
å¹¿ å·ŀ
èĻļ æĭŁ
èİ« æĸ¯ç§ĳ
ä¹° å½©ç¥¨
Ġèİ± èĬ
æķ ¢
èĦ ¸
Ġå¤§åıĳå¿«ä¸ī å¼Ģå¥ĸ
R y
èĭ¹æŀľçīĪ _
å¤§ ãĢĳãĢĲ
æ¯ ģ
åĪ º
è² ł
åĳ¨åīį ï¼ī
Ġï¼Ī1 åĳ¨åīįï¼ī
Ġäºļæ¸¸åĽ½éĻħ éĽĨåĽ¢å®ĺç½ĳ
Ġéĺ¿ é²ģ
è¯ģ æĺİ
åĨĽ äºĭ
æ´¥ åİ¿|
ï¼Įè¿Ļ æĺ¯
å·ŀ 30å¤©å¤©æ°Ķ
Ġæ» ģ
æ® Ĭ
Ġk y
å¤§ ä¼Ĺ
ĠçĻ¾ èī²
æĥ ¨
æ¾³ æ´²
åĨĴ çĶ¨
Ġéĵľ éĻµ
Ġbet365 çľŁäºº
ĠAre a)
æĹħæ¸¸ å±Ģ
å°ĳ å¹´
éļı æľº
çĶ¨ ä»Ģä¹Ī
æĶ Ģ
Ġæµİ åįĹ|
å¸ ¶
Ġå¤© æ°´|
Ġå° ¤
ic al
èĳ ¬
å·ŀ 15å¤©å¤©æ°Ķ
æĹłæ³ķ éªĮè¯ģ
ĠçľŁäºº çĻ»å½ķ
æĦŁ è°¢
åĮ ¹
6 7
æıĲ éĨĴ
æķ ı
å½¢ æĪĲ
è¿Ľ åı£
Ġèİ «
- m
c heck
ĠC ent
ĠåŃĿ æĦŁ
ç¦» å¼Ģ
Ġåħį è²»
çĪ µ
Ġ2020-03 -30
å·ŀ 10å¤©å¤©æ°Ķ
åĵªè£¡ åı¯ä»¥
Ġä¸Ĭ èĻ
Ġbet365 äºļæ´²
èİ İ
éĩĩ è®¿
Ġå¨Ħ åºķ
åı¯ä»¥ æıĲçİ°
çĲĥ æİ¢
å£ ¹
Ċ2019-10 -21
Ġå¸® åĬ©
Ġå¼ł æİ
Ċä¸Ĭ ä¸ĢæĿ¡
ĠC o.
ĠåİŁ æłĩé¢ĺï¼ļ
_ id
Ġe x
æĲ ¬
Ġåĩ¯åıĳæīĭæľº å®ĺç½ĳ
4 9
æ¸¸æĪı _
Ġå· ¢
æĺ¯ âĢľ
} |
ĊæĹ¶éĹ´ï¼ļ2020å¹´ 04æľĪ
Ġæµıè§Ī æ¬¡æķ°ï¼ļ
ç§ĳ å°Ķæ²ģ
Ġä¸ĩåįļä½ĵèĤ² 3.0
Ġå¤§åıĳ çº¢é»ĳå¤§æĪĺ
C Z
Ö Ĥ
åģļ ä»£çĲĨ
ĠåħŃ çĽĺ
åĬ¨ è½¦
Ġ365bet æıĲçİ°
ĠA pp
Ġéľį éĤ±|
s oft
ĠåĽ½ åĨħ
å¦Ĥ ä»Ĭ
æ² ī
èµĦ éĩĳ
Ġäºļç¾İä¼ĺæĥł æ°¸è¿ľå¤ļä¸ĢçĤ¹
Ġæįķé±¼ æ¸¸æĪı
Ġäºļæ¸¸éĽĨåĽ¢ app
Ġé¡ µ
Ġé» ŀ
å®ĺç½ĳ æ¬¢è¿İæĤ¨
æķ° éĩı
æľīapp åĲĹ
ĠäºĮ è¿ŀ
åĬ «
Ġç½ĳç»ľ çľŁäººèµĮéĴ±
Ġèĩ ³
èĶ ¡
åħ· æľī
T ML
Ġçİ¯äºļag æīĭæľºçĻ»å½ķ
ĠåĲīæľ¨ èĲ¨
å¼¹åĬ¾ æĿ¡æ¬¾
Ġå¾ Ī
å¤§ å¥ĸ
åĹİ ?
è®® ä¼ļ
ĠåĸĢåĸĩ æ²ģ
Ġé¦ĸ çĪ¾
Ġå¼ ĵ
Ġåīįå¤© 20
Ġåĺī å³ª
or ld
ï¼Į åĽłä¸º
Ġæīĭæľº çīĪ
Ġæ£ĭçīĮ æ¸¸æĪı
åľ°ä¸ĭ éĮ¢èİĬ
v en
Ġå°Ĭé¾Ļ ç½ĳåĿĢ
ĊæĤ¨ å½ĵåīį
Ġè¥¿ èĹı
å®ļ åĪ¶
Ġçİ¯äºļçĶµæ¸¸ app
åħ¬ ç½ĳ
ag æĹĹèĪ°
Ġå¼Ģåħĥæ£ĭçīĮ çļĦ
Ġåľ¨çº¿ å¿«3
Ġå¤§åıĳå¿«ä¸ī åĴĮåĢ¼
å¼Ģå¥ĸåİĨåı² _
Ġä¸ĥ åı°
Ġå¤§åıĳå¿«ä¸ī è®¡åĪĴ
åĲĪ çĲĨ
ä»ĭç»į ï¼Į
ï»¿ï»¿ ï»¿ï»¿
Ġ ç½ĳé¡µ
Ċ2019-10 -18
å» ³
Ġ24 6
åĮĹäº¬ å¸Ĥ
èĪª æ¯į
Ġçİ¯äºļçĶµæ¸¸ æīĭæľºçīĪ
çĶµæ°Ķ å®ĺç½ĳ
ĠIntern ational
è±¹åŃĲ _
çĶµæ°Ķå®ĺç½ĳ åĩ¯åıĳå®ĺç½ĳ
Ġåĩ¯åıĳ çĶµæ°Ķå®ĺç½ĳåĩ¯åıĳå®ĺç½ĳ
åĨħ çļĦ
ä¿ Ĺ
Ġå ´
ç²¾ åĵģ
ĠåĪ©æĿ¥w66 .com
Ġéĥ¨èĲ½ å®¢
ĊåįĹäº¬ å¤´æĿ¡
çº ³|
ĠæīĭæľºèµĮéĴ± æ¸¸æĪı
Ġå¹³ åĩ
åħīæĺİ ç½ĳ
æ¶ ¦
åĸ Ĭ
èŃīä»¶ åĢŁéĮ¢
Ġæ½ ŀ
Ċ2019-0 4
æ³¨ åįķ
ĠL e
Ġéĺ¿é²ģ ç§ĳå°Ķæ²ģ
I s
f t
aa aa
çļĦ å·¥ä½ľ
h 0
æĿĳ æ°ĳ
9 u
è¿ĳ æĹ¥ï¼Į
.com .cn
Ġå°Ĭé¾Ļå¤ĩçĶ¨ç½ĳåĿĢ å¼ĢæĪ·
ĠèĲ ¬
( ).
åĪĨéĴŁ éĴŁ
æ¬ £
è¾ ¨
æİ ī
Ċ æĻĭæ±Łæĸ°éĹ»ç½ĳ
ãĢĳãĢĲãĢĤãĢĳãĢĲ <ãĢĳãĢĲ/
b d
Ġåħ« ä¸Ģ
Ġäºļæ´² æ¸¸
Ġçļĩ æģ©éĿłè°±
å£ ®
é¾Ļ ç½ĳ
å¥ Ī
è¯Ģçªį _
err or
è» į
ĠéĤ ¹
Ġéĵ ĥå£°
åħįè´¹ åħ¬å¼Ģ
ëĭ ¤
æĦı å¤§åĪ©
èĩª æĪĳ
Ċ2019-10 -15
çĸ« æĥħ
365 ä½ĵèĤ²åľ¨çº¿
æ· ĺ
å¤§ è¿ŀ
åĨľ åľº
çĤ¹ cc
åĴĮåĢ¼ _
åİŁ åİ¿|
ä¸ľ æĸ¹
æĬ¥ èŃ¦
çĶļ èĩ³
çĶ· åŃ©
æĪ¿ åŃĲ
æµ· å¸Ĥ|
Ċ2019-10 -22
ĠçĽ ĳ
éĤ ĳåİ¿|
å·´ é»İ
çĨĬ çĮ«
å¼Ģå¥ĸç»ĵæŀľ æŁ¥è¯¢
Ġbet365 å®ĺæĸ¹
Ġé ¼
èģĶ éĤ¦
Ġh as
Ġ íķ
ï¼Į ä¸ŃåĽ½
çĤ Ĵ
Ċ2018 -10
çĪĨ åĪĨ
Ġ2020-04-0 3
æ·± åħ¥
å·Ŀ å¸Ĥ|
Ġæķ¦ åĮĸ|
æ³ī åİ¿|
Ġfunction ()
In d
æĽ ¹
å®¶ å±ŀ
Ġåºĵ å°Ķ
ìĿ ´
æ³½ åİ¿|
Ġåĩ¯åıĳçĽ´æĴŃ app
æĮĳ æĪĺ
l i
Ġèµ¶ éĽĨ
åıª ï¿½
Ġ356bet æıĲçİ°
ĠäºĶ èİ²|
Ġçªģ æ³ī|
æľĢæĸ°çĻ»å½ķ ç½ĳç«Ļ
Ġå¤§ åĲį|
æºĲ çłģ
Ġæ³ķ å¾ĭ
Ġæ¹ĸ åı£|
åŀ ĥåľ¾
ĠæĶ ¾
ãĢĤ æĪĳ
Ġé¦Ļ æ²³|
éĻĲ é¢Ŀ
ĠCh ina
Ġcomment Count:0,
ĠmainComment Count:0,
ĠæĹ º
+ app
ĠçīŁ å®ļ|
Ġéĺ¿ åŁİ|
T E
èĭ¹æŀľ APPï¼ļå½©ç¥ŀ
ï¼ļ å½©ç¥ŀäºīéľ¸8
Ġæ´± æºĲ|
Ġå°Ĭé¾Ļ å¤ĩçĶ¨ç½ĳç«Ļ
ĠåĪ©æĿ¥ æ¸¸æĪı
8 2
Ġå² Ĳå±±|
Ġbt365 ä½ĵèĤ²æĬķæ³¨
ï¼Į æĽ´
ĠåĴĮ é¾Ļ|
Ċ 365bet
ĠèĬ Ĵ
Ġåĺī ç¦¾|
é© ±
æ» ©
5 4
ä¸Ģ ä½į
åĲį ç§°
èĩª åĬ©
æİ¥ åı£
l ic
ĠæĿ¾ æ±Ł|
on d
æĵ ļ
Ġç¦ı å½©
æľ µ
åĬ¨ çī©
Ġè° ·
èĲ½ å®ŀ
ç½ĳ |
Ġå¯ŁåĵĪå°Ķåı³ç¿¼ åĲİæĹĹ|
Ġçī Ļ
Ġå¥ ¥
Ĺ İ
indow .
Ċ èĲ§
æŃ¥ éª¤
Ġåıĸ æ¶Ī
Ġå¤§èį Ķ|
Ġåı°åīį |
æĲ ¶
A M
ĠæŃ£ éĺ³|
Ġæīİåħ° å±¯|
Ġä¹Į é©¬
Ġç ¯
Ġä¸ī åĪĨæĹ¶æĹ¶å½©
ĠæľĢ å¥½çļĦ
æ£Ģ å¯Ł
Ġ2020-04-0 9
Y 29
æĸ½ å·¥
æĹł äºº
Ġä¹Įåħ° æµ©çī¹|
æ¸¯ æ¾³
IOS ä¸ĭè½½_
Ġ! =
Ġå®ģ æ³¢
èĩ ºåįĹå¸Ĥ
Ġåĳ¼ çİĽ|
Ġæ¶¿ é¹¿|
Ġç¿ģ æºĲ|
ä¸Ńæĸĩ å®ĺç½ĳ
ï¼Į è¢«
è¾ ŀ
å°ı åĮº
åķı é¡Į
ä¸ĭè½½ å®¢æĪ·ç«¯
Ġ365ä½ĵèĤ² å®ĺæĸ¹
æĹłæ³ķ æıĲçİ°
é¢Ĩå¯¼ äºº
è¢ ĸ
ĠA p
å¹ ¼
Ċ H
éĤ Ĭ
at er
Ġä¹Į å½ĵ|
Ġ2019-11 -18
ĠæīİåĽ Ĭ|
ĠåĬ ¡
Ġå²¢å² ļ|
ĠæľŃ è¾¾|
ĠåĸĢåĸĩæ²ģ å·¦ç¿¼
èĥ½ æıĲçİ°
Ġåıĳå¸ĥ æĹ¶éĹ´ï¼ļ2020-0
ces sed
Ġå¼ĵ éķ¿
èĥľ å½ª
p >
Ġè Ľ
èĥľå½ª ä¸ĵæłı
Ġwww. baidu.com/
u i
æķ° ï¼ļ
åĪ© äºļ
Ġæµ® æ¢ģ|
è° Ĭ
ĊåĲ´ èĥľå½ªä¸ĵæłı
Ġé¢Ŀå°Ķåı¤ çº³|
éĩĮ éĿ¢
è©ķ æ¯Ķ
?? ?
( data
Ġä¹Įé©¬ æ²³|
Ġèİ ·
èĦ ±|
èĪ į
Ġå¼ĵéķ¿ å²Ń|
ĠåĸĢåĸĩæ²ģå·¦ç¿¼ |
Ġæ±Łèĭı å¿«3
Ġéħ į
Ġè± ª
Ġa b
Ġéĺ¿é²ģç§ĳå°Ķæ²ģ æĹĹ|
ĠæĿľ éĽĨ|
æ²» çĸĹ
ä¸ī åħ¬
Ġå¢¨ èĦ±|
æŃ¦ æ±ī
2016 å¹´
èĢģ äºº
Ġåīįå¤©0 4
Ġ365æ£ĭçīĮæ°´æŀľ æľº
æĹ ¢
åĺ İ
åħ¨å¤© è®¡åĪĴ_
ĠæĢĢ æŁ
çľŁäºº çĽ´æĴŃ
åĲĦ åľ°
Ġåīįå¤© 19
ç¼ ´
Ġéĺ¿ åĽ¾
Ġéĺ¿ çĵ¦
æīĭæľºçīĪ _
Ġå°Ĭé¾Ļ æ£ĭçīĮ
Im age
e ch
ãĢĤ ä¹łè¿ĳå¹³
äººå·¥ è®¡åĪĴ
Ġéĺ¿æĭīåĸĦ åı³æĹĹ|
Ġäºļç¾İä¼ĺæĥł å¤ļä¸ĢçĤ¹
Ġåħ«ä¸Ģ éķĩ|
UU å¿«3
å±± åİ¿
ãĢĳãĢĲ äººãĢĳãĢĲ
lo ck
ĠæĹ¥ åľŁ
æĭ¥ æľī
ï¼ İ
ĠåĪ©æĿ¥w66æľĢ ç»ĻåĪ©çļĦèĢģçīĮ
Ġ[ ];
ĠäºļæĲı ä¸ĭè½½å®¢æĪ·ç«¯
ĠäºļæĲı çľŁäººçĽ´æĴŃ
æĪ¿ éĹ´
Ġ2020-03 -31
( 0)
ĠéĹ¨ å¤´
Ġéĥ İ
ä¿¡ åı·
ì Ħ
ĠéĦ ¯
ï¼ ĵ
ĠçĭĹä¸ĩ ä¹°çĲĥ
ĊT he
çħ§ çīĩ
Ġå¸®åĬ© ä¸Ńå¿ĥ
à¸ «
ä¸ĩ çĭĹ
éļ Ĭ
æĸ° ç¤¾
åľ¨ åĮĹäº¬
ĠçĶµçİ©åŁİ æįķé±¼
ç¼ ©
§ ï¿½
Ĥ åİ¿|
ĸ éľ
ĠèģĤ æĭī
æ³¨åĨĮ å¼ĢæĪ·
_ å¤§åıĳ
Ġåĩ¯æĹ¶åĽ½éĻħ å¼ĢæĪ·
è§£ ç»ĳ
ä¿¡èªī ç½ĳç«Ļ
ä¿ĥ è¿Ľ
Ġï ¿¥
å½© èµĦæĸĻ
æ³¨åĨĮéĢģ éĴ±
äºĮ åįģ
w ord
çº¦ç¿° éĢĬ
µ è¡Į
ì Ĺ
Ġä¹Ĳæ©Ļ åĽ½éĻħ
éŁ³ ä¹Ĳ
Ċ æĺ¥
ŀ ï¿½
ĠçĭĹä¸ĩ æľī
Ġæ±Łèĭı å¿«ä¸ī
éĥ½ æľī
Ġæīİ é²ģ
Ġ$(' #
èĭ¹æŀľ app
Ð¾ Ð
åĪ°è´¦ æĹ¶éĹ´
éĢī 7
Ġ918åįļå¤© å¨±ä¹Ĳ
Ġç¦ »
é«ĺæ½® çīĪ
æª¬ åıªï¿½
Ġ918ï¿½éİıçĦ¯ æª¬åıªï¿½
Ġag æ³¨åĨĮ
Ġåĩ¯åıĳå®ĺç½ĳ ä¸ĭè½½ç½ĳåĿĢ
Ġè° ĥ
è¾ĵéĴ± _
Ġæ¾³éĹ¨ bet365
ŀ à¸
Ġè°¢ éĢļ
æīĭæľº å®ĺæĸ¹å®¢æĪ·ç«¯ä¸ĭè½½
Ċä»ĬæĹ¥ æĹ©æĬ¥
æĢ ª
å®ŀ æĹ¶
Mj h
ë Ĭ
åİ ļ
Ġå¤§åıĳå¿«ä¸ī çļĦ
n um
åħĭ åħ°
it i
ĠçŁ³ çĭ®
èĩªæ²» åĮº
çº Į
A S
Ġåīįå¤© 17
Ċ2019-10 -20
Ġåĩ¯åıĳæ³¨åĨĮå¹³åı° åħįè´¹ä¸ĭè½½
è¡ ¡
Ĺ åİ¿|
çĶ ¯
à¸¥ à¸
æĪĲ åĳĺ
ä¸º âĢľ
åħ¬ æ°ĳ
åħ´ åİ¿|
ä½ł ä»¬
24 æĹ¥
ä¸Ģ å¹´
ä½ĵèĤ² å®ĺç½ĳ
Ġè¾ ī
Ċ 356bet
æıĲ éĹ®
Ċ çĻ¼è¡¨æĸ¼
Ĥ ï¿½
ir st
å½© ä¹Ĳ
H J
çļĦ éĩįè¦ģ
ĠçĭĹä¸ĩ é»ĳ
Ġéĺ³ æľ
ĠåĬł æĭ¿å¤§
å½© ccåĽ½éĻħ
æĸ ¤
è´§ è½¦
an ji
æľĢæĸ° å®ĺç½ĳ
Ġçİ¯äºļag å®ĺç½ĳ
èµ°åĬ¿åĽ¾ _
ä¸Ĭ ç½ĳ
ĠçĭĹä¸ĩ è½¯ä»¶
Ġå¤§åıĳå¿«ä¸ī å®ĺç½ĳ
åı¸ æľº
åĨľ ä¸ļ
ç´ «
å®¢ æĪ¿
å·² è¢«
åħ¬å¼Ģ éĢīæĸĻ
æĸ° æĹ¶ä»£
ç² ¹
ä»ĺ æ¬¾
ä¿¡èªī å¥½
æĢ»ä»£ _
çĤ¹ ï¼Į
Ġæ¸ łéģĵ
Ġ66 åĪ©æĿ¥å®ĺç½ĳ
n ãĢĳãĢĲtãĢĳãĢĲ
Ġåīįå¤©0 2
ĠåĮħ åŃĲ
05 ï¿½ï¿½
Ġè¯ ¦
Ġç¦ ¹
çĽĳ çĿ£
Ġçº¿ä¸ĬçľŁäºº èµĮéĴ±
ç¹Ŀï½ «
Ġçİ¯äºļag çĻ»å½ķ
Ġéĵĥå£° é«ĺæ½®çīĪ
èĥ ģ
Ġèµ Ľ
è¨Ī ç®Ĺ
Ġç¥ŀåĨľæŀ¶ æŀĹ
ĊT h
8 ,
çĪ ½
ç´ ħ
Ġåīįå¤©0 5
Ġæķ ħ
ĠL td
Ġd es
/ å¤§åıĳ
Ġæ² »
ĠN ew
ĠO n
èµ°åĬ¿ _
æľĢæĸ° åľ°åĿĢ
Ġ2016 -12
èµ «
Ġm ore
u y
éĳ «
ĊæĺĨ ä»ĳ
å¥Ĺ è·¯
Ġ à¹
Ġè¥¿ å®ī
ç®Ĺ åĳ½
Ġæµģ åĬ¨æĹ©é¤ĲåĬłçĽŁ
åħĥ ï¼Į
Ġæ¾³éĹ¨ 365betå®ĺç½ĳ
ĠæĿŃ å·ŀ
Ġ365bet å¤ĩçĶ¨
å§ĵ åĲį
Ġåīįå¤© 23
Ġåīįå¤© 14
è´ ¯
ĠæĹ©é¤ĲåĬłçĽŁ åĵªå®¶å¥½
ĠB y
è Ł
Ġæİ¨ èįĲ
ä¸į å¾Ĺ
Ġå¤§ ä¸ĵ
ĠåŃ¦ çĶŁæĹ©é¤ĲåĬłçĽŁ
çľŁäºº å¨±ä¹Ĳ
_è®¡åĪĴ å¸Ī
ä¹ Ķ
e ed
Ġå¤©æ´¥æĹ©çĤ¹åĬłçĽŁ è½¦
ĠéĽĦå·ŀæĹ©é¤ĲåĬłçĽŁ çĶµè¯Ŀ
ĠæĹ©çĤ¹ ç²¥åĬłçĽŁ
ãĢĳãĢĲoãĢĳãĢĲ rãĢĳãĢĲ
Ġè±Ĩ æµĨ
Ġå³ ¡
ĠåĬłçĽŁ çī¹èī²æĹ©çĤ¹
ç½ĳç«Ļ å¤ļå°ĳ
ĠåĮħåŃĲ æĹ©çĤ¹åĬłçĽŁ
Ġå¹¿ å¼ıæĹ©é¤ĲåĬłçĽŁ
Ġå®īå¾½ æĹ©çĤ¹åĬłçĽŁ
æŃ£è§Ħ ç½ĳç«Ļ
Ġå°Ĭé¾Ļd88 ä¸ĭè½½
èµ ł
è´ º
ĠæĹ©çĤ¹ é¤Ĳé¥®åĬłçĽŁ
åħ¶ ä¸Ń
Ċ åĲīæŀĹ
00 00
èİ· åıĸ
ĠåĮĹäº¬ æĹ©çĤ¹åĬłçĽŁ
Ġçİ¯äºļag æ¸¸æĪı
Ġæ¹ĸåįĹ çī¹èī²æĹ©çĤ¹åĬłçĽŁ
Ġåīįå¤© 11
ĠæĹ©çĤ¹å°ıåĲĥåĬłçĽŁ ç½ĳ
ĠæĹ©é¤Ĳ åŁ¹è®ŃåĬłçĽŁ
æ±Ł åį«
äºĭ æĥħ
ĠæĹ©é¤Ĳ é¤Ĳé¥®åĬłçĽŁ
Ġæ²¹ æĿ¡æĹ©é¤ĲåĬłçĽŁ
ĠæĹ©é¤ĲåĬłçĽŁ å¥½é¡¹çĽ®
Ġst yle
Ġåĩ¯æĹ¶åĽ½éĻħ å¹³åı°
æ¹ĺ æ½Ń
ä¸¾ åĬŀ
åĽ½ éĺ²
Ġæ¾³éĹ¨ 365ä½ĵèĤ²æĬķæ³¨
ĠæĹ©é¤Ĳ éĿ¢é¦ĨåĬłçĽŁ
Ċ çĩķ
ãĢĳãĢĲ äºĨ
Ġu p
ãĢģ ãĢģ
ĠéĻķè¥¿ æĹ©çĤ¹åĬłçĽŁ
Ġ?? ?
ĠæĹ©çĤ¹åĬłçĽŁ é¡¹çĽ®
ĠéĽĦå·ŀ æĹ©é¤ĲæĢİä¹ĪåĬłçĽŁ
å®īè£ħ _
ãĢı ãĢİ
Ġè±ĨæµĨ æĹ©é¤ĲåĬłçĽŁ
Ġåīįå¤© 10
Ġåģ¥åº· æĹ©çĤ¹åĬłçĽŁ
è¢« åĨĴçĶ¨
èµĦ èŀį
Ġå±±ä¸ľ æĹ©é¤ĲåĬłçĽŁ
ĠæĹ©é¤Ĳ åĮħåŃĲåĬłçĽŁ
ĠccåĽ½éĻħ å¹³åı°
4 3
åĥ¹ æł¼
æĪĲ ç»©
ĠæĹ©çĤ¹å°ıåĲĥåĬłçĽŁ æİĴè¡Įæ¦ľ
åįĹ æĬķ
ï¼Į å¥¹
Ġåīįå¤©0 1
Ġé¦Ļ æł¼éĩĮ
çĿ ¡
è® ¼
Ġæµ ı
çĽ¸ ä¿¡
ĠæĹ©çĤ¹ è½¦åĬłçĽŁ
èĢĥ èĻĳ
è¾ħåĬ© _
å¯¼èĪª ç½ĳ_
ĠæĶ¶ ä¸įåĪ°
Ġæ¸łéģĵ åĲĪä½ľ
ĠæĶ¶ä¸įåĪ° éªĮè¯ģ
ä¿¡èªī æĢİä¹Īæł·
Ġå¤§ ç¦ıæĿ¥æĹ©çĤ¹åĬłçĽŁ
ĠæĹ©çĤ¹ éĿ¢æĿ¡åĬłçĽŁ
ĠæĹ©é¤ĲåºĹåĬłçĽŁ åĵªå®¶å¥½
Ġæīİé²ģ çī¹æĹĹ|
Ġæ±Łèĭı æĹ©é¤ĲåĬłçĽŁ
æŀģéĢŁ å¿«ä¸ī
ç¶² è·¯
æķ Į
Ġæ¾³éĹ¨ ç²¾åĩĨ
Ġæ¹ĸ åĮĹæĹ©é¤ĲåĬłçĽŁ
Ġåīįå¤©0 7
é¹ ¿
Ġå·´æŀĹ åı³æĹĹ|
Ġå¾· éĴ
° ï¿½ï¿½
Ġw66 å®ĺç½ĳ
Ġæł ĸéľ
24 6
æ³¨åĨĮ å®ĺç½ĳ
Ġä¸Ń å¼ıæĹ©çĤ¹åĬłçĽŁ
ĠAGäºļ å®ĺæĸ¹
Ġä¸Ĭæµ· æĹ©çĤ¹åĬłçĽŁ
Ġå¾ Ģ
ĠçĭĹä¸ĩ ä¸ĭè½½
5 åĪĨæĹ¶æĹ¶å½©
ĠæĹ©çĤ¹åĬłçĽŁ ç½ĳ
ĠåĲ ¦
Ġ ä¾¯
éĥµ å±Ģ
ĠæĹ©é¤Ĳ å·¥ç¨ĭåĬłçĽŁ
Ġ è½¦
å¸Ĥ éķĩ
ä¸ĭ è¼ī
è ¥Ħ
å¾ĭ å¸Ī
æĸ° ç½ĳåĿĢ
M z
5 7
ĠæĹ©çĤ¹ è¿ŀéĶģåĬłçĽŁ
Ġæĸ° ä¸ĩåįļ
ri p
æķĳ æı´
ĠæĺĨ æĺİ
éĺ µ
ĠæĻ ´
ĠæĬ ¥
Ġ365 åľ¨çº¿ä½ĵèĤ²æĬķæ³¨
Ġåīįå¤©0 9
Ġæģ Ń
æ´Ľ éĺ³
ĠèĢ Ĵ
æĬĢå·§ _
æ£ĭçīĮ å®¤
éĥ½ ä¼ļ
æĩ Ĥ
G anji
ĠçĻ¼ è¡¨
ĠåĽ¾ ä»¬
æ© ĭ
ä»İ åĵªéĩĮ
Ġçİ¯äºļ æīĭæľºapp
st yle
ĠçıŃ æĪ
Ġäºļç¾İ åĽ½éĻħå¹³åı°
Ġ365ä½ĵèĤ²æĬķæ³¨ çľŁäºº
Ġåīįå¤©0 8
èµĦèŀį åĪ¸
Ġäºļç¾İam8 å®ĺæĸ¹ç½ĳç«Ļ
Ġåīįå¤© 16
Ġåĺī èį
å¤§ éĻĨ
éĺ³ åİ¿
æĺİ å¹´
Ġå¤§ æ´
Ġä¹ħ æ²»
Ġè¿ Ń
ä¼ļ ãĢĳãĢĲ
è¿ ħ
æĴ ¤
çĲĨ è´¢
çº³ å£«
ĠT empl
icro soft
Ġçĵ¦ æĪ¿
Ġåīįå¤© 12
è´¤ çº³å£«
åįķåıĮï¼ļ å½©ç¥ŀäºīéľ¸8
åľŁ èĢ³åħ¶
Ġæ² Ľåİ¿|
Ġç¥ŀåĨľæŀ¶æŀĹ åĮº|
ĊæĹ¶éĹ´ï¼ļ 2020-0
ĠæĭĽ è´¤çº³å£«
Ġwww.baidu.com/ aaaa
rem ove
ivers ity
æ¸ ¬
I P
åĮĹäº¬ èµĽè½¦
æ¯ «
ĠåĬ¨ æ¼«
us h
å®īåįĵçīĪ _
Ġäºļæ¸¸app æĢİæł·
Ġåĩ Ĩ
Ġæĸ° çĸĨ
ĠèĹ ģ
Ġèĭ¥ ç¾
Ġç´ ¢
ï¼Įä½Ĩ æĺ¯
å¥ĸéĩĳ ä»£çłģ
ĠæŃ¦ é¸
c ted
Ġw66 æīĭæľº
Ċ âĢĿ
å¦Ĥä½ķ æıĲæ¬¾
è ļ
Ġäºķ çłĶ
ou nd
Ċ åīį
Ġbet356 ä½ĵèĤ²åľ¨çº¿
25 æĹ¥
Ġå£ ¤
ord er
ĠæĹł æ£
ĊæĺĨä»ĳ ç½ĳ
ĠçŁ³ æ²³
ĊCopyright Â©
Ġåºĵ ä¼¦
æĺ¯ å¤ĸåĽ´åĲĹ
ä»ĸä»¬ çļĦ
ĠåĪ©æĿ¥ AGæĹĹèĪ°åİħ
éĤ£ äºĽ
çĶŁ çī©
ĠC ity
Ġk8å¨±ä¹Ĳå®ĺç½ĳåľ°åĿĢ å¨±ä¹Ĳ
29 æĹ¥
æĪª åĽ¾
æĹ¥æĬ¥ éģĵ
çĶ¨ è½¦
Ġå½©ç¥ŀ app
Ġagçİ¯äºļ ç½ĳç«Ļ
Ġæł ¹
bo x
ä¼łåªĴ ç½ĳ
èĭ¹æŀľçīĪ å®ĺæĸ¹ä¸ĭè½½
Ġå² Ĺ
æĮ £
è§£ éĻ¤
ĠçĻ½ æľĹ
æįŁ å¤±
Ġåīįå¤© 18
èµ ı
Ġå Ļ
ĠäºļæĲıä½ĵèĤ² èĭ¹æŀľçīĪå®ĺæĸ¹ä¸ĭè½½
è¯ ¸
æĭĽåķĨ åĬłçĽŁ
ä» Ķ
å®£ ä¼ł
æļ ¨
ãĢĤ æĪĳä»¬
å®ĺç½ĳçĻ»å½ķ ä¸ĭè½½
ĠI t
éİ ®
ãĢĳãĢĲiãĢĳãĢĲ nãĢĳãĢĲ
Ġæľ¬ åľŁ
attr ("
ĠåĮº åİ¿
u a
ĠåĲ «
Ċ æĿŃå·ŀ
æŃ£ç½ĳ å¹³åı°
Ġbet365 æıĲçİ°
Ġå¸ Ī
ç½ĳé¡µçīĪ çĻ»å½ķ
Ċ 365æ£ĭçīĮ
ï¼Į åı¯
Ġå·´ é»İ
Ġk8 æ£ĭçīĮ
Ġä¸ İ
èı ±
å¼Ģ å¿ĥ
ä»£æĽ¸ è²¸æ¬¾
ãĢĳãĢĲ åľ¨ãĢĳãĢĲ
Ġä¸ĭä¸Ģç¯ĩï¼ļ æ²¡æľīäºĨ
ç¼ ĺ
Ċçĩķ èµµ
ĠçĭĹä¸ĩ ç»ĵç®Ĺ
çİ°åľº å¨±ä¹Ĳ
ĠèĬ ¦
Ġåīįå¤©0 6
Ġi m
å¼Ģ ä»Ģä¹Ī
æ¬ Ħ
Ġçł ´
ĠåĪ ļ
b te365
v is
L O
çĤ¹ è¯Ħ
( R
Ġæīĭæľºåı· è¢«åĨĴçĶ¨
éł ħ
Ċ æĤ¨çļĦä½įç½®ï¼ļ
Ċåıĳå¸ĥ æĹ¶éĹ´:
ĠåĮºåİ¿ å¯¼èĪª
V 4
Ġç§ °
Ġst r
Ġå§ ļ
äºļæ¸¸ éĽĨåĽ¢
ä¸į æľĥ
å±ħ æ°ĳ
èĬ± èĵ®
Ġ365æ£ĭçīĮ å¾®ä¿¡
Ġåĩ¯åıĳçĶµæ¸¸ å®ĺæĸ¹ç½ĳç«Ļ
åħįè´¹ èµĦæŀĵå¤§åħ¨
ĠC D
appä¸ĭè½½ å®ĺç½ĳ
Ġé¢Ŀ æķ
Ġæī¿ å¾·åİ¿|
m e
æĿĥ åĪ©
ĠæĪ¿å±ĭ æ±Ĥ
Ġæ¾³éĹ¨ 365bet
æľĢæĸ° æĬķæ³¨
å¨±ä¹Ĳ ç½ĳ
ï½ ŀ
éĿĴå¹´ æĬ¥
p er
Ċä¸Ń æĸ°ç½ĳ
Ġ10 åĪĨpk10
Ġè¾½ éĺ³åİ¿|
ĠéĹ¨ æºĲ|
æ¯ĶèµĽ é¢Ħæµĭ
Ġéģµ ä¹īåİ¿|
ine se
åħļ å§Ķ
Ġé»Ħ å±±å¸Ĥ|
Ċ æ¹ĺæ½Ń
ï¼Įä»¥ åıĬ
Ġky å¼Ģåħĥæ£ĭçīĮ
åĽŀ è¦Ĩ
åħĭ æĸ¯
Ġå¿ Ĺ
Ġm obile
Ġæĸ°ç«¹ åİ¿|
Ġä¸Ĭé¥¶ åİ¿|
Ġæłªæ´² åİ¿|
æķ´ ä¸ª
ĠçĭĹä¸ĩ è®©çĲĥ
Ġå®ľå®¾ åİ¿|
ĠèĬľæ¹ĸ åİ¿|
ç½ Ĳ
æĺİ ç¡®
æ² Ī
ä¸į ä»ħ
éĿ¢ ä¸´
Ġqu eries
çģ Ń
Ġä¼Ĭ å®ģåİ¿|
äººæ°ĳ ç½ĳ
Ġåı°åĮĹ åİ¿|
Ċä½ľèĢħ :
èµ ĸ
Ġè¡¡ éĺ³åİ¿|
ĠéĢļ åĮĸåİ¿|
æĬ¥éģĵ ç§°ï¼Į
èĦ± æ¬§
çĻ»ä¸įä¸Ĭ åİ»
ĠÃ Ĺ
æĦı ä¹ī
åĲĪ åĲĮ
çĽĳ æİ§
ä»· ï¼ļ
Ċåħ³äºİ Ganji
b ack
ag çľŁäºº
Ġå¤§åĲĮ åİ¿|
åħ¨ ç«Ļ
ĠåįĹ æĺĮåİ¿|
æŃ¤ åĪĨé¡ŀ
å¼Ģå¥ĸ _
ĠçĭĹä¸ĩ æĢİä¹Īä¹°
Ġéķ¿æ²» åİ¿|
æĽ´ åĬł
Ġmod ify
ä¸ľ äº¬
Ġagä¸ĭè½½ å®ĺæĸ¹ç½ĳç«Ļ
Ġä¹Ŀ æ±Łåİ¿|
Image 1
ider Image1
åĬł æĹ¶
è©ķæ¯Ķ ,
Ġå¤§åĲĮ å¸Ĥ|
æµĭ è¯ķ
yXG 5
è¥¿ åįĹ
çµ ±
å° ĩ
Ġbet365 å¤ĩçĶ¨
Ġèµ¶éĽĨ æİ¨å¹¿
ä¾Ŀ æ³ķ
Ġ365betå®ĺç½ĳ çľŁäºº
Ġä¸Ń åį«
Ġag ç½ĳç«Ļ
Ġåĩ¯åıĳçľŁäºº å¹³åı°
Ġåīįå¤© 22
ĠåĲī å®īåİ¿|
Ġåºĵä¼¦ æĹĹ|
Ġåı° çģ£
. net
å¨±ä¹Ĳ æ¸¸æĪıå¹³åı°
ç²¾ å½©
æĦŁ è§ī
ĠéĤµ éĺ³åİ¿|
Ġåı°ä¸Ń åİ¿|
ĠæĲ ľ
Ċæĺ¥ åħī
ĠæľĿ éĺ³åİ¿|
Ċ åģ¥åº·
Ġ ä»ĭ
** **
è¿Ļ ä¹Ī
ĠæĬļé¡º åİ¿|
ĠéĨ ´
Ġä¸´å¤ı åİ¿|
Ġå²³ éĺ³åİ¿|
d G
on s
Ġåīįå¤© 21
Ċ2019-10 -14
åŁİ æĸ°éĹ»ç½ĳ
è½¯ä»¶ _
å·ŀ æĹ¥æĬ¥
Ġå¼Ģå°ģ åİ¿|
Ġå®£ åĮĸåİ¿|
Ġéĵģå²Ń åİ¿|
æŃ£è§Ħ ç½ĳ_
æīĭæľºç«¯ ä¸ĭè½½
10 5
è´Łè´£ äºº
ç¯®çĲĥ æ»ļçĲĥ
åĲ ģ
çĻ¾å®¶å®¶ä¹Ĳ app
æĸ¯ Â·
ï¼Į å¦Ĥæŀľ
Ġåĺī ä¹īåİ¿|
Ġé«ĺéĽĦ åİ¿|
æ²Ł éĢļ
Ċæ¹ĺæ½Ń åľ¨çº¿
Ġåı° åįĹåİ¿|
æ¯Ķ äºļ
Ġç»įåħ´ åİ¿|
ribo88 çĤ¹cc
å¿«ä¹Ĳ åħ«
Ġæīĭæľº èµ¶éĽĨ
Ġæ¹ĺæ½Ń åİ¿|
Ċ ï¿½ï¿½
ZS I6ZmFsc2UsIm
Ġ{ å¤§ç¥ŀ
Ġæĸ° æ²
ĠçĭĹä¸ĩ åĴĮ
åĴ ĭ
çĻ¾åº¦ åľ°åĽ¾
æĢ»ç»Ł çī¹æľĹæĻ®
Ġæ» ķ
Ġæ ¦Ĥ
ĠS P
Ġ2019-0 3
çĶ° æ£®
ĠéĤµ éĺ³å¸Ĥ|
ä¸ĭ éĻį
Ġæ¾³éĹ¨ æŃ£çīĪ
Õ¸ ÖĤ
Ġç© º
Ġ365betå®ĺç½ĳ å®ĺæĸ¹
365 .com
æĸ° æµª
æĬķæ³¨ ç½ĳç«Ļ
Ġ ä½ĵèĤ²åľ¨çº¿
åĪĺ æ±Łåį«
âĢ Ģ
Ġæµ ª
å»º è®®
åķĨ ä¸ļ
å®¾ é¦Ĩ
èĤ ĩ
ĠU N
6 çłģ
æŁ ı
Ġmodify Time
ĠmodifyTime :0,
r an
ä¼ļ è§ģ
èµĦæĸĻå¤§åħ¨ |
c .
CN N
Ġçİ° åľ¨
Ġåĵª å®¶
ap k
Ġäºļç¾İagæĹĹèĪ°åİħ appä¸ĭè½½
Ġäºļæ¸¸ çĶµæ¸¸
äºĶ æĺŁ
Ġsecond (s
¦ ï¿½
ï¼Įä¹Ł æĺ¯
æŀĹ åİ¿|
½ ï¿½
val ue
æī§ æ³ķ
Ġéĥ½ æ±Ł
Q u
æĹ©çĤ¹ å¿«é¤ĲåĬłçĽŁ
ĠåĪ©æĿ¥ æīĭæľºapp
ç£ ¨
æ©Łè»Ĭ åĪĨæľŁ
ĠçŁ³ åĺ´
Ġag æīĭæľºå®¢æĪ·ç«¯ä¸ĭè½½
ï¼Į åĲĮ
å¦Ĥ æŃ¤
ost ed
Ġ365betå®ĺç½ĳ æ»ļçĲĥ
æĺ¯çľŁå®ŀåĲĹ _
Ġäºļç¾İ åħ¬åı¸
ä¼¯ æ¸©
ä¿Ŀ è¯ģ
ä¸º æĤ¨
Ġçİ¯äºļéĽĨåĽ¢ app
åħ¬ åħ±
Ġå¹³ åı°
çħ ¤
éģ į
Ġ2018 å¹´
Ġè¿ ľ
Ġ1 .0
Ġ365ä½ĵèĤ²æĬķæ³¨ å®ĺæĸ¹
æĭĽåķĨ ä¸»ç®¡
ĠccåĽ½éĻħå½© çĲĥç½ĳ
æµ· åħ³
çļĦ ä½įç½®
Ġåīįå¤©0 3
Ġ2020-0 4-10
1 å¹´
ĠåĽ ´
çŃī åľ°
ëĬ Ķ
ï¿½ï¿½ï¿½ï¿½ ï¿½ï¿½ï¿½
æķĻ å¸Ī
å¨±ä¹Ĳ å¼ĢæĪ·
éĩĩ è´Ń
çĦ¶ åĲİ
w a
æĸ¹ æĹ©é¤ĲåĬłçĽŁ
è· Ŀ
dG g
Ċ2019-10 -17
ï¼ī ãĢĤ
2lk dGg
A D
12 3
f orm
ĠS H
Ġçİ¯äºļçĶµæ¸¸ ag
Ġæ¾³éĹ¨ |
Ġéĩĳ åĿĽ
éĢ £
ĠçĪ± å½©ä¹Ĳ
Ġ$ .
çķ «
æĮĤ æľº
ial og
Ġçģµ å®Ŀ
èĢģ æĺ¯
agæĹĹèĪ°åİħ å®ĺç½ĳ
åħ¬ éĸĭ
å®ĺæĸ¹ appä¸ĭè½½
Ġ2018 -07
å¼ ±
å®¶ä¹Ĳ æĹ©é¤ĲåĬłçĽŁ
4 OT
Ċ2019-12 -06
Ġæ°¸ åĪ©
æ¬§æ´² è¶³çĲĥ
Mjh 4OT
g YWR
Ġæ© Ł
å®ģ å¸Ĥ
éªĹå±Ģ _
Ċ å¨ģ
åĪĨæİĴåĪĹ 5
æĢİæł· åĬłçĽŁ
- d
_ äºļåįļ
Ġe å½©ccåĽ½éĻħ
Ċ2019-0 3
éħįéĢģ åĬłçĽŁ
è½ ´
æĹ©çĤ¹ æĢİæł·åĬłçĽŁ
Ġæł¼ å°Ķ
Ġé ±¼
æĹ©çĤ¹ åºĹåĬłçĽŁ
æľ ±
æľ¬ åľ°
Ġ356bet å¤ĩçĶ¨
ç½ĳç«Ļ æĺ¯å¤ļå°ĳ
çº½ çº¦
ç¿ ł
Ġé©¬ è¾¹|
Ġn ull
éĥ¨ éĺŁ
ĠçĭĹä¸ĩ æľĢä½İ
åĴ ĸ
æĳ ĩ
å®Ĺ æĹ©çĤ¹åĬłçĽŁ
æĿ ł
Ġå±± è¥¿
Ġ2020-0 7
Ċ èĬ
ĠæĻ¯ ä¸ľ|
çł´ åĿı
èµĦæĸĻ |
Ġä¸ľ ä¹¡|
Ġäºļç¾İ AGæĹĹèĪ°åİħ
âĨ ĵ
åĲ§ åĬłçĽŁ
Ġèį£ æĪĲ
Ċ 2020
Ġäºļæ¸¸ å¹³åı°
ĊåįĹ æĸ¹
ä¸ŃåĽ½ çļĦ
Ġå¿«é¤Ĳ æĹ©é¤ĲåĬłçĽŁ
å¼ ĥ
ç¯®çĲĥ æĬķæ³¨
Ġå®½ åŁİ|
Ġå «
åĩł ä¹İ
Ġæ² Ń
ĠçīĻ åħĭ
ĠæĻ¯ è°·|
ë Į
ĠèĤĥ åįĹ|
åĮĹ éĥ¨
åĲĹ ï¼Ł
ĠäºĶ å³°|
Ġä½ ł
çļĦ åľ°æĸ¹
å¤ĸæĮĤ _
å¿Ĺ æĦ¿
æĶ¹ åıĺ
åıĳè¨Ģ äºº
çł´è§£ çīĪ
ĠæģŃ åŁİ|
çĽĪ åĪ©
Ġ6 up
âĢľ ãĢĳãĢĲ
é¢ ľ
Ġé ¤
g ,
ĠåĪ©æĿ¥ ç½ĳåĿĢ
æĪ Ĵ
æĺ ł
Ġ ä»Ģ
Ġdocument.getElementById ("
åĽ½ äº§
á º
I M
èŃīä»¶ åĢŁæ¬¾
ĠäºļæĲı æīĭæľºçīĪ
ĠO F
e c
ĠçŁ³ æŀĹ|
çļĦ æ¸¸æĪı
å ļ
åĪ° åºķ
ĠåĪ©æĿ¥w66 æĹĹèĪ°çīĪ
_ c
Ġâ Ĺı
Ġèµ «
çĪ ¸
å ¶
é¦ Ī
åı° æĿ±
Ġ ä¾Ľ
èĹ į
å¤ļ æ¬¡
Ġæ±½ è½¦
æĺ¯ä»Ģä¹Ī ä¸ľè¥¿
å°ģ åı·
Ġ2020-02-2 9
å¤ļä¹ħåĪ° å¸Ĳ
Ġåĩ¯åıĳçĶµæ¸¸ æ¸¸æĪı
201 2
Ġif( data
åįİ ä¸º
Ġçº¿ä¸ĬçľŁäººåıĳçīĮ çİ°åľºå¨±ä¹Ĳ
repl ace
Ġåĩ¯åıĳå®ĺç½ĳ æīĭæľºçīĪä¸ĭè½½
o y
éĿ¢ ç§¯
ç½ ©
æĦı åĳ³
ĠçĻ¾å®¶ä¹Ĳ ç½ĳåĿĢ
Ġåı ³
ç©º æ°Ķ
åķ ¡
_ 365bet
åĩº çļĦ
ight ,
Ġåı ¥
çĲ ´
Ċå¤§ è¿ŀ
a 8
ĠçĭĹä¸ĩ çº¢åĮħ
åª Ľ
Ġäºļç¾İ å®ĺç½ĳ
åįĬ å¹´
åĵĪå°Ķ æ»¨
åĵªè£¡åı¯ä»¥ åĢŁéĮ¢
Ġçº¿ä¸ĬçľŁäºº æĸĹçīĽ
äºĳ åİ¿|
æĽ² åİ¿|
P rice
Ġæ¾³éĹ¨çľŁéĴ± åľ¨çº¿ç½ĳæĬķ
/ 5
çĩ Ł
éħį ä»¶
± è®Ģ
èµ¢ å®¶
Ġæľ¬ ç§ĳ
æ¨ ª
Ġçİ¯äºļ å¤§å¸ĪèµĽ
åĶ¯ä¸Ģ å®ĺç½ĳ
èµ ´
ä»ģ åİ¿|
Ġåĩ¯åıĳæ³¨åĨĮ ä¸ĭè½½ç½ĳåĿĢ
ĠAG çĻ¾å®¶ä¹Ĳ
ä½ĵéªĮ éĩĳ
æĢ Ĵ
L ist
21 æĹ¥ï¼Į
o ver
è¯ļ ä¿¡
åıĬ æĹ¶
åľ°ä¸ĭéĮ¢èİĬ åĢŁéĮ¢
å¹¿ å¤§
Ġ2018éªŀï¿½ 05ï¿½ï¿½
ç´ į
æ» ´
æĬķæ³¨ æĬĢå·§
ä¾ĽåºĶ åķĨ
Ġæ¾³éĹ¨çľŁéĴ± ç½ĳ
ĠRo ad
Ġå¤§åıĳæĹ¶æĹ¶å½© è®¡åĪĴ
Ċæĸ°åįİç½ĳ äºĳåįĹ
Ġç ĩ
ĠS p
ï¼Į ä¸İ
æĮĩ æİ§
Ġå¼Ģåħĥæ£ĭçīĮ æĸĹçīĽ
å¹¿ ç½ĳ
éģĵ ï¼ļâĢľ
Ġå½©ç¥ŀ éĢļ
Ġæ¾³éĹ¨çľŁéĴ± å¹³åı°
ç¡ ķ
ĠA M
çľŁåģĩ _
åĲī åħĭ
Ċ å°ı
ç«ĭ æ³ķ
åı£ åİ¿|
å¹¿æĴŃçĶµè§Ĩ ç½ĳ
ï¼Į åħ±
Ġag 9
F wi
Ġä»Ĭ å¤©
Ð º
å¯ Ĵ
Ġ1 åĪĨå½©
éĥ½ åİ¿|
åħĥ /
ä¹Ĳ åİ¿|
Ġè ¢
Ġ365bet å®ĺæĸ¹
ç²¾éĢī èµĦæĸĻå¤§åħ¨|
ĠTempl ates
Ġæ¾³éĹ¨çĻ¾å®¶ä¹Ĳ ç½ĳç«Ļ
åķĨ åŁİ
éģ ©
Ġçİ¯äºļæ¸¸æĪı æľĢæĸ°ç½ĳåĿĢ
ĊåįĹ åĽ½
ç¼ ħ
æŃ¦ åİ¿|
V p
åħ° åİ¿|
Ġç¥ ¥
Ġä¸Ĭæµ· å¿«3
Ġçİ¯äºļag å®¢æĪ·ç«¯
Ġåĩ¯åıĳå®ĺæĸ¹ å½©ç¥¨
Ġåĩ¯åıĳ ç²¾èĭ±
Õ¡Õ ¶
åĪĨ 3D
Ġæĸ°éĹ» ä¸Ńå¿ĥ
Ġåīįå¤© 00
åĲĪä½ľ ä¼Ļä¼´
åĤ Ļ
æĸĩ åı²
å¤ĩçĶ¨ç½ĳåĿĢ åħ¥åı£
è£ ½
] [
I6 Ij
Ġåĩ¤ åĩ°
ç»ı å¸¸
é¡º åİ¿|
Ġé¦Ļæ¸¯ é©¬ä¼ļ
ä¹łè¿ĳå¹³ æĢ»ä¹¦è®°
æ³ ¡
Ċéĵģè¡Ģ ç¤¾åĮº
å¤§ éĢī
éĥ½ ç½ĳ
ä»¥ æĿ¥
å¼Ģå¥ĸç»ĵæŀľ _
e X
éģĵ è·¯
æŃ£çīĪ åĽĽä¸įåĥı
åİŁ åĪĻ
ä¹ĺ å®¢
äº« åıĹ
Ġå¥ İ
ãĢĳãĢĲ ä¸ļ
æ½ ľ
éĺ ª
åŁ Ķ
ay er
é ½
äººå·¥ æĻºèĥ½
å¿ħä¸Ń ä¸ĢèĤĸ
å½©ç¥ŀ 8
Ċ æ¸ħ
æ£ ī
ä¸ĸ çºª
Ġ365æ£ĭçīĮ æľī
éģ ¥
éģĹæ¼ı _
å® ª
2015 å¹´
ç¹Ŀï½¼ ç¹Ŀï½«
ĠéŁ© åĽ½
éĿ¢ è®®
éĶ Ĳ
ç½ĳä¸Ĭ çĶµåŃĲæ¸¸æĪı
ĠæĹł æ³ķ
Ġåīįå¤© 15
° Ģ
L m
å¼¹åĬ¾ æ¡Ī
ĊæĤ¨çİ°åľ¨ çļĦä½įç½®ï¼ļ
Ġç» ©
çº ł
cc lx
ä»£çĲĨ _
art icle
Ġæĸ°åįİç¤¾ è®°èĢħ
ĠæĢİä¹Ī åľ¨
è¶³çĲĥ èµĮåįļ
åįģ äºĮ
ï¼Įè¿Ļ äºĽ
çģ¯ ,
æĭľ çĻ»
Ġæ¶ ª
47 99çĤ¹c0m
ĠäºĶ å®¶
ãĢĳãĢĲl ãĢĳãĢĲeãĢĳãĢĲ
æ³¢ éŁ³
Wl u
Ġåģ ı
201 0
Ġå¤ ¹
ĠAG çİ°éĩĳç½ĳ
Ġå¹¿åĳĬ æľįåĬ¡
Ċ æĤ¨çļĦå½ĵåīįä½įç½®ï¼ļ
y st
åįı ä¼ļ
Ċ2019å¹´ 09æľĪ
æħ ¶
cclx u
çĲĥ éĺŁ
nb sp
äºĭ åĬ¡
Ċ2018 -11
Ġçİ¯äºļ ç½ĳä¸ĬçĶµåŃĲæ¸¸æĪı
Ċ2020-0 8
æĬķèµĦ åĬłçĽŁåºĹ
è¡¨ç¤ºï¼Į âĢľ
âĢľ åĮĹæºª
ãĢĳãĢĲpãĢĳãĢĲ> ãĢĳ
çĪ¶ æ¯į
åĤµåĭĻ æķ´åĲĪ
åĪ· æµģæ°´
å¾ Ħ
ĠCP åĢ¼
è®¸ ï¼Į
Ġè¶³çĲĥ å¤ĸåĽ´365
ä¿¡æģ¯ ç½ĳ
Ġåĩ¯æĹ¶kb88 .com
Ġä¸Ń åľĭ
è¥¿ äºļ
ĠçĭĹä¸ĩ è¦ģ
ĠH e
Ġåĩ¯åıĳ çĶµçİ©
Ġå°ı åĲĥ
¢ ç¹Ŀï½³
ĠæĦı çĶ²
Ġè² ¸
14 æĹ¥
Ġg et
åĳ¼ åĲģ
æ¸¯ åı°
31 æĹ¥
à¸ £à¸
1 88
Ġåĩ¯åıĳAGæĹĹèĪ°åİħ å®ĺç½ĳ
å» £
èĲ Ŀ
app iosçīĪä¸ĭè½½
Ġåĩ¯åıĳçĶµæ¸¸ æīĭæľºçīĪ
ĠåĪ Ľ
Ġk8å¨±ä¹Ĳ appiosçīĪä¸ĭè½½
Ġç ĭĹ
è¿ŀ ç»Ń
ĠP h
æĭħ ä»»
Ĺ Ĩ
çī¹é©¬ ç»ĵæŀľ
åľ¨çº¿ å¼ĢæĪ·
ï¼Į åĲĮæĹ¶
çŁ¥ åĲį
Ġåıĸ çİ°
å²ģ ï¼ī
çĳ ļ
Ġ365ä½ĵèĤ²æĬķæ³¨ çİ°éĩĳ
èĴĻåı¤ è¯Ń
ĠçŃ ĸ
function() {
4 e
Ġåĩ¯åıĳçĶµæ¸¸ å®ĺç½ĳ
Ġé«ĺ éĤ®
è¿Ļæł· çļĦ
Ġèı²å¾ĭå®¾ çĶ³åįļ
Ġ365 æ¸¸æĪı
Ġä» ²
é£ŀ è¡Į
å¹¿æĴŃ çĶµè§Ĩåı°
D1 cIj
è¿Ľè¡Į äºĨ
Ġ365 å½©ç¥¨
é¢Ħæµĭ _
Ġæ± ª
Ġå¼Ģåħĥæ£ĭçīĮ è¾ĵäºĨ
Ġé©¬ å°Ķ
Ġèĭı å·ŀ
åħ· ä½ĵ
Ġæ»ļçĲĥ çĽĺ
æ¥¼ çĽĺ
66 8
ios çīĪ
Ġæīĵ åį°
éĢĢ åĩº
æĢĿ èģª
Ġå¹³ åº¦
ä¸Ģ èĩ´
åİ» å¹´
æŁĲ æŁĲ
Ġæ¸ħ æ°´
Ġå» ī
ĠéĴ ĵé±¼
æŀĹ èĬĿ
Ċæĸ° åįİ
éĶģ å®ļ
äº¿ åĽ½éĻħ
Ċæĸ°çĸĨ æĸ°éĹ»ç½ĳ
ĠæĢĿ èĮ
ä¸¥ æł¼
Ġç¡ ®
200 9
è¯ģ æį®
Ĭ çĳļ
± çľ
ĠäºļæĲıä½ĵèĤ² æīĭæľºçīĪä¸ĭè½½
å£ ĵ
Ġé ª
åĽĽ èĤĸéĢīä¸ĢèĤĸ
Ġå¼Ģåħĥæ£ĭçīĮ æ³¨åĨĮéĢģ
Ġäºļæ¸¸åĽ½éĻħ æ¸¸æĪıå®ĺç½ĳ
æ¶Ī éĻ¤
Ġwww. w66.com
ia o
\ "
ĠäºļæĲı çĶµç«ŀ
s how
11éĢī5 èµ°åĬ¿åĽ¾
Ċå¹¿è¥¿ èĩªæ²»åĮºæĶ¿åºľ
) -
æĸĩåĮĸ ç½ĳ
ĠM an
ç§» æ°ĳ
Ġw66åĪ©æĿ¥ å¹³åı°
ĠçĻ¾å®¶ä¹Ĳ ç½ĳåĿĢå¤§åħ¨
4 d
Ċ è§£æĶ¾
éĽ ¢
Ġè¾ Ľ
Ċ èĴĻåı¤è¯Ń
Ġç¶ ¦
Ċ æ´Ľéĺ³
Ġs uccess
å®¢ è½¦
çİĽ ä¸½
ĠA n
Ċçľĭ çĤ¹
1 æĹ¥
Ġ Ä
ç½ ¢
ä» Ĩ
ĠY ou
i 5
Ċ çķª
å¼ķ èµ·
ĠçĭĹä¸ĩèµ¢éĴ± æıĲçİ°
ç®Ĺ æ³ķ
å¨± å¤´æĿ¡
ãĢģ ï¿½
ï¼Į è¯·
Ġ365bet ä½ĵèĤ²æĬķæ³¨
éł »
% çļĦ
pt y
è¡ Ķ
ï¼Į åĮħæĭ¬
Ġæ¾³éĹ¨ éĵ¶
åıĤèĢĥ æ¶Īæģ¯
å¡Ķ åĲīåħĭ
ä¸° å¯Į
è·¯ åı£
Ġåĩ¯åıĳ çĻ»å½ķç½ĳåĿĢ
çĽ ¾
ï¿½ ]
è¿Ķ çĤ¹
Ġ è½®
t itle
å» ł
ĠAGçİ¯äºļ å®ĺç½ĳapp
Ġ ä¿¡æģ¯
î ī
ĊçľĭçĤ¹ å¨±å¤´æĿ¡
Ġ365è¶³çĲĥ å¤ĸåĽ´ç½ĳç«Ļ
åĲĦ å¤§
Ġh ost
Ġå¤§åıĳæŀģéĢŁ pk10
é»Ħ éĩĳ
ĠåĲĮ å¿ĥ
åĤ ²
ĠçĥŁ åı°
Ġä¹Ŀ å¯¨
åĽŀè¡Ģ _
å« ģ
Ġæ¾³éĹ¨éĵ¶ éĵ¶æ²³
ç¡® ä¿Ŀ
Ġéĩ Į
åı° åįĹ
Ġä¸ľ æĸ¹
¤ èĤī
Ċä¸ľ åĮĹ
Ċ æ°´
qq ç¾¤
äºº ãĢĤ
ä¸ľ åįĹ
Ċ æĹ©çĤ¹åĬłçĽŁåºĹ
æ°Ķ æ¸©
è²ł åĤµ
MT +
Ġ365ä½ĵèĤ²æĬķæ³¨ ä½ĵèĤ²æĬķæ³¨
çŃ Ĩ
Ġ365 åľ¨çº¿ä½ĵèĤ²
Ġä¸Ĭæµ· æĹ©é¤Ĳè½¦åĬłçĽŁ
Âł Âł
å» ·
Ġd88 .com
ĠS D
ĠæĹ©çĤ¹å¿«é¤Ĳ åĬłçĽŁ
Ġè²¸ æ¬¾
H TML
h ide
us er
åįķåıĮï¼ļ æŀģéĢŁ
ĠA d
ĠæĹ©çĤ¹åĬłçĽŁ å¤ļå°ĳéĴ±
ĠagæĹĹèĪ°åİħä¸ĭè½½ ç½ĳç«Ļ
Ġ200 7
æĸĩæ±ĩ æĬ¥
ä»· åĢ¼
éĤ®ç®± æĹłæ³ķéªĮè¯ģ
Ġäºļæ¸¸éĽĨåĽ¢ æīĭæľºå®¢æĪ·ç«¯
mg æīĭæľºçīĪ
Ġåı£ åı£é¦ĻæĹ©çĤ¹åĬłçĽŁ
ĠæĹ©çĤ¹ åºĹåĬłçĽŁ
Ġå¤§åıĳå¿«ä¸ī æĢİä¹Ī
01 æľĪ
He iti
ĠæĹ©çĤ¹åĬłçĽŁ å¥½é¡¹çĽ®
Ġæ¸ħ ç¾İæĹ©é¤ĲåĬłçĽŁ
æĺ¯çľŁçļĦåĲĹ _
ĠæĹ©çĤ¹åĬłçĽŁ åĵģçīĮ
Ġsim sun
ä»£æĽ¸ åĢŁæ¬¾
ĠæĹ©çĤ¹ å¤ľå®µåĬłçĽŁ
Ġæ¸ħçľŁ æĹ©çĤ¹åĬłçĽŁ
æĹ ĭ
ĠæĹ©é¤Ĳ è±ĨèħĲèĦĳåĬłçĽŁ
æĪ ²
Ġå®ľ æĺĮ|
ä»£ è¾¦
Ġæĸ° å°ļæĹ©é¤ĲåĬłçĽŁ
æĸĹ åħŃ
ĠæĿ Ĥ
ĠE X
Ġsimsun ,
Ċè§£æĶ¾ æĹ¥æĬ¥
Ġ365æ£ĭçīĮ éĵ¶åķĨ
ag æīĭæľºçīĪ
Ċ201 5
Ġåħ¨ ç¦ıæĹ©é¤ĲåĬłçĽŁ
ĠåĮĹäº¬ çī¹èī²æĹ©çĤ¹åĬłçĽŁ
. äºĶåĪĨå½©
ĠæĹ© é¥ŃåĬłçĽŁ
äº¿ ç¾İåħĥ
åĢ¼ å¾Ĺ
åį± éĻ©
ĠST Heiti
SC -L
. j
Ġåĵªå®¶ æĹ©çĤ¹åĬłçĽŁå¥½
Ġèİ ²
Ġåįĸ æĹ©çĤ¹åĬłçĽŁ
ĠæĹ©çĤ¹å°ıåĲĥ åºĹåĬłçĽŁ
ĠæĹ©çĤ¹åĬłçĽŁ å°ıåĲĥ
ĠæĹ©é¤ĲåĬłçĽŁ é¡¹çĽ®
Ġè¿ŀéĶģ æĹ©é¤ĲåĬłçĽŁ
ĠåĵģçīĮ æĹ©é¤ĲåĬłçĽŁ
Ġå¤©æ´¥ æĹ©é¤ĲåĬłçĽŁ
6 )
ĠE T
Ġå¤§ åįİæĹ©çĤ¹æĢİä¹ĪåĬłçĽŁ
å¼Ģ åħĥ
Ġå¨ĺå®¶ æĹ©é¤ĲåĬłçĽŁ
ĠæĹ©é¤ĲåĬłçĽŁ ç½ĳ
çļĦ æĸ°
Ġå±±ä¸ľ æĹ©çĤ¹åĬłçĽŁ
Ġçİ¯äºļ å®ĺæĸ¹
ç´¯ è®¡
ĠæĹ©é¤Ĳç²¥ è½¦åĬłçĽŁ
Ġä¼Ĺ æľĽæĹ©é¤ĲåĬłçĽŁ
Ċ æ³ķåĪ¶
ĠæĹ©é¤Ĳç²¥ åĬłçĽŁ
it t
ĠæĹ©é¤Ĳ åºĹ
SC-L ight,
ĠæĹ©é¤Ĳ åħįè´¹åĬłçĽŁ
ĠåĮĹäº¬ æĹ©é¤ĲåĬłçĽŁ
æĺ¯æŃ£è§Ħ çļĦåĲĹ
ĠSTHeiti SC-Light,
å¥Ĺ åĪ©
ĠæĹ©é¤Ĳ å°ıåĲĥåºĹåĬłçĽŁ
ĠæĹ©çĤ¹å°ıåĲĥåĬłçĽŁ è¿ŀéĶģ
ĠåĮħ åŃĲæĹ©é¤ĲåĬłçĽŁ
æĪĺ æĸĹ
Ġå°ıåĲĥ æĹ©çĤ¹åĬłçĽŁ
Ġæ±Łèĭı æĹ©çĤ¹åĬłçĽŁ
Ġçī¹èī² æĹ©çĤ¹å°ıåĲĥåĬłçĽŁåºĹ
Ġç¾İåĳ³ æĹ©é¤ĲåĬłçĽŁ
ĠæĹ©çĤ¹ è±ĨæµĨåĬłçĽŁ
æ® ĭ
ĠæĹ©é¤ĲåĬłçĽŁ ä»Ģä¹Īå¥½
Ġå¹¿ å¼ıæĹ©çĤ¹åĬłçĽŁ
ĠåĵģçīĮ æĹ©çĤ¹åĬłçĽŁ
ĠæĹ©é¤ĲåĬłçĽŁ åĵģçīĮ
Ġå¨ĺå®¶ æĹ©çĤ¹è½¦æĢİä¹ĪåĬłçĽŁ
Ġçī¹èī²æĹ©çĤ¹åĬłçĽŁåºĹ æİĴè¡Įæ¦ľ
å·Ŀ éº»
çľŁäºº æīĭæľºapp
Ġçķ Į
Ġæ²³åįĹ æĹ©çĤ¹åĬłçĽŁ
ĠæĹ©é¤Ĳç²¥ åºĹåĬłçĽŁ
å¯¹ è¯Ŀ
åĬŀåħ¬ å®¤
ĠæĹ©é¤Ĳ è±ĨæµĨåĬłçĽŁ
ĠæŃ£è§Ħ çľŁäºº
Ġç² Ĺç²®æĹ©é¤ĲåĬłçĽŁ
ĠæĹ©é¤Ĳ èĤłç²īåĬłçĽŁ
Ġç§»åĬ¨ æĹ©é¤ĲåĬłçĽŁ
äºī 8
ĠåĪ©æĿ¥ mgæīĭæľºçīĪ
Ġæ±Łè¥¿ æĹ©çĤ¹åĬłçĽŁ
Ġçī¹ è®¸åĬłçĽŁ
ĠåĮĹäº¬ æĹ©çĤ¹å°ıåĲĥåĬłçĽŁåºĹ
ĠäºĶèĬ³æĸĭ æĹ©é¤ĲåĬłçĽŁ
Ġä¸Ĭæµ· æĹ©çĤ¹åĬłçĽŁåºĹ
ĠåĬłçĽŁæĹ©çĤ¹ åºĹ
Ġæĺ¥åħī æĹ©çĤ¹åĬłçĽŁ
Ġåħ¬ ä¸»
ĠèĮĥ å¾ģæĹ©é¤ĲåĬłçĽŁ
ĠåĮĹäº¬æĹ©çĤ¹ æĳĬåĬłçĽŁ
Ġè£ ķ
ĠæĹ©çĤ¹ è¿ŀéĶģåĬłçĽŁåºĹ
çŃĸ åĪĴ
ĠåĪ©æĿ¥w66 æĹĹèĪ°åİħ
ĠåĽĽå·Ŀ çī¹èī²æĹ©çĤ¹åĬłçĽŁ
å¸ĸ åŃĲ
ĠæĹ©çĤ¹æĿ¥ åĬłçĽŁåºĹ
Ġæĺ¥åħī æĹ©çĤ¹å·¥ç¨ĭåĬłçĽŁ
Ġ365 çļĦ
ĠèĪĴ å¿ĥæĹ©é¤ĲåĬłçĽŁ
Ġæ¸¯ å¼ıæĹ©é¤ĲåĬłçĽŁ
ĠåĮĹäº¬ æĹ©çĤ¹å°ıåĲĥåŁ¹è®ŃåĬłçĽŁ
Ġ356bet å®ĺæĸ¹
ĠæĹ©é¤Ĳ äºŃåĬłçĽŁ
çķ ª|
è´¡ çĮ®
ĠæĹ©çĤ¹åĬłçĽŁ æİĴè¡Įæ¦ľ
åŁİ åĮº
å¥³ åŃ©
Ġç¾İ å¼ıæĹ©é¤ĲåĬłçĽŁ
ĠæĹ©é¤Ĳ çļĦåĬłçĽŁ
Ġæĺ¥åħī æĹ©é¤Ĳå·¥ç¨ĭåĬłçĽŁ
Ċåħ³éĶ®è¯į ï¼ļ
å¹ «
ĠåĽĽå·Ŀ æĹ©çĤ¹åĬłçĽŁ
ĠåĲĲé²ģ çķª|
ĠåĦ ĭ
Ġ ä¾¿æ°ĳæĹ©çĤ¹åĬłçĽŁ
ĠS erv
Ġç§»åĬ¨ æĹ©çĤ¹åĬłçĽŁ
æĢİä¹Ī æıĲçİ°
ĠæĹ©çĤ¹åĬłçĽŁ åŁ¹è®Ń
åĲ Ĭ
ĠæĹ©é¤Ĳ è¡Įä¸ļåĬłçĽŁ
ĠæĹ©é¤Ĳ åĮħåŃĲåºĹåĬłçĽŁ
ĠæĹ©çĤ¹ éĵºåĬłçĽŁ
ĠæĹ©é¤ĲåĬłçĽŁ æİĴè¡Įæ¦ľ
Ġå¿«é¤Ĳ æĹ©çĤ¹åĬłçĽŁ
åĴĮåĲĪ å½©
ĠæĹ©çĤ¹å¿«é¤Ĳ åºĹåĬłçĽŁ
Ġæ²³åįĹ æĹ©é¤ĲåĬłçĽŁ
ĠæŁ ¯
å° ĭ
èŃ °
± à¸
ĠæĹ©çĤ¹å¿«é¤Ĳ åĬłçĽŁåºĹ
ĠåıĮ åĲĪæĪĲæĹ©é¤ĲåĬłçĽŁ
ĠæĹ©é¤ĲåĬłçĽŁ å¼ĢåºĹ
ĠæĹ©é¤Ĳè¿ŀéĶģ åºĹåĬłçĽŁ
ĠæĹ©é¤ĲåĬłçĽŁ è´¹çĶ¨
ĠåĵªéĩĮ æľīæĹ©çĤ¹åĬłçĽŁ
Ġæ¹ĸåĮĹ æĹ©çĤ¹åĬłçĽŁ
ĠåĮĹäº¬æĹ©çĤ¹ è½¦åĬłçĽŁ
èŀį è³ĩ
Ġæ¸ħçľŁ æĹ©é¤ĲåĬłçĽŁ
éĢ ±
ĠA T
Ġé¦ĸ éĴ¢æĹ©é¤ĲåĬłçĽŁ
ĠåĬłçĽŁæĹ©çĤ¹ è½¦
Ġç¾İåĳ³ æĹ©çĤ¹åĬłçĽŁ
åĿĳ äºº
Ġä¸Ĭæµ· æĹ©çĤ¹
Ġé»ĳé¾Ļæ±Ł æĹ©é¤ĲåĬłçĽŁ
å½©ç¥¨ _
- èĩºåįĹå¸Ĥ
X HJ
XHJ c
Ġä¸Ĭæµ· æĹ©é¤ĲåĬłçĽŁ
ĠæĹ©çĤ¹æĿ¥ æĹ©é¤ĲåĬłçĽŁ
Ġä¸Ńå¼ı æĹ©é¤ĲåºĹåĬłçĽŁ
æľī åĩłä¸ª
ĠäºĶ æĮĩ
Ġì ŀ
çĪ¶ äº²
ĠæĹ©çĤ¹ é¡¹çĽ®åĬłçĽŁ
Ġéĺ¿æĭī å°Ķ|
ç¹§ï½¯ ç¹Ŀï½¬
- 2019
åĩº è¡Į
Ġb ut
ĠåĵģçīĮ æĹ©é¤ĲåºĹåĬłçĽŁ
Ġ0 .0
ZH M
Ġç»¿èī² æĹ©é¤ĲåĬłçĽŁ
ĠåĿ ª
Ġå ĥ
ĠæĹ©çĤ¹ åĮħåŃĲåĬłçĽŁ
Ġ$(this ).
æŀĹ éĥŃ
ĠæĹ©çĤ¹å°ıåĲĥ åĬłçĽŁåºĹ
Ġé¦ Ĩ
Ġçľ īå±±|
çļĦ æĹ¶åĢĻ
d od
ĠæĹ©çĤ¹åĬłçĽŁè¿ŀéĶģ åºĹ
Ġä¸ĩåįļ APP
Ġæ¾³éĹ¨çĻ¾å®¶ä¹Ĳ å®ĺç½ĳ
Ġbet365 ä½ĵèĤ²åľ¨çº¿æĬķæ³¨
éĩįåºĨ æĹ¶æĹ¶å½©
ãĢĤè¿Ļ æĺ¯
Ċä¸ŃåĽ½è¥¿èĹı æŀĹèĬĿ
Ġ ï¼ī
è½¬ æį¢
éĻ ª
æıĲçİ° æ£ĭçīĮæ¸¸æĪı
ĠæĹ©çĤ¹ å·¥ç¨ĭåĬłçĽŁ
åķĨ å®¶
åĨ¬ å¥¥
æīĭ æ©Ł
éĭ ª
è§Ĩé¢ĳ æ£ĭçīĮæ¸¸æĪı
æīĳåħĭ å®ĺç½ĳ
åŃ Ł
Ġè¥Ħ æ¨
S S
ï¼Į ç§°
Ġw66åĪ©æĿ¥ æľĢ
Ġåĩ¯åıĳçĶµæ¸¸ äºļæ´²
å°ıé¡į è²¸æ¬¾
Ċæµ· å³¡
am F
ï¼Į å¤§
APPï¼ļ å¤§åıĳå½©ç¥ŀ
å® ĭ
åħ¬å®ī æľºåħ³
Ġå· §
æ¡ Ĩ
Ġåĩ¯åıĳ k8
ä¸ ¨
¢ç¹Ŀï½³ ç¹§ï½¯ç¹Ŀï½¬
Ġå¤§åıĳå¿«ä¸ī æľī
Ġåıĸæ¶Ī åĽŀè¦Ĩ
çĻ»å½ķ å®īåįĵçīĪä¸ĭè½½
åŃ Ķ
Ġ365ä½ĵèĤ²æĬķæ³¨ å¼ĢæĪ·
Ġç¨ »
¢ç¹Ŀï½³ç¹§ï½¯ç¹Ŀï½¬ ç¹Ŀï½¼ç¹Ŀï½«
Ġé©¬éŀį å±±|
Ġæ¾³éĹ¨ éĩĳæ²Ļ
Ġç»¥ åĮĸ|
æ¯Ķ ä¾ĭ
Ġ365betå®ĺç½ĳ äºļæ´²
Ċ2019-12 -07
ï¼Į å®ĥ
ĠéĻ Ĳ
çĬ¯ æ³ķ
eX Bl
Ġæ¬¢ è¿İ
Ġå½©ç¥ŀ v
Ġåł Ĩ
/ æŀģéĢŁ
Ġç½ĳ èµĮ
à¸ ¡
Ġéĺħè¯» ï¼ļ
Ċ åĬłçĽŁ
Ġagçİ¯äºļ çĻ»å½ķ
ç»ı åİĨ
Ġçģ «
ĠUn iversity
ĠéħĴ æ³ī|
Ġ365ä½ĵèĤ²æĬķæ³¨ æ»ļçĲĥ
c 6
æ¼ıæ´ŀ _
aW dod
ä¸¤ å²¸
ĠåĴĮ æŀĹ
Ġåı° å·ŀ|
Ġå¼łå®¶çķĮ |
Ġåº ľ
å®ŀ ä½ĵ
Ġéľį æŀĹéĥŃ
2 ç«Ļ
ot al
éĢļ è®¯
ĠéĢŁ åº¦
éĢ Ĩ
Ġå°Ĭé¾ĻäººçĶŁå°±æĺ¯æĲı æĹ§çīĪ
d n
Ġäºļç¾İ åľ¨çº¿
æľĹ çİĽ
ä¸į åģĩ
Ġé»Ħ çŁ³|
Ġæ¾³éĹ¨ èµĮåľº
Ġç§ĳ æĬĢ
Ġ365 ç¯®çĲĥæ»ļçĲĥ
Ġ1.6 L
Ġå·´ éĩĮ
Ġvi ews
ĠæŃ¦å¤· å±±|
é»ĳ ç½ĳ
om o
Î »
è¿Ķ è¿ĺ
P HN
Ċè¥¿èĹı èĩªæ²»åĮºæĶ¿åºľ
Ċåįİ åķĨæĬ¥
CB 0
Ġ365ä½ĵèĤ²æĬķæ³¨ äºļæ´²
Ġéĺ¿åħĭ èĭı|
æĤī ï¼Į
Ġå·´ ä¸Ń|
Fwv amF
Ċå¤© æ¶¯
ĠåĮĹ æµ·|
Ġå¤§åıĳæŀģéĢŁ æĹ¶æĹ¶å½©
é¸ ¿
Ġì Ŀ
Ġæĸ°å·´å°ĶèĻİ åı³æĹĹ|
ãĢĳãĢĲ ä¸ŃãĢĳãĢĲ
Ġä¸ľ ä¹Įçıłç©Ĩæ²ģæĹĹ|
Ġåĩ¯åıĳæľĢæĸ° å®ĺæĸ¹appä¸ĭè½½
j ing
Ġå¸¸ å·ŀ|
ãĢĤ ä»Ĭå¹´
ç¬¬ åĽĽ
Ġå¼łå®¶ åı£|
Ċ å¨±
Ġè¥¿ ä¹Įçıłç©Ĩæ²ģæĹĹ|
æ¯ı å¤©
Ġéľ ŀ
ar se
ä¹Į |
é¾Ļ æĹ©é¤ĲåĬłçĽŁ
Ċ å¼Ģåħĥæ£ĭçīĮ
ĠèģĬ åŁİ|
ĠåĵĪ å¯Ĩ|
Ġ our
Ġå¯¿ åħī|
Ġå»¶ å®ī|
l ick
PHN jcmlwd
CB0 eXBl
jcmlwd Fwi
GV 4d
FwvamF 2YX
PHNjcmlwd CB0eXBl
N jcmlwdFwi
wid GV4d
PHNjcmlwdCB0eXBl PV
FwvamF2YX NjcmlwdFwi
PHNjcmlwdCB0eXBlPV widGV4d
PHNjcmlwdCB0eXBlPVwidGV4d FwvamF2YXNjcmlwdFwi
Ġä¹Ĳ æ¸ħ|
ĠåĪ©æĿ¥w66 ç½ĳåĿĢ
åħħ åĪĨ
åĨł äºļ
Ġåĺī åĸĦ|
Ġè¾½ æºĲ|
X 01
å¿ĺ äºĨ
åĩº æĿ¥
ĊåĮĹäº¬ çĶµè§Ĩåı°
éľį æ´Ľ
èĦ±è´« æĶ»åĿļ
æ± ¾
dH B
Ġåĩ¯åıĳç²¾èĭ± ä½ĵèĤ²
Ġä¸Ĭ ä¸Ģç¯ĩæĸĩç«łï¼ļ
ä¸ĵ çº¿
éķ ¶
iOi J
Q iOiJ
ĠåįĹ å®ī|
åıĳçĶŁ éĶĻè¯¯
Ġäºļæ¸¸éĽĨåĽ¢ ä¸ĭè½½
X01 f
Ġæķ¦ çħ
ä¸ľ æĸ°
é¾Ļ å¾·
è¨Ń è¨Ī
Ġæ½® å·ŀ|
æĶ¶ åĪ°
ĠåºĦ æ²³|
ĠL a
Ġä¸ī æĺİ|
Ċé»ĳé¾Ļæ±Ł ä¸ľåĮĹ
ĠäºļæĲıçĽ´æĴŃ å¹³åı°app
ĠP ark
ĠæĹ¥åľŁ |
Ġå¤© éķ¿|
Ġéĺľ éĺ³|
ĠèļĮåŁ ł|
éĩĳ éľįæ´Ľ
çł´è§£ _
(R )
è¥¿ åĵ¥
ç½ĳ appæīĭæľºçīĪ
ãĢĤ ãĢĤ
çĳ Ļ
ĠäºļæĲı ç½ĳappæīĭæľºçīĪ
éĢģ åĪĨ
H E
Ġç» ĩ
Ġå¥ Ī
éĶ Ī
å¹´ è½»
åĪĨéĴŁ å½©
1 20
ĊéĿĴæµ· çľģæĶ¿åºľ
Ġåĳ¼ä¼¦è´Ŀ å°Ķ|
Ġå¢¨ ç«¹
ĠäºļæĲıå¨±ä¹Ĳ appä¸ĭè½½å®ĺç½ĳ
Ġå°ıé±¼åĦ¿ çİĦæľº
æ¶ Ķ
ç¨ ®
Ġè¾¾ å°Ķ
ĠBe t365
Ċä¸ŃåĽ½ æĸ°éĹ»ç½ĳ
æľī ãĢĳãĢĲ
Ġsecond(s ),
Ġéĺ¿ åĿĿ|
çĴ °
Ġæ³Ĺ æ´ª|
ĠåłĨ é¾Ļå¾·
è¿Ľä¸įåİ» äºĨ
Ġä¼Ĭ éĩĳéľįæ´Ľ
ĠèĢģ èĻİ
Ġå¤ª åİŁ
æĮ£ éĴ±
åĩł åįģ
âĢĺ ,
åĽ½åĬ¡ éĻ¢
ZnJhb WU
å·¥ åį¡
Ii wid
Ġè® ¾
gYWR f
ĠäºļæĲı å¹³åı°
æ·»åĬł çĶľèľľç´ł
>> âĢĺ,
åºĨ åİ¿|
ĠäºĶ å¤§è¿ŀ
Ġé¼ İ
oZWlnaHQ 9
éĵ¶ å·Ŀ
èĪ ĸ
Ġå¯ ¹
Ġè¾ ¹
âĢ¦ Ã©
âĢ¦Ã© >>âĢĺ,
éĿ¢ å¯¹
çĻ»å½ķ ä¸įäºĨ
ä»Ģ åħĭ
å®¢ æľº
èĤĩ äºĭ
oc k
Ġçı Ĭçĳļ
Ġæµ· æ·
H t
ĠèĶ ¡
Ġä»Ĭ æľŁ
ĠåĨ Ģ
Ġå¢¨ç«¹ å·¥åį¡
æıĲä¸įäºĨ çİ°
Ġ? (R)
ä»Ģåħĭ èħ¾
Nz I
Ġäºļç¾İå¤ļä¸ĢçĤ¹ æīĭæľºçīĪ
Ġçİ¯äºļ å®¢æĪ·ç«¯
æĪ¿ å¹¿åĳĬ
çļĦ è¯Ŀ
çĹ ĩ
4e D
X01f NzI
4eD kw
X01fNzI 4eDkw
æ±½è»Ĭ åĢŁæ¬¾
ãĢĭ ï¼Į
Ġåħĭ ä»Ģåħĭèħ¾
èĬ± åĽŃ
åĳ¨ æľŁ
èµļéĴ± åĲĹ
ĠéĶ Ļ
"). html
Ġç§ĴéĢŁ é£ŀèīĩ
Ġä¸ĩ çĽĽ
w66 åĪ©æĿ¥
Ċ2017 -10
Ġä¸ĭ ä¸Ģç¯ĩæĸĩç«łï¼ļ
å°İ è¦½
éĩĳ é¢Ŀ
éĻ ĩ
Ċ éĶ
ãĢĭ ï¼Ī
Ċä¸ŃåĽ½è¥¿èĹıæŀĹèĬĿ ç½ĳ
h Z
Ġå° ĸ
çİĦæľº åĽ¾
Ġå© º
Ġbet356 å¨±ä¹Ĳåľº
d pZHRo
ï¼ī çļĦ
i ew
ĠéĻĪ å·´å°ĶèĻİ
ç° ¡
Ġç¼ĸè¾ĳ ï¼ļ
2 æľĪ
èĭ± çĥĪ
éĽª çĲĥ
Ġå´ Ĥ
éĩį æĸ°
èµĦæĸĻ åħįè´¹
Ċ æĳĦ
u al
ĠçľŁéĴ± çīĪ
ĠçľŁéĴ±çīĪ æ£ĭçīĮappä¸ĭè½½
åĪĳ äºĭ
è¾ ĸ
Ġå¡ ĺ
Ċ åħīæĺİç½ĳ
åĳ Ĩ
æµ ¼
èĥľ è´Ł
è¦ ª
8 00
éĺ ľ
å¼Ģ é©¬
èµĮåľº ç½ĳæĬķ
Ġå½©ç¥ŀ å¤§åıĳå¿«ä¸ī
Ġå¾·éĴ ¦|
ãĢĳãĢĲ ä¼ļãĢĳãĢĲ
è¥¿ éĥ½å¸ĤæĬ¥
åķ ¦
ĉ çĻ¼è¡¨
ãĢĳãĢĲ æĺ¯
ç¬¦ åĲĪ
ç«ŀ äºī
Ċ äºĶ
æĭī éĿ¢
Ċ éĽĦ
ħ é±¼
éĽ ¾
å®Į åĸĦ
åī ĳ
çģ ı
Ġç¶ ĵ
8 åħĥ
Ġæ¢ħ éĩĮ
è¾£ æ¤Ĵ
çİĭ æĢĿèģª
app end
èµ ī
æĪ· åı£
çĶ º
ä¹°å½©ç¥¨ å®īåħ¨
å¯¹ åŃĲ
æĹ¶ å°ļ
èª Į
æĺİ å®ī
æŃ ¡
Ġåı¯ä»¥ çİ©
èµļéĴ± çļĦ
Ġä¹Ŀ é¾Ļ|
ĠåĪ Ŀ
ç½ĳç«Ļåľ°åĽ¾ |
Ġæ¾³éĹ¨çľŁéĴ± èµĮåľºç½ĳæĬķ
ĠçĭĹä¸ĩä½ĵèĤ² -
ä¼ł æĴŃ
Ġéĺ¿åħĭ éĻ¶|
ĠåĲī é¦ĸ|
ĊCopyrightÂ© 2020
Ġæĸ° éĥ½|
ĠçĭĹä¸ĩ åŃĺæ¬¾
Ġæīĺ éĩĮ|
éĽ» åŃĲéĥµä»¶
Ġå¤§ çĶ°|
ĠagåĽ½éĻħåİħ è¯ķçİ©
é«ĺ çº§
æ² ģ|
Ġéľ ¸
é¢Ĩ åıĸ
Ġå»º æĺĮ|
åħ¬åĬ¡ çĶ¨è½¦
ĠReserved ç½ĳç«Ļåľ°åĽ¾|
ĠReservedç½ĳç«Ļåľ°åĽ¾| çĻ¾åº¦åľ°åĽ¾
Ġå¤§åıĳ åĪĨåĪĨæĹ¶æĹ¶å½©
ĠçŁ³å®¶åºĦ |
å¹² åĺĽ
èĮĤ æĺİå®ī
ç½ķ èĮĤæĺİå®ī
ĠèĬĴ åº·|
çļĦæīĭæľº æ£ĭçīĮ
1 d
åħ« çłģ
Ġä¹¡ å®ģ|
é¢ Ĺ
Ġå·´éĩĮ åĿ
éªĹäºº çļĦåĲĹ
Ġä¸ĩ å®ī|
Ġéĥİ æºª|
ĠèĢĴ éĺ³|
ĠæĪĲ éĥ½|
03 æľĪ
çķĻ åŃ¦
Ċ3 .
æĭ ĸ|
å¯¼èĪª ç½ĳ
ĠçİĽ æ²ģ|
Ġå·´ ä¸ľ|
ç½ķèĮĤæĺİå®ī èģĶåĲĪ
ĠæĻ® å®ģ|
Ġå®ī è¾¾|
æł¹ æľ¬
ĠçıŃæĪ Ī|
Ġä¸ Ķ
Ġæ²Ĥ æ°´|
ĠåĲį ç¨±
Ġéĺ³æľ Ķ|
ĠæŃ£ å®ģ|
åħįè´¹ çīĪ
Ġéĺ¿åĽ¾ ä»Ģ|
ĠæŃ¦ éļĨ|
Ġå¸ĥ æĭĸ|
ĠåĲīæľ¨èĲ¨ å°Ķ|
Ġæĸĩ å®ī|
ĠæŃ¦é¸ £|
Ċé»ĳé¾Ļæ±Łä¸ľåĮĹ ç½ĳ
Ġé¢Ŀæķ ı|
ĉçĻ¼è¡¨ è¿´éŁ¿
Ġè¾¾å°Ķ ç½ķèĮĤæĺİå®īèģĶåĲĪ
Ġåĺīèį «|
Ċ èĭı
Ġå¼łå®¶ æ¸¯|
Ġç© Ĩ
ä¼ į
ĠåĵĪå°Ķ æ»¨|
Ġå¤ª è°·|
Ġé«ĺ éĺ³|
Ġå¤§åıĳä¸Ģ åĪĨéĴŁpk10
ĠéĿĴ åİ¿|
ĠåįĹ åĴĮ|
çıł æµ·
Ġéĩĳ æ¹ĸ|
ĠæĪ ·åİ¿|
ç´ °
Ġæ³° å®ģ|
ĠçĭĹä¸ĩ æĦıçĶ²
Ġé©¬ åħ³|
Ġæľ¨ åħ°|
Ġéĥ½åĮ Ģ|
ĠéĽ» åŃĲéĥµä»¶
Ġåı¯ä»¥çİ© éĴ±
ĠäºĮè¿ŀ æµ©çī¹|
è²· ?
Ġå·¦ è´¡|
Ġéĥ½ åħ°|
Ġé»ĳ å±±|
ĠåĽ¾ä»¬ |
çİ°éĩĳ çīĪ
Ġå§ ĭ
Ġåı¯ä»¥çİ©éĴ± çļĦæīĭæľºæ£ĭçīĮ
Ġå¸¸ å±±|
Ġåĩ¯æĹ¶ å®ĺç½ĳ
Ġ365æ»ļçĲĥ ç½ĳç«Ļ
Ġ ä½ķ
éĢ Ĭ|
Ġä¸´ åİ¿|
ĠèģĤæĭī æľ¨|
åħ ¹
Ġé¸¡ ä¸ľ|
èµ¢ äºĨ
ĠåįĹ å®ģ|
åŀ Ĥ
Ġå¤§ åŁĶ|
ĠæŃ¦ èĥľ|
Ġéĺ¿çĵ¦ æıĲ|
Ġéķ¿ æĺ¥|
Ġå½° æŃ¦|
Ġæ²Ļ æ²³|
ĠåĵĪ å·´
Ġæłĸéľ ŀ|
Ġé©¬ é¾Ļ|
Ġç§¦ å®ī|
Ġs o
Ġæ²ģ æ°´|
Ġä¹ħæ²» |
åŁİ åİ¿
ĠæĹłæ£ £|
Ġä¸Ĭ é«ĺ|
ĠåįĹ åŁİ|
Ã ¼
ĠéĢļ æ±Ł|
Ġæ¼³ å¹³|
éĹ ¯
Ġå¥ĩ åı°|
çľ Į
ĠéĦ¯ åĸĦ|
æĬĺ æī£
Ġçº¢ å®ī|
é ĬĢ
Ġæ²Ļ åĿª
ĠäºķçłĶ |
ĠæĹł ä¸º|
éĹ®é¢ĺ ãĢĤ
Ġæ¹ĺ ä¹¡|
Ċä¸ľ æ¥ļç½ĳ
Ġè¿ŀ å·ŀ|
p v
è¾ĵ åħ¥
ĠèĢ ¿
Ġä¸¹ æ£±|
Ġèħ¾åĨ² |
Ġåĩ¯åıĳä½ĵèĤ² å®ĺç½ĳ
Ġå¼Ģ åĮĸ|
æ¬Ħ ä½į
Ġ365bet æ»ļçĲĥ
Ġæĸ° å®ī|
ĠèįĶ æ³¢|
Ġå®£ å¨ģ|
ĠçĽĪ æ±Ł|
ĠäºĶ èĲ¥|
Ġè¾¾å°Ķç½ķèĮĤæĺİå®īèģĶåĲĪ æĹĹ|
ãĢĤ ä¸ŃåĽ½
Ġå·´éĩĮåĿ ¤|
Ġæµı éĺ³|
ĠåĽº å®ī|
Ġå¿ħ è¦ģ
ĠåĶĲ åİ¿|
éŃ Ĥ
Ġå³¡ æ±Ł|
Ġå¤§æ´ ¼|
ĠäºĶ åįİ|
ä½į åĿĢ
çĶµèĦĳ å®¢æĪ·ç«¯
Ġå¤ª ä»ĵ|
Ġäºķ åĨĪ
Ġé² ħé±¼
Ġè¿Ń éĥ¨|
Ġæ»¡ æ´²
ĠåķĨ æ°´|
è² ¡
Ġå£¤ å¡ĺ|
ĠéĿĴ çĶ°|
åĳ¨ è¾¹
æ¨Ļ è¨ĺ
Ġæ¸ħ æ¶§|
Ġäºļæ¸¸éĽĨåĽ¢ åľ¨çº¿
Ġåħ´ å®ī|
ç§ ¯|
ĠåıĮ éĺ³|
Ġæ½¼ åįĹ|
Ġä¸ĭ ä¸Ģé¡µ
Ġæ²Ļ æ¹¾|
Ġèĭ¥ç¾ Į|
ipad _
Ġåĩ¤ åĨĪ|
Ġäºļæ¸¸éĽĨåĽ¢ appä¸ĭè½½
ĠåĲ´ æ±Ł|
åħ Ĵ
ä¿Ŀ å®ī
Ġåĩ¯åıĳçĶµçİ© å¨±ä¹Ĳå®ĺç½ĳ
ä¸įåĪ° è´¦
Ġäºļæ¸¸ æ¸¸æĪıå¹³åı°
æīĵ æ³ķ
ĠW e
Ċæĸ°æµª åı°æ¹¾
é¸ Ł
ï¿½ ï¼ļ
Ġéº¦ ç§¯|
ĠçıĬçĳļ å²Ľ|
Ġæīĺåħĭ éĢĬ|
ĠG D
r \n
Ġå´Ĥ å±±|
å®Į ç¾İ
ĠèĹģ åŁİ|
.c reate
Ġå¹¿è¥¿ å¿«3
Ġè°¢éĢļ éĹ¨|
+ 365
èµĽäºĭ çĽ´æĴŃ
ĠE D
ĠåĢĭäºº ç¶²ç«Ļ
ĠæĪ¿ å±±|
è® Ĭ
Ġä¸´ çĮ
è½¬ è½½
Ġçİ¯äºļ æ³¨åĨĮ
ĠåĲĮ å®ī|
Ġå°Ħ æ´ª|
Ġé»Ħ å¤§ä»Ļ
Ġé¾Ļ å±±|
in ess
Ġå°¼ çİĽ|
re vi
Ġçıł ç©Ĩ
Ġéĩĳ éĹ¨|
ä¸įæľĥ è¢«
ĠåĪ©æĿ¥åĽ½æłĩ å¨±ä¹Ĳ
ĠæŀĹ åĳ¨|
ĠçŁ³æĻ¯ å±±|
Ġæ³ķå¾ĭ å£°æĺİ
Ġä¸ľ å±±|
ĠéĿĴ å·Ŀ|
Ġä¸ ¾
ç· ¨
è¸ ı
ï¼ī æŃ£æĸĩå·²ç»ĵæĿŁï¼ĮæĤ¨åı¯ä»¥æĮīalt+4è¿Ľè¡Įè¯Ħè®º
Ġçıłç©Ĩ æľĹçİĽ
Ġæĸĩç«ł å°İè¦½
åľ Ī|
åħ¬éĸĭ ãĢĤ
ĠéĿ© åĲī|
ĠæĻ® éĻ
å¹¶ ä¸į
çī¹åĪ« è¡ĮæĶ¿
Ġäºĳ æŀĹ|
ĠçĴ §
R C
æ¨Ļè¨ĺ çĤº
Ġå¿ħè¦ģ æ¬Ħä½į
Ġå¿ħè¦ģæ¬Ħä½į æ¨Ļè¨ĺçĤº
ĉ ä½łçļĦ
éĽ»åŃĲéĥµä»¶ ä½įåĿĢ
Ġè¡Į åĶĲ|
éĶĢ åķĨ
ä¸¦ ä¸įæľĥè¢«
éĽ»åŃĲéĥµä»¶ä½įåĿĢ ä¸¦ä¸įæľĥè¢«
éĽ»åŃĲéĥµä»¶ä½įåĿĢä¸¦ä¸įæľĥè¢« åħ¬éĸĭãĢĤ
ĉä½łçļĦ éĽ»åŃĲéĥµä»¶ä½įåĿĢä¸¦ä¸įæľĥè¢«åħ¬éĸĭãĢĤ
ĊåķĨ éĥ½ç½ĳ
Ġ* è¿´éŁ¿
ĠåµĬ æ³
ä¼ĺ åĬ¿
ĠèģĤ èį£|
æ¬¡æķ° :
ĊçĽ¸åħ³ æĸĩç«ł
æĻļ ä¸Ĭ
Ġåģ ĥ
Ċ2019-11 -12
MT+ 8,
Ġé«ĺ ç¢ĳ
ĠåĨħ ä¸ĺ|
Ġéĺ¿åħĭ å¡ŀ|
æľĢ éķ¿
å¥ĭ æĸĹ
Ġæ¢ ¨
ess age
Ġæ´¥ å¸Ĥ|
æŃ ī
Ġæ¾³éĹ¨æ¸¸æĪıå¹³åı° å¨±ä¹ĲçĻ»å½ķ
s b
Ċ2018 -12
Ġåĵª ä¸ª
ĠæĺĤ ä»ģ|
Ġè¾¾ æĭīçī¹
ä½ £
Ġè¥¿ å±±|
æĺ¯ åľ¨
å¸Ĥ éķ¿
ĠåĲ´ ä¸Ń|
ĠæĬļ æĿ¾|
æµİ åįĹ
Ġæ¢ħéĩĮ æĸ¯|
Ġèİ İ
ä»¤ åĵĪ
ãĢĳãĢĲãĢĤãĢĳãĢĲ<ãĢĳãĢĲ/ ãĢĳãĢĲpãĢĳãĢĲ>ãĢĳ
Ċåįİ è¥¿éĥ½å¸ĤæĬ¥
Ġçıłç©ĨæľĹçİĽ å³°|
Ġé²ħé±¼ åľĪ|
Ġæ³ Ĭ
ĠåįĹ å±±|
è¿ «
è§ Ģ
Ġéĵľ éĻµåİ¿|
Ġäºĳ å®ī|
æĢİä¹Ī åħħåĢ¼
ĠçĻ½æľĹ |
Ġå¸ĥ å°Ķ
ï¼Ĭï¼Ĭ ï¼Ĭï¼Ĭ
t on
Ġå±ı ä¸ľ|
èĥĮ æĻ¯
ĠæĽ² æ°´|
åı£è¯Ģ _
Ġéĺ²åŁİ åĮº|
Ġæ¾³éĹ¨ åħ¨éĥ¨
IN G
æ·± åº¦
æĭī å°Ķ
æķĳ æĬ¤
ri ct
Ġä¹Įæĭīçī¹ åĲİæĹĹ|
ç¾ ħ
Ġéĸĭ ç®±
Ġç»¥ èĬ¬
åĨħ åľ°
åĴĮ å¹³
Ġs l
ä¼ģ æ¥Ń
åĪĹ è½¦
ĠæŀĹèĬĿ éķĩ|
ĠéĦ ¢
ĠagæĹĹèĪ°åİħ å®ĺæĸ¹ç½ĳç«Ļ
0 aW
å·¥ä½ľ ç»ıéªĮ
ãĢĳãĢĲtãĢĳãĢĲ y
Ġ356bet çľŁäºº
Ġå®Ŀ åºĶ
å¾· å·ŀ
ĠéĿĴ éĵľ
å¸Į å°Ķ
Ġéķ¿ èĳ
Ġèµ£ åİ¿|
æĢ ¨
Ġæ¯Ķ å¦Ĥ
Ġäºļç¾İ å¹³åı°
Ġå¾· ä»¤åĵĪ
è¼ ķ
åŃĺ åħ¥
c ial
åĽŀ äºĭ
äºº æŃ»äº¡
A ll
Ġéĵģ å±±|
Ġåħĭä»Ģåħĭèħ¾ æĹĹ|
Ġè¨İè«ĸ ,
æ¯Ķ å¦Ĥ
² ï¿½
å¨ģ èĥģ
ĠéĹ »
Ġè¿ŀäºĳ åĮº|
çľŁäºº çīĪ
.00 åħĥ
æĺİ æĺ¾
åľ° éľĩ
æŃ» äºº
Ġä¼Ĭéĩĳéľįæ´Ľ æĹĹ|
ĠçĤ ī
Ġ365æ£ĭçīĮæ¸¸æĪı ä¸Ńå¿ĥ
åĴĮ ãĢĳãĢĲ
æĭĽ çĶŁ
5 )
æ· ¡
ĠéĴĵé±¼ å²Ľ|
Ġåĩ¯åıĳçĶµæ¸¸ å¼ĢæĪ·
Ġèĭıå°¼ çī¹åı³æĹĹ|
Ġé£ ¯åºĹ
ĠéĻĪå·´å°ĶèĻİ æĹĹ|
1 10
çŁ³ å®¶åºĦ
æŀª åĩ»
ï¼Į åĲĳ
ĠåľŁé»ĺ çī¹åı³æĹĹ|
åı¯ åĶ®
ä¸ī åĪĨå½©
ä½ĵèĤ² çĽ´æĴŃ
Ġå°¼ åĭĴ
g h
ĠåĨ Į
ĠæĺŁ æľŁ
Ġæľī ä¿¡èªīçļĦ
Ġåı Ļ
éĢ ¸
Ġéĺ¿ åĲĪ
ĠäºļæĲıå¨±ä¹Ĳ ç½ĳé¡µçīĪçĻ»å½ķ
ä¾ ł
å¤ļ æķ°
ĠåĽĽ åŃĲçİĭ
Ġåĩ¯åıĳç½ĳåĿĢ æĺ¯å¤ļå°ĳ
æ¹ĸ åİ¿|
Ġéº¦ çĽĸ
ĠçİĽ çº³
å¸ĥ æ±Ł
Ċ2019-11 -14
è§Ĥ åħī
éł ĺ
ä»Ĩ å¯º
ĊTh is
æŃ£ç½ĳ _
çİ¯çĲĥç½ĳ æĬ¥éģĵ
æĤ ²
ä¹Į é½Ĳ
ĠåįĹ æľ¨
å¹´ çº§
ç½ĳç«Ļ é¦ĸé¡µ
ä½ı æ°ĳ
Ġç¿ģ çīĽ
ĠåĲīæľ¨ ä¹
Ġ365ä½ĵèĤ²æĬķæ³¨ å¤ĩçĶ¨ç½ĳåĿĢ
oker st
200 8
æĿĢ åı·
Ġç±» ä¹Įé½Ĳ
v el
Ġå¤§ æ¸¡
éĹ¨ åİ¿|
Ġæµª åį¡
Ġèĭ± åĲī
Ġæīİ èµī
Ġå¤ª ä»Ĩå¯º
s ia
ä¿ ĳ
Ġåĳ¼ åĽ¾
åħŃåĲĪ å½©
å®ī åİ¿
ĠCol lect
è¿ Ł
Ġåĩ¯åıĳ å®ĺæĸ¹ç½ĳç«Ļ
ç½ĳ çĽĺ
ç§ĳæĬĢ æľīéĻĲåħ¬åı¸
19 8
ï¿½ x
Ġå²³ æĻ®
Ġä¸ĵ ä¸ļ
Ĩ Ĳ
å¥Ĺ æĪ¿
Ġæ°ĳ éĸĵ
Ġåĩ¯åıĳapp å®īåįĵçīĪä¸ĭè½½
Ġåįļå¤© 918
Ġä¹Ĳæ©Ļ lc8
Ġèĭ¥ å°Ķ
èµĦ æľ¬
è½ ©
æ²» çĲĨ
æĬĹ è®®
ĠåĪ©æĿ¥ æ³¨åĨĮ
Ġ5 åĪĨå½©
cl ick
Ġåľ £
ĠåĩĨ æł¼å°Ķ
11 éĢīäºĶ
åħ¬åı¸ çļĦ
T D
Ġå·¥ å¸ĥæ±Ł
èµĮ å½©
ĠåĲĪä½ľ ä¼Ļä¼´
çŃī ãĢĤ
ĠCo. ,
é¦ĸ åħĪ
Ġçķ ª
Ġk8å¨±ä¹Ĳå®ĺç½ĳ åħįè´¹ä¸ĭè½½
åħ± å»º
Ġk8å¨±ä¹Ĳ ç½ĳç«Ļ
Ġpk10 è®¡åĪĴ
ĠP M
èī ĺ
9 )
åĪ« å¢ħ
åĪĨå¿«ä¹Ĳ 10åĪĨ
è¡Į æĥħ
Ġæ¾³éĹ¨ç½ĳä¸Ĭ èµĮæĲı
ĠçľŁäººèµĮéĴ± æ£ĭçīĮæ¸¸æĪıå¹³åı°
Ġæĸ¹ æŃ£
å±± åĮº
.C OM
ëĭ¤ .
Ġéĥ ģ
åĪĨ ï¼Į
åĪĨå¿«ä¹Ĳ åįģåĪĨ
uu å¿«ä¸ī
XC9h ZHM
ĠåįĹ å®«
ĠéĻ ¤
çº¿ä¸Ĭ çľŁäºº
ç²¾ éģ¸
T he
æĹ ¦
ĠåĪ©æĿ¥w66æľĢ èĢģçīĮ
Ġè¶³å½© çĭĹä¸ĩ
Ġè°ĥ åħµ
ĠH ouse
æľĢæĸ° åľ¨çº¿
ãĢĳãĢĲtãĢĳãĢĲy ãĢĳãĢĲlãĢĳãĢĲeãĢĳãĢĲ
èħ¾è®¯ åĪĨåĪĨå½©
yst em
Ġç¿ ¼
å¦Ĥä½ķ æıĲçİ°
åľ° äº§
Ġæ² Ĳ
Ġåº Ĳ
éķ¶ çĻ½
ä¸º åķ¥
äºĭ éķ¿
10 æĹ¥
éĩĮ çļĦ
Ġuu å¿«3
ĠQ Q
e p
ĠèĩªåĬ© æĹ©é¤ĲåĬłçĽŁ
Ġæ¨ Ł
Ġåĩ¯åıĳæ¸¸æĪı å®ĺç½ĳ
ĠæŃ£ éķ¶çĻ½
Ġåĩ¯åıĳçĶµæ¸¸ å®¢æĪ·ç«¯
æİ¥ è§¦
æ¶Īéĺ² åĳĺ
Ġè¾ °
åħ ©
17 7
é£ ¾
ĠçĭĹä¸ĩ å¾®ä¿¡
Ġåĩ¯åıĳçĶµæ¸¸äºļæ´² é¦ĸéĢī
.p arent
èĩ º
Ċ2019-12 -08
Ċ O
èĩ³ å°ĳ
Ġ365æ£ĭçīĮæ¸¸æĪı å¤§åİħ
Ġ el
æ³¨åĨĮ _
Ġé Ł³
å® ł
ä»Ģ éº¼
ĠèĮ Į
ä¸» åĬ¨
Ġæ¹ ¾
ä¿Ŀ äºº
Ġæ¾³éĹ¨ç½ĳé¡µ å¨±ä¹Ĳç½ĳç«Ļ
Ġ365æ£ĭçīĮ è´¦åı·
å®ĺæĸ¹ åħ¥åı£
log in
lis h
åįİ äºº
è©ķ è«ĸ
Ċ2019-11 -15
æ± Ĺ
ĠæĬķ ç¨¿
ind ex
J n
åĪĨæŀĲ _
ãĢĤ æĻ®äº¬
ä¹Ł æľī
ĠA B
Ġçķ ¥
åģľ æŃ¢
Ġåĵ į
èĨ ł
ï¼Į æĬĬ
% ãĢĤ
ĠäºļæĲıæīĭæľºçīĪ å®ĺæĸ¹ä¸ĭè½½
è¿Ĳ è¡Į
éĭ ¼
Ġåĩ¯æĹ¶åĽ½éĻħ app
36 0
å½± éĻ¢
å¹²åĺĽ çļĦ
ç¼ĥ ï¿½
ĠåĪ©æĿ¥æľĢèĢģçīĮ ç½ĳç«Ļ
ãĢĤ ä¸įè¿ĩ
Ġæ½į åĿĬ
Ġå¤§ è¿ŀ
çĵ ľ
sp ort
ç§ĺ ç±į
Ċ ä¹¦
å°Ķ å¤«
Ġå·¥ ä½ľ
ĠAG åİħ
ĠéĢļ è®¯
å½©ç¥¨ å®ĺç½ĳ
Ġæ¶ ¡
å¤ļ åĲį
ĠæĽ´ æĸ°
Ġé¤ Ĳ
éĻµ åĽŃ
Ġä¸ ĺ
åħ Ħ
èĭĹ æłĹ
æĮ ¡
ãĢĤ ç¾İåĽ½
en s
è¯Ħ æµĭ
å¤§ éģĵ
ĠçŃ ī
ç»ı |
æ³¨åĨĮ æĶ¶ä¸įåĪ°éĤ®ä»¶
è£ Ĥ
ĊéĶ ¡æŀĹ
Ġå¤§ çŁ³
") .c
ĠéĹ µè¡Į
3 aWR0a
Ġé¾Ļ æ³ī
ĠæľĿ éĺ³
ĠæľĢæĸ° æīĭæľºçīĪ
æłĩ çŃ¾
ard o
ĠArt icle
æĹıèĩªæ²»å·ŀ åĮºåı·
Ġag å®¢æĪ·ç«¯
ĠæľĢæĸ°æīĭæľºçīĪ çľŁéĴ±æ£ĭçīĮ
appä¸ĭè½½ åľ°åĿĢ
ot o
ð Ł
æĹıèĩªæ²»å·ŀ éĤ®ç¼ĸ
Ġè¾¾æĭīçī¹ æĹĹ|
èĥľ å®¢
åĢŁéĮ¢ ç®¡éģĵ
Ġå« ©
çĥ ¦
H M
è¾¾ æĪĲ
è¾¾ äºº
u te
Ġç¦ıå»º å¿«3
Ġäºļæ¸¸éĽĨåĽ¢ å¹³åı°
ĊéĶ¡æŀĹ æµ©çī¹
Ġ one
http:// www.
Ġåĩ¯åıĳæīĭæľº å®¢æĪ·ç«¯
ĠåĨ· æ°´
Ġæł ¡
Ċæ³¨åĨĮ æĹ¶éĹ´ï¼ļ2019
app |
ĠéĤ ®
åĦ¿ åŃĲ
æĭħä¿Ŀ ç½ĳ
å®ŀ éªĮ
Ġéĵ ħ
å½© å¤§åıĳå¿«ä¸ī
ĠM P
æ® º
Ġstyle ="
èµĶ åģ¿
ĠS N
å±± æĹħæ¸¸
Ġåĩ¯åıĳå®ĺæĸ¹ æīĭæľºapp
Ġåı ª
> ãĢĳãĢĲ
ĠéĤ »
ç¨ĭ åº¦
èĢ Ĳ
ä¸Ń åħ±
Ġåŀ «
çı į
Ġå ¦
Ġæĸ° å»º
ç¬¬ äºĶ
Ġ918æĲıå¤©åłĤ æīĭæľºçĻ»å½ķ
é¦Ļæ¸¯ |
ĠæĶ ¯
Ġåĩ Ń
ç¿ Ĵ
Ġæ¯ ı
ç»Ħ æĪĲ
ĠçĤ İ
Ġæµ ĳ
Ġ365betå®ĺç½ĳ ä½ĵèĤ²æĬķæ³¨
Ġæ¦ ķ
çī¹ æ®Ĭ
æĭ Ķ
éłĲ è¨Ĥ
éħįèµĦ åħ¬åı¸
le s
Ġæĸ ¯
ĠC F
Ġ è½¯ä»¶
ĠæľĢ ç»ĻåĬĽ
Ġåĳ Ī
åĿļ æĮģ
ĠèĢģèĻİ æľº
éĩİ çĮª
g in
tYX Jn
tYXJn aW5
æŁ ±
ĠåĽĽåŃĲçİĭ æĹĹ|
Ġæµ¦ ä¸ľæĸ°
å¥½è¿Ĳ å¿«ä¸ī
ĠéĦĤæīĺåħĭ æĹĹ|
ä»Ģä¹Ī æł·
æĭħä¿Ŀç½ĳ å®ĺç½ĳå¹³åı°
Ġ365betå®ĺç½ĳ çİ°éĩĳ
Ġç¢ Į
ĠB l
Ċ æŃ¤åĪĨé¡ŀ
Ġå¤ªä»Ĩå¯º æĹĹ|
åĬł æĸ¯
Int ro
ios ä¸ĭè½½
ç¢ °
éĽĨ ä¸Ń
ä¼ĳ éĹ²
ĠåĮĹ ç¢
Ġæ¹ Ħ
Ġæ¾³éĹ¨ç½ĳæĬķ æĭħä¿Ŀç½ĳå®ĺç½ĳå¹³åı°
ç² ¤
æ³¨åĨĮéĢģ 18
cIi B
Ġæ¼ ł
Ġç§Ł æĪ¿å¹¿åĳĬ
Ġç¿ģçīĽ çī¹æĹĹ|
Ġåĭ ĥ
æĸĩåı² çīĪ
è·ĳçĭĹ åĽ¾
æµ· åĨĽ
ĠåĲ Ľ
åĢ ¾
æ´ ®
Ġä¹ ĥ
æĽ ¿
Ġæķ ĸ
å®īåħ¨ ä¹Ī
å¼ĢæĪ· éĵ¾æİ¥
Ġæĺ Ķ
ĠéĿĴ æµ·
Ġå¤§åıĳå½©ç¥ŀ 8
ĠæľĢ è¿ĳ
Ġæīİèµī çī¹æĹĹ|
é² ¸
Ċåıĳå¸ĥ æĹ¶éĹ´ï¼ļ2019
Ċæ±Łèĭı å¹¿æĴŃçĶµè§Ĩç½ĳ
Ġæŀ Ŀ
ĠæĿŃéĶ¦ åĲİæĹĹ|
ĠåĸĢåĸĩ æ²ģæĹĹ|
çī ²
Ġè¯ ı
ĠçĽ ®
ue st
Ľ å´
è¶³å½© åĲ§
å·¥ åľ°
Ġæ´ ®
ĠåĪ©æĿ¥æľĢ ç»ĻåĬĽ
ĠO D
ĠæĹ¶éĹ´ï¼ļ2019å¹´ 10æľĪ
éĻ ½
Ġä¼ ½
ï¿½| ï¿½^
è¯Ĺ æĸĩåı²çīĪ
åĮ» åŃ¦
Ġæ¡ĥ åľĴ
ĠèĽ Ł
èµ ¤
Ġæ¡Ĳ æ¢
å¸Ĳ åı·
Ġæ¢ ĵ
ĠLtd .
Ġå»º çĵ
åŀ Ĵ
ĠåĩĨæł¼å°Ķ æĹĹ|
Ġæ² ½
ä¸Ĭ ä¸Ģç¯ĩï¼ļ
Ġäºļæ¸¸ æīĭæľºçīĪ
Ġéķ ¶
ĠèĬ ®
ajax ({
æĸ° åİ¿|
Ġå¯Į è£
Ġäºļæ¸¸app å®ĺç½ĳä¸ĭè½½
Ġag 8
ãĢĳãĢĲäºĨ ãĢĳãĢĲ
å§ ļ
åıĳå±ķ çļĦ
Ġè´ ŀ
æ°´ å¸Ĥ|
Ġå® ķ
Ġéĩĳ å±±
Ġéĵģ åĬĽ
ar get
ĠæīĭæľºçĻ¾å®¶ä¹Ĳ æ£ĭçīĮ
Ġéº Ł
ĊæĳĦ è¯Ĺæĸĩåı²çīĪ
çİ¯ ä¿Ŀ
æĢ» ç«Ļ
å¯¹ æĸ¹
Ġåĩ¯åıĳçĶµæ¸¸ ç½ĳé¡µçīĪ
éĺ´ åİ¿|
ĠåįĹ æ±ĩ
æĮĩ ç¤º
Ġä¸¹ æ±Ł
UU çĽ´æĴŃ
Ġäºĳ éľ
èĹ ¤
ç¿ Ķ
åŃĹ ä½ĵï¼ļ
at t
Ġ3 åĪĨå½©
æ¸ łéģĵ
Ġagçİ¯äºļ æ³¨åĨĮç½ĳåĿĢ
ĠæŃ£éķ¶çĻ½ æĹĹ|
çĦ¶ èĢĮ
æĪ¿è²¸ åĪ©çİĩ
Ġç¹ģ å³
Ġåĩ¯åıĳæľĢæĸ°çĻ»å½ķ ç½ĳåĿĢ
Ġå½ Ŀ
å¤± åİ»
ĠæŁ ŀ
å¿ §
ac he
ĠçĭĹä¸ĩ å®ĺç½ĳç½ĳåĿĢ
Ġå·§ å®¶
åı¦ ä¸Ģ
Ġå£ ¶
¿ åĲį
Ġbet365 åľ¨çº¿
Ġhost Intro
ĠéĢļ æ¸
res ult
èĭ±è¶ħ èģĶèµĽ
Ċ2019-11 -18
Ġçł ļ
Ġç£ ´
éŀ Ń
Ġå¤§åıĳæĹ¶æĹ¶å½© å¼Ģå¥ĸ
é¾Ļ åİ¿|
02 æľĪ
Ċ *
Ġèķ ī
å¼ĢæĪ· çĻ»åħ¥
Ġç¨ ·
Ġåħ° èĢĥ
ĠåĪ©æĿ¥w66 å¹³åı°æ³¨åĨĮ
Ġéĺ Ĩ
Ġçİĭ èĢħ
åįģ ä¸ī
åĽŀ æĶ¶
éªĮè¯ģ çłģ
ĠåĨĮ äº
Ġé£ ŀ
Ġä¹Į å®¡
ä¹Į åħĭåħ°
åĩĮ æĻ¨
Ġæ± ¨
æºĲ å¸Ĥ|
app åľ¨çº¿
ĠæŃ¦ åĬŁ
Ġå®Ŀ åĿ
Ġæ±Ł æ²¹
us iness
Ċ2019-12 -09
ĠæŃ¦ éĻ
Ġå®ļ è¥Ħ
Ġäºļç¾İam8 å¹³åı°
Ġå¼ ĭ
ĠéĿĸ å®ĩ
Ġå½ĵ æ¶
åĪ¶ å®ļ
Ġèĭ± éĽĦ
ĠæľĽ è°
Ġéĩĳ åłĤ
Ġå¤§åıĳæŀģéĢŁ å¿«ä¸ī
åĬłçĽŁ æĿ¡ä»¶
Ġçļ ĭ
Ġè¥¿ çķ
Ġçº³ éĽ
Ġæŀ ŀ
Ġå¤ĸåĽ´ ç½ĳç«Ļ365
Ġå·´ æ¥ļ
Ġå¯Ł éļ
å°Ĩ åľ¨
Ġæ¦Ĩ ç¤¾
Ġèĭį æ¢
Ġå²ĳ å·
Ġæĸ½ ç§
Ġéĥ ĵ
é¥° åĬłçĽŁ
ĠéĢ Ĭ
Ġbet356 ä½ĵèĤ²
ĠéĤ Ľå´
a ut
ĠçĽ ±çľ
Ġå¯Į èķ
ĠéĦ ±
æĶ¾å¿ĥ æĹ©çĤ¹
å®ĺæĸ¹ æ³¨åĨĮ
Ġæģ¯ çĥ
Ġé«ĺ æ·
Ġæĸ° ç»
Ġ12 æľĪ
Ġä¸´ æľ
Ġd i
ĠçŁ³ éĺ
ĠäºĶ å¸¸
Ġåįĵ å°¼
Ġå¾· æĥł
Ġé¢ į
Ġä¸´ æ´®
Ġä¸¾ æĬ¥
Ġåİ Ĩ
Ġåŀ £
Ġag äºļç¾İ
ĠåĴĮ æĶ¿
åıª æĺ¯
Ġä»ª éĻĩ
åħĪ éĶĭ
ĠçĶµçİ©å¨±ä¹Ĳ æ£ĭçīĮ
Ġéº» æłĹ
if e
æĺ¯çľŁ æĺ¯åģĩ
w an
ĠèĴĻ èĩª
Ġæµ· æĻ
å¹³åı° åĲĹ
éĻį ä½İ
Ġæ³ Į
ãĢĢ æĿ¥æºĲï¼ļ
Ġæµ· çĽ
æĮĩ å¯¼
ä¼¯ çī¹
ĠåĴĮ éĿĻ
Ġèµŀ çļĩ
Ġéĥ §
Ġä¸Ń æĸĩ
ĠåĽ Ĭ
ĠM F
Ġæ· ħ
Ġéķ¿ æ±
Ġæ²³ éĹ´
Ġä¸ĩ è½½
Ġç±³ èĦ
æµľ ï¿½
Ġæ¸ ĳ
ĠåĬł æŁ¥
Ġä¸Ń çī
éĺ¶ æ®µ
Ġæ½ ¢
éħ ¸
Ġæ¿ ī
åŁº æĸ¯åĿ¦
Ġä¸Ĭ æĢĿ
çªģ çł´
99 9
¤èĤī åĬłçĽŁ
æĿİ èį£
æĻº æħ§
Ġæ°¸ æµİ
ĠæŃ¦ ç©
Ġä¸Ķ æľ«
Ġæ´ª æ´ŀ
ĠH D
is s
åĮħ åĬłçĽŁ
Ġé»Ħ éª
åįķåıĮ è®¡åĪĴ_
Ġéĥ ¸
çī¹ åĮºæĶ¿åºľ
ĠæĹ Į
Ġå¹¿ çģµ
Ġä¼Ĭ åĲ
çģ °
Ġçľ ĭ
ä¹ĭ åĲİ
Ġé»Ħ æ¢ħ
Ġä»Ģ éĤ
åº¦ åģĩ
Ġä¸´ æ¡
Ġå°ī çĬ
Ġç¾İ å§
Ġè® ·
Ġå°ļ å¿Ĺ
Ġåįļ çĪ±
ĠéĶĻ éĤ£
ĠçŁ³ æ¥¼
lo cation
ĠæĹº èĭ
ç½ĳé¡µ çĻ»å½ķ
Ġå¤§åıĳå½©ç¥¨ å¿«ä¸ī
12æľĪ21æĹ¥ çĶµ
ad s
ĠæŃ¦ å®£
é §
Ġçĵ ®
Ġä¹Į æģ
ĠåĻ ¶
æĸĻ åºĹåĬłçĽŁ
åĬłçĽŁè´¹ åıĬ
åĬłçĽŁè´¹åıĬ åĬłçĽŁæĿ¡ä»¶
æ¾³ åįļ
Ġå¤§ åİĤ
Ń å½Ĵ
Ġçİ¯äºļ y
èĥľå®¢ åĬłçĽŁè´¹åıĬåĬłçĽŁæĿ¡ä»¶
ĠåįĹ æ¾³
Ġæĸ° éĤ
ĠèĪŀ éĴ¢
çł´è§£ è½¯ä»¶
Ġçģµ çĴ
æ¸¸æĪı æ³¨åĨĮ
Ġå¼ ķ
Ġæī¶ ç»
åħ´ å¥ĭ
Ġä¸ī ç©
Ġå®ģ éĻ
Ġéķ¶ é»Ħ
ĠæĻĭ åŁİ|
Ġæ³½ æĻ®
Ġå¾Ĳ éĹ»
Ġåħ¨ æ¤Ĵ
ĠK N
Ġä¸´ é¢
Ġåĩ¯åıĳæ³¨åĨĮ appåľ¨çº¿
Ġç¼ Ļ
ĠåĽĬ è°
Ġåįĵ èµĦ
ĠæĿ¾ æ½
ĠçĬ į
Ġç» Ŀ
Ġå¤§ æĤ
P ad
çº µ
Ġå½©ç¥ŀäºīéľ¸8 ä¸ĭè½½
en er
åĩº åıĳ
åĳ³ åĬłçĽŁ
Y2 F
Ġéģĵ åŃ
ĠéļĨ å°
Ġå´ĩ ç¤¼
Ġå¤§ èĭ±
Ġåħ¬ éĩĮ
Ġçł Ģ
Ġæ°¸ ä¿®
Ģ ã
ĊéĶ¡æŀĹæµ©çī¹ æĸ°éĹ»ç½ĳ
åºĵ å°Ķ
Ġå¹³ æŀľ
ĠæĽ² éº»
Ġå¥Ī æĽ¼
Ġä¼ļ åĲĮ
åĢ¡ è®®
ĠåįĹ åı¬
Ċäººæ°ĳç½ĳ åĨħèĴĻåı¤
ĠæľĽ å¥
ä¹¦è®° ãĢģ
ĠéĿĴ ç¥ŀ
px ;
ĠåĪļ å¯Ł
Ġå°ģ å¼Ģ
Ġåĺī é±¼
Ġåı¤ èĶ
E S
Ġå¾ ª
Ġä¸´ æ¾
å³° ä¼ļ
on ardo
ĠéĦ Ħ
Ġ{ }
ĠçŃ ł
å¹¸è¿Ĳ 28
Ġç¬¬ ä¸Ģ
Ġ356bet ä½ĵèĤ²æĬķæ³¨
Ġåı¤ äº¤
åĩ¡ åĵį
pv bm
al ax
ĠPro cessed
Ġå¹³ èĪ
çĻ¾ ä¸ĩ
ç¬¬ä¸Ģ æ¬¡
Ġæº Ĩ
on se
è¿Ŀ åıį
è§Ħ èĮĥ
Ċ èħ¾è®¯
éĨ ī
éģĵ ãĢĤ
Ġè¶³çĲĥ å¤ĸåĽ´
ï¼Į åı¯ä»¥
å¤ļ ç§į
Ġåįİ èĵ
ĠåįĹ çļ®
Ġåĩ¯åıĳçĶµæ¸¸ æľĢæĸ°çĻ»å½ķåľ°åĿĢ
ĠåıĮ çīĮ
Ġåı¤ ä¸
Ġåĩ¯åıĳ æ¬¢è¿İåħīä¸´
ĠåŃ ¸
å¨ ĥ
ä¸Ģ å°į
çĳ °
Ġç§ Ńå½Ĵ
ĠæľĢç»ĻåĬĽ åĪ©æĿ¥
è¯ģ åĪ¸
Ġreturn ;
ĠéļĨ åĽŀ
ĠagèµĮåľº åİħ
åĲİ åı°
æľŁæľŁåĩĨ é¦Ļæ¸¯|
Ġ2018 -11
ĠåĪ© è¾
ï¼Į éĢļè¿ĩ
Ġæķĸ æ±ī
åĪĨ åŃĲ
ĠéĢļ è®¸
Ġsport s
Ġæ°´ å¯Į
æķĻ æİĪ
Ġman betx
Ġçİĭä¸Ńçİĭ éīĦç®ĹçĽĺå¼Ģå¥ĸç»ĵæŀľ
ĠèĲ¨ è¿
é«ĺ ä¸Ń
æµ £
Ġï¿½ï¿½ï¿½ï¿½ ï¿½ï¿½
l ãĢĳãĢĲiãĢĳãĢĲ
; &
Ġç¾İ é£Ł
00 88
Ġbt365 ä½ĵèĤ²åľ¨çº¿æĬķæ³¨
Ġç±³ æĺĵ
ãĢĳãĢĲ åĴĮãĢĳãĢĲ
æĹłæ³ķ åħħåĢ¼
ãĢĳãĢĲ âĢĿ
Ġæ¾³éĹ¨ ç½ĳåĿĢ
è¢« é»ĳ
b c
alax y
le G9
7 3
Ġéĥ ¯
Ġbest365 æıĲçİ°
/å½©ç¥ŀäºīéľ¸ 8
Ġæ¾³éĹ¨çĻ¾å®¶ å¼ĢæĪ·
ĠåĪ©æĿ¥æľĢ èĢģçļĦåĵģçīĮ
26 æĹ¥
aWR 6b25l
Ġ365bet äºļæ´²
ç»ĵ æŀĦ
Ġçļĩ å®¶
ĊéĽĦ å·ŀ
åĪĨ åįģä¸ĢéĢīäºĶ
æĿ Ĩ
ä¸į å¤ļ
ĠæĿ¥ èĩª
Ġäºļç¾İam8 æīĭæľºçīĪ
Ġå®£ æģ©
ãĢĤ ä¸Ģ
Ġçĸı éĻĦ
( /
æīĭæľº æ¸¸æĪı
î Ĭ
ide o
èĢ Ĺ
ĠçľŁ åģĩ
XHJc bj
ĠC l
äºº ç±»
Ġ365bet çľŁäºº
ĠçĭĹä¸ĩ åı¯ä»¥
ĠæŃ£ èĵĿ
[0 ];
Ċå¨ģ æµ·ç½ĳ
æ´¾ å¯¹
Ċâ Ĺı
ï¼Į èŃ¦æĸ¹
Ċ æĲľçĭĲ
Ġåħ ¨å¤©
Ċå¤©æ´¥ æĹ©çĤ¹åĬłçĽŁ
kw XCI
ub 3NjcmlwdD
cy OFwi
ĠE V
Ġé¡ ¶
ing s
å¤ªåģĩ äºĨ
Qu ery
Ġ Ĉ
å°Ķ Â·
å¯ Ħ
æĿ¥ è¯´ï¼Į
ĠçĭĹä¸ĩ èĥ½
çĻ»éĻĨ ä¸ĭè½½
ä¸ĭåįĪ ï¼Į
Ġ room
re ak
Ċ æĸĩ
Ġè¯ļ èģĺ
ĠæĶ¾ å¿ĥ
Ġ et
ç¾İ é£Ł
æĿİèį£ èŀį
Ġæ²Ļ æ´ĭ
ĠW indows
è¶ ĭ
èĻ ķ
ä¸º ãĢĳãĢĲ
ä¸Ń ãĢĤ
il y
å¦ Ļ
å¼Ģ å¹ķ
f er
çĽĳ çĭ±
æĦŁ åĪ°
Le onardo
Ġ1 ,
Ģ â
çī ¢
è´¢ æĶ¿
Ċæĸ°åįİç½ĳ å®ģå¤ı
ĠæĹ¥ æľŁ
ä¸įç»Ļ æıĲçİ°
æ©Ł åł´
ĠèµĦ è®¯
3D æīĵåį°
ä¼ ı
Ġèŀį èµĦèŀįåĪ¸
Ġçī ©
ç¡® å®ļ
æĬķæ³¨ å®ĺç½ĳ
ĠçŁ³ æ£
Ġçľ ģ
Ġs al
em pty
çłĶ åıĳ
ä¸ĭè½½ æīĭæľºapp
çļĦ åīį
å°Ĩ äºİ
åħ¨ åľº
åı¤ å·´
æĢİä¹Ī è¿Ľ
ĠéĿĴ å¹´
åĲ¸ å¼ķ
æµ©çī¹ å¸Ĥ|
Ġd88å°Ĭé¾Ļ å®ĺç½ĳ
Ġçİ¯äºļ æīĭæľºçĻ»å½ķ
æĢ» ç»ĵ
åĲĪ éĽĨ
ä¸ĥ çłģ
# ãĢĳãĢĲ
è¡ ¢
hide ();
ï¼Į è¦ģæ±Ĥ
« åİ¿|
éĶĪ éĴ¢
attr ('
c n
ĠåĪ©æĿ¥åĽ½ åĽ½éĻħ
app éĤĢè¯·çłģ_
ĠåĽĽèĤĸéĢīä¸ĢèĤĸ æľŁæľŁåĩĨé¦Ļæ¸¯|
Leonardo æıĲä¾Ľ
ä¸į ãĢĳãĢĲ
Ġå½©ç¥ŀ x
è¿Ľ çĲĥ
è½¬ è´¦
ä¸ĩåįļ APP
ĠM T
Ġip hone
Ġå¤§ å§
Ċ éĵ¶å·Ŀ
ĠagçľŁäºº æ¸¸æĪıå¹³åı°
è¿Ķ åĽŀ
ç¥ Ŀ|
ĊP osted
ģ åİ¿|
2 70
ï¼ī ãĢģ
28 åħĥ
éĨ «
Ċ2019-11 -20
Ġéķĩ èµ
è§Ħå¾ĭ _
ä»ĭç»į ï¼ļ
Ġå¤© ç¥Ŀ|
e op
çľŁå®ŀ çº¿ä¸ĬçľŁäºº
åºĶ æĢ¥
Ġæ¾³éĹ¨ çľŁå®ŀçº¿ä¸ĬçľŁäºº
Ġ356bet æ»ļçĲĥ
Ġåĩ¯åıĳæ¸¸æĪı çĻ»å½ķ
12 æĹ¥
ĠéĤ» æ°´|
- 2017
Ġv ery
æ°ĳ çĶŁ
ç¤º å¨ģ
ĠK F
ĠçľŁéĴ±æ£ĭçīĮ ç½ĳåĿĢ
Ġçİ¯äºļ é¦ĸé¡µ
Ġ918ï¿½éİıçĦ¯ ï¿½
ĠE ng
ĠåĪ©æĿ¥æīĭæľº åĽ½éĻħå®ĺç½ĳ
¡ åİ¿|
Ġéĵ¶ è¡Į
Ġçº¿ä¸ĬçľŁéĴ± çĻ»å½ķ
Z T
èª ¿
Ġæľī äºº
é¦ĸ éĥ½
Ġéķ¶é»Ħ æĹĹ|
Ġåıĸ æ¬¾
çģ« ç®Ń
Ġå± ķ
æ¬ Ĭ
i ang
Ġå¤§åİĤ |
éĴ »
æ± ¤
Ġæ¾³éĹ¨ æ¾³åįļ
Ġæ¾³éĹ¨çľŁéĴ± ç½ĳåĿĢ
Ġbt365 ä½ĵèĤ²åľ¨çº¿
Ġåı°åĮĹ å¸Ĥ|
Ċ $
ç¨³èµļ æĬĢå·§
éĿĴ ç½ĳ
æĺ¯ ä¸į
Ġ365betå®ĺç½ĳ å¼ĢæĪ·
çĤ ī
è¦ ı
bet36 ä½ĵèĤ²åľ¨çº¿
åľ°åĿĢ ï¼ļ
èİ ī
Ġçº¿ä¸ĬçľŁéĴ± å¹³åı°
® ï¿½ï¿½
Class ('
æ¸¸æĪı æľīåĵªäºĽ
Ġæ¾³éĹ¨çľŁéĴ± çīĽçīĽ
Ġ}) ();
Ġè ł
Ġæĸ°ç«¹ å¸Ĥ|
ç½ĳä¸Ĭ èµĮåľº
è³ĩ æĸĻ
ĠéĿ¢ å¯¹éĿ¢
å¥¹ çļĦ
Ċ2019-11 -19
å¥ī çĮ®
Ġä¹Įå®¡ æĹĹ|
ĠæĬķ èµĦ
çī º
ĠA F
ãĢĳãĢĲ è¡Į
ĠagåĽ½éĻħåİħ app
åĿ ł
Ġåĩ¯åıĳå®ĺç½ĳ æ³¨åĨĮ
Ġçº¿ä¸Ĭ ä½ĵèĤ²å¹³åı°
Ġå½©ç¥ŀ ç½ĳ
22 6
Ġåĩ¯æĹ¶åĽ½éĻħ ç½ĳç«Ļ
çĲĨ å¿µ
ä¾¦ æŁ¥
Ċæ¹ĸåĮĹ çĶµè§Ĩåı°
ĠW h
L I
å»ī å¸Įå°Ķ
éĽĨ åħ¨
Ġäºļç¾İ è§Ĩè®¯
Ġæµ¦ä¸ľæĸ° åĮº|
.create Element
ĠåĪ©æĿ¥æīĭæľº åĽ½éĻħ
Ġçº¿ä¸Ĭ æ¸¸æĪıæľīåĵªäºĽ
e 7
åħ´ å¸Ĥ|
æľĢæĸ° çīĪä¸ĭè½½
Ġæ½ ĺ
æĤ ¬
b ãĢĳãĢĲ
Ġ html
çļĦ éĴ±
ĠæĬļé¡º å¸Ĥ|
° åİ¿|
ä¿Ħç½Ĺæĸ¯ æĢ»ç»Ł
un g
w in
å°¼ äºļ
U n
æĸ° åĮº
Ċ 2020å¹´
Ġéķ¿æ²» å¸Ĥ|
Ġå¥ĪæĽ¼ æĹĹ|
Ġæķĸæ±ī æĹĹ|
Ġ ar
æ©Łè»Ĭ è²¸æ¬¾
ag es
Ġéħ ī
Ġbet356 æ³¨åĨĮ
.c c
30 æĹ¥
Ġå¼Ģåħĥæ£ĭçīĮ åı¯ä»¥
ĠåĮĹ æĸ¹æĹ©é¤ĲåĬłçĽŁ
re d
çī¹é©¬ èµĦæĸĻ
Ġå®īå¾½ æĹ©é¤ĲåĬłçĽŁ
Ġæ¸ħ èĭ
è³¼çī© ç¶²
åĳ¨ æľ«
ĠæŀĹèĬĿ åİ¿|
Ġé«ĺéĽĦ å¸Ĥ|
ç§ĺ ä¹¦
Ġä¸Ĭé¥¶ å¸Ĥ|
Ġçī¹èī² å°ıåĲĥæĹ©çĤ¹åĬłçĽŁ
Ġ365 B
Ġå¹´ èıľ
Ġbet356 ä½ĵèĤ²æĬķæ³¨
365 .tv
Ġäºļæ¸¸ä½ĵèĤ² appä¸ĭè½½
ios &
æ´Ľ è¥¿
Ġæī¿ å¾·å¸Ĥ|
ĠéĢļ åĮĸå¸Ĥ|
ĠI F
ĠæĶ¾å¿ĥ æĹ©çĤ¹åĬłçĽŁ
ios& å®īåįĵappä¸ĭè½½
éĢģ åį¡
Ġäº¿ å®¶ä¹ĲæĹ©é¤ĲåĬłçĽŁ
å½©ç¥¨ éĤĢè¯·çłģ_
éĢı éľ²
ĠæľĿ éĺ³å¸Ĥ|
Ġ365ä½ĵèĤ²æĬķæ³¨ åľ¨çº¿
çİ°éĩĳ ä¸Ģä¸ĭ
7 9
Ġèģ ļ
le m
ĠåįĹ æĺĮå¸Ĥ|
V D
Ġæłªæ´² å¸Ĥ|
ĠèĬľæ¹ĸ å¸Ĥ|
Ġéģµ ä¹īå¸Ĥ|
Ġå®£ åĮĸ
ĠèĲ¥åħ» æĹ©çĤ¹åĬłçĽŁ
çīº çī²
ĠagçľŁäºº æĹĹèĪ°åİħä¸ĭè½½
ĠccåĽ½éĻħ å½©ç¥¨
é¢ ģ
ĠçĻ½ æ²Ļ|
Ġä¸Ń å¼ıæĹ©é¤ĲåĬłçĽŁ
ãĢĳãĢĲä¸ļ ãĢĳãĢĲ
s By
è¥¿ å®ī
ĠæŃ£èĵĿ æĹĹ|
å± ¥
¾ æ¿
éģŃ éģĩ
Ġåĺī ä¹īå¸Ĥ|
Ġé©¬ ä¸Ĭ
Ġä¹Ŀ æ±Łå¸Ĥ|
Ġæ¸¯ å¼ıæĹ©çĤ¹åĬłçĽŁ
Ġä¼Ĭ å®ģå¸Ĥ|
Ġåħ¨åĽ½ è¿ŀéĶģåĬłçĽŁ
ĠæĹ©é¤Ĳ éħįéĢģåĬłçĽŁ
ä¸ĵ éĹ¨
å¨±ä¹Ĳ å¼Ģåħĥæ£ĭçīĮ
ĠæĻ¯ å®ģ|
ĠæĹ©çĤ¹ æĭĽèģĺ
Ġå½ ±
èº«åĪĨèŃī åĢŁæ¬¾
æľĢ å°ĳ
Ġå²³ éĺ³å¸Ĥ|
28 æĹ¥
Ġå¼Ģå°ģ å¸Ĥ|
Ġ365æ£ĭçīĮæĸ°æīĭåį¡ æĢİä¹Ī
ĠæĹ©é¤Ĳ æĹ©çĤ¹åºĹåĬłçĽŁ
ç¢ Ł
ĠéĻµ æ°´|
çº¿è·¯æ£Ģæµĭ ä¸Ńå¿ĥ
Ġè¾½ éĺ³å¸Ĥ|
Ġçī¹èī² æĹ©çĤ¹å°ıåĲĥåĬłçĽŁ
ï¼Į äºİ
æķĳ ä¸ĸ
æĴ ¥
ĠåĲī å®īå¸Ĥ|
de t365
Ġåı°ä¸Ń å¸Ĥ|
365betå®ĺç½ĳ å®ĺç½ĳ
å¤§åħ¨ |
05 æľĪ
å° ¸
åħ¨å¤© åħįè´¹è®¡åĪĴ
Ġç»įåħ´ å¸Ĥ|
è¥¿ æĸ¹
Ġåĩ¯åıĳçĶµæ¸¸ æ³¨åĨĮéĢģ
ĠçĻ½ äºĳ
æĢİä¹Ī ä¸ĭ
ĠéĵľéĻµ å¸Ĥ|
s ert
Ġä¸´å¤ı å¸Ĥ|
ĠäºĶèĬ³æĸĭ æĹ©çĤ¹æĢİæł·åĬłçĽŁ
çĽ® çļĦ
Ġéĵģå²Ń å¸Ĥ|
å¤§åıĳ å½©ç¥¨
A -
ĠæĹ©é¤Ĳ é¡¹çĽ®åĬłçĽŁ
ĠçĶĺ åŃľ|
Ġå°Ĭé¾Ļd88 å®ĺç½ĳ
Ġå®ľå®¾ å¸Ĥ|
ä½© æ´Ľè¥¿
ef ore
Ġæ¹ĺæ½Ń å¸Ĥ|
åŁº åľ°
åģ ¶
Ġåħ¨åĽ½ æĭĽåķĨåĬłçĽŁ
Ġè¡¡ éĺ³å¸Ĥ|
ĠäºĴ åĬ©
ĠåĬ¨æ¼« åĬłçĽŁ
ĠæĬĢ æľ¯
åıĸ åĲį
Ġåĩ¯åıĳæ³¨åĨĮ å¤ĩçĶ¨ç½ĳåĿĢ
ĠæŃ£ å®ĹæĹ©çĤ¹åĬłçĽŁ
Ġåı°åįĹ å¸Ĥ|
ĠåĬłçĽŁ åĮħåŃĲ
æ¯į äº²
Ġå½ĵ åīį
è´· æ¬¾
ç¸º ï½
ĠagæĹĹèĪ°åİħ app
Ġéķ¿æ²Ļ åİ¿|
Ġä¸Ńå¼ı æĹ©çĤ¹å¿«é¤ĲåĬłçĽŁ
îĿ ¹
åŁº éļĨ
Ġtype :
7 )
å¯¹ æİ¥
Ġç½ĳ åĲ§åĬłçĽŁ
å¤ĸäº¤ éĥ¨
èķ ī
ç®¡ åĪ¶
æīĭæľºçīĪ åħ¥åı£
oogle tag
ĠçĲ¼ ä¸Ń|
Ċ 0
om ain
ĠãĢĳãĢĲs ãĢĳãĢĲtãĢĳãĢĲyãĢĳãĢĲlãĢĳãĢĲeãĢĳãĢĲ
Ġä¿Ŀ äºŃ|
ī èĢ
ĠçĦ ¡
bet365 ä½ĵèĤ²
² æŀĹ
ĠæĹ©çĤ¹åĬłçĽŁ åķĨ
æ¸ħ æ¥ļ
ref ix
å¼ Ĺ
Ġæ¾ ľ
Ġå°Ĭé¾Ļ æ¸¸æĪı
Ġç½ĳç«Ļ ;
æĸĩ çī©
å¾ ª
çİ°åľº å¼Ģå¥ĸç»ĵæŀľ
çĹħ ä¾ĭ
Ġäºļç¾İ é¦ĸé¡µ
åºĶ å¯¹
è¿Ķ åĪ©
Ċå¤®è§Ĩ ç½ĳ
Ġå®ģ èĴ
Ġåįļ é³
N ode
ĠAir port
M CB
6 å¹´
çĲĥ åĳĺ
ĠG N
Ġ$. ajax({
empty ();
ĊG MT+8,
1 a
3 å¹´
eop le
ĠåŁİ æŃ¥
æĪ Ī
Ġk8å½©ç¥¨ åľ¨çº¿çĻ»å½ķ
éģ µ
ĠçĦ īèĢ
çķ¶ éĭª
ä¹Ĳ åŁİ
ìĿ Ħ
ĠèĬ ·
Ġ$(' .
Ġåĩ¯åıĳ æ£ĭçīĮ
ĠC B
å½ ¼
åħµ é©¬
Ġs u
æĹ Ń
ä½ĵ å½©ç½ĳ
Ġä¸ī åĪĨpk10
Ġæ» ´
ä»ª å¼ı
Ġåĩ¯åıĳæľĢæĸ°çĻ»å½ķ åľ°åĿĢ
Ġäºļæ¸¸ä¼ļ æ¸¸æĪıå¹³åı°
Ġæĸ° æĻ
åģĩ ä¸įåģĩ
Ġå· į
Ġk8å¨±ä¹Ĳ çĻ»å½ķå®īåįĵçīĪä¸ĭè½½
Ċ2019-11 -22
éĢļ æĬ¥
ä¸Ń è¶ħ
( e
Ġåį Ĭ
Ġî ĺ
ï¼Į æŃ¤
é¦ĸæ¬¡ è³¼å±ĭåĦªæĥł
éĺ¿ éĩĮå·´å·´
ä¸ĭè½½ èµ°åĬ¿åĽ¾
ĠRes ort
Ġéķĩ æ²
MCB tYXJnaW5
æĸ° èĥ½æºĲ
éĤ®ç®± æĶ¶ä¸įåĪ°
Ċ ç¦ı
ĠI B
am es
Ċæ°´ æ¯į
Ġéģĵ çľŁ
åħįè´¹èµĦæŀĵå¤§åħ¨ |
® ï¿½
Ġå² «
å·¥ä½ľ ãĢĤ
ace book
åĪĨ 28
ç²¾åĩĨ è®¡åĪĴ
Ġç§¯ çŁ³
å¤§å°ı è®¡åĪĴ_
åĪ· åĪĨ
Ċ2019-12 -10
Ġ118 åĽ¾åºĵ
B cIj
Ġåĩ¯åıĳçĶµçİ©å¨±ä¹Ĳå®ĺç½ĳ åĩ¯åıĳå®ĺç½ĳ
åħ ģ
Ġè¶³å½© åĲ§
L o
æĬķæ³¨ app
i um
Ġ ï»¿
ĠèµĦ æĸĻ
Ġé©¬ä¸Ĭ é¢Ħè®¢
â Ĥ¬
æ¯ĶèµĽ çĽ´æĴŃ
ç¾İ å¥³
âĢĿ ãĢģ
ĠçĶµç«ŀ ç«ŀçĮľ
Ġçī Ī
Ċæľ¬ æĸĩ
æĪª èĩ³
çģ« çģ¾
çĤ¹ èµŀ
Ġç¦Ħ åĬ
ĠæĹħ é¡º
å®¡ åĪ¤
ĠU F
æĺŁ æľŁ
+ P
è®¯ ï¼Īè®°èĢħ
ĠW D
Ġåĩ¯åıĳå®ĺç½ĳ æīĭæľºapp
ãĢĳãĢĲ å¤§ãĢĳãĢĲ
Ġæ¼ ¾æ¿
å°Ī æ¡Ī
åĪĽ ä¸ļ
Ã Ĺ
æĸĩ çĮ®
Ġdocument .createElement
æĤ ¦
ĠäºļæĲıè§Ĩé¢ĳ è½¯ä»¶
Ġ qq
Ċ2020-02 -18
Ġèİ« åĬĽ
åĬł åĿ¡
å®ĺ åĳĺ
ï¼ĮèĢĮ æĺ¯
è¢Ń åĩ»
ap er
æĪ¿ |
item ap
Ġå® Į
Ġå¤§åıĳç§ĴéĢŁ å¿«ä¸ī
.s rc
çĶµ æ¢¯
y y
ĠC T
Ġåĩ¯åıĳAGæĹĹèĪ° å®ĺç½ĳ
æĪ °
ĠæĿ± äº¬
çĲĨ è§£
ä¸į è®©
ĊåĲĪèĤ¥ çĥŃçº¿
Ġé¦Ļæ¸¯ |
ĠåĪ©æĿ¥æľĢ ç»ĻåĪ©
å¹´ å·¥ä½ľç»ıéªĮ
èµŀåĬ© åķĨ
é¢Ħæµĭ è½¯ä»¶
ą Ĉ
ĠäºļæĲı æīĭæľºappä¸ĭè½½
äºº çīĽçīĽ
Ġä¼Ĭ éĢļ|
è©¦ç®Ĺ è¡¨
è¡ĵ èªŀ
éª Ħ
Ċ2020-02 -17
Ġä¸° åİ¿|
Ġåĩ¯åıĳAGæĹĹèĪ°åİħ çĻ»å½ķ
Ġç¿ ł
ĊèįĨ å·ŀæĸ°éĹ»ç½ĳ
Ċ2017 -11
åľ¨ä¸ŃåĽ½ åĲĪæ³ķ
Ġèĸ Ľ
Ġåĩ¯æĹ¶åĽ½éĻħ ä¸ĭè½½
ĠçĶ± LeonardoæıĲä¾Ľ
S h
æĺ¯ è°ģ
åĲĦ çķĮ
ä¿¡èªī å¹³åı°
ĠçĦīèĢ Ĩ|
ĠéĿĴ é¾Ļ|
ite d
å¡ĶåĲīåħĭ æĸ¯åĿ¦
Ġ2020-02 -17
Ġç¶² è·¯
ĠäºļæĲıå¹³åı° appä¸ĭè½½
ĠY J
ĊçĻ¾åº¦æĸ°éĹ» æĲľç´¢
ĊæĲľçĭĲ æĸ°éĹ»
Ġè´¡ å±±|
D ata
Ġæµ Ļ
çİ¯çĲĥ æĬ¥
Ġåĩ¯åıĳçľŁäºº æīĭæľºçīĪ
1 |
æķ´ çĲĨ
Ċ æŃ£
é©¬ä¼ļ åħ¨å¹´
Ġæ±Ł åįİ|
Ġå®¿ è±
Ġåĩ¯8 å¨±ä¹Ĳå®ĺæĸ¹ç½ĳç«Ļ
ĠåıĮ æ±Ł|
ĠM J
Ġåĩ¯åıĳçĶµæ¸¸ ç½ĳåĿĢ
ãĢĳãĢĲ åĽ½ãĢĳãĢĲ
Ġåīį éĥŃ
Ġä¸ī éĥ½|
æĺŁ |
ĠG oogle
ĠåĮĹ å·Ŀ|
å´ ©
ä¼ĺæĥł æ°¸è¿ľå¤ļä¸ĢçĤ¹
Ġé»Ķ è¥¿|
çĬ ¬
âĢĿ çŃī
ĠåŁİæŃ¥ |
Ġ0 ;
Ġæľ¨ éĩĮ|
Ġæĸ° å¹³|
Ċ ä»ĬæĻļ
Ġéķ¿ éĺ³|
Ċæ¯ıæĹ¥ çĶĺèĤĥ
5 jb
ĠæĺĮ æ±Ł|
ĠY F
å¤ļå°ĳ æľŁ
5 9
æ¡ Ĥ
ä¸ĭ çļĦ
\ \
ĠA J
Ġåĩ¯åıĳæľĢæĸ°çĻ»å½ķ é¦ĸé¡µ
ĊæĺŁå²Ľ çİ¯çĲĥæĬ¥
ĠåĮĸ éļĨ|
æĿ¥ è¯´
Ġéķ¿ çĻ½|
ĠåįĹ æ¶§|
Ġè¿ŀ åįĹ|
ĠäºĴåĬ© |
Ġ365å¤ĸåĽ´ ç½ĳç«Ļ
Ġå¾ª åĮĸ|
Ġæĸ°æĻ ĥ|
6 9
ĠäºļæĲıå®ĺç½ĳ å®ĺç½ĳçĻ»å½ķä¸ĭè½½
Ġé©¬ä¸Ĭé¢Ħè®¢ ;
Ġé¥ ®
æľĢæĸ° çīĪæľ¬
Ġå³¨ å±±|
Ġä½¿çĶ¨ æĿ¡æ¬¾
de f
r op
Ċ2019-11 -21
Ġä¸° å®ģ|
Ġå¢¨ æ±Ł|
Ġå¯» çĶ¸|
Ġéº» éĺ³|
AG åĽ½éĻħåİħ
ĠçŁ³ æŁ±|
ĠæĢ »
Ġè´ ¾
Ġéħī éĺ³|
Ġä¸ī æ±Ł|
ĠåŃŁ æĿĳ|
åĸ Ŀ
ĠéļĨ æŀĹ|
Ġå¯Į å·Ŀ|
ĠéĢļ éģĵ|
é« ®
or g
Ġçİ¯ æ±Ł|
Ġå¨ģ å®ģ|
ĠåŃŁ è¿ŀ|
Ġæ¾ľ æ²§|
ĠæĿ¾ æ¡ĥ|
Ġè¿ŀ å±±|
è´µå®¾ ä¼ļ
æ¶ĵ ï¿½ï¿½ï¿½
Ġéĩĳ å¹³|
çŃī å¾ħ
çĸ Ĩ|
ĠèĬ· æ±Ł|
Ġæ²¿ æ²³|
ĠåĬ¡ å·Ŀ|
ĠèĤĥ åĮĹ|
ĠagçľŁäºº æīĭæľºçīĪä¸ĭè½½
Ġåħĥ æ±Ł|
Ġä»ĬæĻļ åħŃ
Ġèŀį æ°´|
Ġç»´ è¥¿|
¯ å±Ģ
n ing
Ġå®½ çĶ¸|
ãĢĳãĢĲpãĢĳãĢĲx ãĢĳãĢĲ;ãĢĳãĢĲ
ĠC ar
Ġå¼łå®¶ å·Ŀ|
Ġéĩĳ ç§Ģ|
Ġé¾Ļ èĥľ|
Ġæ±Ł åŁİ|
ĠäºļæĲıå¨±ä¹Ĳ çĻ»å½ķ
Ġå®ģèĴ Ĺ|
åİĨåı² å¼Ģå¥ĸè®°å½ķ
Ġæ²§ æºĲ|
Ġèĭ±éĽĦ èģĶçĽŁ
åĮ ¿åĲį
ĠéĿĸ å·ŀ|
å¤§ ä½¿
æ¶Īæģ¯ ï¼Į
Ġå½Ń æ°´|
Ġbt365 å®ĺç½ĳ
Ġå²« å²©|
Ġéķĩæ² ħ|
Ġåį° æ±Ł|
7 e
Ġæ¶ ĵ
Ġå³¨ è¾¹|
Â °
Ġæ°ĳ åĴĮ|
Ġåĩ¯åıĳç½ĳåĿĢ èĭ¹æŀľçīĪä¸ĭè½½
ï ¾
B ox
èĪª å¤©
Ġå¥½ åº·
ĠèĢ¿ é©¬|
1 c
ĠU D
Ġä¹Ĳ ä¸ľ|
ĠèĹ ¤
ä¼ ª
Ġç´« äºĳ|
Ġéķĩ å®ģ|
çº¿ä¸Ĭ æĬķæ³¨
ĊæĹ©çĤ¹ æĿ¥
Ġç§Ģ å±±|
Ġæĸ° çĸĨ|
5jb 21
5jb21 cL
ç½ĳä¸Ĭ å¹³åı°
ï¼Į çĶ¨
ĠéģĵçľŁ |
å¤©åłĤ ä¸ĭè½½
Ġç½Ĺ åŁİ|
æĸ¯ç§ĳ çī¹
Ġå¹¿ è¥¿|
Ġåħ³ å²Ń|
Tag Name
r t
Ġæ¸ħ åİŁ|
Ġç¦ĦåĬ Ŀ|
Ġéĥ½ å®ī|
Ġdocument.getElement sBy
æ³¨åĨĮ éĤĢè¯·çłģ_
ï¼Į éĤ£
Ġçİī å±ı|
s um
ĊæµĻæ±Ł åľ¨çº¿
Ġæ¡ĵ ä»ģ|
Ġå±± ä¸ľ|
Ġå±ı è¾¹|
åıĳå±ķ ãĢĤ
0 c
äººæ°ĳ åħ±åĴĮåĽ½
Ġå®ģ å¤ı|
Ġç§¯çŁ³ å±±|
çĶµåŃĲ æ¸¸èīº
+ "
çĴ ĩ
3J j
æīĵ éĢł
gc 3Jj
gc3Jj PV
Ġåħ° åĿª|
_ p
Ġæįķé±¼ çİĭ
Ġè¥¿èĹı |
Ġ" https://
å°Ĩ ä¼ļ
å°ı åŃ¦
ä¸Ģ èĪ¬
8 çłģ
çĮ Ľ
ç»ĵ åĲĪ
éĳ ĳ
ç´ Ģ
00 1
åĽ¾ ]
æ´» åĭķ
è¯´ ãĢĤ
â ī
Ġå¤§ åĮĸ|
ĠC om
èĲĿ åįľ
Ġæĭī èĲ¨
ĠK V
è® ĵ
éĢ ®
Ġå·į å±±|
Ċ E
Ġç»ı æµİ
æĸ° åįİç½ĳ
ĠæĢ ¥
I G
ĠM N
ãĢĤæŃ¤ å¤ĸï¼Į
å¥½ åĲĹ
94 94
åĲĦ åĽ½
Ġæ¼¾æ¿ ŀ|
Ġæ¼ Ķ
Ġå»º çŃĳ
Ġçİī é¾Ļ|
åħļ çļĦ
çľŁçļĦ åģĩçļĦ
ĠP ort
IB _
2019å¹´ 12æľĪ
Ġåĩ¯åıĳå®ĺç½ĳçĻ»å½ķ åħįè´¹ä¸ĭè½½
èĩ £
è¿Ļ æ¬¡
ãĢĳãĢĲ å¹´
ĠO J
Ċä¸ī äºļ
Ġè «
Ġ2019-0 4
æĢ» ç½²
Ġå¤§åıĳå¿«ä¸ī è±¹åŃĲ
Ġbet365 å¼ĢæĪ·
Ġåĩ¯åıĳAGæĹĹèĪ°åİħ æīĭæľºçīĪ
ä¸ĭ éĿ¢
å¿ Ĩ
çľĭ ï¼Į
B efore
ĠC H
Ġ out
Ċéĵ¶å·Ŀ æĸ°éĹ»ç½ĳ
ĠB ook
HA /
âĢķ å¤§åıĳæĹ¶æĹ¶å½©
ĠP K
ï¿½ï¿½ ãĥ
Ġå¿«ä¹Ĳ æĹ¶æĹ¶å½©
C E
ìĿ ĺ
re ad
ĠèĭĹ æłĹ
Ċ åľ¨
èģĶ ç¤¾
5 wa
5wa HA/
Ġåĩ¯åıĳæīĭæľº ç½ĳé¡µçīĪ
Ġä½Ľ å±±
Ġåĩ¯åıĳapp ç½ĳåĿĢ
Ġ( function()
a ,
èĳ ī
äºļ æĲı
Ġag å®¢æĪ·ç«¯ä¸ĭè½½
è§ī å¾Ĺ
ĠèĬ± èĵ®
18 æĹ¥ï¼Į
ĠW F
1 .9
å¼ µ
çĻ½ å®«
Ġåĩ¯æĹ¶åĽ½éĻħ äººçĶŁ
ĠæĬķç¨¿ æĮĩåįĹ
å©ļ å«ģ
æĤ£ èĢħ
ĠK ing
Ġç¹ §ï½
re load
ãĢĳãĢĲæĺ¯ ãĢĳãĢĲ
Ġæ¬§ ç¾İ
ĠQ D
Ġè® º
k y
ï¿½ g
ç»ı éĶĢåķĨ
e ll
åĿ Ĥ
") [0];
Ġdocument.getElementsBy TagName
Ġè£ ħ
å¤§ éĥ¨åĪĨ
Ġèı ¯
Ġæīĭæľºäºļæ¸¸ app
se o
.in sert
Ht ml
æıĲ ä¸įåĩº
å½© èī²
ä¸ §
1 66
.parent Node
Ġs );
if i
ç¾İåĽ½ çļĦ
µ ï¿½
çĪ± åĽ½
èİ« éĩĮ
è£ ľ
çĽ ¤
Ċ ç¦ıå»º
ä¹ĭ å£°
ç¾ ½
Ċ äº¤éĢļ
æĶ¶è´¹ æłĩåĩĨ
åĹ ¨
r l
ĠåĪ©æĿ¥å®ĺæĸ¹ç½ĳç«Ļ w66åĪ©æĿ¥
Ġè¯ļèģĺ ç²¾èĭ±
ĠG J
æĺ¯åĵª ä¸Ģä¸ª
ĠD es
Ġ âĢĿ
çĴ ģ
æº «
Before (
Ġå®ī åħ¨
å£ ³
è½¦ çĤ¹
u be
.insert Before(
Ġæ¬¢ ä¹Ĳ
Ġ Ø
Ġè§ £
æŀľ æ´¾å¯¹
Ġå®ī åºĨ
å·´ åŁºæĸ¯åĿ¦
ĠW N
æ¸ Ĳ
Ġæ¾³æ´²å¹¸è¿Ĳ 10
- com
Ġä¸Ģ èĤĸ
ĠçľŁäºº çĶµåŃĲ
M C
Ġäºļç¾İ å¨±
.parentNode .insertBefore(
æĶ¶ä¸įåĪ° éĤ®ç®±
æĤ Ķ
j ay
æļĤ åģľ
è¡¨ çİ°
Ġ356bet å¤ĩçĶ¨ç½ĳåĿĢ
çĹ ´
P C
ĠU J
ï¼Įè¿Ļ ä¸ª
ĠçĽ Ľ
å¤§åıĳ äºĳ
æ³¨åĨĮéĢģ 38
ĠéĽ ģ
Ċ 19
ãĢĳãĢĲ :ãĢĳãĢĲ
è¿Ŀ è§Ħ
Ġèµ ·
6 2
appä¸ĭè½½ _
å¤§ çģ«
at ed
4 æĹ¥
Ġéķ¿ æľŁ
ĠU R
Ċ èĵĿ
æķ¸ æĵļ
Ġåĩ¯åıĳçĶµæ¸¸ å¹³åı°
Ġç¹Ŀï½ ¢ç¹Ŀï½³ç¹§ï½¯ç¹Ŀï½¬ç¹Ŀï½¼ç¹Ŀï½«
Ġåħ³äºİ æľ¬ç«Ļ
("script ")[0];
ĠåĪ©æĿ¥w66æľĢ ç»ĻåĬĽçļĦèĢģçīĮ
å®ĺç½ĳç½ĳåĿĢ å¤ļå°ĳ
Ġdocument.getElementsByTagName ("script")[0];
Ġä¸ĭ ä¸Ģç¯ĩ
Ġs .parentNode.insertBefore(
("script ");
Ġéķ¿ çĻ½
æĺ ¨å¤©
Ġdocument.createElement ("script");
Ċé¦Ļæ¸¯ æĶ¿åºľ
åıĳ ãĢĳãĢĲ
Ġéĺħè¯» (
Ġåħ¨æ°ĳ çĻ¾å®¶ä¹Ĳ
æķħ æĦı
Ġ0 )
ĠK J
Ġäº¬ éĥ½
Ġ365bet åľ¨çº¿
Ġagæįķé±¼ çİĭ
hm ,
éĸ ±è®Ģ
è° ĵ
Ċ åħ±
å½© å¼Ģå¥ĸ
Ġ365ä½ĵèĤ² ç½ĳ
ĠW J
ĠG R
ĠagåĽ½éĻħåİħ æ¸¸æĪı
ç»ı åħ¸
ĠY N
ĠU V
Ġå¾Ģ æĹ¥
ħ ï¿½
åĽ½éĻħ å¨±ä¹ĲåŁİ
æ°ĳ å®¿
éĢ® æįķ
Ġç¤¾ ä¼ļ
Ġäºļç¾İagæĹĹèĪ°åİħ app
Ġs.parentNode.insertBefore( hm,
Ġhm .src
ay s
à¸¡ à¸²à¸
æĹ¶ åĪ»
ĠåĪ©æĿ¥w66 agæīĭæľºçīĪ
æĿĥ å¨ģ
åįķåıĮï¼ļ å¿«éĢŁ
á ł
ĠagåĽ½éĻħäºļæ¸¸å®ĺç½ĳ æīĭæľº
Ġè¦ ª
åħ¨æ°ĳ è¡Ĺæľº
re en
ĠI J
Ġå¾ĢæĹ¥ åĽŀé¡¾
æİ¨ åĩº
Ġ( 2)
Ġåı ²
ç¢ ±
Ġå¯ Ĵ
æĹ¥æĬ¥ ...
ĠM ay
ï¿½ T
å¤Ħ ç½®
Ġ( è¡ĵèªŀ
Ġ(è¡ĵèªŀ )
HR 0c
æĺ¯ä»Ģä¹Ī åħ¬åı¸
ä¸² åħ³
Ġ918 å¤©åłĤä¸ĭè½½
çİ© åħ·
Ġçİ° åľº
é¡¯ ç¤ºåħ¨éĥ¨
è¿ĩ åĲĹ
ĠæĪ ļ
ä»į æľī
Ċ å¤ĸ
æĭī æĸ¯
w ia
çĳ ķ
Ġçķª ç¦
æ²¡ åĪ°è´¦
Ġæ¾³éĹ¨å¨±ä¹Ĳ æ¸¸æĪıç½ĳåĿĢå¤§åħ¨
Ġ365betå®ĺç½ĳ åľ¨çº¿
b y
æĵ ¦
iO S
Ġè® ¡
ĠI V
è¦ ĭ
åħ¬ ä¼Ĺ
Ċ åĽĽ
åĢįçİĩ _
ĠäºĮæīĭ å¸ķ
åı¥ è¯Ŀ
replace (/
28 60
äºĮèĥİ æĪ¿è²¸
Ġ| é¡¯ç¤ºåħ¨éĥ¨
ĠåĲĪ èĤ¥
Ġæ¦Ĥ åĨµ
æĶ¹ éĢł
ä¸¤ é¡¹
okerst ars
Ġåįļ å¤©åłĤ
åĩ Ŀ
js ?
wia HR0c
Ġ365bet çİ°éĩĳ
æ³ ¥
ĠF or
æ°ĳä¸»åħļ äºº
hm. baidu.com/
hm.baidu.com/ hm.
hm.baidu.com/hm. js?
Ġå¤§åıĳä¸ī åĪĨéĴŁpk10
Ġæ¾³éĹ¨çĻ¾å®¶ æ¬¢ä¹Ĳ
lo se
æ»ļçĲĥ 365
çĶµ æ±ł
Ċ ä½ł
Ġäºº æīį
çĻ» å±±
g PS
n ull
64 e
Ġåĩ¯åıĳæīĭæľº å¨±ä¹Ĳappä¸ĭè½½
Ġ"https:// hm.baidu.com/hm.js?
Ġk8å¨±ä¹Ĳå®ĺç½ĳåľ°åĿĢ å®ĺæĸ¹ç½ĳç«Ļ
Ġæ¾³éĹ¨æ£ĭçīĮæ¸¸æĪı appä¸ĭè½½
ĠI nd
ĠåĽ½éĻħåĪ©æĿ¥ ag
Ġåĩ¯åıĳçĶµæ¸¸ ä¸ĭè½½åľ°åĿĢ
ä¸Ĭ è¿°
ç¹ģ èį£
d ";
å¸ ħ
Ġå½ ¬
ĠccåĽ½éĻħ å¨±ä¹Ĳ
45 82
ì ł
äºļæ´²çīĪ å®ĺç½ĳ
c6 cc
æĬ¥ åĲį
åįķåıĮï¼ļ ç§Ĵç§Ĵ
çĶµ æĬķ
åħ¨ éĽĨ
a8 78
å¤§åİħ ä¸ĭè½½
"). empty();
æŃ£ å½ĵ
â Ĺı
éĢī äºº
bd 7e
1a 75
eb 2860
e7 a878
Ġ"https://hm.baidu.com/hm.js? c6cc
bd7e 4582
64e 1a75
eb2860 d";
bd7e4582 e7a878
Ġ"https://hm.baidu.com/hm.js?c6cc 64e1a75
bd7e4582e7a878 eb2860d";
Ġ"https://hm.baidu.com/hm.js?c6cc64e1a75 bd7e4582e7a878eb2860d";
ãĢĤ ç»ı
èĤ¡ä»½ æľīéĻĲåħ¬åı¸
çĲ ª
Ġä¸ľ äº¬
ãĢĤ æł¹æį®
Ħ åŃĲ
å®Ŀ å®Ŀ
å·´ è¥¿
Ġåĩ¯åıĳçĶµæ¸¸æ³¨åĨĮéĢģ 8åħĥ
å°ıé¡į åĢŁéĮ¢
ĠM on
Ġä¸» é¡µ
d ãĢĳãĢĲeãĢĳãĢĲ
æ´¾åĩº æīĢ
ĠS V
Ġèĭ±è¶ħ èģĶèµĽ
åĨľ æ°ĳ
éĢģ è½¦çĤ¹
ä¾ §
å¾ ¡
ĠäºĮ åĪĨæĹ¶æĹ¶å½©
è®¡åĪĴ å¸Ī
çĬ¶ åĨµ
æĭį æĳĦ
ĠåķĨ ä¸ĺ
æ¸¯ éĵģ
Ġçĥ Ī
è·¯ çº¿
ĠåĮħ å¤´|
Ċ æµİåįĹ
ä¹Ł ä¸į
ç¥ŀ å½©äºīéľ¸
çľŁ ç½ĳç«Ļ
åĽ° éļ¾
Ġåŀ ĭ
Ġ365betå®ĺç½ĳ å¤ĩçĶ¨ç½ĳåĿĢ
ãĢĤ å½ĵ
ĠAG äºļæ¸¸
é¦ĸé¡µ åħ¥åı£
ĠçľŁäºº åıĳçīĮ
Ġæĸ° åŁİ
æŃ£ çļĦ
img ":
_ m
ï¼Į å¸ĮæľĽ
Ċ åĬłçĽŁæĹ©çĤ¹
Ġ|é¡¯ç¤ºåħ¨éĥ¨ å¸ĸåŃĲ
ä¿¡èªī æİĴåĲį
ĠçľŁäººåıĳçīĮ çĻ¾å®¶å®¶ä¹Ĳapp
è¶ħ çº§
çīĽ å£«
Ġå¤§åıĳä¸ī åĪĨéĴŁæĹ¶æĹ¶å½©
Ġè´µå·ŀ å¿«3
gPS BcIj
Ġå¤§åıĳåįģ åĪĨéĴŁæĹ¶æĹ¶å½©
ĠæĿ ŀ
c ode
XHJcbj x
æĬķ åħ¥
Ġå¤§åıĳäºĶ åĪĨéĴŁæĹ¶æĹ¶å½©
Ġçİ¯äºļ ç½ĳ
ĠæĹ©é¤ĲåĬłçĽŁ è¿ŀéĶģ
éĥ¨ èģĶç³»
æĴ¥ æ¬¾
Ġç«ŀ å½©
N um
Gl jay
jb Gljay
_ d
Ġå¤§åıĳäºĮ åĪĨéĴŁæĹ¶æĹ¶å½©
å¼Ģ çļĦ
ĠåĪĨ åĪĨpk10
çº ¬
ï¼Ī N
å°Ķ ä¼¯çī¹
éĿłè°± çļĦ
å¹³ åĮºæĸ°éĹ»ç½ĳ
å¯¹ å¤ĸ
Ġs erv
q X01fNzI4eDkw
ä¸Ģ ä½ĵ
æ¼« çĶ»
Ġbet365æ»ļçĲĥ çĽĺ
å¥½ |
æ»ļ éĽªçĲĥ
ç¬Ķ è®°
å¥½ å¤ļ
çŃ Ľ
Ġå¤§åıĳä¸Ģ åĪĨéĴŁæĹ¶æĹ¶å½©
æ¸ħ åįİ
0 g
Ċç¬¬ ä¸ī
ĠæĹ©çĤ¹åĬłçĽŁ åĵªå®¶å¥½
éĢī ä¸¾
é¦ĸæ¬¡è³¼å±ĭåĦªæĥł æĪ¿è²¸
éŀŃ çīĽå£«
/ ç§Ĵç§Ĵ
Ġ3 .8ä¸ĩ
Ċè¥¿ å®īæĸ°éĹ»ç½ĳ
ĠS R
Ġä¸Ń å±±
¤ ï¿½
ĠæĹ© é¾ĻæĹ©é¤ĲåĬłçĽŁ
Ċ ä¿¡æģ¯
ãĢĢ |
è§Ĥ ä¼Ĺ
re et
2019 -11
éį ĭ
å®Ŀåħ¸ |
Ã ¬
Ġag èµĮåŁİ
ĠåĵĪå°Ķ æ»¨
Ġå°Ĭé¾ĻäººçĶŁå°±æĺ¯åįļ æĬķæ³¨å¹³åı°
Ġw66åĪ©æĿ¥ æ³¨åĨĮ
æĥ³ è¦ģ
Ġæ¾³éĹ¨ç²¾åĩĨ èµĦæĸĻå¤§åħ¨
æĭ ĵ
æĤ Ł
d er
R es
åħħ éĴ±
¥ ï¿½ï¿½
æ¸¯ å¸Ĥ|
Ġ2019-11 -17
âĶ Ĥ
ĠåĪ©æĿ¥ag æĹĹèĪ°
Ġä¸ĩåįļä½ĵèĤ²3.0 app
ä¼ļ è°Ī
ĠM X
çº¢ åĨĽ
ĠAp art
/ å¿«éĢŁ
F i
å¼ ·
æµ £ï¿½
ï¼ Ķ
æĻ¶ å®«
å®ĺæĸ¹ éĤĢè¯·çłģ_
ĠæĺĮ åĲī|
ç¾İ æĸ¹
æī© å¤§
åĮ¹ éħį
å® ¸
å¤© ï¼Į
Ġ+ =
æĮĩ å°ĸ
æľ¬ äºº
æ¹¾ åĮº
ĠM y
æĸ° ãĢĳãĢĲ
Ġä¸į éĻĲ
æĺ¯ ä¸Ģä¸ª
Ċé¦Ļæ¸¯æĶ¿åºľ æĸ°éĹ»ç½ĳ
ĠæĹ¥åįļ ä½ĵèĤ²
éĩįè¦ģ çļĦ
æī¾ åĽŀ
Ġ ..
å°ıé¡į åĢŁè²¸
åĪĨ pcèĽĭèĽĭ
åĪĨ ãĢĳãĢĲ
å®īè£ħ æĿ¿
åģľ è½¦
Ġè´ §
Ġ ä»Ģä¹Ī
å·´ ä½ĵèĤ²
Ġp refix
èİ«éĩĮ æ£®
Ġagæīĭæľºå®¢æĪ·ç«¯ å®īè£ħæĿ¿
Val ue
çĽ Ĩ
ä»İ äºĭ
çİĦæľº èµĦæĸĻ
Ġäºļç¾İåľ¨çº¿ æ¸¸æĪıå¹³åı°
çº· çº·
èŀ º
ĠM ore
Ġåĩ¯åıĳ æ¸¸æĪıå¹³åı°
Ġå¤§ åºĨ|
Ċ2019-12 -12
æĺ ı
è¡Ķ æİ¥
ĠE x
çĬ¹ å¤ª
æıı è¿°
å±Ģ éķ¿
ĠåħŃåĲĪ å¼Ģå¥ĸç»ĵæŀľ
Ġ356bet çİ°éĩĳ
Ċ æĸ°éĹ»
è®Ń ç»ĥ
å¸Ĥ åħ¬å®īå±Ģ
"," IB_
æŀģéĢŁ pk10
Ġ ç½ĳæĬķ
é¥ ¶|
Ġagäºļæ´² éĽĨåĽ¢å®ĺç½ĳ
è³¼å±ĭåĦªæĥł è²¸æ¬¾
ĠåĪ©æĿ¥åĽ½æłĩ ä¸ĭè½½
5 2
çŃĸ çķ¥
Ġ} ;
å°½ å¿«
Ġ ãĢĮ
v 1.0
u se
ª ï¿½
æĭ ī|
å±ŀäºİ å¤ĸåĽ´åĲĹ
Ġè¿ ª
ĠæŀģéĢŁ å¤§åıĳ
Ġ356bet äºļæ´²
æĪĲ å°±
Ad vis
Ã Ń
ï¼ ķ
æľŁéĹ´ ï¼Į
Ġå°Ĭé¾Ļ ãĢĲ
èĢħ ï¼ļ
Ġ365 .tv
Ä ±
5 ãĢĳãĢĲ
ĠèµĮéĴ± app
ãĢĤï¼Ī æµ·å¤ĸç½ĳ
å¤® ä¼ģ
ĠåŃĹ åı·ï¼ļ
æĺŁ éĻħ
åį± æľº
ab y
c G
åĮĸ å·¥
å¼Ģ åĲ¯
ĠC X
ĠçľŁäººèµĮéĴ±æ¸¸æĪı è½¯ä»¶
ĠåĪ©æĿ¥åĽ½éĻħ w66
ĠCh inese
æµģ çķħ
çģ« çĪĨ
ĠæĹł éĶ¡
ĠçĭĹä¸ĩ çĽ´æĴŃ
9 2
ä¸Ĭ çº¿
å¦ Ĩ
çļĦ å®īåħ¨
ï¼ĮèĢĮ ä¸Ķ
ig h
çĻ»å½ķ å¹³åı°
appâĢķ å¤§åıĳ
åĲĮ è¡Į
ĠåĪ©æĿ¥ çĻ»å½ķ
ĠhostIntro :'',
ä¿Ŀ çķĻ
ĠåĪ©æĿ¥ag å®ĺç½ĳ
Ġå®īå¾½ å¿«3
ĠçĻ» å½ķ
è®¡åĪĴ ç½ĳ_
Ġæ¾³éĹ¨ç½ĳæĬķ ä¿¡èªīæİĴåĲį
Ġæ¨ ¡
éļı åĲİ
ï¿½ @
Ġä¿Ŀ å®ļ|
B A
åĩº çĶŁ
åħ¨ åĬĽ
è¿ĳ æĹ¥
åŀĭ åı·
ĠçĶŁ æ´»
ç» ķ
æ¶ī åıĬ
æħ °
è¯ģ ä¹¦
å¹´ æĿ¥ï¼Į
ä¸Ĭç½ĳ çļĦ
Ġçº¿ä¸ĬçľŁéĴ± ç½ĳ
Ġèıı æ³½
3 ãĢĳãĢĲ
Ġçİ°éĩĳç½ĳ å®ĺç½ĳçĻ»å½ķ
Ġbet365 å¤ĩçĶ¨ç½ĳåĿĢ
Ċ #
- 2018
å½ Ń
ä¸į èī¯
ä¸ĩ èĥ½
åįķåıĮï¼ļ å¥½è¿Ĳ
Ġg ood
Ġåĩ¯åıĳAG åĽ½éĻħ
Ċä¸Ĭä¸ĢæĿ¡ ï¼ļ
åŃĹ å¹ķ
Ġå¾· å·ŀ
ĠæĹ¶ å°ļ
Ġçº¿ä¸ĬçľŁäºº æ¸¸æĪıå¹³åı°
ĠF R
Ġ10 00
ä¸ĬåįĪ ï¼Į
åľ¨ éĤ£
è¯ģ å®ŀ
å¼ ĺ
ç¼ ģ
ä¸Ĭç½ĳçļĦ çľŁéĴ±æ£ĭçīĮ
Ġæīĭæľº ä¸Ĭç½ĳçļĦçľŁéĴ±æ£ĭçīĮ
Ġ2017 -01
ad ing
Ġæ¾³éĹ¨å¹³åı° æ¸¸æĪıç½ĳåĿĢ
Ġ365æ£ĭçīĮ ä¸Ĭä¸ĭåĪĨ
åĿĳ äººçļĦ
/ åĪĨ
å¤Ħ äºİ
æĴ °
çĻ½ èıľ
Ġå¤ª éĺ³åŁİ
Ġ200 6
Ġåĩ¯åıĳag å®ĺç½ĳ
ä¹Ĳ æ©Ļ
" +
éĽ ķ
æ£ł agæĹĹèĪ°
æµģ è¡Į
ĠY V
Ċ å¼Ģ
Ġ918åįļå¤© æ£łagæĹĹèĪ°
Ġéĺ¿ éĩĮå·´å·´
ĠçľŁäººèµĮéĴ± æ¸¸æĪıä¸ĭè½½
éģ¿ åħį
å¨ īï¿½
ĠçĶµçİ© æ¸¸æĪı
Ġåĩ¯åıĳå®ĺç½ĳ -æ¬¢è¿İæĤ¨
ĠåįĹ æµ·
if ic
Ġæ°¸ å®ī
Ġåĩ¯åıĳag ç½ĳç«Ļ
Y 3J
åıĳ è¡Į
Ġåģ ĩ
Ġåĩ¯åıĳag æľĢæĸ°çĻ»å½ķåľ°åĿĢ
åĪ« äºº
ĠåįĹäº¬ |
Ġw indow.
æ¶ Ĥ
is m
Ċ éĤ
Ġåĩ¯æĹ¶åĽ½éĻħ æīĭæľºçīĪ
ĠåįĹ æµ
ĠM R
Ġ ãĢĭ
ĠæĹ¶éĹ´ :
Ġ1 .
çĥĪå£« éĻµåĽŃ
16 8
åº ļ
Ġåĩ¯åıĳçĶµæ¸¸ å¨±
Ġå¤©æ´¥ æĹ¶æĹ¶å½©
com å¤ĩçĶ¨ç½ĳåĿĢ
Ġè¯ ·
Ġåİ¦ éĹ¨|
[ çİ¯çĲĥæĹ¶æĬ¥
ãĢĳãĢĲ æľīãĢĳãĢĲ
æīĵ æ°´
Ġ918 comå¤ĩçĶ¨ç½ĳåĿĢ
å¸ĥ æŁ¥
Ġäºļæ¸¸å®ĺæĸ¹ç½ĳ ä¸ĭè½½æīĭæľºçīĪ
Ġåºĵå°Ķ åĭĴ|
å¿ ł|
å¹¸ ç¦ı
æĹ¥ èªĮ
Ġç µ
ĠæŁ³ å·ŀ|
Ġæ´Ľ éĺ³|
ä»Ģ åºĵå°Ķ
Ġçī¡ä¸¹ æ±Ł|
å¤ª åİŁ
Ġå¤§ è¿ŀ|
éº Ĺ
æľĢä½İ éĬĢè¡Į
Ġåĩ¯åıĳag å®ĺç½ĳçĻ»å½ķ
æĸ° ä¸Ģ
ve lo
177 .com
æµ· æ´ĭ
Ġè¦ ĥ
I I
ä¹ĭ è·¯
æīĵ çłģ
ĠæĺŃ éĢļ|
ĠåĲ´ å¿ł|
ook ie
Ġm in
Ġ365 .
ĠS un
Ġç»µ éĺ³|
å· ¦|
çłĶç©¶ éĻ¢
æľŁ æľĽ
éħ ·
ĠåĴ¸ éĺ³|
Ġ365bet å¼ĢæĪ·
ĠæĹ¥åĸĢ åĪĻ|
Ġç Ł
ĠéĢļè®¯ åĳĺ
Ġå®ģ æ³¢|
Ġä¸´ æ±¾|
ĠåĪ©æĿ¥åĽ½éĻħ èĢģçīĮ
åı Ļ
Ġhg 0088
Ġclass ="
a id
Ġå°Ĭé¾ĻäººçĶŁå°±æĺ¯åįļ æīĭæľºçīĪ
Ġ ć
åħ´å¥ĭ åīĤ
åĲĪä½ľ ï¼Į
op e
Y3J pc
æīĭæľº å®ĺç½ĳ
ĠåĲī æŀĹ|
æ» ¿
æĹ¶ æľŁ
åĪ¶éĢł ä¸ļ
ĠæĪĳ ä»¬
ï¼Į çİ°åľ¨
Ċ åķĨåĵģ
åĪĽ éĢł
Ġæ¾³éĹ¨èµĮæĲı ç½ĳç«Ļå¤§åħ¨
æĺ¯ å¹²åĺĽçļĦ
æİ ĺ
æ£ĭçīĮ å¨±ä¹Ĳ
7 çłģ
Ġå¤© å®ī
ĠæĪĳ çļĦ
10 ä¸ĩ
ç§ ©
Ġå³ °
Ċ ag
åįķåıĮï¼ļ åĪĨ
Ġèĳ Ĺ
Ċ2019-12 -11
Ġä»» ä¸ĺ|
Ġå¸ Į
ĠéĢļ è¾½|
-2 âĢĿ
Ġä¸īäºļ |
ï¼Į æīĢä»¥
ĠæĢİä¹Ī ä¸ĭè½½
æī¹ è¯Ħ
ĠæĽ² éĿĸ|
Ġå°± æĺ¯
èģĬ å¤©
on y
. 11
å¤į åĪ¶
å°ı çİĽä¸½
åı¯èĥ½ ä¼ļ
Ġç ·
ç¢ İ
5 1
ĠBe ach
Ġä¹Įåħ°å¯Ł å¸ĥ|
Ġæ¯ķ èĬĤ|
06 æľĪ
Ġå®ī éĺ³|
åħĪ åĲİ
çŃ¾ ç½²
æ»ĭ çĹħ
Ġæ¾³éĹ¨ éĵ¶æ²³
äººæ°ĳ æ³ķéĻ¢
ê µ
ç§į æ¤į
æ°´ ä½į
ĠçĶĺ åįĹ|
Ġèµ£ å·ŀ|
å¼Ĥ å¸¸
Ġäºļç¾İå¨± ä¼ĺæĥłæ°¸è¿ľå¤ļä¸ĢçĤ¹
Ġå¡Ķ åŁİ|
ĠçģĮ åįĹ|
Ġæ²§ å·ŀ|
Ġä¹Į æµ·|
çĻ»éĻĨ ä¸įäºĨ
å½¢ å¼ı
ĠäºļæĲıä½ĵèĤ²app å®ĺç½ĳä¸ĭè½½
ä¸į å¤Ł
æĶ Ŀ
Ġäºļæ¸¸éĽĨåĽ¢ åĽ½éĻħå®ĺç½ĳ
Ġæ¸ħ æ²³
å·¥ ä¼ļ
åºĹ å¸Ĥ|
åħ¨ ç¨ĭ
ç®Ĺ åĬłæĹ¶
o int
åľº |
Ġ2018 -09
Ġæ³° å·ŀ|
åĨľ æĿĳ
> <
å° ģ|
è½¦ é¾Ħ
è· º
åŁ ĭ
k ey
èħ Ĭ
ĠçĭĹä¸ĩ ç½ĳç«Ļ
éŁ© è±Ĩ
Ġé¸¡ è¥¿|
").val ()
app å®ĺç½ĳ
åĬ³ åĬ¨
æĳ ¸
ĠåĴĮ çĶ°|
Ġå´ĩ å·¦|
Advis or
èī¾ æ»ĭçĹħ
çµ ²
å¥½ è¿ĺæĺ¯
ĠV S
æ¯ı å¹´
Ġæĸ° ä½Ļ|
rip Advisor
è¾© è®º
(" ");
Ċ æŁ¥çľĭ
Ġ356bet åľ¨çº¿
Ġé¹¤ å£ģ|
æľĢæĸ° å¤ĩçĶ¨ç½ĳåĿĢ
revi ous
Ġbet365ä½ĵèĤ² å®ĺç½ĳå¹³åı°
Ġu se
Ċ2019-11 -17
Ġèµ¤ å³°|
ĠåĪ ¶
ĠG V
å¯¿ åİ¿|
å¨ Ł
æĢ Ģ|
å¹´ è½¦é¾Ħ
Ġä¸Ńåį« |
çĶŁ æĦı
æ²¡ äºº
ĠåİĨ åı²
ĠAGçİ¯äºļ çĶµæ¸¸
ä¸Ń å¸Ĥ|
è¤ °
ĠéĨ´ éĻµ|
æİ¥ åĪ°
åº· åİ¿|
æŀĹ å¸Ĥ|
çİĭä¸Ńçİĭ éīĦç®ĹçĽĺå¼Ģå¥ĸç»ĵæŀľ
ï¼Į æĪĲä¸º
0 226
Ġyabo äºļæĲı
Ġèħ¾è®¯ 3åĪĨå½©
Ġä»ģ æĢĢ|
ĠæŀģéĢŁ å¿«ä¸ī
Ġä¼Ĭ æĺ¥|
Ġå®ľ éĥ½|
åľ ³|
. ãĢĳãĢĲ
Ġæ¼¯ æ²³|
åľ° åįģ
åħģ è®¸
çħ §|
n ow
åĵªä¸ª åĽ½å®¶
Ġçģ ŀ
Ġåİ» åĵª
Ġäºļæ¸¸appéĽĨåĽ¢ ä¸ĭè½½å®īè£ħ
ĠéĩĳåĿĽ |
åıĸæ¬¾ éĹ®é¢ĺ
Ġbet365 -
ĠçĭĹä¸ĩ æĺ¯åĵªä¸ª
è§Ĩ ç½ĳ
ĠåįĹ éĺ³|
Ġæ¸Ń åįĹ|
ĠAN D
Ġæ·± åľ³|
Ġåĩ¯åıĳapp åľ°åįģ
çĭ¬ ç«ĭ
å± ¤
/ 6
Ġéĩĳ æĺĮ|
æ¸ħ åİ¿|
Ġåĩ¯æĹ¶ æīĭæľºapp
ĠQ V
ĠæĻ Ĥ
ĠéĤ£ æĽ²|
Ġä¸ľ æµ·|
Ġä¿Ŀ å±±|
ĠA L
i -
Ġä¹Ĳ å¹³|
ãĢĳãĢĲ ä½ľ
åįĹ å¸Ĥ|
çĴ §
éĩĩ çĶ¨
Ġä¸ĩ å®ģ|
ĠåįĹ åħħ|
ãĢĤ æŃ¤åīį
éļĨ åİ¿|
Ġæ¶¿ å·ŀ|
Ġå®¿ å·ŀ|
ĠæŃ¦ å®ī|
èĸ Ħ
ä¸Ģ åľº
Ġé©»é©¬ åºĹ|
åħ³ åİ¿|
å½© ä¹ĲåĽŃ
Ġåıĳå¸ĥ æĹ¶éĹ´ï¼ļ
Ġbest365 å®ĺç½ĳ
ĠçĮ ®
ĠY B
ĠåĲ¯ ä¸ľ|
Ġç¥ŀ æľ¨|
Ġé¹¤ å²Ĺ|
Ġè¿ŀäºĳ æ¸¯|
ĠéĤ¢ åı°|
Ċ4 .
æĪĸ ä»¥ä¸Ĭ
Ġä¸ľ æĸ¹|
ç¸ ½
Ġæµ· ä¸°|
Ġæ· ĩ
Ġå¼łæİ ĸ|
æ³ī å¸Ĥ|
æĺ¥ å¸Ĥ|
ĠèįĨ å·ŀ|
Ġèıı æ³½|
Ġå¾· éĺ³|
ä¸Ń åİ¿|
ĠåĴ¸ å®ģ|
æºª å¸Ĥ|
Ġéĺ³ æ±Ł|
æŀģéĢŁ æĹ¶æĹ¶å½©
Ġé¾Ļ åı£|
ĠæĺĨ å±±|
Ġéĩĳ åįİ|
è§Ĥåħī å±Ģ
Ġå¾Ĳ å·ŀ|
Ġæµİ å®ģ|
Ġç²¾ åĩĨ
Ġéļı å·ŀ|
Ġåħ´ åĮĸ|
Ġæ³° åħ´|
ĠåĽº åİŁ|
æ± º
/ g,
æ¾³éĹ¨ åĽŀå½Ĵ
ï½ ľ
Ġ( æĸĩçĮ®
ĠçĽĲ åŁİ|
Ġåĩ¯æĹ¶åĽ½éĻħ ç½ĳåĿĢ
ĠéŁ¶ åħ³|
ï¼Į å·²
Ġçģµå®Ŀ |
çº¢ ç½ĳ
æ¸¸æĪı ç½ĳç«Ļ
ł æ´²
ĠçĻ¾èī² |
Ġçł´ è§£
Ġæ³ī å·ŀ|
ĠæĹ¥ çħ§|
Ġåįģ åł°|
Ġåı° å±±|
Ġéĺ²åŁİ æ¸¯|
Ġä¸´çĮ Ĺ|
ĠéĿĴ å·ŀ|
ĠèĤ¥ åŁİ|
Ċ 12
Ġäºĳæµ® |
Ġéķĩ æ±Ł|
Ġå¾· å·ŀ|
Ġå®ļ å·ŀ|
Ġæĥł ä¸ľ|
Ġå¾· æ¸ħ|
Ġåģĥ å¸Ī|
Ġæ³¸ å·ŀ|
Ġåĩ¯åıĳç½ĳåĿĢ app
æµ¦ åİ¿|
ĠéĤ¯éĥ¸ |
ĠèĲį ä¹¡|
éĥ¨ è§Ĥåħīå±Ģ
Ġè®¸ æĺĮ|
ĠéĤ ³å·ŀ|
Ġä¸´æ² Ĥ|
Ġæ»¨ å·ŀ|
Ġç¦¹ å·ŀ|
Ġè¥Ħ éĺ³|
Ġæ±ī å·Ŀ|
Ġé«ĺ å¯Ĩ|
Ġå®ľ æĺ¥|
Ġæ¼³ å·ŀ|
äºĨè§£ åĪ°ï¼Į
Ġä¸ľ åı°|
Ġæ¢§ å·ŀ|
ĠE R
Ġå¤§ ä¸°|
Ġæµ· éĹ¨|
Ġèİ± å·ŀ|
çķĻ ä¸ĭä¸Ģ
Ġä¸ľ èĲ¥|
ĠçĭĹä¸ĩæĦıçĶ² è¥¿çĶ²
ĠçĥŁ åı°|
ĠèĤĩ åºĨ|
Ġä¹Ĳ å±±|
ĠèİĴ åİ¿|
Ġæĸĩ æĺĮ|
ĠèįĨ éĹ¨|
ä¸ľ å¸Ĥ|
Ġé¡ ¹åŁİ|
Ġå·¢ æ¹ĸ|
Ġåįļ ç½Ĺ|
£ åİ¿|
ä¸Ģ .äºĶåĪĨå½©
Ġå§ľ åł°|
å·ŀ åİ¿|
Ġ(æĸĩçĮ® )
ĠæĿ¥ å®¾|
ĠåĶĲ å±±|
Ġ365æ¸¸æĪı æ£ĭçīĮ
/ å¥½è¿Ĳ
ï¼Į çľĭ
Ġæº§ éĺ³|
f ind
Ġæŀ£åºĦ |
Ġæ³Ĺ éĺ³|
ĠéĽħ å®ī|
ĠéĿĸ æ±Ł|
Ġæ¸ħ è¿ľ|
Ġæ¡ĵ åı°|
ĠåĲķ æ¢ģ|
Ġæĸĩ å±±|
Ġæĥł å·ŀ|
ĊT ag
Ġæ±ł å·ŀ|
Ġæ¢ħ å·ŀ|
å¾ Ĳ|
Ġå¼ł åĮĹ|
ĠåĽĽ æĸ¹
åı ī
Ġåį³ å¢
Ġä¸ľ éĺ³|
Ġæ·® åįĹ|
è°ĥ çłĶ
ĠçĽĬ éĺ³|
Ġæ±Ł éĹ¨|
ĠçŁ³çĭ® |
Ġæĭī èĲ
Ġå¹¿ æ±ī|
ĠèµĦ éĺ³|
Ġè´º å·ŀ|
man bet
ï¿½ r
Ġå®ī å²³|
Ġæ°¸ æĸ°|
æħ ķ
Ġçĳŀ å®ī|
Ġæ¸ħ å¾Ĳ|
ĠåıĮé¸Ń å±±|
ĠçĻ½ å±±|
è¿ Ī|
Ġéĵľ å·Ŀ|
Ġçİī æŀĹ|
ag 0226
èĤ ¥|
æĸ ½|
Ġç«ł ä¸ĺ|
Ġèĩª è´¡|
Ġæ½ľ æ±Ł|
ĠæĻ¯å¾· éķĩ|
Ġå¹¿ åħĥ|
Ġä¸ĸæĿ¯æĬķæ³¨365 .tv
è¿ ģ|
Ġæĸ° æ³°|
ĠéĴ¦ å·ŀ|
ĠçĻ½ åŁİ|
Ġæ²³ æºĲ|
ĠO B
Ġæµ· å®ģ|
å®¤ 1
Ġab out
Ġèµµ åİ¿|
Ġå»Ĭ åĿĬ|
Ġè´µ æ¸¯|
Ġæ·Ħåįļ |
Ġèİ±èĬ ľ|
çµ ¦
æ±ł åİ¿|
ĠçŁ³æ²³ åŃĲ|
Ġæ¡Ĥ æŀĹ|
ĠéĤ¹ å¹³|
Ġç§¦çļĩ å²Ľ|
Ġæµİ æºĲ|
Ġä¸½ æ±Ł|
Ġä»Ļ æ¡ĥ|
ĠåįĹ å¹³|
å¤ļ åİ¿|
ĠéĦ¢ éĻµ|
ĠæĬļ å·ŀ|
Ġå¦Ĥ ä¸ľ|
Ġæ¾Ħ è¿Ī|
k j
Ġæ·® åĮĹ|
Ġå®ļ å®ī|
Ġä¸ĥåı° æ²³|
Ġæ¹Ľ æ±Ł|
ĠX uite
Ġå¿» å·ŀ|
ĠæŃ£ å®ļ|
Ġåħ¬ä¸» å²Ń|
Ġéĥ´ å·ŀ|
Ġæĸ°æ² Ĥ|
Ġçıł æµ·|
ĠçĻ½éĵ¶ |
Ġçĵ¦æĪ¿ åºĹ|
Ġåľ° åĽ¾
Ċåıĳå¸ĥæĹ¶éĹ´: 2019-12
çĻ»å½ķ ä¸įä¸Ĭ
ĠéĦĤå°Ķå¤ļ æĸ¯|
Ġèĳ«èĬ¦ å²Ľ|
Ġå®¿ è¿ģ|
Ġæ»ģ å·ŀ|
ĠçģĮ äºĳ|
Ġè¿Ĳ åŁİ|
Ġçİī æºª|
Ġå¨ģ æµ·|
Ġé¡ ¹
Ġèĭį åįĹ|
Ġæ°¸ å·ŀ|
Ġå¤© éĹ¨|
Ċ å¥½
Ġé¡º å¾·|
ĠäºĶå®¶ æ¸ł|
ĠI R
Ċäº¤éĢļ éĥ¨è§Ĥåħīå±Ģ
Ġå¸¸ å¾·|
Ġå±¯ æĺĮ|
Ġå»º æ¹ĸ|
Ġè¡¢ å·ŀ|
Ġä¸ĩåįļä½ĵèĤ² APP
ĠæıŃ éĺ³|
Ġ3 åĪĨé£ŀèīĩ
Ġæµ· åįĹ|
ĠæĺĮ éĥ½|
Ġä¸¹ éĺ³|
ĠåķĨ ä¸ĺ|
ĠèĲ¥ åı£|
ĠçĽĺ éĶ¦|
Ġå®ļ è¥¿|
Ġäº ³å·ŀ|
ĠæľĶ å·ŀ|
ĠåħŃçĽĺ æ°´|
Ġè¯¸ åŁİ|
åĪ© åİ¿|
ĠA X
Ġæ¡Ĳ åŁİ|
è´¢ å¯Į
é¸ ¡|
ĠåħŃ å®ī|
éĹ¨ å¸Ĥ|
ĠmainComment Count
Ġé»Ħ åĨĪ|
Ġæģ© æĸ½|
ĠéĶ¦ å·ŀ|
ĠåįĹ éĢļ|
åĬł å¿«
Ġä¸¹ ä¸ľ|
Ġèį£æĪĲ |
Ġèĵ¬ èİ±|
Ġå¹¿ å®ī|
Ġå®ī åº·|
Ġå®ī åĲī|
Ġå¹³åĩ ī|
Ġå®ģ åĽ½|
356bet å®ĺç½ĳ
Ġé»ĳ æ²³|
Ġä½Ľ å±±|
èĵĿ æľĪäº®
Ġå®ī åºĨ|
== ==
Ġåĺī åħ´|
Ġæ·® å®ī|
Ġå¹³é¡¶ å±±|
Ġä»ģ å¯¿|
çĲ ¼
Ġè¾¾ å·ŀ|
Ġæ±ķ å¤´|
ĠæŃ¦ å¨ģ|
Ġ365æ£ĭçīĮæ¸¸æĪı ä¸ĬåĪĨ
Ġå®īåįĵ æīĭæľº
Ġå®ģ å¾·|
Ġæ¹ĸ å·ŀ|
Ġæī¬ å·ŀ|
ĠæĢĢ åĮĸ|
ĠæĭĽ è¿ľ|
Ġå¤§ çĲĨ|
ĠéģĤ å®ģ|
ĠäºĶæĮĩ å±±|
ĠéĤ ¹åŁİ|
ĠåºĨ éĺ³|
ĠæĶĢæŀĿ èĬ±|
èİ ŀ|
Ġæ¦Ĩ æŀĹ|
ĠæĲ ŀ
Ġæ¥ļ éĽĦ|
é¾Ļ å±±
ĠagåĽ½éĻħäºļæ¸¸ æīĭæľºçīĪ
Ġä½³æľ¨ æĸ¯|
Ġå¨Ħåºķ |
Ġæŀ£ éĺ³|
Ġçº¢ æ²³|
ä¸Ń åı¤
ĠèİĨ çĶ°|
å®¶ çļĦ
Ġæ¿® éĺ³|
ĠçŁ³åĺ´ å±±|
ĠçĦ¦ä½ľ |
Ġ' ';
Ġæ³° å®ī|
éĶ ¡|
Ġ Ā
Ġéķ¿ åħ´|
ĠæĻĭ æ±Ł|
amp ;
Ġä¸ľ èİŀ|
Ġ365æ£ĭçīĮ å®īåįĵçīĪ
ĠæħĪ æºª|
$("# resp
æĢİä¹Ī æīĵä¸įå¼Ģ
Ġäºļåįļ yabo
Ġä¸´æ² §|
Ġå¹³ æ½Ń|
Ġåĩ¯åıĳæ¸¸æĪı åľ¨çº¿æ³¨åĨĮ
+365 .
Ġä¸īéĹ¨ å³¡|
Ġæī¬ ä¸Ń|
Ġåįķ åİ¿|
Ċ å®ī
æĥ §
Ġé¦Ĩ éĻ¶|
Ġéĺ³ æ³ī|
åĵĪ å°Ķ|
æĺ¯ åĽ½å®¶çļĦ
Ġå®Ŀ é¸¡|
Ġæĸ° ä¹¡|
Ġæĸ° åĮĹ
ç¾İ ä¸½
Ġé¾Ļ å²©|
ä¼ļ ï¼Į
Ġéŀį å±±|
Ġåĳ¨ åı£|
her e
ĠæĹł éĶ¡|
ĠæĿ¾ åİŁ|
èį£ èĢĢ
ĠçĲ¼ æµ·|
Ġæ»ķ å·ŀ|
ä½¿ åĳ½
Ġé½Ĳé½Ĳ åĵĪå°Ķ|
æľīæķĪ æµģæ°´
ĠåķĨ æ´Ľ|
Ġå¦Ĥ çļĭ|
Ġéĵľ ä»ģ|
ï §
Ġå¨ģ å»īå¸Įå°Ķ
Ġæµ· å®ī|
Ġä¿Ŀ å®ļ
Ġæľį åĬ¡
Ġéĺ³ æĺ¥|
Ġæ±ī ä¸Ń|
ç¤¾ äº¤
æĹ¥ ãĢĳãĢĲ
Ġ2019-11 -19
ĠæĽ ¹åİ¿|
ĠèĮĤ åĲį|
ĠåĦĭ å·ŀ|
Ġä¸Ń å±±|
Ġåĩ¯åıĳé¦ĸé¡µ åľ°åĿĢ
Ġk m
Ġå¹¿ é¥¶|
ĠagæĹĹèĪ°åİħ å®¢æĪ·ç«¯ä¸ĭè½½
å¥½ çī©
Ġåĩ¯åıĳ ä½ĵèĤ²æĬķæ³¨
è© ²
Ġç®Ģ éĺ³|
Ġå®ī é¡º|
Ġè¡¡ æ°´|
çĶ¨ ç½ĳåĿĢ
Ċ2017 -09
Ġæ²Ń éĺ³|
è¾ Ľ
Ċ æł
Ġæ±Ŀ å·ŀ|
Ġä¸½ æ°´|
ĠæĻĭ ä¸Ń|
ist rict
Ġæ±ķ å°¾|
Ġs c
ĠåĴĮ åİ¿|
Ġ365æ£ĭçīĮæ¸¸æĪı å®ĺç½ĳ
ĠO T
Ġä¿¡ éĺ³|
ĠJ an
Ġéķ¿èĳ Ľ|
3 000
Ġä¸ī æ²³|
Ġ$(" .
ĠæĦ Ł
Ġçİī æłĳ|
Ġéķ¿ åŀ£|
ĠæĿŀ åİ¿|
ĠåĨħ æ±Ł|
åİĨåı² ä¸Ĭ
çļĦ ãĢĬ
ĠåŃĿæĦŁ |
æłĩ å¿Ĺ
Ġw eb
éĶ ħ
æł¼ è¾¾
ĠAnd roid
Ġc omp
æ³¨åĨĮ éĵ¾æİ¥
Ġå®£ åŁİ|
Ġagçİ¯äºļ æ³¨åĨĮ
Ċ2019-10 -24
ĠæĶ¹ åĪĻ|
èĲ¥ éĶĢ
è¨Ĥ è³¼
ĠW B
Ġæ¾³éĹ¨å¨ģå°¼æĸ¯äºº å®ĺç½ĳ
Ġéĥĳ å·ŀ
ĠåĽĽ å¹³|
Ġè¨ Ĥ
ĠçĻ¾å®¶ä¹ĲçľŁäºº å®ĺæĸ¹ç½ĳåĿĢ
Ġéĺ İ
ç¿» è¯ĳ
Ġä¸Ĭ çĬ¹
ä¹łè¿ĳå¹³ ä¸»å¸Ń
Ġæ½į åĿĬ|
Ġå¤© å±±
all y
Ġé» ĺ
ĠæŃ£è§Ħ æ£ĭçīĮ
åı°æ¹¾ å®ĺç½ĳ
ĠQ X
ĠéĻĩ åįĹ|
æīĭ ï¼Į
åģļ å¥½
Ġå¹¿ å·ŀ|
ĠåĲī ç¥¥
u k
Ġåı ¬
ĠåĮĹ æĪ´
Ġam8äºļç¾İ åĽ½éĻħå®ĺç½ĳ
ĠO ct
éŁ ĵ
ĠW X
ĠQ B
çĤ ®
åľŁåľ° éĬĢè¡Į
Ġv ip
Ĳ å¾ħ
ĠèĮ ĦåŃĲ
Ġäºļæ¸¸å¹³åı° ä¸ĭè½½
åºĨ æĸ°éĹ»ç½ĳ
éħį åĲĪ
Ġåĩ¯åıĳ æīĭæľºçīĪä¸ĭè½½
æĺ¯ åĵªéĩĮçļĦ
ä½ĵèĤ² ä¸ĭè½½
S e
æ¢ ¦|
ï¼Į åĽł
æľº åĪ¶
ĠåįĹ æĺĮ
æİ§ èĤ¡
Ġåĺīå³ª åħ³|
S c
æŀģéĢŁ å¿«3
çĤ İ
ĠçĭĹä¸ĩ æ³¨åĨĮ
ĠXuite æĹ¥èªĮ
´ Ģ
çĥ ĺ
¾ åŃĲ
è¡Į é©¶
Ġ$("#resp wb
Ċ2020-02 -19
ĠåŁº éļĨ|
åºĦ |
ĠèµĮéĴ± æ¸¸æĪıä¸ĭè½½
å¤ĸåĽ´ ç½ĳ
éĬĢè¡Į åĢĭäººä¿¡è²¸
ĠçľŁäººèµĮéĴ± æ¸¸æĪıç½ĳåĿĢå¤§åħ¨
Ġä¸´ æµ·|
åĶ® åĲİ
åĲ ¹
ç³»ç»Ł ç»´æĬ¤
èģĮ åĬ¡
ãĢĤ æľī
ate g
çķ¶ èĪĸ
Ġæ²³ åįĹ|
åĩº åľº
u ild
åİŁ ä½ıæ°ĳ
ĠéĤ Ĺ
æĺ¯ é»ĳ
_app éĤĢè¯·çłģ
æĭ Ĳ
Ġäºļæ¸¸éĽĨåĽ¢ æīĭæľºappä¸ĭè½½
ĠW V
çİ°åľº æ»ļçĲĥ
Ġåħ« è¾¾
ä»¥ åĨħ
ï¿½ a
S lot
çĻ» è®°
Ġ5 åĪĨé£ŀèīĩ
åİ ¨
k8 .com
Ġ356bet å¼ĢæĪ·
ĠK X
am ily
ä¸² åŃĲ
ĩ à¸
åıĬ åħ¶
çļĦ æĸ¹æ³ķ
( function
ä¸Ń å¤§å¥ĸ
è§£ éĩĬ
Ġk8 å½©ä¹ĲåĽŃ
è·¯ |
H ER
æ¹ ¿
ä¾Ŀ çĦ¶
Ġå¤© æ±ł|
Ġéĩĳ å±±|
Ġæ¿ ł
ä¸ŃåĽ½ å®ĺç½ĳ
æī ĺ|
Ã §
Ġè¯Ħè®º ï¼ļ0
Ġæŀ ľ
æĹħ å®¢
åįķåıĮï¼ļ å¹¸è¿Ĳ
æł¼ å°Ķ|
Ġé»Ħ éĻ
å¥³ åĦ¿
Ġse t
Ġçĵ ¯
æ¿ Ł
Ġw ork
Ġag é¦Ĩ
çºł çº·
é¾ĻèĻİ å®ĺæĸ¹ç½ĳç«Ļ
è¦ĸ è¨Ĭ
Ġæµıè§Ī ï¼ļ
Ċæĸĩç«łæĿ¥æºĲï¼ļ SEO
ª æĥł
åĬ ²
ĠäºķéĻ ī
å®ī å¸Ĥ
Ġc ontent
ĠY T
th or
åıª èĥ½
Ġæ¾³éĹ¨ æ°¸åĪ©
æľ¬ éĩĳ
åĳĨ èĲĿåįľ
Ġèĭı å®¶
åľĺ è³¼
Ġçİī å±±|
ĠåĴĮæŀĹ æł¼å°Ķ|
d y
Ġä¸ľ æ¸¯|
ĠåįĹ æºª|
Ġ6 00
/ å¹¸è¿Ĳ
æĢİä¹Īçľĭ æ¯ĶèµĽ
Ġ365ä½ĵèĤ²æĬķæ³¨ æ³¨åĨĮ
ï¼Į åį´
Ġä¸ľ å¹³|
Ġå¼Ģ å¿ĥ
ç¥ Ń
Ġä¸´ æ·
éĽĨ åį¡
Ġ365æ£ĭçīĮ å®īåįĵ
Ġå®īåįĵæīĭæľº å¦Ĥä½ķ
Ġå¤ ·
Ġåı° åĦ¿
ï¼Į å°±æĺ¯
è®¢ éĺħ
b lock
Ġ %
å®¡ çĲĨ
èĥĮ å¿ĥ
éŃ ı
Ġæ²³ åı£|
åĽ½å®¶ å®īåħ¨
Ġæ¾³éĹ¨çĻ¾å®¶ä¹Ĳ ç½ĳåĿĢ
Ċ 11
æĻĵ æĸ°
ĠPl us
Ġæ»¡æ´² éĩĮ|
5 000
l ist
éĽ» è©±
åĵªä¸ªå¹³åı° å¥½
Ġåħ°èĢĥ |
-åįĥ èµ¢
Ġæ¸ħæ°´ æ²³|
Ġurl :
ä»¤ äºº
Ċ2018 :
ĠåĬł åħ¥
æ¶ĵ ï¿½ï¿½
ĠèĻİ æŀĹ|
Ġå®ļ æĹ¥|
Ñ ı
ĠäºĮ éģĵ
é«ĺ éĵģ
ĠåĪĨ åĪĨé£ŀèīĩ
Ġè¾¾ åĿĤ
Ġn s
Ġåº· å®ļ|
Ġä¸ľ åħ´|
æĢ» å±Ģ
å°± ä¸ļ
Ä ģ
Ġåħ´ éļĨ|
åĴĸ åķ¡
ĠæĮ ĩ
åĨ² çªģ
æ¹ ĺ|
ĠéĢļ å·ŀ|
ch ool
çĽ¸ äºĴ
ç½¢ å·¥
Ġæīĺåħĭ æīĺ|
é¹ °
Ġåĩ¯æĹ¶åĽ½éĻħ åľ¨çº¿
ĠåĲĪ æ°´|
èĲ¥ åŃĲ
( function(){
ĠéĤĹ æ±Ł|
Ġæ²Ī ä¸ĺ|
ĠçīĻåħĭ çŁ³|
ĠæŀĹ è¥¿|
åĺ ī|
Ġæµ· éĺ³|
äº ķ|
Ġä¹ łæ°´|
åł ¡|
Ġæ¶ŀ æºĲ|
å°º å¯¸
ĠK R
Ġåħ¬ å®ī|
Ġè¯ı å®ī|
Ġæ¡Ĥ ä¸ľ|
ç½ĳç«Ļ å¼ĢæĪ·
Ġæ¡ĳ æ¤
ĠåĮĹ å®ī|
Ġä¸´ æ¹ĺ|
Ġå°¤ æºª|
å·® ä¸įå¤ļ
Ġå¯Įèķ ´|
Ġäºĳéľ Ħ|
Ġé¾Ļ åįĹ|
Ġ2 åĪĨé£ŀèīĩ
Ġæĸ¹ å±±|
Ġå¹³ å®ļ|
å¸ĥ åħĭ
Ġå¹³åº¦ |
Ġå°ļ ä¹ī|
ĠçĽĺ å±±|
rou nd
ĠèİĴ åįĹ|
Ġçİī çĶ°|
Ġå·´å½ ¦|
Ċç¬¬ äºĮ
Ġæ°¸ æĺ¥|
ĠæŃ¦éĻ Ł|
Ġè¥¿ åħħ|
Ġæ°¸ å·Ŀ|
Ġå½©ç¥ŀ 2
Ġæĥł æ°ĳ|
Ġæĸ° åĮĸ|
ĠæĹ¥æľŁ ï¼ļ
æī¹ åĩĨ
Ġä¹Į å°Ķ
Ġå®ģ åįĹ|
Ġæ¡ĳæ¤ į|
Ġåĳ¨ èĩ³|
è¾ °|
åĮº åĪ«
çľĭ å®Ī
Ġä¸¹ å¾Ĵ
Ġä¾Ŀ åħ°|
è¦ ģ|
Ġåı¤ åİ¿|
Ġæĸ° æ²³|
se arch
Ġéĩį åºĨ|
Ġå¤§ åŁİ|
Ġçĳŀ ä¸½|
Ġå·© çķĻ|
ĠæĿ¥ å®ī|
Ġå°¼åĭĴ åħĭ|
Ġè´¡ åĺİ|
Ġéĥĵ åŁİ|
Ġèµ¤ åŁİ|
åĸ ľ|
Ġé»ĳ é¾Ļ
ĠæĻ¯ æ³°|
Ġä½³ åİ¿|
Ġæ´ª æ³½|
Ġä¸ľ å·Ŀ|
Ġæ¡ĥ æ±Ł|
ĠéľįæŀĹéĥŃ åĭĴ|
Ġæ²³ æĽ²|
Ġéķĩ åº·|
ĠäºķéĻ ī|
Ġå¯Łéļ ħ|
Ġå®ļ è¿ľ|
æŀ ģ|
Ġæĸ° å¹²|
Ġæ¢ħ åİ¿|
ĠéĶ¡æŀĹ æµ©çī¹|
Ġåħĥ æ°ı|
ĠéĤĵ å·ŀ|
Ġéķ¿ å²Ľ|
Ġè£ķ æ°ĳ|
ĠæŃ¦ å·Ŀ|
å¼º çĥĪ
ç¿ Ķ|
Ġæ²Ĥ æºĲ|
Ġæ³Ĭ å¤´|
Ġç«ĭåį³ ä¸ĭè½½
æĭ Ĳ|
Ġæ±¾ è¥¿|
Ġå·´æ¥ļ |
Ġéº» æ±Ł|
Ġç£´ åı£|
Ġè¿ŀ åŁİ|
ĠæĺŃ è§ī|
Ġå¹³ åĪ©|
Ġå¹³ éģ
Ġå¤§ åħ³|
Ġå®ī åĮĸ|
ĠåįĹ éĿĸ|
ĠçĽĲ æºĲ|
å¨ģ å°Ķ
Ġéº¦çĽĸ æıĲ|
Ġå§ĭ åħ´|
æĹ¶æĹ¶å½© èµ°åĬ¿åĽ¾
Ġæ°¸ éĿĸ|
çĽ ĸ|
Ġäºļç¾İæ¸¸æĪı çĻ»å½ķé¦ĸé¡µ
Ġéķ¿ ä¸°|
Ġå¢ ŀåŁİ|
Ġæ²Ĥ åįĹ|
éĺ³ åħī
ĠæĹ¬ éĤĳ|
è¶ ³|
Ġå¤§ æĸ°|
Ġéĩĳ ä½Ľ
æĬ¥ è®°èĢħ
Ġå¹³ è¿ľ|
Ġä¹Ŀ åı°|
Ġå¯Įè£ ķ|
Ġé»ĦéĻ Ĥ|
ĠéĽ· æ³¢|
Ċæĸ° äº¬æĬ¥
Ġå¹³ å±±|
Ġå¡Ķ æ²³|
Ġèĭ¹æŀľ æīĭæľº
ĠæŃ¦ å¼º|
Ġå´ĩ å·ŀ|
æ° ı
Ġæµ¦ æ±Ł|
ĠåįĹ éĥĳ|
Ġå®ī å¤ļ|
Ġä½Ļ å¹²|
ĠåįĹå®« |
Ġåħ¨ å·ŀ|
Ġä¸° é¡º|
ĠçŁ³ æĭĲ|
Ġç²¾ æ²³|
ĠçŁ³ æ³ī|
Ġç»¥èĬ¬ æ²³|
Ġæµ łæ°´|
Ġå®ģ éĥ½|
æ² ĥ|
Ġæ°¸ å®ļ|
Ġæ½¢ å·Ŀ|
Ċèħ¾è®¯ æĸ°éĹ»
Ġæ´Ľ åįĹ|
ĠåĲī åİ¿|
Ġäºļç¾İåĽ½éĻħ app
Ġæ»¨ æµ·|
Ġè¥¿ å³°|
Ġæµ· ä¼¦|
Ġå¹³ éĺ³|
Ġä¼Ĭ å·Ŀ|
ĠåĵĪå·´ æ²³|
Ġåĩ¤ åºĨ|
Ġæł¾ å·Ŀ|
Ġæµĳ æºĲ|
æīĵ å·¥
Ġé»Ħ å±±åĮº|
Ġä¹Įæģ °|
Ġå·´ å¡ĺ|
Ġæ¯Ķå¦Ĥ |
Ġä¸´æľ Ĳ|
Ġæ´ŀ åı£|
ĠçŁ³æ¥¼ |
Ġäºļæ¸¸ çĻ»éĻĨ
Ġæµ· åİŁ|
ä¸į éĶĻ
ĠæĻ¯ åİ¿|
Ġéĺľ åįĹ|
Ġå®ī åĽ½|
Ġç¦Ħ ä¸°|
æĹ §|
Ġå¢¨ çİī|
Ġç¹ģå³ Ļ|
Ġé»İ å¹³|
ĠçŁ³æ£ ī|
Ġå®ļ éĻ¶|
ĠæĽ² æ²ĥ|
ĠåºĲ æ±Ł|
Ġä¹Į èĭı|
ç¡ ķ|
Ġç£Ĳ å®ī|
ĠæĺĮ ä¹Ĳ|
Ġå¯Į éĺ³|
ĠæĹł æŀģ|
à ¥
Ġæ¶ łæ´²
ol id
ä½ĵéªĮ åį¡
Ġå»º éĺ³|
æ¸¸æĪı ç½ĳ
Ġæ°ĳ ä¸°|
ĠçĿ¢ åİ¿|
ĠèĤ¥ ä¹¡|
Ġå»¶ å¯¿|
ĠèĮĮ å¹³|
å¾ ģ|
ĠéĺĨ ä¸Ń|
Ġåĩī åŁİ|
å¾ħ å¤ĦçĲĨ
Ġæ³¾ åİ¿|
å¯ °
Ġå¤§çŁ³ æ¡¥|
Ġæ±Ł å¤ı|
ĠO X
Ġæĸĩ æ°´|
ĠéŁ© åŁİ|
ĠçĽĲ è¾¹|
ĠæŃ¦ éĻµ
Ġæ°¸ å¾·|
Ġç«¹ æºª|
ĠåķĨ åŁİ|
Ġéĥ§ è¥¿|
Ġå®ģ å®ī|
Ġæ³¸ åİ¿|
ĠèĤĩ æºĲ|
Ġä½ľèĢħï¼ļ admin
Ġæ¸ĳ æ±ł|
ĠæĿŃ å·ŀ|
çĮ ľ|
ĠéĽĨ å®ī|
Ġç¨» åŁİ|
Ġæ±Ł æ°¸|
Ġé«ĺ å·ŀ|
Ġå¤¹ æ±Ł|
å®¤1 åİħ
ĠçĲ¼ ç»ĵ|
Ġå²³ è¥¿|
Ġå»º å¹³|
åĩ Į|
Ġæ³¸ å®ļ|
ĠèĬ± åŀ£|
ĠåĴĮ é¡º|
Ġåħī æ³½|
Ġä¿Ŀ å¾·|
Ġå¤ı æ²³|
Ġåħ° è¥¿|
ĠåµĬæ³ Ĺ|
Ġéķ¿ é¡º|
Ġæ¸© æ±Ł|
ĠåĲĪä½ľ |
ĠåķĨ æ²³|
Ġç¦ı æ¸ħ|
Ġå®ģ åİ¿|
Ġéĺ³ æĸ°|
Ġé¹¿ éĤĳ|
ä¾¿ åĪ©
Ġä»Ļ æ¸¸|
Ġä»ªéĻĩ |
ĠåĲĪ èĤ¥|
ĠåķĨ åįĹ|
Ġæľ¨ åŀĴ
Ġéĥ½æ±Ł åł°|
Ġä¸´ æŃ¦|
Ġä»» åİ¿|
ĠåĬłæŁ¥ |
Ġæ³ķ åºĵ|
ĠéĹ» åĸľ|
Ġæ²ħ æ±Ł|
ĠæŁ³ æŀĹ|
Ġåħ ĸå·ŀ|
Ġé¾Ļæ³ī é©
ĠæŀĹ çĶ¸|
ĠèĴĻ å±±|
Ġæ°¸ å¹³|
Ġè¥¿ æĺĮ|
Ġèµ£ æ¦Ĩ|
ĠåĩĮ æºĲ|
ĠæŁĺ åŁİ|
ĠçĽ ĸå·ŀ|
ĠèĲ¥ å±±|
ä½£ éĩĳ
Ġç¾İå§ ĳ|
Ġå´ĩ éĺ³|
Ġæĥł éĺ³|
Ġæ¶ŀ æ°´|
ĠåĬł æł¼è¾¾
ĠåĨħ ä¹¡|
Ġå¤ª åĴĮ|
Ġå·§å®¶ |
Ġä½Ľ åĨĪ|
Ġé¾Ļ æµ·|
Ġå¤§ ä½Ļ|
Ġè°· åŁİ|
Ġä¸Ńçī Ł|
Ġä¸´ æ±Ł|
ĠåıĮ å³°|
ĠåĮĹ æµģ|
Ġçĭ¬ å±±
Ġåı¥ å®¹|
æĸ¹ ç±³
Ġæķ¦çħ Į|
Ġçº³éĽ į|
Ġéĩĳä½Ľ å±±|
æŃ£è§Ħ ç½ĳåĿĢ
ĠæĶ ¸
ĠåķĨ éĥ½|
Ġå®ľ ç«ł|
Ġä¹Ĳ èĩ³|
Ġé«ĺ è¦ģ|
Ġé»Ħ å¹³|
Ġæĸ¹æŃ£ |
éĢĢ ä¼ĳ
Ġæģ© å¹³|
ĠéĿĴ å²Ľ|
ĠéĿĴ åĨĪ|
.h ref
Ġå¿» åŁİ|
Ġå¾Ĳ æ°´|
ĠåĩĮ æµ·|
Ġåĺī ç¥¥|
Ġçģµ å±±|
Ġæĸ° æ´²|
t ion
Ġå¹³éģ ¥|
Ġä¸Ĭ æµ·|
Ġèĵ¬ å®ī|
ĠçĻ½ çİī|
Ġåı¶ åŁİ|
Ġç»¥ æ±Ł|
éĺ ¿|
Ġå«© æ±Ł|
çļĦ ä¸ŃåĽ½
Ġåĩ¤ åŁİ|
Ġçİ¯äºļå¨±ä¹Ĳag 88
8 7
Ġè¥¿ å®ī|
Ġç¡® å±±|
Ġæ¨Ł æłĳ|
æĿ Ń|
ĠéļĨ å®ī|
Ġè¥¿ å¹³|
Ġåįİ å®¹|
ĠçŃĸ åĭĴ|
Ġå»¶ åĲī|
ĠæĢĢ è¿ľ|
ĠçĭĹä¸ĩ å®¢æĪ·ç«¯
Ġéķ¿ åŃĲ|
Ġä¼ĳ å®ģ|
Ġå´ĩ ä»ģ|
Ġèµŀçļĩ |
Ġå¤ª åº·|
Ġé¾Ļ å·Ŀ|
Ġæŀŀ éĺ³|
ĠåįļçĪ± |
Ġæĺİ æºª|
ĠèĮĥ åİ¿|
Ġåħĭ ä¸ľ|
ĠéĴŁ å±±|
Ġæ°¸ å¹´|
ĠåĶĲ æ²³|
Ġäºĳ é¾Ļ|
ĠçĲĨ å¡ĺ|
Ġé¾Ļ å·ŀ|
Ġç¥ģ ä¸ľ|
Ġæ¡Ĳæ¢ ĵ|
Ġéķ¿ å®ģ|
ĠçĽĳ åĪ©|
Ġæ¢ĵ æ½¼|
Ġå¯Į æ°ĳ|
Ġå®¾ å·Ŀ|
Ġå¸Ī å®Ĺ|
Ġè¿ģ å®ī|
ĠåĮĹ è¾°|
Ġå®Ŀ åħ´|
Ġæ±Ł å®ī|
Ġé¾Ļ æ¸¸|
Ġæ±Łæ²¹ |
é¦Ļ èķī
Ġæµ· æŀĹ|
ĠåİŁ å¹³|
Ġæ¸© æ³ī|
ĠéĤ ķå®ģ|
Ġéķ¿ æ³°|
Ġä»ģ åĮĸ|
Ġæ©Ł è»Ĭ
Ġæ¢ģ å±±|
Ġåħĭ å±±|
ä¼ ĳ|
Ġå»¶ åºĨ|
Ġè¾½ ä¸Ń|
éĺ ľ|
Ġè¾ īåİ¿|
Ġä¿¡ ä¸°|
ĠéĢļ æ¦Ĩ|
Ġéĥ¸ åŁİ|
Ġè¾¾åĿĤ åŁİ|
ĠæĺĮ åĽ¾|
ĠåºĨ åħĥ|
Ġä¸ª æĹ§|
Ġå¾· æ±Ł|
Ġé«ĺ åı°|
Ġå®¾ åİ¿|
Ġç±»ä¹Įé½Ĳ |
Ġæ¾Ħ æµ·|
Ġéľį å·ŀ|
Ġæ¡¦ åįĹ|
Ġä»ª å¾ģ|
ĠèĪĴ åħ°|
ĠåįĹæ±ĩ |
ĠæĿ¨ åĩĮ|
ĠåĨĮäº ¨|
ĠæŃ¦ è¿Ľ
Ġç¨· å±±|
ĠéĻĩ å·Ŀ|
Ġä»İ æ±Ł|
Ġæ±ª æ¸ħ|
Ġä¸ľ æĺİ|
Ġå½Ń å·ŀ|
ĠO P
Ġä¹Ĳ éĻµ|
Ġçłļ å±±|
Ġé¹¤ åºĨ|
Ġé¾Ļ æ³ī|
Ġåīĳ å·Ŀ|
Ġäº¤ åŁİ|
Ġè¿Ľ è´¤|
Ġæ»¦ åİ¿|
Ġç¦ı æµ·|
Ġåĩ¤ ç¿Ķ|
Ġèĭ± å±±|
Ġä¸ľ éĺ¿|
Ġå®ī æ³½|
ĠçŁ³ åŁİ|
ĠåĲĮ å¾·|
Ġåĩ¯åıĳå®ĺç½ĳ åĿĢ
ĠæĻĭ å®ģ|
Ġä»£ åİ¿|
Ġå»ºçĵ ¯|
ĠéĩĳåłĤ |
Ġæĸ½ç§ ī|
è¾ ī|
Ġå½ĵ éĽĦ|
Ġæ³° é¡º|
Ġå¹³ ä¹Ĳ|
Ġæ¾Ħ åŁİ|
Ġåħ´ æĸĩ|
Ġæī¶ é£İ|
Ġå¼Ģ æ±Ł|
Ġå½Ŀ èī¯|
Ġå¾ĲéĹ» |
Ġé¥¶ éĺ³|
Ġå¤§ éĤĳ|
Ġè¥¿çķ ´|
Ġæ±ī éĺ´|
Ġå¾· åĮĸ|
Ġç«Ļ éķ¿
å¿«3 èµ°åĬ¿åĽ¾
ĠåŁİ åı£|
Ġä¸´æ² Ń|
Ġéĩĳ å·Ŀ|
Ġå¹¿ ä¸°|
Ġä¸° åŁİ|
åĨ ľ|
Ġä¹Į ä¼Ĭ
Ġæ¢ģ æ²³|
Ġæł¾ åŁİ|
Ġåħ´ åĴĮ|
Ġå±ı åįĹ|
Ġåŀ« æ±Ł|
ĠæŃ¦ éĥ½|
Ġå½ĵæ¶ Ĥ|
éģĩ åĪ°
Ġåį¢ æ°ı|
ĠèµĦ æºª|
Ġéĺľ å®ģ|
Ġæ±Ł æ´¥|
Ġäºļç¾İæ¸¸æĪı ä¼ĺæĥłå¤ļä¸ĢçĤ¹
Ġæ·® æ»¨|
Ġè¥Ħ åŀ£|
ĠæĽ² éĺľ|
Ġå¹¿ å®ģ|
Ġç»¥ æ£±|
Ġåħ´ ä¹ī|
Ġè½® åı°|
Ġæ¹Ħ æ½Ń|
Ġé¸¡ æ³½|
ĠæľĽè° Ł|
Ġæ´Ľ éļĨ|
ĠåĭĲ æµ·|
ĠçİĽçº³ æĸ¯|
Ġå¯Į æºĲ|
ĠçĶĺ æ³ī|
Ġéĥ½ æĺĮ|
Ġå°Ĩ ä¹Ĳ|
ĠçŁ³ å±ı|
Ġè¾¾ æĹ¥|
Ġæ°¸ èĥľ|
åĩ °|
çĥ ¦|
Ġå½Ń éĺ³|
Ġæĸ° çĶ°|
Ġéĺ³ åŁİ|
ĠéĢļ æµ·|
Ġæ³° æĿ¥|
Ġåĳ¼åĴĮ æµ©çī¹|
Ġå®ī ç¦ı|
Ġé«ĺç¢ĳ åºĹ|
Ġå¼ĭ éĺ³|
ĠèĤĩ ä¸ľ|
Ġè´º åħ°|
Ġéĺ¿åĲĪ å¥ĩ|
Ġåĳ¼åĽ¾ å£ģ|
Ġç¢Į æĽ²|
Ġæ²¾ çĽĬ|
ĠæŃ¦ ä¹¡|
Ġä¸ī éĹ¨|
Ġéĥ «åİ¿|
Ġåħ´ æµ·|
Ġå®ī åİ¿|
Ġç»µ ç«¹|
Ġéģĵ åİ¿|
ĠéĿĸå®ĩ |
Ġå®ľ åħ°|
Ġéķ¿ æ¸ħ|
ĠæĪĲ æŃ¦|
åħĭ æĸ¯|
Ġåĩ¯åıĳæīĭæľº çĻ»å½ķ
Ġéķĩ åİŁ|
ĠæľĽ éĥ½|
Ġç½Ĺ å¹³|
Ġç´¢ åİ¿|
ĠåįĹ æµ·|
ĠæŀĹ åı£|
Ġæ°¸ å®ī|
å©´ åĦ¿
Ġå¤§ è¶³|
ĠèĴĻ éĺ´|
Ġæ²¾ åĮĸ|
ĠæŁ¯ åĿª|
Ġç»¥ ä¸Ń|
Ġå½Ń æ³½|
Ġå²ĳ æºª|
Ġä¹Įé²ģæľ¨é½Ĳ |
Ġå¤ļ ä¼¦|
Ġåįļ åħ´|
ĠåĮĹ å®ģ|
Ġæ³½æĻ® |
ĠåŁº éļĨ
Ġå¹³ ç½Ĺ|
çĽĹ çīĪ
ĠèµĦ ä¸Ń|
ĠåĲ´ æ¡¥|
Ġå¹³ éĻĨ|
ĠæŁĺ èį£|
ĠæŃ¦å®£ |
Ġæ¼³ æµ¦|
ĠåĪĨ å®ľ|
Ġå¹³ åĴĮ|
Ġåµ© æĺİ|
ĠçĽ±çľ Ļ|
Ġå¯Ł å¸ĥæŁ¥
ĠåĮĹäº¬ |
Ġå¹³ å®ī|
Ġäºĳ æ¢¦|
ĠéĿĴ éĺ³|
Ġæ·± æ³½|
Ġå¹³ åįĹ|
Ġä¸´ åŁİ|
Ġä¹Ĳ å®ī|
Ġèĥ¶ å·ŀ|
Ġçģµ å¯¿|
Ġå¤§ åħ´|
Ġæ´ª æ±Ł|
Ġæĸ°ç» Ľ|
Ġä»ĭ ä¼ĳ|
Ġå°¼ æľ¨|
ĠéĵģåĬĽ |
Ġå»¶ æ´¥|
Ġæĥł åĨľ|
ĠæŁ³ æ±Ł|
Ġæ°¸ é¡º|
Ġç¥ŀ æ±ł|
Ġåį³å¢ ¨|
Ġç¥ģ éĺ³|
Ġä¸¹æ±Ł åı£|
ĠåĴĮéĿĻ |
Ġå®ľ å·ŀ|
Ġæ» ĳåİ¿|
Ġæ¶Ł æ°´|
Ġç©Ĩ æ£±|
Ġæ±ī æºĲ|
Ġç¦ı å·ŀ|
Ġå½Ń å±±|
Ġå¹¿ æĺĮ|
Ġè´µ æºª|
Ġæ¾Ħ æ±Ł|
Ġå®ģ éĺ³|
ĠåĨ·æ°´ æ±Ł|
Ġçģµ åı°|
Ġå¨Ħ çĥ¦|
Ġä¸Ķæľ« |
Ġå¯Į åİ¿|
Ġä¼½ å¸Ī|
ĠèįĶ æµ¦|
Ġå·¦ æĿĥ|
Ġä¸¹ å¯¨|
Ġå¾· å®ī|
ĠèµĦ åħ´|
Ġäº¤ åı£|
Ġè´µ å®ļ|
ĠåĲĮ æ±Ł|
Ġæ¦ķ æ±Ł|
ĠåĴĮæĶ¿ |
ĠåĲ´ èµ·
ĠèĵĿ çĶ°|
ĠåºĶ åŁİ|
Ġä¼ļ æĺĮ|
Ġå¼Ģ å¹³|
Ġè¥¿ ä¸°|
Ġèĵ¬ æºª|
Ġä¸¹ åĩ¤|
Ġå®ī ä¹ī|
Ġæµ® å±±|
Ġæģ¯ åİ¿|
Ġéľį å±±|
ĠåĳĪ è´¡|
Ġæĭī åŃľ|
Ġé«ĺ åİ¿|
ĠèĪŀ éĺ³|
Ġæĭľ åŁİ|
ĠåĲ« å±±|
æĳ Ĩ
ĠèĪŁ æĽ²|
Ġä¹¾ å®ī|
ĠåĽº éĺ³|
ĠåĲīæľ¨ä¹ ĥ|
ĠæĢĢ ä»ģ|
Ġé¾Ļ éĹ¨|
Ġå¼Ģ é²ģ|
Ġäºĳ éĺ³|
Ġå¯» ä¹Į|
ĠåįĹæľ¨ æŀĹ|
ĠçĲĨ åİ¿|
Ġå°Ħ éĺ³|
Ġä¸´æ¡ Ĥ|
ĠçĶ° éĺ³|
Ġéĵħ å±±|
Ġå¥ī è´¤|
Ġå¤ª çĻ½|
Ġå®¿ æĿ¾|
ĠæŃ¦ å¹³|
ĠçĽĲ éĥ½|
Ġæµ ļåİ¿|
Ġæ²» å¤ļ|
ĠéĿĻ æµ·|
Ġé«ĺæ· ³|
Ġæĸ°åŁİ åŃĲ|
Ġæ°¸ åĸĦ|
Ġèķī å²Ń|
ĠåįĹåı¬ |
Ġé«ĺ éĻµ|
Ġé¹¤ å±±|
Ġå®ī æĸ°|
Ġä¸´ æ³ī|
Ġæĸ° ä¼ļ|
Ġå°ī æ°ı|
èĭĹ åĨĽ
å¯ «
ĠåįĹ ä¸¹|
Ġåħ± åĴĮ|
ĠçĬį ä¸º|
ĠèĻ ŀåŁİ|
Ġæ´® åįĹ|
Ġé«ĺ å®ī|
Ġä¸´ æ³½|
Ġå¡Ķ ä»Ģåºĵå°Ķ
i èĭĹåĨĽ
Ġæĺİ åħī|
Ġå®ģ æ´¥|
ĠåĲĮå¿ĥ |
Ġå¹³ åİŁ|
Ġæĸ° æ°ĳ|
ĠæĻ® å®ļ|
ĠçĻ½ æ²³|
é¼ ĵ|
ĠæĻ®åħ° åºĹ|
Ġç¦ı æ³ī|
Ġéĺľ å¹³|
Ġæ¡Ĳ æŁı|
Ġç±³ æ³ī|
Ġæ¼ł æ²³|
Ġåįİ éĺ´|
Ġå²± å±±|
ĠçīŁ å¹³|
ĠåįĹ å·Ŀ|
Ġé«ĺ éĤĳ|
Ġæ²Ļ éĽħ|
ĠéĽ· å±±|
ĠåĨĢ å·ŀ|
Ġå¯Į å¹³|
Ġç´« éĺ³|
å¤© ä½ĵèĤ²
ĠæŃ¦åĬŁ |
Ġèĭ±åĲī æ²Ļ|
Ġçĳŀ éĩĳ|
Ġå¤©å³ ¨|
Ġåħ´ åİ¿|
Ġé¥¶ å¹³|
Ġéľį åŁİ|
Ġä¸´ å®ī|
Ġèĥ¶ åįĹ|
Ġå®Ŀ æ¸ħ|
ĠæĪ¿ åİ¿|
Ġä¸ĬæĢĿ |
Ġéĩĳ å¯¨|
Ġç½Ĺ çĶ¸|
Ġä½Ļ æ±Ł|
Ġæĸ° åħ´|
ĠéļĨ åŃĲ|
ĠåıĮ æµģ|
Ġåĩ¤ åİ¿|
Ġé©¬ å±±|
Ġèĭįæ¢ §|
Ġå¹³ è°·|
Ġæ²ĻåĿª åĿĿ|
ĠæŃ¦ æ±ī|
Ġäºİ çĶ°|
Ġæ¸ łåİ¿|
Ġå®ļè¥Ħ |
Ġæ±¶ ä¸Ĭ|
Ġå¯Į å®ģ|
ĠæŃ¦ç© ´|
ĠæĿ¾ æºª|
ĠéĹ¨å¤´ æ²Ł|
~ ~
Ġæĸ° æ´¥|
ĠåĽĽ ä¼ļ|
Ġæĸ° åİ¿|
ĠåįĹ åİ¿|
Ġæ°¸ åĲī|
Ġéĩĳ å¡Ķ|
Ġåı¤ æµª|
Ġçģµ å·Ŀ|
Ġ5 åĪĨæİĴåĪĹ3
Ġå®ī åĽ¾|
Ġéķ¿ ä¹Ĳ|
èħ Ĭ|
ĠåĶĲ æµ·|
ĠéĿĴéĵľ å³¡|
Ġåį¢ é¾Ļ|
Ġåĩ¤ åĩ°|
Ġé±¼ åı°|
Ġä¸´ æ¼³|
ĠåĮĹ ç¥¨|
Ġä¸ľ èĥľ|
Ġè¿ģ è¥¿|
Ġå®ģéĻ ķ|
ĠæĸĹ éĹ¨|
Ġæ¦Ĩç¤¾ |
Ġåįİ äºŃ|
Ġå¤ı åİ¿|
Ġæ±Ł éĺ´|
Ġå®ī æºª|
ĠéĤ£ åĿ¡|
Ġå®ģ æ²³|
Ġå»º å®ģ|
Ġè´µ å¾·|
è° ĭ|
ĠèĶ ļåİ¿|
Ġç¤¼ æ³ī|
Ġä¸ī åİŁ|
Ġæĸ¹ åŁİ|
Ġå´ĩ ä¿¡|
Ġçģµ æŃ¦|
Ġç»ĩ éĩĳ|
Ġçļ® å±±|
ĠæĢĢ éĽĨ|
Ġéĥ ıåİ¿|
ĠåįĹ éĥ¨|
åľ ª
Ġä¸´ è¥¿|
ĠæŃ¦ æ¸ħ|
Ġæ±Ł éĥ½|
Ġå¹³ æĺĮ|
Ġé½Ĳ æ²³|
Ġéĺ³ é«ĺ|
ĠèĢģ æ²³åı£|
ĠèĬ± éĥ½|
ĠèĬ® åŁİ|
Ġé»Ħæ¢ħ |
Ġåı¤ çĶ°|
Ġè¡¡ ä¸ľ|
Ġå¹¿ æ²³|
Ġå¯Į é¡º|
Ġä¼ļ çĲĨ|
Ġå®ģ ä¹¡|
æŀ Ŀ|
ĠæŁŀ æ°´|
Ġéĺľ åŁİ|
Ġæĸ° ä¹Ĳ|
Ġé»ĳ æ°´|
Ġè¥¿ åĴĮ|
Ġæ±Ł åı£|
Ġä¸Ń æ±Ł|
ĠéĴŁ ç¥¥|
Ġè±¡ å·ŀ|
ĠæĽ² åĳ¨|
åıĳ åĩº
Ġç¦ı å®ī|
Ġ1 åĪĨé£ŀèīĩ
Ġå®ģ åŁİ|
ĠèĬ¦ å±±|
Ġç¥¥ äºĳ|
Ġä¸´ æ¸ħ|
Ġå®ľ èī¯|
Ġæł¹ æ²³|
Ġå®ī ä¹¡|
Ġä¸¤ å½ĵ|
Ġåħ īå±±|
ĠåĿ Ĭ
ĠéĿĴ æ²³|
Ġå¼Ģ åİ¿|
ĠçĶĺ å¾·|
Ġåįİ åİ¿|
ĠåŃŁ å·ŀ|
ĠæĬļ è¿ľ|
Ġåº· ä¹Ĳ|
é¼ İ|
Ġä¸Ĭ èĶ¡|
Ġä¼ļ ä¸ľ|
Ġå®£ æ±ī|
Ġä¼ĬåĲ ¾|
Ġä¼ļåĲĮ |
Ġç±³ æŀĹ|
Ġéľ¸ å·ŀ|
ĠæĹºèĭ į|
Ġèĭį å±±|
Ġæ±Ł å·Ŀ|
ĠäºĶ å¯¨|
Ġå°ģ ä¸ĺ|
Ġ2 åĪĨå½©
Ġå±± éĺ³|
Ġå¾· æł¼|
Ġéķĩ åĿª|
ĠåįĹæ¾³ |
Ġåįĥ éĺ³|
Ġæī¶ æ²Ł|
Ġå¯Ĩ å±±|
Ġéķĩ å·´|
Ġé¡º å¹³|
ĠçłĢ å±±|
ĠéĿĴç¥ŀ |
ĠçŁ³ é¦ĸ|
Ġæ¸ħ æ°´|
Ġå¹³ æ±Ł|
Ġæ¾ §åİ¿|
Ġæ³¾ æºĲ|
ä¾ ¯|
Ġè¥¿ åįİ|
ĠåįĹ ä¸°|
Ġå®¾ éĺ³|
Ġé¡º ä¹ī|
Ġæ¡¦ å·Ŀ|
Ġåºľ è°·|
Ġå®ľ åħ´|
ĠçĽĲ æ´¥|
Ġæ°¸ä¿® |
ĠçĶ³ æīİ|
Ġéĺ³ ä¿¡|
ĠèĤ¥ ä¸ľ|
Ġæ°¸ æĺĮ|
ĠäºĶå¸¸ |
Ġæ²³éĹ´ |
Ġåº· å¹³|
ĠçģĮ éĺ³|
ĠéĽĦ åİ¿|
Ġå¹³ éĤĳ|
Ġéĩĳ æ²Ļ|
Ġæ¢ģ å¹³|
ĠåĽº å§ĭ|
Ġåŀ£ æĽ²|
Ġå¾· ä¿Ŀ|
Ġç¥ģ éĹ¨|
Ġæ¸ħ ä¸°|
Ġç¦ ¹åŁİ|
ĠåŃĲ æ´²|
Ġç¦» çŁ³|
ĠæĭīèĲ ¨|
Ġéķ¿ å²Ń|
ĠåĭĲ èħĬ|
Ġåħ´ å¹³|
ĠéĻĨ èī¯|
Ġéĺ³ å±±|
Ġä¸ģ éĿĴ|
Ġèķ ²æĺ¥|
Ġä¾Ŀ å®ī|
Ġåĭĥ åĪ©|
Ġçı Ļåİ¿|
Ġæ·³ å®ī|
Ġåºĵ è½¦|
Ġéķĩ è¿ľ|
Ġå®ģ åĮĸ|
è¡ Ĺ|
Ġè¥Ħæ¨ Ĭ|
ĠéĶĻéĤ£ |
Ġæģ¯çĥ ½|
Ġåį« è¾ī|
ĠåħŃ æŀĿ|
Ġä¹Ĳ éĥ½|
Ġéĵľ é¼ĵ|
Ġå¤© æŁ±|
ĠåįĹ ä¹Ĳ|
Ġèį£ åİ¿|
Ġæĺİ æ°´|
ĠéĽĨ è´¤|
Ġä¹Į ä»Ģ|
ĠçĽ Ĥåİ¿|
ĠäºĶ åİŁ|
Ġæĸ° å®ģ|
Ġä¸ľ åħ°|
ĠåĨľ å®ī|
Ġæ¥ļ å·ŀ|
ĠéĿĸ è¿ľ|
Ġèİİ è½¦|
Ġç»¥ æ»¨|
Ġå°īçĬ ģ|
Ġä¿® æ°´|
Ġå¤§æĤ Ł|
ĠåºĨ å®ī|
Ġåµ© åİ¿|
Ġå»º æ°´|
ĠéģĵåŃ ļ|
Ġæµªåį¡ åŃĲ|
ĠéģĤ æºª|
Ġä¸ľ ä¸°|
ĠåĲĪ æµ¦|
Ġæ·³ åĮĸ|
Ġè¿ľ å®ī|
ĠèĶ¡ çĶ¸|
Ġåħĥ è°ĭ|
Ġæĸ°å»º |
Ġæ±Ŀ åŁİ|
Ġå½¬ åİ¿|
Ġåħ° æºª|
ĠæĶ¿ åĴĮ|
Ġåįļ ä¹Ĳ|
ĠæĻ® å®ī|
Ġå¹¿ å®Ĺ|
Ġåģı åħ³|
Ġç¿ł å³
Ġé¾Ļ äºķ|
Ġæ³¢ å¯Ĩ|
Ġè´ŀ ä¸°|
Ġåįĵå°¼ |
ĠèĸĽ åŁİ|
ĠåĮĸ å·ŀ|
Ġå¿Ĺ ä¸¹|
ï¿½ W
æ» ĭ|
Ġå²ļ çļĭ|
Ġä¸¹å¾Ĵ |
Ġä¸ī åı°|
ĠèĪĴ åŁİ|
Ġå¤§ éĢļ|
Ġæ±Ł å±±|
Ġä¸ĩè½½ |
ä» ĳ|
Ġæ·ĩ åİ¿|
Ġå®Ŀ ä¸°|
Ġæ±Ł å®ģ|
Ġæ¡Ĥ éĺ³|
Ġå¯¿ éĺ³|
Ġå·« å±±|
ĠèĴĻèĩª |
Ġä¸° éķĩ|
Ġä¸ĬèĻ ŀ|
Ġåı° æ±Ł|
Ġæµ·çĽ Ĳ|
Ġä¸ľ å®ī|
ĠåºĨ äºĳ|
Ġæ²ģ æºĲ|
ĠéĽ· å·ŀ|
ĠæĺŃ èĭı|
Ġåĳ¨ æĿĳ|
Ġè¾° æºª|
ĠèĽŁ æ²³|
Ġéĩĳ ä¹¡|
ĠåĲį å±±|
ĠèĮĤ åİ¿|
Ġéĺľ åº·|
Ġæĥł æ°´|
Ġéķĩ å¹³|
Ġåįļ æ¹ĸ|
Ġå® ¹åŁİ|
ĠåĩĮ äºĳ|
Ġçī¹ åħĭæĸ¯|
ĠçĶ° æŀĹ|
ĠçķĻ åĿĿ|
Ġæ°¸ ä»ģ|
Ġé«ĺéĤ® |
Ġé»Ħéª ħ|
ĠèĴĻ åŁİ|
åİ» åĵª
Ġåħ´ å®ģ|
ĠçŁ³éĺ ¡|
Ġå®ľ åŁİ|
Ġå±± ä¸¹|
Ġæ¶Ł æºĲ|
ĠåıĻ æ°¸|
h ai
Ġæĸ° éĩİ|
Ġå²³ æ±ł|
Ġè¾ī åįĹ|
ĠéĿĻ ä¹Ĳ|
Ġå¸ĥå°Ķ æ´¥|
Ġå¾·æĥł |
Ġå»¶ éķ¿|
Ġæ²ħ éĻµ|
æ³¨åĨĮéĢģ å½©éĩĳ
Ġä¸´æ¾ §|
ĠæĪĲ åİ¿|
Ġç» Ľåİ¿|
Ġæ¢¨ æłĳ|
Ġåħ´ å±±|
Ġæĸĩ åİ¿|
Ġæ³½ åºĵ|
ĠæŃ¦ å®ļ|
ĠçĤİ éĻµ|
Ġæľ¨åŀĴ |
ĠèĤĩ å·ŀ|
Ġæ±¶ å·Ŀ|
Ġæ³° åĴĮ|
Ġä¸ľ åħī|
Ġæ¹Ł ä¸Ń|
Ġä¸ī æ°´|
Ġæ»¦ å¹³|
ĠçİĽ æĽ²|
Ġéº» åŁİ|
Ġæ°¸ å®ģ|
Ġå¨ģ åİ¿|
ä¸Ĭ äºĨ
Ġç±³èĦ Ĥ|
ĠéļĨå° §|
Ġéķ¿ æµ·|
Ġç¥ģ åİ¿|
Ġç¦ı é¼İ|
Ġæ¸ħ éķĩ|
Ġå¹³ éĺ´|
Ġå¨ģ è¿ľ|
Ġä¸Ń éĺ³|
ĠéĿĴ æµ¦|
Ġè¶Ĭ è¥¿|
Ġèİ± éĺ³|
Ġå® ¹åİ¿|
Ġå¤ı éĤĳ|
ĠéĹ½ ä¾¯|
Ġäºĳ åİ¿|
ĠæĻ´ éļĨ|
Ġç»¥ éĺ³|
Ġæ¨ª åİ¿|
Ġåįİ åĿª|
Ġé¦Ļæł¼éĩĮ æĭī|
ĠæĿ¥ åĩ¤|
ĠçĶĺ è°·|
Ġæ°¸ ç¦ı|
Ġå¥ī åĮĸ|
å¤ļ åĲĹ
Ġæ¸Ń æºĲ|
ĠéĢļ å±±|
Ġæ·ħ å·Ŀ|
ĠæŀĹ å·ŀ|
Ġçĭ¬ å±±|
Ġç¤¾ æĹĹ|
Ġèĭ± å¾·|
ĠåįĹ æ±Ł|
Ġé»İ å·Ŀ|
Ġè´µ éĺ³|
Ġéĥģ åįĹ|
Ġå¹¿ å¾·|
Ġå·© ä¹ī|
Ġæ½ŀ è¥¿|
Ġä½Ľ åĿª|
Ġæ·® éĺ´|
ĠæŀĿ æ±Ł|
Ġæ¸ħ æ²³|
ĠçĴ§ å±±|
ĠåĨ łåİ¿|
Ġä¸° åįĹ|
çļĦä½įç½®ï¼ļ é¦ĸé¡µ
ĠåĩŃ ç¥¥|
Ġä¸´é¢ į|
Ġåı¤èĶ º|
Ġåħ«è¾¾ å²Ń|
ĠæĿ¾ æ»ĭ|
Ġåįİ å±±|
Ġæ±¤ åİŁ|
ĠæĻ¯ æ´ª|
Ġçģµ çŁ³|
Ġåħ¨æ¤Ĵ |
ĠåĲĪ å·Ŀ|
ĠåĨħ é»Ħ|
ĠçıŃ çİĽ|
Ġèµ¤ å£ģ|
Ġç§Ńå½Ĵ |
ĠåįĹ åįİ|
Ġæ²ģ éĺ³|
Ġæĸ°éĤ µ|
ĠåīįéĥŃ å°Ķ
ĠçĽĲ äºŃ|
Ġæ°ĳ åĭ¤|
Ġåĺī å®ļ|
ĠæŃ¦ éĤĳ|
Ġåħ« å®¿|
ĠåĴĮ å¹³|
ĠæĢĿ åįĹ|
Ġäºİ éĥ½|
Ġä¸¹ å·´|
Ġæ´Ľ æµ¦|
Ġæ¦Ĩ ä¸Ń|
ĠçĻ» å°ģ|
Ġéķĩèµ ī|
Ġé²ģ çĶ¸|
Ġå®ļ è¾¹|
Ġåĺīé±¼ |
Ġåĺī é»İ|
Ġé©¬å°Ķ åº·|
Ġç¼Ļ äºĳ|
Ġéķ¿ å¯¿|
Ġæ³Ĺ æ°´|
M ore
Ġæ¢ħ æ²³åı£|
Ġå®ķ æĺĮ|
Ġç£ ģåİ¿|
Ġå¾® å±±|
Ġåħ´ åŁİ|
Ġåĭ īåİ¿|
æĳ© æīĺ
ĠçĽĲ å±±|
Ġä¿¡ å®ľ|
Ġä¸´ éĤĳ|
ĠäºĶ æ²³|
Ġè¾Ľ éĽĨ|
ĠéĻĩ åİ¿|
Ġåı¤ä¸ Ī|
ĠèĴ² æ±Ł|
ĠæŃ¦ å®ģ|
ĠèĵĿ å±±|
ĠçĲ¼ å±±|
Ġäºļç¾İam8 æ¸¸æĪıå¤§åİħ
Ġä¾¯ é©¬|
ĠéĻĨ å·Ŀ|
Ġä¸ĩ æºĲ|
ĠçİĽ å¤ļ|
æ¶ ¦|
Ġå¤§ ç«¹|
Ġæĥł æĿ¥|
ĠæĺĮ å¹³|
Ġå¤©æ´¥ |
ĠéĦĦ åŁİ|
Ġé²ģ å±±|
Ġå®ī å¡ŀ|
Ġé¹¤ å³°|
ĠçŃł è¿ŀ|
Ġå¹¿ åįĹ|
Ġå®ľ ä¸°|
Ġå·« æºª|
ĠéļĨ æĺĮ|
ĠçģµçĴ §|
ĠçĶ° ä¸ľ|
Ġçı ²æĺ¥|
Ġé»Ħ éĻµ|
Ġ365å¤ĸåĽ´ è¶³çĲĥ
Ġå®ģ æĺİ|
ĠéºŁ æ¸¸|
Ġæµ·æĻ ı|
ĠéĻµ åİ¿|
Ġæ±Ł éĻµ|
Ġä¹Ĳ äºŃ|
ĠåŃĲ éķ¿|
Ġæ¦Ĩ æłĳ|
Ġçģ¯ å¡Ķ|
Ġå¨ģ ä¿¡|
ĠåĲĪ æ±Ł|
Ġå¤§ åĨ¶|
Ġå®ļ åħ´|
Ġæ¶łæ´² å²Ľ|
Ġæ´ª æ¹ĸ|
Ġå¹¿ æ°´|
Ġç¥ģ è¿ŀ|
ĠçĻ½ æ°´|
Ġæ¾İ æ¹ĸ
Ġæµ· åħ´|
Ġæ³Ĺ åİ¿|
Ġäº¬ å±±|
Ġæĸ° å¯Ĩ|
Ġé«ĺ åĶĲ|
Ġæĭľ æ³ī|
Ġæ±Ł è¾¾|
Ġä¸° éĥ½|
Ġè¥¿ å®ģ|
ĠéĢļæ¸ Ń|
ĠåĪ© å·Ŀ|
Ġç»¥ å¾·|
Ġæī¶ç» ¥|
Ġå¤©å³ »|
Ġé«ĺ å¹³|
Ġç»¥ å®ģ|
ĠéĿĸ å®ī|
ĠæĺŁ åŃĲ|
Ġå¾Ĺ èį£|
Ġèĭ¥å°Ķ çĽĸ|
Ġå¤© åħ¨|
ĠæĺĶ éĺ³|
ĠæĿ¾æ½ ĺ|
Ġå®ĿåĿ »|
Ġå¯Į éĶ¦|
åĲ ´|
Ġå°ı éĩĳ|
Ġä¿Ŀ åº·|
Ġçķ¥ éĺ³|
Ġæ´Ľ å®ģ|
Ġå¤§ å®ī|
Ġå¤ª åİŁ|
Ġä½Ļ åºĨ|
Ġå¹¿ å¹³|
Ġæ¨ª å±±|
Ġä¼ļ æ³½|
Ġä¹¾ åİ¿|
ĠåºĶ åİ¿|
Ġå²³æĻ® æ¹ĸ|
Ġåįİ å®ī|
Ġæ¶¡ éĺ³|
ç¥ ĸ|
ĠéģĤ å¹³|
Ġåįİ æ±ł|
Ġæ°ĳ ä¹Ĳ|
Ġåĳ¨ å®ģ|
Ġæ´ªæ´ŀ |
Ġæ´¥ åįĹ|
ĠåĮĹç¢ ļ|
ĠæĺĮ å®ģ|
Ġçļĭ åħ°|
Ġè¡¡ åįĹ|
Ġéĺ³ åİŁ|
Ġåı³ çİī|
Ġè¥Ħ åŁİ|
Ġæ°¸ æ¸ħ|
ĠæĺĨ æĺİ|
ĠæħĪ åĪ©|
ĠåĴĮ ç¡ķ|
Ġæ°¸ åŁİ|
Ġå´ĩ ä¹ī|
ĠåıĮ è¾½|
Ġå®ī å¹³|
Ġåįļ çĻ½|
Ġèµ« ç«ł|
Ġçº¢ åİŁ|
Ġå£¶ åħ³|
Ġå¹³ æ³ī|
ĠæŁ³ åŁİ|
Ġå®ī é¾Ļ|
Ġå±± éĺ´|
Ġä¸´ æ½Ń|
ĠæĻ® æł¼|
ĠéĻĩ è¥¿|
T T
Ġè¥¿ æŀĹ|
ĠæĹ¬ éĺ³|
ĠèĹ¤ åİ¿|
ĠåĲ´ å·Ŀ|
ĠåįĹçļ® |
Ġå®ī å®ģ|
Ġæ±¨ ç½Ĺ|
Ġå¤ı æ´¥|
Ġéĥĳ å·ŀ|
Ġåįļ å±±|
ĠéĢļ æ²³|
ĠçĿ¢ å®ģ|
ĠèĪŀéĴ¢ |
Ġé»İ åŁİ|
Ċèĭı å·ŀæĸ°éĹ»ç½ĳ
Ġå¾·ä»¤åĵĪ |
çŃ ī|
Ġéĵ¶ å·Ŀ|
Ġå¯Ĩ äºĳ|
Ġå¥ī èĬĤ|
ĠçĶµ çĻ½|
ĠèµĦ æºĲ|
Ġè¡¡ å±±|
ĠæŃ£ å®ī|
Ġèį£ æĺĮ|
Ġèĭį æºª|
ĠéĽħ æ±Ł|
Ġå¼¥ åĭĴ|
ĠéģĤ æĺĮ|
Ġå®ļ åįĹ|
Ġæ±Ŀ éĺ³|
Ġé¡º æĺĮ|
Ġå¹³ æ¹ĸ|
ĠéĶ¦ å±ı|
Ġæ´ª éĽħ|
æīĭ èĲ¥åŃĲ
Ġéĩĳ å·ŀ|
Ġå¤© éķĩ|
ĠçŁ³ éĹ¨|
Ġåĵį æ°´|
Ġç¦ı è´¡|
ĠéŃ ıåİ¿|
Ġå¤§å§ ļ|
Ġå®ľ å·Ŀ|
é¡ ¶|
ĠèĬ± æºª|
ĠåĮĹ ä»ĳ|
Ġæ°¸ çĻ»|
Ġå¹³ æŃ¦|
Ġæ¸ ĿåĮĹ|
ĠåŃĻ åĲ´|
ĠæĢĢæŁ Ķ|
ĠèĴ² åŁİ|
Ġä¸° æ¶¦|
Ġå®ģ éĻµ|
Ġæµİ éĺ³|
æĻ ĭ|
ĠæĬļ å®ģ|
Ġå¥ī æĸ°|
3 4
Ġå´ĩç¤¼ |
Ġå°ģå¼Ģ |
Ġæµ·æ· Ģ|
ĠagåĽ½éĻħ æīĭæľºå®¢æĪ·ç«¯ä¸ĭè½½
Ġå®ģ å¼º|
ĠéļĨåĽŀ |
app çĻ»å½ķ
ĠæĺŃ å¹³|
Ġæĸ° éĥĳ|
Ġæ·± å·ŀ|
Ġæ°´ åŁİ|
Ġæ°¸ åħ´|
Ġæµ¦ åĮĹ|
ĠåİŁ éĺ³|
Ġå¸¸ å®ģ|
Ġæ²½ æºĲ|
ĠéĦ± éĺ³|
Ġæ³¾ éĺ³|
Ġçİ¯ åİ¿|
ĠéĻµ å·Ŀ|
Ġæ³¾ å·Ŀ|
Ġéľŀ æµ¦|
Ġé¾Ļ éĻµ|
Ġä¸Ĭ æŀĹ|
Ġèĵ Łåİ¿|
ĠåĮĹæĪ´ æ²³|
Ġå®ī ä»ģ|
ĠéĿĸ è¥¿|
Ġå¹¿çģµ |
ĠçĮ® åİ¿|
éľ į|
ĠéĢļè®¸ |
ï¼Į å½ĵ
Ġçķªç¦ º|
Ġæ´ŀ å¤´|
Ġå¾· åºĨ|
Ġæĸ½ çĶ¸|
çĨ Ł|
ĠåĨ ķå®ģ|
Ġæ±ī å¯¿|
Ġæµ· åŁİ|
ĠåŁİ åĽº|
Ġä¿® æĸĩ|
Ġp h
Ġæ¶ īåİ¿|
Ġèĭıå®¶ å±¯|
Ġæĸĩ çĻ»|
Ġåĩ¤ åı°|
Ġå¹³ ä¹¡|
ĠèĴ² åİ¿|
Ġä»İ åĮĸ|
Ġç»¿ æĺ¥|
Ġæ²³ æ´¥|
ĠãĢĳãĢĲ 0
ĠåįĵèµĦ |
ĠéĿĻ å®ģ|
Ġé¾Ļ éĩĮ|
ĠçŁ³ åı°|
ĠåĬłæł¼è¾¾ å¥ĩ|
Ġå² ·åİ¿|
ĠæĿĤ å¤ļ|
ĠäºķåĨĪ å±±|
éĺ ģ|
ĠæĻ® åħ°|
Ġå¯¿ å®ģ|
ĠæĢĢ å®ģ|
Ġä¹ īåİ¿|
Ġåı° æ¹¾|
Ġä¸ľ å®ģ|
Ġé«ĺ éĿĴ|
ĠæĢĢ å®ī|
ĠåįĹ éĽĦ|
Ġå¹³ é¡º|
é«ĺéĢŁ åħ¬è·¯
Ġä¸ĩ å¹´|
Ġåįİ å®ģ|
Ġæ²ģ åİ¿|
Ġå¹³èĪ Ĩ|
Ġå½ĵ éĺ³|
ĠæıŃ è¥¿|
Ġåħ´ ä»ģ|
Ġè¿ŀ æ±Ł|
Ġå±ı å±±|
Ġéģµ åĮĸ|
Ġå®ĿåºĶ |
ĠéļĨ åĮĸ|
Ġåĳ¼ åħ°|
ĠåįĹ åº·|
ĠåµĬ å·ŀ|
ĠåįĹ æ²Ļå²Ľ|
Ġçĳŀ æĺĮ|
Ġæ·Ħ å·Ŀ|
Ġä»ĢéĤ ¡|
Ġä¸´æ´® |
Ġæ½¼ åħ³|
Ġç½Ĺ å®ļ|
Ġagè§Ĩè®¯ æīĭæľºå®¢æĪ·ç«¯ä¸ĭè½½
ĠæĺĮ é»İ|
Ġæĸ°éĹ» èµĦè®¯
ĠéĤµ æŃ¦|
ĠåįĹ å²³|
ĠæŃ¦ å±±|
Ġå·´ éĿĴ|
ĠéĤĽå´ ĥ|
Ġå»¶ å·Ŀ|
Ġéĥ ¾
Ġå®ľ éĺ³|
Ġéĺ³ æĽ²|
è½¬æį¢ ä¸Ńæĸĩ
ĠéĢĬ åħĭ|
Ġæ¨ª å³°|
Ġå·¨ é¹¿|
Ġå»º å§ĭ|
Ġå®ī éĻĨ|
ĠåĽº éķĩ|
ĠæŁ³ æ²³|
Ġä¸ĩ å±±|
Ġæ³¸ æºª|
Ġç½Ĺ å±±|
Ġå¾· åħ´|
Ġå·¦ äºĳ|
Ġé»Ħ é¾Ļ|
ĠçĤī éľį|
Ġèµ¤ æ°´|
Ġæ³¸ æ°´|
Ġå©º æºĲ|
åħįè´¹åħ¬å¼Ģ èµĦæĸĻ
Ġæĸ° åĴĮ|
Ġå¤· éĻµ|
Ġå·´ åįĹ|
ĠåħŃåĲĪ |
Ġä¸´ æ½¼|
ĠåĲĪ éĺ³|
Ġåħ´ åĽ½|
Ġå¤§ å®ģ|
ĠåĮĸ å¾·|
Ġéĺľæĸ° èĴĻåı¤
ĠæľĽ æ±Ł|
Ġå®ģ æĻĭ|
Ġç´« éĩĳ|
ĠçĽĲ æ±ł|
Ġæ¸ħ æµģ|
Ġå¯Łå¸ĥæŁ¥ å°Ķ|
ĠæĹ©é¤Ĳ ç³»åĪĹ
Ġç»© æºª|
Ġé©¬ ç¥ĸ|
ĠçĽ ĺåİ¿|
Ġæĸ° ä¸°|
Ġå¼Ģ è¿ľ|
Ġæµ· åı£|
ĠåįĹ æ¼³|
ĠéŁ¶ å±±|
ĠåĲĮ ä»ģ|
Ġåħ° å·ŀ|
æīĭèĲ¥åŃĲ çŁ¿
Ġæ´Ľ å·Ŀ|
Ġæ»¡ åŁİ|
Ġç½Ĺ çĶ°|
Ġæº§ æ°´|
ĠæĹĮ å¾·|
Ġéº»æłĹ åĿ¡|
Ġæ¸© å®¿|
ĠæºĨ æµ¦|
Ġæ°¸æµİ |
Z C
Ġéķĩ å®ī|
Ġæķħ åŁİ|
ĠåŃĿ ä¹ī|
Ġå»ī æ±Ł|
ĠéļĨ å¾·|
ri v
åĵ Ģ
Ġåħĥ éĺ³|
Ġå·¨ éĩİ|
Ġç§Ģ å±
Ċ åĽ½éĻħ
Ġå¡ĺ æ²½|
Ġéķ¿ æ²Ļ|
Ġå¹³ é²ģ|
Ġä¹Ĳ æĺĮ|
Ġå¸¸ çĨŁ|
Ġå¤ª æ¹ĸ|
Ġæ¡Ĥ å¹³|
Ġç¿¼ åŁİ|
ĠéĤµ ä¸ľ|
ĠæŁı ä¹¡|
Ġâ ĺħ
Ġä¸ĩ åħ¨|
ĠåĪ©æĿ¥w66 å¤ĩçĶ¨
Ġåı°åĦ¿ åºĦ|
Ġå¿ łåİ¿|
Ġæµ¦ åŁİ|
Ġæŀ£ å¼º|
Ġèī² è¾¾|
ĠåŃŁ æ´¥|
ĠéĤ ±åİ¿|
Ġè¥Ħ æ±¾|
Ġå¯¿ åİ¿|
ĠæĺĮ éĤĳ|
Ġå¤© çŃī|
Ġè´µ åįĹ|
Ġéķ¿ æŃ¦|
æ²Ĵ æľī
ĠåĽĬè° ¦|
ĠéĢļ åŁİ|
Ġæ½ľ å±±|
Ġæ±Ŀ åįĹ|
i be
Ġé¢į ä¸Ĭ|
ĠåıĮ åŁİ|
ĠæŃ Ļåİ¿|
Ġå§ļ å®ī|
ĠåįĹ éĻµ|
Ġæ²Ī éĺ³|
Ġæ¿ī æºª|
Ġè¥¿ åĲī|
Ġèł ¡åİ¿|
Ġæ´ĭ åİ¿|
ĠæĻ®éĻ Ģ|
Ġåı¶ åİ¿|
ĠäºĶå¤§è¿ŀ æ±ł|
Ġä¸ĩçĽĽ |
Ġèİ· åĺī|
Ġæĸ° é¾Ļ|
Ġæĺ¯ åĲ¦
Ġçģ¯ é¥°åĬłçĽŁ
Ġèĭı å·ŀ|
Ġæ¼³ åİ¿|
Ġåº· ä¿Ŀ|
ĠåĴ¸ ä¸°|
ĠæŃ¦ åŁİ|
Ġä¹Ĳ ä¸ļ|
Ġé¾Ļ æ±Ł|
çķĻä¸ĭä¸Ģ åīĩ
Ġæĺĵ éĹ¨|
ĠèĲ §åİ¿|
Ġæ°¸ ä¸°|
Ġè¥¿ éĿĴ|
Ġçº³ æºª|
Ġå°ļå¿Ĺ |
Ġæł¼å°Ķ æľ¨|
Ġåº· åİ¿|
ĠåıĮçīĮ |
Ġå²ĳå· ©|
ĠéĹ½ æ¸ħ|
Ġæ¹Ł æºĲ|
Ġæ¡ĥ æºĲ|
Ġèİ² èĬ±|
Ġå®ī ä¸ĺ|
Ġè´ ¹åİ¿|
Ġå®ľ é»Ħ|
ĠéĿĸ è¾¹|
Ġå¤§ æ¸¯|
Ġå¡Ķä»Ģåºĵå°Ķ å¹²|
Ġå¼Ģ éĺ³|
Ġéĩĳ éĺ³|
ĠåĪ©è¾ Ľ|
Ġçĵ® å®ī|
Ġéĵľ æ¢ģ|
Ġç¤¼ åİ¿|
Ġä¸° åı°|
ĠéģĤ å·Ŀ|
Ġä¿Ŀ éĿĸ|
Ġå¼Ģ åİŁ|
Ġä¸ľ è¾½|
Ġéķ¿æ± Ģ|
Ġéķ¿ å®ī|
Ġæ³Į éĺ³|
éĿĴå¹´åīµæ¥Ńè²¸æ¬¾ æ¢Ŀä»¶
ĠæŃ¦ åĨĪ|
Ġæ°¸ æ³°|
Ġ365ä½ĵèĤ² è¶³çĲĥ
Ġèŀį å®ī|
Ġä¹Įä¼Ĭ å²Ń|
ĠæĢĢ æĿ¥|
Ġä¹¡ åŁİ|
æ¸¡ åģĩ
Ġç½Ĺ æ±Ł|
Ġç£Ĳ çŁ³|
ĠåĬłçĽŁ æĶ¾å¿ĥæĹ©çĤ¹
Ġæ²Ļ åİ¿|
Ġå®ģ æŃ¦|
ĠçĶĺ æ´Ľ|
Ġæ»¦ åįĹ|
æİĴ æĶ¾
Ġéĩĳ æºª|
æľĢæĸ°çĻ»å½ķ é¦ĸé¡µ
Ġåĩ¤ éĺ³|
ĠéĻĨ ä¸°|
Ġé» Łåİ¿|
Ġé¾Ļæ³īé© ¿|
ĠçŁ³ æ¸ł|
Ġå®ģ è¿ľ|
Ġåĸľ å¾·|
çĲ ³
ĠèĲ ĿåĮĹ|
Ġæ°¸ å¯¿|
Ġä¸´ é«ĺ|
Ġéĩĳ åı£
Ġå°ĸ æīİ|
å¤© |
Ġäºļç¾İam8 å®ĺç½ĳ
ĠçķĮ é¦ĸ|
Ġå¹³æŀľ |
ĠåĴĮ å¸ĥåħĭ
Ġå¨ģ æµ·
Ġä¸ľ ä¸½|
åŃĲ æ¹ĸ|
ĠåĪļå¯Ł |
Ġåĩ¯ éĩĮ|
Ġçľ īåİ¿|
Ġæĺĵ åİ¿|
ĠY X
Ġä¸ľ èĩ³|
Ġè¿ŀ å¹³|
ç«ŀ çĮľ|
Ġå´ĩ æĺİ|
Ġå¾· æīĳ
Ġæ¶ª éĻµ|
Ġéĥ §åİ¿|
Ġå¹³ å¡ĺ|
Ġä¿® æŃ¦|
ĠçĶĺèĤĥ |
Ġåīĳ æ²³|
Ġä¸īç© Ĺ|
Ġé¹° æīĭèĲ¥åŃĲçŁ¿
ĠæĽ² æ±Ł|
Ġæ±¾ éĺ³|
Ġæ±¤ éĺ´|
Ġæ°ĳ æĿĥ|
Ġåĩ¤ å±±|
Ġå¾½ åİ¿|
Ġå»º å¾·|
Ġä¸ľ æ²Ļå²Ľ|
Ġéĵĥå£°é«ĺæ½®çīĪ æŃĮè¯į
Ġä¹Ŀå¯¨ æ²Ł|
ĠåĪ© æ´¥|
ĠéĿĴ çĻ½
Ġæ±Ł è¥¿|
Ġç¶¦ æ±Ł|
ĠæŃ¦ å½ĵ
ĠåĲ´ åł¡|
Ġä¹ī é©¬|
ãĢĤ æľ¬
ĠåºĦ æµª|
s d
Ġåħ¨ åįĹ|
ĠæĶ¸ åİ¿|
Ġå±± æµ·
Ġæ¹ĺ éĺ´|
Ġè¾½ å®ģ|
åı¸ æ³ķ
Ġåı° ä¸ľ|
Ġç¹ģ æĺĮ|
ĠK T
Ġä¸Ń æĸ¹|
Ġæ¡¦ çĶ¸|
Ġæ²³ åĮĹ|
ĠçĶĺ æ£ł
ĠåıĮ æŁı|
ĠæĪĲ å®ī|
ĠæĹ©é¤Ĳè¿ŀéĶģ åºĹ
Ġå¹³ åĿĿ|
èĬ± åĽŃ|
æ¸ ¡|
ĠæĽ²éº» èİ±|
ï¿½ M
Ġç½Ĺ æºĲ|
Ġå±¯ çķĻ|
Ġå®ī è¿ľ|
Ġèİ± è¥¿|
Ġä¼ļ å®ģ|
Ġç¿łå³ ¦|
Ġå¤´ å±¯
åľ¨çº¿ å®¢æľį
Ġåīĳ éĺģ|
Ġå² ļåİ¿|
Ġæĸ° æºĲ|
Ġè®· æ²³|
Ġçĵ¯ æµ·|
Ġbet365 çİ°éĩĳ
Ġåįļé³ Į|
Ġç±³æĺĵ |
.... ..
Ġç¢ ¾åŃĲ
è·¯ éĢı
Ġèİ«åĬĽ è¾¾
ĠæĽ² éĺ³|
æħ Į
ĠåłĨé¾Ļå¾· åºĨ|
ĠèĲ¨ åĺİ|
Ġç§° å¤ļ|
Ġä¸´æ· Ħ|
åĽ¾ æºĲï¼ļ
Ġä¸ĺ åĮĹ|
ĠçĽĲ çĶ°|
ĠçĻ½ äºĳ|
12æľĪ 21æĹ¥ï¼Į
Ġä¸ĩ èį£|
Ġä¸ĬçĬ¹ |
Ġçķ ¹
Ġéĺ³ è°·|
Ġä¸Ń å®ģ|
å¥Ķ é©°
Ġéĺ³ è¥¿|
Ġéķ¿çĻ½ å±±|
Ġæ·® éĺ³|
æĭīå°Ķ åŁº
Ġæ±Ł æºĲ|
ĠçĻ½ ç¢±
Ġæĥł å®ī|
åĦ Ł
Ġçİī éĹ¨|
å®ĺç½ĳ ãĢĳ
ĠåĲ´èµ· |
Ġæī¶ ä½Ļ|
ĠåįĹ å²
Ġæ°¸ åĴĮ|
Ġæ´Ľ æīİ|
æł Ĺ|
Ġèį¥ ç»ı|
Ġéĥ¯ åŁİ|
Ġä¸Ĭ æĿŃ|
ĠèĲ¥åħ» ç²¥åĬłçĽŁ
Ġå¼¥ æ¸¡|
Ġé¹¿ å¯¨|
Ġé¥¶ æ²³|
Ġæ½ ŀåŁİ|
Ġæľ Ĺåİ¿|
Ġå®ģ æµ·|
Ġçĥ ¤èĤīåĬłçĽŁ
ĠéĻĨ æ²³|
Ġå®ī è¥¿|
ĠåĻ¶ å°Ķ|
Ġæ³¸ è¥¿|
å¢¨ è¥¿åĵ¥
Ġæ±ī æ²½|
ĠäºĶ åı°|
ĠæĿ¥ åĬłçĽŁ
a ur
ĠèĮĦåŃĲ æ²³|
ĠéĹµè¡Į |
Õ¸ÖĤ Õ
ĠçĶĺæ£ł éķĩ|
ĠæĹ©é¤ĲåĬłçĽŁ åºĹ
ä½ľå¼Ĭ è½¯ä»¶
Ġæµ¦ åı£|
Ġåº Ĳå±±|
ĠæĿľ å°Ķä¼¯çī¹
Ġå¹¿ ä¸ľ|
å¾ ½|
Ġæ²Ĳ å·Ŀ|
ĠåŃĿ æĺĮ|
æĲľ å°ĭ
Ġæĸ° èĶ¡|
ĠæıŃ ä¸ľ|
Ġbet365 çĽĺåı£
Ġå®Ŀ å±±|
Ġæ¡ĳ æĹ¥|
Ġå¾· æĺĮ|
Ġéķĩ éĽĦ|
Ġæ´ĭ å±±æ¸¯|
Ġæ¡ĥ åĽŃ|
æŃ£ æĺ¯
çķĻä¸ĭä¸Ģåīĩ è¿´éŁ¿
Ġåħ« åħ¬
Ġåįļ éĩİ|
ĠæĿ¨åĽ½ç¦ıéº»è¾£çĥ« åĬłçĽŁ
Ġæ±Łèĭı |
Ġçī¹èī² æĹ©é¤Ĳ
Ġä¸ĭ éĻĨ|
Ġå¯Į æĭīå°ĶåŁº
Ġè°¢ å®¶
Ġç¦ıå»º |
ë ¡
Ġéļ °åİ¿|
åĶ¯ä¸Ģ å¤§åĵģçīĮ
Ġè®© èĥ¡
ĠæĽ² æĿ¾|
Ġåº· é©¬|
ĠåįĹ èĬ¬
Ġä»ģ å¸ĥ|
Ġä¸Ĭ çĶĺ
Ġå¤§åıĳå¿«ä¸ī ä¸Ńå¥ĸ
Ġå°ı æĬķèµĦåĬłçĽŁåºĹ
Ġè¥¿ ä¹¡|
Ġçº¢ åı¤
Ġå±± è¥¿|
Ġé¹°æīĭèĲ¥åŃĲçŁ¿ åĮº|
Ġè´µ å·ŀ|
Ġå®ľ ç§Ģ|
Ġæ±Ł åŃľ|
Ġç¦ı å±±|
æīĵä¸įå¼Ģ äºĨ
Ġèį¥ éĺ³|
Ġæ±ī åı£|
ĠåĽ´ åľº|
å®ĺæĸ¹ çĻ»å½ķ
Ġå¤§ åºĨ
Ġå·¥å¸ĥæ±Ł è¾¾|
Ġä¸´ å·Ŀ|
ri c
Ġé»ĳé¾Ļ æ±Ł|
Ġéĥ¾ åŁİ|
Ġæ½® éĺ³|
éĲ ĺ
Ġè´¾ æ±
Ġç¥ŀåĨľ é¡¶|
Ġå®ī å¾½|
çİ© çĲĥ
Ġéĺľæĸ°èĴĻåı¤ æĹıèĩªæ²»åİ¿|
Ġçĭ¬å±± åŃĲ|
ĠåĲī æ°´|
Ġæ¹ĸ åĮĹ|
ĠæĺĤ æĺĤ
ĠæµĻ æ±Ł|
Ġæ³½ å·ŀ|
Ġæ»´ éģĵ|
Ġå¿ħ èĥľå®¢åĬłçĽŁè´¹åıĬåĬłçĽŁæĿ¡ä»¶
Ġå®£æģ© |
ç®¡çĲĨ å±Ģ
ĠæĹ©é¤Ĳç²¥ è½¦
åľª åł
ĠèĮĤ æ¸¯|
Ġæ¸© åİ¿|
ĠæľĽå¥ İ|
Ġæ±¤ æĹº
22 270
Ġå²Ĺ å·´|
Ġå·´å½¦æ·ĸ å°Ķ|
ĠåĲī éļĨ|
Ġå®ļ ç»ĵ|
çıŃ çīĻ
Ġéº» å±±|
Ġæ¿ł æ±Ł|
Ġéĩĳåı£ æ²³|
Ġå¥İ å±¯|
Ġæ±¤ åĮħåĬłçĽŁ
Ġéĺ³ ä¸ľ|
Ġå¾½ å·ŀ|
çĶµ åķĨ
Ġä¹Į è¾¾|
Ġåħ´ ä¸ļ|
ĠéħĴ åºĹåĬłçĽŁ
Ġå½° åĮĸ|
ĠéĿĴ æµ·|
ĠæĿİ æ²§|
Ġè¿ŀéĶģ åºĹåĬłçĽŁ
Ġé«ĺ æĺİ|
åľªåł µ|
ĠæĢĿèĮ ħ|
Ġçİ¯äºļ å¹³åı°æ³¨åĨĮ
ĠåĲī åĪ©|
ĠèĭĹ æłĹ|
Ġagäºļæ´²åĽ½éĻħ éĽĨåĽ¢
Ġåĩ¯åıĳçĶµæ¸¸ æ¸¸æĪıå®ĺç½ĳ
ĠæľĽ åŁİ|
éĺ² å¼¹
ĠçĽ¸ åŁİ|
Ġæ¹¾ éĩĮ|
ĠæĪļ å¢ħ
ĠåįĹæĬķ |
ĠG P
Ġæ²Ļ åľªåłµ|
ĠåĽĽ å·Ŀ|
è° Ĭ|
Ġæ°´å¯Į |
ĠçĻ½ç¢± æ»©|
é«ĺ æ¢ħ
å¤ª éĺ³
ĠæĿ¾ éĺ³|
ĠãĢĲ åŃĹä½ĵï¼ļ
çľĭå®Ī æīĢ
ĠéĻķ åİ¿|
Ġæ² §åİ¿|
ĠæĿľå°Ķä¼¯çī¹ |
Ġç½ĳèµĮ å¼Ģåħĥæ£ĭçīĮ
Ġè·¯ æ¡¥|
Ġæ½® åįĹ|
Ġéĩĳ æ¹¾|
ĠagçľŁäºº çĻ¾å®¶å®¶ä¹Ĳ
åįı åĬ©
ĠåįĹæµ Ķ|
Ġæľ¬æºª æ»¡
Ġçº¢ å²Ĺ|
ĠéĽĨ ç¾İ|
Ġé¥® æĸĻåºĹåĬłçĽŁ
Z 2
Ġæĥł å±±|
ĠåīįéĥŃå°Ķ ç½Ĺæĸ¯
Ġæİª ç¾İ|
Ġä¸ľ èĲ¥
Ġè¾¾ åŃľ|
ĠèĲ¨è¿ ¦|
Ġçģµ ä¸ĺ|
ĠåĨħèĴĻåı¤ |
ĠæĻĭ å·ŀ|
ĠéĻķ è¥¿|
Ġè´µ æ±ł|
Ġå¤§èĭ± |
Ġé«ĺ æ¸¯|
Ġä¸ĭ èĬ±åĽŃ|
Ġå®Ŀ å®ī|
Ġåı¤äº¤ |
Ġæİª åĭ¤|
Ġè¦ĥ å¡ĺ|
ĠéĽģ å±±|
Ġå¤©å±± å¤©
Ġæ¹ĸ åįĹ|
ç½ĳåĿĢ è°ģæľī
Ġå³° å³°
Ġäºĳ åįĹ|
çĶ º|
Ġåĩ¯åıĳæ³¨åĨĮ é¦ĸé¡µ
ĠèĬ± èİ²|
Ġå¸¦ å²Ń|
ag äºļ
Ġçĸı åĭĴ|
Ġä»² å·´|
Ġè¾¾ åİ¿|
Ġæ£ĭçīĮ 365
ï¼Į ä¸¤
Ġåıĭ è°Ĭ|
Ġåįİèĵ ¥|
Ġéĵľ å±±|
Ġè¾¹ åĿĿ|
Ġåħĥ åĿĿ|
é¾Ļå±± éķĩ|
ĠåĽ¢ é£İ|
åıĳ æĮ¥
Ġéĺİ èī¯|
Ċæĸ°çĸĨ æĶ¿åºľ
Ġéĩĳå±± å±¯|
Ġæ²Ļæ´ĭ |
Ġå¢¨ç«¹å·¥åį¡ |
æ· ĩ
Ġå°ı æ²³|
Ġåį° åı°|
Ġæĸ° éĿĴ|
ĠæģĴ å±±|
Ġé¾Ļ æ¹¾|
ì ŀ
åĩ ½
ĠçĥĪ å±±|
Ġä¸Ĭ è¡Ĺ|
Ġä¹Ŀé¾Ļ åĿ¡|
Ġæľ¬æºªæ»¡ æĹıèĩªæ²»åİ¿|
Ġèİ± å±±|
ĠæĹħé¡º åı£|
ĠçĸıéĻĦ |
æľº åĬ¨è½¦
ĠæŃ¦è¿Ľ |
Ġçķ¹ çĶº|
Ġæ³ī æ¸¯|
Ġé¹¿ æ³ī|
Ġç§ĳå°Ķæ²ģåı³ç¿¼ åīįæĹĹ|
ĠçĻ½äºĳ çŁ¿|
Ċåĩ¤åĩ°ç½ĳ åı°æ¹¾
Ġè´¡ è§ī|
Ġæ¢ģ åŃĲæ¹ĸ|
Ġå¤©å®ī éĹ¨|
ĠæĹ©çĤ¹åĬłçĽŁ è½¦
sport s
Ġæ¸ħèĭ ĳ|
ä¸ī ä¸ª
Ġå²ļ å±±|
Ġè´¾æ± ª|
Ġè¡¢ æ±Ł|
ĠE P
Ġå¤§ é¾Ļå±±éķĩ|
ĠæľĿ å¤©|
Ġå¤§æ¸¡ åı£|
Ġd omain
Ġå¯Ł éĽħ|
å¡ŀ å°Ķ|
Ġçº¢ æĺŁ|
Ġçģŀ æ¡¥|
è¯Ń è¨Ģ
ĠåĽĽæĸ¹ åı°|
Ġæ¾İ æ¹ĸ|
Ġæ¹ĺ ä¸ľ|
r am
ĠåįĹ ç¥¨|
Ġé¾Ļ åĩ¤|
ĠäºĮéģĵ æ±Ł|
Ġåħ«åħ¬ å±±|
ĠçĭĹä¸ĩè½¯ä»¶ æīĭæľºçīĪä¸ĭè½½
Ġæĸ° èį£|
ĠéĿĴçĻ½ æ±Ł|
Ġè¥¿ åĽº|
Ġå²± å²³|
ĠçĪ ±ä¹Ĳ
Ġé¾Ļ å²Ĺ|
Ġåı¤ åĨ¶|
Ġæ½® å®ī|
Ġæ²¿ æ»©|
ĠåŁİ éĺ³|
ĠåįĹèĬ¬ |
å¿«ä¸ī éªĹå±Ģ
Ġé»Ħ åŁĶ|
ĠåįĹå² Ķ|
å·¥ èµĦ
Ġå±± äºŃ|
Ġä¹ĥ ä¸ľ|
ĠåĴĮå¸ĥåħĭ å¡ŀå°Ķ|
Ġçİĭ çĽĬ|
ĠæĪļå¢ħ åł°|
ìĹ Ĳ
Ġæµ· æ²§|
Ġé»Ħ å²©|
Ġåı¬ éĻµ|
Ġçİ¯äºļ ç½ĳç«Ļ
åĺ ²
Ġè¥¿ æ²Ļå²Ľ|
æĸ¹éĿ¢ çļĦ
Ġäºĳ æºª|
äºĭ åıĳ
ĠåıĮ æ¡¥|
Ġäºļ ä¸ľ|
Ġç»Ŀ åĳ³åĬłçĽŁ
ĠäºĶ éĢļ
Ġæ½ĺ éĽĨ|
Ġç§Ģå± ¿|
Ċ åĲĪä½ľä¼Ļä¼´
Ġå¤©å±±å¤© æ±ł|
çĵ ¦|
Ġå¼ł æ¹¾
Ġå¯Ĵ äºŃ|
æĽ¾ ç»ı
ĠåĲĪ å±±|
ĠåįĹ éĢļ
Ġå¹³ æĪ¿|
Ġç½ĳä¸ĬçĻ¾å®¶ åºĦéĹ²
ĠéĽ ¶éĻµ|
å¹´ é¾Ħ
Ġè°¢å®¶ éĽĨ|
Ġè¥¿ éĥ¨
Ġéĵģ å±±æ¸¯|
Ġagå¹³åı° å®ĺç½ĳ
åħĪ çĥĪ
Ġæ±ī åįĹ|
Ġä¸ĬçĶĺ å²Ń|
ĠçĭĹä¸ĩ éĽĨåĽ¢å®ĺç½ĳ
ç¾İ åľĭ
Ġç¾İ æºª|
å¾Ī å¥½
éķ¿ ãĢģ
Ġagäºļæ´²éĽĨåĽ¢å®ĺç½ĳ agäºļ
Ġå¹³ å·Ŀ|
Ġç¢¾åŃĲ å±±|
Ġè°ĥåħµ å±±|
Ġå¤´å±¯ æ²³|
Ġä¸ĩ å·ŀ|
Ġæ±¤æĹº æ²³|
Ġå³°å³° çŁ¿|
Ġå±±æµ· åħ³|
ï ¿¥
Ġå®¿è± «|
ĠæĲıå¤©åłĤ918 æ£ĭçīĮ
ĠçŁ³ é¾Ļ|
è°ĥæŁ¥ ãĢĤ
Ġçº¢åı¤ |
Ġæ¸ħæ²³ éĹ¨|
ĊåĲĪä½ľä¼Ļä¼´ ï¼ļ
Ġæĸ° éĤ±|
äºĴ åĬ¨
ĠåįĹæµ· éķĩ|
Ġ365 å¤©ä½ĵèĤ²
åĩ Ń
ĠæŃ¦éĻµ æºĲ|
éı ¡
Ġäºĳ éĽĨ
Ġè®©èĥ¡ è·¯|
å ¬
Ġé¼İ æ¹ĸ|
ĊèĲ§ å±±
èĢĮ è¨Ģ
Ġå¯Įæĭīå°ĶåŁº |
ĠäºķéĻī çŁ¿|
ĠåīįéĥŃå°Ķç½Ĺæĸ¯ |
Ġå¼łæ¹¾ éķĩ|
ĠæŃ¦å½ĵ å±±|
Ġ365æ£ĭçīĮ åħħåĢ¼
åįķåıĮï¼ļå½©ç¥ŀ 8
Ġèİ«åĬĽè¾¾ çĵ¦|
æ¯į æļĹ
Ġäºļæ¸¸ åıªä¸ºéĿŀåĩ¡
Ġæ±ī éĺ³|
ĠæĺĤæĺĤ æºª|
Ġå¤§åĲĮ åĮº|
Ġé»Ħ å²Ľ|
ĠæŃ¦ æĺĮ|
åĽ¾ è§£
ä¸Ń åŃ¦
Ġåĩ¯åıĳå¼ĢæĪ· å®ĺç½ĳ
O W
ä¸į çŁ¥éģĵ
æ¯įæļĹ æ²Ļ|
Ġag å°Ĭé¾Ļ
å½± è§Ĩ
Ġåĩ¯åıĳå®ĺç½ĳ åľ°åĿĢ
æ°ĳ æĶ¿
app ç½ĳç«Ļ
å½© çĲĥ
Ġåĩ¯åıĳag å®ĺæĸ¹ç½ĳç«Ļ
Ġåıĭ å¥½|
Ċ2019-12 -15
Ġä¹Įå°Ķ ç¦¾|
Ċæł ªæ´²
Ċ çŁ³å®¶åºĦ
ĠQ T
ĠæĽ¾ æ¯įæļĹæ²Ļ|
Ċ çº¢
ĠåĿĬ åŃĲ|
èº«ä»½ èŃī
ĠäºĶéĢļ æ¡¥|
å®ĺç½ĳ å¤ĩçĶ¨
7 å¹´
Ġåľ° åĿĢ
èĤ¡ä»½ èĤ¡ç¥¨|
ą Ććą
Ġw66åĪ©æĿ¥ æīĭæľºçīĪ
Ġé©¬ å°¾|
ĠäºĳéĽĨ éķĩ|
ĠåĪ «
ä½Ļ å¹´
ãĢĤ ä¸Ń
åıĸ çİ°
ë ª
ĠéĢ ģ
Ġ20 00
å¾ ©
æ¾³éĹ¨ çĻ¾å®¶
ark et
Ċç¦ıå»º çĶµè§Ĩåı°
åĬĽ åº¦
åĨ ¯
ç§© åºı
sc hem
Ġå®£åĮĸ åĮº|
ĠåĲĽ å±±|
Ġæ¾³éĹ¨çĻ¾å®¶ä¹Ĳ å®ĺæĸ¹ç½ĳç«Ļ
æ£ °ï¿½
Ġ365betå®ĺç½ĳ æĹ¥åįļ
ĠçĻ¾å®¶ä¹Ĳ appä¸ĭè½½
å®¶ åĽŃ
Ġåĩ¯åıĳæŃ£è§Ħ ç½ĳåĿĢ
åī Ĭ
n ew
å®ª æ³ķ
Ġä¹Ŀ æ±Ł
Ġ ä¿¡çĶ¨åį¡
ãĢĤ ãĢĬ
æµĭ éĢŁ
ĠåĨħèĴĻåı¤ èĩªæ²»åĮº
365ä½ĵèĤ²æĬķæ³¨ å®ĺç½ĳ
ĠæĳĦ å½±
æĶ¶ çĽĬ
æł¼ å¼ı
ç±»ä¼¼ çļĦapp
èĥ ¸
Ġ918ï¿½éİıçĦ¯æª¬åıªï¿½ çīĪ
Ã ³
å°ı åĵ¥
_ b
Ġéĺ¿ å·´
Ġg o
æ¼Ķ åĩº
Ġæĸ° å¿«3
Ġå°ıé±¼åĦ¿çİĦæľº 2ç«Ļ
æĳĦ å½±
å¿«ä¸ī èµ°åĬ¿åĽ¾
ĠW R
ï¼Į åį³
Ġagçİ¯äºļç½ĳç«Ļ æĺ¯åĵªä¸Ģä¸ª
æıĲ ç¤º
éĢ Ľ
æķĳä¸ĸ ç½ĳ
et h
âĢ ³
able d
ĠY R
ĠæĲŀ ç¬ĳ
æĢ ¡
Ċæ±Ł åįĹ
æ°Ķ è±¡
ç¦ ¹
27 æĹ¥
Ġ200 5
Ġh ref
Ġåĩ¯åıĳå¼ĢæĪ· ç½ĳç«Ļ
è½® èĥİ
è¿ĩç¨ĭ ä¸Ń
Ġ365æ£ĭçīĮ èĭ¹æŀľçīĪ
. vip
Ġåħ¬ åħ±
çł ¸
Ġåĩ¯åıĳ 668
- å®ĺç½ĳæ³¨åĨĮ
B e
ĠæĲıå¤©åłĤ918 æĹĹèĪ°
Ġäºļç¾İam8 æ¸¸æĪı
çº¿ä¸Ĭ æ¸¸æĪı
v b
Ġcomment Count
Ġé¦ĸ éłģ
æķĳ æ²»
å© ·
æŁ ´
è· µ
ä¿Ħç½Ĺæĸ¯æĢ»ç»Ł æĻ®äº¬
Ġagçİ¯äºļæīĭæľºçĻ»å½ķ åľ°åĿĢ
åľ° çĲĥ
365æ£ĭçīĮ ãĢĭ
ä¼ļ æľī
( A
éĤ ±
y b
å¼ Ī
æĶ¹ åĸĦ
ĠN ov
çº¿ ç´¢
365ä½ĵèĤ²æĬķæ³¨ ç½ĳç«Ļ
å·¥ä½ľ ï¼Į
æľīä»Ģä¹Īè¦ģæ±Ĥ åĲĹ
ç£ ģ
âĢĻ s
æĽĿ åħī
ãĢĳãĢĲ åĪĨãĢĳãĢĲ
Ġ à¤
r ap
Ġè ª
æĦıåĳ³ çĿĢ
çĸ ı
ä¼ ¸
Ġäºº æ°£
Ġagçİ¯äºļ çĶµåŃĲ
æ°´ åĻ¨
Ġåĩ¯åıĳçĶµæ¸¸ å®ĺç½ĳä¸ĭè½½
æĿ© ï¿½
Ġsp an
Ċ å¤ļ
Ċ äº¬
Ġc ont
å¿«ä¸ī è®¡åĪĴ
9 50
å¤§ åİ¦
Ġagçİ¯äºļçĶµåŃĲ çĻ»éĻĨä¸ĭè½½
å¤§ éļĬ
Ġg oogletag
7 6
Ġ ä¾ĽåºĶ
ï¿½ l
Ġåĩ¯åıĳæľĢæĸ° çīĪæľ¬ä¸ĭè½½
åĪĿ å¿ĥ
åĬ© çĲĨ
Ġå¤ĸ åªĴ
Ġ365bet å¤ĩçĶ¨ç½ĳåĿĢ
æ¸ħ æĺİ
æ «
Ġéĺ¿å·´ åĺİ
ä»į çĦ¶
æ© ĺ
æ½ ĩ
à¹ Į
Ġåĩ¯åıĳçĶµæ¸¸ å¹³åı°å¼ĢæĪ·
çŃ Ĵ
éĽĨ ä½ĵ
èµĮéĴ± ç½ĳç«Ļ
ç» ¾
' +
è¯Ħ ç½ĳ
ĠagçľŁäºº å¹³åı°
Ġçī ĩ
æĦŁ æŁĵ
ĠS E
ç° §
Y29 t
1 .5
Ġag æīĭæľºçīĪå®¢æĪ·ç«¯
Ġ365æ£ĭçīĮ æľīæ²¡æľī
.c o
é¬ Ĩ
Ġåı Ĭ
. length
éľ ŀ
Ġæ¾³éĹ¨ åľ¨çº¿
éĢĢ å½¹
Ġåħ ¥
å¿Ĺ ä¼Ł
æŃ£ ç¡®
åıį åħ´å¥ĭåīĤ
Ġäºļæ¸¸çĻ»å½ķ åĻ¨
æĭ ³
Ġä¸ĸçķĮæĿ¯ å¤ĸåĽ´æĬķæ³¨
Ġçİ¯äºļ åĽ½éĻħå¨±ä¹Ĳ
schem as
æ£ĭçīĮ ,
Ġæ¾³éĹ¨ æĬķæ³¨å¹³åı°
è®°èĢħä¼ļ ä¸Ĭ
çļĦ åħ¨éĥ¨
ĠD isc
æľĢæĸ°çĻ»å½ķ ç½ĳåĿĢ
Ġæ¾³éĹ¨åħŃä¸ĭ å½©ç½ĳç«Ļ
ç³ ķ
H D
é¼ĵ åĬ±
ãĢĤ ä»İ
od el
ãĢĳãĢĲ ä¸Ĭ
Ġåĩ¯åıĳä½ĵèĤ²æĬķæ³¨ å®ĺæĸ¹
Ġè´ £
Ġèĥ ¡
ĠçĭĹä¸ĩ å®ĺç½ĳä¸ĭè½½
ĠçĻ¾å®¶ä¹Ĳ ä¿¡èªī
Ġæ¾³éĹ¨ag çİ¯äºļçľŁäºº
ĠåĬ¨ çĶ»
éļı åĲİï¼Į
ãĦ §
ĠL ED
å°Ķ å¸Ĥ|
Ġ365ä½ĵèĤ²æĬķæ³¨ çĽĺåı£
åĲĮ æł·
ĠçĭĹä¸ĩ èĭ¹æŀľ
ĠE xp
åıĭ è°Ĭ
Ġåĩ¯åıĳ å¹³åı°æ³¨åĨĮ
åĲ Ĳ
Ġçİ¯äºļagå¹³åı° å®ĺæĸ¹åħ¥åı£
å°± åľ¨
èĬĤ çĽ®
æµ ĵ
ä¸ĭ åįķ
æľī äºĽ
çĶ³è¯· ag
æīĭæľºæĬķæ³¨ ç½ĳåĿĢ
è¾° åľ¨çº¿
ĊåĮĹäº¬ æĻļæĬ¥
åħŃ çłģ
è¾ħåĬ© è½¯ä»¶
Ċ åŁİå¸Ĥ
ï¼ī æµ·å¤ĸç½ĳ
çŃī çº§
éĴ± åĲĹ
log y
Ġå¼Ģåħĥæ£ĭçīĮ å¼ĢæĮĤ
æľĢ çīĽ
å¤ĸ åĽ½
å· ¾
Ġè¿ Ķ
æĥħåĨµ ï¼Į
åĪļ åĪļ
Ċâ ĨĲ
Ġæ¯ Ľ
ä¿Ŀ èŃ·
re n
Ċæ°´æ¯į ç½ĳ
ĠåĪ©æĿ¥ æīĭæľºå®¢æĪ·ç«¯ä¸ĭè½½
ĠagåĽ½éĻħ éĽĨåĽ¢å®ĺç½ĳ
ĠäºļæĲıè§Ĩé¢ĳ appä¸ĭè½½
Ġäºļç¾İam8app åı¯éĿł
Ċé¦Ļæ¸¯ æĹħæ¸¸å±Ģ
åĽ½ è¶³
æ£ĭçīĮæ¸¸æĪı å¤§åħ¨
ĠåĪ©æĿ¥w66å¹³åı°æ³¨åĨĮ çĻ»å½ķ
Ġ365 è¶³å½©
Ġ1 )
ãĢĳãĢĲ ä¸ºãĢĳãĢĲ
Ġæīĺ ç¦ı
l and
Ċ åĲī
Ġäºļç¾İam8 agæĹĹèĪ°åİħ
çĽĽ é¡¿
éĽ» è¦ĸ
ĠçĻ¾å®¶ä¹Ĳ ç½ĳæĬķ
èµ°åľ° çĽĺ
O K
èİ Ĩ
æĥ³ åĪ°
è·¯ åįķ
.p ush
åĮĹ æµģ
ï¼ī åİŁæłĩé¢ĺï¼ļ
Ġwh ich
éĥ¨ ç½²
Ġ365betå®ĺç½ĳ æĬķæ³¨
èĩª èº«
æĭ ¨
ä¹ł ä¸»å¸Ń
çį ¨
çŃĶ æ¡Ī
Ġäºļæ¸¸éĽĨåĽ¢å®ĺç½ĳ çĶ³è¯·ag
é«ĺ æł¡
è¼ ª
ä¸ª åĪ«
Ġé»ĺ è®¤
ï¼Į æ²¡æľī
ä¸Ńåħ± ä¸Ńå¤®
Ġåĩ¯åıĳçĻ»å½ķ é¦ĸé¡µ
Ġ2 .
Ċæ±ŁåįĹ éĥ½å¸ĤæĬ¥
Ġæĥ ³
Ġæķ ´
Ġæİ¨èĸ¦ ,
åĩł å¹´
Ġ ä»·æł¼
èĢģ éħĴé¬¼éħĴ
çº¿ä¸Ĭ å¨±ä¹Ĳ
urn :
æĭħ å¿ĥ
çĲĨ æĥ³
Ġé¸¿è¿Ĳ åĽ½éĻħå¨±ä¹Ĳ
Ċ çĻ¾
åĮĹäº¬ pk10
çľĭ çľĭ
A Y
Ġåĩ¯åıĳæ³¨åĨĮå¹³åı° å®īåįĵçīĪä¸ĭè½½
é» ĥ
åº «
schemas -m
urn: schemas-m
¸ °
icrosoft -com
urn:schemas-m icrosoft-com
ä¸įèĥ½ æıĲçİ°
è¦ģ åĩłå¤©
Ġåĩ¯åıĳ ç½ĳç«ĻçĻ»å½ķ
æıĲçİ° ä¸įäºĨ
Ġæ¾³éĹ¨ç½ĳä¸Ĭ çĻ¾å®¶ä¹Ĳ
é½Ĳ é²ģ
æ±Ł åİ¿
ä¿¡ å¿ĥ
å¦» åŃĲ
velo p
ä¸Ńæĸĩ ç½ĳåĿĢ
Ġå°ı é¡į
ĠçľŁäººæ¸¸æĪı åľ¨çº¿
çº¢ èī²
4 ãĢĳãĢĲ
"). append
çķĮ éĿ¢
ic on
éģĬ æĪ²
Ġæ¾³éĹ¨åħŃä¸ĭ å½©å¼Ģå¥ĸç»ĵæŀľ
éĵ¶æ²³ å¼ĢæĪ·
æĢİä¹Ī åĽŀäºĭ
ï¼Į çĦ¶åĲİ
æıĲä¾Ľ äºĨ
Ċ R
æµ· ä¸Ĭ
èģ ²
ä¸Ģ é©¬
Ċä¸ŃåĽ½è¥¿èĹı ç½ĳ
, äºļåįļ
éĺħè¯» æ¨¡å¼ı
è¢« éĶģå®ļ
Ġå¥ Ĺ
M y
3 åĪĨå¿«3
Ġ365æ£ĭçīĮ çĤ¹åį¡
å¸¦ çĿĢ
æ¬§æ´² æĿ¯
Ġ3 00
A V
æ²¡ äºĨ
Ġ| éĺħè¯»æ¨¡å¼ı
Ġèµ¢ éĴ±
Ċ2018-0 7
åİ ī
é«ĺ èĢĥ
Ġal so
Ġ8äºļæ¸¸ éĽĨåĽ¢
åħ§ å®¹
Ġåĩ¯æĹ¶åĽ½éĻħ å®ĺç½ĳ
éĻĲ æĻĤ
urn:schemas-microsoft-com :office
ĠS uite
Ġå¤§åıĳå¿«ä¸ī å¦Ĥä½ķ
åºĨ ç¥Ŀ
ĠçĭĹä¸ĩ åĩºæ¬¾
æĿ¥ æºĲ
ç»ıæµİ åıĳå±ķ
ent al
å¨±ä¹Ĳ è®¯
éª ĳ
Ġç½ĳä¸ĬçĻ¾å®¶ä¹Ĳ appä¸ĭè½½
ĊæĹ©é¤Ĳ ç²¥
è¥¿ éĥ¨
Ġag å®ĺæĸ¹å¹³åı°
æŃ£è§Ħ çļĦ
çĶµè¯Ŀ ï¼ļ
ì §
Ġå°ı è¯´
åħµé©¬ ä¿ĳ
åı Ķ
å°Ī åįĢ
Ġæĥ ħ
ç®Ģ ç§°
æİ¨ çī¹
çī¹ çº¦
æĵ ĩ
ĠåĽŀ å¤į
Ġp eople
S I
ĊåĮĹäº¬ æĹ©çĤ¹
èģĶèµĽ é¢Ħæµĭ
ĠJ ul
Ġag 166
ĊæĪĲéĥ½ åķĨæĬ¥
éĺ³ å¤©æ°Ķ
Ġå¹¸è¿Ĳ 28
è¿Ľ å±ķ
åįĹ æĸ¹
å¾· èİ±
ãĥ ¼
ĠåĪĺ ä¼¯æ¸©
ĠçĭĹä¸ĩ è´¦åı·
Ġåĩ¯åıĳå®ĺç½ĳçĻ»å½ķ èĭ¹æŀľçīĪä¸ĭè½½
ĠN ext
é¦ĸ çĽ¸
ĠÐ ²
è§¦ å¤´
Ċ æ¸©
ä¹ ¾
æĹ¶ ç©º
ĠæİĴ åĪĹ
Ġ2020-01 -19
èħ °
ãĢĳãĢĲ s
é£ŀ èĪ¹
åı£ éķĩ
ä¾¿ æį·
80 åĪĨ
Ġs itemap
éĵ¶è¡Į éªĮè¯ģ
Ġäºļæ¸¸éĽĨåĽ¢ æ³¨åĨĮ
ĠçľŁéĴ±æ£ĭçīĮ app
åľ° çĤ¹
ĠçľŁéĴ±æ£ĭçīĮ å®ĺç½ĳ
äºĭ å®ľ
as on
ä¸ĭè½½ èĭ¹æŀľ
å¤ª å¤ļ
Ġçº¿ä¸ĬçľŁéĴ± æ³¨åĨĮ
ĠåįĹ å±±
åĴĮ çĭĹä¸ĩ
Ġæľīä»Ģä¹Ī å¥½çļĦ
Ġä¸Ń è¶ħ
æĦ¿ æĦı
ãĢģ ä¸Ń
Ġå¤§åıĳç§ĴéĢŁ é£ŀèīĩ
ï¼ļ å¤§åıĳå½©ç¥ŀ
éĥ ¡
Ġäºļç¾İam8 å®¢æĪ·ç«¯ä¸ĭè½½
è¿İ æĿ¥
f ter
ĊçĥŃ éĹ¨
ĠçľŁéĴ±çº¿ä¸Ĭ æ¸¸æĪı
èĤ ©
é¤Ĳ å»³
Ċ2019-0 1
Ċ åĺī
ĠæŀģéĢŁ æİĴåĪĹ3
èĢģ çīĪ
çī¹ åĥ¹
bet365 å®ĺç½ĳ
çħ§ æĺİ
Ĉą Ĉ
ĠV ill
æ¸¸æĪı å®ĺæĸ¹ç½ĳç«Ļ
å®¢æĪ·ç«¯ å®ĺç½ĳ
zh ou
Ġ365æ£ĭçīĮ å®ĺæĸ¹
ĠçľŁéĴ±çº¿ä¸Ĭ æ³¨åĨĮ
ä¸į å¹¸
c olor
Ġæ¾³éĹ¨çľŁéĴ± é¾ĻèĻİå®ĺæĸ¹ç½ĳç«Ļ
ID 0g
é²¸ è´¢ç»ı
c d
IOS ä¸ĭè½½
Ġ Ćą
yabo 88
æĺ¯åĽ½å®¶çļĦ å½©ç¥¨åĲĹ
éĽ ģ
kb88 .com
å¤ļ å®¶
Ġ2018 ä¸ĸçķĮæĿ¯
Ġåĩ¯æĹ¶ ç½ĳåĿĢ
Ġçº¿ä¸ĬçľŁäºº ç½ĳç«Ļ
æĺ¯ å®ĺæĸ¹
H I
ĠagåĽ½éĻħäºļæ¸¸ å®ĺç½ĳä¸ĭè½½
ĠçľŁéĴ± ç½ĳç«Ļå¼ĢæĪ·
èĸ ĩ
Ġå¤§åıĳæŀģéĢŁ é£ŀèīĩ
ĠçľŁéĴ±æ£ĭçīĮ æľĢå¥½
åįĩçº§ 80åĪĨ
ĠçľŁéĴ±æ£ĭçīĮ æİĴè¡Į
æĢİä¹Ī åģļ
201 4å¹´
è·ĳ è·¯
Ġçº¿ä¸ĬçľŁäºº åįĩçº§80åĪĨ
äºĳ æ¸¯
æİ¨èįĲ ï¼ļ
Ġå®ŀ ä¹ł
33 3
ĠM ac
25 8
Ġçº¿ä¸ĬçľŁéĴ± èµĮéĴ±ç½ĳç«Ļ
èĤ Į
æ¸ £
åĪ¤ åĨ³
Ġ http
åľ¨çº¿ è¯Ħçº§
å¤ª ç©º
Ġ2018 -01
ë ĵ
æ³° åĽ½
åħ¨åĽ½ äººå¤§
åł µ
èĢĥ åı¤
çłĶç©¶ çĶŁ
15 0
ĊèĵĿ é²¸è´¢ç»ı
Ġæ¾³éĹ¨çĻ¾å®¶ è·¯åįķ
ĠçĭĹä¸ĩ æĬķæ³¨ç½ĳåĿĢ
7 00
ĊæĺŁ è¾°åľ¨çº¿
Ġæľīä»Ģä¹Īå¥½çļĦ æ£ĭçīĮå¹³åı°
ĠçľŁéĴ±æ£ĭçīĮ å¹³åı°
å¹³åı° |
æĮī ï¿½o
Ġçº¿ä¸ĬçľŁäººèµĮéĴ± ç½ĳ
ĠçľŁéĴ± åľ¨çº¿è¯Ħçº§
ĠçľŁéĴ±æ£ĭçīĮå¹³åı° å¤§åİħ
or th
D F
Ġçº¿ä¸ĬçľŁéĴ± ä¿¡èªīç½ĳç«Ļ
Ġï¿½éİıçĦ¯ï¿½918 æĹĹèĪ°ä¸ĭè½½
éĬ Ĩ
éĺ³ ç½ĳ
Ġæ¬§ æ´²
ãĢĤ å¥¹
Ġåĩ¯æĹ¶åĽ½éĻħ kb88.com
æķĪ æŀľ
Ġçº¿ä¸ĬçľŁéĴ± éĵ¶æ²³å¼ĢæĪ·
éĽ¶ åĶ®
ĠçľŁéĴ±çº¿ä¸Ĭ æĶ»çķ¥
æĮĩ æłĩ
à¹ Ħà¸
ĠçĭĹä¸ĩmb æıĲçİ°
Ġl ike
æīĭæľºç½ĳåĿĢ å¤ļå°ĳ
åģļ æ³ķ
å½ ¬
Ċ ä¹Ŀ
è¾ Ī
éĺ³ å¸ĤéĤ®ç¼ĸ
åĭ Ł
ID0g XCI
Y3Jpc HQ
æĺ¯ è¦ģ
Ġåĩ¯åıĳAGæĹĹèĪ°åİħ app
Ġäºļç¾İ ç½ĳåĿĢ
åĭ ¿
od y
åĽł ç´ł
ãĥ ³
æĻĤ å°ļ
æ¯Ķ åĥ¹
è¿ĩç¨ĭ ä¸Ńï¼Į
Ġ365betå®ĺç½ĳ çĽĺåı£
è¿ĳ æľŁ
éı Ī
Ġagäºļ éĽĨåĽ¢
æ¯Ķè¼ĥ å¥½
xp Y2
Y2 xpY2
Y2xpY2 su
Ġå¤§åıĳå¿«ä¸ī å¤§å°ıåįķåıĮ
ĠèµĮéĴ±çļĦè½¯ä»¶ çĤ¸éĩĳèĬ±
éĤĵ æŁĲ
Ġçº¿ä¸ĬçľŁéĴ± åľ¨çº¿
æı Ľ
Ġæ¾³éĹ¨çľŁéĴ± çº¿ä¸Ĭæ¸¸æĪı
ç»ıæµİ æĹ¥æĬ¥
Ġéĺ¿å·´åĺİ æĹĹ|
Ġäºļæ¸¸ æīĭæľºå®¢æĪ·ç«¯
åħ¬ ãĢĳãĢĲ
Ġéļ ¨
åĳ Ī
T -
è¬ Ŀ
è´¯ å½»
ĠçľŁäººçĻ¾å®¶å®¶ä¹Ĳ æīĭæľºçīĪ
æĬµ è¾¾
L G
æĶ¿ åĬ¡
ar m
éĺ³ åħ¬äº¤
ĠæĲıå¤©åłĤ918 æĹĹèĪ°ä¸ĭè½½
çī© è´¨
æĭĽåķĨ æĢ»ä»£
åįķåıĮï¼ļ çĸ¯çĭĤ
Ġy ear
ĠçĻ¾å®¶ä¹Ĳåľ¨çº¿ æ¸¸æĪı
ł éĻ¤
2 .5
2 F
ĠåĨ Ľ
è¶ĭ åĬ¿
Ġå² ©
Ċæ²³ åįĹ
çĳ ľ
E vent
ç¹ ³
Ð ¤
Ġä¸Ģ åĹ¨
ĠãĢĳãĢĲ b
éĺ³ å¸ĤåĮºåı·
ĠagçľŁäºº æīĭæľºæĬķæ³¨
æĬĬ æı¡
ĠæľĢç»ĻåĬĽåĪ©æĿ¥ èĢģçīĮ
Ġåĩ¯åıĳçĶµæ¸¸ æīĭæľºapp
Ġä¸ĢåĹ¨ ç§Łè½¦-
Ġåĩ¯åıĳæīĭæľº appä¸ĭè½½
è·¯éĢı ç¤¾
çī¹é©¬ç»ĵæŀľ |
éĤ®ä»¶ éªĮè¯ģ
Ġåĩ¯åıĳ æĬķæ³¨å¹³åı°
2019 -10
æ½ ĺ
ãĢĢ ãĢģ
re am
Ġp age
èµ ģ
t a
ä¸į çĶ¨
ĠåĽ½éĻħ agæĹĹèĪ°åİħ
Ġçī¹ é©¬
æħ Ī
ç½ĳç«Ļ æĬķæ³¨
Ġåĩ¯æĹ¶åĽ½éĻħ æľĢæĸ°åľ°åĿĢ
çĶ¨ä»Ģä¹Ī æµıè§ĪåĻ¨
å¿ĥ çĲĨ
ç¤¾ä¼ļ ä¸»ä¹ī
Ġè¿ ĳ
åĿļ å®ļ
è§Ĥå¯Ł èĢħ
Ġ???? ?
æºª éķĩ
æĹł è®º
æ© ¡
js 12
Ċ2020-02-2 2
ĺ Ĩ
er i
èµĦ æł¼
åĸ ·
ç½ĳç»ľ å¨±ä¹Ĳ
æ³ķ åºŃ
ĠçĭĹä¸ĩ å®īåįĵ
åĩ ī
é¢Ĩ è¢ĸ
æ¨ ĵ
åįķåıĮï¼ļ 2
Ċæłªæ´² æĸ°éĹ»ç½ĳ
ï¼Į ä½¿
çĽ¸ æ¯Ķ
ç§ĺ è¯Ģ
Ġw66åĪ©æĿ¥ å®ĺç½ĳå¹³åı°
çĽ´ éĶĢ
Ċ äº§åĵģ
ï¼ĮæĪĳ ï¼ĮæĪĳ
Ġåĩ¯åıĳ æīĭæľºçīĪapp
æĹ¥ åīį
r .
æ¡ ¶
Ċç¾İåĽ½ CNN
Ċ ä¸»é¡µ
çĻ¾ ä¹Ĳå½©
ĠC omment
æĪĺ äºī
æİ¢ ç´¢
ĠäºļæĲı appä¸ĭè½½
æĹ ģ
åĴĮ âĢľ
Ġå°Ĭé¾ĻäººçĶŁå°±æĺ¯åįļ appä¸ĭè½½
æķĪ çİĩ
Ġæĸ°èĳ¡èĲĦäº¬ å®ĺç½ĳ
æ±¡ æŁĵ
ç« Ĭï¿½
1 wv
ï¼ ı
ĠéŁ© å¼ı
åĵ ¦
åįķåıĮ _
ud io
ĠçľŁ æŃ£çļĦ
è¿ŀ äºĳæ¸¯
Ġçİ¯äºļ æĹĹèĪ°åİħ
Ġ" "
Ġå½© 61
ĠçĭĹä¸ĩ åľ°åĿĢ
ĠçĲ ĥ
font -
Ġåĩ¯åıĳçĶµæ¸¸ ç½ĳåĿĢå¤ĩçĶ¨çĻ»å½ķ
Ġthe y
å¹¿ æ³Ľ
ï½ ¼
Ġèħ¾è®¯ 1.5åĪĨå½©
ç¾İåĽ½ æĢ»ç»Łçī¹æľĹæĻ®
ĠæĿ ¿
iv es
Ħ ï¿½
Ċ ä»Ĭ
_å½©ç¥¨ éĤĢè¯·çłģ_
Ġ365æ£ĭçīĮæ¸¸æĪı è´¦åı·
Ġä¸º åķ¥
å©ļ ç¤¼
t he
Ġç«Ļéķ¿ å·¥åħ·
ä¸ĭ äºĨ
å·¥ èīº
Ġ" ";
Ġéķ ·
Mz M
çļĦ åıĳå±ķ
m .
è®°èĢħ ï¼ļ
åĭ ĭ
éĢģ ä½ĵéªĮéĩĳ
åĩº åľĭ
Ġæľª çŁ¥
Ġçī Į
åĽ½éĻħ èµĮåľº
ĠFR OM
èĻ «
æ³ķ è§Ħ
éĬĢè¡Į ä¿¡çĶ¨è²¸æ¬¾
Ġåĩ¯åıĳ å¹³åı°å®ĺç½ĳ
æıĲæ¬¾ éªĮè¯ģ
éĤ »
Ġ12 æĹ¶
åĬ© èµ¢
Ġa cc
ç³ĸ æŀľæ´¾å¯¹
Ġçİ°éĩĳç½ĳ appä¸ĭè½½
5 6
our ce
Ġåĩ¯åıĳå®ĺç½ĳ æ¬¢è¿İæĤ¨
ç¡® å®ŀ
ä¸ĢèĤĸ ä¸Ńçī¹
éĢģ éĩĳå¸ģ
ä½ľ ä¸ļ
Ġåĩ¯åıĳæ¸¸æĪı å¤§åİħ
çĢ¹ ï¿½
ĠâĢĶ âĢĶ
ãĢĳãĢĲ å·¥
Ġåĩ¯åıĳ å®ĺæĸ¹ä¸ĭè½½ç½ĳç«Ļ
äº¤ èŃ¦
/ 4
éħĴåºĹ >
ĊéĤ ¯éĥ¸
Ġthe ir
çī µ
ĠN ews
éĽ¶ ä»¶
Ġåĩ¯æĹ¶åĽ½éĻħ åħ±èµ¢åħ±æ¬¢ä¹Ĳ
c el
F lag
ä¸ĸçķĮæĿ¯ çīĪ
Ġåĩ¯åıĳæŃ£è§Ħ ä¸ĭè½½
éĩį è§Ĩ
çĽ® å½ķ
èµĮåľº å¨±ä¹Ĳ
çļ Ĩ
æĭī èĲ¨
ąĆćą ąć
Ġä¹Ŀ å·ŀ
Ġåįģ ä¸Ģ
ĠæĢİä¹Ī èģĶç³»
Ġ" urn:schemas-microsoft-com:office
ç´ Ķ
ä¸Ńåįİ äººæ°ĳåħ±åĴĮåĽ½
è¡¨ è¾¾
åıĺ æĪĲ
Ġåĩ¯åıĳ Ag
Õ¥ Õ
åĵªéĩĮ æľī
Ććą ąĆćąąć
Ġåĩ¯åıĳ è´¦åı·
Ġåĩ¯åıĳæīĭæľº é¦ĸé¡µ
Ġagå¹³åı° æľĢæĸ°çĻ»å½ķåľ°åĿĢ
Ġé«ĺ ä¸Ń
Ġåĩ¯åıĳçľŁäºº åľ¨çº¿
çľŁ çļĦåĲĹ
ĠagåĽ½éĻħäºļæ¸¸ å®ĺç½ĳçĻ»å½ķ
ĠÐ ¸
Ġé£ Ł
çºª å½ķ
Ġ365æ£ĭçīĮ çĶµçİ©åŁİ
ĊèĲ§å±± æĹ¥æĬ¥
æīĳåħĭ ä¹ĭæĺŁ
å¿«éĢĴ å°ıåĵ¥
ĠæĻ¯å¾· éķĩ
ç§ģ äºº
å®ĺæĸ¹ _
Ġåĩ¯åıĳä¸ĭè½½ è¿Ľåħ¥
Ġapp è¿Ľä¸įåİ»
è° Ĳ
å®ī å¤ĩ
k b
ä¼ļ ä¸Ĭ
Ċ2019 -8
Ġåĩ¯åıĳçĶµæ¸¸ æľĢæĸ°ç½ĳåĿĢ
Ċä¸īäºļ æĹ¥æĬ¥
Ġä¸ĩåįļapp æĢİä¹Ī
ãĢĤ ä»ĸä»¬
ro ll
Ġåĩ¯åıĳæŃ£è§Ħ åľ¨çº¿
Ġåĩ¯åıĳå®ĺæĸ¹ åľ°åĿĢ
ìĿ Ģ
ang u
Ġäºļç¾İåĽ½éĻħ ä¼ĺæĥłå¤ļä¸ĢçĤ¹
çĪ± å¿ĥ
çĽĳ å¯Ł
Ġåĩ¯åıĳæīĭæľº è¿Ľåħ¥
Ġåĩ¯8 å¨±ä¹Ĳ
888 bc
ç¬¬ä¸Ģ æĹ¶éĹ´
Ġå¤§åıĳäºĶ åĪĨéĴŁpk10
ç¥ ¸
Ġäºļç¾İ å¼ĢæĪ·
èĥ½ æīĵå¼Ģ
æ¦Ĥ çİĩ
æ´Ľ ä¼Ĳ
ï¼Į è¿ĺæľī
Ġç¬¬ äºĮ
ç§»åĬ¨ çīĪ
Ġæľ¬ æ¸¯åı°
æķĻèĤ² å±Ģ
5 å¹´
Ġåħ³äºİ æĪĳä»¬
ĠéĴ ±
æĢİä¹Īä¹° çĲĥ
æıĲä¾Ľ çļĦ
ĊæĹ©é¤Ĳ è¿ŀéĶģ
çľĭ åĬ¨çĶ»
èµĮåľº å®ĺç½ĳ
ĠçĶ³ åĭĩ
Ġ365ä½ĵèĤ² å¤ĩçĶ¨ç½ĳåĿĢ
Ġagåľ¨çº¿ å¹³åı°ç½ĳç«Ļ
å®īåħ¨ ä¸į
ç¨ į
è³ ½
æ´Ľä¼Ĳ åħĭ
y s
é£ ²
L S
è» Ł
æ¸¸æĪıå®ĺç½ĳ æ³¨åĨĮ
æĢİä¹Ī å¼Ħ
Ġåĩ¯åıĳåľ¨çº¿å¹³åı° ä¿¡èªī
Ġåĩ¯åıĳå®ĺç½ĳ å¤ĩçĶ¨
Ġåıĭ æĥħ
Ġé Ĭ
Ġh is
éĺ Ģ
éĵ ®
åľ°ä¸ĭéĮ¢èİĬåĢŁéĮ¢ èº«åĪĨèŃī
æŃ£ç½ĳ å¼ĢæĪ·
åī ©
Ġäºļç¾İag å¨±ä¹Ĳappä¸ĭè½½
1 ,
ĠåĪ©æĿ¥ å¨±ä¹Ĳ
çĶ» éĿ¢
åĽ½ ç½ĳ
å¼ ¦
u ang
Ġm omo
åįı å®ļ
éĿłè°± ä¸į
ĠçĭĹä¸ĩ çĻ»å½ķç½ĳåĿĢ
åı¯ä»¥ ä¸ĭè½½
Ġåįĥ èµ¢
ç§ĺ å¯Ĩ
/ çĸ¯çĭĤ
èĤ º
Ġäºļç¾İæ¸¸æĪı åĽ½éĻħå¹³åı°
Ġbet365 -ä½ĵèĤ²æĬķæ³¨
Ġäºļç¾İåĽ½éĻħ æīĭæľºçīĪ
Ċ çīĪæĿĥæīĢæľī
æĬ¥ ç½ĳ
Ġåĩ¯åıĳä¸ĭè½½ å¹³åı°
æķ° åŃ¦
æ¦Ĩ æŀĹ
Ġäºļç¾İç½ĳ ä¸ĭè½½
Ġj Query
a ir
Ġäºļç¾İç½ĳ å®ĺç½ĳ
Ġäºļç¾İ æ¸¸æĪıå®ĺç½ĳæ³¨åĨĮ
éĥ¨ ä»¶
ĠèµĮ çĲĥ
ner HTML
î ĭ
ĠW orld
ĠçĤ¹åĩ» æķ°ï¼ļ
c ount
Ġ1 .8
èĥ½æıĲçİ° åĲĹ
8 6
Ġæº ª
Ġè¢ «
Ġv al
Ġäºļç¾İ éĽĨåĽ¢å®ĺç½ĳ
äºº ä¸º
"). attr("
Ġagçİ¯äºļ å®ĺç½ĳç½ĳåĿĢ
Z W
d om
æĢ ĸ
ãĢĢ æĿ¥æºĲ:
Ġäºļæ¸¸ æīĭæľºå®¢æĪ·ç«¯ä¸ĭè½½
Ġè´ Ŀ
å¯» æ±Ĥ
ĠåĪ©æĿ¥èµĦæºĲ ç½ĳç«Ļ
æľĢå¿« å¼Ģå¥ĸç»ĵæŀľ
Ġå¤§ éĻĨ
æĻº åĪ©
æĺ¯ å¸¸
ĠåĮ »
Ġ00 :00
åĨĽ ç½ĳ
Ġs how
Ġå¤§åıĳäºĮ åĪĨéĴŁpk10
ãĢĤ åı¦
ip hone
äºĭ ï¼Į
Ċ æľŁæľĽ
ãĢĳãĢĲ é¢ĺ
çĥ ¤
Ġç½ĳä¸Ĭ èµĮåľº
æĢİä¹Īä¸ĭè½½ app
åįĹ äº¬
åĽŀ å®¶
ĠçĭĹä¸ĩ æīĭæľº
æĬ Ľ
åħ Ĩ
Ġæ¾³æ´²å¹¸è¿Ĳ 5
Ġ360 æĲľç´¢
ĠçŁ¥ ä¹İ
åľ¨ æĬ¼
Ġ10 åĪĨå½©
è¡ «
ä¸Ĭ åĳ¨
ĠçļĩåĨł å¼Ģåħĥæ£ĭçīĮ
ä¸Ńåįİ æ°ĳæĹı
ĸ ´
ç³ ľ
Ġ365æ£ĭçīĮ æīĵé±¼
ĠæĹ¥åįļ ä½ĵèĤ²åľ¨çº¿
â Ĵ
i se
Ġå½©ç¥ŀ8 å¿«3
äºº æĥħ
é» Ķ
ÖĢ Õ
æĳ©æīĺ è½¦
x x
Ġå¤§åıĳå¿«ä¸īæĺ¯ ä¸įæĺ¯
æĺİ çıł
ä¼Ł å¤§
æĸ Į
é«ĺæīĭ è®ºåĿĽ
èĭ¹æŀľ æīĭæľº
Ġsl iderImage1
is æŁ¥è¯¢
åľ¨æĬ¼ äººåĳĺ
¼ çºĮ
èµ· ï¼Į
å¹´ ä»¥ä¸Ĭ
ition al
à¸ ±à¸
å¥ ı
+ +
æŃ¦ åĻ¨
Ġs it
E C
æĬĢ èĥ½
ĠåķĨ åĬ¡
é£İ äºĳ
é Ī
Ġ1 .5åĪĨå½©
Ġé¦Ļæ¸¯åħŃ åĴĮ
% ï¼Į
Ġäºļæ¸¸ appä¸ĭè½½
ĠagçľŁäººåľ¨çº¿ ç½ĳåĿĢ
æĢİä¹Ī å®īè£ħ
Ġè¶³çĲĥ æ¯ĶåĪĨ
. 12
éĢģ éĩĳ
é¦ ¨
Ġå¤§åıĳåįģ åĪĨéĴŁpk10
Ċæ±Łè¥¿ æĶ¿åºľ
å°½ ç®¡
çļĦ é«ĺ
Ġagçİ¯äºļ å¹³åı°app
æĥ ¯
ĠçĭĹä¸ĩ æĺ¯ä»Ģä¹Ī
äºĮåħ« æĿł
918 æĹĹèĪ°åİħ
Ċ 365
å®ĺç½ĳä¸ĭè½½ å®īè£ħ
Ġtrue ,
æĻļ ï¼Į
ä¼ļ ä¸įä¼ļ
Ġwho isæŁ¥è¯¢
å¨±ä¹Ĳå®ĺç½ĳ ç½ĳåĿĢ
æ¸¸ æ£ĭçīĮ
Ġä¸ĩåįļ çĭĹä¸ĩ
ë ¦
ĠccåĽ½éĻħç½ĳæĬķ å®ĺç½ĳ
éĦ Ĥ
å¨ ĺ
æ±½è»Ĭ è²¸æ¬¾
a æİĴåĲį
åĪĨ åī²
Ġä¸´æ² Ĥ
ãĢĳãĢĲ å¸Ĥ
äº ©
æ°ĳ ä¿Ĺ
Ġæ¾³éĹ¨ å¨±
ĠæĤ Ł
éĵ¶æ²³ æīĭæľºç½ĳåĿĢ
Ġæ¾³éĹ¨å¨± éĵ¶æ²³æīĭæľºç½ĳåĿĢ
ä¹° æ¯ĶåĪĨ
.d isplay
2 åı·
ç¼ĸè¾ĳ åĻ¨
'). html
ä¼ĺ ç§Ģ
Ċ æ±ī
A I
Ġç§¦çļĩ å²Ľ
Ġäºļæ¸¸ æīĭæľºå®¢æĪ·ç«¯app
v s
ĠSt reet
ä¸¾è¡Į çļĦ
Ġç¾ ¤
ãĢĤ 19
Ġçİ¯äºļçĶµæ¸¸ å¹³åı°
çĵ ·
ĠSt ation
ç»ĵç®Ĺ æĹ¶éĹ´
ä¹ī åĬ¡
ä» ¿
Ċ2020-02-2 4
éĺ³ 30å¤©å¤©æ°Ķ
ä¸ĸ çĪµ
è§Ĥå¯ŁèĢħ ç½ĳ
æ¸ ł
éªĹ éĴ±
Ġal ex
æķĻ åŃ¦
ĠH ong
i Phone
åĪ¤ æĸŃ
Ġæ¸ħ éĻ¤
Ġ1.5 L
check ed
Ċ åŁŁåĲį
Ġag çľŁéĴ±
éĺ³ 15å¤©å¤©æ°Ķ
ç»ĻåĪ©çļĦèĢģçīĮ ç½ĳç«Ļ
å± Ī
äºĨ ä¸Ģä¸ª
ãĢĤä½Ĩ æĺ¯
Ċäººæ°ĳç½ĳ éĩįåºĨ
ä¼¼ ä¹İ
Ċ2019-12 -14
æĹ¥ éŁ©
åŃ¸ è²¸æ¬¾
çļĦ æĦıè§ģ
åĨľ çī§
Ġæ¾³éĹ¨åħŃä¼ļ å½©èµĦæĸĻ
å½ĵ ä»£
éĺ³ 10å¤©å¤©æ°Ķ
å¤©åłĤ èĪªæ¯į
201 4
åŃĲ åİ¿|
Ġå¼Ģåħĥæ£ĭçīĮ åľ¨åĵª
åĲİ æĿ¥
ç»Ĩ èĬĤ
çļ ĭ
æĦ ģ
å¤ĸåĽ´æĬķæ³¨ ç½ĳ
éĻ· åħ¥
éĢģ 50
è¾¾ åİ¿|
Ċ æĳĺè¦ģ
b r
Ġï¿½éİıçĦ¯ï¿½918 å®ĺæĸ¹
Ġ äºĨ
Ġsal e.
21 h
id th
å¤© 918æĹĹèĪ°åİħ
ern ame
Ġå¼Ģå¥ĸ ç»ĵæŀľ
æĢİä¹Ī æıĲæ¬¾
ĠæĲı å¤©918æĹĹèĪ°åİħ
Ċ2020-02-2 3
T $
P lx
å¤§åıĳå¿«3 è®¡åĪĴ
éĶĽ ï¿½ï¿½ï¿½
u o
aW 4
ë ¥
çª ©
åħįè´¹æĬķæ³¨ ä¼ĺæĥł
21h aW4
Ġo ther
åĴĮ æĹĹèĪ°åİħ
åħ ½
éĴ ®
çĨ± è³£
ĠæĲıå¤©åłĤ918 å¨±ä¹Ĳåľ¨çº¿
ĠçĻ¾å®¶äºĨ æ£ĭçīĮ
å®ĺæĸ¹çĻ»å½ķ å®¢æĪ·ç«¯
Ġbtt918 å®ĺæĸ¹çĻ»å½ķå®¢æĪ·ç«¯
Ġæ´ »
C ode
ĠçľŁäºº æ³¨åĨĮå¹³åı°
é¢Ħ æĬ¥
Ġä¸ĭ åįĪ
Ġç Ģ
Ġå ª
Ġp okerstars
é£ Ľ
æĦı è¯Ĩ
åıį åºĶ
Ġ ä»ĸ
æľª èĥ½
Ġ918æĲıå¤©åłĤ å¤©åłĤèĪªæ¯į
æĿ± è¥¿
3 45
èĢģ åŁŁåĲį
çľģ å§Ķ
ä¼ĺ è´¨
Ġalex aæİĴåĲį
å®¶ ãĢĳãĢĲ
ĠçĪ± åĲį
éķ¿ çļĦ
å¯¹æŃ¤ ï¼Į
ĊåŁŁåĲį ä»ĭç»įï¼ļ
_ t
Ġåĩ¯åıĳå®ĺç½ĳ é¦ĸé¡µ
ĠçĪ±åĲį ç±³éĵº
éĶĽ ï¿½ï¿½
Ġè¥¿éĥ¨ ç±³éĵº
Ġä¹° èĢģåŁŁåĲį
åįķåıĮï¼ļ 3
Ġçİĭä¸Ńçİĭ ä¸Ńçī¹
æīĢ å±ŀ
Ġæĳ ©
ç¯®çĲĥ å¤ĸåĽ´
çĹħ æ¯Ĵ
ĠåĲĮ ä¹ĲåŁİ
ĠæŃ£è§ĦçľŁäºº å®ŀä½ĵ
åĢį æµģæ°´
æĻ®éĢļ çĻ»å½ķ
å®ĺç½ĳç½ĳåĿĢ appçĻ»å½ķ
èµĽ ç¨ĭ
å¹³åı° çĻ»å½ķ
ĠæĲıå¤©åłĤ å®ĺç½ĳç½ĳåĿĢappçĻ»å½ķ
Ġåĩ¯åıĳ å¹³åı°ç½ĳåĿĢ
b b
Ċ2020-02-2 1
ä» °
Ģ à¸
åħ¬ç½ĳ å®īå¤ĩ
Ġbtt918 æĻ®éĢļçĻ»å½ķ
æľŁ è®¡åĪĴ
Ġéĵ ¾
æ³¨åĨĮéĢģ 365
s ite
Ġåĩ¯åıĳå¼ĢæĪ· é¦ĸé¡µ
çĶµ åĬ¨
Ġreserved. More
ĠS UV
_å½©ç¥¨ éĤĢè¯·çłģ
Ċ å®Ŀ
èĤ¯ å®ļ
Ġäºļç¾İåĽ½éĻħå¹³åı° çĻ»å½ķ
ĠæĤŁ ç©º
é«Ķ é©Ĺ
Ġ ä½į
Ċ2020-02-2 6
k a
. apk
Ċ2020-02 -20
Ġåĩ¯åıĳå®ĺç½ĳ æīĭæľºä¸ĭè½½
åŀ «
P W
æĻ ´
Ċä¸Ĭä¸Ģç¯ĩ :
çİ© å¤§åıĳå¿«ä¸ī
ed ia
èĥ ªï¿½
ç³ľ èĥªï¿½
ç³ľèĥªï¿½ å»ī
+P Fwv
å¿Ĺ åĭĩ
á Ģ
Ġï¿½éİıçĦ¯ ç³ľèĥªï¿½å»ī
p f
ĠæĤ ¨
m it
å¹´ ä»£
/ ä¸ī
æīĵ åĩ»
ech no
ä¸² æĬķ
ĠãĢĳãĢĲ0 ãĢĳãĢĲpãĢĳãĢĲxãĢĳãĢĲ;ãĢĳãĢĲ
Ġt itle
Ġ2019å¹´ 11æľĪ
ĠT o
è¿½ æ±Ĥ
11éĢīäºĶ å¼Ģå¥ĸç»ĵæŀľ
æ¥¼ ä¸»
æīĵçłģ éĩı
22270 .COM
çķ¥ ï¿½
50 8
app å¤§åħ¨
Ġbet365 æĹ¥åįļ
Ġè»Ĭ è²¸
Ġå® ĭ
c ãĢĳãĢĲ
æī¿ è®¤
åĮĸ å¸Ĥ
Ċ æĿ¨
ä¹¡ éķĩ
äº® çĤ¹
Ġèĭ± æĸĩ
å°ĳ éĴ±
Ġè³ ¼
Ġé«ĺ é¢ĳ
è®¼ çķ¥ï¿½
Ġç» ĵ
_ g
Ġ2017 -10
æĩ Ī
æĸĩæĺİ ç½ĳ
Ċ å¤®
ĠâĢ ķ
Ġh k
ä¼¤ å®³
çĪĨ çĤ¸
çİ ĸ
Ċ2020-02-2 5
Ġw66åĪ©æĿ¥ agæĹĹèĪ°åİħä¸ĭè½½
ĠçĭĹä¸ĩ å®ĺæĸ¹app
Ġ356bet æĬķæ³¨
å¸ Ĩ
in fo
Ġåĩ¯åıĳapp èĭ¹æŀľçīĪä¸ĭè½½
m ar
å²Ĺ ä½į
im age
ĠæĪ¿ è²¸
è¿ĺ åľ¨
ĠO ff
äºĮåĽĽåħŃ å¤©å¤©å¥½å½©
Ċä¸ľ èİŀ
æµ· åįĹ
ç½ĳç«Ļ è°ģæľī
ĠçĻ¾å®¶ä¹Ĳ æīĭæľºçīĪapp
ä¾¿å®ľ ,
èĻļæĭŁ è¶³çĲĥ
/ 12
äºĮèĥİ åĢŁæ¬¾
çĽĳ æµĭ
æīįèĥ½ èµ¢
Ñ ĭ
çİ© çļĦ
åįķåıĮï¼ļ 1
ä¿¡è²¸ åĪ©çİĩ
ĠåĲ Ħ
è¨Ĥ é£¯åºĹ
èµ¢éĴ± åĲĹ
î ĺ
Ġbet36 å¤ĩçĶ¨ç½ĳåĿĢ
æĿ¥ äºĨ
æľ¬ æ¬¡
Ġäºļæ¸¸ag 105
å°ıè¯´ ç½ĳ
LE D
Ġ365ä½ĵèĤ²æĬķæ³¨ æĹ¥åįļ
vi ew
Ġå¦Ĥä½ķ çĻ»å½ķ
ç´ ĵ
Ġå°Ĭé¾Ļ æīĭæľºç½ĳé¡µçīĪ
ä¸ľ éĥ¨
äº ¦
ĠæĽ ¼
åģļ åĩº
j g
Ċä¸» æ¼Ķ
å¸¸ å§Ķ
ĠJ un
èĶ ĵ
Ċ2019-12 -16
åºĨ ä½Ļå¹´
æľī éĹ®é¢ĺ
ic s
-- -
çĶµåŃĲ å¹³åı°
4 çłģ
èĢģçīĮ w66
èĢĥ çĶŁ
Ġa v
L ink
Ġå¤ĸåĽ´è¶³çĲĥ 365
/ 11
è¡¨ æ¼Ķ
ĠçľŁéĴ±æ£ĭçīĮ åı¯æıĲçİ°
å¤§å°ı _
Ċ å®ľ
c o
ãĢĳãĢĲ -ãĢĳãĢĲ
Ġå°Ĭé¾ĻäººçĶŁå°±æĺ¯åįļ æīĭæľºçīĪä¸ĭè½½
æº ĥ
Ġif(data =="
Ġt e
ĠAGçİ¯äºļçĶµæ¸¸ æĥ³èµļå°±è½¬
èĭ¹æŀľ æīĭæľºçīĪ
Ġb reak
ä¸» åĬŀ
åľ¨ ä¸Ģèµ·
j e
å®¶ å±ħ
ĠéĿ ł
å¨ģ å°¼æĸ¯
Ġæ±ķ å¤´
æķħ éļľ
å¾· æĸ¯
éĿĴå¹´ ç½ĳ
æ¡¥ éķĩ
ï¼Į å¦Ĥ
åħĥ é¦ĸ
").val ("");
ç¨³èµ¢ è®¡åĪĴ
Ġæ¯Ķ è¼ĥ
èŀį èµĦ
æŃ£ç½ĳ æ³¨åĨĮ
Ġtype :2,
è®¡åĪĴå¸Ī _
åįĥ ä¸ĩ
åįļå½© åħ¬åı¸
èĲ¥ åħ»
ä¸ĩåįļ ä½ĵèĤ²
å¼¹åĬ¾ çļĦ
Ġ ent
å§ĭ ç»Ī
ï¼ļ ä¸Ģ
Ġäº¤ åıĭ
æģ °
ĠéĤĵ å¿Ĺåĭĩ
K ey
Ġ2020-01 -20
l w
Ġagæīĭæľºå®¢æĪ·ç«¯ äºĮç»´çłģ
è°ĥæŁ¥ ï¼Į
åĴ ª
Ġæ¾³éĹ¨å¹³åı° appä¸ĭè½½
åĽ½ å¤ĸ
çĥ Ĥ
_ url
çį İ
r al
æĭ Į
ä½ı å®ħ
å¤§å¸Ī ièĭĹåĨĽ
Ġæ² Ĵ
Ġåĩ¯åıĳä½ĵèĤ² APP
Ġå¤§åıĳå¿«ä¸īæĺ¯ åĽ½å®¶
éļ¾ æ°ĳ
Ġå¤§åıĳæĹ¶æĹ¶å½© ç½ĳç«Ļ
app y
åŃĹ ï¼ļ
ä¸įèĥ½ åŃĺæ¬¾
èŃ ¯
as ia
ç½ĳä¸Ĭ å¨±ä¹Ĳåľº
¢ à¸
æ° Ľ
ãĢģ çİĭ
Ġ2017 -09
Ġæłĩ åĩĨ
ï¿½ D
éħ ĭ
Ġå¤§åıĳ èħ¾è®¯åĪĨåĪĨå½©
éĽ» åŃĲ
éĺ² æİ§
Ã ª
ä»İ æľª
è´¦åı· è¢«å°ģ
çļĦ ä¼ģä¸ļ
() );
ä¸¤ åĪ¶
æ¼ ³
Ġad d
ĠC N
ĠæĤŁç©º ç§Łè½¦-
åĳĬè¯ī è®°èĢħ
è© ¹
è½¦ ï¼Į
AG çİ°éĩĳ
é£Ł åłĤ
Ġå¤ĸåĽ´ bet365
Ġè´£ ä»»
Ġäºļ ï¿½_
éłĲ è³¼
Ġäºļç¾İag åĽ½éĻħåİħ
Ġåĩ¯åıĳ668 k8
Ġ365ä½ĵèĤ² å¤ĩçĶ¨
Ġa u
å¥¥ è¿Ĳ
é¦ĸé¡µ .
Ċ åĨħèĴĻåı¤
ï¿½ C
Ċ çĳŀ
ä¸Ńæĸĩ åŃĹå¹ķ
ãĢĤ åĲĮæĹ¶ï¼Į
Ġäºļæ¸¸ çĻ»åħ¥
Ġpro te
ç¶ ł
B cIiB
å¤§ å¹³åı°
é¢ ĸ
åĽŀ é¦Ī
åıĳçĶŁ äºĨ
å¨±ä¹Ĳå¹³åı° å®ĺç½ĳ
Ċ2020-03 -29
_å¤§å°ı è®¡åĪĴ
ĊçŁ³å®¶åºĦ æĸ°éĹ»ç½ĳ
å°ı ç»Ħ
| |
Ġå¤§ çĲĨ
Ġhg0088 çĤ¹
Ġhg0088çĤ¹ pr
ĊåįĹ æĸ¹ç½ĳ
åĮĹäº¬ åĨ¬å¥¥
âĢĶå¤§åıĳ å½©ç¥¨
æĹł ä¸į
çİ°åľº åİħ
èĪ Ł
èĪ Ī
Ġk8 æīĭæľºçĻ»å½ķ
ĠçīĽ çīĽ
æ¬ ł
å¿«ä¸ī å½©ç¥¨
Ġ365bet æĬķæ³¨
Ġå°Ĭé¾ĻäººçĶŁå°±æĺ¯åįļ app
åı°æ¹¾ å¤ĩçĶ¨ç½ĳç«Ļ
10 èĲ¬
éĲ µ
Ġäºļç¾İçľŁäºº å®ĺæĸ¹ç½ĳåĿĢ
Ġä¸ĩåįļä½ĵèĤ²app èĭ¹æŀľ
èģĮä½į :
l in
åĲĮ ä¸Ģ
ï¼ Ĺ
å¼Ģå¿ĥ å·Ŀéº»
ĊéĤ¯éĥ¸ æĸ°éĹ»ç½ĳ
æķĻ åŃ¸
æĵ Ĭ
Ġag çİ°åľºåİħ
å¥½çĶ¨ åĲĹ
Ġä¸ĩçĭĹ app
æ¸¸æĪıå¹³åı° ç½ĳåĿĢ
åħ¨ æĸ°
æ¤ ħ
Ċ åħŃ
å®ĺæĸ¹ æīĭæľºçīĪ
è°Ī åĪ¤
Ġäºļç¾İam8 çľŁäººæ¸¸æĪı
åħļ ç»Ħ
ç»ıæµİ æĸ°éĹ»
Class ("
æ£ĭçīĮ æįķé±¼
ĠæľĢè¿ĳ æĽ´æĸ°
id ate
ä¿Ŀ è²¸æ¬¾
æľĢæĸ°ä½ĵèĤ² å¤ĩçĶ¨ç½ĳåĿĢ
çİ©æ³ķ æĬĢå·§
Ċ 365ä½ĵèĤ²
ï¼Į çĶļèĩ³
Ċ2020-02-2 7
èĥĮ åĮħ
åľ¨åĵªéĩĮ ä¸ĭè½½
çİ°åľ¨ è¿ĺ
æĴ ĳ
ĊæľŁæľĽ èģĮä½į:
9 æĹ¥
åĲĮ æĦı
ç¬¬ åħŃ
Ġéĥ¨ éĹ¨
äºĨ ãĢĬ
ä¸Ģ æ®µ
æ·± åĮĸ
çİ° è±¡
ì ĭ
èµĶçİĩ æĢİä¹Īçľĭ
èī² çĲĥ
Ġpk10 äºĶçłģ
x 1
æ¨¡ æĿ¿
å¤§åŃ¦ ç«Ļ
Ġ365æ£ĭçīĮ ä¸Ńå¿ĥ
èī °
Ġåĩ¯åıĳæīĭæľº åľ¨çº¿
å®¡ æŁ¥
æ¸Ķ èĪ¹
p s
ç¼ĸè¾ĳ :
æ¯į å©´
âĨ Ĳ
.get Value
ĠãĢĬ 365æ£ĭçīĮãĢĭ
æķĳæĬ¤ è½¦
æŁ ¯
çº ¹
ic es
åĬĽ ãĢĤ
Ġ365ä½ĵèĤ²æĬķæ³¨ æĬķæ³¨
è¿ĺ èĥ½
Ġkb88 .com
åĽ¾ ä¹¦
å¥½ ï¼Į
Ċçī¹èī² æĹ©çĤ¹åĬłçĽŁåºĹ
Ġé¦Ļæ¸¯é©¬ä¼ļ èµĦæŀĵå¤§åħ¨
Ġè ¼
éŁ© å¼ı
U rl
å¾Ī åį¡
æĿĥ çĽĬ
å¨±ä¹Ĳ éĢģå½©éĩĳ
ĠçĶµ å½±
ain er
çº¦ åĲĪ
Ġæ¾³éĹ¨å¹³åı° æ³¨åĨĮéĢģ
åħ¨ æĺ¯
è² Į
Ġäºļæ¸¸æ¸¸æĪı å®ĺç½ĳä¸ĭè½½
äºĭ é¡¹
Ġæ±Łèĭı 11éĢīäºĶå¼Ģå¥ĸç»ĵæŀľ
ì ļ
å®ģ åİ¿
å®ŀ è·µ
åºĶ å½ĵ
æħ ĭ
åľ¨çº¿ä½ĵèĤ² èµĮåįļ
ãĢĳãĢĲ åĩº
å¤ ¹
å¥³ çĶŁ
LE CT
ĠåĪ©æĿ¥ å¤ĩçĶ¨ç½ĳåĿĢ
èĹ Ŀ
Ĥ à¸
ï¼Į åĲĦ
true ,
Ġçİ¯äºļ æīĭæľºå®¢æĪ·ç«¯
Ġæİ ¥
p g
ĠP C
Ċ2020-02-2 8
ad er
ãĢĳãĢĲ ä¸įãĢĳãĢĲ
çĽĺ ä»Ģä¹ĪæĦıæĢĿ
å¼º åĽ½
å°Ĩ çĸĳ
Ġå¾· åĽ½
å·¨ å¤§çļĦ
ai wan
ĠèĮĤ åĲį
Ġåĩ¯åıĳçľŁäºº é¦ĸé¡µ
å¤Ħ ç½ļ
Ċ æĸĩç«ł
çĥŃ çĤ¹
ĠæĢİä¹Ī æł·
Ġäºļæ¸¸éĽĨåĽ¢ æīĭæľºä¸ĭè½½
æģ ĭ
è²· è»Ĭ
Ġäºļç¾İ å¨±ä¹Ĳ
Ġé¢Ħ è®¢
å¾ ŀ
Ġæ±Łèĭı11éĢīäºĶå¼Ģå¥ĸç»ĵæŀľ åĽ¾
å¤§å°ı çĽĺä»Ģä¹ĪæĦıæĢĿ
Ġæº Ĳ
Ġæ¾³éĹ¨ç½ĳæĬķ å®ĺæĸ¹ç½ĳç«Ļ
Ġìŀ Ī
è± Ĳ
åįķåıĮï¼ļ ä¸ī
éĥ½ åľ¨
æ¶ĪéĻ¤ çĸŁçĸ¾
åħĥ ãĢĤ
ç´ĵ åĽ°
èħ ¿
çĶµ åĻ¨
ĠåĪ©æĿ¥ å¤ĩçĶ¨ç½ĳç«Ļ
çŁ Ľ
ĠåĲīæŀĹ å¿«3
Ġå®¢ æĪ¿
i er
i en
ĠB ar
èº« ä¸Ĭ
åĳ¨ è½ī
ä¾µ å®³
æİĮ æı¡
Ġå¼Ģåħĥæ£ĭçīĮ éĥ½æĺ¯
è½¬ è¿Ĳ
ĊèĴĻåı¤è¯Ń æĸ°éĹ»ç½ĳ
style .display
Ġ365 åħįè´¹
Ġä¸ĩåįļapp 2.0
èį ¡
Ċ åįĸ
Ġå°Ĭé¾ĻäººçĶŁå°±æĺ¯åįļ ä¸ĭè½½appåľ°åĿĢ
ĠæĿ¥æºĲï¼ļ æľªçŁ¥
Ġbet365 æĬķæ³¨
ï¼Į ä¿Ħç½Ĺæĸ¯
åı« ä»Ģä¹Ī
çĭ ¼
Ġä¿¡èªīå¥½çļĦ æ£ĭçīĮæ¸¸æĪı
ĠãĢĲ <ãĢĳãĢĲpãĢĳãĢĲ>ãĢĳãĢĲ
Ġåĩ¯åıĳapp æĿ¥å°±éĢģ
å¡Ķ å°Ķ
æľī äºĨ
ç¢ ĵ
Ġå½©ç¥ŀäºīéľ¸ å¤§åıĳå¿«3
ä¸ŃåĽ½ å®¢æľįçĶµè¯Ŀ
åıĳçİ° ï¼Į
æľįåĬ¡åĻ¨ ä¸Ģ
æº ĸ
åĨħ æĶ¿
Ċ äºļåįļ
èı łèıľ
Ġbest365 æĢİä¹Ī
ãĢĤ æĸ°åįİç¤¾
8 5
Ġ365æ£ĭçīĮ é¦ĸ
æıĲåīį ç»ĵæĿŁæĬķæ³¨
ãģ ®
Ċæµ· åı£
ç²¾éĢī æĸĻ
èµ· è¯ī
æī¿ æĭħ
Ġåĩ¯åıĳçĶµæ¸¸ çľŁäºº
å¤ĸ çļĦ
( this
Ċ åįģ
åıĹ è®¿
un d
Ċ2020-04-0 5
Ġåİ ¿
ĠæĹ¥åįļ ä½ĵèĤ²æĬķæ³¨
aur ant
æĭ ¦
å¢ŀ è²¸
åĽ½éĻħå¹³åı° æ¸¸æĪı
Ġ???? ????
ĠçĭĹä¸ĩ è¶³å½©
å·¥ åķĨ
Ċéķ¿ æ²Ļ
a w
ï¿½ \
Ġç¯ ®
ï¼Į ä¸Ķ
Ġäºļç¾İ appä¸ĭè½½
å¢ Ĭ
éĤ£ä¸ª æĺ¯çľŁçļĦ
æ¯ı çªģ
Ð¤ è®¼çķ¥ï¿½
æ¯ıçªģ Ð¤è®¼çķ¥ï¿½
Ġ918ï¿½éİıçĦ¯ æ¯ıçªģÐ¤è®¼çķ¥ï¿½
è·¨ å¢ĥ
aãĢĳãĢĲ dãĢĳãĢĲ
åľ°åĮº åĮºåı·
Ġå¼Ģåħĥæ£ĭçīĮ ä¸īåħ¬
æ£ĴçĲĥ æ¸¸æĪı
äºĮ äºº
æķ°æį® çĽ´æĴŃ
åľ°åĮº éĤ®ç¼ĸ
è¾ ²
åº· å¸Ĥ|
åıįåħ´å¥ĭåīĤ æľºæŀĦ
æŃ£è§Ħ ç½ĳ
j ect
åĩł ä¸ĩ
, ãĢĳãĢĲ
ĠçĶµåŃĲæ¸¸æĪı æīĭæľº
åŃľ åİ¿|
ĊæµİåįĹ æĹ¥æĬ¥
ĠE d
7 1
Ċè¥¿ å®ī
å·´ åİ¿|
Ġäºļç¾İ app
éģ Ĥ
ï¼ Ĳ
iOi I
ä¸ ĺåİ¿|
åİŁ å¸Ĥ|
åĽ¾ æĸĩ
çĶŁ ãĢĳãĢĲ
åĲį åįķ
Ġé»ĺè®¤ åĪĨç±»
æīĭæľºçīĪ ç½ĳåĿĢ
2 åĪĨéĴŁå½©
å¡ĳ æĸĻ
èĪ¹ åĳĺ
çº³ ç¨İ
Ġè¨Ĥ æĪ¿
å®ŀ è¡Į
èį£ åİ¿|
åĮĹ åİ¿|
Ġbest365 æıĲæ¬¾
Ġ918ï¿½éİıçĦ¯ï¿½ appä¸ĭè½½
å§ ľ
æĪĲ æŀľ
ä¹ĭ çªĹ
æľī å¤ļå°ĳ
æĺ¯ éªĹäººçļĦåĲĹ
è© ŀ
Ġæ²³åĮĹ å¿«3
æĬ¥ ä¸ļ
åıĤ è®®åĳĺ
ç©º è°ĥ
ä½ı æĪ¿
æİ¨ ç®Ĺ
ĠN o
èĢ ¿
Ġå¼Ģåħĥæ£ĭçīĮ éĢıè§Ĩ
ç¦ º
å½©ç¥¨ å¹³åı°æ³¨åĨĮ
Ċ2020-04-0 1
æĿİ åĪ©
åĿª åİ¿|
ä¸ī çłģ
éģİ ä»¶
Ġçİ »
ãĢĳãĢĲ âĢľãĢĳãĢĲ
Ġå®¶ è£ħ
è¯ķçİ© å¹³åı°
ï¼Įè¿Ļ ä¸Ģ
2012 å¹´
ãĢĳãĢĲ åıĳãĢĳãĢĲ
åģ¥ èº«
è¥¿ å¸Ĥ|
ãĢĳãĢĲ ï¼ļ
Ġ ĆćąąĆćąąć
Z E
ä¿¡ :
ĠçĻ¾å®¶ä¹Ĳ æ£ĭçīĮ
ot a
é ®
ĠåİŁ åĪĽ
5 20
ĠåĮħ å¤´
ä¼ļ æīĢ
Ċä¸ĭ ä¸ĢæĿ¡
Ġåı Ĥ
åĳ¼ ä¼¦è´Ŀ
Ġäºļæ¸¸å®ĺç½ĳ ç½ĳé¡µçīĪ
Ġçº ¦
è°· åİ¿|
ĠçĨ ±
æĿİåĪ© å¨Ł
æł ĭ
Ġ0.0 L
åĲī åİ¿|
ĠèİĨ çĶ°
åŃĲ æĻļæĬ¥
ä¸Ģ å¯¹
bt n
çĶ¸ åİ¿|
åį³æĹ¶æ¯ĶåĪĨ ç½ĳ
æĺİ åİ¿|
i ]
Ġê ²
ä¸Ńçī¹ åħįè´¹èµĦæĸĻ
åĳ¼ä¼¦è´Ŀ å°Ķ
âĢ ¢
éĹ ¹
æĻ¯ é»ŀ
m y
f or
éļ ª
ĠéĦĤå°Ķå¤ļ æĸ¯
Ġä¸ĩåįļ å¨±ä¹Ĳ
- >
te l
ãĢĤ å¯¹äºİ
åįļ å£«
éĤ®ä»¶éªĮè¯ģ ä¸įäºĨ
re turn
å½±åĵį ï¼Į
èº« äº¡
ä» ²
ĠåĲ İ
ĠæĿ ī
å£° éŁ³
æī ĩ
æ³¨åĨĮéĢģ38 5
ä»¥ âĢľ
Ġåĩ¯æĹ¶ ç½ĳç«Ļ
æľĢåĩĨ ä¸ĢèĤĸä¸Ńçī¹
å¡ ĺåİ¿|
Ġç¨ ³
-d ialog
Ġå°Ĭé¾Ļd88 æīĭæľºçīĪå®ĺç½ĳ
æ³ ³
åĪ· æ°´
ĠM e
ä¹¡ å¸Ĥ|
ĠçľŁéĩĳ æ£ĭçīĮæįķé±¼
è»Ĭè²¸ åĪ©çİĩ
åī¯ ä¸»ä»»
ĠSe p
å¿ħ éĢīä¸ĢèĤĸ
Im h0
Ġæ¾³éĹ¨å¹³åı° å¤§åħ¨
Ġ2020-03 -28
r u
ĠåĪ©æĿ¥åĽ½æłĩå¨±ä¹Ĳ èĢģçīĮw66
æľĢæĸ° å¤ĩçĶ¨
æĬ¥ æ¡Ī
çĽ¸ å¯¹
å¹³åı° å¤§åħ¨
âĢľåĮĹæºª -2âĢĿ
Ġæ·® åĮĹ
éĵ Ń
Ġåıĭæĥħ è¿ŀæİ¥
Ċ äºļ
èµĦæŀ ĵ|
à ¦
ĠåĪ©æĿ¥åĽ½ äº§
ì Ĭ
å¼ķ çĶ¨
à¹ ĥ
Ġ Ĉć
ĠåŃĹ ä½ĵï¼ļ
éī´ å®ļ
24 å°ıæĹ¶
ç«ĭ åľº
æĪĲ å®¶
èī ³
æĢİéº¼ è¾¦
le ase
èĥľ åĪ©
æĪĳ åĢĳ
Ġå°Ĭé¾Ļd88.com ç½ĳä¸Ĭæ³¨åĨĮ
æ´Ĺ è¡£
se s
å¹³åı° å¼Ģåı·
ï¼Į å¯¼èĩ´
è¨Ģ è®º
èĢħ çļĦ
æī¾ä¸įåĪ° çĽ´æĴŃ
Ġof f
ä¼ĺæĥł æ´»åĬ¨
å¼Ģä»Ģä¹Ī çī¹é©¬
Ġin t
æĽ¾ éģĵ
ä¹ħ ä¹ħ
æĺ¯ éªĹå±Ģ
Ġäºº æ°Ķ
èī¯ å¥½çļĦ
èĩ Ģ
ä¸½ åªĽ
æīĭæľºæĬķæ³¨ å¼ĢæĪ·
Ġè®º åĿĽ
è§£éĻ¤ éĻĲåĪ¶
ou th
nbsp ;
ĠCCåĽ½éĻħ ç½ĳæĬķ
çµ Ĥ
èı łèıľäºº
Ċ2020-04-0 4
åĪĨåī² #
_ h
Ġ365æ£ĭçīĮ åĬł
Ġå°±æĺ¯ è¯ĪéªĹ
å½ °
Ġs pe
èĪ Ĩ
Ġé¦ ¬
ĠçĭĹä¸ĩ å®ĺç½ĳåľ°åĿĢ
wid th
ĠA ug
æłĩé¢ĺ åĪĨåī²#
å¿«éĢŁ æĴ¥æ¬¾
éķ¿ æĺ¥
Ġì ł
ĠåĽ½éĻħ åİħ
åįĬ æľĪ
Z y
åĤµåĭĻ åįĶåķĨ
èµĦ äº§
Ġè ľ
Ġè¶³çĲĥ æ¯ĶåĪĨçĽ´æĴŃ
Ġag æīĭæľºçīĪ
2YX I
Ċåıĭæĥħéĵ¾æİ¥ :
Ġa j
å µ
åħį æīĭç»Ńè´¹
åĬł å¤§
çķ¶éĭª æ©Łè»ĬåĢŁæ¬¾
è¡Įä¸º ï¼Į
æĸ¯ æ´Ľä¼Ĳåħĭ
Ċ æĽ´æĸ°
ç¿» å¢Ļ
æħ İ
æ¸¸ çİ©
Ġä¸ĵ é¢ĺ
ĠåĢ Ł
ĠH ome
Ġw ere
Ċ2020-03 -30
ï¼Į ç»Ļ
äºĮèĥİ è²¸æ¬¾
æ±Ł å¸Ĥ
Ġä¸ĩåįļ åħ¨ç«Ļ
Ġd88å°Ĭé¾Ļ AGæĹĹèĪ°åİħ
è§£ å°ģ
çł Ĥ
Ġ3 D
æ³¨éĶĢ åĲĹ
Ġ2019-11 -22
Ġäºļæ¸¸éĽĨåĽ¢ æĹĹèĪ°åİħ
Ġåĩ¯åıĳag ä½ĵèĤ²å¹³åı°
Z j
ml http
æ´»åĬ¨ ï¼Į
Ġå¥½ çĶ¨
ĊæĿ¥æºĲï¼ļ ä¸ŃåĽ½
åī ª
Ġå¤§åıĳ äºĳ
ĠæĢİ æł·
Ġå®ĺç½ĳ 4799çĤ¹c0m
Ġbeat365 å®ĺç½ĳ
çİ¯ èĬĤ
ï¼Į æ¾³éĹ¨
ĠW est
åĪ°è´¦å¿« ä¹Ī
Ġè· ĳ
éĺŁ ä¼į
c 2
Z2 h0
æ± ª
09 æĹ¥
Ċ2020-04-0 2
èµĦæĸĻ åĽ¾
2010 å¹´
éĥ¨åĪĨ åľ°åĮº
å®³ äºº
c z
èĹ ī
æľĢåĩĨä¸ĢèĤĸä¸Ńçī¹ åħ¬å¼ĢéĢīæĸĻ
çİ© å¼Ģåħĥæ£ĭçīĮ
t n
up er
Ġbt365 æıĲæ¬¾
} );
Ġå¤§åıĳ éŁ©å¼ı
ë¡ ľ
å¤ļ å¹´
Z A
åĦªæĥł ,
ĠæĿ Ģ
Ċ éĿĴå²Ľ
246 ç²¾éĢīèµĦæĸĻå¤§åħ¨|
Ġäºļç¾İ å¤ĩçĶ¨ç½ĳç«Ļ
ä»£çĲĨ ç½ĳ
X 2
Ġå·´é»İ äºº
ĠåĪ©æĿ¥ ä¸ĭè½½
åıĳ èµ·
Ġ365ä½ĵèĤ² ç½ĳåĿĢ
ç½ĳç»ľ è¶³çĲĥèµĮåįļ
Ġåĩ¯æĹ¶ ä¸ĭè½½
Ġ4 00
å¤© ç©º
Ċ åħ´
æĶ¯ä»ĺ è´¦åı·
Gl t
Ġ .co
ç¾İ å®¹
æİ§åĪ¶ åľ¨
ĠY P
åªĴ ï¼ļ
ĠQ P
æ± ģ
ç»´ äºļ
æľĢåĩĨä¸ĢèĤĸä¸Ńçī¹åħ¬å¼ĢéĢīæĸĻ 1|
ä¸Ģ ä»½
éį Ĭ
å®ĺæĸ¹å¼ĢæĪ· ç½ĳ
(' .
ãĢĳãĢĲ2ãĢĳãĢĲ 0ãĢĳãĢĲ
Ġéĵ¾ æİ¥
æ¶ µ
å°± åı¯ä»¥
one y
ç½ĳä¸Ĭ å¨±ä¹Ĳå¹³åı°
å¾ģ å©ļ
_åįķåıĮ è®¡åĪĴ
Ġäºļæ¸¸app èĭ¹æŀľä¸ĭè½½
æ¶ī äºĭ
pc L
pcL 1wv
å®ĺ åħµ
ĠéħĴ æ³ī
çľ ¾
Ġpk10è®¡åĪĴ å¤§å¸ĪièĭĹåĨĽ
èµĮ éĩĳèŀį
. g
Y ou
åĽ½ èµĦ
çŁ³ æ²¹
cclxu X
Ġæ¾³éĹ¨ç½ĳæĬķ å®ĺç½ĳ
èĥ½ åĲ¦
ãĢĬ åºĨä½Ļå¹´
ĠKing dom
Ċ å¨
å¹³åı° æĢİä¹Īæł·
Ġé«ĺé¢ĳ å½©å¤§åıĳå¿«ä¸ī
éĽħ éĺģ
éĢģå½©éĩĳ æľīä»Ģä¹Īè¦ģæ±Ĥ
ç¡ ħ
he ight
å¸Ĥ åł´
Ġè´¢ ç»ı
çķĮ ç½ĳ
p le
Ġäºļç¾İçĶµæ¸¸ ä¸ĭè½½
å¤§åıĳå¿«ä¸ī è®¡åĪĴ
Ġå°Ĭé¾Ļå®ĺç½ĳ å¼ĢæĪ·
æľī èµļéĴ±çļĦ
äºº æĿĥ
s er
Ġbet365ä½ĵèĤ² å¹³åı°
é¡¾ éĹ®
ar am
ï¼Į ï¿½
å»¶ è¾¹
Ġè©ķ åĥ¹
å°ĳéĴ± ä¸Ńå¤§å¥ĸ
Ċ æĹ©é¤ĲåºĹåĬłçĽŁ
æł¼ åħ°
ä¸¥ ç¦ģ
åĳ½ è¿Ĳ
Ġ365bet æĹ¥åįļ
Ġå¤§åıĳ åĮĹäº¬
ĊéĽĦå·ŀ æĹ©é¤ĲåĬłçĽŁ
Ġäºļæ¸¸appéĽĨåĽ¢ ä¸ĭè½½
_app éĤĢè¯·çłģ_
å¤©çĦ¶æ°Ķ ç®¡éģĵ
ä¼ł æī¿
ĠæĦı å¤§åĪ©
ä¸į æĩĤ
A C
Ġæīĭæľºäºļæ¸¸ appä¸ĭè½½å®īè£ħ
æ¸¸æĪı å¼ĢæĪ·
_å¤§å°ı è®¡åĪĴ_
Ġ( data
ä»ĺ è´¹
è±ª åįİ
Ġth ere
ļ åĲį
.... ....
av a
èŃ ľ
é©¾é©¶ åĳĺ
Ċ å¯¼
ĠCPåĢ¼ ,
³ æĥħ
é¤ Ĭ
Ġ19 97
Ġå¤ĸ åĽ½çļĦ
åį ¸
ĠäºļæĲıä½ĵèĤ² å®ĺç½ĳ
Ġåĩ¯åıĳå½©ç¥¨ ç½ĳåĿĢ
å±¥ è¡Į
Ġå»Ĭ åĿĬ
æµł ï¿½
è¥¿ å·ŀ
çĲĥæİ¢ è¶³çĲĥæ¯ĶåĪĨ
ä¸įèĥ½ è½¬è´¦
u ZX
R O
Ġ1 88
æľī ä¸Ģä¸ª
Ġe xp
æĻ¯ åĮº
æ³ ª
íķ ľ
ä¸Ģ åı·
æĻ¨ æĬ¥
ĠãĢĲ åĬł
æľį è£ħ
Ġäºļç¾İåĽ½éĻħ å¼ĢæĪ·
5 3
è¿½ æĿĢ
y n
å¼ķ å¯¼
Ġå¤§åıĳ PK10
è¡¨ ï¼Į
æĶ¯ éĺŁ
çļĩ å®«
ĠéĤ¢ åı°
åİŁ ç½ĳ
Â »
ä¸Ń åįĪ
ç¼ĸ åı·
æľĢæĸ° å¤ĩçĶ¨ç½ĳç«Ļ
ĠZ h
å¦ ¹åŃĲ
æ·· åĲĪ
ĠèĵĿæľĪäº® 246ç²¾éĢīèµĦæĸĻå¤§åħ¨|
ç»ĵ å©ļ
ä¿¡æģ¯ æ¸¯
èª ²
Ġäºļæ¸¸éĽĨåĽ¢å®ĺç½ĳ ag0226
ĠçĶµçİ©åŁİ æ¸¸æĪı
çĩ Ī
Ġèĭ¹æŀľ æĢİä¹Īä¸ĭè½½
Ġå¢ ŀ
11 æĹ¥
åħ Ķ
HER E
Ġbt365 ä½ĵèĤ²
è¯¦æĥħ ]
Ċ2020-04-0 6
èīºæľ¯ åįļçī©é¦Ĩ
Ġè§Ĩé¢ĳ -
Ġå¼ķ çĶ¨
çĽ´æĴŃ ç½ĳ
Ġéĸĭç®± æĸĩ,
T o
Ġåŀĭ åı·
Ċ2020-02-2 9
Ġäºļç¾İam8æ³¨åĨĮ å¤ĩçĶ¨ç½ĳåĿĢ
Ġé¦Ļæ¸¯ æľĢåĩĨä¸ĢèĤĸä¸Ńçī¹åħ¬å¼ĢéĢīæĸĻ1|
åįİ çĽĽé¡¿
dH lw
Ġâ Ī
å°ĳ å¥³
Ġ6up æīĳåħĭä¹ĭæĺŁ
pb W
æľ¬ æĸĩ
Ġç» ¼åĲĪ
åľ¨ æŃ¤
Ċ éŀŃçīĽå£«
è¿ħ éĢŁ
å®³ æŃ»äºº
ä»į åľ¨
ä¸Ģ åĪĩ
å·¦åı³ ï¼Į
Ġ918 æ£ĭçīĮæ¸¸æĪı
ãĢĳãĢĲ æĿ¥
å¦ ¨
Ġæ¾³éĹ¨çľŁéĴ± ç½ĳæĬķ
Ġå¤§åıĳ ä¸ľäº¬
hv Y2xpY2su
uZX hvY2xpY2su
uZXhvY2xpY2su Y29t
ç½ĳé¡µçīĪ å®ĺç½ĳãĢĳ
Ġbt365 æīĭæľº
Ġæ¾³éĹ¨çľŁéĴ±ç½ĳæĬķ åħ¥åı£
é©» é©¬
åĤ³ æĴŃ
ĠéĹ¨ éĿ¢
çº¿ä¸Ĭ çľŁéĴ±
è¡¨ åĨ³
éĺ³ éķĩ
è® ½
æĿ¡ çº¦
z Y3JpcHQ
è£ ¤
Ġç«ŀ çĮľ
dHlw ZT
Ġ error
èģĶåĲĪ ä¼ļ
Ġäºļç¾İçľŁäºº appä¸ĭè½½
ĠçĮ ĩ
ä¸Ģ äºº
Ġåĩ¯æĹ¶kb88 å®ĺç½ĳ
Ġäºļç¾İåħ¬åı¸ å®ĺæĸ¹ç½ĳç«Ļ
ä¸Ģ åĪĨå¿«ä¸ī
çĶŁ æ¶¯
ĠåĽ½ äº§
Ġd k
çī¹åĪ«è¡ĮæĶ¿ åĮºæĶ¿åºľ
Ġå½° åĮĸ
å®ĺç½ĳä¸ĭè½½ æīĭæľºçīĪ
ĠçľŁäººçĻ¾å®¶å®¶ä¹Ĳ å®ĺç½ĳ
è¦ º
ĊçĥŃ æĲľ
w o
/ äºĶ
æ¬§æ´²æĿ¯ è¶³çĲĥ
Ġæ±½ è»Ĭ
æıĲä¸įäºĨæ¬¾ æĢİä¹ĪåĬŀ
å¿« è®¯
ĠåĪ©æĿ¥ å®ĺç½ĳçĻ»å½ķ
æĹłæ³ķ çĻ»å½ķ
æĮ ĸ
é£Łåĵģ å®īåħ¨
Ġ365æ£ĭçīĮ å¦Ĥä½ķ
Ã ¨
Ġåħ Ī
ä¸Ń ä¸ľ
èĸ ¯
ç³» çµ±
ang hai
ç§Ł èµģ
t xt
åĿ ¤
Ġå¤§åıĳå¿«ä¸ī å®ĺæĸ¹
å·¥ åİĤ
æĮī éĴ®
Ġäºļæ´² åŁİ
_å®ĺæĸ¹ éĤĢè¯·çłģ
å®ĺç½ĳ |
åįĢ èŃīä»¶åĢŁæ¬¾
åĽº å®ļ
Ġä¸ī åĲĪ
Ġw66åĪ©æĿ¥ å®ĺç½ĳåľ°åĿĢ
ri m
ag er
Ċ Home
åħĭ Â·
Ġçı ¾
Ġå¥ Ķ
å½©ç¥¨ æ³¨åĨĮ
Ġsuccess :
Ċ æĿ¾
ĠçļĩåĨł çº¿ä¸ĬçľŁéĴ±
p ass
å¹² æ¶ī
ĠHotel )
Ġè©ķ éĳĳ
Ġ365ä½ĵèĤ² app
ä¸īä¸²ä¸Ģ åĲĹ
åı¯ä»¥ä¹° ä¸īä¸²ä¸ĢåĲĹ
Ġp er
ä¸ĵ çĶ¨
Ð ¼
ĠçĮĩ äºŃ|
1 b
ä¸ĸçķĮæĿ¯ è¶³çĲĥ
ç¢ĵ çŁ
ĠçľŁäººçĻ¾å®¶ä¹Ĳ å®ĺç½ĳ
Ġäºļç¾İ å®ĺç½ĳapp
å®Ŀ éĺģ
å¤§ åŃ¸
ĠO ne
Ġ obj
ĠçļĩåĨł bet365
- C
Ġ ä½ľ
à¹Ī à¸²à¸
Ġt op
N X
Ġèµ¤ å£ģ
sl and
ĠæĬķèµĦ åĬłçĽŁåºĹ
Ġå¼Ģåħĥæ£ĭçīĮ ç½ĳåĿĢ
¼çºĮ éĸ±è®Ģ
ä¼Ĭ æľĹ
ĠæĲı å½©ç½ĳç«Ļ
Ġä¸ºä»Ģä¹Īä¸ĩåįļ +app
Ġåĩ¯åıĳ æĬķæ³¨
2 åĲį
åŁİå¸Ĥ æĮĩåįĹ
m ãĢĳãĢĲaãĢĳãĢĲ
Ċ æĹ¥æľ¬
ĠW HERE
çĻ¾å§ĵ ç½ĳ
Ġé½Ĳé½Ĳ åĵĪå°Ķ
Ċ è´µ
è¶³å½© app
_æ³¨åĨĮ éĤĢè¯·çłģ
Ġä¸´ æ±¾
ĠU SB
Ġæ¯Ķè¼ĥ è©ķæ¯Ķ,
Ġèģ ¯
Ġå°Ĭé¾ĻäººçĶŁå°±æĺ¯åįļ æīĭæľºapp
å¯Į æ¸ħ
Ġé į
Ġä¹ ĭ
å¼ł å¯Įæ¸ħ
Ġå®Ŀ é¸¡
éģĭ åĭķ
Ġwww. k8.com
å²ģ ãĢĤ
Ċ2020-03 -31
ĠèĵĿæľĪäº® ç²¾éĢīæĸĻ
Ġäºļæ¸¸ag 8
2 R
ãĢĳãĢĲiãĢĳãĢĲnãĢĳãĢĲ gãĢĳãĢĲ
éĢ± è½ī
ä¿¡åı· æºĲ
ver y
é¦ĸ ä¸ļ
æ¯ĶåĪĨçĽ´æĴŃ ç½ĳ
ãĢĳãĢĲ æĹ¶
Ġ2018 -08
é¢Ħæµĭ ç½ĳ
äºĮ ä¸ī
Ġ365æ£ĭçīĮ åı¯ä»¥
å½© å¨±ä¹Ĳå¹³åı°
ä¸ĭæ³¨ ç½ĳç«Ļ
ä¿¡çĶ¨ ä¸įèī¯
æ® ĸ
in ed
ĠæŀģéĢŁ PK10
Ġå¤§åıĳå¿«ä¸ī å¼Ģå¥ĸç»ĵæŀľ
åĵªä¸ª æµıè§ĪåĻ¨
ĠæŃ£è§Ħ æ£ĭçīĮæ¸¸æĪıå¹³åı°
Ġagäºļ å®ĺç½ĳ
âĢĿ æĺ¯
æĹ¥ï¼Į åĽ½å®¶ä¸»å¸Ńä¹łè¿ĳå¹³
Ġéĵ¶è¡Į ä¸įèĥ½è½¬è´¦
åıĤ è§Ĥ
æīĢ è°ĵ
ĠD i
Ġå°Ĭé¾ĻãĢĲ ç½ĳé¡µçīĪå®ĺç½ĳãĢĳ
çħ Į
è®¾ç½® æķ°åŃĹ
è®¾ç½®æķ°åŃĹ èµĶçİĩ
Ċ åħ°
Ġäºļæ¸¸ ä¸ĭè½½
Ġ918æ£ĭçīĮæ¸¸æĪı å®ĺæĸ¹ä¸ĭè½½
åĬł è½½
èĤ² åĦ¿
ĠAGçİ¯äºļ æīĭæľºçīĪ
ĠçľŁäºº æ¾³éĹ¨
åľ°åĿĢ :
Ċç¦ı å·ŀæĸ°éĹ»ç½ĳ
Ġä¸Ĭæµ· 11éĢī5
Ġ365å¤ĸåĽ´ æĢİä¹Ī
èĩ Ń
è¥¿ åħ°
Ġæ Ĵ
ç½ĳç«Ļ éªĹå±Ģ
å®īå¿ĥ æĪĲå®¶
Ġ356bet çĽĺåı£
, .
çİ°åľ¨è¿ĺ å®īåħ¨åĲĹ
ĠAGçİ¯äºļ å®ĺç½ĳ
Ċ2020-04-0 7
Ġbte365 å®ĺç½ĳ
åīį æĻ¯
7 2
ĠccåĽ½éĻħç½ĳæĬķ ä»£çĲĨ
è§Ĩè®¯ app
Ġå® ¤
Ġæ¾³éĹ¨å¹³åı° å¨±ä¹Ĳ
Ġ918æĲıå¤©åłĤ ç½ĳåĿĢ
çĮ Ľï¿½
æºª ä¹¡
d ate
åħ¼ èģ·
å³° ä¹¡
Ċ æł¼
æĹ¶ è®¸ï¼Į
çĮĽï¿½ æĬķ
Ġï¿½éİıçĦ¯ çĮĽï¿½æĬķ
åĵªä¸ªæµıè§ĪåĻ¨ èĥ½æīĵå¼Ģ
Ċæ¾³éĹ¨ åŁİå¸ĤæĮĩåįĹ
Ġåįļå¤© å¨±ä¹Ĳå®ĺç½ĳ
éĤ ª
å¯Ĩçłģ å¿ĺäºĨ
ĠApp le
åĮĹ æĸ¹
ĠEng lish
ĠåľŁ åľ°
Ġíķ ľ
Ġag166 äºļæ¸¸
çľĭ äºº
åħ³ å¿ĥ
çª ĥ
å¤± èģĶ
Ġh otel
ĠçľŁäººæ¾³éĹ¨ æ£ĭçīĮapp
é£İéĻ© åĲĹ
å°±æĺ¯ åĿĳäººçļĦ
ä¸º ä½ķ
åķĨ æ¥Ń
Ġé¾Ļ æ½Ń
æĸ¹éĿ¢ ï¼Į
éĽĨåĽ¢ ç½ĳåĿĢ
u id
Ġä¹¡ éķĩ
åĽ½éĻħ ç½ĳ
è®² è§£
æľĪ åĽŀé¦Ī
æľĪåĽŀé¦Ī 28åħĥ
Ġå¹¸è¿Ĳ èµĽè½¦
Ġåĩ¯åıĳag å¹³åı°å®ĺç½ĳ
âĢĿ åľ¨
¼ ï¿½ï¿½
Ġp art
Ġç¯® çĲĥ
ĠåĽĽ ä¸įåĥı
Ġé¡¶ çĽĽ
Ġ918åįļå¤©å¨±ä¹Ĳ æīĭæľºçīĪ
åħ¬å¼ĢéĢīæĸĻ |
çľŁ å¿«
Ġå¹¿ä¸ľ å¿«ä¹ĲåįģåĪĨ
ĠåĪ©æĿ¥æľĢç»ĻåĬĽ èĢģçīĮ
/ äºĮ
ç½ĳ èµļ
äºĨ âĢľ
o se
ĠagæĹĹèĪ°åİħ çĻ»å½ķ
æī¬ åŃĲæĻļæĬ¥
åħ» èĢģ
« çĳ°
ç«¯ app
Ġå® ¡
äºº æĸĩ
ĊæĺĨ æĺİ
Ġä¹Įåħ°å¯Ł å¸ĥ
çİ°åľº è¡Ķæİ¥
è´ ¿
ãĢĳãĢĲ åľ°
å¼ĢæĪ· çĽĺåı£
"> <
ç½ĳæĬķ å®ĺç½ĳ
åı°æ¹¾ ç½ĳ
åĪ¤ å¤Ħ
åŀ Ń
Ġäºļæ¸¸ æ£ĭçīĮ
ä¸ĩåįļ åĲĹ
ĠåĮĹäº¬pk10 éķ¿é¾Ļ
ä¸ĢçĽ´ åľ¨
Ġb ack
å®¶ å²Ĺ
ä¸ºä»Ģä¹Ī æıĲä¸įäºĨçİ°
æľ¬ æľĪ
é«ĺ çļĦ
åįĹ éĥ¨ãĢģ
åı ĥ
Ry an
Ġä¸ĩåįļä½ĵèĤ²app 3.0
ï½ ½
èĪ ľ
æ¸¸æĪı å®īåįĵçīĪ
¹ à¸
å¤§ æ¹¾åĮº
Ġ365æ£ĭçīĮæ¸¸æĪı åħħåĢ¼
ĠG H
Ċ åĵĪå°Ķæ»¨
åįķåıĮï¼ļ ç¥ŀå½©äºīéľ¸8
ĠèĤĩ åºĨ
· à¹Ī
ãĢĤ ç»ıè¿ĩ
Ċçĩķèµµ æĻļæĬ¥
com e
Ġåĩ¯æĹ¶ äººçĶŁå°±æĺ¯åįļ
ĊåįĹ å®ģ
å¥½ åº·
Ġä¼ģä¸ļ æĭĽèģĺ
ĠåĲ §
åİŁ çĶŁ
Ġåĩ¯åıĳAG åĽ½éĻħåİħ
æĢģ åº¦
:office "
Ġéĵģ è¡Ģ
al e
Ġi tem
æĻ Ĵ
åĬ¨ ä½ľ
Ġéķ¿ æĺ¥
é©¬ä¼ļåħ¨å¹´ èµĦæĸĻ|
âĢĶ æŀģéĢŁ
is o
6 3
Ĵ æŀľ
Ċâ ĺħ
resp content
ĠagæĹĹèĪ°åİħå®ĺæĸ¹ç½ĳç«Ļ å®ĺç½ĳ
Ġåħ¬ å¯ĵ
Ġä¾Ľ æ±Ĥ
åĬ¨ æ¼«
5 ä¸ĩ
åıĳ ä¿¡æģ¯
åįķåıĮï¼ļ äºĶ
Ċ å®ģæ³¢
s on
åĴĮ ä¹¡
Ġæīĭæľº çľĭ
-1 3
åħĪ è¿Ľ
ĠæĪ¿å±ĭ åĩºç§Ł
A W
Ġ2017 .Company
åħĥ çļĦ
è¶³å½© æĬķæ³¨
** *
Ġä¸ĥ æĺŁ
âĨĵ âĨĵ
ã ħ
ĠçĭĹä¸ĩ ä¸ĸçķĮæĿ¯
åįķåıĮï¼ļ äºĮ
Ċ å¨±ä¹Ĳ
æŃ Ĳ
Ġçķ ¶
Ġw66åĪ©æĿ¥ å®ĺç½ĳçĻ»å½ķ
æ¶Īæģ¯ ï¼ļ
Ċ ç®Ģä»ĭ
Ġçİ¯äºļ åĽ½éĻħå¹³åı°
âĢķ å¤§åıĳå¿«3
æ¯ ħ
å» Ĭ
Ġè©ķéĳĳ å¤§éļĬ
S _
æĹ¶æĹ¶å½© å®ĺç½ĳ
Ġæ¾³éĹ¨æĸ° èĳ¡äº¬
èĳ£ äºĭéķ¿
å¹¶ æ²¡æľī
æĹ¥æĬ¥ ãĢĭ
ĉ åħ¶ä»ĸ
ĠAG è§Ĩè®¯
Ġæ ®
Ġä¸ĢèĤĸ ä¸Ńçī¹åħįè´¹èµĦæĸĻ
èĴ ĭ
éŃ ļ
Ġagäºļæ´² å®ĺç½ĳå¹³åı°
88 06
äºļæ¸¸ çĻ»å½ķ
çºªå¿µ é¦Ĩ
èĦ ı
ĠD istrict
æľ¨ æ¡¥
çī¹ å¸ģ
ĠæĿ¨ æŁ³
æ³Ĭ å°Ķ
æĹł æķĪ
Ġf ont
ĠåĨ ł
Ġä¸Ń åįİ
Ċ æ¢ħ
ĠæĹ¶æĹ¶å½© å¤§åıĳ
Ġä¸ĢèĤĸä¸Ńçī¹åħįè´¹èµĦæĸĻ åħ¬å¼ĢéĢīæĸĻ|
Ġk8å¨±ä¹Ĳ ä¿¡èªī
Ġk8å¨±ä¹Ĳ æ¸¸æĪıå®īåįĵçīĪ
æī« çłģ
ä¸Ĭ çıŃ
2.0 app
èĭ¹æŀľ å®¢æĪ·ç«¯
d o
æł¹ å»·
æ°Ķ ï¼Į
å¾· é²ģ
Ġè®¸ å®¶
ĠB usiness
åľŁ äººæĥħ
Ġéĩĳ åįİ
å®īåįĵ æīĭæľºçīĪ
Ċ V
à¹ī à¸Ļ
ä¿Ŀ åģ¥
Ġä¸ĩçĭĹ æĢİä¹Ī
Ġå¤§åıĳå¿«ä¸ī æĺ¯ä»Ģä¹Ī
Ġ3 .0
Ġè±ª åįİ
Ġå°Ĭé¾Ļd88 æīĭæľºçīĪä¸ĭè½½
ç¼ĸ åĪ¶
¡ ç¿ł
Ġlo cation
ĠDe c
x yXG5
Ġè§Ĩé¢ĳ åľ¨çº¿
å£° åľ¨çº¿
Ġè§ Ħ
Ġagçİ¯äºļ å®ĺæĸ¹ç½ĳç«Ļ
ì ķ
è´Ł æķ°
æĪĳ è¦ģ
ĊæµĻæ±Ł æĹ¥æĬ¥
( 1)
æľī å¤ļ
éģŃ åĪ°
Ċ åıĤèĢĥæ¶Īæģ¯
Ġåĩ¯åıĳæīĭæľºçīĪ åĶ¯ä¸Ģ
Ġè¯¦ æĥħ
ĉ ç»¼åĲĪ
Ġéĺ¿åħĭ èĭı
Ġå¤§åıĳäºĮ åĪĨéĴŁéĴŁ
ç»ı çº¬
å®īå¿ĥæĪĲå®¶ è³¼å±ĭåĦªæĥłè²¸æ¬¾
ç»ĵç®Ĺ æħ¢
å®¶ éķ¿
ç¦ı æ¡¥
é¦Ļæ¸¯ é©¬ä¼ļ
f ãĢĳãĢĲoãĢĳãĢĲ
Ġagçİ¯äºļ è´µå®¾ä¼ļ
å°¾ æķ°
èµĶçİĩ ä½İ
app è½¯ä»¶
è¢«å°ģ äºĨ
Ġin st
Ġæ· ĺ
çªģ åıĳ
Ġåħ¶ä»ĸ ç»¼åĲĪ
Ġagçİ¯äºļæīĭæľºå®¢æĪ·ç«¯ èĢģèĻİ
ãĢĳãĢĲ åĪ°
Ð ²
Ġà¹ ģà¸
ĠåķĨ è®¯
Ķ æŀĿ
ç¥ŀ åĻ¨
åº Ł
æĤ Ħ
Ġ0 ,
ĠIn c.
Ġå¹¸è¿Ĳ åĪĨåĪĨå½©
ĠèĪĴ éĢĤ
åľ¨çº¿ æīĭæľºçĻ»éĻĨ
Ġagçİ¯äºļéĽĨåĽ¢ çľŁäºº
ĠçĶµåŃĲ ç½ĳç«Ļ
que st
Ġä¸ī å®ĺ
Ġèī º
Ġè©ķ æ¸¬
åľ¨çº¿ä½ĵèĤ²æĬķæ³¨ ç½ĳ
Ċåĺī åħ´
æ® ¼
å®Įæķ´ çīĪ
Ġçİ¯äºļag åľ¨çº¿æīĭæľºçĻ»éĻĨ
Ġä¸ľ å²³
åįı è°ĥ
ĠæĪ¿å±ĭ åĩºåĶ®
").c ss
éĽĨåĽ¢ æľīéĻĲåħ¬åı¸
ãĦ ¨
ê³ ł
Ġdata Type
çŃĽ éĢī
é«ĺ å°Ķå¤«
æŁ Ķ
ĠæĹ¥ çħ§
å²© ä¹¡
æĢİä¹Ī æĵįä½ľ
èĩªæĪĳ è¯Ħä¼°
æķ´ ä½ĵ
al k
Ġé£İ åľŁäººæĥħ
ĊåįĹ æĺĮ
æĦ ¤
Ġçİ¯äºļagæĹĹèĪ°åİħ 8806
éĢģ å¾Ģ
ĠéħĴåºĹ éłĲè¨Ĥ
ç»ĳå®ļ è®¾å¤ĩ
Ġk8 å®ĺç½ĳ
ĉ æķĻèĤ²
éĿŀ ç»ĳå®ļè®¾å¤ĩ
ĠçĶµçİ©åŁİ ä¸ĭè½½
Ġå°Ĭé¾Ļd88 æľĢæĸ°é¦ĸé¡µ
o -
Ġì ķ
Ġçİ¯äºļ å®ĺç½ĳapp
Ġbet356 æıĲçİ°
com ment
ĉ å¨±ä¹Ĳ
ãĢĳãĢĲ çĲĨ
Ġå¼Ģåħĥæ£ĭçīĮ åĮ¹éħį
ĠçľŁäºº ag
Ġ" m
ä¸Ŀ è·¯
åŀŃ éķĩ
Ġå¤§åıĳå¿«ä¸ī æĢİä¹Īçľĭ
ĉ åģ¥åº·
ĠåĪ©æĿ¥ å®ĺç½ĳapp
ĠçĭĹä¸ĩ man
å¹³ åĪ·
Ġé«ĺ æ¡¥éķĩ
Is Im
ĉ åĽ¾çīĩ
.com/ news
-0 8-0
à¸²à¸ ¡
Ġå¹¿ ç¦ıæ¡¥
k8 ä¸ĭè½½app
æ³¨åĨĮéĢģ åĪĨ
Ġé¾Ļæ½Ń æ²³
æµ·å¤ĸ çīĪ
Ċé¦ĸéłģ >
Ġäº¤åıĭ å¾ģå©ļ
æ£ĭçīĮæ¸¸æĪı ä¸ĭè½½
ĉ ä¸ĵé¢ĺ
ãĢĤ æĸ°
Ġn um
ĉ äººçī©
åł° ä¹¡
Ġåĺī ç¾©
m ãĢĳãĢĲ
Ġæºª åı£éķĩ
èµ¢ å¾Ĺ
ĠM ag
Ġmg å¹³åı°
Ġéĩĳ å²©ä¹¡
ç¤¾äº¤ åªĴä½ĵ
ĠP ar
Ġè±¡ å¸Ĥéķĩ
æ´¥ éĵº
Ġé«ĺ å³°ä¹¡
åı¯ çĶ¨
Ġå°Ĭé¾Ļd88 æľĢæĸ°ç½ĳç«Ļ
ĠéĽ¶ éĺ³éķĩ
ĠéĽ¶ æºªéķĩ
_åįķåıĮ _
Ġæ´ŀ æºªä¹¡
Ġäººæīį æ±ĤèģĮ
ĠN an
Ġæ±Ł åŀŃéķĩ
ĠèĭĹ å¸Ĥéķĩ
ĠF eb
ĉ è´Ńçī©
ĉ æ¥¼çĽĺ
g 5
ĠæĿī æľ¨æ¡¥
ĠéĿł è°±
å®ĺç½ĳ æ¬§ç¾İ
éĩĳ èİİ
ĠåįĹå±± åĿª
ĠéĹ¨éĿ¢ åĩºç§Ł
ĠæĪ¿å±ĭæ±Ĥ ç§Ł
ĠäºĮæīĭ è½¦è¾Ĩ
ĠéĢļ æ´¥éĵº
ĉ æ¯įå©´
Ġèµµ å®¶å²Ĺ
ĠæĪ¿å±ĭæ±Ĥ è´Ń
ĉ æĭĽåķĨ
s ub
Ġä¸ľå²³ è§Ĥ
æ³Ĭ æ¸¡
Ġè®¸å®¶ åĿĬ
Ġå²© æ³Ĭæ¸¡
ĉ å©ļå«ģ
Ġä¸īå®ĺ å¯º
ĉ æ°ĳä¿Ĺ
ĠæĿ¨æŁ³ éĵº
ĉ å®¾é¦Ĩ
Ġè´§ åı·
ĉ ä¹¡éķĩ
ĉ æ¸¸çİ©
Ġä¾Ľæ±Ĥ äºĮæīĭ
ĠåķĨè®¯ å¿«æĬ¥
ĠæĪĳè¦ģ åıĳä¿¡æģ¯
Ġ2 .5
Ġæľ¬åľŁ åĬ¨æĢģ
Ġä¹¡éķĩ ç«Ļ
Ġéĺ³ åĴĮä¹¡
ĠçĶĺ åł°ä¹¡
ĠäºĮ åĿĬ
ĠäºĮåĿĬ åĿª
Ġæľ¬åľŁ çĶŁæ´»
ĠæĺĮ åĲī
ore m
ç¾İ æ´²
å®ĺæĸ¹ çīĪ
Ġæī ¹
åĳ Ĺ
è´ ¾
äºº åıĹä¼¤
ç£ ĭ
è¿ŀ èµ¢
æīĳåħĭ ç½ĳ
å¾ µ
åĲİ æĦŁ
ĠæĬĢæľ¯ æĶ¯æĮģ
è´ ©
???????? ????????
Ġåĩ¯åıĳag å®ĺç½ĳä¸ĭè½½
å± ł
å¤§å°ı è®¡åĪĴ
ĠçĭĹä¸ĩèµ¢éĴ± æıĲæ¬¾
ä¹Ŀå·ŀ å¥½
å®¶ æĹı
ĠDes ign
å¥½è¿ĺæĺ¯ ä¹Ŀå·ŀå¥½
ĠF l
å¤ļ å®Ŀ
Ġçİ¯äºļç½ĳåĿĢ çĻ»å½ķ
åįģ ä¹Ŀ
Ġåįģ åł°
Ċ æĹ©çĤ¹å°ıåĲĥåĬłçĽŁ
Ġçİ¯äºļçľŁäºº åľ¨çº¿
æĥ ©
Ġ ãĥ»
æĦı å¤ĸ
f l
Z O
i ,
Ć Ĉ
x s
æĿĤ è°Ī
Ġæĸ° æ¿ł
Vp Y
Ġpk10 æľĢçīĽ
C I6Ij
+ '
åħ¬äº¤ ç½ĳ
è¾¨ åĪ«
Ġç®¡ çĲĨ
m all
Â ²
Ġc f
åĮĹäº¬èµĽè½¦ pk10
å´ Ķ
ï¼Įä¸Ģ äºĽ
. value
å¹³ åİ¿
Ġåĭ ŀ
uz !
Ġd el
Ġä¹°çĲĥ å¿ĥå¾Ĺ
Ġçľ ī
Ġon ly
Ð ¹
Ġ2019-11 -12
åħ· ,
ĠçĽ´ æĴŃ
ç¼ħ æĢĢ
è¶ĬæĿ¥è¶Ĭ å¤ļ
ĠåįĹ åħħ
data -
Ġåĩ¯åıĳAGæĹĹèĪ° ä¸ĭè½½
oh n
Ġå¤§åıĳå¿«ä¸ī èµ°åĬ¿åĽ¾
åħįè´¹ å¤§åħ¨|
åħµ åĽ¢
æ²¡ åĪ°
Ġå¤§åıĳ 5åĪĨ
ĊåįĹåĽ½ éĥ½å¸ĤæĬ¥
æ³¢éŁ³ åħ¬åı¸
ç¾İ å¥½
æĵįä½ľ ç®Ģåįķ
î Į
V s
5 æĹ¥
å£ ¢
Ġ365 -ä½ĵèĤ²æĬķæ³¨
ç½ĳçĲĥ æ¯ĶåĪĨçĽ´æĴŃ
O n
æĺ¯ è¢«
ãĢĤ éļıåĲİï¼Į
çĽ¸ å½ĵ
F t
Ġé ĳ
Ġip sum
éĵ ĥå£°
em ber
è¨ ĵ
_è®¡åĪĴ ç½ĳ_
åŃ£ åº¦
æľī çļĦ
åĪĽ å»º
Ii wi
Ċ2019-0 2
æĸ° ç«¹
) (
ç¦ı å½©ç½ĳ
ãĢĳãĢĲ åĬ¨
è¶³çĲĥ ä½ĵèĤ²
æģĲ æĢĸ
æľī ä¸Ģ
Ĺ ĭ
ä¸¤ åĲį
ä¸²åŃĲ æĢİä¹Īä¹°
Ġ"urn:schemas-microsoft-com:office :office"
æŃ¤ æĸĩåŃĹ
Ġä¹° ä¸²åŃĲæĢİä¹Īä¹°
Ġäºļæ´² åĽ½éĻħ
çĶµåŃĲ å¨±ä¹Ĳ
å¯» æī¾
arse Int
çł´è§£ æĸ¹æ³ķ
Ċçĩķèµµ éĥ½å¸ĤæĬ¥
åĢ «
ç½ĳä¸Ĭ åħħåĢ¼
ĠåĪ©æĿ¥ æľĢæĸ°çīĪæľ¬ä¸ĭè½½
echno logy
Ġé©¬ ä¼ļ
ï¿½ ãĥ
Ċ å¤ªåİŁ
ĠãĢĳãĢĲsãĢĳãĢĲtãĢĳãĢĲyãĢĳãĢĲlãĢĳãĢĲeãĢĳãĢĲ =ãĢĳãĢĲ"ãĢĳãĢĲ
æŀģéĢŁ èµĽè½¦
Ċ çĶĺ
Ġ365æ£ĭçīĮ éĿŀç»ĳå®ļè®¾å¤ĩ
æ¬§æ´²è¶³çĲĥ èµĽ
å¾· éĩĮ
NX z
A iLCJ
:1 3
çĶµ ç«Ļ
ä¸ĵä¸ļ å¹³åı°
æıĲåīį ç»ĵæĿŁ
èĥ½ çľĭåĬ¨çĶ»
åİĭ åĬĽ
å°ıå§Ĳ -
ct or
ãĢĳãĢĲtãĢĳãĢĲ :ãĢĳãĢĲ
å·Ŀ åİ¿
æ£Ģå¯Ł éĻ¢
ĠM in
ĠæĶĢæŀĿ èĬ±
Ġ365æ£ĭçīĮ +
- B
ĠåħŃ åĴĮåĲĪå½©
cl ud
Ġbet. 365ä½ĵèĤ²åľ¨çº¿æĬķæ³¨
ä»£çłģ æĺ¯ä»Ģä¹Ī
æĶ¿ åįı
ĠæĻ® éĢļ
èµĮåŁİ ç½ĳä¸ĬåħħåĢ¼
ĠåĴĮ çĶ°
S ON
åıį æĺł
çļĦå®īåħ¨ ä»£çłģæĺ¯ä»Ģä¹Ī
æľŁæľŁ ä¸Ń
resp onse
åħįè´¹åħ¬å¼ĢèµĦæĸĻ éĢīæĸĻ
è£ħ é¥°
Ġæ¾³éĹ¨ç½ĳç«Ļ æ¸¸æĪı
Ĭ åıĳ
V 2lkdGg
å¥ĸ åĬ±
âĶ Ģ
ĠI H
Ġéļ¨ æĦı
Ġ365 258
Ċ2018-0 9
Ġnba çĽ´æĴŃ
çĶµåŃĲå¹³åı° éĢģ
88 7
ĠçĭĹä¸ĩ åıįæ°´
Ġæ¾³éĹ¨ç½ĳç«Ļæ¸¸æĪı çĶµåŃĲå¹³åı°éĢģ
åĽĽ çłģ
Ġçıł æµ·
åĭŀå·¥ ç´ĵåĽ°
è©¹ å§Ĩ
Ġä¸½ æ°´
Ġæ´ Ĺ
çļĩåĨł å¹³åı°
å¹¸è¿Ĳ å¿«ä¸ī
ì ĸ´
ĠçĶĺèĤĥ å¿«3
ï¼ĮæĪĳ åĽ½
æĬ¢ åºĦ
é»Ķ è¥¿åįĹ
è®² å®¶
å° ĺ
åįĹ ç½ĳ
Ġåħ¶ å®ĥ
· ¸
èµĮåľº æ¸¸æĪı
Ġäºļç¾İam8 å®¢æĪ·ç«¯
fãĢĳãĢĲoãĢĳãĢĲ nãĢĳãĢĲtãĢĳãĢĲ
åĪ©æĿ¥ w66
Ġæ¾³éĹ¨ åľ¨çº¿å¹³åı°
æľīapp ä¹Ī
Ġbet36 å®ĺç½ĳ
Ġæįķé±¼ è¾¾äºº
Ġå¼Ģåħĥæ£ĭçīĮ åĿĳ
Un it
åĳ¢ ï¼Ł
Ġäºļç¾İam8å®¢æĪ·ç«¯ åı¯éĿł
he F
Ġäºļæ´² 365bet
Ġè§ Ĭåıĳ
åŁº å±Ĥ
Y2 x1
z Y2
Ġæľ ±
zY2 hl
2R l
b Wlu
0aW 1
UiOmZhbHNlLCJ kb
21haW4 iOmZhbHNlLCJ
ZH Vs
1 heF
V4 Y2x1
jb 2Rl
bWlu V2lkdGg
0aW1 lem
ZG UiOmZhbHNlLCJkb
zY2hl ZHVs
ZSI6ZmFsc2UsIm 1heF
ZSI6ZmFsc2UsIm V4Y2x1
21haW4iOmZhbHNlLCJ jb2Rl
0aW1lem 9u
zY2hlZHVs ZSI6ZmFsc2UsIm1heF
ZSI6ZmFsc2UsImV4Y2x1 ZGUiOmZhbHNlLCJkb
21haW4iOmZhbHNlLCJjb2Rl Ijoi
zY2hlZHVsZSI6ZmFsc2UsIm1heF dpZHRo
0aW1lem9u ZSI6ZmFsc2UsImV4Y2x1ZGUiOmZhbHNlLCJkb
0aW1lem9uZSI6ZmFsc2UsImV4Y2x1ZGUiOmZhbHNlLCJkb 21haW4iOmZhbHNlLCJjb2RlIjoi
ĠåĪ©æĿ¥æľĢç»ĻåĪ© èĢģçīĮ
æ±Ł éĹ¨
æ¯ĶåĪĨçĽ´æĴŃ 001
Ġéļ¨æĦı çª©
12æľĪ 20æĹ¥ï¼Į
ãĢĳãĢĲ éĥ¨
ä¸į ä¸Ģæł·
Ġth an
OH g5
cy OHg5
ï¼Įä¸į è¿ĩ
ç»Ł æĪĺ
å¨±ä¹ĲåŁİ å¹³åı°
Ċæµ·åı£ ç½ĳ
Ġæ¾³éĹ¨æĸ° èĳ¡
é«ĺ è´¨éĩı
è¿ŀ çº¿
ĠA pr
å¨±ä¹Ĳ å®ĺ
Ċæ²³åĮĹ æĸ°éĹ»ç½ĳ
i el
åŃĺéĴ± æ²¡åĪ°
ĠæŀģéĢŁ åĪĨåĪĨå½©
Ċ æ·®
ers on
ĠV iew
ĠåĽ½éĻħcc ç½ĳæĬķ
Ġ@ CC
Ġçİ¯äºļ åĽ½éĻħ
.m sg
ï¼Į èĩª
çĶµ åĬĽ
åľ°åĮº çļĦ
Ġ365æ£ĭçīĮçĶµèĦĳ çīĪä¸ĭè½½
(' #
Ġ365ä½ĵèĤ²åľ¨çº¿ å¤ĩçĶ¨
åĪĨ ç½ĳ
p ro
æİ ©
èİĨ çĶ°
çĻ½èıľ ç½ĳ
Ġ2019-10 -21
Ċ éĺľ
Ġäºļæ¸¸éĽĨåĽ¢ æľĢæĸ°ç½ĳåĿĢ
ml k
çļĦ æīĢæľī
r ay
å±ķ è§Ī
æĮĩå°ĸ æ£ĭçīĮ
æģ© æĸ½
Ġåįĵ è¶Ĭ
3N jg
èĩªåĬ¨ æĬķæ³¨
iOiI 3Njg
iOiI3Njg iLCJ
Ġ2.0 L
ãĢĤ æĬ¥éģĵç§°ï¼Į
ä¼ļ å½©å¼Ģå¥ĸç»ĵæŀľ
ĠçľŁäººæ¸¸æĪıä¸ĭè½½ æīĭæľºçīĪ
æµģ éĩı
Z K
åħįè´¹åħ¬å¼ĢèµĦæĸĻéĢīæĸĻ |
Ġåĩ¯æĹ¶ æīĭæľºçīĪ
çĻ»å½ķ æ³¨åĨĮ
Ġäºļæ¸¸ çĽ´èĲ¥ç½ĳ
å®ī åľ¨çº¿
å°Ĩ åħ¶
it al
Ġæ°¸å®ī æĹħéģĬ
ĠâĶ ľ
ĠçĶµèĦĳ çĻ»éĻĨä¸įäºĨ
Ċ åĮħåŃĲ
17 åĪĨ
âĢĶ åľ¨çº¿
Ġæĸ° åįİç½ĳ
ĠG T
Ġåĩ¯æĹ¶ AGæĹĹèĪ°åİħ
9 3
çļĦ è½¦
æĸĹ äºī
å®¢ æĪ¶
åįģ åħ«
ĠAG åĩ¯åıĳ
çļĦ çĲĥéĺŁ
Ġåĩ¯æĹ¶ å¤ĩçĶ¨ç½ĳç«Ļ
Ċ2020-04-0 9
äººæ°ĳ æĶ¿åºľ
Ġag ç½ĳä¸Ĭ
ç¤¾ä¼ļ åĲĦçķĮ
à¸Ńà¸ ¢
Ñ ħ
Ċ é¦ĸ
æ»ļçĲĥ æĬķæ³¨
365 å½©éĩĳ
ĠçľŁäººag æ£ĭçīĮæ¸¸æĪı
å¤©åłĤ å®ĺæĸ¹ç½ĳç«Ļ
Ġ3 000
Ċ èģĶåĲĪåĽ½
ĠI sland
è²¼ çı¾
Ġå¼Ģåħĥæ£ĭçīĮæĺ¯ ä¸įæĺ¯
Plx yXG5
Ċ éĴ±
C M
Ġéĥ¨èĲ½å®¢ æİ¨èĸ¦,
éĿĴ å°ĳå¹´
æľŁ æĿĥ
é«ĺéĽĦ å¸Ĥ
ĠéħĴåºĹéłĲè¨Ĥ >
SB N
çľŁæŃ£ ç½ĳç«Ļ
ĠåĪ©æĿ¥ æīĭæľºçīĪapp
Ġ2018 -05
æŃ£ç½ĳ çĽĺåı£
Ġst ud
ä¸Ģ çº§
83 Mjh4OT
0aW1lem9uZSI6ZmFsc2UsImV4Y2x1ZGUiOmZhbHNlLCJkb21haW4iOmZhbHNlLCJjb2RlIjoi PHNjcmlwdCB0eXBlPVwidGV4dFwvamF2YXNjcmlwdFwi
zY2hlZHVsZSI6ZmFsc2UsIm1heFdpZHRo IjpmYWxzZSwi
NXz cyOHg5
bWluV2lkdGg iOiI3NjgiLCJ
TV 83Mjh4OT
0aW1lem9uZSI6ZmFsc2UsImV4Y2x1ZGUiOmZhbHNlLCJkb21haW4iOmZhbHNlLCJjb2RlIjoiPHNjcmlwdCB0eXBlPVwidGV4dFwvamF2YXNjcmlwdFwi PlxyXG5
NXzcyOHg5 MC
zY2hlZHVsZSI6ZmFsc2UsIm1heFdpZHRoIjpmYWxzZSwi bWluV2lkdGgiOiI3NjgiLCJ
TV83Mjh4OT AiLCJ
zY2hlZHVsZSI6ZmFsc2UsIm1heFdpZHRoIjpmYWxzZSwibWluV2lkdGgiOiI3NjgiLCJ 0aW1lem9uZSI6ZmFsc2UsImV4Y2x1ZGUiOmZhbHNlLCJkb21haW4iOmZhbHNlLCJjb2RlIjoiPHNjcmlwdCB0eXBlPVwidGV4dFwvamF2YXNjcmlwdFwiPlxyXG5
Ċ æ¼
æĢİä¹Īçľĭ çĽ´æĴŃ
"). hide();
Ġåĩ¯æĹ¶ åħ±èµ¢åħ±æ¬¢ä¹Ĳ
ĠåĤ µ
æĶ¾ åľ¨
èĳĹ åĲį
Ħà¸ §
ĠèļĮåŁ ł
ĠåĮĹäº¬ å¿«3
Ċ æĹ©çĤ¹å°ıåĲĥ
å¾®ä¿¡ åı·
æ°ĳéĸĵ åĢŁè²¸
ĠP ost
éĩı åŃĲ
è¢ ģ
ĠçĭĹä¸ĩæĺ¯ æĮĩ
N vb
Ġ* /
ĠäºļæĲıä½ĵèĤ² å¹³åı°
æ©ĺ åŃĲ
Ġ365æ£ĭçīĮ æ¸¸
ĠL ong
éĩĩè®¿ æĹ¶
ĠèĵĿæľĪäº®ç²¾éĢīæĸĻ åħįè´¹å¤§åħ¨|
Ġè´ ´
ä½Ļé¢Ŀ ä¸įåĪ°
å½© appä¸ĭè½½
éļıæľº ä½Ļé¢Ŀä¸įåĪ°
ĠæĻº èĥ½
Lm Nvb
aW N
è¼ ¯
å¤§åıĳå¿«ä¸ī èµ°åĬ¿åĽ¾
èĢĥ å¯Ł
é ¨
ard en
Ġagä½ĵèĤ² åįļå½©
ç´ Ļ
æĪĲåĬŁ æ¡Īä¾ĭ
è®¾ ç«ĭ
Ġagç½ĳç«Ļ äºļæ¸¸çĻ»å½ķ
çģ« è½¦ç«Ļ
ĠDisc uz!
1c Imh0
Ġå®īåįĵ çīĪ
å®¢æĪ· çĶµè¯Ŀ
Ġbtt918 å®ĺæĸ¹ç½ĳç«Ļ
Ġè§ Ĥ
V wv
I GF
ï¼Į åıĪ
çĻ»å½ķ åĻ¨
/ 2019
èĥĮ åĲİ
Ġçİ» çĴĥ
Ġ2 .4
Ċ èģĶç³»
Ġè©ķéĳĳå¤§éļĬ ,
ation s
ĠæĽ² éĿĸ
ĠAntiAd .
éĢļ éģĵ
æ²Ĵ éĮ¢
Ġå®¢ æĪ·
500 ml
æľīéĻĲ é¢Ŀ
Ġè¯¦ ç»Ĩ
å®¢ åĬłçĽŁ
x 7
ç¨İ åĬ¡
æĺ¯ä¸įæĺ¯ æľīéĻĲé¢Ŀ
. data
ay a
åŃ ¤
èµ° åĲĳ
- 365ä½ĵèĤ²æĬķæ³¨
Ġc m
.getValue ()
Ġbtt918 çĻ»å½ķ
app å®ĺæĸ¹ç½ĳç«Ļ
Ġåĩ¯æĹ¶åĽ½éĻħ äººçĶŁå°±æĺ¯åįļ
5 åĪĨæİĴåĪĹ3
çļĦ æĶ¿æ²»
LmNvb Vwv
Ċ æŀ
çĲĥæİ¢ å®ĺç½ĳ
è¶³çĲĥ çĽ´æĴŃ
çĲĨ çĶ±
Ġbtt918 å¤©åłĤå®ĺæĸ¹ç½ĳç«Ļ
Ġå¤§ éĺª
Ġæľ ĥ
å¯¹ ãĢĳãĢĲ
çĳŀ å£«
ä¸Ńæĸĩ å®ĺæĸ¹ç½ĳ
ĠAr ch
Ġäº§åĵģ ä¸Ńå¿ĥ
Ġè©ķæ¸¬ æĸĩ,
Ġbt365 æıĲçİ°
éł ĵ
ä¸į åı¯ä»¥
Ħà¸§ à¸²à¸¡
YWRz L
êµ Ń
Ġçİĭä¸Ńçİĭä¸Ńçī¹ åħįè´¹åħ¬å¼ĢèµĦæĸĻéĢīæĸĻ|
äºĨ è¯¥
èº«ä»½èŃī åĢŁéĮ¢
950 5
æ¼ Ĩ
åŁİ ç½ĳ
Ġu dn
åŃĺæ¬¾ å°¾æķ°
åĪĹ åħĭ
ç½ĳä¸Ĭ æīĭæľºæĬķæ³¨
ĠçļĩåĨł æĸ°
Ģ æĶĢ
Ċ ç§»åĬ¨
Z Y
Ġäºļæ´² 365betå®ĺç½ĳ
Ġç½ĳä¸Ĭ åħ¼èģĮ
ï¼Į æİ¨åĬ¨
Ġ356bet æ³¨åĨĮ
ãĪ ¢
æĪ¿ äº§
Ġ2019å¹´ 12æľĪ
Ġ7 æĹ¶
éĵ ¸
æĺ¯åĵª çļĦç½ĳç«Ļ
ĠæĲıå¤©åłĤ å®ĺç½ĳ
ä»İåĵªéĩĮ ä¸ĭè½½
è¨ ´
ç½ĳç«Ļ åŁŁåĲį
éĵ¶è¡Į æıĲæ¬¾éªĮè¯ģ
¿ ï¿½
èĪŀ åı°
åĲĦ é¡¹
show ();
åįĬæľĪ è°Ī
ĊæĤ¨ æīĢåľ¨
ĠåĲĲé²ģ çķª
o ll
Ġ365æ£ĭçīĮ æīĭæľºçīĪ
ä¸ĸçķĮ è¶³çĲĥ
âĸ ²
Ġå¼Ģåħĥæ£ĭçīĮ å¥½
éĢļ çĶ¨
ĠçĭĹä¸ĩ çĻ»å½ķ
ï¼Į ä¸įèĥ½
å¹´ ä¼ļ
ust om
è¶³çĲĥ å¹³åı°
ä½ĵ åĿĽ
ĠçĭĹä¸ĩå®ĺç½ĳ è¶³å½©åĲ§
Ġå¤§åıĳç§ĴéĢŁ æĹ¶æĹ¶å½©
ç»Ī äºİ
æľª ç»ĵç®Ĺ
Ī ĺ
éļ ¨
å¤© çļĦ
Ġhg 9505
Ġhg9505 çĤ¹c0m
ĠR est
çĬ¯æ³ķ åĲĹ
ĠåĪ©æĿ¥åĽ½åĽ½éĻħ æľĢ
Ċ æŁ³
ĠäºĮæīĭ å®Ŀé©¬
è´§ æºĲ
éĿĴ åľ¨çº¿
Ġæ¸ħ è¿ľ
Ġp rice
ä¸į éĶĪéĴ¢
Ċ åıĮ
Ġc ase
Ġ365æ£ĭçīĮ çĪĨåĪĨ
l ink
Ċ çıłæµ·
æ¬§æ´² äºĶå¤§èģĶèµĽ
à¹īà¸Ļ à¸«
å¤ĸ ç½ĳ
ĊâĢ º
åĽ½éĻħ çİ°éĩĳ
åĲįç§° ï¼ļ
Ġä½³æľ¨ æĸ¯
y a
Ġåİ Ĥ
èµĮåŁİ åħħåĢ¼
ot t
åįķåıĮï¼ļ ä¸Ģ
Ġf irst
ä¸Ĭæµ· å¸Ĥ
Ġå®¿ è¿ģ
æĸ° å¢ŀ
/ ä¸Ģ
éª ¸
Ġè¶³çĲĥæ¯ĶåĪĨ è§Ĩé¢ĳ
æ³¨åĨĮéĢģ 35
ĠçĭĹä¸ĩèµ¢éĴ± åıĸçİ°
æĸ°éĹ» åĳ¨åĪĬ
L K
çıł å³°
å½©ç¥¨ çĻ»å½ķ
è· ĥ
Ċ ç¼ĸè¾ĳï¼ļ
ç¶ĵ é©Ĺ
å¦Ī å¦Ī
èµŀåĬ©åķĨ (ä¸ĩåįļapp)
éĢ Ĺ
æĦŁ åıĹ
å¼Ģå¥ĸ ç½ĳ
Ġt ext
é«ĺ è¾¾
ĠæĪ¿ äº§
æŃ£ç½ĳ å¨±ä¹Ĳ
è½¯ä»¶ 365
Ġin ter
A K
b an
ç¦ ¾
ĠçļĩåĨł 365bet
Ġuu å¿«ä¸ī
Ġèĩª è´¡
ä¹ Ļ
Ľ à¸¥à¸
Ġçİ° ä»£
åľ¨åĵª ä¸ĭæ³¨
- S
ä¸»ç®¡ éĥ¨éĹ¨
0 .1
äºī è®®
æ¾¶ ï¿½
å¹² æī°
Ċ é²ģ
åŃ¦ åİĨ
å¦Ĥä½ķ ä¹°æ¯ĶåĪĨ
R a
å®ŀæĹ¶ åĬ¨çĶ»
å²Ľ æ¹ĸ
çľŁäººæ¸¸æĪı ç½ĳç«Ļ
ç²¾ç¥ŀ ï¼Į
èĲ¥ ä¸ļ
ĠçľŁäºº æ³¨åĨĮé¦ĸé¡µ
Ġé»Ħ çŁ³
ç·ļ ä¸Ĭ
ĠG alaxy
app èµ°åĬ¿åĽ¾
g o
Ġs ome
ı è¦½
ä»» æĦı
æµ¦ åĮº|
M an
Ħà¸ ³
ä¸Ńæĸĩå®ĺç½ĳ å½©ç¥¨
lo l
æ¡ĳ å¾·æĸ¯
in o
Ċ æĭīèĲ¨
åĵģ è´¨
ç¡®è®¤ å¿«åĲĹ
éĵ ł
T ube
Ġ365bet çĽĺåı£
ĠServ er
ä¸ĸ æĿ¯æĬķæ³¨365
æ´»åĬ¨ ãĢĤ
éĤ® æĬ¥ãĢĭ
äºı æĮĩæķ°
èº« è¾¹
èĭı å·ŀ
Ġfunction() {
ĠçļĩåĨł 365ä½ĵèĤ²æĬķæ³¨
Ċ å®£
ï¼Į éĥ½
èĢ¿ çĪ½
Ġbte365 ç½ĳç«Ļ
Ġè´ Ń
æĥ ľ
zh an
Ġ2019-10 -18
ĠåĸĢ ä»Ģ
ï¼Į åĪ°
éĺ¿ åĪĹåħĭ
Ġä½¿çĶ¨ è©ķæ¯Ķ,
ar a
ĠçĽĪ äºıæĮĩæķ°
Ġå¦Ĥä½ķ ä¸ĭè½½
ibe x
Ġwh en
æĢİä¹Īä¹° ä¸²åħ³
YX A
Ċå¤© ä¸ĭ
Ġo ver
ï¼ģ ï¼ģ
ĠæĬ ĺ
å¼ºè°ĥ ï¼Į
Ċå½ĵåīį ä½įç½®
è² Ŀ
Ġà¹ģà¸ Ľà¸¥à¸
å¹¼ åĦ¿
Ġèĳ«èĬ¦ å²Ľ
ä¸Ńæĸĩ ç½ĳç«Ļ
lo b
ĠCent er
Ġè¯ Ŀ
åĽŃ èīº
Ġæ£ĭçīĮæ¸¸æĪı 365
Ġ365betå®ĺç½ĳ æ³¨åĨĮ
Ġå½©ç¥ŀäºīéľ¸å¤§åıĳå¿«ä¸ī è§Ħå¾ĭ
/ é£
ä¸ī æľŁ
08 æĹ¥
Str ing
åĽ½ ä¸¤åĪ¶
èµŀåĬ© çļĦçĲĥéĺŁ
æŁ¥ è©¢
Ġ365æ£ĭçīĮ éĢģ
æ£ĭçīĮæ¸¸æĪı 365
ä¿® æŃ£
Ġy äºļæ´²
js );
O l
velop ment
ĠæĹłæ³ķ æİ¥åıĹ
Ġnba æĸ°éĹ»
Ġå°Ĭé¾Ļ æīĭæľºå®¢æĪ·ç«¯app
ä¸į æ»¡
ĠåĤµ åĭĻ
åĪ· æŀª
çĶµè§Ĩ åī§
Ġåĩ¯åıĳä½ĵèĤ² ä¸ĭè½½
ï¿½ï¿½ æ¶ĵï¿½
Ġåı ·
ï¿½ P
è´£ä»» ï¼Į
Ċ2020-04-0 8
å¹¶ æľª
ĠB ET
Ġå¦Ĥä½ķ å®īè£ħ
KT V
Ġ118 kj
é¦ĸ åŃĺ
Ċéķ¿ æ±Ł
æĳ º
ä¸Ĭ è¯ī
ĠçĻ½å°ıå§Ĳ åħŃ
ĠèĻ ¹
Ċ å¿«é¤Ĳ
è± ¹
Ġcf åĪ·æŀª
in c
å¾Īå¤ļ äºº
æıĲæ¬¾ åŃĺåħ¥
å½©ç½ĳ å¤§åıĳå¿«ä¸ī
çĻ½ èī²
æĬµ æĬ¼
0 "
æĹ¥ å¸¸
Ġâĸ ²
Ġåĩ¯æĹ¶ çº¿ä¸Ĭ
æĿ¥ çľĭï¼Į
Ġåĩ¯åıĳ å¹³åı°å¼ĢæĪ·
gãĢĳãĢĲ h
Ġæ¾³éĹ¨ç½ĳæĬķ app
Ċ åħ¬åı¸
ãĢĳãĢĲå¸Ĥ ãĢĳãĢĲ
ĠO f
Ġä¸ĭè½½ åĩ¯åıĳ
åįĹ åİ¿
ĠæĺŃ éĢļ
èĵ Ħ
æİĴ æŁ¥
å°¤ åħ¶
ĠA H
m ail
çģ ĺ
- çİ¯çĲĥç½ĳæĬ¥éģĵ
ĠçĭĹä¸ĩ å®ĺæĸ¹æ³¨åĨĮ
èĦ ī
ĠéŁ¶ åħ³
Ġ2019-10 -15
æĹ¶éĹ´ï¼ļ 2020å¹´
åŁİ åĮºæĸ°éĹ»ç½ĳ
Ċåıĭæĥħéĵ¾æİ¥ ï¼ļ
è¯· æ±Ĥ
å¤ĸ éĢģ
Ċä¸ŃåĽ½ æ±Łèĭı
ĠäºļæĲı åĽ½éĻħ
Ġåĩ¯åıĳ åĶ¯ä¸Ģ
9 00
ĠçĭĹä¸ĩå®¢æĪ·ç«¯ appä¸ĭè½½
Ð ´
ç½ĳç»ľ èµĮ
æ¨¡æĭŁ ä¸ĭæ³¨
ĠçĭĹä¸ĩçº¢åĮħ æıĲæ¬¾åŃĺåħ¥
å¨ģå°Ķ å£«
6 78
ĠS an
è¿ŀ ä¸Ĭ
Ċå¤§ åĲĮ
ç»Ļ ä¸įç»ĻæıĲçİ°
å¦Ĥä½ķ è®¾ç½®ä¸Ńæĸĩ
å½©å¼Ģå¥ĸç»ĵæŀľ è®°å½ķ
æĤ ł
ĠåķĨ åĵģ
Ċ æĻļ
æľŁ åĩĨ
Ġå°Ĭé¾Ļd88 æīĭæľºapp
å§Ķåĳĺ ãĢģ
äº¤æĺĵ å¹³åı°
Ġéĥ¨èĲ½å®¢ ,
Ġagçİ¯äºļ å®¢æĪ·ç«¯
w it
.p ost
åŀĭ ï¼ļ
Ġå°Ĭé¾Ļ å®¢æĪ·ç«¯ä¸ĭè½½
åħį ä¿Ŀäºº
Ġå°Ĭé¾ĻäººçĶŁå°±æĺ¯åįļ å®ĺæĸ¹å®¢æĪ·ç«¯ä¸ĭè½½
å¹ ¾
èĢħ :
èĮ ¨
æ°ĳéĸĵ ä»£æĽ¸
Ġä¸ĩåįļapp ä¸ºä»Ģä¹Ī
ĠåĪĿ ä¸Ń
çĭ¬ èµ¢
åľº æ³¨
Ċ æ¸¯
éĢļ ä¿¡
åĽ½ä¼ļ ä¼Ĺè®®éĻ¢
Ġå°Ĭé¾Ļd88 AGæĹĹèĪ°åİħ
ĠæŀģéĢŁ 3åĪĨå½©
æ¾³éĹ¨ è¶³çĲĥå¹³åı°
éĺ¿åĪĹåħĭ è°¢
ĠæµİåįĹ æĸ°éĹ»ç½ĳ
ĠæĿ Ĳ
ĠåĪ©æĿ¥åĽ½éĻħ å¨±ä¹Ĳ
çĽĽ å®´
å¤ĸåĽ´ åľºæ³¨
ä»ĸ äºº
ç´ ĭ
ĠHotel s
[çİ¯çĲĥæĹ¶æĬ¥ -çİ¯çĲĥç½ĳæĬ¥éģĵ
å¤§ä¼ļ åłĤ
å¯ °ï¿½
Ġå°Ĭé¾ĻäººçĶŁå°±æĺ¯åįļ æīĭæľºçĻ»å½ķ
æ±Ł æĻļæĬ¥
er ry
Ġ2020-01 -18
å¯¹ éŁ©
2 åİħ
ìĦ ľ
å½©èī² ç½ĳ
äºº æķ°
1.2 8
æĸĩæ±ĩ ç½ĳ
/ åĤ³æĴŃ
/é£ ¯å±Ģ
Ċé»Ħ æ²³
è¡Į ç¨ĭ
r on
çļĦ èĢģ
çļĦ ç»ıæµİ
10 8
ä¸į èµ·
ç½ĳç»ľèµĮ è¾ĵéĴ±
æ¸¸æĪı å¤§åħ¨
æı ½
201 1
å½© å¨±ä¹Ĳ
Ġå°Ĭé¾ĻäººçĶŁå°±æĺ¯åįļ æ¸¸æĪı
çªĹ åı£
å½ĵ æĹ¥
ä¸įç»Ļ æıĲæ¬¾
Ċ èħ¾
ĠM G
Ċ å¤´æĿ¡
Ċæĸ° åįİç¤¾
Ġl ayer
Ġå°Ĭé¾Ļag å®ĺç½ĳ
æĬ¢ çº¢åĮħ
iosçīĪ è½¯ä»¶
åĽĽèĤĸéĢīä¸ĢèĤĸ æľŁåĩĨ
ĠçĭĹä¸ĩå®īåįĵ iosçīĪè½¯ä»¶
å¤ ķ
Ċ çĶ±
ĠçŁ Ń
ç¾İ æľ¯
å§ĭ çļĩ
ç´ Ŀ
ĠæĺĮ å¹³åĮºæĸ°éĹ»ç½ĳ
Ġ2019å¹´ é¦Ļæ¸¯
æĸ°éĹ» å±Ģ
Ġå°Ĭé¾ĻäººçĶŁå°±æĺ¯åįļ çľŁäºº
Ġæ¹ĸåĮĹ å¿«3
Ġ2019-12 -06
çļĦ æĹ¶éĹ´
çĻ»å½ķ å®ĺç½ĳ
ĠåĪ©æĿ¥å®ĺæĸ¹ç½ĳç«Ļ åħ¥åı£
ä¸įèĥ½ è®¿éĹ®
Ġbet- 365ä½ĵèĤ²æĬķæ³¨
æĻ® éģį
ĠC an
O U
çŁŃ æľŁ
Ġç½ĳé¡µ æ¸¸æĪıå¹³åı°
åĨį åº¦
éĢģ åĪ°
éĺ ±
arseInt (
Ġå°Ĭé¾Ļå®ĺç½ĳ æīĭæľºçīĪappä¸ĭè½½
æİªæĸ½ ï¼Į
éĥĳ å·ŀ
éĽ £
åŁİ æĻļæĬ¥
ç»´ åĬłæĸ¯
æĶ¯ ç¥¨
ä¼Ĺ å¤ļ
Ċ æ¥ļ
ãĢĳãĢĲ èĢħ
Ġw idth
Ċ2019-09 -23
èľ Ĥ
èķ ¾
åİ» ãĢĤ
0 .5
Ċä½ł å¥½
Ċ 18
è¶ħ å¸Ĥ
æĳĦ åĥı
çİĭä¸Ńçİĭ å¼Ģå¥ĸç»ĵæŀľ
/ 8
ĠèµĮçĲĥ ç½ĳç«Ļ
æ¬§æ´²è¶³çĲĥ é¢ĳéģĵ
un j
Ġ10 æĹ¶
èģĮä½į ï¼ļ
åīĬ åĩı
Ġæĸĩ åĮĸ
æľĢæĸ°æĬķæ³¨ å¤ĩçĶ¨ç½ĳåĿĢ
é¢ľ èī²
åĩ ¶
è¦ª åŃĲ
æľīä»Ģä¹Ī æĬĢå·§
åħ±å»º âĢľä¸Ģå¸¦ä¸Ģè·¯âĢĿ
Ġè¿Ļ éĩĮ
é©»é©¬ åºĹ
çĶ¨æĪ· çĻ»å½ķ
Ġåĩ¯åıĳ å¹³åı°
h p
Ġë °
ãĢĳãĢĲ æĥħ
æ½ Ķ
app å¤§åıĳå¿«3
Ċ çĮ«
Ġ365æ£ĭçīĮ å®¢æľįçĶµè¯Ŀ
C ontent
¡ ï¿½
ï¼ ĸ
è¶³å½© è®ºåĿĽ
ç¾Ĭ ç½ĳ
Ġå¼Ģåħĥæ£ĭçīĮæľī äºº
ä¸Ńçī¹ |
¹ ï¿½
é»ĳ å±ı
å®ŀéªĮ å®¤
L W
é¸ £
Ċ æ´¥
Ġ365 æīĭæľº
èŃ ĺ
æ¡Ī ï¼Į
åŁİ ç½ĳç«Ļ
Ġ365ä½ĵèĤ² æīĭæľº
Ċ çĸ¯çĭĤ
Ċ æľªæĿ¥
åĨ ¶
Ċ ä¼ł
åĽĽä¸įåĥı å¿ħä¸Ńä¸ĢèĤĸ
Ġæ±ķ å°¾
ĠèĵĿæľĪäº® æĸĻ
ĠìĿ ´
Ġé¦Ļæ¸¯æľĢå¿« å¼Ģå¥ĸçİ°åľºçĽ´æĴŃ
çĶ¨ èº«åĪĨèŃīåĢŁéĮ¢
ĠĠĠĠ ĠĠĠĠ
Ġä¸ī æĺİ
Ġ365bet æ³¨åĨĮ
dãĢĳãĢĲeãĢĳãĢĲ rãĢĳãĢĲ
å¹´åº¦ è®°èĢħä¼ļ
OS T
ä½ĵåĿĽ åį³æĹ¶æ¯ĶåĪĨ
Ġæ¶ ²
ain t
æĹł çłģ
é«ĺ å³°
åħ³ ç¨İ
Ċ æ¶Īè´¹
åģı ä¸į
Ċå¤® å¹¿ç½ĳ
ĠæĦ Ľ
ĠæľĢç»ĻåĬĽåĪ©æĿ¥èĢģçīĮ ç½ĳç«Ļ
å¦ ®
L D
Ġä½ Ĩ
= 0
Ġ365æ£ĭçīĮ è¾ĵäºĨ
ĠæĹħ éģĬ
è¯ķ åĲ¬
6 æĹ¥
è¿ĺ è¦ģ
cted ]
Ġ2020-01 -28
Ind ex
Ġå¼Ģåħĥæ£ĭçīĮ åħ¬åı¸
æĸĩ åŃ¦
è¡¨ æĪĸ
1 +1
3 èĲ¬
Ċä¸ĭä¸Ģç¯ĩ :
Ġä½ıå®¿ åĦªæĥł
å¦Ĥä½ķ è¿ŀä¸Ĭ
èĪĨ è®º
ĠåĵĪ å¯Ĩ
Ġæµ· åı£
åĪĨ è£Ĥ
ì ĩ
æŃ ·
Ġ2019-10 -17
Ċåįİ å¤ı
Ġä¸į åģıä¸į
Lo Ra
Ġæ¾³éĹ¨ éĩĳèİİ
Ġ| æĲľç´¢
æ³¨åĨĮ å°±éĢģ
åľ¨çº¿ è§Ĩé¢ĳ
çĥŃ éĹ¨
åħ¶ å®ŀ
ä¹¡ æĿĳ
[...]
