{"<s>":0,"</s>":1,"<pad>":2,"<unk>":3,"<mask>":4,"Ā":5,"ā":6,"Ă":7,"ă":8,"Ą":9,"ą":10,"Ć":11,"ć":12,"Ĉ":13,"ĉ":14,"Ċ":15,"ċ":16,"Č":17,"č":18,"Ď":19,"ď":20,"Đ":21,"đ":22,"Ē":23,"ē":24,"Ĕ":25,"ĕ":26,"Ė":27,"ė":28,"Ę":29,"ę":30,"Ě":31,"ě":32,"Ĝ":33,"ĝ":34,"Ğ":35,"ğ":36,"Ġ":37,"!":38,"\"":39,"#":40,"$":41,"%":42,"&":43,"'":44,"(":45,")":46,"*":47,"+":48,",":49,"-":50,".":51,"/":52,"0":53,"1":54,"2":55,"3":56,"4":57,"5":58,"6":59,"7":60,"8":61,"9":62,":":63,";":64,"<":65,"=":66,">":67,"?":68,"@":69,"A":70,"B":71,"C":72,"D":73,"E":74,"F":75,"G":76,"H":77,"I":78,"J":79,"K":80,"L":81,"M":82,"N":83,"O":84,"P":85,"Q":86,"R":87,"S":88,"T":89,"U":90,"V":91,"W":92,"X":93,"Y":94,"Z":95,"[":96,"\\":97,"]":98,"^":99,"_":100,"`":101,"a":102,"b":103,"c":104,"d":105,"e":106,"f":107,"g":108,"h":109,"i":110,"j":111,"k":112,"l":113,"m":114,"n":115,"o":116,"p":117,"q":118,"r":119,"s":120,"t":121,"u":122,"v":123,"w":124,"x":125,"y":126,"z":127,"{":128,"|":129,"}":130,"~":131,"ġ":132,"Ģ":133,"ģ":134,"Ĥ":135,"ĥ":136,"Ħ":137,"ħ":138,"Ĩ":139,"ĩ":140,"Ī":141,"ī":142,"Ĭ":143,"ĭ":144,"Į":145,"į":146,"İ":147,"ı":148,"Ĳ":149,"ĳ":150,"Ĵ":151,"ĵ":152,"Ķ":153,"ķ":154,"ĸ":155,"Ĺ":156,"ĺ":157,"Ļ":158,"ļ":159,"Ľ":160,"ľ":161,"Ŀ":162,"ŀ":163,"Ł":164,"ł":165,"¡":166,"¢":167,"£":168,"¤":169,"¥":170,"¦":171,"§":172,"¨":173,"©":174,"ª":175,"«":176,"¬":177,"Ń":178,"®":179,"¯":180,"°":181,"±":182,"²":183,"³":184,"´":185,"µ":186,"¶":187,"·":188,"¸":189,"¹":190,"º":191,"»":192,"¼":193,"½":194,"¾":195,"¿":196,"À":197,"Á":198,"Â":199,"Ã":200,"Ä":201,"Å":202,"Æ":203,"Ç":204,"È":205,"É":206,"Ê":207,"Ë":208,"Ì":209,"Í":210,"Î":211,"Ï":212,"Ð":213,"Ñ":214,"Ò":215,"Ó":216,"Ô":217,"Õ":218,"Ö":219,"×":220,"Ø":221,"Ù":222,"Ú":223,"Û":224,"Ü":225,"Ý":226,"Þ":227,"ß":228,"à":229,"á":230,"â":231,"ã":232,"ä":233,"å":234,"æ":235,"ç":236,"è":237,"é":238,"ê":239,"ë":240,"ì":241,"í":242,"î":243,"ï":244,"ð":245,"ñ":246,"ò":247,"ó":248,"ô":249,"õ":250,"ö":251,"÷":252,"ø":253,"ù":254,"ú":255,"û":256,"ü":257,"ý":258,"þ":259,"ÿ":260,"ä¸":261,"Ġå":262,"äº":263,"åı":264,"ç½":265,"Ġæ":266,"å®":267,"ç½ĳ":268,"ãĢ":269,"Ġç":270,"æľ":271,"å¤":272,"ï¼":273,"æĹ":274,"36":275,"365":276,"çī":277,"åħ":278,"ä¹":279,"åıĳ":280,"å®ĺ":281,"ä½":282,"æĸ":283,"åĪ":284,"åĽ":285,"å½":286,"äºļ":287,"æ¸":288,"æĪ":289,"è½":290,"be":291,"Ġé":292,"åİ":293,"åį":294,"å®ĺç½ĳ":295,"åĬ":296,"Ġ365":297,"bet":298,"æī":299,"20":300,"ä¸ĭ":301,"èĤ":302,"åľ":303,"å¹":304,"æ¸¸":305,"Ġåĩ":306,"æ³":307,"ï¼Į":308,"ä»":309,"Ġåĩ¯":310,"æĬ":311,"ä¸ĩ":312,"çĽ":313,"ä½ĵ":314,"ç«":315,"çĶ":316,"è½½":317,"ä¸ĭè½½":318,"èĤ²":319,"Ġè":320,"ä½ĵèĤ²":321,"çļ":322,"æľº":323,"Ġåĩ¯åıĳ":324,"å½©":325,"åĲ":326,"çļĦ":327,"ãĢĳ":328,"ãĢĲ":329,"æīĭ":330,"¿½":331,"ï¿½":332,"ag":333,"çīĮ":334,"ap":335,"æ³¨":336,"æĹ¶":337,"å°":338,"app":339,"æĿ":340,"ãĢĳãĢĲ":341,"çİ":342,"å·":343,"éĹ":344,"å¤©":345,"æ£":346,"åİ¿":347,"æīĭæľº":348,"å¸":349,"ä¹Ĳ":350,"å¼":351,"åĿ":352,"å¿":353,"åĽ½":354,"æĺ":355,"Ġå¤":356,"äºº":357,"ĭçīĮ":358,"å¹³":359,"èµ":360,"åı°":361,"éĻ":362,"æ£ĭçīĮ":363,"åİ¿|":364,"çº":365,"åĬł":366,"è¿":367,"æĬķ":368,"è®":369,"åĪĨ":370,"çĽŁ":371,"çĻ":372,"Ġ|":373,"Ġäºļ":374,"åĬłçĽŁ":375,"ï¼ļ":376,"åľ¨":377,"ç«Ļ":378,"åĿĢ":379,"åĨ":380,"å¹³åı°":381,"åº":382,"çīĪ":383,"ç¥":384,"æĸ¹":385,"å¤§":386,"ç»":387,"å¿«":388,"ä¸Ń":389,"éĢ":390,"ç½ĳç«Ļ":391,"å±":392,"Ġå¤§":393,"201":394,"ĭĹ":395,"ä¸Ģ":396,"Ġag":397,"åĮ":398,"âĢ":399,"è¯":400,"æĪı":401,"çľ":402,"å¼Ģ":403,"æ¸¸æĪı":404,"æĸ°":405,"çĲ":406,"å¨":407,"ãĢĤ":408,"æĿ¥":409,"æĬķæ³¨":410,"¯äºļ":411,"çº¿":412,"Ġ-":413,"å¸Ĥ":414,"ç½ĳåĿĢ":415,"ä¸Ĭ":416,"ä¼":417,"æ°":418,"ĭĹä¸ĩ":419,"±ä¹Ĳ":420,"æĪ·":421,"åŃ":422,"éĩ":423,"è§":424,"è´":425,"ĠçĭĹä¸ĩ":426,"å¨±ä¹Ĳ":427,"10":428,"å¥":429,"-0":430,"æµ":431,"æĺ¯":432,"çĻ»":433,"æĢ":434,"å®ĺæĸ¹":435,"Ġæĺ":436,"ä¸ī":437,"æ¬":438,"æĹ©":439,"Ġbet":440,"Ġ365bet":441,"çĤ":442,"å®¶":443,"éĻħ":444,"Ġå¤§åıĳ":445,"æŀ":446,"ä¹Ī":447,"Ġçİ":448,"æ²":449,"¾Ļ":450,"éĹ¨":451,"çĤ¹":452,"éĺ":453,"ä¸į":454,"å½ķ":455,"ï¿½ï¿½":456,"è¡":457,"åĽ½éĻħ":458,"å½©ç¥":459,"æ±":460,"åŁ":461,"æ´":462,"åįļ":463,"ĠåĪ":464,"åĩ":465,"ä¿":466,"©æĿ¥":467,"å®¢":468,"é¾Ļ":469,"Ġ365ä½ĵèĤ²":470,"å®ī":471,"é¤":472,"¨å¤©":473,"ç¾":474,"éĽ":475,"çľŁ":476,"çĻ»å½ķ":477,"çĲĥ":478,"éĴ":479,"å¾":480,"ĠæĹ":481,"é¤Ĳ":482,"35":483,"é¡":484,"åľ¨çº¿":485,"æĹĹ":486,"¾³":487,"Ġæĺ¨å¤©":488,"Ġäºļæ¸¸":489,"çĶµ":490,"Ġ1":491,"èĢ":492,"å·ŀ":493,"æīĭæľºçīĪ":494,"Ġå°":495,"å±±":496,"åħĥ":497,"¾³éĹ¨":498,"356":499,"Ġçİ¯äºļ":500,"æľī":501,"2019":502,"æŃ":503,"åĨĮ":504,"Ġå®":505,"çĶ¨":506,"å¯":507,"å¸Ĥ|":508,"æĹ¥":509,"æ³¨åĨĮ":510,"åĵ":511,"ç¾İ":512,"æł":513,"åŁİ":514,"å½©ç¥¨":515,"èĪ":516,"ĠåĪ©æĿ¥":517,"-1":518,"çİ°":519,"æ¬¾":520,"ä¸ĩ+":521,"éĥ":522,"æĢİ":523,"æľĢ":524,"éĿ":525,"æº":526,"å¿«ä¸ī":527,"æİ":528,"Ġbet365":529,"Ġæ¾³éĹ¨":530,"ç«¯":531,"æı":532,"Ĭé¾Ļ":533,"é¢":534,"åľ°":535,"å¹´":536,"æĶ":537,"å®¢æĪ·":538,"īį":539,"Ġå¼":540,"Ġä¸":541,"Ġ0":542,"éĴ±":543,"é¦":544,"³|":545,"Ġ365æ£ĭçīĮ":546,"æĢİä¹Ī":547,"å®¢æĪ·ç«¯":548,"åİħ":549,"äºĨ":550,"Ġ365ä½ĵèĤ²æĬķæ³¨":551,"ãĢģ":552,"ç§":553,"88":554,"æıĲ":555,"¥¿":556,"in":557,"åħĥæ£ĭçīĮ":558,"è¾":559,"Ġåį":560,"Ġ365betå®ĺç½ĳ":561,"Ġ>":562,"æĬ¥":563,"éĽĨ":564,"2020":565,"356bet":566,"æ±Ł":567,"æĭ":568,"å°ı":569,"åħ¬":570,"åįĹ":571,"Ġåħ":572,"åħ¨":573,"on":574,"ĴĮ":575,"Ġå¼Ģ":576,"å¤ļ":577,"Ġå°Ĭé¾Ļ":578,"åĳ":579,"er":580,"åĲĹ":581,"éĩĳ":582,"æĹ¶å½©":583,"æĹ©é¤Ĳ":584,"è¡Į":585,"æķ":586,"çľŁäºº":587,"an":588,"ä¼ļ":589,"è¶":590,"åĢ":591,"ĠæĹ©":592,"çİ¯äºļ":593,"66":594,"æĹ¶æĹ¶å½©":595,"Ġ356bet":596,"Ġæĸ":597,"é¡µ":598,"åĽ¢":599,"åŃĲ":600,"çĶŁ":601,"æĹ©çĤ¹":602,"åĽ¾":603,"èĪ°":604,"åīį":605,"om":606,"çł":607,"éĤ":608,"ä¿¡":609,"èĥ":610,"æĹĹèĪ°":611,"åľº":612,"æºĲ":613,"appä¸ĭè½½":614,"è½¦":615,"åºĹ":616,"éģ":617,"å±±|":618,"äº¬":619,"2020-0":620,"åĴĮ":621,"-2":622,":0":623,"éĽĨåĽ¢":624,"å¼ĢæĪ·":625,"¾å®¶":626,"Ġ2":627,"Ġåı":628,"éĹ»":629,"èĭ":630,"æŀľ":631,"Ġå¼Ģåħĥæ£ĭçīĮ":632,"re":633,"åĮº":634,"Ġå¹":635,"st":636,"æ´²":637,"å¤ĩ":638,"æĻ":639,"è¥¿":640,"å¿«3":641,"æ¯":642,"æĸĩ":643,"ä½ľ":644,"ç®":645,"at":646,"èĩ":647,"å¥ĸ":648,"è²":649,"âĢĿ":650,"æµ·":651,"æ³ķ":652,"âĢľ":653,"åı·":654,"æ°´":655,"Ġc":656,"çī¹":657,"æľĪ":658,"é¦ĸ":659,"è®¡":660,"æĸ°éĹ»":661,"ĠA":662,"al":663,"çĲĨ":664,"Ġb":665,"åı£":666,"Ġäº":667,"èī":668,"æĹ©é¤ĲåĬłçĽŁ":669,"en":670,"Ġäºļç¾İ":671,"ä»¶":672,"w66":673,"æĮ":674,"æĴ":675,"«ĺ":676,"åĪ°":677,"éĢŁ":678,"æĥ":679,"Ġä¸ĩ":680,"Ġt":681,"èģ":682,"å®ĺæĸ¹ç½ĳç«Ļ":683,"Ġåĩ¯æĹ¶":684,"éķ":685,"çĽ´":686,":4":687,"èµĦ":688,"Ġæĸ°":689,":5":690,"å¥½":691,"åģ":692,"æĹĹèĪ°åİħ":693,"å¤ĸ":694,"åĮĹ":695,"ä¸º":696,"è´¹":697,"å¤ĩçĶ¨":698,"Ġagçİ¯äºļ":699,"åĲĪ":700,":2":701,"è°":702,"ä¸ª":703,"Ġæĺ¨å¤©0":704,"æŃ£":705,"è¦":706,"æ»":707,"å¤§åıĳ":708,"ä»£":709,"æĲ":710,"ģ|":711,"å¼Ģå¥ĸ":712,"éĺ³|":713,"è§Ĩ":714,"éľ":715,"ĠæĿ":716,"æĴŃ":717,"åĪĴ":718,"pk":719,"è¶³":720,"çİ©":721,"æ°ĳ":722,"åĩº":723,"å°Ķ":724,"ä¸ľ":725,"ĠçĶ":726,"å·ŀ|":727,"æĹĹ|":728,"Ġå½":729,"se":730,"çķ":731,"ä»¥":732,"ľŁ":733,"æ°Ķ":734,"ä»Ģ":735,"èĢħ":736,"ar":737,"èµĮ":738,"è§Ħ":739,":1":740,"å·¥":741,"éĥ¨":742,"åŁİ|":743,"Ġ/":744,"åĪ©":745,"éĹ´":746,"00":747,"éĶ":748,"ç¤":749,"or":750,"ä¾":751,"å²":752,"Ċ2019":753,"é£":754,"çłģ":755,"åĽ´":756,"Ġæ±":757,"è®¡åĪĴ":758,"è·":759,"åı¯":760,"Ġéĺ":761,"çĶµæ¸¸":762,".c":763,"pk10":764,"ĠåĮ":765,"..":766,"æĹ©çĤ¹åĬłçĽŁ":767,"æľĢæĸ°":768,"Ġæľ":769,"ç¨":770,"è²¸":771,":3":772,"Ġå¤§åıĳå¿«ä¸ī":773,"æ¹":774,"çĻ¾å®¶":775,"Ġæī":776,"èµ°":777,"is":778,"ç¥ŀ":779,"èĥ½":780,"ĠçľŁ":781,"å°±":782,"è¦ģ":783,"ĠçĻ":784,"çŃ":785,"ç»ĵ":786,"é©":787,"é»":788,"åħį":789,"Ġ201":790,"d88":791,"Ġ3":792,"æį":793,"Ġæĺ¨å¤©1":794,"å¿ĥ":795,"ĠåĲ":796,"åĵª":797,"Ġ5":798,"é¦ĸé¡µ":799,"te":800,"åĬ¿":801,"éª":802,"ä»Ģä¹Ī":803,"éĵ":804,"åķ":805,"åįķ":806,"æĸ°éĹ»ç½ĳ":807,"ç½ĳæĬķ":808,"åĬ¨":809,"æ¸¯":810,"æľŁ":811,"èµĽ":812,"Ġæ²":813,"ou":814,"æ±Ł|":815,"çľĭ":816,"èĬ":817,"Ń¦":818,"Ġæµ":819,"è¿Ĳ":820,"èĲ":821,"ä¸ļ":822,"èĩª":823,"çĽ´æĴŃ":824,"å¯¹":825,"Ł³":826,"ĠC":827,"ä¸ŃåĽ½":828,"éĩĮ":829,"åĮĸ":830,"æĸ¯":831,"åħ¥":832,"Ġ2019":833,"le":834,"æĦ":835,"å·Ŀ":836,"Ġk":837,"äºĮ":838,"å®ī|":839,"æ¯Ķ":840,"ĠS":841,"æĪĳ":842,"ļçĲĥ":843,"è¶³çĲĥ":844,"Ł¥":845,"çº¿ä¸Ĭ":846,"ä¸»":847,"å®¢æĪ·ç«¯ä¸ĭè½½":848,"æĽ":849,"èĢģ":850,"åĲį":851,"Ġä¹":852,"ĠåįĹ":853,"he":854,"ä½ĵèĤ²æĬķæ³¨":855,"åľ°åĿĢ":856,"Ġ2020-0":857,"æĲı":858,"éĥ½":859,"è¿Ľ":860,"åĪĨå½©":861,"èµ°åĬ¿":862,"¦Ĥ":863,"Ġ(":864,"å¤©æ°Ķ":865,"åħįè´¹":866,"ĠåĮĹ":867,"åħ³":868,"ĠæĹ©é¤Ĳ":869,"æ¶":870,"éĺ³":871,"°|":872,"Ġå½©":873,"ĠåĽ":874,"å®ļ":875,"æĪĲ":876,"ä½į":877,"æĶ¿":878,"åĵģ":879,"å§":880,"åŃ¦":881,"ç¦":882,"è£":883,"è¡¨":884,"é«ĺ":885,"ç»ı":886,"éģĵ":887,"åħĭ":888,"ĠæĹ©çĤ¹":889,"åĲİ":890,"Ġä¸ĩåįļ":891,"éĢī":892,"Ġåĩ¯åıĳå®ĺç½ĳ":893,"éħ":894,"am":895,"ht":896,"Ġ9":897,"è¿Ļ":898,"å½©ç¥ŀ":899,"åįİ":900,"æ¡":901,"æľ¬":902,"ï¼ī":903,"æĬĢ":904,"äºī":905,"ç¯":906,"18":907,"åıĮ":908,"åı¸":909,"å¼ı":910,"éķ¿":911,"ä½ĵèĤ²åľ¨çº¿":912,"lo":913,"it":914,"æŀĹ":915,"å»":916,"ĠT":917,"éĢļ":918,"ï¼Ī":919,"æ»ļçĲĥ":920,"æĸĻ":921,"éĢģ":922,"ģéĢŁ":923,"äº¤":924,"ĠP":925,"å£":926,"è®°":927,"Ġf":928,"Ġåĩ¯åıĳä½ĵèĤ²":929,"æĹ¶éĹ´":930,"åł":931,"æıĲçİ°":932,"å°ĳ":933,"å½ĵ":934,"Ġcc":935,".com":936,"Ġ}":937,"ä»ĸ":938,"åķĨ":939,"åº¦":940,"Ġæ°":941,"Ġéķ":942,"ç²":943,"å¾·":944,"èµ°åĬ¿åĽ¾":945,"åİŁ":946,"è¢":947,"ri":948,"Ġå¤©":949,"æģ":950,"-10":951,"æľį":952,"äºļæ´²":953,"Ġ4":954,"éľ¸":955,"Ġæ³":956,"é©¬":957,"Ġ=":958,"æĤ":959,"å¤ĸåĽ´":960,"Ġå®ī":961,"ç¬":962,"ç©":963,"äºĭ":964,".0":965,"äºļæ¸¸":966,"è½¯":967,"åĳĺ":968,"éļ":969,"Ġå½©ç¥ŀ":970,"Ġéĩ":971,"æĺİ":972,"äºİ":973,"åĪ©æĿ¥":974,"ç³":975,"éĿ¢":976,"ä¿Ŀ":977,"Ġæŀ":978,"ĠM":979,"Ġbe":980,"ww":981,"åħ¬åı¸":982,"ä»¬":983,"Ġs":984,"Ġèµ":985,"å®ģ|":986,"äºīéľ¸":987,"å¸ĥ":988,"è®º":989,"è½¯ä»¶":990,"ãĢĢ":991,"à¸":992,"çĻ¾å®¶ä¹Ĳ":993,"æ²³":994,"æºĲï¼ļ":995,"åĬĽ":996,"ĠccåĽ½éĻħ":997,"¹æŀľ":998,"Ġm":999,"çĪ":1000,"é¢ĳ":1001,"æİĴ":1002,"åĲĮ":1003,"è·¯":1004,"Ġv":1005,"ĠæĹ¥":1006,");":1007,"ī|":1008,"åįĵ":1009,"Ġk8":1010,"Ġå·":1011,"ç±":1012,"åįķåıĮ":1013,"ç¼":1014,"ent":1015,"ĠäºļæĲı":1016,"æıĲæ¬¾":1017,"Ġå¹³":1018,"Ġçº":1019,"Ġæ¸":1020,"Ġp":1021,"ç´":1022,"åĭ":1023,"ç³»":1024,"è®¯":1025,"»¿":1026,"Ġd":1027,"Ġå¾":1028,"èī²":1029,"è²¸æ¬¾":1030,"èį":1031,"Ġä¸Ń":1032,"Ġé»":1033,"ĠåĮĹäº¬":1034,"t365":1035,"è¢«":1036,"Ġä¸ľ":1037,"ion":1038,"ĠB":1039,"åĢŁ":1040,"ä»£çĲĨ":1041,"åıĸ":1042,"ç¯ĩ":1043,"ĠçľŁäºº":1044,"å¤©å¤©æ°Ķ":1045,"Ġäºļæ¸¸éĽĨåĽ¢":1046,"ĠçĶµ":1047,"æĢ»":1048,"ĠåĪ©æĿ¥w66":1049,"è§£":1050,"é¢ĺ":1051,"èµ¢":1052,"å¦Ĥ":1053,"èģĶ":1054,"ĠéĿ":1055,"åĪ¶":1056,"èĻ":1057,"Ġçİ¯äºļag":1058,"??":1059,"åĻ":1060,"å®ŀ":1061,"æīĵ":1062,"Ġ6":1063,"è¨":1064,"ĠR":1065,"Ġw66":1066,"ç½ĳä¸Ĭ":1067,"Ċ2020-0":1068,"es":1069,"Ġ8":1070,"èĭ¹æŀľ":1071,"æĭī":1072,"çĥ":1073,"ĠH":1074,"ç»ĵæŀľ":1075,"æ²³|":1076,"èİ":1077,"æł·":1078,"çīĩ":1079,"äºĶ":1080,"åĻ¨":1081,"æĪ¿":1082,"è¿ŀ":1083,"Ļæ¸¯":1084,"ä½ķ":1085,"ï¿½ï¿½ï¿½ï¿½":1086,"ï»¿":1087,"å±Ģ":1088,"æ¸¸æĪıå¹³åı°":1089,"ä¸Ģç¯ĩ":1090,"Ġç§":1091,"æºª":1092,"Ġ7":1093,"åįĹ|":1094,"Ġbet356":1095,"æłĩ":1096,"æĹł":1097,"Ġå¯":1098,"åįģ":1099,"Ġ10":1100,"ç¨ĭ":1101,"æµģ":1102,"çģ":1103,"ct":1104,"12":1105,"èĦ":1106,"',":1107,"å¤§åħ¨":1108,"çİĭ":1109,"ä¹ĭ":1110,"è¿ĩ":1111,"å·Ŀ|":1112,"çĸ":1113,"Ġå°Ĭé¾Ļd88":1114,"åĢ¼":1115,"Ġæīĭ":1116,"Ġ{":1117,"å»º":1118,"ĠæĿ¥":1119,"éĴŁ":1120,"Ġèĭ":1121,"åĬ¡":1122,"å¤ĩçĶ¨ç½ĳåĿĢ":1123,"Ċ201":1124,"ç½®":1125,"çĽĺ":1126,"-12":1127,"å¤ļå°ĳ":1128,"æķ°":1129,"æİ¥":1130,"èª":1131,"ä»Ĭ":1132,"Ġbet36":1133,"Ġå¤§åıĳæĹ¶æĹ¶å½©":1134,"Ġæ±Ł":1135,"è´¦":1136,"åĽŀ":1137,"-11":1138,"åħŃ":1139,"ĠæĪ":1140,"ç®¡":1141,"±¼":1142,"è£ħ":1143,"åĪĨå¿«3":1144,"ç¬¬":1145,"Ġåĩ¯åıĳæīĭæľº":1146,"ç¤º":1147,"Ġa":1148,"Ġæ°¸":1149,"æ¹ĸ":1150,"éĩį":1151,"ĠãĢĳãĢĲ":1152,"è§Ĩé¢ĳ":1153,"Ġä¸´":1154,"å®ĺç½ĳä¸ĭè½½":1155,":'":1156,"è¯ģ":1157,"åİ»":1158,"Ġä¸Ĭ":1159,"ic":1160,"å°Ĩ":1161,"æĦı":1162,"åĽĽ":1163,"çĽ®":1164,"Ġè¥¿":1165,"åºĨ":1166,"id":1167,"æĺĮ":1168,"ç½Ĺ":1169,"å®īåįĵ":1170,"Ġå¹¿":1171,"éĤ®":1172,"Ġåīį":1173,"Ġéĩĳ":1174,"å¹³|":1175,"çĦ":1176,"æĹħ":1177,"å¹¿":1178,"é±¼":1179,"éĻĨ":1180,"ï½":1181,"un":1182,"åĸ":1183,"è¯·":1184,"æ·":1185,"Ġçī":1186,"åģĩ":1187,"åį¡":1188,"å·§":1189,"çķĮ":1190,"AP":1191,"èµĦæĸĻ":1192,"æ¼":1193,"ä¸ĸ":1194,"ç¥¨":1195,"ĠæĻ":1196,"ä¹°":1197,"åĪĨéĴŁ":1198,"Ġåĩ¯åıĳapp":1199,"ĠæŃ¦":1200,"11":1201,"ĠI":1202,"å°±æĺ¯":1203,"æ°´|":1204,"æ¬¡":1205,"æĥħ":1206,"Ġé¦":1207,"æ¢":1208,"æİ¨":1209,"åºľ":1210,"æĹ¥æĬ¥":1211,"ĠÂ":1212,"åĨħ":1213,".5":1214,"ĠL":1215,"Ġéķ¿":1216,"ght":1217,"ĠâĢ":1218,"è¯´":1219,"éĻ¢":1220,"æĬĢå·§":1221,"çī©":1222,"ĠD":1223,"ç®Ĺ":1224,"æīĢ":1225,"ĠçĻ¾å®¶":1226,"äºĳ":1227,"Ġé«ĺ":1228,"Ġi":1229,"´|":1230,"åŀ":1231,"Ġå¿":1232,"æ´¥":1233,"AG":1234,"å³":1235,"ĠAG":1236,"åŃĹ":1237,"Ġåīįå¤©":1238,"åĬ©":1239,"éĹ®":1240,"éĿĴ":1241,"ing":1242,"å¼Ģåħĥæ£ĭçīĮ":1243,"ed":1244,"Ġ:":1245,"åĨł":1246,"30":1247,"æĤ¨":1248,"åºĹåĬłçĽŁ":1249,"ç¤¾":1250,"Ġåĩ¯åıĳçº¿ä¸Ĭ":1251,"æ²»":1252,"äº§":1253,"ĠçĽ":1254,"Ġæīĭæľº":1255,"å®ģ":1256,"å¢":1257,"ĠæĹ¥åįļ":1258,"æīĭæľºçīĪä¸ĭè½½":1259,"Ġåı°":1260,"Ġç»":1261,"èĤĸ":1262,"éĿł":1263,"åĮħ":1264,"äººçĶŁ":1265,"op":1266,"çŃī":1267,"æ©":1268,"APP":1269,"æł¼":1270,"æŁ¥":1271,"å¼Ģå¥ĸç»ĵæŀľ":1272,"æīĭæľºçĻ»å½ķ":1273,"ä¸İ":1274,"æĶ¿åºľ":1275,"åįķåıĮï¼ļ":1276,"æīĭæľºå®¢æĪ·ç«¯":1277,"å¨±ä¹Ĳå®ĺç½ĳ":1278,"æ²¡":1279,"èĢģçīĮ":1280,"¡|":1281,"ä¸Ģç¯ĩï¼ļ":1282,"å±ķ":1283,"et":1284,"Ġw":1285,"Ġw66åĪ©æĿ¥":1286,"çİ°éĩĳ":1287,"Ġthe":1288,"Ġå°ı":1289,"ç»Ł":1290,"...":1291,"Ġè¿":1292,"æ¥":1293,"è¯Ŀ":1294,"Ġbt365":1295,"åĪĹ":1296,"å¡":1297,"Ġè´":1298,"å®ĺæĸ¹ä¸ĭè½½":1299,"åħ±":1300,"å°ıæĹ¶":1301,"15":1302,"ĠãĢĲ":1303,"è¾¾":1304,"åı¯ä»¥":1305,"èĤ¡":1306,"Ġéĺ¿":1307,"æ¨":1308,"éħĴ":1309,"ç«ŀ":1310,"ĠåĬ":1311,"ç§ĳ":1312,"365bet":1313,"èĭ±":1314,"ĠéĢ":1315,"ä¹Ł":1316,"åħħ":1317,"Ġå¨":1318,"ç¿":1319,"çľŁéĴ±":1320,"åħī":1321,"è¿ĳ":1322,"Ġçļ":1323,"çº§":1324,"è¯Ħ":1325,"ro":1326,"é»ĳ":1327,"æ¸ħ":1328,"Ġéĵ":1329,"ĠæŀģéĢŁ":1330,"ad":1331,"èµ·":1332,"ĠG":1333,"ç²¾":1334,".2":1335,"çİĩ":1336,"å®ĺç½ĳçĻ»å½ķ":1337,"é£ŀ":1338,"è®®":1339,"--":1340,"ç¾¤":1341,"å¾ĭ":1342,"é¢Ħ":1343,"¸è¿Ĳ":1344,"åº·":1345,"è®¾":1346,"agæĹĹèĪ°åİħ":1347,"Ġä¸ī":1348,"æŃ£è§Ħ":1349,"ĠæŃ":1350,"åĩĨ":1351,"åī":1352,"Ġåĩ¯åıĳçĶµæ¸¸":1353,"Ġå¥":1354,"æºĲ|":1355,"è¿ĺ":1356,"Ġåº":1357,"å·²":1358,"nt":1359,"å¸Ī":1360,"Ġå®ģ":1361,"ĠéĽ":1362,"¦|":1363,"éªĮ":1364,"å¾Ĺ":1365,"ll":1366,"æĶ¶":1367,"çīĽ":1368,"Ġéĥ":1369,"æ£ĭçīĮæ¸¸æĪı":1370,"ä½įç½®":1371,"ĠåĪĨ":1372,"èĬ±":1373,"æŁ":1374,"Ġäºļæ´²":1375,"Ġæ´":1376,"ac":1377,"æĿ¡":1378,"è±":1379,"åĲĥ":1380,"éķĩ":1381,"and":1382,"èı":1383,"ĠF":1384,"åĶ":1385,"å°Ĭé¾Ļ":1386,".1":1387,"ç»Ļ":1388,"ĠN":1389,"å¤§åıĳå¿«ä¸ī":1390,"è³":1391,"ç¦ı":1392,"ĠæĿ¥æºĲï¼ļ":1393,"èº":1394,"çĻ»éĻĨ":1395,"Ġå»":1396,"åłĤ":1397,"Ġæ¹":1398,"Ġn":1399,"æĿĥ":1400,"ä»»":1401,"ç©º":1402,"of":1403,"ä½ĵèĤ²app":1404,"am8":1405,"st365":1406,"(\"":1407,"ĠagåĽ½éĻħ":1408,"æĺŁ":1409,"å¯¼":1410,"æµĭ":1411,"ĠéĻ":1412,"ĠäºĮ":1413,"äººæ°ĳ":1414,"éĻĲ":1415,"Ġre":1416,"åħ¶":1417,"ç½ĳé¡µ":1418,"æį®":1419,"çĭĹ":1420,"ç«ł":1421,"ç¼ĸ":1422,"æģ¯":1423,"çĮ":1424,"Ġå±":1425,"æĻļ":1426,"ay":1427,"Ġä¹Ĳ":1428,"Ġçº¿":1429,"æ¯ĶåĪĨ":1430,"ĠW":1431,"çīĪä¸ĭè½½":1432,"ĠéĤ":1433,"åĪĨæĹ¶æĹ¶å½©":1434,"è»":1435,"å°ıæĹ¶åīį":1436,"ment":1437,"Ġçº¿ä¸Ĭ":1438,"èªī":1439,"Ġagäºļæ´²":1440,"Ġ\"":1441,"2-2":1442,".6":1443,"Ġ365æ£ĭçīĮæ¸¸æĪı":1444,"åıĬ":1445,"Ċ2019-0":1446,"ĠE":1447,"å°¼":1448,"âĢĶ":1449,".8":1450,"ãĢĭ":1451,"éĻµ":1452,"æīĭæľºapp":1453,"Ġä¹Į":1454,"Ġh":1455,"éĿŀ":1456,"éĮ":1457,"èµĽè½¦":1458,"ľ|":1459,"èº«":1460,"ä¸ľ|":1461,"æ¬¢":1462,"as":1463,"æŃ¤":1464,"Ġæµ·":1465,"Ġåĩ¯æĹ¶åĽ½éĻħ":1466,"ĠçŁ³":1467,"è§Ĥ":1468,"ãĢĬ":1469,"æĮĩ":1470,"19":1471,".3":1472,"åģļ":1473,"å·´":1474,"Ń|":1475,"æ¹¾":1476,"Ġè¾":1477,"ä»İ":1478,"æºª|":1479,".4":1480,"ç¾İåĽ½":1481,"Ġä¼":1482,"å¨±ä¹Ĳåľº":1483,".9":1484,"Ġå¤ĸ":1485,"Ġåĩ¯åıĳå½©ç¥¨":1486,"æĭĽ":1487,"èĻİ":1488,"äººçĶŁå°±æĺ¯":1489,"Ġæĺ¨å¤©2":1490,"çĿ":1491,"èĭı":1492,"æĽ´":1493,"çĽ¸":1494,"Ġæ·":1495,"Ġç¦":1496,"ĠæĢ":1497,"ä¸Ńå¿ĥ":1498,"ĠæŃ£":1499,"åĮº|":1500,"æ¾³éĹ¨":1501,"Ġ20":1502,"å®¢æľį":1503,"å®Ŀ":1504,"æĻ®":1505,"Ġ2018":1506,"åĦ":1507,"ä»·":1508,"éĩı":1509,"èīĩ":1510,"æĺ¯ä»Ģä¹Ī":1511,"ï¿½ï¿½ï¿½":1512,"Ġé¾Ļ":1513,"Ġ#":1514,"å²Ľ":1515,"ä¿¡èªī":1516,"ç¹":1517,".7":1518,"åĥ":1519,"éĵ¶":1520,"4-0":1521,"Ġæ¡":1522,"æ½":1523,").":1524,"æĥł":1525,"ĠäºĶ":1526,"æĪĳä»¬":1527,"ķé±¼":1528,"Ġå¸":1529,"Ġ$":1530,"Ġåľ":1531,"å©":1532,"è®°èĢħ":1533,"é¥":1534,"alse":1535,"èĳ":1536,"ĠçĻ¾å®¶ä¹Ĳ":1537,"å¾®":1538,"åĲ§":1539,"ur":1540,"é¡¹":1541,"æĪĺ":1542,"ä¸¤":1543,"çĻ¾":1544,"æ²Ļ":1545,"çİ°åľº":1546,"èŃ¦":1547,"el":1548,"Ġæ»":1549,"æ¡Ī":1550,"Ġåįļ":1551,"od":1552,"çı":1553,"è»Ĭ":1554,"æ´»":1555,"å¦Ĥä½ķ":1556,"Ġå®ľ":1557,"ç§°":1558,"Ġå¾·":1559,"åĮĹäº¬":1560,"æķĻ":1561,"å¤´":1562,"Ġbest365":1563,"www":1564,"Ġin":1565,"åºĶ":1566,"æ¶Ī":1567,"365ä½ĵèĤ²æĬķæ³¨":1568,"èµĮåľº":1569,"ol":1570,"æŀģéĢŁ":1571,"èĹ":1572,"ä¸ĵ":1573,"äºĽ":1574,"Ċä¸Ĭ":1575,"éĸ":1576,"âĢķ":1577,"¥|":1578,"Ġè¯":1579,"ĠåĨ":1580,"ĠU":1581,"åĩ¯":1582,"Ġy":1583,"åĳ¨":1584,"æĺĵ":1585,"è¶ħ":1586,"è¥¿|":1587,"é¦Ļæ¸¯":1588,"ĩåĨł":1589,"å®īåħ¨":1590,"ä½ľèĢħ":1591,"ç±»":1592,"éĤĢ":1593,"éĮ¢":1594,"Ċæĸ°":1595,"äººçĶŁå°±æĺ¯åįļ":1596,"ĠO":1597,"os":1598,"åŀĭ":1599,"é£İ":1600,"åŃĺ":1601,"Ġå²":1602,"å·¦":1603,"æ±Ĥ":1604,"Ġ[":1605,"éªĹ":1606,"ĬĢ":1607,"te365":1608,"æĹ¶éĹ´ï¼ļ":1609,"éĤĢè¯·":1610,"è¾ĵ":1611,"Ġä¸Ģ":1612,"ĠåĬł":1613,"æĺĮ|":1614,"çĭ":1615,"Â·":1616,"å°ıåĲĥ":1617,"us":1618,"Ġd88":1619,"Ġä½":1620,"å®īè£ħ":1621,"åı¤":1622,"æµİ":1623,"æµ·|":1624,"åıª":1625,"éħį":1626,"ä¸ĸçķĮ":1627,"çł´":1628,"ow":1629,"æľĢæĸ°çĻ»å½ķ":1630,"é²":1631,"çª":1632,"åĨĽ":1633,"ĠéĿĴ":1634,"æľ¨":1635,"½|":1636,"ĠV":1637,"å£«":1638,"å¤©åłĤ":1639,"æĹħæ¸¸":1640,"Ġæ²³":1641,"Ġvar":1642,"ĠK":1643,"åĽ½å®¶":1644,"ä¸Ńæĸĩ":1645,"é»Ħ":1646,"æĮģ":1647,"Ġof":1648,"¾İ":1649,"è°±":1650,"åħ¥åı£":1651,"Ġåĵ":1652,"æĥ³":1653,"ĠJ":1654,"ï¼ģ":1655,"Ġæ¸ħ":1656,"ĠæĹ©çĤ¹åĬłçĽŁ":1657,"ä½įç½®ï¼ļ":1658,"Ġå·´":1659,"çº¢":1660,"ĠéĢļ":1661,"Ġäºļæ¸¸åĽ½éĻħ":1662,"Ġå¤ĸåĽ´":1663,"åĵªä¸ª":1664,"èĲ¥":1665,"å½±":1666,"cc":1667,"ĺī":1668,"ĠåĽ½":1669,"å§Ķ":1670,"éĤĢè¯·çłģ":1671,"åĳĬ":1672,"alse,":1673,"å¼º":1674,"å½ĵåīį":1675,"éĽĦ":1676,"Ġd88å°Ĭé¾Ļ":1677,"ç«ĭ":1678,"çŁ¥":1679,"ĠAGçİ¯äºļ":1680,"è½¬":1681,"th":1682,"æ²¡æľī":1683,"èĦĳ":1684,"èĪª":1685,"åħ°":1686,"éĶģ":1687,"ç»ľ":1688,"ä¸ĩåįļ":1689,"ĠçľŁéĴ±":1690,"èħ":1691,"Ġé»Ħ":1692,"Ġk8å¨±ä¹Ĳ":1693,"åħļ":1694,"Ġ365æ»ļçĲĥ":1695,"çĶµåŃĲ":1696,"Ġbte365":1697,"Ġäºļç¾İam8":1698,"ä¾Ľ":1699,"ĳ|":1700,"æĿ¯":1701,"Ġå½©ç¥ŀäºīéľ¸":1702,"å¹¶":1703,"ä¿®":1704,"åĬŀ":1705,"com":1706,"ote":1707,"éŁ":1708,"åı³":1709,"ä¹¦":1710,"å¥³":1711,"åĿĽ":1712,"ç»´":1713,"åĪĨåĪĨå½©":1714,"å·¥ä½ľ":1715,"çĶµè¯Ŀ":1716,"log":1717,"right":1718,"ç¡":1719,"ç§Ĵ":1720,"ä¼ĺ":1721,"ç¶":1722,"ĠæĽ":1723,"ï¼Ł":1724,"Ġâ":1725,"Ġpk10":1726,"ç½ĳç»ľ":1727,"Ġçİ¯äºļçĶµæ¸¸":1728,"çŁ":1729,"ĠagçľŁäºº":1730,"ĠçĻ½":1731,"èµĮéĴ±":1732,"ä½ł":1733,"Ġè¶":1734,"ction":1735,"Ġçģ":1736,":f":1737,"éĿłè°±":1738,"æĺ¯çľŁ":1739,"åĲĳ":1740,"é£ŀèīĩ":1741,"åı£|":1742,"åİĨ":1743,"ip":1744,"Ġå¿«":1745,"èĲ½":1746,"ä¹ħ":1747,"åĮĸ|":1748,"12æľĪ":1749,"ä½Ĩ":1750,"å¸¸":1751,"Ġis":1752,"çĦ¶":1753,"è©":1754,"å½©ç¥ŀäºīéľ¸":1755,"Ġ12":1756,"Ġä½ĵèĤ²":1757,"éº":1758,"Ġéĺ³":1759,"Ġ&":1760,"èĢĮ":1761,"Ġand":1762,"ãĥ":1763,"åŁº":1764,"è®¤":1765,"èµļ":1766,"çļĦåĲĹ":1767,":false,":1768,"çľģ":1769,"ĬĢè¡Į":1770,"-20":1771,"ĠèĬ":1772,"æ¦":1773,"æĶ¾":1774,"æĳ":1775,"åĽŃ":1776,"im":1777,"åħħåĢ¼":1778,"åıĹ":1779,"åĽł":1780,"ĠåŃ":1781,"ŀį":1782,"Ġ2019-0":1783,"Ġåħ´":1784,"æļ":1785,"ä¸įäºĨ":1786,"è´¦åı·":1787,"www.":1788,"æ¬§":1789,"-19":1790,"ĠccåĽ½éĻħç½ĳæĬķ":1791,"ä¹ł":1792,"çĿĢ":1793,"èĹı":1794,"å¿«ä¹Ĳ":1795,"æľª":1796,"è°ĥ":1797,"æĢĿ":1798,"éĹ®é¢ĺ":1799,"Ġç¦ı":1800,"ew":1801,"åı²":1802,"èĤ¡ç¥¨":1803,"æīĭæľºå®¢æĪ·ç«¯ä¸ĭè½½":1804,"Ġèİ":1805,"28":1806,"åĢŁæ¬¾":1807,"ĠåĲī":1808,"Ġé©":1809,"Ġå°Ĭé¾ĻäººçĶŁå°±æĺ¯åįļ":1810,"å¾Ī":1811,"ç®±":1812,"bet365":1813,"ĠæĬ":1814,"Ġ11":1815,"at365":1816,"åĪĻ":1817,"åıĭ":1818,"è§Ħå¾ĭ":1819,"æĶ¯":1820,"èĸ":1821,"åĩł":1822,"Ġè¡":1823,"æįķé±¼":1824,"Ġåĳ":1825,"Ġäºļæ¸¸å®ĺç½ĳ":1826,"èĮ":1827,"Ġç¥":1828,"Ġæł":1829,"ä¸Ģä¸ª":1830,"ml":1831,"ä¹ī":1832,"è¯»":1833,"ĠåĴĮ":1834,"Ġto":1835,"ĠåħŃ":1836,"ä¼Ĺ":1837,"Ġéģ":1838,"å¤§å°ı":1839,"æĮĤ":1840,"ç¨³":1841,"Ġæ½":1842,"æ©Ł":1843,"ä¿Ħ":1844,"Ġåıĳ":1845,"Ġé¦Ļæ¸¯":1846,"Ġä¸ĩçĭĹ":1847,"ĠæľĢ":1848,"Ġ365å¤ĸåĽ´":1849,"é¡º":1850,"çİ¯":1851,"çĬ":1852,"-18":1853,"è¡¨ç¤º":1854,"ä¸¾":1855,"Ġï¿½":1856,"Ġåĩ¯åıĳçľŁäºº":1857,"ä»ĭ":1858,"ĠéĦ":1859,"çŁ³":1860,"åª":1861,":'',":1862,"éªĮè¯ģ":1863,"è¯¥":1864,"å¿ħ":1865,"é¡¹çĽ®":1866,"Ġåħ¨":1867,"çĻ½":1868,"éĬĢè¡Į":1869,"ç¢":1870,"Ġåĩ¯åıĳæ¸¸æĪı":1871,"b88":1872,"Ċ2019-10":1873,"åĢŁéĮ¢":1874,"Ġè®":1875,"å®¾":1876,"365æ£ĭçīĮ":1877,"bo":1878,"ĠçĭĹä¸ĩåıĸ":1879,"Ġèĭ±":1880,"ç¿¼":1881,"åħ¬äº¤":1882,"ch":1883,"èĩ³":1884,"æĿ¥æºĲï¼ļ":1885,"å¤Ħ":1886,"éł":1887,"Ġ::":1888,"å¨ģ":1889,"å¦":1890,"Ġg":1891,"éĺŁ":1892,"åĪ«":1893,"è¯ķ":1894,"ĠX":1895,"Ġæı":1896,"918":1897,"Ġäºĳ":1898,"èĴ":1899,"å£°":1900,"è¿Ľè¡Į":1901,"ä¸°|":1902,"æĬ¤":1903,"è¾¹":1904,"å®¹":1905,"æ®":1906,"Ġèģ":1907,"Ġ15":1908,"åĲĦ":1909,"éĤ£":1910,"ä»½":1911,"åĵĪ":1912,"ĠçĶµçİ©":1913,"Ġåĺī":1914,"æľ¯":1915,"éĻµ|":1916,"æ·±":1917,"çģ«":1918,"è®ºåĿĽ":1919,"åĮ»":1920,"è®©":1921,"Ġå¹¸è¿Ĳ":1922,"Ġ09":1923,"åĩ¯åıĳ":1924,"ä¸ĭä¸Ģç¯ĩï¼ļ":1925,"éĺ³åİ¿|":1926,"çĭĹä¸ĩ":1927,"æħ":1928,"èĢĥ":1929,"Ġ+":1930,"èŃ":1931,"unction":1932,"åı°|":1933,"åĩ»":1934,"ãĢĤâĢĿ":1935,".8ä¸ĩ+":1936,".6ä¸ĩ+":1937,".0ä¸ĩ+":1938,".5ä¸ĩ+":1939,".7ä¸ĩ+":1940,".9ä¸ĩ+":1941,".3ä¸ĩ+":1942,"æĢİä¹Īä¸ĭè½½":1943,"å¾®ä¿¡":1944,"ĠY":1945,".2ä¸ĩ+":1946,".1ä¸ĩ+":1947,"çĶ±":1948,"åħ´":1949,".4ä¸ĩ+":1950,"Ĩ|":1951,"ub":1952,"åıĳå±ķ":1953,"åħ«":1954,"å¤ª":1955,"21":1956,"æ±ł":1957,"Ġ19":1958,"å¤ı":1959,"Ġ2020-02-2":1960,"åįĢ":1961,"æľįåĬ¡":1962,"Ġåĩ¯åıĳæĹĹèĪ°åİħ":1963,"Ġç«":1964,"Ġå±±":1965,"çħ":1966,"éĢł":1967,"8-0":1968,"åĲī":1969,"æ¼ı":1970,"è´Ń":1971,"éĺ²":1972,"è¿ŀéĶģ":1973,"Ġé©¬":1974,"åıį":1975,"ĠåĽĽ":1976,"ä¾¿":1977,"ĠæĶ":1978,"çİ©æ³ķ":1979,"ĠåıĮ":1980,"Ġåĩ¯åıĳç½ĳåĿĢ":1981,"ĠæĹ©é¤ĲåĬłçĽŁ":1982,"æĦŁ":1983,"ĺ|":1984,"åħĪ":1985,"ç»ıæµİ":1986,"Ċä¸ŃåĽ½":1987,"åĤ":1988,"éĹ¨|":1989,"èģĮ":1990,"çĪ±":1991,"Ġçī¹":1992,"æİĴåĪĹ":1993,"¿|":1994,"ï¼Ľ":1995,"Ġ'":1996,"æ²ģ":1997,"åĮºåı·":1998,"éĤ®ç¼ĸ":1999,"Ġ?":2000,"Ġ16":2001,"ce":2002,"é¢Ħæµĭ":2003,"Ġæ¢":2004,"Ġbeat365":2005,"Ġ918":2006,"Ġäºļæ¸¸ag":2007,"åį³":2008,"ä¼ł":2009,"æĶ¹":2010,"Ġåľ¨":2011,"æĢİä¹Īæł·":2012,"åĪĨpk10":2013,"Ġbet365ä½ĵèĤ²":2014,"ä¼ģ":2015,"èıľ":2016,"ĠèµĮ":2017,"çķĻ":2018,"ç§į":2019,"èĬĤ":2020,"ç»Ń":2021,"æĹ¥ï¼Į":2022,"Ġåįİ":2023,"å¤®":2024,"365betå®ĺç½ĳ":2025,"èģĺ":2026,"ç½ĳé¡µçīĪ":2027,"Ġåİ":2028,"Ġæ¶":2029,"åĵģçīĮ":2030,"Ġä¸Ĭæµ·":2031,"ue":2032,"Ġè¶³":2033,"ä½İ":2034,"èµ¢éĴ±":2035,"å¤į":2036,"å¾·|":2037,"Ġ//":2038,"æķ´":2039,"çĥŃ":2040,"æŀĹ|":2041,":00":2042,"ĠåĬłçĽŁ":2043,"è´¢":2044,"çł´è§£":2045,"éľĢ":2046,"il":2047,"Ġ2017":2048,"opy":2049,"å¸¦":2050,"ve":2051,"ç±³":2052,"çĶµè§Ĩ":2053,"otel":2054,"Ġåĩ¯åıĳåľ¨çº¿":2055,"AN":2056,"æĸ½":2057,"æ³¢":2058,"ĠéĹ":2059,"Ġç¾İ":2060,"Ġä¸ĭè½½":2061,"ĠæĲ":2062,"åŃĹåı·":2063,"éĥ½|":2064,"Ġå¯Į":2065,"Ġ17":2066,"è¿İ":2067,"æ¯ı":2068,"å·¥ç¨ĭ":2069,"åªĴ":2070,"ĠãĢĳ":2071,"Ġ2020-04-0":2072,"å¤§åİħ":2073,"ount":2074,"Ġå¼ł":2075,"Ġéļ":2076,"éĵ¾":2077,"Ġåĩ¯åıĳå½©ç¥¨app":2078,"åı°æ¹¾":2079,"Ġä¸ĩåįļä½ĵèĤ²app":2080,"ä¸įèĥ½":2081,"Ġé¹":2082,"ä¹¡":2083,"ĠâĢĵ":2084,"æİĴè¡Į":2085,"Ġèį":2086,"Ġif":2087,"tp":2088,"ĠèĤ":2089,"æİ§":2090,"ä¿¡æģ¯":2091,"Ġæķ":2092,"opyright":2093,"æĺ¯å¤ļå°ĳ":2094,"15å¤©å¤©æ°Ķ":2095,"30å¤©å¤©æ°Ķ":2096,"10å¤©å¤©æ°Ķ":2097,"22":2098,"ç»Ħ":2099,"åħ·":2100,"Ġä¸ĩåįļapp":2101,"ĊC":2102,"åĵªéĩĮ":2103,"Ġå®ļ":2104,"Ġéķĩ":2105,"å½ĵåīįä½įç½®ï¼ļ":2106,"åıĳå¸ĥ":2107,"å±ĭ":2108,"16":2109,"æ³¨åĨĮéĢģ":2110,"Ġä»":2111,"éĢī5":2112,"Ġ14":2113,"æĹı":2114,"Ġçİ¯äºļéĽĨåĽ¢":2115,"Ġåķ":2116,"èĩªæ²»":2117,"åıĤ":2118,"è¨Ģ":2119,"17":2120,"ight":2121,"ä½¿":2122,"//":2123,"Ġæ¬":2124,"åħ´|":2125,"å®¤":2126,"one":2127,"çĶµèĦĳ":2128,"ĠåĽ½éĻħ":2129,"é¡į":2130,"Ġæĸĩ":2131,"åĸĦ":2132,"ĠæĹł":2133,"-17":2134,"ĠèĲ":2135,"é¢Ĩ":2136,"æ³ī|":2137,"Ġå¤ª":2138,"æĺ¥":2139,"sp":2140,"ĠçĶµåŃĲ":2141,"Ġde":2142,"Ġå¨ģ":2143,"å¤ļä¹ħ":2144,"åĦ¿":2145,"é¦Ĩ":2146,"çĹ":2147,"ot":2148,"ç¦»":2149,"Ċä¸Ĭä¸Ģç¯ĩï¼ļ":2150,"Ġl":2151,"æľĹ":2152,"ĠQ":2153,"éİ":2154,"å¤±":2155,"ä¸įåİ»":2156,"åĨ³":2157,"æĿĳ":2158,"????":2159,"èį£":2160,"50":2161,"('":2162,"äº«":2163,"Ġæ¹ĸ":2164,"è´§":2165,"è§Ĥçľĭ":2166,"åĲİï¼Į":2167,"14":2168,"Ġåĩ¯åıĳç½ĳ":2169,"Ġ18":2170,"åį°":2171,"å·ŀå¸Ĥ|":2172,"æīĢæľī":2173,"ĠåĪ©æĿ¥æľĢ":2174,"con":2175,"ĠåķĨ":2176,"å¹²":2177,"Ġåĩ¯åıĳä½ĵèĤ²app":2178,"000":2179,"åŁ¹":2180,"ä¸įåĪ°":2181,"Ġå»º":2182,"ħè¯»":2183,"Ġçİĭ":2184,"æłĩé¢ĺ":2185,"åºĵ":2186,"ĠZ":2187,"é²ģ":2188,"è®Ń":2189,"ios":2190,"çĳ":2191,"ï¼Įä½Ĩ":2192,"Ġ08":2193,"å®Į":2194,"åĭĴ":2195,"ĠåĲĪ":2196,"éħĴåºĹ":2197,"çº¦":2198,"çº³":2199,"Ġæĥ":2200,"Ġä¸į":2201,"Ġæ¾³éĹ¨çĻ¾å®¶ä¹Ĳ":2202,"-21":2203,"Ġæ¾³éĹ¨çĻ¾å®¶":2204,"¾è®¯":2205,"æŀĲ":2206,"Ġæĭ":2207,"åİĨåı²":2208,"æīĭæľºçīĪå®ĺç½ĳ":2209,"Ġåīįå¤©0":2210,"Ġ@":2211,"Ġèĩ":2212,"ost":2213,"Ġåĩ¯åıĳå®ĺæĸ¹":2214,"å¼ł":2215,"åĩ¡":2216,"Ġe":2217,"æ¨¡":2218,"å·±":2219,"å¯Ł":2220,"æŃ¥":2221,"åĪĽ":2222,"åĬŁ":2223,"é¢Ŀ":2224,"ĳåħĭ":2225,"å¸ĤéĤ®ç¼ĸ":2226,"å¸ĤåĮºåı·":2227,"ï¼Įè¿Ļ":2228,"ĠagåĽ½éĻħäºļæ¸¸":2229,"Ġapp":2230,"ä¹¡|":2231,"99":2232,"åĥı":2233,"åĶ®":2234,"pe":2235,"çłĶ":2236,"è¯Ħè®º":2237,"erv":2238,"Ġå¦Ĥ":2239,"æ¦ľ":2240,"åľŁ":2241,"APPï¼ļ":2242,"åĪĨéĴŁå¿«ä¸ī":2243,"æĸĹ":2244,"æĪĸ":2245,"Ġè¿ŀ":2246,"ĠæĻ®":2247,"æĵ":2248,"ç¹Ŀ":2249,"è§Ī":2250,"æĸĩç«ł":2251,"åºĦ":2252,"ĠÂ»":2253,"ĠçļĩåĨł":2254,"¥åº·":2255,"æĬ¥éģĵ":2256,"å¹¸è¿Ĳ":2257,"http":2258,"Ġwww.":2259,"kb88":2260,"ation":2261,"Ċ2017":2262,"æľīéĻĲ":2263,"±|":2264,"éĵ¾æİ¥":2265,"æ¹ĸ|":2266,"ä½ľèĢħï¼ļ":2267,"ç¶²":2268,".cn":2269,"çĵ":2270,"Ġæľī":2271,"ĠagæĹĹèĪ°åİħ":2272,"èĽ":2273,"å¨±ä¹Ĳå¹³åı°":2274,"Ġçİ°":2275,"å¤§åıĳæĹ¶æĹ¶å½©":2276,"-22":2277,"æĿ¿":2278,"è³¼":2279,"é¸":2280,"ĨĴ":2281,"ä¸Ńçİĭ":2282,"è®°å½ķ":2283,"æ±½":2284,"å®ĺç½ĳç½ĳåĿĢ":2285,"æł¡":2286,"11éĢī5":2287,"äºĮæīĭ":2288,"è¼":2289,"æĭĽèģĺ":2290,"Ġè´µ":2291,"¸|":2292,"å¿Ĺ":2293,"å°ģ":2294,"ĠæĹ¶":2295,"éĤ¦":2296,"ang":2297,"Ġåıĳå¸ĥ":2298,"è°·":2299,"çĽĳ":2300,"åľĭ":2301,"åį«":2302,"Ġå¤§åıĳå¿«3":2303,"åįĥ":2304,"ª|":2305,"½Ĳ":2306,"ä½ı":2307,"ä¸Ń|":2308,"ate":2309,"èĳ¡":2310,"çŃ¾":2311,"ĠçĶĺ":2312,"åİŁ|":2313,"Ġå¤©æ´¥":2314,"æ¸¸æĪıå®ĺç½ĳ":2315,"æłĩé¢ĺï¼ļ":2316,"èĩªå·±":2317,"Ġéĺľ":2318,"åĢį":2319,"çĴ":2320,"è§Ĩè®¯":2321,"åľ°åĽ¾":2322,"èµĮåįļ":2323,"k8":2324,"ï¼Įåľ¨":2325,"Ġk8å¨±ä¹ĲæīĭæľºçīĪ":2326,"èĵ":2327,"ind":2328,"æīį":2329,"çĩ":2330,"å¼Ĭ":2331,"éªĹå±Ģ":2332,"\").":2333,"ä¾Ŀ":2334,"éķĩ|":2335,"ĠçĭĹä¸ĩæıĲæ¬¾":2336,"ĠèµĮéĴ±":2337,"ĠèĮ":2338,"Ġ,":2339,"Ċ2019-11":2340,"æĮī":2341,"å¤ĩçĶ¨ç½ĳç«Ļ":2342,"Ġ>>":2343,"å§ĭ":2344,"Ġå¥½":2345,"´ĩ":2346,"Ġç§Ĵ":2347,"ĠæĺĮ":2348,"åĺ":2349,"Ġ07":2350,"Ġæ¾³éĹ¨çľŁéĴ±":2351,"å¯Ĩ":2352,"åĲĪä½ľ":2353,"å®ļ|":2354,"§|":2355,"ata":2356,"ort":2357,"æĻ¯":2358,"Ġåħ¬":2359,"éŁ©":2360,"çµ":2361,"ç§Ł":2362,"ĠéĦĤ":2363,"ok":2364,"è¡¨ç¤ºï¼Į":2365,"ĠæıĲ":2366,"2020å¹´":2367,"æŁĲ":2368,"Ġåĩ¯åıĳagæĹĹèĪ°åİħ":2369,"Ġåĩ¤":2370,"----":2371,"å°¼æĸ¯":2372,"ä½Ļ":2373,"AGæĹĹèĪ°åİħ":2374,"å½©éĩĳ":2375,"ĠäºĮæīĭ":2376,"åĬłçĽŁåºĹ":2377,"åĪ°è´¦":2378,"åĪĨæŀĲ":2379,"-23":2380,"Ġth":2381,"Ġæ¼":2382,"åįİç½ĳ":2383,"å¸Ń":2384,"æ¥¼":2385,"åħ°|":2386,"Ġåĩ¯æĹ¶kb88":2387,"æĢģ":2388,"itor":2389,"æľĽ":2390,"Ġçİī":2391,"æŃ»":2392,"æ¬¢ä¹Ĳ":2393,"é¾Ļ|":2394,"éĵģ":2395,"è¿ľ":2396,"Ġse":2397,"ĠçĻ¾":2398,"ç®¡çĲĨ":2399,"å©Ĩ":2400,"Ġç½ĳä¸Ĭ":2401,"åĳ½":2402,"åŃĹåı·ï¼ļ":2403,"éĺ³å¸Ĥ|":2404,"æĿİ":2405,"Ġå®Ŀ":2406,"æĽ²":2407,"è§ģ":2408,"-16":2409,"æ¿":2410,"ä¼ĺæĥł":2411,"if":2412,"Ġagäºļæ¸¸":2413,"è¯Ń":2414,"ä¿¡è²¸":2415,"è¶³å½©":2416,"Ġä¹Ŀ":2417,"Ġçº¢":2418,"25":2419,"çĶ°":2420,"èĴĻ":2421,"ï¼ĮãĢĳãĢĲ":2422,"æ£Ģ":2423,"å°ıé¡į":2424,"æıĲä¾Ľ":2425,"éŁ³":2426,"æĻļæĬ¥":2427,"Ġæ³°":2428,"æī¾":2429,"ç¡®":2430,"Ġlo":2431,"age":2432,"Ġåģ":2433,"çķ¥":2434,":0,":2435,"Ġç®":2436,"çĽĺåı£":2437,"ĠãĢĲåŃĹåı·ï¼ļ":2438,"ä¸ĭè½½ç½ĳåĿĢ":2439,"å²ģ":2440,"çĶ²":2441,"ãĢĳãĢĲï¼ĮãĢĳãĢĲ":2442,"çĶ³":2443,"end":2444,"èŀį":2445,"è«":2446,"um":2447,"éĶĢ":2448,"Ġç§ĳ":2449,"Ċ2019-12":2450,"æĲľ":2451,"çİĽ":2452,"()":2453,"åĨľ":2454,"ĠèĪ":2455,"å®¡":2456,"åĽ½éĻħåİħ":2457,"å¤«":2458,"Ġçº¿ä¸ĬçľŁéĴ±":2459,"åıĺ":2460,"ĊCopyright":2461,"å¼¹":2462,"Ġagçİ¯äºļéĽĨåĽ¢":2463,"çī¹èī²":2464,"ĠæĲı":2465,"åįı":2466,"ĠæĽ²":2467,"è¿ľ|":2468,"ä½ľå¼Ĭ":2469,"Ġç»¥":2470,"ç½Ĺæĸ¯":2471,"å¤©å¤©":2472,"isitor":2473,"Count":2474,"åŁ¹è®Ń":2475,"Ġ.":2476,"İ|":2477,"åįĩ":2478,"åĨį":2479,"æĹłæ³ķ":2480,"Ġ22":2481,"å®ĺç½ĳapp":2482,"äº¿":2483,"ç¬¬ä¸Ģ":2484,"Ġ05":2485,"æĹ©é¤ĲåºĹåĬłçĽŁ":2486,"å¯¼èĪª":2487,"Ġèı":2488,"¯|":2489,"ia":2490,"Ġ06":2491,"å¡Ķ":2492,"Ġæĥł":2493,"Ġæ±ī":2494,"ç´¢":2495,"å®ĺæĸ¹å®¢æĪ·ç«¯ä¸ĭè½½":2496,"éĻ¤":2497,"Ġ23":2498,"èµĦæĸĻå¤§åħ¨":2499,"è¡Ģ":2500,"Ġ21":2501,"-15":2502,"æ´ŀ":2503,"Ġé¦ĸ":2504,"Ġfunction":2505,"æīĭæľºçīĪappä¸ĭè½½":2506,"èĽĭ":2507,"æ´Ľ":2508,"é£Ł":2509,"=\"":2510,"å¤§åŃ¦":2511,"Ġèĵ":2512,"æľīéĻĲåħ¬åı¸":2513,"è¯¢":2514,"è¶Ĭ":2515,"Ġé¡":2516,"çĶ°|":2517,"å²Ľ|":2518,"åħ¸":2519,"ĠçĭĹä¸ĩæıĲçİ°":2520,"çĨ":2521,"å®ĺæĸ¹ç½ĳ":2522,"Ġä¿Ŀ":2523,"://":2524,"Ġä¸°":2525,"Ġä¼Ĭ":2526,"éĽ»":2527,"Ad":2528,"Ġçı":2529,"Ġæľ¬":2530,"çĶ»":2531,"æİĴè¡Įæ¦ľ":2532,"Ċå¤§":2533,"Ġçģµ":2534,"è´¨":2535,"ame":2536,"Ġé»ĳ":2537,"Ġst":2538,"å¢ŀ":2539,"\",":2540,"çĶµè§Ĩåı°":2541,"ĠæĪĳ":2542,"æ±ī":2543,"åĴĮ|":2544,"¨|":2545,"æ°¸":2546,"èĸ¦":2547,"æµģæ°´":2548,"å·¦æĹĹ|":2549,"Ġ01":2550,"ä½³":2551,"æķĪ":2552,"åľ¨çº¿è§Ĥçľĭ":2553,"Ġ365ä½ĵèĤ²åľ¨çº¿":2554,"èįĲ":2555,"Ġæİ":2556,"æ¸¯|":2557,"èĥľ":2558,"ĠHotel":2559,"ĠçĤ":2560,"å±±åİ¿|":2561,"è¯Ģ":2562,"åİŁæłĩé¢ĺï¼ļ":2563,"Ċé¦ĸé¡µ":2564,"ıçĦ":2565,"éħįèµĦ":2566,"âĢĿãĢĤ":2567,"éİıçĦ":2568,"éİıçĦ¯":2569,"ç§°ï¼Į":2570,"Ġé¢":2571,"åŁŁ":2572,"ï¼Įå¹¶":2573,"ĠçĽĲ":2574,"ĠåĪ©æĿ¥ag":2575,"Ġåĩ¯åıĳæ³¨åĨĮ":2576,"oc":2577,"Ġéº":2578,"Ġä¸¹":2579,"Ĺ|":2580,"å¼ķ":2581,"Ġèħ":2582,"Ġ04":2583,"æ©Ļ":2584,"éĻ©":2585,"å±ŀ":2586,"ĠåĮĹäº¬pk10":2587,"In":2588,"ç®Ģ":2589,"è®¸":2590,"Ġåĩ¯åıĳå®ĺç½ĳå¹³åı°":2591,"Ġfor":2592,"ä»ĸä»¬":2593,"888":2594,"Ij":2595,"Ġ00":2596,"çİ°åľ¨":2597,"Ġçº¿ä¸ĬçľŁäºº":2598,"Ġ...":2599,"ä¸ĢçĤ¹":2600,"ir":2601,"æ¬¢è¿İ":2602,"éĥ¨èĲ½":2603,"ĠTI":2604,"éĿĴå¹´":2605,"ĠèĢ":2606,"Ġì":2607,"å®ĺç½ĳå¹³åı°":2608,"æĤ¨çļĦ":2609,"Ġç½Ĺ":2610,"ıè§Ī":2611,"ä¿¡çĶ¨":2612,"å®¶å©Ĩ":2613,"24":2614,"å¯Į":2615,"man":2616,"ĠåŁ":2617,"ĊæĹ©é¤Ĳ":2618,"Ċäººæ°ĳ":2619,"ĠçļĦ":2620,"Ġè¶³çĲĥ":2621,"æĺ¾":2622,"¾|":2623,"è´µ":2624,"æīĳåħĭ":2625,"Id":2626,"Ġ03":2627,"WR":2628,"77":2629,"éĢĢ":2630,"æ±ł|":2631,"/å½©ç¥ŀäºīéľ¸":2632,"à¹":2633,"Ġagå¹³åı°":2634,"æ¥Ń":2635,"Ġ02":2636,"ĠåĲ´":2637,"æ²¹":2638,"Ġéľ":2639,"çĽ¸åħ³":2640,":30":2641,"Ġå»¶":2642,"31":2643,"è¾ħ":2644,"Ġ2016":2645,"Ġç¥ŀ":2646,"ı|":2647,"ype":2648,"Ġæ²Ļ":2649,"ul":2650,"æł¸":2651,"çĻ¼":2652,"200":2653,"ĠæŀĹ":2654,"Ġè¯Ħ":2655,"éº»":2656,"å½©ç¥¨365":2657,"èĭ¹æŀľçīĪ":2658,"çĸĨ":2659,"çļĩåĨł":2660,"ĠæĢĢ":2661,"\":":2662,"Ġäºļæ¸¸app":2663,"-14":2664,"ä¸ĢèĤĸ":2665,"åĴĮåĢ¼":2666,"Ġå´ĩ":2667,"æĹ©çĤ¹å°ıåĲĥ":2668,"è´£":2669,"ä»ĺ":2670,"ä¿Ħç½Ĺæĸ¯":2671,"Ġå¨±ä¹Ĳ":2672,"èīº":2673,"å¾½":2674,"èŃī":2675,"Ġç±":2676,"Ġåĩ¯åıĳæľĢæĸ°çĻ»å½ķ":2677,"ä¸įå¼Ģ":2678,"Ġä¸ĸ":2679,"Ġè°":2680,"Ġéĩį":2681,"ut":2682,"æ¤":2683,"å¨±":2684,"è¯´ï¼Į":2685,"å¥½çļĦ":2686,"ä¼ģä¸ļ":2687,"æīĭæľºçĻ»éĻĨ":2688,"èĩ´":2689,"éļ¾":2690,"em":2691,"Ġå¯Ł":2692,"ĠæĻ¯":2693,"åĨµ":2694,"Ġåĩ¯åıĳæľĢæĸ°":2695,"Ġå¤©ç©º":2696,"Ġæ¯":2697,"åı³ç¿¼":2698,"å°Ķ|":2699,"æŃ£ç½ĳ":2700,"å°Ķæ²ģ":2701,"åİĤ":2702,"æ¾³":2703,"âĢ¦":2704,"æĺ¯çľŁçļĦåĲĹ":2705,"éĤ®ç®±":2706,"ĠæĪ¿":2707,"ore":2708,"åĩ¤":2709,"},":2710,"æ¸ħ|":2711,"ĊåįĹ":2712,"æīĭæľºæĬķæ³¨":2713,"åľ°åĮº":2714,"å¥Ĺ":2715,"Ġéħ":2716,"ĠåĨħ":2717,"æīĵä¸įå¼Ģ":2718,"æĿŁ":2719,"åĥ¹":2720,"åĲĪæ³ķ":2721,"åħ¨éĥ¨":2722,"åı¯éĿł":2723,"Ġ$(\"":2724,"Ġ200":2725,"Ġåĩ¯åıĳk":2726,"ä¼¦":2727,"ĠæĿ¾":2728,"è®¿":2729,"è¿ĳå¹³":2730,"Ġagä½ĵèĤ²":2731,"æ³ī":2732,"æµª":2733,"Ġè¯Ħè®º":2734,"æĿ±":2735,"ĠæĪĲ":2736,"ĪæĿĥ":2737,"ĠæĲıå¤©åłĤ":2738,"æ¸©":2739,"Ġ2019-11":2740,"éģĹ":2741,"éĸĵ":2742,"æł¹":2743,"çĮľ":2744,"æĬĬ":2745,"Ġ*":2746,"åĳ³":2747,"è¯į":2748,"æĢİä¹Īä¹°":2749,"Ġä»Ĭ":2750,"Ċä¸ĭä¸Ģç¯ĩï¼ļ":2751,"å®ĺç½ĳåľ°åĿĢ":2752,"æ¯ĶèµĽ":2753,".p":2754,"Ġçī¹èī²":2755,"è¡Ĺ":2756,"èİ·":2757,"éĢļè¿ĩ":2758,"ä¹Į":2759,"ET":2760,"åľ³":2761,"ĠçľŁéĴ±æ£ĭçīĮ":2762,"æµ©":2763,"æģ©":2764,"èµĦæºĲ":2765,"ĊãĢĲ":2766,"ä¸ŃæĹĹ|":2767,"Ġæ±Łèĭı":2768,"Ġåĸ":2769,"Ġæ¾³éĹ¨ç½ĳæĬķ":2770,"Ġæį":2771,"å¥ĩ":2772,"æ¶ĵ":2773,"æķĳ":2774,"ĠÂ©":2775,"åºĨ|":2776,"äº¤æµģ":2777,"ç¹Ŀï½":2778,"æĢİæł·":2779,"-09":2780,"è¾ħåĬ©":2781,"åŃ¸":2782,":10":2783,"get":2784,"Ī|":2785,"åįĪ":2786,"Ĭ|":2787,"Ġåĩ¯åıĳkå¨±ä¹Ĳ":2788,"æį¢":2789,"Ġéĵľ":2790,"æ±ĩ":2791,"è¦ģæ±Ĥ":2792,"çĶµç«ŀ":2793,"çħ§":2794,"æĢ»ç»Ł":2795,"ĠèµĦ":2796,"éĿŀåĩ¡":2797,"Ġåħĥ":2798,"çļĩ":2799,"ä¸Ńï¼Į":2800,"ä¹łè¿ĳå¹³":2801,"ä¾ĭ":2802,"å³°":2803,"åĪ·":2804,"é¹":2805,"Ġåĩ¯åıĳä½ĵèĤ²ç½ĳåĿĢ":2806,"tr":2807,"ĠagåĽ½éĻħåİħ":2808,"Ġäºļæ´²æ¸¸æĪı":2809,"é¬":2810,"æĻº":2811,"éĩĩ":2812,"Ġç½ĳç«Ļ":2813,"ä½ĵèĤ²åľ¨çº¿æĬķæ³¨":2814,"erved":2815,"çĻ»åħ¥":2816,"ĠçĭĹä¸ĩåıĸæ¬¾":2817,"js":2818,"è§ĦåĪĻ":2819,"ä¹Ĳ|":2820,"ity":2821,"å®īåįĵçīĪ":2822,"ä¸ĸçķĮæĿ¯":2823,"Ġä¹Ĳæ©Ļ":2824,"çĶµçİ©":2825,"ä¸°":2826,"åĪ©çİĩ":2827,"æ´¥|":2828,"\");":2829,"Ġä½ĵèĤ²å½©ç¥¨365":2830,"å²Ń|":2831,":14":2832,"æī¹":2833,"è´´":2834,"æ¸¸æĪıä¸ĭè½½":2835,"åıĳçĶŁ":2836,"Ġæĺ¨å¤©20":2837,"ĠéļĨ":2838,":35":2839,"Ġåı¤":2840,":45":2841,":20":2842,":18":2843,"Ġå¤©ç©ºéĥ¨èĲ½":2844,"ĠTIAN":2845,"Ġåĩ¯åıĳæĹĹèĪ°åİħæ³¨åĨĮ":2846,"æĸ¹æ³ķ":2847,":12":2848,":15":2849,"æ¯į":2850,"ĠçĭĹä¸ĩä»£çĲĨ":2851,"ĠçĲ":2852,":28":2853,":01":2854,"ç»ĻåĬĽ":2855,"æķ°æį®":2856,"ç«¹":2857,"Ŀ|":2858,"Ġæ´Ľ":2859,"Ġä¸ŃåĽ½":2860,"();":2861,":26":2862,"Ġæģ":2863,"æĢİä¹Īçİ©":2864,"ç²¥":2865,":05":2866,":50":2867,"âĢĿï¼Į":2868,"é½Ĳ":2869,":25":2870,"ain":2871,"åºķ":2872,":16":2873,"Ġé¸":2874,":38":2875,"Ġä¸ĭ":2876,"åĽ¾çīĩ":2877,":59":2878,":55":2879,":11":2880,":46":2881,"æŃ¦":2882,":40":2883,":31":2884,":04":2885,":24":2886,":06":2887,"äººåĳĺ":2888,":19":2889,"æİ¨èįĲ":2890,"¯åºĹ":2891,":32":2892,"åĴ":2893,"è®¢":2894,"åħ»":2895,"èģĶèµĽ":2896,"èĤ¡ç¥¨|":2897,":17":2898,":58":2899,":34":2900,"å¾Ģ":2901,"Ġæĺ¨å¤©19":2902,"Ġk8å½©ç¥¨":2903,"Ġbet365å®ĺç½ĳ":2904,":52":2905,"å¤§åıĳå½©ç¥ŀ":2906,"å»ºè®¾":2907,"ĠAll":2908,":47":2909,":03":2910,"ä¸²":2911,":23":2912,":02":2913,":39":2914,"åĹ":2915,":44":2916,":36":2917,"å®īåİ¿|":2918,":41":2919,"Ġæ£":2920,"Ġæĺ¨å¤©04":2921,":27":2922,":53":2923,":51":2924,":42":2925,":22":2926,"æĶ»":2927,":29":2928,":21":2929,":33":2930,":57":2931,":49":2932,"Ġk8å¨±ä¹ĲæīĭæľºçīĪå®¢æĪ·ç«¯":2933,":09":2934,":48":2935,"Ċæ¾³éĹ¨":2936,":08":2937,"çļĦèĢģçīĮ":2938,"ĠæĢİ":2939,":37":2940,":43":2941,"æ®µ":2942,":07":2943,"ter":2944,"Ġäºº":2945,"åĦª":2946,":56":2947,"Ġby":2948,"ä¼ļåĳĺ":2949,":54":2950,"åĪĨå¿«ä¸ī":2951,"è½¦åĬłçĽŁ":2952,"Ġçİ°éĩĳ":2953,"ç»ĵæĿŁ":2954,"å°¼æĸ¯äºº":2955,"å¥¥":2956,"23":2957,"å®¶ä¹Ĳ":2958,"å¼ĢæĪ·ç½ĳåĿĢ":2959,"Ġç½ĳ":2960,"pl":2961,"ĠçĪ":2962,"ä¹Ŀ":2963,"ite":2964,"æĹ¥æľ¬":2965,"Ġæĺ¨å¤©17":2966,"ĊæĿ¥æºĲï¼ļ":2967,"é¾ĻèĻİ":2968,"Ġè¾½":2969,"å¸Ĥåľº":2970,"ä»ģ|":2971,"åħįè´¹è§Ĩé¢ĳ":2972,"ĠçĹ":2973,"Ġåĩ¯åıĳä¸ĭè½½":2974,"ĠèĴ":2975,"Ġå¸¸":2976,"ĠåĮĹäº¬èµĽè½¦":2977,"åĨ²":2978,"http://":2979,"pãĢĳãĢĲ":2980,"æĹ§":2981,"çĽ®åīį":2982,"Ġæĺ¨å¤©02":2983,"-24":2984,"éĺ¿":2985,"Ġæĺ¨å¤©05":2986,"äºĮæīĭè½¦":2987,"Ġæĺ¨å¤©14":2988,"åĵĪå°Ķ":2989,"2018":2990,"Ġçİ¯äºļæ¸¸æĪı":2991,"æ´»åĬ¨":2992,"åĪĨæİĴåĪĹ":2993,"Ġè¾¾":2994,"éĽħ":2995,"åŃ©":2996,"éĿłè°±åĲĹ":2997,"Ġçķ":2998,"çİ°éĩĳç½ĳ":2999,"èĴĻåı¤":3000,"å®£":3001,"Ġæĺ¨å¤©23":3002,"å°ļ":3003,"æİ¨èĸ¦":3004,"Ġal":3005,"Ġæĺ¨å¤©11":3006,"åŁİåİ¿|":3007,"æ¼ıæ´ŀ":3008,"å®ĺç½ĳappä¸ĭè½½":3009,"éĤĢè¯·çłģ_":3010,"æŀĦ":3011,"æīĺ":3012,"Ġæĺ¨å¤©10":3013,"æķħ":3014,"tãĢĳãĢĲ":3015,"Ġæµİ":3016,"-07":3017,"Ġæĺ¨å¤©01":3018,"æŃ¦|":3019,"çĥĪ":3020,"åįļå½©":3021,"å®īåįĵçīĪä¸ĭè½½":3022,"åĮĹ|":3023,"çĲĥç½ĳ":3024,"è¿Ŀ":3025,"Ķ|":3026,"Ġæĺ¨å¤©07":3027,"vip":3028,"æīĭæľºçĻ»å½ķä¸ĭè½½":3029,"2019å¹´":3030,"æĹ¶ï¼Į":3031,"è¿Ľä¸įåİ»":3032,"html":3033,"åĿĩ":3034,"æ´ĭ":3035,"ŀå®¢":3036,"Ġæĺ¨å¤©16":3037,"Ġæĺ¨å¤©09":3038,"Ġæĺ¨å¤©12":3039,"ŀå®¢éĤ¦":3040,"Ġå¤§åıĳå½©ç¥ŀ":3041,"ĠåĪ©":3042,"Ġæĺ¨å¤©08":3043,"ĠçĹŀå®¢éĤ¦":3044,"å¸Į":3045,"ç¸":3046,"ver":3047,"è§Ĩé¢ĳåľ¨çº¿è§Ĥçľĭ":3048,":{":3049,"å¹³åı°æ³¨åĨĮ":3050,"æľĹæĻ®":3051,"Ġæ°ĳ":3052,"çĶŁæ´»":3053,"ä¸įæĺ¯":3054,"ç¯®":3055,"äºĳ|":3056,"ä¸¥":3057,"çľŁäººæ¸¸æĪı":3058,"è²·":3059,"pt":3060,"æľĢæĸ°ç½ĳåĿĢ":3061,"our":3062,"Ġæĺ¨å¤©18":3063,"ba":3064,"Ġ365betå®ĺç½ĳå®ĺç½ĳ":3065,"ĠèĬ±":3066,"è¯ī":3067,"Ġæĺ¨å¤©06":3068,"Ġå®£":3069,"else":3070,"Ġä¸ĩåįļä½ĵèĤ²":3071,"çĶ·":3072,"ĠåĲĮ":3073,"éļı":3074,"çĪ°":3075,"Ġagçİ¯äºļçĶµæ¸¸":3076,"Ġæ·®":3077,"Ġèĩª":3078,"ex":3079,"ä¸¹":3080,"åİĭ":3081,"ä¸ĭè½½app":3082,"ç©¶":3083,"è¾Ĩ":3084,"ĠæĬļ":3085,"ig":3086,"æ³½|":3087,"ĠçĭĹä¸ĩèµ¢éĴ±":3088,"Ġå¤§åıĳæŀģéĢŁ":3089,"åħįè´¹è§Ĩé¢ĳ_":3090,"å¢ĥ":3091,"åģļçĪ°":3092,"Ġä¸Ģçº§":3093,"Ġu":3094,"ack":3095,"ç³»ç»Ł":3096,"ile":3097,"å·²ç»ı":3098,"40":3099,"æ£®":3100,"Ġè¡¡":3101,"Ġèĭı":3102,"éĤĳ|":3103,"Ġåĩ¯åıĳæīĭæľºå¨±ä¹Ĳå®ĺç½ĳ":3104,"åŁİå¸Ĥ":3105,"Ġæĺ¨å¤©22":3106,"éĺ´|":3107,"åģļçĪ°çīĩ":3108,"é»Ħçīĩ":3109,"Ġåĩ¯åıĳæ¸¸æĪıæīĭæľºçĻ»å½ķ":3110,"Ġæ»ļçĲĥ":3111,"æīĭæľºä¸ĭè½½":3112,"Ġåĳ¼":3113,"Ġæĺ¨å¤©21":3114,"çī¹æľĹæĻ®":3115,"Ċäººæ°ĳç½ĳ":3116,"Ġvisitor":3117,"Ċ[":3118,"AåģļçĪ°çīĩ":3119,"åħįè´¹é»Ħçīĩ":3120,"åħįè´¹è§Ĩé¢ĳ_åħįè´¹é»Ħçīĩ":3121,"åħįè´¹è§Ĩé¢ĳ_åħįè´¹é»Ħçīĩè§Ĩé¢ĳåľ¨çº¿è§Ĥçľĭ":3122,"AåģļçĪ°çīĩåħįè´¹è§Ĩé¢ĳ_åħįè´¹é»Ħçīĩè§Ĩé¢ĳåľ¨çº¿è§Ĥçľĭ":3123,"AåģļçĪ°çīĩåħįè´¹è§Ĩé¢ĳ_åħįè´¹é»Ħçīĩè§Ĩé¢ĳåľ¨çº¿è§Ĥçľĭ2019":3124,"åĵªäºĽ":3125,"èĤĥ":3126,"Ġåĩ¯åıĳå½©ç¥¨appæīĭæľºçīĪä¸ĭè½½":3127,"äº®":3128,"è¨Ĥ":3129,"äºļç¾İ":3130,"Ġç§ĳå°Ķæ²ģ":3131,"nd":3132,"Ġåĩ¯åıĳçº¿ä¸Ĭæīĭæľºå®¢æĪ·ç«¯ä¸ĭè½½":3133,":{},":3134,"3d":3135,"Ġå¨±ä¹Ĳåĩ¯åıĳ":3136,"ç¤¾ä¼ļ":3137,"Ġä¸Ģçº§AåģļçĪ°çīĩåħįè´¹è§Ĩé¢ĳ_åħįè´¹é»Ħçīĩè§Ĩé¢ĳåľ¨çº¿è§Ĥçľĭ2019":3138,"ĠçĶµçİ©åŁİ":3139,"ĠéĿĸ":3140,"æľĥ":3141,"Ġä¸º":3142,"Ġç²":3143,"æĻĤ":3144,"æµ©çī¹":3145,"çŃĸ":3146,"XC":3147,"Ġåĩ¯åıĳçº¿ä¸ĬæīĭæľºçĻ»å½ķä¸ĭè½½":3148,"Ġ2019-10":3149,"æĸĩåĮĸ":3150,"æĦıæĢĿ":3151,"Ġæĺ¨å¤©03":3152,"âĸ":3153,"Ġç´":3154,"éĩįåºĨ":3155,"å§Ĳ":3156,"Ġå¢":3157,"ĠæľĢæĸ°":3158,"Ġåľ¨çº¿":3159,"ä¸»é¡µ":3160,"å®ľ":3161,"åįĬ":3162,"-06":3163,"å±Ĥ":3164,"æīĭæľºappä¸ĭè½½":3165,"Ġç¬":3166,"ãĢĳãĢĲpãĢĳãĢĲ":3167,"Ġä¼ļ":3168,"Ġç§ĴéĢŁ":3169,"æĿĢ":3170,"Blog":3171,"èĥİ":3172,"Ġ2020-01":3173,"betx":3174,"Ġå¤§åıĳå½©ç¥¨":3175,"ĠèģĶ":3176,"LC":3177,"Ġéĥ½":3178,"é¥®":3179,"è´Ł":3180,"Ġéĵ¶":3181,"æľĢæĸ°çĻ»å½ķåľ°åĿĢ":3182,"Ċ1":3183,"Ġ365ä½ĵèĤ²æĬķæ³¨å®ĺç½ĳ":3184,"éķ¿é¾Ļ":3185,"å¸ģ":3186,"ĠéŁ":3187,"å±ħ":3188,"Ġç®¡":3189,"sc":3190,"comBlog":3191,"å¤§å¸Ī":3192,"å¨±ä¹ĲåŁİ":3193,"Ġå¤§åıĳä¸Ģ":3194,"å¹³åı°å®ĺç½ĳ":3195,"çĹħ":3196,"åħ³ç³»":3197,"æĭħ":3198,"æŃ£çīĪ":3199,"tt":3200,"Ġèħ¾è®¯":3201,"åĵį":3202,"Ġï¿½ï¿½":3203,"åħįè´¹ä¸ĭè½½":3204,"çºª":3205,"åĭĻ":3206,"Ġåĩ¯åıĳag":3207,"æĽ¾":3208,"æļ´":3209,"å¤§åıĳå¿«3":3210,"å¤ļä¸ĢçĤ¹":3211,"Ċä¸Ń":3212,"å¥¹":3213,"å¨±ä¹Ĳå®ĺæĸ¹ç½ĳç«Ļ":3214,"Ġagäºļæ´²æ¸¸æĪı":3215,"Ġåĩ¯åıĳappå®ĺæĸ¹ä¸ĭè½½":3216,"äºĴ":3217,"åŃĺæ¬¾":3218,"çıŃ":3219,"Ġåĩ¯åıĳappæĢİä¹Īä¸ĭè½½":3220,"fo":3221,"éľĢè¦ģ":3222,"æ¡¥":3223,"å½¢":3224,"æ¼Ķ":3225,"çĭĤ":3226,"38":3227,"Ġæĺ¨å¤©00":3228,"Ġon":3229,"Ġéĵģ":3230,"Ġæĺ¨å¤©15":3231,"ĸ|":3232,"ĠéĶ":3233,"åıĪ":3234,"ine":3235,"Ġåħĭ":3236,"å½ĵåľ°":3237,"Ġåĩ¯åıĳæīĭæľºå®ĺæĸ¹å®¢æĪ·ç«¯ä¸ĭè½½":3238,"æĺ¥|":3239,"æ¬§æ´²":3240,"é¬¼":3241,"æ¢Ŀ":3242,"æĿĲ":3243,"çıł":3244,"è±Ĩ":3245,"ĠæĢİä¹Ī":3246,"Ġåĩ¯åıĳå®ĺç½ĳæīĭæľºçīĪappä¸ĭè½½":3247,"çīĽçīĽ":3248,"èĭ¹æŀľçīĪä¸ĭè½½":3249,"Ġå®ĺ":3250,"è¾ĳ":3251,"å¥½å½©":3252,"ä¸ĺ|":3253,"å«":3254,"29":3255,"ab":3256,"Ġåĩ¯åıĳæīĭæľºçīĪå®ĺç½ĳ":3257,"åº·|":3258,"å®¢æľįçĶµè¯Ŀ":3259,"\")":3260,"Ġæ·±":3261,"æŀģ":3262,"å¤ľ":3263,"éĶĻ":3264,"åħ³|":3265,"ç»į":3266,"ï¼Įä¸Ģ":3267,"365ä½ĵèĤ²":3268,"èµĶ":3269,"ong":3270,"é£¯åºĹ":3271,"æķĻèĤ²":3272,"æĸ¼":3273,"æľĢä½³":3274,"ĠÂ·":3275,"Ġçĥ":3276,"2017":3277,"æŀ¶":3278,"ç½ĳæĬķå¹³åı°":3279,"Ġ});":3280,"Ġè§":3281,"çĶ¸|":3282,"ç§»":3283,"ĠéĴ":3284,"art":3285,"åĦªæĥł":3286,"Ċ2016":3287,"éĵ¶è¡Į":3288,"è°Ī":3289,"åĢĻ":3290,"åĲ¦":3291,"çĶµåŃĲæ¸¸æĪı":3292,"èĮĥ":3293,"ĠéĩįåºĨ":3294,"å¾ħ":3295,"è¿Ķ":3296,"Ġ]":3297,"Ċæĸ°åįİç½ĳ":3298,"æ¸¸æĪıç½ĳåĿĢ":3299,"é¾Ļæ±Ł":3300,"å©ļ":3301,"ĠçīĪæĿĥ":3302,"ĠåĽ¾":3303,"ãĢĤâĢľ":3304,"Ġæ¾³éĹ¨å¹³åı°":3305,"äº²":3306,"Ċ2018-0":3307,"åĽĽåħŃ":3308,"çĶĺ":3309,"é¡º|":3310,"80":3311,"Ł|":3312,"åŃĲ|":3313,"åĮħåŃĲ":3314,"æľīåĵªäºĽ":3315,"low":3316,"Ġæ¹ĺ":3317,"éĺħè¯»":3318,"Ġäºļæ¸¸éĽĨåĽ¢å®ĺç½ĳ":3319,"Ġç¬¬":3320,"¥Ħ":3321,"ãĢĳãĢĲtãĢĳãĢĲ":3322,"æĭĽåķĨ":3323,"çĽĬ":3324,"ï¼Įä¸į":3325,"ra":3326,"ĊæĹ¶éĹ´ï¼ļ":3327,"ĠæŃ£è§Ħ":3328,"omment":3329,"åħ¨åĽ½":3330,"Re":3331,"èµļéĴ±":3332,"å®ĺæĸ¹ç½ĳåĿĢ":3333,"ç£":3334,"åģľ":3335,"èŃ¦æĸ¹":3336,"ä¸»å¸Ń":3337,"éĽĨåĽ¢å®ĺç½ĳ":3338,"Ġåĳ¨":3339,"éĵ¶æ²³":3340,"æĸ¹å¼ı":3341,"abo":3342,"åıªä¸º":3343,"åĬ¾":3344,"Ċå¤©":3345,"æ©Łè»Ĭ":3346,"Ġ356betå®ĺç½ĳ":3347,"Ġå¤ĸåĽ´365":3348,"ç§¯":3349,"ç·":3350,"è¿Ľåħ¥":3351,"ä½¿çĶ¨":3352,"Ġï¼Į":3353,"ä»ĭç»į":3354,"æŃĮ":3355,"lis":3356,"æĬĢæľ¯":3357,"bet356":3358,"åīįæĹĹ|":3359,"çĸĳ":3360,"wi":3361,"æĬķèµĦ":3362,"ĠéĹ¨":3363,"åħ¨å¤©":3364,"é¦Ļ":3365,"è´«":3366,"¾Ħ":3367,"æ½Ń":3368,"åħµ":3369,"èĶ":3370,"¹åŃĲ":3371,"Ġåĩ¯åıĳappå®ĺæĸ¹ç½ĳç«Ļ":3372,"ĠæŁ":3373,"ĠCh":3374,"ist":3375,"æĽ´æĸ°":3376,"èİ±":3377,"og":3378,"æĿ¥ï¼Į":3379,"ä¸½":3380,"Ġåº·":3381,"å³°|":3382,"ĠåĪ©æĿ¥åĽ½éĻħ":3383,"ãĥ»":3384,"Ċ2":3385,"åľ¨åĵª":3386,"Ġå³":3387,"666":3388,"å®¿":3389,"Ċ2020-02-2":3390,"å®«":3391,"YX":3392,"Ġåĩ¯åıĳä½ĵèĤ²å®ĺç½ĳä¸ĭè½½":3393,"Ġåįģ":3394,"æĹıèĩªæ²»":3395,"å¼¹åĬ¾":3396,"-29":3397,"ç¯®çĲĥ":3398,"åĪĨå¿«ä¹Ĳ":3399,"Ġå¿ħ":3400,"ç»ĵç®Ĺ":3401,"ĠåĶ":3402,"çľŁåģĩ":3403,"æ»¡":3404,"04":3405,"èĢģèĻİ":3406,"æ±Łåİ¿|":3407,"çĻ¾å®¶å®¶ä¹Ĳ":3408,"è®¡åĪĴ_":3409,"ont":3410,"ĠçĭĹä¸ĩåıĸçİ°":3411,"Ġï¿½éİıçĦ¯":3412,"Ġ365è¶³çĲĥ":3413,"Ġbet365ä½ĵèĤ²æĬķæ³¨":3414,"éĴ¢":3415,"åĵ¥":3416,"è¥¿èĹı":3417,"Ċæµ·":3418,"ï¼ĮæĪĳ":3419,"æĢ¥":3420,"èµĦè®¯":3421,"ZS":3422,"è°ĥæŁ¥":3423,"Ċæ±Ł":3424,"é¼":3425,"ç´ł":3426,"äºĳåįĹ":3427,"Ġæ³¸":3428,"100":3429,"äº§åĵģ":3430,"Ġ2020-02":3431,"ĠçĶµåŃĲæ¸¸æĪı":3432,"çĽĽ":3433,"éĢģå½©éĩĳ":3434,"-25":3435,"è°ģ":3436,"ome":3437,"ç½ª":3438,"æĭīçī¹":3439,"Ġ365ä½ĵèĤ²å½©ç¥¨":3440,"atus":3441,"ĠÐ":3442,"æĽ¸":3443,"åªĴä½ĵ":3444,"çªģ":3445,"ĠçľŁäººèµĮéĴ±":3446,"Ġèĳ":3447,"-08":3448,"ç½ĳ_":3449,"ãĤ":3450,"ĠåĪ©æĿ¥åĽ½":3451,"å¼Ģå¥ĸè®°å½ķ":3452,"åĩ°":3453,"åŃ¦éĻ¢":3454,"PK":3455,"åĪĺ":3456,"Ġæ¨":3457,"Ģ|":3458,"Ġç¹":3459,"ĠRes":3460,"ĠæĻĭ":3461,"è´´åĲ§":3462,"ç«ŀçĮľ":3463,"ĊÂ·":3464,"ob":3465,"èĳ¡äº¬":3466,"eãĢĳãĢĲ":3467,"Ġå¦Ĥä½ķ":3468,"æĥħåĨµ":3469,"çī¹é©¬":3470,"èģĶç³»":3471,"Ġåĩ¯åıĳæľĢæĸ°æīĭæľºçĻ»éĻĨ":3472,"Ġam8":3473,"urn":3474,"åħ¬å¼Ģ":3475,"Ġ$(\"#":3476,"Ġæ¬¡":3477,"å¿«éĢŁ":3478,"åħ¶ä»ĸ":3479,"æľŁæľŁ":3480,"ĊæĹ©çĤ¹":3481,".com/":3482,"å®ģåİ¿|":3483,"Ġat":3484,"çļĦä¸Ģ":3485,"20æĹ¥":3486,"ĠçīĪæĿĥæīĢæľī":3487,"ï¼ļâĢľ":3488,"Ġ24":3489,"æ´¾":3490,"ass":3491,"å¿«é¤Ĳ":3492,"èº«ä»½":3493,"èĲ¨":3494,"ä¸ĭæ³¨":3495,"Ġæ£ĭçīĮ":3496,"éļĨ|":3497,"Ġåĩ¯åıĳå®ĺæĸ¹æīĭæľºçīĪ":3498,"Ġagè§Ĩè®¯":3499,"ĠĠ":3500,"éĤ®ä»¶":3501,"åħŃåĲĪ":3502,"ä¸¾æĬ¥":3503,"Ġï¿½ï¿½ï¿½ï¿½":3504,"Ġå½©ç¥ŀäºīéľ¸8":3505,"çĻ¾åº¦":3506,"ç§ĳæĬĢ":3507,"ä¸ĩåįļapp":3508,"Ġå¨±ä¹Ĳåĩ¯åıĳappä¸ĭè½½":3509,"åĪĨéĴŁpk10":3510,"¶|":3511,"æĶ¯æĮģ":3512,"åĿĳ":3513,"Ġå¹´":3514,"-26":3515,"æĺİ|":3516,"ĊåĮĹäº¬":3517,"ç»´æĬ¤":3518,"å±±å¸Ĥ|":3519,"Ġè·":3520,"ĠSt":3521,"ĠäºļæĲıå¨±ä¹Ĳ":3522,"çĶŁèĤĸ":3523,"manbetx":3524,"Ċåıĳå¸ĥ":3525,"åĹİ":3526,"åįķåıĮï¼ļå½©ç¥ŀ":3527,"60":3528,"Ġç®¡å®¶å©Ĩ":3529,"Ġå¤§åıĳäºĶ":3530,"Ġåĩ¯åıĳæīĭæľºå®¢æĪ·ç«¯ä¸ĭè½½":3531,"éĢı":3532,"æĹ©çĤ¹åĬłçĽŁåºĹ":3533,"ç»Ī":3534,"Ġä½ľèĢħï¼ļ":3535,"Ġå²³":3536,"ãĦ":3537,"éĻĦ":3538,"Ġå¥½è¿Ĳ":3539,"çĻ»å½ķä¸ĭè½½":3540,"Ġå¼łå®¶":3541,"pp":3542,"Ġagæīĭæľº":3543,"Ġæ¾³":3544,"å®³":3545,"åī¯":3546,"ĠæĹ©çĤ¹å°ıåĲĥ":3547,"ç»Ŀ":3548,"åįģåĪĨ":3549,"å®īåħ¨åĲĹ":3550,"qu":3551,"æĢİä¹Īçľĭ":3552,"ä¼¤":3553,"ĠçĪ±":3554,"ĠåĽº":3555,"Ċç¬¬":3556,"è³ĩ":3557,"è¾ĵéĴ±":3558,"70":3559,"ĠâĨĴ":3560,"å¡ŀ":3561,"åĽ½éĻħå¹³åı°":3562,"Ļæ±Ł":3563,"Ġif(":3564,"éģĬ":3565,"Ġåĩ¯åıĳçĽ´æĴŃ":3566,"ä¸Ńå¤®":3567,"çŃĶ":3568,"æī§":3569,"åĶ¯":3570,"ĠéħĴ":3571,"ä¸ºä»Ģä¹Ī":3572,"ĠçĭĹä¸ĩapp":3573,":2,":3574,".t":3575,"åĵªå®¶":3576,"éĿ©":3577,"æ±½è½¦":3578,"ãĢĤåľ¨":3579,"Ġæĸ°éĹ»":3580,"ĊâĢ":3581,"ç³»åĪĹ":3582,"Ġ<":3583,"ĠèģĶç³»":3584,"ãĢĤæį®":3585,"æ¶Īæģ¯":3586,"Ġéľį":3587,"å¾ģ":3588,"ax":3589,"æŃ¢":3590,"ç²¾åĩĨ":3591,"å·¥ç¨ĭåĬłçĽŁ":3592,"èģĶåĲĪ":3593,"Ġé¹¤":3594,"æĹ¶éĹ´:":3595,"åı³æĹĹ|":3596,"2016":3597,"ĠçĤ¹":3598,"ĊÂ":3599,"è¯ķçİ©":3600,"èµŀ":3601,"æĤ¨çļĦå½ĵåīįä½įç½®ï¼ļ":3602,"res":3603,"Ġåĩ¯åıĳæľĢæĸ°çĻ»å½ķç½ĳç«Ļ":3604,"ess":3605,"Ġåħ°":3606,"-01":3607,"åģ¥åº·":3608,"Ġäºļç¾İag":3609,"æĬķæ³¨å¹³åı°":3610,"éĵº":3611,"ime":3612,"åĸľ":3613,"ĠäºļæĲıä½ĵèĤ²":3614,"ä»·æł¼":3615,"Ġï¼Ī":3616,"äºŃ|":3617,"6åĲĪ":3618,"IN":3619,"æŁ¥è¯¢":3620,"çļĦâĢľ":3621,"Ċ3":3622,"Ġ1åĪĨå¿«3":3623,"Ġë":3624,"Ġæįķé±¼":3625,"ĠIn":3626,"çļ®":3627,"èĪ¹":3628,"ä¹ī|":3629,"Ċ2020-04-0":3630,"ï¼ĮâĢľ":3631,"æĢ»ä»£":3632,"ä¸ĥ":3633,"ç§ĺ":3634,"§ï½":3635,"éĻį":3636,"Ġam8äºļç¾İ":3637,"è·Ł":3638,"éĩįè¦ģ":3639,"åĪ©|":3640,"å¹¿æĴŃ":3641,"æĽ²|":3642,"Ġbet365ä½ĵèĤ²åľ¨çº¿":3643,"æ¢Ŀä»¶":3644,"Ġåĩ¯åıĳå®ĺç½ĳä¸ĭè½½":3645,"Ġèİ±":3646,"Ġåĭ":3647,"05":3648,"HN":3649,"çĤ¸":3650,"åĲ¬":3651,"Ġå¡":3652,"Ġæ¦":3653,"Ġçĳ":3654,"åĭķ":3655,"ĠåİŁ":3656,"Ġdet365":3657,"0,":3658,"éģĹæ¼ı":3659,"æµ¦|":3660,"èľ":3661,"status":3662,"this":3663,"ä¸ĵä¸ļ":3664,"æ³°":3665,"ach":3666,"Ġæµ¦":3667,"è¾¹|":3668,"çĪĨ":3669,"æľĢå¿«":3670,"è®²":3671,"Ċå½ĵåīįä½įç½®ï¼ļ":3672,"éĶ®":3673,"åĵĪå°Ķåı³ç¿¼":3674,"è©ķ":3675,"çĽ´èĲ¥":3676,"æĭ¿":3677,"åĢĭ":3678,"Ġå¯ŁåĵĪå°Ķåı³ç¿¼":3679,"ç¦ģ":3680,"Ġæĺ¥":3681,"-30":3682,"data":3683,"è¾¾|":3684,"çłĶç©¶":3685,"k8å®¢æĪ·ç«¯ä¸ĭè½½":3686,"ä¼¼":3687,"å·¦ç¿¼":3688,"Ġ2020-03":3689,"Ċ2018":3690,"å¼ıæĹ©é¤ĲåĬłçĽŁ":3691,"ĠåĽ½éĻħåĪ©æĿ¥":3692,"æĺ¾ç¤º":3693,"pc":3694,"ĠæıĲçİ°":3695,"è´¥":3696,"Ġbet365è¶³çĲĥ":3697,"å¿µ":3698,"48":3699,"Ġæīİ":3700,"ayou":3701,"Ġåĵģ":3702,"çļĦç½ĳåĿĢ":3703,"çļĦäºº":3704,"Ġèĥ":3705,"ER":3706,"Ġåĩ¯åıĳçº¿ä¸Ĭå¼ĢæĪ·":3707,"iO":3708,"åĪ¤":3709,"æĺ¯åĵªä¸ª":3710,"éĢīäºĶ":3711,"åĪĨé£ŀèīĩ":3712,"èĦ±":3713,"éĶĽ":3714,"min":3715,"how":3716,"Ċ2016:":3717,"ak":3718,"éį":3719,"Ġx":3720,"æĻ®äº¬":3721,"åĲİæĹĹ|":3722,"ç²¾éĢī":3723,"å¤©åīį":3724,"īåİ¿|":3725,"Ġè±":3726,"Ġ2019å¹´":3727,"45":3728,"åįĸ":3729,"ĠæŁ³":3730,"Ġåħ«":3731,"666k8å®¢æĪ·ç«¯ä¸ĭè½½":3732,"Ġåĩ¯åıĳçº¿ä¸Ĭå¹³åı°":3733,"è±¹åŃĲ":3734,"Ġåĩ¯åıĳ666k8å®¢æĪ·ç«¯ä¸ĭè½½":3735,"åı·çłģ":3736,"Ġ2019-12":3737,"å½©äºīéľ¸":3738,"è´¸":3739,"Ġåı¯":3740,"Ġæ¸©":3741,"è°·|":3742,"Ġçİĭä¸Ńçİĭ":3743,"åĽ°":3744,"Ġäºļåįļ":3745,"hone":3746,"é¬¼éħĴ":3747,"Ĉą":3748,"éĥ½å¸Ĥ":3749,"ç»ĻåĬĽçļĦèĢģçīĮ":3750,"éħĴé¬¼éħĴ":3751,"Ġåĩ¯åıĳç½ĳå¨±ä¹Ĳå®ĺç½ĳ":3752,"ķè¥¿":3753,"äº¤æµģç¾¤":3754,"ä¸´":3755,"éĥ¨åĪĨ":3756,"Ċå¹¿":3757,"ĠåħŃåĲĪ":3758,"Ġå§":3759,"ĠâĢº":3760,"åĶ¯ä¸Ģ":3761,"æ¯ĶåĪĨçĽ´æĴŃ":3762,"éŃ":3763,"Ġåĩ¯åıĳç½ĳå¨±ä¹Ĳå®ĺç½ĳå®ĺç½ĳçĻ»å½ķ":3764,"çīĪæľ¬":3765,"åıĳè¡¨":3766,"è·ĳ":3767,"ĠåĶĲ":3768,"èİ«":3769,"ĠåĵĪ":3770,"éĩĳèĬ±":3771,"æĪĲåĬŁ":3772,"å¤ļå°ĳéĴ±":3773,"33":3774,"æĶ¶ä¸įåĪ°":3775,"10æľĪ":3776,"val":3777,"è¡Įä¸ļ":3778,"åįģä¸Ģ":3779,"iãĢĳãĢĲ":3780,"Ċ2020-01":3781,"ud":3782,"Info":3783,"éĥ¨éĹ¨":3784,"çĬ¯":3785,"ĠéģĤ":3786,"Ġåĵª":3787,"çİĭä¸Ńçİĭ":3788,"åĽĽå·Ŀ":3789,"å½Ĵ":3790,"Ġéĺ¿æĭī":3791,"éĩĮ|":3792,"é»ĺ":3793,"**":3794,"Ġçİ©":3795,"åĮĹæĹ©é¤ĲåĬłçĽŁ":3796,"æ¶ī":3797,"01":3798,"ĠThe":3799,"Ŀç¦»":3800,"Ġæ¾³éĹ¨æ£ĭçīĮ":3801,"ink":3802,"æħ¢":3803,"are":3804,"Ġ)":3805,"çĽĴ":3806,"ï¼Įä¹Ł":3807,"å¹ķ":3808,"åı¯éĿłåĲĹ":3809,"Ġé£":3810,"æīĭæľºçīĪapp":3811,"Ġç¿":3812,"ä»Ĭå¤©":3813,"çļĦç½ĳç«Ļ":3814,"è¾ĥ":3815,"Ġå¤§åıĳä¸ī":3816,"Ġå¤§åıĳäºĮ":3817,"ä»Ĭå¹´":3818,"¯çĭĤ":3819,"åº§":3820,"è¿Ļä¸ª":3821,"Ċ4":3822,"è¡£":3823,"Ġåįļå½©":3824,"Ġçĳŀ":3825,"ĠåĮħ":3826,"Ġåħį":3827,"åħ¬å¼ı":3828,"ith":3829,"Ġäºļç¾İagæĹĹèĪ°åİħ":3830,"Ġpub":3831,"åĪĿ":3832,"ä¼Ł":3833,"Ġåĩ¯åıĳä½ĵèĤ²appå®ĺç½ĳ":3834,"Ġyayou":3835,"æľĿ":3836,"è®¤ä¸º":3837,"ard":3838,"æĹ¥åįļ":3839,"Ġæ´ª":3840,"æ¬¢è¿İæĤ¨":3841,"å½©ç¥ŀäºīéľ¸8":3842,"Ġåģ¥åº·":3843,"ĠèĵĿ":3844,"æī¿":3845,"Ġå½Ń":3846,"Ġå®īåįĵ":3847,"ert":3848,"Ġéĺħè¯»":3849,"è½®":3850,"å¤©å¤©å¥½å½©":3851,"all":3852,"Ġé¦ĸé¡µ":3853,"Õ¡":3854,"æ¨Ļ":3855,"Ġ==":3856,"-05":3857,"rom":3858,"éļĨ":3859,"ollow":3860,"æĲıå¤©åłĤ":3861,"çŁ¥éģĵ":3862,"çĩķ":3863,"æ·±åľ³":3864,"Ġåĩ¯åıĳç½ĳåĿĢå¨±ä¹Ĳ":3865,"ĠæĿŃ":3866,"åįĹåİ¿|":3867,"æĵį":3868,"Ġçİ°éĩĳç½ĳ":3869,"Ġå¢¨":3870,"rk":3871,"Ġ365ä½ĵèĤ²æĬķæ³¨è¶³çĲĥ":3872,"çĻ¼è¡¨":3873,"ace":3874,"Ġè¥Ħ":3875,"Ġéº»":3876,"çľ¼":3877,"æłĩåĩĨ":3878,"Ġæµıè§Ī":3879,"åħ¬éĩĮ":3880,"Ġä¸ĭä¸Ģç¯ĩï¼ļ":3881,"åŃ£":3882,"ï¼Įä»ĸ":3883,"åĲī|":3884,"ĠçĶ³":3885,"Ġ5åĪĨå¿«3":3886,"ĠçľŁäººçĻ¾å®¶ä¹Ĳ":3887,"Ġbtt":3888,"aW":3889,"éĿĴæµ·":3890,"Ġåī":3891,"APPä¸ĭè½½":3892,"hb":3893,"æ¡ĥ":3894,"ï»¿ï»¿":3895,"å¼Ģå¥ĸçİ°åľº":3896,"æĩ":3897,"Ġæĳ":3898,"çŁŃ":3899,"Ċä¸ľ":3900,"Ġå½©ç¥¨":3901,"Ĳ|":3902,"åĪĩ":3903,"Ġåŀ":3904,"Ġèµ¤":3905,"éĸĭ":3906,"éģŃ":3907,"rou":3908,"ĠæľĽ":3909,"éĽ¨":3910,"ä¸Ĭæµ·":3911,"åľĴ":3912,"ĊæĤ¨":3913,"ç¤¼":3914,"æĹ§çīĪ":3915,"¤|":3916,"åī§":3917,"port":3918,"Ĥ|":3919,"åĿļ":3920,"ä¹°çĲĥ":3921,"å§Ķåĳĺ":3922,"ĠåŁİ":3923,"Ġæ¾³éĹ¨ç½ĳä¸Ĭ":3924,"åĿĿ|":3925,"Ġ2015":3926,"ä¹¦è®°":3927,"è®¾è®¡":3928,"ĠæĿ¨":3929,"åıĸæ¬¾":3930,"ill":3931,"Ġå±ı":3932,"åıĳçİ°":3933,"è¯¯":3934,"è¼ĥ":3935,"-27":3936,"Ġç¼":3937,"è±¡":3938,"æĸŃ":3939,"Ġç¤":3940,"ĠçĤ¹åĩ»":3941,"Ċ2019-09":3942,"åĲĪæ³ķåĲĹ":3943,"Ġèĭ±åĽ½":3944,"Ġçĵ":3945,"Ġæ¼³":3946,"å®ģå¤ı":3947,"Ġå¿«3":3948,"Ċé¦Ļæ¸¯":3949,"è²»":3950,"łèıľ":3951,"æīĵå¼Ģ":3952,"ĠæĿİ":3953,"çļĦãĢĳãĢĲ":3954,"Ġåĩ¯åıĳéĽĨåĽ¢":3955,"¼åĲĪ":3956,"çİĦ":3957,"ç¨İ":3958,"èĥĮ":3959,"ãĢĳãĢĲeãĢĳãĢĲ":3960,"ç§ĴéĢŁ":3961,"ä¼´":3962,"Ġæº":3963,"©|":3964,"å½©ç¥¨å¹³åı°":3965,"ews":3966,"æĭ¾":3967,"ĠèģĶç³»æĪĳä»¬":3968,"èĵĿ":3969,"ï¼Įæĺ¯":3970,"è´Ŀ":3971,"åı¯èĥ½":3972,"Ġ356betè¶³çĲĥ":3973,"-28":3974,"Ġ365betå®ĺç½ĳè¶³çĲĥ":3975,"98":3976,"3D":3977,"ice":3978,"ĵ|":3979,"Ġç¥ģ":3980,"iv":3981,"å¥½è¿Ĳ":3982,"Ġhttp://":3983,"åĽ½éĻħå®ĺç½ĳ":3984,"å¹³åı°ç½ĳåĿĢ":3985,"Ġäº¤":3986,"ĊT":3987,"ĠRight":3988,"ï¼Įä»¥":3989,"åĨĻ":3990,"ãĢĳãĢĲçļĦãĢĳãĢĲ":3991,"ĠéĤµ":3992,"åĤµ":3993,"Ġ365betå®ĺç½ĳä½ĵèĤ²":3994,"ood":3995,"å·ŀæĸ°éĹ»ç½ĳ":3996,"ç¨³å®ļ":3997,"åĪĨäº«":3998,"é«":3999,"åı£è¯Ģ":4000,"å¤§æĪĺ":4001,"âĢĶâĢĶ":4002,"ĠçĭĹä¸ĩä½ĵèĤ²":4003,"ĠâĢ¢":4004,"Ġæĺİ":4005,"Ġè¯Ħè®º(":4006,"èµĶçİĩ":4007,"ï¼ĮèĢĮ":4008,"æ¯Ľ":4009,"ck":4010,"ĠäºĮåĽĽåħŃ":4011,"éļľ":4012,"Ġç²¾":4013,"å¤§åĪ©":4014,"æľīä»Ģä¹Ī":4015,"Ġæ¢ħ":4016,"æĭį":4017,"Ġç«ĭ":4018,"å°ıé¡įåĢŁæ¬¾":4019,"çģ¯":4020,"åĿĬ":4021,"äº¡":4022,"ç»ĩ":4023,"æ³°|":4024,"çŃ¾ï¼ļ":4025,"Ġçľ":4026,"æĿ¾":4027,"æ¥ļ":4028,"Ġåĩ¯åıĳä½ĵèĤ²appæīĭæľº":4029,"ç»§":4030,"ĠåĵģçīĮ":4031,"å¼Ģå§ĭ":4032,"åĪĨéĴŁæĹ¶æĹ¶å½©":4033,"turn":4034,"Ġä»ģ":4035,"Ġä¹Įæĭīçī¹":4036,"å®ĥ":4037,"Ġç¶":4038,"Ġres":4039,"å¯¿|":4040,"hm":4041,"åŃ¦çĶŁ":4042,"æŃ£åľ¨":4043,"æľĢå¤§":4044,"éĥ½å¸ĤæĬ¥":4045,"ä»¤":4046,"çĢ":4047,"åĮ»éĻ¢":4048,"ï¿½ï¿½ï¿½ï¿½ï¿½":4049,".8ä¸ĩ":4050,"Ġé¢Ŀ":4051,"Ġå®¿":4052,"Ċ2017:":4053,"Ġå±±ä¸ľ":4054,"Ġåĩ¯æĹ¶AG":4055,"Ġ365betè¶³çĲĥ":4056,"ĠåĪĨåĪĨå½©":4057,"Ċæ²³":4058,"Ġå½ĵ":4059,"ä¸įåĥı":4060,"Ċâ":4061,"åĮºæĸ°éĹ»ç½ĳ":4062,"Ġçĸ":4063,"åºŃ":4064,"èµĮåŁİ":4065,"Ġç±³":4066,"ĠåĸĢ":4067,"åĩ¤åĩ°":4068,"Ġåĩ¯åıĳåľ¨çº¿çĻ»å½ķä¸ĭè½½":4069,"Ġlof":4070,"Ġ365ä½ĵèĤ²æĬķæ³¨ä½ĵèĤ²":4071,"Ġ365betä½ĵèĤ²":4072,"æ¡¥|":4073,"iz":4074,"Ġæĺ¥åħī":4075,"åŁ¹è®ŃåĬłçĽŁ":4076,"å±ı":4077,"-100,":4078,"é©¬|":4079,"rk:":4080,"rk:-100,":4081,"status:'":4082,"Info:{},":4083,"ä¼Ĭ":4084,"æĪ¿è²¸":4085,"åįİç¤¾":4086,"ĠéĽĦ":4087,"resp":4088,"OT":4089,"Ġ3åĪĨå¿«3":4090,"åħ³äºİ":4091,"æĽ´å¤ļ":4092,"é¡¶":4093,"åħ¨çĲĥ":4094,"ord":4095,"Ġä½Ľ":4096,"3.0":4097,"è¿½":4098,"æľĢä½İ":4099,"365æ£ĭçīĮæ¸¸æĪı":4100,"ä¸Ńçī¹":4101,"éĶ¦":4102,"ĠRights":4103,"ĠåĪ©æĿ¥èĢģçīĮ":4104,"éĽ·":4105,"ç¹§ï½":4106,"500":4107,"Ġ_":4108,"Im":4109,"Ġ365betå®ĺç½ĳä½ĵèĤ²åľ¨çº¿":4110,"ial":4111,"Ġåħ³":4112,"ãĢĤè¿Ļ":4113,"HQ":4114,"èĭ±åĽ½":4115,"ĠçĭĹä¸ĩ(":4116,"ä¸ĭè½½åľ°åĿĢ":4117,"Ġæ¡Ĥ":4118,"90":4119,"æ¶Īè´¹":4120,"äººçļĦ":4121,"Ġçİ¯äºļå®ĺç½ĳ":4122,"Ġç½ĳç»ľ":4123,"LCJ":4124,"åºı":4125,"ĠåºĨ":4126,"ng":4127,"äºĨä¸Ģ":4128,"ä¸ĢçĽ´":4129,"her":4130,"ĠæĬķ":4131,"Ġå¾Ĳ":4132,"ant":4133,"ä»¥ä¸Ĭ":4134,"å²Ń":4135,"ĠæŁ¥":4136,"éłģ":4137,"av":4138,"Ġæ½®":4139,"å«Į":4140,"any":4141,"Count:0,":4142,"ument":4143,"çľģ|":4144,"æµĨ":4145,"åħ¬å®ī":4146,"ä»ĬæĹ¥":4147,"RecomBlog":4148,"26":4149,"åł´":4150,"ĠãĢĤ":4151,"Ġåı°åĮĹ":4152,"ĠåľŁ":4153,"Ġäºļæ¸¸æ¸¸æĪı":4154,"UU":4155,"£|":4156,"è¯Ĩ":4157,"ãĢĤï¼Ī":4158,"å°ıå§Ĳ":4159,"){":4160,"ĠèĤĩ":4161,"åĨħå®¹":4162,"CB":4163,"æĲľç´¢":4164,"Us":4165,".get":4166,"æĹ¶æĬ¥":4167,"å£°æĺİ":4168,"-31":4169,"éĽĨ|":4170,"Ġåĩ¯åıĳAGæĹĹèĪ°åİħ":4171,"19æĹ¥":4172,"oãĢĳãĢĲ":4173,"è®®éĻ¢":4174,"ie":4175,"æĶ¿æ²»":4176,"Ġåħ¶":4177,"ĠåĢ":4178,"åĵªå®¶å¥½":4179,"aãĢĳãĢĲ":4180,"ãģ":4181,"Ċ2019å¹´":4182,"Ġé«ĺéĽĦ":4183,"Ġäºļæ¸¸å®ĺæĸ¹":4184,"æ³¨åĨĮç½ĳç«Ļ":4185,"æĦ¿":4186,"ai":4187,"Ġé¡º":4188,"78":4189,"').":4190,"Ġï¼":4191,"æŀª":4192,"çı¾":4193,"ĊâĢ¢":4194,"omp":4195,"ĠåĴ":4196,"Ġé¥":4197,"åħ³éĶ®":4198,"Ġæīĺ":4199,"çĶµèĦĳçīĪ":4200,"è§Ĵ":4201,"Ġåĩ¯åıĳagæĹĹèĪ°åİħæīĭæľºå®¢æĪ·ç«¯":4202,"ç»Ĩ":4203,"çĬ¶":4204,"åĳ¼":4205,"è´µå·ŀ":4206,"åĪ¸":4207,"ĠåŃ¦":4208,"10åĪĨ":4209,"å°½":4210,"Ġæ¡ĥ":4211,"ĠçŃ":4212,"ĠèĲ¥":4213,"ĠçĻ¾å®¶ä¹ĲçľŁäºº":4214,"Ġæ°´":4215,"Ġæ³ķ":4216,"æĬ¥éģĵï¼Į":4217,"Ġå¤§åıĳåĪĨåĪĨå½©":4218,"çİĦæľº":4219,"éĺħ":4220,"ĠReserved":4221,"eb":4222,"Ġyou":4223,"ä¼ĳ":4224,"08":4225,"ocument":4226,"eng":4227,"äº¤éĢļ":4228,"ìĿ":4229,"åĪ»":4230,"è¯Ħä»·":4231,"äºļåįļ":4232,"èĢģèĻİæľº":4233,"æĶ»çķ¥":4234,"Ġ365ä½ĵèĤ²æĬķæ³¨ä½ĵèĤ²åľ¨çº¿":4235,"çĻ»å½ķç½ĳåĿĢ":4236,"Ġæĸ¹":4237,"æľºæŀĦ":4238,"ao":4239,"ãĢĢãĢĳãĢĲ":4240,"çĵ¦":4241,"11æľĪ":4242,"Ġè¡Į":4243,"OS":4244,"ä¾Ĩ":4245,"ãĢĳãĢĲiãĢĳãĢĲ":4246,"0ãĢĳãĢĲ":4247,"ĠçİĽ":4248,"set":4249,"å¤®è§Ĩ":4250,"èħ¾è®¯":4251,"ĠèĢģ":4252,"çĭ¬":4253,"ĠæĹħ":4254,"ĠæĺŃ":4255,"è¾¦":4256,"è°¢":4257,"06":4258,"ld":4259,"21æĹ¥":4260,"èµĽäºĭ":4261,"èī¯":4262,"æĪĲä¸º":4263,"å·´å°Ķ":4264,"çī¹èī²æĹ©çĤ¹åĬłçĽŁ":4265,"éĢīä¸ĢèĤĸ":4266,"æİ¢":4267,"Ġå¤§åıĳå¿«ä¸īæĺ¯":4268,"åįİ|":4269,"é¢Ħè®¢":4270,"æĢİä¹ĪåĬłçĽŁ":4271,"09":4272,"åľ¨åĵªéĩĮ":4273,"å¤ĸæĮĤ":4274,"pkæĭ¾":4275,"Ġtype":4276,"\";":4277,"ç¨³èµļ":4278,"Ġçł":4279,"è¾£":4280,"lass":4281,"éģĩ":4282,"Ġæ¾³éĹ¨æŃ£è§Ħ":4283,"å¼Ģå¥ĸåİĨåı²":4284,"ĊP":4285,"æ³½":4286,"Ġæ¦Ĩ":4287,"Ċæ¹ĸ":4288,"Ġj":4289,"Ġbtt918":4290,"å·´å°ĶèĻİ":4291,"ĠçĻ¾åº¦":4292,"åĲ´":4293,"çĳŀ":4294,"Ġright":4295,"ĠMB":4296,"ä¸Ńå¥ĸ":4297,"èĢ³":4298,".6ä¸ĩ":4299,"åķĨæĬ¥":4300,"æĹ¶éĹ´ï¼ļ2019":4301,"æīĭæľºç½ĳåĿĢ":4302,"s:":4303,"æ¢ħ":4304,"äº¬æĬ¥":4305,"åįļå®¢":4306,"ä¼Ļ":4307,"Ġåı°ä¸Ń":4308,"å¿ĺ":4309,"æľŁæľŁåĩĨ":4310,"ĠæľĿ":4311,"ĠæĶ¶":4312,"--------":4313,"Ġå¤ı":4314,"Ġä¸ºä»Ģä¹Ī":4315,"ZH":4316,".5ä¸ĩ":4317,"Ġæłĩ":4318,"Ġ356betä½ĵèĤ²":4319,"Ġå¾®":4320,"Ċåįİ":4321,"ĠçľŁäººæ¸¸æĪı":4322,"æįķé±¼æ¸¸æĪı":4323,"èĲ¬":4324,"åŁİå¸Ĥ|":4325,"Ġä¸ĸçķĮ":4326,"ä¿¡çĶ¨è²¸æ¬¾":4327,"-03":4328,"éģİ":4329,"Ġæ¯Ķ":4330,"æ½Ń|":4331,"ĠæĲıå¤©åłĤ918":4332,"IC":4333,"æĳĦ":4334,"åįģä¸ĢéĢīäºĶ":4335,".2ä¸ĩ":4336,"Ġ2åĪĨå¿«3":4337,"Ġåĩ¯åıĳappå®ĺç½ĳ":4338,"lement":4339,"ĠèĴĻ":4340,"à¸²":4341,"åīµ":4342,"Ġæļ":4343,"æ¼«":4344,"å°Ī":4345,"ç»¼åĲĪ":4346,"æĸ¯|":4347,"Ġbet36ä½ĵèĤ²":4348,"ĊÂ©":4349,"è¿ĺæĺ¯":4350,"aa":4351,"Ġå¯¿":4352,"è¿Ŀæ³ķ":4353,"Ġå®īå¾½":4354,"æĸ¹|":4355,"Ġæ¿":4356,"Ġåıĭ":4357,"Ġå·¥":4358,"çŁ³|":4359,"Ġ918æĲıå¤©åłĤ":4360,"çĤ¸éĩĳèĬ±":4361,"åĨĪ|":4362,"AGæĹĹèĪ°":4363,"Ġæ³Ĺ":4364,"å¤§å¸ĪèµĽ":4365,"ç©Ĩ":4366,"Ġelse":4367,"è¿ª":4368,"éĥŃ":4369,"Õ¡Õ":4370,"æŃ£æĸĩ":4371,"éĩİ":4372,"MT":4373,"äºĮåħ«":4374,"æºĲ:":4375,"ĠæĹ©çĤ¹åĬłçĽŁåºĹ":4376,"Ġèĭ¹æŀľ":4377,"ĠçĭĹä¸ĩæĢİä¹Ī":4378,"Ċãĥ»":4379,"åĽłä¸º":4380,"ide":4381,"Ġ2020":4382,"è§£åĨ³":4383,"Ġ365betä½ĵèĤ²åľ¨çº¿":4384,"Ġå½©ç¥ŀ8":4385,"å¡ĺ|":4386,"è®¾å¤ĩ":4387,"äºĮèĥİ":4388,"03":4389,"å¤ĩçĶ¨çĻ»å½ķ":4390,"¿è¿Ĳ":4391,".9ä¸ĩ":4392,"Ġå¼Ģåħĥæ£ĭçīĮæľī":4393,"æīĭæľºå¨±ä¹Ĳ":4394,"Ġéĺ¿åħĭ":4395,"ãĢĳãĢĲãĢĤ":4396,"Ġwith":4397,"Ġå¥ī":4398,"èį£|":4399,".3ä¸ĩ":4400,"Ġçİ¯äºļçľŁäºº":4401,"ĠæĹ¶éĹ´":4402,"ĠBe":4403,"å·ŀå¸Ĥ":4404,"åŃ©åŃĲ":4405,"ĠéĻĨ":4406,"åĿª":4407,"æ£ĭçīĮæ¸¸æĪıå¹³åı°":4408,"Ġç§ĳå°Ķæ²ģå·¦ç¿¼":4409,"Ġäºļç¾İåĽ½éĻħ":4410,"åĮºæĶ¿åºľ":4411,"Ġ356betä½ĵèĤ²åľ¨çº¿":4412,"è½»":4413,"è¾ĵäºĨ":4414,".7ä¸ĩ":4415,"å¤±è´¥":4416,"æĸ°|":4417,"æ²Ļ|":4418,"éĻĪ":4419,"Ċ5":4420,"ĠæĹ¶æĹ¶å½©":4421,".1ä¸ĩ":4422,"ä»į":4423,"éĽª":4424,"è¡ĮæĶ¿":4425,"Ġbet365æ»ļçĲĥ":4426,"up":4427,"å»¶":4428,"ĠåĪ©æĿ¥æľĢèĢģçīĮ":4429,"Ġäº¬":4430,"ä¸¾è¡Į":4431,"ĠéĻĪ":4432,"çĸĹ":4433,"ies":4434,".4ä¸ĩ":4435,"äººï¼Į":4436,"Ġæ²³åįĹ":4437,"Ġå¤ļ":4438,"Ġäºķ":4439,"èĨ":4440,"è£¡":4441,"wv":4442,"âĢĶå¤§åıĳæĹ¶æĹ¶å½©":4443,"wd":4444,"æ¸¡":4445,"Ġreturn":4446,"æ¯Ķè¼ĥ":4447,"Ġblog":4448,"å¼ıæĹ©çĤ¹åĬłçĽŁ":4449,"æ¬¡æķ°":4450,"Ġhm":4451,"ç¬¬äºĮ":4452,"çĶĺèĤĥ":4453,"ç§ģ":4454,"è®¿éĹ®":4455,"alt":4456,"æİ§åĪ¶":4457,"ĠçľŁäººçĻ¾å®¶å®¶ä¹Ĳ":4458,"Ċä½ľèĢħï¼ļ":4459,"Ġä¿¡":4460,"ç²ī":4461,"å®īå¸Ĥ|":4462,"ĠèĻ":4463,"Ġåĩ¯åıĳçľŁäººæ¸¸æĪı":4464,"éī":4465,"è®¡åĪĴè½¯ä»¶":4466,"åį´":4467,"åĽ½éĻħå¨±ä¹Ĳ":4468,"çĶ¨æĪ·":4469,"Ġæ²ģ":4470,"ç¼ĸè¾ĳ":4471,"ä¼¯":4472,"æĸ¹éĿ¢":4473,"ĠæĹ©é¤Ĳç²¥":4474,"94":4475,"Ġç£":4476,"Ġåĩ¯åıĳç½ĳå¨±ä¹Ĳå®ĺæĸ¹ç½ĳç«Ļ":4477,"åĿª|":4478,"çº¿è·¯":4479,"å¹³åı°å¼ĢæĪ·":4480,"åĭĴ|":4481,"çĶŁäº§":4482,"ä»ģ":4483,"é©¬ä¼ļ":4484,"åĮĸåİ¿|":4485,"Ġæ¾³éĹ¨æĸ°":4486,"âĢĿçļĦ":4487,"Ġå¤§åĲĮ":4488,"é»ĳé¾Ļæ±Ł":4489,"Ġå°Ĭé¾Ļag":4490,"å®īå¾½":4491,"çĮ®":4492,"Ġé²":4493,"Ġäºļæ¸¸å®ĺç½ĳéĿŀåĩ¡":4494,"Ġagåľ¨çº¿":4495,"äººå·¥":4496,"Ġåĩ¯åıĳæĹĹèĪ°åİħæ³¨åĨĮä¸ĭè½½ç½ĳåĿĢ":4497,"åĵªä¸ªå¥½":4498,"ï¼Įæľī":4499,"Ġå¼Ģåħĥæ£ĭçīĮæĺ¯":4500,"Ġä¸ĩåįļmanbetx":4501,"æ¾":4502,"æĿ¥çļĦ":4503,"çĶ³è¯·":4504,"å·ŀæīĳåħĭ":4505,"ĠåĪ©æĿ¥å®ĺç½ĳ":4506,"åĢŁè²¸":4507,"ast":4508,"æ²³åİ¿|":4509,"Ġ36":4510,"æ³¨åĨĮç½ĳåĿĢ":4511,"çĮ«":4512,"-04":4513,"åĪĨæİĴåĪĹ3":4514,"Ġrights":4515,"ĠçĲ¼":4516,"1)":4517,"Ġèĭį":4518,"Ġäºļæ´²æ¸¸æĪıag":4519,"Ġæ¢ģ":4520,"__":4521,"æµ¦":4522,"ä»ħ":4523,"ĠæŀģéĢŁå¿«3":4524,"åĪļ":4525,"å®ĺæĸ¹å¹³åı°":4526,"ĠæĦ":4527,"Ċ2019-08":4528,"ĭ|":4529,"èı²":4530,"å¹´ï¼Į":4531,"į|":4532,"ä¸įä¸Ĭ":4533,"Ġäºļæ¸¸éĽĨåĽ¢ç½ĳç«Ļ":4534,"æĺĮåİ¿|":4535,"ĠæīĭæľºçĻ¾å®¶ä¹Ĳ":4536,"ĠèĪĴ":4537,"èĽĭèĽĭ":4538,"ĠåŃŁ":4539,"Ġåľ°":4540,"ĠåĪ©æĿ¥w66å®ĺç½ĳ":4541,"ä»£è¡¨":4542,"ï¼ĮæĤ¨":4543,"åĪĳ":4544,"3åĪĨå½©":4545,"Ġäºļç¾İæ¸¸æĪı":4546,"ĠæŁ¥çľĭ":4547,"ĠçĦ":4548,"ode":4549,"Ċä¸ī":4550,"å¨ģå°¼æĸ¯äºº":4551,"åĽĽä¸įåĥı":4552,"åĽº":4553,"äºĭä»¶":4554,"Ľ|":4555,"Ġè¨":4556,"Ġç¨":4557,"0)":4558,".0ä¸ĩ":4559,"çĪ¾":4560,"èĪĴ":4561,"§åİ¿|":4562,"å´":4563,"æµ©çī¹|":4564,"å½±åĵį":4565,"Ġæ±Ŀ":4566,"ä¸Ĭä¸įåİ»":4567,"æĶ¯ä»ĺ":4568,"åħįè´¹èµĦæĸĻ":4569,"27":4570,"æŃ£å¼ı":4571,"å¤ļ|":4572,"Ġæī¶":4573,"Ġå¤į":4574,"æłĳ":4575,"Ġå³¨":4576,"ĠæĳĦ":4577,"Ġ66":4578,"Ġè¶³å½©":4579,"åĪ°äºĨ":4580,"æīĭæľºå¹³åı°":4581,"éĹŃ":4582,"ä¸ĭè½½å®īè£ħ":4583,"ĠæĺŁ":4584,"Ġå°Ĭé¾Ļå®ĺç½ĳ":4585,"èĭĹ":4586,"Ġå¤§åıĳpk10":4587,"å¹³åİ¿|":4588,"å¯Ĩçłģ":4589,"æµĻæ±Ł":4590,"ucc":4591,"ĠéĻĩ":4592,"éĽ¶":4593,"ä¸»ç®¡":4594,"å·Ŀåİ¿|":4595,"å¤ĦçĲĨ":4596,"éĿĴ|":4597,"æ°´åİ¿|":4598,"Ġæ³¨":4599,"ä½Ľ":4600,"Ġ2019-09":4601,"XC9":4602,"function":4603,"æī£":4604,"Ċä½ľèĢħ":4605,"ĠçĻ¾å®¶ä¹Ĳåľ¨çº¿":4606,"é²ľ":4607,"Ġä¹°":4608,"Ġåºĵ":4609,"å¸ĮæľĽ":4610,"Ġé»Ķ":4611,"ç»¿":4612,"ID":4613,"Ġagçİ¯äºļå®ĺç½ĳ":4614,"ç¿»":4615,"ĠéĽĨ":4616,"LE":4617,"ick":4618,"Ġå°Ĭé¾Ļå¤ĩçĶ¨":4619,"å®Ŀåħ¸":4620,"æ»¨":4621,"Ġdocument":4622,"Ġåµ":4623,"åĩı":4624,"åı¯ä»¥æĮī":4625,"ä¸ŃæĸĩçīĪ":4626,"æŃ£è§ĦåĲĹ":4627,"æİĴåĲį":4628,"Ġæĭī":4629,"å¿ħä¸Ń":4630,"çĤº":4631,"æĹ¶åĢĻ":4632,"æµľ":4633,"å·²ç»ĵæĿŁ":4634,"łèıľäºº":4635,"âĸ³":4636,"īå±±|":4637,"+4":4638,"Ġåĩ¯åıĳå½©ç¥¨é¦ĸé¡µ":4639,"Ġåĩ¯åıĳä½ĵèĤ²å®ĺç½ĳappä¸ĭè½½":4640,"Ġåĩ¯åıĳå¼ĢæĪ·":4641,"å¸®":4642,"ĠèĤĥ":4643,"ĠæĪ¿å±ĭ":4644,"ç¤¾åĮº":4645,"ĠåĪĨç±»":4646,"ï¼ĮæĪĳä»¬":4647,"Ġ25":4648,"Ġï¿½éİıçĦ¯ï¿½":4649,"å½©ç½ĳ":4650,"ãĢĳãĢĲoãĢĳãĢĲ":4651,"ĠAGçİ¯äºļéĽĨåĽ¢":4652,"PS":4653,"ĠæľĪ":4654,"Ġä¸´æ²":4655,"Ġç¦ıå»º":4656,"Ġéĵ¶æ²³":4657,"å¾Īå¤ļ":4658,"Ġå¤©æ´¥æĹ©çĤ¹åĬłçĽŁ":4659,"de":4660,"Ġæ¡Ĳ":4661,"Ġæ¾Ħ":4662,"Ġagæ¸¸":4663,"ç«¥":4664,"Ċåĩ¤åĩ°":4665,"åĽŀè¡Ģ":4666,"alt+4":4667,"ĺåİ¿|":4668,"ers":4669,"äºĨè§£":4670,"èĬĿ":4671,"éĥ½æĺ¯":4672,"æĺ¯çľŁçļĦ":4673,"Ġäºļæ¸¸ä¼ļ":4674,"Ġå¸ĥ":4675,"è£ģ":4676,"ĊéĿĴæµ·":4677,"ç»ĳ":4678,"çĻ¼è¡¨æĸ¼":4679,"ĠåĽĽå·Ŀ":4680,"çªį":4681,"å¤´æĿ¡":4682,"åı«":4683,"ç·ļ":4684,"åħ³æ³¨":4685,"è¿Ľè¡Įè¯Ħè®º":4686,"ï¼ĮæĤ¨åı¯ä»¥æĮī":4687,"alt+4è¿Ľè¡Įè¯Ħè®º":4688,"ï¼ĮæĤ¨åı¯ä»¥æĮīalt+4è¿Ľè¡Įè¯Ħè®º":4689,"å·²ç»ĵæĿŁï¼ĮæĤ¨åı¯ä»¥æĮīalt+4è¿Ľè¡Įè¯Ħè®º":4690,"åĺī":4691,"éŀ":4692,"æŃ£æĸĩå·²ç»ĵæĿŁï¼ĮæĤ¨åı¯ä»¥æĮīalt+4è¿Ľè¡Įè¯Ħè®º":4693,"Ġagæīĭæľºå®¢æĪ·ç«¯":4694,"Ġå°¼":4695,"æİª":4696,"çĶµå½±":4697,"Ġ28":4698,"è¿°":4699,"ä¸ĭï¼Į":4700,"Ġå®¶":4701,"æ±Łå¸Ĥ|":4702,"ä¼ļè®®":4703,"ĠåĴ¸":4704,"æ¶ĵï¿½":4705,"æĸ¹æ¡Ī":4706,"PK10":4707,"Element":4708,"âĢĻ":4709,"èĬ³":4710,"ĠéĽĦå·ŀ":4711,"ĠçĶ±":4712,"ç´§":4713,"out":4714,"åŃ¦ä¹ł":4715,"jc":4716,"äºļæ´²çīĪ":4717,"Ġè¦":4718,"qq":4719,"æĭ©":4720,"d88.com":4721,"Ćć":4722,"Ġwh":4723,"uu":4724,"Ġbet36ä½ĵèĤ²åľ¨çº¿":4725,"èģĶçĽŁ":4726,"çļĦæĺ¯":4727,"Y2":4728,"èĦļ":4729,"åĩ¯æĹ¶":4730,"Ġwww.d88.com":4731,"Ġæ³¾":4732,"APPï¼ļå½©ç¥ŀ":4733,"æ¾İ":4734,"Ġéģµ":4735,"ļ|":4736,"Ġæ±¤":4737,"xt":4738,"_å®ĺæĸ¹":4739,"bet36":4740,"ãĢĳãĢĲãĢĤãĢĳãĢĲ":4741,"å§Ĩ":4742,"indow":4743,"');":4744,"Ġfrom":4745,"æĶ¿çŃĸ":4746,"éģ¸":4747,"Ġäºļæ¸¸å®ĺç½ĳçĻ»å½ķ":4748,"ĠçĭĹä¸ĩæĺ¯":4749,"Ġåįĥ":4750,"æµıè§Ī":4751,"èĤĸéĢīä¸ĢèĤĸ":4752,"Bl":4753,"ä¸ªäºº":4754,"Ġtr":4755,"ç¸£":4756,"å¾ĭå®¾":4757,"ľæ¹ĸ":4758,"ĠéĽ·":4759,"è«ĸ":4760,"éĶĻè¯¯":4761,"du":4762,"åıįæ°´":4763,"Ġæŀ£":4764,"åľ¨çº¿ä½ĵèĤ²æĬķæ³¨":4765,"è©¦":4766,"è³¼çī©":4767,"Ċ2019-05":4768,"ĠæĭĽ":4769,"å¨±ä¹Ĳç½ĳåĿĢ":4770,"Ġåıĸ":4771,"Ġé¸¡":4772,"å¦Ĥæŀľ":4773,"åĲ¯":4774,"ç§Ģ":4775,"éĸĢ":4776,"iosçīĪä¸ĭè½½":4777,"ç½ĳç«ĻçĻ»å½ķ":4778,"Ġèµ£":4779,">>":4780,"æĸ°çīĪ":4781,"ĊåİŁæłĩé¢ĺï¼ļ":4782,"Ġç±»":4783,"ĠåĪ©æĿ¥æľĢç»ĻåĬĽçļĦèĢģçīĮ":4784,"ult":4785,"å¤ĸåĽ´ç½ĳç«Ļ":4786,"åħ¨å¹´":4787,"Ġå·¦":4788,"éŁ©åĽ½":4789,"éĢĻ":4790,"èİ²":4791,"Ġéĺľæĸ°":4792,"Ġç«ĭåį³":4793,"æĢİä¹ĪåĬŀ":4794,"æı´":4795,"Ċè¥¿":4796,"æľĭ":4797,"åĨ·":4798,"äºĨï¼Į":4799,"å±¯|":4800,"è¯¦":4801,"Ġé¦Ļ":4802,"è±ª":4803,"Ġäºļæ¸¸agç½ĳç«Ļ":4804,"Ġçİ¯äºļapp":4805,"è¨Ī":4806,"éªŀ":4807,"çİ¯çĲĥç½ĳ":4808,"Ġä½Ļ":4809,"éĥµ":4810,"Ġé¸¿è¿Ĳ":4811,"\",\"":4812,"ç»Ħç»ĩ":4813,"éĢĤ":4814,"çī¹å·¦æĹĹ|":4815,"Ġ30":4816,"Ġ????":4817,"å°±éĢģ":4818,"æĬ¢":4819,"æ£Ģæµĭ":4820,"ŀ|":4821,"èĤī":4822,":ãĢĳãĢĲ":4823,"XN":4824,"çģ£":4825,"ä»£æĽ¸":4826,"ç¨¿":4827,"Ġçĭ":4828,"jcml":4829,"jcmlwd":4830,"å¼Ģå¥ĸçĽ´æĴŃ":4831,"ĠåĮĸ":4832,"è¯ļ":4833,"Ġäºļæ´²å®ĺæĸ¹ç½ĳç«Ļ":4834,"å°į":4835,"ĠèµĮéĴ±ç½ĳç«Ļ":4836,"åĩºçİ°":4837,"è¸":4838,"ĠåĪ©æĿ¥èµĦæºĲ":4839,"Ġk8å¨±ä¹Ĳå®ĺç½ĳ":4840,"ĠæĹ©çĤ¹å°ıåĲĥåĬłçĽŁ":4841,"Wl":4842,"Ġéĺ¿æĭīåĸĦ":4843,"est":4844,"ĠéŁ©":4845,"è½¦è¾Ĩ":4846,"ĠæĹ©çĤ¹æĿ¥":4847,"çŃĳ":4848,"åĪĨèŃī":4849,"Ġä»ĬæĻļ":4850,"å¼Ģåıĳ":4851,"ern":4852,"é¤Ĳé¥®":4853,"Ġäºļæ¸¸å®ĺæĸ¹ç½ĳ":4854,"ĠPro":4855,"Ġæİ¨":4856,"ĠçĶµç«ŀ":4857,"xp":4858,"ł|":4859,"ç²¾ç¥ŀ":4860,"ĠçĭĹä¸ĩçļĦ":4861,"ç¬ĳ":4862,"Ċ2020-02":4863,"ĠéĿ¢":4864,"çİī":4865,"åľ¨çº¿ä½ĵèĤ²":4866,"åįģå¤§":4867,"åŃ¦æł¡":4868,"Ġäºļæ¸¸çĻ»å½ķ":4869,"é»ĳå¤§æĪĺ":4870,"Ġäºļæ¸¸åĽ½éĻħag":4871,"éĿŀåĲĮ":4872,"äº¤æĺĵ":4873,"Ġpost":4874,"æĳ©":4875,"å¾Ĵ":4876,"åģĩçļĦ":4877,"Ġå¡Ķ":4878,"åķĨåĵģ":4879,"Ġéĺ²":4880,"å®Ī":4881,"ĠUU":4882,"åľ°æĸ¹":4883,"ĠåĪ©æĿ¥åĽ½æłĩ":4884,"2.0":4885,"ĠæĺĨ":4886,"èĥľ|":4887,"Ġäºļæ¸¸ä½ĵèĤ²":4888,"è¡Įä¸º":4889,"Ġyabo":4890,"åºĬ":4891,"ãĢĳãĢĲ\"":4892,".00":4893,"æ°ĳéĸĵ":4894,"ä½ľå¼ĬåĻ¨":4895,"åı¬":4896,"ä¸ŃçļĦ":4897,"Ġare":4898,"ï¼Įåħ¶":4899,"åħįè´¹èµĦæĸĻå¤§åħ¨":4900,"roup":4901,"è§ī":4902,"Ġpro":4903,"æĹ¥æľŁ":4904,"é»İ":4905,"æĭ¬":4906,"à¸²à¸":4907,"url":4908,"Ġä¿®":4909,"èµĮæĲı":4910,"æµģç¨ĭ":4911,"èįī":4912,"';":4913,"Ġæ¥":4914,"ªæ´²":4915,".C":4916,"Ġæľ¨":4917,"æľĢé«ĺ":4918,"Ġè©":4919,"ĠæıŃ":4920,"Ġå¨ģå°¼æĸ¯äºº":4921,"è¯¾":4922,"ä¿ĿæĬ¤":4923,"ly":4924,"Ġæ¸¯":4925,"AT":4926,"Ċæĸ°æµª":4927,"ä¸ĢæŃ¥":4928,"Ð¾":4929,"æ¢°":4930,"é«Ķ":4931,"BC":4932,"Ġåĩ¯åıĳæĹĹèĪ°åİħæ³¨åĨĮçĻ»å½ķ":4933,"Ġç´«":4934,"å³¡":4935,"æłĹ":4936,"èº«åĪĨèŃī":4937,"ĠCC":4938,"Ġad":4939,"ä»¥åıĬ":4940,"å®Ĺ":4941,"è¡¥":4942,"æĬĺ":4943,"Ġåĩ¯åıĳæīĭæľºçīĪ":4944,"åĬ¨æĢģ":4945,"ian":4946,"èµ¶":4947,"ä¸ĢåĲį":4948,"75":4949,"æĸĹçīĽ":4950,"è´¸æĺĵ":4951,"Ġåħ¶ä»ĸ":4952,"ä¸ĬåĪĨ":4953,"âĢķæŀģéĢŁ":4954,"å¯Ĩ|":4955,"Ġèį£":4956,"Ġå¤įåĪ¶":4957,"Ġåıĳå¸ĥæĹ¶éĹ´":4958,"æĭŁ":4959,"ĠçĶ°":4960,"æ¨¡å¼ı":4961,"ĊæĹ©çĤ¹åĬłçĽŁ":4962,"é¡¾":4963,"Ġreserved":4964,"Ġçİ¯äºļagæĹĹèĪ°åİħ":4965,"æĻĵ":4966,"ML":4967,"æľ¨|":4968,"Ġå¹¿ä¸ľ":4969,"-02":4970,"ä»Ģ|":4971,"åħ±åĴĮ":4972,"ZG":4973,"åģ¥":4974,"éŁ¿":4975,"å®ĮæĪĲ":4976,"è´¡|":4977,"æºĲåİ¿|":4978,"ĠåĬłçĽŁæĹ©çĤ¹":4979,"Į|":4980,"çķª":4981,"å°Ħ":4982,"é¤¨":4983,"æĥħéĵ¾æİ¥":4984,"_å½©ç¥¨":4985,"å³¡|":4986,"æ¬¢ä¹ĲçĶŁèĤĸ":4987,"è¨ĤæĪ¿":4988,"éĩĳæ²Ļ":4989,"çķ¶":4990,"ĠçĽ¸":4991,"Ġæ¾³éĹ¨åħŃ":4992,"Ġä¸ĥ":4993,"æĢİä¹Īæ³¨åĨĮ":4994,"Ġæľ¬æºª":4995,"ĠåĪ©æĿ¥w66æľĢ":4996,"Ċæłĩ":4997,"åł±":4998,"çģµ":4999,"ĠæīĭæľºèµĮéĴ±":5000,"ä¹ĺ":5001,"å¾·åĽ½":5002,"OF":5003,"ĠéĤ£":5004,"æĸ°çĸĨ":5005,"åį°åº¦":5006,"æµ·å¤ĸ":5007,"Ġw66.com":5008,"ãĢĤä»ĸ":5009,"cm":5010,"Ġä¸ĸçķĮæĿ¯":5011,"æĿ¥èĩª":5012,"Ġas":5013,"ail":5014,"....":5015,"Ġç½ĳç«Ļåľ°åĽ¾":5016,"ref":5017,"ĠæŀģéĢŁæĹ¶æĹ¶å½©":5018,"Ġåĩ¯åıĳå®ĺç½ĳçĻ»å½ķ":5019,"æ¹¾|":5020,"éĻĦè¿ĳ":5021,"èľľ":5022,"ĠæĽ´":5023,"éĳ":5024,"Ġagæīĭæľºäºļæ¸¸":5025,"ç»§ç»Ń":5026,"çĶ¢":5027,"Ġæĺ¯":5028,"ST":5029,"èĤ¥":5030,"Ġä¹Įåħ°":5031,"è½ī":5032,"ç»ıéªĮ":5033,"æĹ¶éĹ´ï¼ļ2020-0":5034,"å®ĩ":5035,"Ġ2014":5036,"è¯Ģçªį":5037,"»åĬ¨":5038,"è¨ĺ":5039,"è¨Ĭ":5040,"èĭ±è¶ħ":5041,"èį¯":5042,"Ċ2019-06":5043,"å§ĵ":5044,"¡æŀĹ":5045,"åı¦":5046,"ĤæĹł":5047,"èīĩä¼ļ":5048,"ï¼Įä¸º":5049,"åĿ¦":5050,"éĢļ|":5051,"æĻºèĥ½":5052,"Ġå®ĺç½ĳ":5053,"æĹħéģĬ":5054,"ĠagèµĮåľº":5055,"55":5056,"Ġåıĳå¸ĥæĹ¶éĹ´ï¼Ľ":5057,"ĊæĹ©é¤ĲåĬłçĽŁ":5058,"ĊA":5059,"ä¸Ńå°ı":5060,"åĪ¶éĢł":5061,"ĠäºļæĲıä½ĵèĤ²app":5062,"ĠçĶµçİ©å¨±ä¹Ĳ":5063,"ĠéĿĻ":5064,"ribo":5065,"zh":5066,"ä»ª":5067,"ä¸¤åĽ½":5068,"ĠæıĲæ¬¾":5069,"çªĹ":5070,"ribo88":5071,"æ°ĳä¸»":5072,"Ġå°Ĭé¾Ļd88æ³¨åĨĮ":5073,"Ġæ³¨åĨĮ":5074,"èħ¾":5075,"ĥ|":5076,"Ġr":5077,"è¿ĻäºĽ":5078,"==":5079,"éĴĪ":5080,"Ġå¹¸è¿Ĳé£ŀèīĩ":5081,"æŃ»äº¡":5082,"åķĬ":5083,"ery":5084,"ãĢĳãĢĲpãĢĳãĢĲ>":5085,"ĠåĲį":5086,"åĪĨ3d":5087,"æł¹æį®":5088,"ĠåŃĿ":5089,"ĠåĪ©æĿ¥æīĭæľº":5090,"ä¸ģ":5091,"çĽĪ":5092,"è¿ŀ|":5093,"åĩºç§Ł":5094,"Ċæĸ°çĸĨ":5095,"Ġäºļæ¸¸éĽĨåĽ¢æ¸¸æĪı":5096,"ħ|":5097,"ark":5098,"ĠæŃ£æĸĩ":5099,"éģĵï¼Į":5100,"ĠâĢľ":5101,"ber":5102,"çİ¯çĲĥ":5103,"ĺħ":5104,"rãĢĳãĢĲ":5105,"ull":5106,"ĠéĽħ":5107,"åĪĬ":5108,"1ãĢĳãĢĲ":5109,"ä¹İ":5110,"-8":5111,"ĠÕ":5112,"Ćą":5113,"OD":5114,"å¤´|":5115,"è®¤è¯ģ":5116,"ä¸Ķ":5117,"Pro":5118,"å±±ä¸ľ":5119,"ive":5120,"ãĢĮ":5121,"å½©åĽ¾":5122,"åŃľ|":5123,"By":5124,"åħ¼":5125,"ĠæĹ©çĤ¹å¿«é¤Ĳ":5126,"ä»Ļ":5127,"ç»ĻåĪ©":5128,"å±Ĭ":5129,"ä¾¿å®ľ":5130,"æıĲä¸įäºĨ":5131,"ä¸Ĭï¼Į":5132,"æ¹ĺ":5133,"å¤ļä¹ħåĪ°è´¦":5134,"çļĦï¼Į":5135,"çĻ½|":5136,"Ġäºļæ¸¸å®ĺæĸ¹ä¸ĭè½½":5137,"æķ¸":5138,"éľ²":5139,"HNl":5140,"è«ĭ":5141,"Ġæĸ°å·´å°ĶèĻİ":5142,"ik":5143,"Ġéģĵ":5144,"ä¸ĢæĿ¡":5145,"åīµæ¥Ń":5146,"çº¢åĮħ":5147,"ĠäºĮåĽĽåħŃå¤©å¤©å¥½å½©":5148,"Ġ365æ£ĭçīĮæĢİä¹Ī":5149,"éĩĳ|":5150,"Ġåĩ¯æĹ¶å¨±ä¹Ĳ":5151,"Ġäºļæ¸¸å®ĺç½ĳç½ĳç«Ļ":5152,"æĺ¯åĲ¦":5153,"Ġï¿½éİıçĦ¯ï¿½918":5154,"æ¸¸æĪıå¤§åİħ":5155,"è®¡åĪĴç½ĳ":5156,"Ġä¸½":5157,"ä½ĵéªĮ":5158,"Ġå¤įåĪ¶çĻ»å½ķ":5159,"åģ·":5160,":1,":5161,"Ġå£":5162,"è®¾ç½®":5163,"åį³æĹ¶":5164,"ure":5165,"cy":5166,"Ġsh":5167,"âĢĶå¤§åıĳ":5168,"åį±":5169,"åºĹ|":5170,"Ġkb88":5171,"ON":5172,"cont":5173,"å§Ķåĳĺä¼ļ":5174,"çĶľ":5175,"æĪ¿å±ĭ":5176,"ĠãĢģ":5177,"çī¹æĹĹ|":5178,"æĹ©é¤Ĳè½¦åĬłçĽŁ":5179,"è¿ĺæľī":5180,"ĠÂ¥":5181,"å¹³åı°ç½ĳç«Ļ":5182,"å·¨":5183,"Ġagçİ¯äºļæīĭæľºçĻ»å½ķ":5184,"Ġthat":5185,"ib":5186,"ç»´çłģ":5187,"Ġçļĩ":5188,"YWR":5189,"åĮħæĭ¬":5190,"Ċä¸ĭ":5191,"Ġäºļæ¸¸æ³¨åĨĮ":5192,"å·®":5193,"Ġèıłèıľäºº":5194,"ä¾ĽåºĶ":5195,"Ġæ±Łè¥¿":5196,"ä¹ĭæĺŁ":5197,"æ°£":5198,"Ġä¸ĭè½½å°Ĭé¾Ļ":5199,"ower":5200,"éĢīæĭ©":5201,"5åĪĨå½©":5202,"ĠäºļæĲıçĽ´æĴŃ":5203,"ãĢį":5204,"æĭĴ":5205,"ĊçĭĹä¸ĩ":5206,"02":5207,"åĺĽ":5208,"é£İéĻ©":5209,"ç½ĳ...":5210,"å®ŀæĸ½":5211,"Ĺı":5212,"¹åŁİ|":5213,"ä½įç½®:":5214,"Ġåįļå½©bet356":5215,"ĠèĤ¥":5216,"ĠåĪ©æĿ¥agæĹĹèĪ°åİħ":5217,"åł°|":5218,"Ġé¹°":5219,"app_":5220,"æĬĹ":5221,"wid":5222,"æ¢¦":5223,"Ġæ²Ĥ":5224,"æĸ°æīĭ":5225,"éĿĸ|":5226,"Ii":5227,"Ġ888":5228,"Ċ6":5229,"å²¸":5230,"ĠçľŁéĩĳ":5231,"çļĦè½¯ä»¶":5232,"äºĮç»´çłģ":5233,"åħĭ|":5234,"ķ|":5235,"Ġèĵ¬":5236,"ust":5237,"æĻ¶":5238,"Ġå¸Ĥ":5239,"æłĳ|":5240,"Ġäºļç¾İä¼ĺæĥł":5241,"Ġè½¬":5242,"éĬ":5243,"Ġåĩ¯åıĳçĻ»å½ķ":5244,"ĠæĹ¶éĹ´ï¼ļ":5245,"éĽĦ|":5246,"æ¿Ģ":5247,"Ċæ±Łè¥¿":5248,"æľĭåıĭ":5249,"æ°¸è¿ľ":5250,"comm":5251,"Ċå¹¿è¥¿":5252,"Ġagæ¸¸èīĩä¼ļ":5253,"çľŁäººçĻ¾å®¶ä¹Ĳ":5254,"ĠçŁ¥":5255,"æ°ĳ|":5256,"èĩªåĬ¨":5257,"é¸¡":5258,"Ġçİ¯äºļå¨±ä¹Ĳ":5259,"ä»Ģä¹ĪæĦıæĢĿ":5260,"47":5261,"ä¸Ģèµ·":5262,"PV":5263,"æ±½è»Ĭ":5264,"Ġ2012":5265,"erm":5266,"èĭ±éĽĦ":5267,"èĩªå·±çļĦ":5268,"æĹ¶ä»£":5269,"ä¿ĥ":5270,"å¯¨|":5271,"ĠPI":5272,"Ġäº§":5273,"æĿ¡ä»¶":5274,"åįıè®®":5275,"_s":5276,"ĠccåĽ½éĻħå½©":5277,"å½©ç¥¨ç½ĳ":5278,"èī¯|":5279,"Tag":5280,"æ²ģæĹĹ|":5281,"åĨłåĨĽ":5282,"ov":5283,"Ġçİ¯":5284,"ĠãĢĬ":5285,"å®¶åºĦ":5286,"é»ŀ":5287,"æľĪäº®":5288,"å·´|":5289,"å¼Ģå¥ĸçİ°åľºçĽ´æĴŃ":5290,"HA":5291,"Ġç©":5292,"åĲ¸":5293,"éĿĻ":5294,"é¤Ĳé¥®åĬłçĽŁ":5295,"Ġé»İ":5296,"å¿«ä¹ĲåįģåĪĨ":5297,"é¥¶":5298,"åı¥":5299,"çİĽ|":5300,"ç½ĳåĿĢå¤§åħ¨":5301,"å¿ĥæĹ©é¤ĲåĬłçĽŁ":5302,"ED":5303,"çĥŁ":5304,"åķ¥":5305,"Ġdata":5306,"æľªæĿ¥":5307,"æĹ©çĤ¹å°ıåĲĥåŁ¹è®ŃåĬłçĽŁ":5308,"ĠagåĽ½éĻħäºļæ¸¸çĻ»å½ķ":5309,"Ġç½ĳæĺĵ":5310,"ff":5311,"ne":5312,"ä¸įåĲĮ":5313,"ry":5314,"åĩºåı£":5315,"wb":5316,"ç°":5317,"OM":5318,"éĿŀå¸¸":5319,"ä¸Ģè·¯":5320,"Ġç«¹":5321,"æĵįä½ľ":5322,"Ġit":5323,"Ġåĩº":5324,"åįĹå¸Ĥ":5325,"æĬķæ³¨ç½ĳåĿĢ":5326,"é¥°":5327,"æĻĭ":5328,"LA":5329,"éĢĴ":5330,"ä¸ĭåĪĨ":5331,"mb":5332,"ĠæķĻ":5333,"æ¶Īéĺ²":5334,".s":5335,"97":5336,"ĠåĩĮ":5337,"admin":5338,"ä¸ĭè½½_":5339,"å²Ĺ":5340,"lf":5341,"åŁºæľ¬":5342,"Ġèĳ¡":5343,"Ġê":5344,"Ġç§¦":5345,"Ġåĩ¯åıĳä½ĵèĤ²vip":5346,"æ²Ł":5347,"ĠçģĮ":5348,"åħ§":5349,"è´£ä»»":5350,"ç¢ĳ":5351,"æĪª":5352,"ĠèĮĤ":5353,"urre":5354,"è¿´":5355,"Ġagäºļ":5356,"åĭĩ":5357,"éĦ":5358,"æİ¥åıĹ":5359,"Ġä¹¡":5360,"Ġèī":5361,"æĽ¼":5362,"å®ĺç½ĳæ³¨åĨĮ":5363,"Ġèĭ±è¶ħ":5364,"Ġä»İ":5365,"Ġæ¸¸":5366,"Home":5367,"éľĩ":5368,"XNET":5369,"ç½²":5370,"Ġ!":5371,"ĠåĪĺ":5372,"1.0":5373,"éĲ":5374,"æľŁè´§":5375,"æįŁ":5376,"ĠPIXNET":5377,"ext":5378,"Ġå¹¸è¿Ĳå¿«3":5379,"éº¼":5380,"è±ĨæµĨ":5381,"ĠåĬ¨":5382,"ĠèĬľæ¹ĸ":5383,"å¹¿åĳĬ":5384,"åĨĪ":5385,"è´¹çĶ¨":5386,"ä¹īåİ¿|":5387,"ĊæĹ¶éĹ´ï¼ļ2020å¹´":5388,"è©¦ç®Ĺ":5389,"âĢĺ":5390,"è·¨":5391,"44":5392,"æ£ĭçīĮå¹³åı°":5393,"æĸĩç«łï¼ļ":5394,"çī¹åĪ«":5395,"ĠåĿ":5396,"ä¼°":5397,"éĹľ":5398,"],":5399,"best365":5400,"çľŁå®ŀ":5401,"åħ±åĲĮ":5402,"Ġagçİ¯äºļæ¸¸æĪıå®ĺç½ĳ":5403,"çĪ¶":5404,"ç©¿":5405,"æĬ¼":5406,"éı":5407,"ss":5408,"ĊéĩįåºĨ":5409,"æĿ¨":5410,"Ġæħ":5411,"æĢĢ":5412,"æĮģç»Ń":5413,"æľºåħ³":5414,"Ċæ²³åĮĹ":5415,"Ċçľĭ":5416,"CT":5417,"é©¶":5418,"åĪĨç±»":5419,"Ġo":5420,"ĊS":5421,"éĩĳèŀį":5422,"ç±į":5423,"Ġå½°":5424,"Ġåīĳ":5425,"è¿´éŁ¿":5426,"Ġæ³½":5427,"çĸ¾":5428,"å½©äºīéľ¸8":5429,"å°ıè¯´":5430,"ook":5431,"çļĦä½įç½®ï¼ļ":5432,"ç¬Ķ":5433,"çĸ«":5434,"å¾·åİ¿|":5435,"é©¾":5436,"æĺĨ":5437,"Ġä¿¡èªī":5438,"æ¨Ĥ":5439,"2ãĢĳãĢĲ":5440,"Ġäºļæ¸¸éĽĨåĽ¢ag":5441,"æĹ©çĤ¹å°ıåĲĥåĬłçĽŁåºĹ":5442,"Ġ365æ£ĭçīĮå®ĺç½ĳ":5443,"Ġä¸»":5444,"I6":5445,"ĠagçĶµæ¸¸":5446,"æıĲåĩº":5447,"XG":5448,"è¯º":5449,"å¸Ĳ":5450,"Ðµ":5451,"éĶĭ":5452,"Add":5453,"ä½ĵèĤ²å¹³åı°":5454,"Ġèŀį":5455,"èĤ¡ç¥¨éħįèµĦ":5456,"ä¸ĩåħĥ":5457,"æľºåĻ¨":5458,"çĶŁæĹ©é¤ĲåĬłçĽŁ":5459,"æīĭç»Ń":5460,"åĬłçĽŁæĹ©çĤ¹":5461,"ãĢĳãĢĲ\"ãĢĳãĢĲ":5462,"37":5463,"ä»ĬæĻļ":5464,"58":5465,"07":5466,"é¢Ĩå¯¼":5467,"ina":5468,"Ġå¼Ģåħĥæ£ĭçīĮæĢİä¹Ī":5469,"æĶ¶ä¸įåĪ°éĤ®ä»¶":5470,"ç¤ºåħ¨éĥ¨":5471,"ç®¡éģĵ":5472,"Ċæ·±åľ³":5473,"Ġ918åįļ":5474,"Ġæĺĵ":5475,"å®¡æł¸":5476,"íķ":5477,"UR":5478,"s8":5479,"Ġçİ¯äºļå¹³åı°":5480,"Ġæ»¡":5481,"çľŁçļĦ":5482,"ä¼Ļä¼´":5483,"Ġæĸ°èĳ¡":5484,"çĥ«":5485,"åį³æĹ¶æ¯ĶåĪĨ":5486,"Ġ26":5487,"ĠåĪ©æĿ¥çĶµæ¸¸":5488,"Ġé¹¿":5489,"2015":5490,"éĢŁåº¦":5491,"Ġè®¢":5492,"ä¸»è¦ģ":5493,"ä¸įä¼ļ":5494,"ĠéĽ»":5495,"Ġæ¨ª":5496,"Ċæľ¬":5497,"Ġç§»åĬ¨":5498,"æĬ¥åĳĬ":5499,"æ´Ĺ":5500,"ä¿Ŀéļľ":5501,"ĠåĮĹäº¬æĹ©çĤ¹":5502,"èģļ":5503,"å®īåįĵapp":5504,"å¥½é¡¹çĽ®":5505,"Ġè´¡":5506,"ĠåĪĨåĪĨå¿«3":5507,"èµļå°±":5508,"è·Ŀç¦»":5509,"),":5510,"æĿ¡æ¬¾":5511,"æºªåİ¿|":5512,"åĽ½åĨħ":5513,"Ġå®ĺæĸ¹":5514,"Ġæīĭæľºäºļæ¸¸":5515,"åĩłä¸ª":5516,"ä¸»ä»»":5517,"å¤§å®¶":5518,"ĠèįĨ":5519,"nãĢĳãĢĲ":5520,"Ċå¤©æ´¥":5521,"ä¸ľåİ¿|":5522,"ç¥¥":5523,"æ£ĭçīĮä¸ĭè½½":5524,"Ġ||":5525,"å¥ĸéĩĳ":5526,"ä»£çłģ":5527,"ç¶ĵ":5528,"ï¼Įå¯¹":5529,"å®ŀçİ°":5530,"èµµ":5531,"Ġæ¡¦":5532,"hed":5533,"å¯¨":5534,"æĸ°æīĭåį¡":5535,"Ġé¥¶":5536,"åĩºçīĪ":5537,"åħ¨éĿ¢":5538,"åĮħåŃĲåĬłçĽŁ":5539,"ĊæĺŁ":5540,"ompany":5541,"è¾ī":5542,"Ġçĭ¬":5543,"è¾½":5544,"Ġ8äºļæ¸¸":5545,"ĠAr":5546,"æª":5547,"Ġçİ¯äºļappä¸ĭè½½":5548,"æī¬":5549,"æĥ³èµļå°±":5550,"çĽĸ":5551,"Ġæ·±åľ³":5552,"èĺ":5553,"Ġåĩ¯åıĳæŃ£è§Ħ":5554,"åıªä¸ºéĿŀåĲĮ":5555,"95":5556,"åıĤåĬł":5557,"å°¾":5558,"æ¯Ĵ":5559,"ĺï¿½":5560,"Ġrem":5561,"èķ":5562,"yle":5563,"Ġbet366":5564,"åĸĦ|":5565,"è³£":5566,"Ġç»į":5567,"Ġ365è¶³çĲĥä½ĵèĤ²":5568,"èĲĦ":5569,"ize":5570,"ĠæļĤæĹł":5571,"ĠåľŁé»ĺ":5572,"æ´ª|":5573,"å®ģå¸Ĥ|":5574,"æ¢ģ|":5575,"ments":5576,"Ġèĭıå°¼":5577,"å¤ĸåĽ´æĬķæ³¨":5578,"éĹ²":5579,"å¹´çļĦ":5580,"ĠåĲīæŀĹ":5581,"ĠåĮĹäº¬èµĽè½¦pk10":5582,"å¨±ä¹Ĳå½©ç¥¨":5583,"èĮ¶":5584,"urrent":5585,"lect":5586,"éĢĶ":5587,"Ġæ¹ĸåĮĹ":5588,"è¿Ļæł·":5589,"Phone":5590,"Ã©":5591,"Ġ$('":5592,"æľ«":5593,"æ³¨åĨĮå¹³åı°":5594,"ĠåĪĨç±»ï¼ļ":5595,"åıªä¸ºéĿŀåĩ¡":5596,"ç½ĳåĿĢæĺ¯å¤ļå°ĳ":5597,"ï¿½éİıçĦ¯":5598,"none":5599,"2)":5600,"Ġ918ï¿½éİıçĦ¯":5601,"çİ¯äºļçľŁäºº":5602,"Ġæ²Ī":5603,"ave":5604,"Ġæ±ķ":5605,"Ġçıł":5606,"å¯¹éĿ¢":5607,"Ġåħĭæĭī":5608,"ĊåĽĽå·Ŀ":5609,"çº¸":5610,"Ġçİ¯äºļçĻ»å½ķ":5611,"æ¢ģ":5612,"OP":5613,"Ġagäºļæ´²çĻ»éĻĨ":5614,"riend":5615,"mZ":5616,"Ġäºļæ¸¸åĽ½éĻħæīĭæľºå¨±ä¹Ĳ":5617,"è¿Ľä¸ĢæŃ¥":5618,"Ġ})":5619,"ase":5620,"ä¸ĬçļĦ":5621,"Ġç½ĳåĿĢ":5622,";ãĢĳãĢĲ":5623,"Ġç§ĳå°Ķæ²ģåı³ç¿¼":5624,"Ġèı²":5625,"Ð¸":5626,"æĸ¯åĿ¦":5627,"Ġå®¾":5628,"æľĢæĸ°ç½ĳç«Ļ":5629,"æī¶":5630,"æĿ°":5631,"Ġäºļç¾İçĶµæ¸¸":5632,"Ċ7":5633,"åĬ©æīĭ":5634,"ä¹±":5635,"å¼Ģåı·":5636,"Ġè°¢":5637,"Ġæī¿":5638,"Ċ2020-07":5639,"Ġå·´æŀĹ":5640,"ript":5641,"åŃĲæĹ©é¤ĲåĬłçĽŁ":5642,"ï¿½I":5643,"åħĳ":5644,"¶éĻµ|":5645,"éĥĳ":5646,"ļåİ¿|":5647,"ĠåĪ°":5648,"èĭ±æĸĩ":5649,"Ġç»įåħ´":5650,"Ġle":5651,"æ°´æŀľ":5652,"çĸ¯çĭĤ":5653,"èªŀ":5654,"æĶ¶è´¹":5655,"Ċåıĳè¡¨":5656,"ĠéĻµ":5657,"ç´ļ":5658,"å¼ĢæĪ·å¹³åı°":5659,"ĠåĨħèĴĻåı¤":5660,"å½ĵåľ°æĹ¶éĹ´":5661,"æ¸¸|":5662,"âĢ¦âĢ¦":5663,"æĿŃ":5664,"Ġæ»¨":5665,"å¤©æ´¥":5666,"æ°ĳèŃ¦":5667,"èīºæľ¯":5668,"æŀĿ":5669,"è½¯ä»¶ä¸ĭè½½":5670,"çĥĪå£«":5671,"Ġcomment":5672,"Ġå½©ç¥ŀäºīéľ¸å¤§åıĳå¿«ä¸ī":5673,"Ġhe":5674,"Ġæī¬":5675,"éº»è¾£":5676,"Ġå¿«éĢŁ":5677,"æīįèĥ½":5678,"Ġåį°":5679,"Ġçİ¯äºļagæīĭæľºå®¢æĪ·ç«¯":5680,"12æľĪ20æĹ¥":5681,"æľĢè¿ĳ":5682,"æĥ³èµļå°±è½¬":5683,"ä½©":5684,"æľŁéĹ´":5685,"æ½®":5686,"Ġçİ¯äºļæīĭæľºçīĪ":5687,"æĭ¿å¤§":5688,"åĪĨ6åĲĪ":5689,"New":5690,"Ġæĸ°ç«¹":5691,"è´¡":5692,"æŃ¤åīį":5693,"Ġ35":5694,"çµĦ":5695,"è¦ĸ":5696,"Ġæ¬§":5697,"éĺģ":5698,"ç²¥åĬłçĽŁ":5699,"Ġä»Ļ":5700,"ãĢģãĢĳãĢĲ":5701,"ç®¡å®¶å©Ĩ":5702,"é¡ŀ":5703,"åĲ«":5704,"39":5705,"-ãĢĳãĢĲ":5706,"ä»»ä½ķ":5707,"Ġagçİ¯äºļæīĭæľºå®¢æĪ·ç«¯":5708,"Ð°":5709,"Ġåıĳè¡¨":5710,"ĠæĹ©é¤Ĳè¿ŀéĶģ":5711,"é©»":5712,"éĻķè¥¿":5713,"æľīåħ³":5714,"Ġ??":5715,"å®ĺæĸ¹app":5716,"ĠçĶŁ":5717,"å¤ĸï¼Į":5718,"ĺå®¶":5719,"hbHNl":5720,"iOmZ":5721,"hbHNlLCJ":5722,"iOmZhbHNlLCJ":5723,"Ġks8":5724,"5æľĪ":5725,"Ġä½ĵèĤ²æĬķæ³¨":5726,"Ġæµģ":5727,"IB":5728,"éĥ¨ãĢģ":5729,"ĠèĴ²":5730,"ä½ľä¸º":5731,"ĊäºĳåįĹ":5732,"365å¤ĸåĽ´":5733,"Ġå¤§åıĳç§ĴéĢŁ":5734,"åĬłå¼º":5735,"Ċæµ·åįĹ":5736,"å®¾|":5737,"æĸ°ç½ĳ":5738,"å±±è¥¿":5739,"çİĽä¾Ŀ":5740,"Ġæ¾³éĹ¨çĻ¾å®¶åĪ©":5741,"å½©å¼Ģå¥ĸç»ĵæŀľ":5742,"ç®Ģä»ĭ":5743,"Ġè§Ĩ":5744,"æĮĩæķ°":5745,"åĽ½ç¦ı":5746,"Ġå¼Ģå°ģ":5747,"Ġfalse":5748,"æłı":5749,"Ċå®ģå¤ı":5750,"èĳĹ":5751,"appâĢķ":5752,"äºŃ":5753,"éº»è¾£çĥ«":5754,"åıĳçīĮ":5755,"éłĲ":5756,"ĠâĢĶ":5757,"Ġåħįè´¹":5758,"ĠæĿ¥æºĲï¼ļä¸ŃåĽ½":5759,"èĸª":5760,"ĠRe":5761,"net":5762,"åĸĩ":5763,"Ġå¤§åıĳä¸ĢåĪĨéĴŁå¿«ä¸ī":5764,"Ġé½Ĳ":5765,"Ċä¸Ĭæµ·":5766,"ç¡®è®¤":5767,"åĬ¨çĶ»":5768,"åĨĴ":5769,"æĢ»ä»£çĲĨ":5770,"çªĿ":5771,"å¤Ł":5772,"ĠåħĭæĭīçİĽä¾Ŀ":5773,"åĬłçĽŁè´¹":5774,"éĶĽï¿½":5775,"æģ©éĿłè°±":5776,"Ġè²":5777,"ince":5778,"æīĭæľºç½ĳé¡µçīĪ":5779,"ä¸¥éĩį":5780,"ç«ŀå½©":5781,"å¹³åı°app":5782,".5åĪĨå½©":5783,"åĽ½ç¦ıéº»è¾£çĥ«":5784,"ans":5785,"æŁ¥çľĭ":5786,"ĠçĲĨ":5787,"SD":5788,"åĬ³":5789,"ãĢĳãĢĲãĢģãĢĳãĢĲ":5790,"çīĻ":5791,"æķ´åĲĪ":5792,"ĠåŃĹ":5793,"Ġ365betå®ĺç½ĳæĢİä¹Ī":5794,"ĠåĪ©æĿ¥æľĢç»ĻåĬĽçļĦèĢģçīĮå¹³åı°":5795,"æĸĩç«łæĿ¥æºĲï¼ļ":5796,"åħ±èµ¢":5797,"GV":5798,"é«ĺæīĭ":5799,"èµĦæŀ":5800,"Ġname":5801,"ç±¤":5802,"cIj":5803,"Ġagçİ¯äºļæ¸¸æĪı":5804,"åĢįæĬķ":5805,"æİªæĸ½":5806,"æ±Łèĭı":5807,"è¡ĮåĬ¨":5808,"åĲĮæĹ¶":5809,"ĠçľŁéĴ±çľŁäººçĻ¾å®¶ä¹Ĳ":5810,"èŃ¦å¯Ł":5811,"è±ĨæµĨåĬłçĽŁ":5812,"è¿ŀéĶģåĬłçĽŁ":5813,"éĻĲåĪ¶":5814,"Ġæ»¦":5815,"ĠåĪĨäº«":5816,"Ġè£":5817,"ingle":5818,"vi":5819,"Ġæķ¦":5820,"çĶµçİ©åŁİ":5821,"ºåįĹå¸Ĥ":5822,"Ijo":5823,"å¯ĵ":5824,"Ġ},":5825,"å®ĺç½ĳæīĭæľºçīĪ":5826,"Ġäºİ":5827,"åĲīæŀĹ":5828,"æıĲåīį":5829,"æĸ°äº¬æĬ¥":5830,"Ġagçİ¯äºļæĹĹèĪ°åİħ":5831,"Ġåħ±":5832,"ï¼Įå°±":5833,"åİŁåĽł":5834,".getElement":5835,"Ġï¼ļ":5836,"User":5837,"Ġç»¿":5838,"è¿ĩç¨ĭ":5839,"Comment":5840,"Ġch":5841,"ĠèĹ":5842,"ıåİ¿|":5843,"å£ģ":5844,".tv":5845,"Show":5846,"2åĪĨå½©":5847,"Ġ27":5848,"ĠçĻ¾å®¶äºĨ":5849,"æİ¨å¹¿":5850,"Ġå¿ħèµ¢":5851,"çº·":5852,"Ġfriend":5853,"éĤ£ä¸ª":5854,"ä¸Ģç¯ĩæĸĩç«łï¼ļ":5855,"ĠåĽ½éĻħcc":5856,"ç§»åĬ¨":5857,"Ġçİ¯äºļéĽĨåĽ¢ag":5858,"çĥŃçº¿":5859,"EL":5860,"ĠæłĩçŃ¾ï¼ļ":5861,"èĥ½æºĲ":5862,"Ġèĳ¡äº¬":5863,"æĤī":5864,"åīµæ¥Ńè²¸æ¬¾":5865,"é¢ĳéģĵ":5866,"Ġéĥ¨":5867,"å¥ĭ":5868,"Ċ2020-05":5869,"æīİ":5870,"æĺ¯ä»Ģä¹ĪæĦıæĢĿ":5871,"Ġthis":5872,"æİ¨åĬ¨":5873,"è¨Ń":5874,"Ġæ¹ĸåįĹ":5875,"Ġç»ı":5876,"ï¼Ĭ":5877,"lc":5878,"Ċ10":5879,"ä¸ĢäºĽ":5880,"64":5881,"èĭı|":5882,"Ġçİ¯äºļAG":5883,"Ġéĥĳ":5884,"ĠçĶ³åįļ":5885,"è£Ŀ":5886,"ç½ĳç«Ļå¤§åħ¨":5887,"åĴ¨":5888,"Ġbet356å®ĺç½ĳ":5889,"Ċéķ¿":5890,"Ġå°Ĭé¾Ļå¤ĩçĶ¨ç½ĳåĿĢ":5891,"åįķä½į":5892,"WF":5893,"Ġæłªæ´²":5894,"ç§ĳåŃ¦":5895,"è´¦æĪ·":5896,"åĽ¾åºĵ":5897,"147":5898,"Ġagäºļæ´²æ¸¸æĪıéĽĨåĽ¢":5899,"Ġç¼ĸ":5900,"åĢĭäºº":5901,"é¥¼":5902,"æ¤į":5903,"Ġæ²³åĮĹ":5904,"XCI":5905,"éĹª":5906,"Ġcurrent":5907,"ç§Łè½¦":5908,"æ³¢|":5909,"ĠèģĤ":5910,"0',":5911,"ä¸ĬåįĪ":5912,"è´¢ç»ı":5913,"éĻµåİ¿|":5914,"Ġè°ģ":5915,"ä¸Ģæł·":5916,"rice":5917,"ç®ĹçĽĺ":5918,"åį·":5919,"æĿ¯æĬķæ³¨":5920,"Ġä¸ª":5921,"ĠÃ":5922,"Ġåĩ¯åıĳåľ¨çº¿å¹³åı°":5923,"æľĢåĲİ":5924,"ublis":5925,"Ġæ³ī":5926,"Ġè®¢éĺħ":5927,"Ġåįĵ":5928,"-5":5929,"ä¸»ä¹ī":5930,"æ¦Ĥ":5931,"Ġæ¾³æ´²":5932,"ĠDe":5933,"Ġ50":5934,"commend":5935,"YW":5936,"æīĺåħĭ":5937,"å½©ç¥¨å¨±ä¹Ĳ":5938,"èĭ¹æŀľä¸ĭè½½":5939,"åħī|":5940,"éĻ¶|":5941,"Ġçī¹èī²æĹ©çĤ¹åĬłçĽŁåºĹ":5942,":'0',":5943,"Ġç¤¾":5944,"UV":5945,"yabo":5946,"èİŀ":5947,"gå¼Ģåħĥæ£ĭçīĮ":5948,"æĮĩåįĹ":5949,"SH":5950,"éķ¿|":5951,"æ»¨|":5952,"çľŁäººå¹³åı°":5953,"obile":5954,"Ċ8":5955,"ĠæĿľ":5956,"¼|":5957,"å¯º":5958,"æ¨Ļç±¤":5959,"çīĪæľ¬ä¸ĭè½½":5960,"åĿ¡":5961,"åĪĢ":5962,"å¨±ä¹Ĳç½ĳç«Ļ":5963,"Ġä¹¦":5964,"ï¿½ï¿½ï¿½ï¿½ï¿½ï¿½":5965,"å¼Ģå¥ĸåı·çłģ":5966,"ĠçĻ½å°ıå§Ĳ":5967,"Ġç½ĳä¸ĬçĻ¾å®¶ä¹Ĳ":5968,"ä¸Ŀ":5969,"èı¯":5970,"æĸĭ":5971,"é¡¿":5972,"æķ°åŃĹ":5973,"ĠåŁº":5974,"è¯Ĺ":5975,"-3":5976,"Ġèĭ¥":5977,"ĠåĪ©èİ±":5978,"åł°":5979,"Ġ/>":5980,"Ġagçİ¯äºļä¸ĭè½½":5981,"é«ĺ|":5982,"Ġä»»":5983,"Ġ918åįļå¤©":5984,"å»ī":5985,"æ£±|":5986,"èĥ¡":5987,"é¦ĸ|":5988,"Ċå½ĵåīį":5989,"ä¸°åİ¿|":5990,"Ċåıĳè¡¨äºİ":5991,"Ċèį":5992,"ĠéĦĤæīĺåħĭ":5993,"æ°ĳä¸»åħļ":5994,"Ċåĩ¤åĩ°ç½ĳ":5995,"ĠåºĶ":5996,"ç½ĳèµĮ":5997,"é¡»":5998,"Ġåįĸ":5999,"éĶĢåĶ®":6000,"è´¨éĩı":6001,"ä¸ĺ":6002,"åĨ¬":6003,"ç¦ıåĪ©":6004,"åįł":6005,"è²¼":6006,"Ġå¹¿è¥¿":6007,"ji":6008,"Ġå®ľå®¾":6009,"ĠåįĹäº¬":6010,"æĮĩåĩº":6011,"Ġ$(":6012,"èĩªçĶ±":6013,"ä»ĵ|":6014,"æĿ¾|":6015,"è®©çĲĥ":6016,"ove":6017,"Ġ--":6018,"ĠéħĴåºĹ":6019,"Ġå°Ĭé¾Ļd88.com":6020,"åľĪ":6021,"æ²Ĵ":6022,"_å¤§å°ı":6023,"æľīæ²¡æľī":6024,"ç»Łä¸Ģ":6025,"åĢįçİĩ":6026,"Ġå¤§æĸ¹|":6027,"Ċå¤§ä¼Ĺ":6028,"æĴŀ":6029,"å¾Į":6030,"Ġfollow":6031,"Ġæ´ŀ":6032,".m":6033,"éĺ´":6034,"Ġatt":6035,"Ġåĩ¯åıĳAGæĹĹèĪ°":6036,"good":6037,"pr":6038,"Ġæµ®":6039,"åĤµåĭĻ":6040,"Ġå¯Ĩ":6041,"Ġçİ¯äºļagå¹³åı°":6042,"Ġéķ¿æ²»":6043,"æľīæķĪ":6044,"ç£Ĭ":6045,"åŁŁåĲį":6046,"ãĢĤä½Ĩ":6047,"ĠéĩįåºĨæĹ¶æĹ¶å½©":6048,"è¯Ī":6049,"content":6050,"ĠSh":6051,"Ġagäºļæ´²åĽ½éĻħ":6052,"æľºåľº":6053,"OL":6054,"ï¼ļå½©ç¥ŀ":6055,"äº§ä¸ļ":6056,"èµŀåĬ©":6057,"æĹº":6058,"ä¸įéĻĲ":6059,"å®£å¸ĥ":6060,"3N":6061,"gãĢĳãĢĲ":6062,"Ġgroup":6063,"å¤§åĵģçīĮ":6064,"Ġagçİ¯äºļæ¸¸æĪıå¹³åı°":6065,"å¨±ä¹Ĳappä¸ĭè½½":6066,"Ġk8å¨±ä¹Ĳå®ĺç½ĳåľ°åĿĢ":6067,"Ġè®¸":6068,"æī§è¡Į":6069,"Ġä¸Ĭé¥¶":6070,"ĠæŃ£çīĪ":6071,"icle":6072,"åĲĹ?":6073,"61":6074,"Ġæ¹ĺæ½Ń":6075,"PT":6076,"ĠéĶ¦":6077,"Ġäºļæ¸¸åĽ½éĻħé¦ĸé¡µ":6078,"Ġbet365æĢİä¹Ī":6079,"ĠèĤ¡ç¥¨":6080,"å¤§ä¸Ńå°ı":6081,"Ġ99":6082,"Ċ2020-03":6083,"å¾®åįļ":6084,"éĨ":6085,"çİ¯å¢ĥ":6086,"æį·":6087,"å¤ĸåĽ´365":6088,"ĠçĶ·":6089,"blog":6090,"Ġä½ľèĢħ":6091,"];":6092,"âĢľä¸Ģ":6093,"ä¸Ģä¸ĭ":6094,"Ġä½³":6095,"å·¥åħ·":6096,"Ċéĺħè¯»":6097,"æ·»":6098,"Ġç¿ģ":6099,"Ġ365ä½ĵèĤ²æĬķæ³¨æĢİä¹Ī":6100,"éĭ":6101,"Ġç¢":6102,"âĨĴ":6103,"ix":6104,"Ġ~":6105,"å¢ħ":6106,"ĠåĦ":6107,"å¹¸":6108,"able":6109,"ĠSe":6110,"åħ³éĶ®è¯į":6111,"åı¯æıĲçİ°":6112,"Ġä¸´å¤ı":6113,"è®¡ç®Ĺ":6114,"Ġï½":6115,"ĠæĬļé¡º":6116,"åĪĨåĪĨæĹ¶æĹ¶å½©":6117,"ä¼ļåĳĺçĻ»å½ķ":6118,"Ġkb88åĩ¯æĹ¶":6119,"Ġåĩ¯8":6120,"Ġéĵģå²Ń":6121,"æĬĵ":6122,"Ġå¤©ä¸ĭ":6123,"èĬ³æĸĭ":6124,"à¤":6125,"Ġåħī":6126,"¹åİ¿|":6127,"ĠåĪ©æĿ¥agåĽ½éĻħåİħ":6128,"ĠåĪĨåĪĨæĹ¶æĹ¶å½©":6129,"Ġagçİ¯äºļå®ĺç½ĳæľĢä½³":6130,"pm":6131,"æįķ":6132,"Ġæ¶¿":6133,"è®°èĢħä¼ļ":6134,"Ġself":6135,"èŃīä»¶":6136,"ĠRo":6137,"Ġist":6138,"é¡¹çĽ®åĬłçĽŁ":6139,"æ£ĭçīĮapp":6140,"File":6141,"0m":6142,"å¢ĵ":6143,"Ġ365betæĢİä¹Ī":6144,"Ġæĺ¾":6145,"UN":6146,"åľŁåľ°":6147,"Ġmain":6148,"Ġçİ¯äºļçĶµæ¸¸ç½ĳç«Ļ":6149,"Ġè§Ĩé¢ĳ":6150,"æĸ¯ç§ĳ":6151,"Ġnew":6152,"æ´ª":6153,"Ġ118":6154,"={":6155,"łåİ¿|":6156,"åĽ½|":6157,"äºĭæķħ":6158,"Ġcon":6159,"åİĤå®¶":6160,"æĻ¨":6161,"ä¸»æĴŃ":6162,"Ġdocument.getElement":6163,"Ġè¿ŀäºĳ":6164,"éĿ©åĳ½":6165,"ĠæĿŃéĶ¦":6166,"è§¦":6167,"Ġä¼ł":6168,"ĠéĻķè¥¿":6169,"çİĩåĪ©":6170,"è´Łè´£":6171,"Ľåİ¿|":6172,"è²¨":6173,"ublished":6174,"ä¾¯":6175,"ç§Ĵç§Ĵ":6176,"åĵªè£¡":6177,"Ġäº§åĵģ":6178,"åĢĴ":6179,"aWR":6180,"Ġ356betæĢİä¹Ī":6181,"-6":6182,"ĠçıŃ":6183,"èĪŀ":6184,"å²©|":6185,"Ġçİ¯äºļagåĽ½éĻħåİħ":6186,"Ċé»ĳé¾Ļæ±Ł":6187,"ĠåºĦ":6188,"ĠéĽĦå·ŀæĹ©é¤ĲåĬłçĽŁ":6189,"sed":6190,"æĿĲæĸĻ":6191,"Ġ75":6192,"å¯¸":6193,"ĠçĭĹä¸ĩå®ĺç½ĳ":6194,"æĸ°åįİç¤¾":6195,"ĠæĹ©é¤ĲåºĹåĬłçĽŁ":6196,"Ġåħ¨åĽ½":6197,"Ġï":6198,"Ġåį¢":6199,"Ġåĩ¯åıĳappä¸ĭè½½":6200,"åķı":6201,"å±ı|":6202,"ĠçĻ¾å®¶æ¬¢ä¹Ĳ":6203,"å¥³åŃĲ":6204,"ipad":6205,"Ġ}else":6206,"Ġåı°åįĹ":6207,"Ġéĺľæĸ°å¸Ĥ|":6208,"px":6209,"Ġä¸ĵ":6210,"Ġæĸ½":6211,"å¢ŀéķ¿":6212,"åł¡":6213,"å°Ĭ":6214,"ä½Ļé¢Ŀ":6215,"Ġ29":6216,"£ï¿½":6217,"Ġsan":6218,"ä¹Łæĺ¯":6219,"æ§":6220,"1åĪĨå½©":6221,"vince":6222,"jb":6223,"ermal":6224,"åĩºäºĨ":6225,"Ġè´º":6226,"å¤§åĪ©äºļ":6227,"é¥Ń":6228,"Ġå¤§åıĳå¤§åıĳå½©ç¥ŀ":6229,"èĩªæ²»åĮºæĶ¿åºľ":6230,"è´Ńä¹°":6231,"çĨ±":6232,"æµ®":6233,"æ°ĳæĹı":6234,"ĠçĽĺ":6235,"ä¿¡çĶ¨åį¡":6236,"çĨĬ":6237,"Ġw66åĪ©æĿ¥èĢģçīĮ":6238,"å¼ĢæĮĤ":6239,"7147":6240,"æ²§|":6241,"City":6242,"ä¿±ä¹Ĳ":6243,"èĤ¡ä»½":6244,"IF":6245,"åĨ°":6246,"åħĪçĶŁ":6247,"Ġç½ĳæĺĵåįļå®¢":6248,"Ġå¼Ģåħĥ":6249,"Ġ47":6250,"å¼ĢæĪ·å®ĺç½ĳ":6251,"è¥¿åİ¿|":6252,"Ġwww":6253,"æĹ©æĬ¥":6254,"ĠæļĤæĹłè¯Ħä»·":6255,"ä¿±ä¹Ĳéĥ¨":6256,"ermalink":6257,"éĢłæĪĲ":6258,"Ġç®Ģ":6259,"ĠåĸĢåĸĩ":6260,"ĠCopyright":6261,"Ġ365ä½ĵèĤ²æĬķæ³¨å¨±ä¹Ĳåľº":6262,"Ġæģ©":6263,"con:'',":6264,"ĠçĶĺèĤĥ":6265,"åĬ±":6266,"ä¸ĭåįĪ":6267,"IH":6268,"2018å¹´":6269,"xz":6270,"æİĴåĪĹ3":6271,"ĠTh":6272,"æĹĹèĪ°åİħä¸ĭè½½":6273,"ä¸Ńåįİ":6274,"ĠåŃĲ":6275,"4æľĪ":6276,"na":6277,"æĢ»çĲĨ":6278,"Ġç»µ":6279,"åĶĲ":6280,"é¦ĸéłģ":6281,"Ċ2020-06":6282,"Ġå·´å½":6283,"âĶ":6284,"Ġå¥³":6285,"åıĮæĸ¹":6286,"Ġéĸ":6287,"this.p":6288,"Ġsan7147":6289,"Ġsan7147çĻ¼è¡¨æĸ¼":6290,"ä¸ªæľĪ":6291,"éŀĭ":6292,"Ġé¸¿è¿ĲåĽ½éĻħ":6293,"GN":6294,"ĠæŀģéĢŁpk10":6295,"à¸Ļ":6296,"ey":6297,"RE":6298,"Ġæ¬¢":6299,"å¤§çļĦ":6300,"-4":6301,"ĳåİ¿|":6302,"ĠæĿ¥æºĲ:":6303,"Ġç«ĭåį³é¢Ħè®¢":6304,"æ±ī|":6305,"night":6306,"æĭľ":6307,"Ġus":6308,"åĽŀåºĶ":6309,"Ġqu":6310,"éĥİ":6311,"æĸ¹ç½ĳ":6312,"Ġ88":6313,"s.":6314,"idu":6315,"¯éĥ":6316,"æ°¸è¿ľå¤ļä¸ĢçĤ¹":6317,"åıĳè´¢":6318,"æĺ¯åĵª":6319,"CP":6320,"åºĶè¯¥":6321,"Ġå°ģ":6322,"Ġäºļç¾İç½ĳ":6323,"Ġæ²§":6324,"[],":6325,"è¾°":6326,"ç¬¦":6327,"sh":6328,"Ġå¤©å¤©":6329,"ĠagæĹĹèĪ°åİħä¸ĭè½½":6330,"åľ¨çº¿æ³¨åĨĮ":6331,"ĵå¤§åħ¨":6332,"Black":6333,"è¦ģå¤ļä¹ħ":6334,"ĠæĤ":6335,"èģĶç½ĳ":6336,"Ġä¸¤":6337,"çį":6338,"ĠéĹ¨åºĹ":6339,"çİ»":6340,"æĸ°çļĦ":6341,"ĠST":6342,"Ġå°ļ":6343,"çĶľèľľ":6344,"æ¥¼å±Ĥ":6345,"ĠæĢĿ":6346,"ĠæĮ":6347,"18æĹ¥":6348,"ition":6349,"å¼Ĥ":6350,"Ġpublis":6351,"æ¡Į":6352,"ç»ĥ":6353,"Ġåİ¦":6354,"ge":6355,"Ċåįĥ":6356,"è§Ħå®ļ":6357,"è©¢":6358,"kw":6359,"å¹´èıľ":6360,"Ġå¥½è¿Ĳå¿«3":6361,"è¾½|":6362,"Ġåįķ":6363,"å£ģ|":6364,"ĠçĻ»":6365,"88çİ¯äºļ":6366,"ĠisShow":6367,"ä½Ļ|":6368,"118":6369,"ï¿½^":6370,"Ċthis.p":6371,"Ċthis.p={":6372,"ï¼ģâĢĿ":6373,"bm":6374,"ĠåĪ©æĿ¥w66ç½ĳç«Ļ":6375,"Ġvote":6376,"æĳĺ":6377,"ĠéĹ¨åºĹåľ°åĽ¾":6378,"ç½Ĺ|":6379,"Time":6380,"ä¸Ģæ¬¡":6381,"æ²Ł|":6382,"è°ĭ":6383,"é¡Į":6384,"Id:0,":6385,"æľŁè´§éħįèµĦ":6386,"Ġéĺ²åŁİ":6387,"çĢ¹":6388,"åŀ£|":6389,"è°ģæľī":6390,"ĠéŁ¶":6391,"å®¢æĪ·ç«¯å®ĺç½ĳä¸ĭè½½":6392,"YT":6393,"å¤ĸåĽ´åĲĹ":6394,"_åįķåıĮ":6395,"æĺ¯ä¸įæĺ¯":6396,"åĽ½å®¶çļĦ":6397,"é»ĳéĴ±":6398,"æľŁæľŁåĩĨ|":6399,"æĹ¥|":6400,"ç¦®":6401,"æĭĴç»Ŀ":6402,"äºĶåĪĨå½©":6403,"WD":6404,"å²Ĺ|":6405,"Ġçĸ¯çĭĤ":6406,"å²³|":6407,"Ġç¹Ŀ":6408,"Follow":6409,"åĿĹ":6410,"ä¿¡|":6411,"Ġrecommend":6412,"Ġå¿«ä¸ī":6413,"Hotel":6414,"Ġ45":6415,"ç¼º":6416,"Ġ0äºº":6417,"own":6418,"çĬ¹":6419,"æ¯ķ":6420,"éĵľ":6421,"Ġan":6422,"ç¾İåħĥ":6423,"ä¹īå¸Ĥ|":6424,"æµģ|":6425,"æ°ı|":6426,"MB":6427,"ĠæĶ¿":6428,"å¹²|":6429,"æ¶Īè´¹èĢħ":6430,"æĪĲç«ĭ":6431,"img":6432,"åĴ¨è¯¢":6433,"çİī|":6434,"ÑĤ":6435,"ä¼¦è´Ŀ":6436,"æĶ¹éĿ©":6437,"æĿ¥|":6438,"è´¤|":6439,"èĩ³|":6440,"ç¥¥|":6441,"int":6442,"D1":6443,"å¼º|":6444,"æľºåĻ¨äºº":6445,"ç¥ĸ":6446,"çļĩåĨłä½ĵèĤ²":6447,"ä¸¹|":6448,"Ġåĩ¯åıĳé¦ĸé¡µ":6449,"Ġæ¸Ń":6450,"æ³¨æĦı":6451,"Succ":6452,"tP":6453,"Ġæīĳåħĭ":6454,"000',":6455,"ŀåŁİ|":6456,"º|":6457,"èµĮçĲĥ":6458,"Ġ38":6459,"æĿ¥å°±éĢģ":6460,"æĮĳ":6461,"ĠåĲīæľ¨":6462,"St":6463,"å¤©çĦ¶":6464,"éĻĨ|":6465,"çĿ£":6466,"Ġé²ģ":6467,"åĿ¡|":6468,"Ġbs":6469,"Ġremind":6470,"ĠCCåĽ½éĻħ":6471,"æīİ|":6472,"CH":6473,"Ġattach":6474,"éĩİ|":6475,"åĪ°ï¼Į":6476,"åıĳè´¢ç½ĳ":6477,"Published":6478,"Province":6479,"åĩ¤|":6480,"Ġé»ĳé¾Ļæ±Ł":6481,"éĽħ|":6482,"ĠPl":6483,"åĳĬè¯ī":6484,"ĠèĭĹ":6485,"æ¶¨":6486,"ĠçĿ":6487,"å¤·":6488,"è¿·":6489,"pcèĽĭèĽĭ":6490,"Ġæ¥ļ":6491,"ĠèµĮéĴ±çļĦè½¯ä»¶":6492,"Ġlofter":6493,"åĨ³å®ļ":6494,"aj":6495,"ä¼łåªĴ":6496,"Ġæ·Ħ":6497,"ï¼Ĭï¼Ĭ":6498,"_single":6499,"Ġå¿»":6500,"ĠçīŁ":6501,"æ£ĭ":6502,"Ro":6503,"Visitor":6504,"çĴĥ":6505,"6æľĪ":6506,"\").val":6507,"Ġw66åĪ©æĿ¥å®ĺç½ĳ":6508,"æľĢæĸ°çīĪ":6509,"Ids:":6510,"none',":6511,"ear":6512,"Ġ|ä¸¾æĬ¥":6513,"Yod":6514,"Ġistop":6515,"Ġm:2,":6516,"Ġb:2,":6517,"Ġè¿Ľ":6518,"Ġ|åŃĹåı·":6519,"Ġç¹ģ":6520,"æĺ¾ç¤ºï¼Į":6521,"Ġ|åŃĹåı·å¤§ä¸Ńå°ı":6522,"æ²Ļå²Ľ|":6523,"ĠèĲ¨":6524,"ermalink:'',":6525,"ĠloftP":6526,"ĠloftPermalink:'',":6527,"Ġå¤§åıĳäºĶåĪĨéĴŁå¿«ä¸ī":6528,"æļĸ":6529,"Ġattachments":6530,"æĪĲéĥ½":6531,"set:'":6532,"ĠgroupInfo:{},":6533,"goodnight":6534,"Ġbsrk:-100,":6535,"Ġvote:{},":6536,"Ġsrk:-100,":6537,"Ġistop:false,":6538,"status:'un":6539,"Ġfriendstatus:'":6540,"Follow',":6541,"Ġfriendstatus:'none',":6542,"status:'unFollow',":6543,"ĠisBlack":6544,"NewUser":6545,"Province:'',":6546,"ĠvisitorProvince:'',":6547,"Visitor:false,":6548,"ĠisBlackVisitor:false,":6549,"ĠvisitorNewUser":6550,"ĠvisitorNewUser:false,":6551,"ĠisPublished":6552,"ĠisPublished:1,":6553,"Ġfollowstatus:'unFollow',":6554,"ĠvisitorCity":6555,"FileIds:":6556,"ĠvisitorCity:'',":6557,"ĠattachmentsFileIds:":6558,"ĠattachmentsFileIds:[],":6559,"aoAd":6560,"ĠisShowYod":6561,"ĠisShowYodaoAd":6562,"AddInfo:{},":6563,"blog:false,":6564,"ĠpubSucc":6565,"Ġremindgoodnight":6566,"ĠpostAddInfo:{},":6567,"ĠpubSucc:'',":6568,"Ġremindgoodnightblog:false,":6569,"Ġmcon:'',":6570,"Ġmset:'":6571,"Ġmset:'000',":6572,"ĠcurrentRecomBlog":6573,"Ġpublisher":6574,"ĠcurrentRecomBlog:false,":6575,"Ġlofter_single":6576,"Ġlofter_single:'":6577,"Ġä½¿":6578,"æī¹åıĳ":6579,"åĩ¯åıĳå®ĺç½ĳ":6580,"Ġå°Ħ":6581,"æ£Ĵ":6582,"çļĦæ£ĭçīĮæ¸¸æĪı":6583,"Ġåĩ¯åıĳæīĭæľºapp":6584,"æĬµ":6585,"æĹħè¡Į":6586,"ĠpublisherId:0,":6587,"èĬ¬":6588,"ĠrecomBlog":6589,"ĠrecomBlogHome":6590,"_app":6591,"Ġç§Ĵç§Ĵ":6592,"æ³¨åĨĮåľ°åĿĢ":6593,"éĿĴå¹´åīµæ¥Ńè²¸æ¬¾":6594,"ign":6595,"Ġå¨Ħ":6596,"IT":6597,"çĶ·åŃĲ":6598,"Ġå®¢":6599,"Ñģ":6600,"çĻ»ä¸įä¸Ĭ":6601,"Ġpc":6602,"ä½ĵå½©":6603,"é¢ĨåŁŁ":6604,"SE":6605,"æ¯ıæĹ¥":6606,"function()":6607,"æĸ¹ä¾¿":6608,"æĪ´":6609,"éĶĺï¿½":6610,"çŁ¿|":6611,"au":6612,"ç»ıèĲ¥":6613,"Ċå®īå¾½":6614,"ç¾Ĭ":6615,"å®ĺæĸ¹ç½ĳç«Ļä¸ĭè½½":6616,"çĶľèľľç´ł":6617,"è»Ĭè²¸":6618,"éĵ¶åķĨ":6619,"Ġagçİ¯äºļ88":6620,"å¤§ä¼ļ":6621,"Ġ2019-01":6622,"Ġå°Ĭé¾ĻäººçĶŁå°±æĺ¯åįļå®ĺç½ĳ":6623,"æīĢä»¥":6624,"ĠçľŁäººèµĮéĴ±æ¸¸æĪı":6625,"è¦Ĩ":6626,"ĠåĢĭ":6627,"ç¬¬ä¸ī":6628,"Ġè©ķ":6629,"ĠagæĹĹèĪ°":6630,"ä¸ĵå®¶":6631,"ÖĢ":6632,"ĠrecomBlogHome:false,":6633,"_è®¡åĪĴ":6634,"çĽĴå®Ŀåħ¸":6635,"çİ©å®¶":6636,"Ġæ´¥":6637,"Ġéº¦":6638,"Ġ1å°ıæĹ¶åīį":6639,"Ġåĩ¯åıĳç½ĳç«Ļ":6640,"ĠPower":6641,"å²©":6642,"ĠåĲĪä½ľ":6643,"Ġå©":6644,"ĠåĪ©æĿ¥æīĭæľºçīĪ":6645,"æ¸¸å®¢":6646,"å·ŀç½ĳ":6647,"åĩłå¤©":6648,"ĠçĥŃ":6649,"ĠæŃ¦æ±ī":6650,"åľ¨çº¿æĬķæ³¨":6651,"Ċ2020-08-0":6652,"åŃĺåľ¨":6653,"ĠèĮĥ":6654,"å¼ĢæĪ·ç½ĳç«Ļ":6655,"MP":6656,"o.":6657,"åĸ®":6658,"ä¸įç»Ļ":6659,"Ġq":6660,"ãĢĤçĽ®åīį":6661,"åħ¨å¤©è®¡åĪĴ":6662,"Ġè·Ŀç¦»":6663,"°ï¿½":6664,"Ġæ¾³éĹ¨æ¸¸æĪıå¹³åı°":6665,"å°İ":6666,"å¯»":6667,"æİĮ":6668,"ç®Ģåįķ":6669,"Ġ60":6670,"ĠçĶµåŃĲæ¸¸æĪıå¹³åı°":6671,"ĠæĪĲéĥ½":6672,"åŁĥ":6673,"æ±Łæĸ°éĹ»ç½ĳ":6674,"å¸¦ä¸Ģè·¯":6675,"éĩĳå¸ģ":6676,"ĠåĪ©æĿ¥å®ĺæĸ¹ç½ĳç«Ļ":6677,"åĬłçĽŁç½ĳ":6678,"Ċ?":6679,"Ġè¶ħ":6680,"04æľĪ":6681,"æ£ĭçīĮ365":6682,"æ¬¡æķ°ï¼ļ":6683,"äººäºº":6684,"vent":6685,"éĺ³åŁİ":6686,"Ġagçİ¯äºļå®ĺç½ĳçĻ»å½ķ":6687,"åıĤä¸İ":6688,"ĊB":6689,"å¼ĢæĪ·åľ°åĿĢ":6690,"æİĪ":6691,"å¾·å·ŀæīĳåħĭ":6692,"KT":6693,"ĠèįĶ":6694,"Ġæ¾³éĹ¨èĳ¡äº¬":6695,"åıĸå¾Ĺ":6696,"ç²¾èĭ±":6697,"æ³ķéĻ¢":6698,"ä¼Ĺè®®éĻ¢":6699,"Ġå·¨":6700,"Ġreserved.":6701,"çī¹åĮº":6702,"çİ©åĲĹ":6703,"æīĭç»Ńè´¹":6704,"Ġ40":6705,"å¢Ļ":6706,"Ġèı²å¾ĭå®¾":6707,"çļĦãĢĤ":6708,"c0m":6709,"å¿ĥå¾Ĺ":6710,"é¦ĸæ¬¡":6711,"à¸Ń":6712,"é©°":6713,"oog":6714,"æĿŃå·ŀ":6715,"Ġå¿«é¤Ĳ":6716,"Ġæ¾³éĹ¨æĸ°éĵ¶æ²³":6717,"åľ£":6718,"SB":6719,"Ġæ±½":6720,"çĤ¹c0m":6721,"äººåı£":6722,"Ġios":6723,"é¾":6724,"çıłç©Ĩ":6725,"ĊåĮĹ":6726,"orm":6727,"Ġä»ª":6728,"AL":6729,"itle":6730,"1æľĪ":6731,"æµ·å¤ĸç½ĳ":6732,"attr":6733,"èģĬ":6734,"åĽŀçŃĶ":6735,"ces":6736,"éĨĴ":6737,"Ġ365betå®ĺç½ĳå¨±ä¹Ĳåľº":6738,"łéģĵ":6739,"âķ":6740,"è´¤":6741,"èĻļ":6742,"Ġå¼Ģåħĥæ£ĭçīĮæ¸¸æĪı":6743,"Ġæīĺåħĭ":6744,"OH":6745,"Ġå¤§åıĳä¸īåĪĨéĴŁå¿«ä¸ī":6746,"æĺ¯çľŁå®ŀ":6747,"è¶£":6748,"oogle":6749,"åıĸæ¶Ī":6750,"éīĦ":6751,"è´Ńå½©":6752,"Ġ3å°ıæĹ¶åīį":6753,"ç§¯æŀģ":6754,"Ġuu":6755,"ĠéĴŁ":6756,"Ġor":6757,"baidu":6758,"æŁĵ":6759,"ç»Łè®¡":6760,"\">":6761,"çľŁäººèµĮéĴ±":6762,"æīĵåį°":6763,"Ġåı¯ä»¥":6764,"Ġå¤§åıĳäºĮåĪĨéĴŁå¿«ä¸ī":6765,"æ¤Ĵ":6766,"ç»©":6767,"ich":6768,"Ġåħ¨çĲĥ":6769,"åľ°ä¸»":6770,"Ġ2å°ıæĹ¶åīį":6771,"çĤ¹åĩ»":6772,"åĮĸå¸Ĥ|":6773,"-9":6774,"Ċ-":6775,"ç¨³èµ¢":6776,"ç½ĳåĿĢå¤ļå°ĳ":6777,"éĢıè§Ĩ":6778,"ç§Łè½¦-":6779,"Ġagäºļæ´²å®ĺæĸ¹":6780,"ä»¥ä¸ĭ":6781,"åĭŀ":6782,"68":6783,"ĠåĽŀ":6784,"cL":6785,"Ġæ½ľ":6786,"Ġæ¾³éĹ¨æ£ĭçīĮæ¸¸æĪı":6787,"çĻ¾ç§ĳ":6788,"Ċè´µå·ŀ":6789,"Ġå±¯":6790,"åħ³éĹŃ":6791,"Ġæº§":6792,"å¹¿åľº":6793,"5åĪĨ":6794,"Ġæľ¬æºªå¸Ĥ|":6795,"ä½įäºİ":6796,"({":6797,"Ććą":6798,"Ġ4å°ıæĹ¶åīį":6799,"ĠæĪĳè¦ģ":6800,"ĠæħĪ":6801,"cl":6802,"ĠæĹ¥æľ¬":6803,"mm":6804,"æĩī":6805,"èĵ®":6806,"å¨±ä¹Ĳåľ¨çº¿":6807,"Ġun":6808,"åĬª":6809,"Ġhmcon":6810,"heck":6811,"Ġà¸":6812,"Ġ356betå¨±ä¹Ĳåľº":6813,"ä¹Įçıłç©Ĩ":6814,"é¦ħ":6815,"Ċï¿½":6816,"Ġ365æ£ĭçīĮèĭ¹æŀľ":6817,"Ġå®½":6818,"Ġäºļæ¸¸å®ĺç½ĳåıªä¸ºéĿŀåĲĮ":6819,"Łåİ¿|":6820,"è¯ĪéªĹ":6821,"Ġ365æ£ĭçīĮèĢģèĻİæľº":6822,"éĢĬ":6823,"å¿ł":6824,"á»":6825,"Ġ5åĪĨæĹ¶æĹ¶å½©":6826,"æħ§":6827,"3J":6828,"å¿«ä¹Ĳ8":6829,"ĠæĸĹ":6830,"ä¿ĿæĮģ":6831,"WV":6832,"åįĢ(":6833,"é£Łåĵģ":6834,"åĪĨæİĴåĪĹä¸ī":6835,"Ġ5å°ıæĹ¶åīį":6836,"ç®ĹçĽĺå¼Ģå¥ĸç»ĵæŀľ":6837,"åľĸ":6838,"Ġ7å°ıæĹ¶åīį":6839,"èİ·å¾Ĺ":6840,"åĪĨå¿«ä¹Ĳ8":6841,"Ġ9å°ıæĹ¶åīį":6842,"è®¡åĪĴapp":6843,"xzZS":6844,"è´«åĽ°":6845,"ç½ĳåıĭ":6846,"Ġ6å°ıæĹ¶åīį":6847,"åĿĲ":6848,"3æľĪ":6849,"æīĭæľºç«¯":6850,"Ġî":6851,"Ijpm":6852,"YWxzZS":6853,"IjpmYWxzZS":6854,"Ġ8å°ıæĹ¶åīį":6855,"ç»ĻåĪ©çļĦèĢģçīĮ":6856,"ational":6857,"-7":6858,"ä¹ĲåĽŃ":6859,"Ġæ½¼":6860,"åį«æĺŁ":6861,"ĠçľŁéĴ±çº¿ä¸Ĭ":6862,"è·³":6863,"èĻ½":6864,"Ġç¾İåĳ³":6865,"ccåĽ½éĻħ":6866,"ĠæĦı":6867,"Ġèĥ¶":6868,"Ġæ¸ħçľŁ":6869,"âĨ":6870,"è¤":6871,"åĵ¡":6872,"Ċ9":6873,"Ġæĸĩç«ł":6874,"a)":6875,"CD":6876,"çīĪæĿĥ":6877,"ç½ĳåĿĢå¤ĩçĶ¨çĻ»å½ķ":6878,"åĪ©æģ¯":6879,"åģı":6880,"æĹıèĩªæ²»å·ŀ":6881,"RecomBlogCount":6882,"ĠselfRecomBlogCount":6883,"ĠæŀĹèĬĿ":6884,"èĥĨ":6885,"å«Įçĸĳ":6886,"Ġè¡¢":6887,"ĠæĿ¨åĽ½ç¦ıéº»è¾£çĥ«":6888,"8æľĪ":6889,"AX":6890,"ç¡Ģ":6891,"baidu.com/":6892,"16æĹ¥":6893,"æ²³åįĹ":6894,"load":6895,"ãĢĳãĢĲpãĢĳãĢĲ>ãĢĳãĢĲ":6896,"ä½ľåĵģ":6897,"åĽ½ä¼ļ":6898,"Ġå¨ĺå®¶":6899,"åĲķ":6900,"æ¹ĥ":6901,"çĦ¡":6902,"bt365":6903,"å¨ľ":6904,"çĶ¸":6905,"å¸ķ":6906,"ĠçĭĹä¸ĩæ»ļçĲĥ":6907,"é¢¨":6908,"ug":6909,"83":6910,"é¦ĸéĢī":6911,"ä¸ĭè½½appåľ°åĿĢ":6912,"Ġ0å°ıæĹ¶åīį":6913,"é¦ħé¥¼":6914,"ĠæĪĳæĥ³":6915,"Ġè®°":6916,"è´Ńçī©":6917,"çºªå¿µ":6918,"æĥĬ":6919,"çº¢é»ĳå¤§æĪĺ":6920,"uuå¿«3":6921,"ĠçĽĪ":6922,"Ġæ¡ĳ":6923,"Ġåı°æ¹¾":6924,"17æĹ¥":6925,"ĠæĹ©çĤ¹åĬłçĽŁè¿ŀéĶģ":6926,"olor":6927,"ä½łçļĦ":6928,"Ġæ¾":6929,"æĦıè§ģ":6930,"ãĢĳãĢĲ/":6931,"ç¹Ŀï½³":6932,"10åĪĨå½©":6933,"åĬŀåħ¬":6934,"è¯´æĺİ":6935,"é³":6936,"èģŀ":6937,"è®¤ä¸ºï¼Į":6938,"æļ´åĬĽ":6939,"éĬĢè¡Įè²¸æ¬¾":6940,"Ġè¿ģ":6941,"Ġäºļç¾İçľŁäºº":6942,"æĺ¯æŃ£è§Ħ":6943,"Ġå¿«ä¹Ĳ":6944,"æīĭæľºå®¢æĪ·ç«¯app":6945,"777":6946,"ä¸ľè¥¿":6947,"ouse":6948,"å¤ĸäº¤":6949,"365ä½ĵèĤ²åľ¨çº¿æĬķæ³¨":6950,"å¸ĸ":6951,"Ġéķ¿æ²Ļ":6952,"ï¼Įå°Ĩ":6953,"ĊN":6954,"ï¼Įè®©":6955,"æĸĩæĺİ":6956,"QL":6957,"éªŀï¿½":6958,"Ġçİ¯äºļæīĭæľº":6959,"Ġç¥ŀåĨľ":6960,"æĿ¯æĬķæ³¨365":6961,"åľ¨çº¿ä¸ĭè½½":6962,"act":6963,"Âł":6964,"åĪ©çĽĬ":6965,"Ġéĵ¶æ²³åĽ½éĻħ":6966,".html":6967,"ĠselfRecomBlogCount:'0',":6968,"é¦ħé¥¼åĬłçĽŁ":6969,"2018-0":6970,"ä¹Įçıłç©Ĩæ²ģæĹĹ|":6971,"ĊçĻ¾åº¦":6972,"åĨħèĴĻåı¤":6973,"Ġ$(\"#resp":6974,"è¯ĳ":6975,"å½©ç¥¨app":6976,"ç½ĳçĲĥ":6977,"Ġåĩ¯åıĳå®ĺç½ĳåħ¥åı£":6978,"you":6979,"Ġæľª":6980,"Ġåħ¬åı¸":6981,"Ġä¼ģ":6982,"Ġæ³¢":6983,"Ġ2010":6984,"ĠCP":6985,"é±¼åĦ¿":6986,"æĺ¯çľŁå®ŀåĲĹ":6987,"åĨ»":6988,"Ġç§ĴéĢŁæĹ¶æĹ¶å½©":6989,"Ġçİ¯äºļçĶµæ¸¸æĥ³èµļå°±è½¬":6990,"CC":6991,"Ġwe":6992,"çĽ´æİ¥":6993,"Ġwas":6994,"è§Ĥå¯Ł":6995,"ĠèĵĿæľĪäº®":6996,"æĺ¯ä¸Ģ":6997,"cond":6998,"è¿ŀæİ¥":6999,"èĻĳ":7000,"æ¾³å¤§åĪ©äºļ":7001,"7æľĪ":7002,"å±ŀäºİ":7003,"Ġè±¡":7004,"ĠInt":7005,"Ħĥ":7006,"ĠèĪŀ":7007,"Ġ2020-05":7008,"åľ¨çº¿å¹³åı°":7009,"æĹħæ¸¸ç½ĳ":7010,"Ġçİ¯äºļæīĭæľºä¸ĭè½½":7011,"å»ºçŃĳ":7012,"åį«çĶŁ":7013,"Ġåħ³äºİ":7014,"Ġyour":7015,"pZH":7016,"åĲį|":7017,"room":7018,"äºĨãĢĤ":7019,"Ġman":7020,"å¯¹æŃ¤":7021,"æīĳ":7022,"æ³ķå¾ĭ":7023,"å¦Ī":7024,"5åĪĨå¿«3":7025,"èħĲ":7026,"Ġ58":7027,"IOS":7028,"ä¹ĭä¸Ģ":7029,"Ġå·©":7030,"Ġå¤ĸåĽ´è¶³çĲĥ":7031,"ç½ĳæĺĵ":7032,"éĤ±|":7033,"ç§¦":7034,"Ġag88çİ¯äºļ":7035,"Ġç¤¼":7036,"åįĩçº§":7037,"è³¼å±ĭ":7038,"ĠmainComment":7039,"éļĽ":7040,"ä½ıå®¿":7041,"äººçĶŁå°±æĺ¯æĲı":7042,"åİ¢":7043,"ork":7044,"æĺ¯ä»Ģä¹Īç½ĳç«Ļ":7045,"9æľĪ":7046,"Ġè½¬åıĳ":7047,"Ġ32":7048,"çĽŁ|":7049,"ä¸Ńæĸĩç½ĳ":7050,"ä¸įåĩº":7051,"åıªæľī":7052,"Ġä¾Ŀ":7053,"Ġå¹¿åĳĬ":7054,"è¿Ļä¸Ģ":7055,"Ġ365æ»ļçĲĥçĽĺ":7056,"ĠéĦĤå·ŀ|":7057,"IR":7058,"Ġ48":7059,"æľªçŁ¥":7060,"Ġåĸľ":7061,"èµ°åľ°":7062,"å»ºç«ĭ":7063,"Ġæīĵ":7064,"Ġæĸ°å·´å°ĶèĻİå·¦æĹĹ|":7065,"Ċ2018-01":7066,"æľ¬ç«Ļ":7067,"Ġèķ":7068,"add":7069,"éĥµä»¶":7070,"ç¹ģ":7071,"é«ĺéĢŁ":7072,"Ġæĭľ":7073,"Ċéĺħè¯»(":7074,"ç¨ĭåºı":7075,"åĮ»çĸĹ":7076,"ĠåħĭæĭīçİĽä¾Ŀ|":7077,"å¹¿ä¸ľ":7078,"Ġ34":7079,"è®®åĳĺ":7080,"æľĢæĸ°ä½ĵèĤ²":7081,"æ©Łè»ĬåĢŁæ¬¾":7082,"çĻ»å½ķé¦ĸé¡µ":7083,"')":7084,"Ġagå®ĺæĸ¹":7085,"App":7086,"Ġè½¬åıĳ(":7087,"Ĉć":7088,"é¾Ħ":7089,"ĠagåĽ½éĻħäºļæ¸¸å®ĺç½ĳ":7090,"éģĭ":7091,"play":7092,"çľŁæŃ£":7093,"ract":7094,"åŃĲéĥµä»¶":7095,"ï¿½|":7096,"Ġâĸ":7097,"Ġä¸Ńå¼ı":7098,"ç¹Ŀï½¼":7099,"Ġçģ¯":7100,"åĿı":7101,"å¼Ģå±ķ":7102,"åŃĺéĴ±":7103,"1.2":7104,"è¿ĻéĩĮ":7105,"åĽŀå¤į":7106,"Ġå³¨çľ":7107,"ç§ĭ":7108,"å½ĵ|":7109,"ç¶²ç«Ļ":7110,"æĮĤçīĮ":7111,"æ¯ĶåĪĨç½ĳ":7112,"Ġ500":7113,"ĊM":7114,"çĩķçªĿ":7115,"script":7116,"å¤§å°ıåįķåıĮ":7117,"å¿ħé¡»":7118,"Ĳå±±|":7119,"Ġå¯ŁåĵĪå°Ķåı³ç¿¼ä¸ŃæĹĹ|":7120,"Ġw66.comåĪ©æĿ¥":7121,"èİ²|":7122,"é¹¿|":7123,"æŃĮè¯į":7124,"çĶµåı°":7125,".Company":7126,"æĺĮå¸Ĥ|":7127,"Ġkgå¼Ģåħĥæ£ĭçīĮ":7128,"åĽĽèĤĸ":7129,"ä¸Ģé¡µ":7130,"çĭ®":7131,"è¿ĲèĲ¥":7132,"æľīapp":7133,"Ġå¯ŁåĵĪå°Ķåı³ç¿¼åīįæĹĹ|":7134,"Ġä»£çĲĨ":7135,"Ġå°Ĭé¾Ļd88ç½ĳåĿĢ":7136,"ĠæµİåįĹ":7137,"Ġbet365å¨±ä¹Ĳåľº":7138,"é²ģæľ¨":7139,"Ġç§ĳå°Ķæ²ģå·¦ç¿¼åĲİæĹĹ|":7140,"Ġç§ĳå°Ķæ²ģåı³ç¿¼ä¸ŃæĹĹ|":7141,"Ġè°ģæľī":7142,"æ¹ĥæĸ°éĹ»":7143,"é²ģæľ¨é½Ĳ":7144,"line":7145,"_æ³¨åĨĮ":7146,"Ġæīĳåħĭä¹ĭæĺŁ":7147,"Ġçİ¯äºļag88":7148,"ç¦¾|":7149,"appå®ĺæĸ¹ä¸ĭè½½":7150,"èĺŃ":7151,"Ċæĸĩç«łæĿ¥æºĲï¼ļ":7152,"éķ·":7153,"ĠèĮ¶éĻµ|":7154,"å¹»":7155,"Ġè´µå·ŀ":7156,"è¶ħè¿ĩ":7157,"ä¸ĩåįļapp)":7158,"åĳ¨åĪĬ":7159,"çļĦapp":7160,"å¼ĢæĶ¾":7161,"Ġçª":7162,"Ġç§ĳå°Ķæ²ģå·¦ç¿¼ä¸ŃæĹĹ|":7163,"ere":7164,"ĠInn":7165,"ary":7166,"æ»ļçĲĥçĽĺ":7167,"Ċæ¹ĸåįĹ":7168,"Ġalert":7169,"æĭħä¿Ŀ":7170,"ree":7171,"Ġå·²":7172,"Ġèµµ":7173,"ous":7174,"é©¬æĬ¥":7175,"ç¥Ŀ":7176,"ĠĠĠĠ":7177,"æļĹ":7178,"Ġæ¾³åįļ":7179,"Ġ365ä½ĵèĤ²ç½ĳæĬķ":7180,"è®¨":7181,"rand":7182,"Ġ31":7183,"çİ¯äºļçľŁäººæ¸¸æĪıå¹³åı°":7184,"Ġfalse;":7185,"åı°åĮĹ":7186,"Õ¸":7187,"Ġæ¾³éĹ¨å¨ģå°¼æĸ¯äºº":7188,"io":7189,"}}":7190,"èĲĦäº¬":7191,"ĠæĺĤ":7192,"çī¹åı³æĹĹ|":7193,"iver":7194,"è¦½":7195,"ç»ıçĲĨ":7196,"Ċçī¹èī²":7197,"éĺ»":7198,"åľ°ä¸ĭ":7199,"GL":7200,"¿¥":7201,"Ħà¸":7202,"Ġ55":7203,"ĠUn":7204,"èī¾":7205,"å¸«":7206,"ength":7207,"Ġ49":7208,"Ġçº³":7209,"èĢĢ":7210,"Ġç¼ĸè¾ĳ":7211,"s.com":7212,"å¸®åĬ©":7213,"å®¶åºŃ":7214,"éĹ®é¢ĺï¼Į":7215,"Ġ365ä½ĵèĤ²æĬķæ³¨æıĲæ¬¾":7216,"äººçī©":7217,"äººå£«":7218,"Ġ2011":7219,"èĪĩ":7220,"ëĭ":7221,"Ġæł¼":7222,"oZ":7223,"ner":7224,"åĳ¨å¹´":7225,"ĠåĮº":7226,"æģ¶":7227,"Ġä½ı":7228,"åħīæĺİ":7229,"çı¾éĩĳ":7230,"Ġéĺ¿åĭĴ":7231,"GH":7232,"Ġnot":7233,"Ġç±»ä¼¼":7234,"ĠçĥŁ":7235,"ç´¹":7236,"Ġå°Ĭé¾Ļå¤ĩçĶ¨å¼ĢæĪ·":7237,"/æĹ¥":7238,"Ġäºļæ´²çİ¯äºļçľŁäººæ¸¸æĪıå¹³åı°":7239,"Ġ100":7240,"ĠçķĻ":7241,"é«ĺæ¸ħ":7242,"ĠèĶ":7243,"ç»ıè¿ĩ":7244,"æĲŃ":7245,"éĵģè·¯":7246,"æľĢç»Ī":7247,"Ġ3åĪĨæĹ¶æĹ¶å½©":7248,"ĠĈą":7249,"åŁºç¡Ģ":7250,"Ċ(":7251,"ĠéĹ½":7252,"Ġ51":7253,"ĠäºĶèĬ³æĸĭ":7254,"æĶ¶èĹı":7255,".in":7256,"æĢ»ä¹¦è®°":7257,"æľĢä½³çľŁäººæ¸¸æĪı":7258,"äºĶå¤§":7259,"appä¸ĭè½½å®īè£ħ":7260,"Ġ365betå¨±ä¹Ĳåľº":7261,"SP":7262,"è¹":7263,"ĠæŀģéĢŁèµĽè½¦":7264,"Ġè¿Ĳ":7265,"æ£ĭçīĮå®ĺç½ĳ":7266,"å®īåįĵappä¸ĭè½½":7267,"ĠäºļæĲıè§Ĩé¢ĳ":7268,"èµĦæŀĵå¤§åħ¨":7269,"lx":7270,"çĭĲ":7271,"Ġå¤§åıĳå¿«ä¸īå½©ç¥¨":7272,"ä»»åĬ¡":7273,"ĠâĢ¦":7274,"EN":7275,"ĠåµĬ":7276,"çĤ¹åį¡":7277,"Ġåĩ¯åıĳæ³¨åĨĮå¹³åı°":7278,"åĸĢ":7279,"ç½ļ":7280,"ç»´ä¿®":7281,"65":7282,"Ġ1åĪĨæĹ¶æĹ¶å½©":7283,"8ä¸ĭè½½":7284,"Ġçİ¯äºļæľĢä½³çľŁäººæ¸¸æĪı":7285,"ÄŁ":7286,"çī©æµģ":7287,"ider":7288,"éĿłè°±ä¹Ī":7289,"ç½ĳä¸Ĭæ³¨åĨĮ":7290,"Ġbet365æıĲæ¬¾":7291,"ä¾µ":7292,"æľĢå¤§çļĦ":7293,"åľ¨çº¿è®¡åĪĴ":7294,"é¼ĵ":7295,"æĮĩå®ļ":7296,"ĠblogTag":7297,"å¤©çĦ¶æ°Ķ":7298,"éª¨":7299,"åŃĻ":7300,"Ġéĺ¿èį£":7301,"åħ¬åĽŃ":7302,"éłŃ":7303,"off":7304,"af":7305,"rem":7306,"ĠblogTag:'',":7307,"æ£®æŀĹ":7308,"ĊèįĨ":7309,"ä»ĭç´¹":7310,"è¡Ĺæľº":7311,"é¦¬":7312,"çº¿ä¸Ĭå¹³åı°":7313,"ä»¥æĿ¥ï¼Į":7314,"Ġæĺ¾ç¤ºåħ¨éĥ¨":7315,"éĢĥ":7316,"Ġ90":7317,"å¹´åº¦":7318,"ãĢİ":7319,"IV":7320,"Ġå¼¥":7321,"åĽŀå½Ĵ":7322,"çŁ³ç£Ĭ":7323,"å¸Ŀ":7324,"åħ¨æ°ĳ":7325,"ĊéĻķè¥¿":7326,"åľ¨çº¿å®ĺç½ĳ":7327,"å©´":7328,"Ġåĩ¯åıĳå¤ĩçĶ¨":7329,"Ġå·«":7330,"oft":7331,"å®īåįĵä¸ĭè½½":7332,"ä¹Ĳå½©":7333,"æ°´å¹³":7334,"Ð½":7335,"Class":7336,"Ġ64":7337,"Ġäºļæ¸¸å®ĺæĸ¹ç½ĳç«Ļ":7338,"æł¼éĩĮ":7339,"Ġçİ¯äºļagçĶµæ¸¸":7340,"ç¦ıå»º":7341,"çģ¾":7342,"ĠæĽ´å¤ļ":7343,"UD":7344,"Ġ94":7345,"Jhb":7346,"ç´¯":7347,"ĠåĪ©æĿ¥ç½ĳç«Ļ":7348,"æ¡ĳ":7349,"à¸¥":7350,"ĠagçĽ´æĴŃ":7351,"éģ¿":7352,"Ċä»ĬæĹ¥":7353,"å¤ļä¹ħåĪ°":7354,"ĠçŁ³å®¶åºĦ":7355,"Ġå¯»":7356,"äºĪ":7357,"Ġç¶²":7358,"æľĿé²ľ":7359,"åĽ¢éĺŁ":7360,"æĪĳçļĦ":7361,"çĶŁæĢģ":7362,"Ġagçİ¯äºļå®ĺç½ĳå¹³åı°":7363,"Ġçİ¯äºļ88":7364,"Ġçİ¯äºļçĶµæ¸¸å¨±ä¹Ĳå®ĺç½ĳ":7365,"Ġæ¾³éĹ¨èµĮæĲı":7366,"æľ¨èĪĴ":7367,"è²¸æ¬¾çİĩåĪ©":7368,"ï¼Įç¾İåĽ½":7369,"èİĬ":7370,"Ġéĺ¿èį£æĹĹ|":7371,"ï¼Įæ¯ı":7372,"Ġå²ĳ":7373,"èĭ¥":7374,"éĩĬ":7375,"12æľĪ21æĹ¥":7376,"èĥ½åĬĽ":7377,"Ľï¿½":7378,"ect":7379,"Ġ{{":7380,"Ġä¼ĺ":7381,"Ġçİ¯äºļéĽĨåĽ¢æīĭæľºçīĪ":7382,"Ġagçİ¯äºļçĶµæ¸¸å®ĺç½ĳ":7383,"Ġå¼Ģå¥ĸ":7384,"æĿĤ":7385,"Ġ365ä½ĵèĤ²æĬķæ³¨å¹³åı°":7386,"åıĭæĥħéĵ¾æİ¥":7387,"éº»å°Ĩ":7388,"Ġå°Ĭé¾ĻäººçĶŁå°±æĺ¯åįļæĹ§çīĪ":7389,"æĹĹèĪ°ä¸ĭè½½":7390,"Ġç£Ĳ":7391,"å¯¹äºİ":7392,"ä¿®å¤į":7393,"ï¼Įè¿ĺ":7394,"è½¦|":7395,"OR":7396,"Ġå¤§åıĳåįģ":7397,"91":7398,"ĠæŀģéĢŁé£ŀèīĩ":7399,"è¿ĲåĬ¨":7400,"å·¥ç¨ĭå¸Ī":7401,"ĠåĽ¾æľ¨èĪĴ":7402,"Ġ37":7403,"EX":7404,"300":7405,"åĪĨèµĽè½¦":7406,"Ġä½¿çĶ¨":7407,"ï¼Įä»İ":7408,"Ġz":7409,"ĠagçľŁäººåľ¨çº¿":7410,"Ġ44":7411,"æ¾İæ¹ĥæĸ°éĹ»":7412,"è®¾æĸ½":7413,"ï¼ĳ":7414,"Ġæ¾³éĹ¨åħŃä¸ĭ":7415,"AB":7416,"ĠagçľŁäººæ¸¸æĪı":7417,"ĠæĹ¬":7418,"Ġæł¾":7419,"CN":7420,"Ġæ±¾":7421,"åħ¬åĳĬ":7422,"Ġæ·³":7423,"çİ°éĩĳå®ĺç½ĳ":7424,"å¼ºè°ĥ":7425,"çĮª":7426,"Ġä¹ħ":7427,"Ġæ±¶":7428,"Ġæ¾³éĹ¨ç½ĳç«Ļ":7429,"æ·»åĬł":7430,"Ġ85":7431,"Ġå°ī":7432,"2N":7433,"Ġæ¹Ł":7434,"éĽĻ":7435,"Ġè´¢":7436,"è§ĦåĪĴ":7437,"ĠäººçĶŁå°±æĺ¯åįļ":7438,"Ab":7439,"Ġæ¡ĵ":7440,"UF":7441,"ĠæŁĺ":7442,"Ġæ¾³éĹ¨æĬķæ³¨":7443,"Ġçĸı":7444,"åħĥèµ·":7445,"å½ĵå¤©":7446,"åıĺåĮĸ":7447,"èŃ·":7448,"å¸Ĥæ°ĳ":7449,"ç±»åĬłçĽŁ":7450,"ted":7451,"æ³¨åĨĮé¦ĸé¡µ":7452,"åı°åİ¿|":7453,"Ġå¤©å³":7454,"çĽ´èĲ¥ç½ĳ":7455,"Ġåı¶":7456,"ify":7457,"Ġæ¶ŀ":7458,"Ġæ²ħ":7459,"isc":7460,"æ¶§|":7461,"(ä¸ĩåįļapp)":7462,"Ġæ²¾":7463,"ç»ŁæĹ©é¤ĲåºĹåĬłçĽŁ":7464,"æ¯ĶåĪĨ365":7465,"td":7466,"æĢ»éĥ¨":7467,"32":7468,"ire":7469,"åĨįæ¬¡":7470,"Ċç¾İåĽ½":7471,"Ċæ±Łèĭı":7472,"ĠæĪĸ":7473,"éĤ£ä¹Ī":7474,"ĠçĮ":7475,"ĠåĵĪå°Ķ":7476,"æµł":7477,"Ġ365betæıĲæ¬¾":7478,"äº¿åħĥ":7479,"çļĦå¤§":7480,"æĶ¾å¿ĥ":7481,"ĠâĶ":7482,"Ġæ¶Ł":7483,"Ġæİª":7484,"Ġtrue":7485,"åħįè´¹è®¡åĪĴ":7486,"ath":7487,"æ»ĳ":7488,"åŃľ":7489,"éŀį":7490,"æī¾åĪ°":7491,"Ġæ²¹":7492,"å¤®è§Ĩè®°èĢħ":7493,"Ġç¾İåĽ½":7494,"ç¾¤ä¼Ĺ":7495,"s,":7496,"Ġbet36ä½ĵèĤ²æĬķæ³¨":7497,"å±¯":7498,"Ġèį¥":7499,"ä¸ĢæľŁ":7500,"æĸĩåŃĹ":7501,"Ġ365betå®ĺç½ĳæıĲæ¬¾":7502,"æı¡":7503,"ĠAGçİ¯äºļç½ĳåĿĢ":7504,"éĴĪå¯¹":7505,"ç²®":7506,"è®¸åı¯":7507,"è§Ħæ¨¡":7508,"Ġagä¸ĭè½½":7509,"length":7510,"Ġcan":7511,"Ġall":7512,"ĠrecommendCount:0,":7513,"ç¡¬":7514,"az":7515,"ä¸Ģå®ļ":7516,"Ġ98":7517,"stract":7518,"ĠisShowYodaoAd:false,":7519,"çĽ®æłĩ":7520,"çĬ¶æĢģ":7521,"Ġèħ¾è®¯åĪĨåĪĨå½©":7522,"Ġæĸ°å®¾|":7523,"4-10":7524,"Ġagçİ¯äºļå¤ĩçĶ¨ç½ĳåĿĢ":7525,"çŁ¿":7526,"é«ĺéĽĦ":7527,"Ġbet.":7528,"bt":7529,"æ³ķåĽ½":7530,"å¿«éĢĴ":7531,"æĪĸèĢħ":7532,"çĽĳç®¡":7533,"éĩĮå·´":7534,"å¹ħ":7535,"OB":7536,"ish":7537,"åĪ¶è£ģ":7538,"Ġè¿Ļ":7539,"Ġw66åĪ©æĿ¥æīĭæľºapp":7540,"éľį":7541,"åıĤè®®éĻ¢":7542,"åı¯ä¿¡":7543,"ļĮ":7544,"åĪĽæĸ°":7545,"ä¸ĩåįļä½ĵèĤ²app":7546,"å¨±ä¹Ĳä¸ĭè½½":7547,"éĬĢè¡Įä¿¡è²¸":7548,"å¯¿":7549,"ĥå£°":7550,"Ġå°Ĭé¾Ļä¸ĭè½½":7551,"çĺ":7552,"Int":7553,"åĩºåĶ®":7554,"æĪĺçķ¥":7555,"Ġäºļæ¸¸ç½ĳåĿĢ":7556,"2l":7557,"é©Ĺ":7558,"ä½ľæĸĩ":7559,"Ġ`":7560,"éĬ·":7561,"ãĢĤæŃ£æĸĩå·²ç»ĵæĿŁï¼ĮæĤ¨åı¯ä»¥æĮīalt+4è¿Ľè¡Įè¯Ħè®º":7562,"Ġ2.0":7563,"èµ¶éĽĨ":7564,"Ġmy":7565,"ãĢĳãĢĲl":7566,"Ġè¥¿çĶ²":7567,"å®ŀåĬĽ":7568,"è¢Ń":7569,"ãĢĳãĢĲaãĢĳãĢĲ":7570,"Ġç¦Ħ":7571,"çľĭåĪ°":7572,"ĊæĺĨ":7573,"GD":7574,"æ¶¯":7575,"Ġ65":7576,"Ġå¥ĩ":7577,"çĶ³è«ĭ":7578,"èĦ±è´«":7579,"mp":7580,"Ġå°Ĭé¾ĻäººçĶŁ":7581,"ĠçĭĹä¸ĩ-":7582,"äºĭå®ŀ":7583,"'s":7584,"ç½ĳç»ľå¹³åı°":7585,"Ġagç½ĳæĬķ":7586,"ĊæĹ¶éĹ´:":7587,"ĠçĶ¨":7588,"dH":7589,"Ġ1åĪĨpk10":7590,"ĠåĨľ":7591,"æ³µ":7592,"Ġä½ĵèĤ²365":7593,"èĢĥè¯ķ":7594,"96":7595,"æľĢå¤ļ":7596,"MF":7597,"Ċæ¹ĸåĮĹ":7598,"å±ķç¤º":7599,"ä¸»å¸Ńä¹łè¿ĳå¹³":7600,"Ċéĩĳ":7601,"Ļåİ¿|":7602,"åĪĨé¡ŀ":7603,"åºĶçĶ¨":7604,"Ġåł":7605,"æ¾¶":7606,"ãĢı":7607,"ĠéĤ¢":7608,"èĪªç©º":7609,"Ġagçİ¯äºļçĶµæ¸¸ç½ĳåĿĢ":7610,"èģĮä¸ļ":7611,"å«Įçĸĳäºº":7612,"????????":7613,"Ġå°Ĭé¾Ļæĸ°çīĪ":7614,"âĢķå¤§åıĳ":7615,"Ġen":7616,"Ġçİ¯äºļçĻ¾å®¶ä¹Ĳ":7617,"çº½":7618,"Ġçº¿ä¸ĬçľŁäººåıĳçīĮ":7619,"ĠagçĻ»å½ķ":7620,"Ġæľīä»Ģä¹Ī":7621,"éĹªéĢĢ":7622,"Ġ()":7623,"Ġ46":7624,"Ġdo":7625,"ĠagåĽ½éĻħåİħä¸ĭè½½":7626,"ĊW":7627,"ĠçĻ¼":7628,"éªĹåŃĲ":7629,"ĠPowered":7630,"å°ıé¡įä¿¡è²¸":7631,"æ¡ĥåľĴ":7632,"Ġç¾":7633,"æģ¢":7634,"åĬŁèĥ½":7635,"åĲ¨":7636,"éĻ¤äºĨ":7637,"Ġ68":7638,"ĊåķĨ":7639,"æķħäºĭ":7640,"Ġè¿ŀéĶģ":7641,"æĬ±":7642,"å°ĸ":7643,"Ġ80":7644,"æļĤ":7645,"à¹Ī":7646,"1000":7647,"å®¹æĺĵ":7648,"eries":7649,"Ġçİ¯äºļä¸ĭè½½":7650,"åŃ¦éĻ¢âĸ³":7651,"èªª":7652,"åĪĨå¿«ä¹Ĳåħ«":7653,"èģĶåĲĪåĽ½":7654,"é¢Ħè®¡":7655,"ç©ºéĹ´":7656,"èħ¦":7657,"èĲ¥|":7658,"çķħ":7659,"ãĢĤæŃ¤":7660,"è¡ĵ":7661,"åĪ¶ä½ľ":7662,"æŁ³":7663,"åıĤèĢĥ":7664,"ÑĢ":7665,"Ġä¹¦åºĹåĬłçĽŁ":7666,"Ġ33":7667,"json":7668,"éĻ·":7669,"Ġå¼Ģåħĥæ£ĭçīĮçĤ¸éĩĳèĬ±":7670,"Ġ95":7671,"ä¸ļåĬ¡":7672,"åıĳè¨Ģ":7673,"Ġç«ŀ":7674,"Ġå°Ĩ":7675,"æĹĹèĪ°çīĪ":7676,"Ġä¹¾":7677,"Abstract":7678,"æīĭæľºçīĪå®¢æĪ·ç«¯":7679,"æ¨£":7680,"å·ŀäºĮæīĭè½¦":7681,"Ĥ¬":7682,"åĸľæ¬¢":7683,"ä¸įæĸŃ":7684,"æĶ¶åħ¥":7685,"2017å¹´":7686,"å¸½":7687,"type":7688,"å¨±ä¹Ĳæ³¨åĨĮ":7689,"Abstract:'":7690,"text":7691,"Ġ2020-02-25":7692,"å®īæĸ°éĹ»ç½ĳ":7693,"mF":7694,"æľįåĬ¡åĻ¨":7695,"ĠæĿ±":7696,"å¿«æĬ¥":7697,"æ¶²":7698,"Ġd88å°Ĭé¾Ļå¤ĩçĶ¨ç½ĳåĿĢ":7699,"çĬ¯ç½ª":7700,"è¢«å°ģ":7701,"æĤ£":7702,"éĢīæĸĻ":7703,"Ġæ¾³éĹ¨çļĩåĨł":7704,"é©¾é©¶":7705,"agåıĳè´¢ç½ĳ":7706,"å¢ŀåĬł":7707,"èĻŁ":7708,"åħ±åĴĮåĽ½":7709,"Ċç¾İ":7710,"å¨ģ|":7711,"Ġæĺ¾ç¤ºåħ¨éĥ¨æ¥¼å±Ĥ":7712,"åĬŀæ³ķ":7713,"Ġéĩĳæ²Ļ":7714,"Ġç³":7715,"Ġç½ĳä¸ĬçĻ¾å®¶":7716,"ç»¿èī²":7717,"rc":7718,"åı¯ä»¥ä¹°":7719,"var":7720,"âĺħ":7721,"åįĵäºĳ":7722,"åħ¨æĸĩ":7723,"éģĶ":7724,"èĳ£":7725,"nti":7726,"è½¨":7727,"Ċ2019-07":7728,"item":7729,"æľīäºº":7730,"Ċä¸ŃåĽ½è¥¿èĹı":7731,"ajax":7732,"YP":7733,"ĠèıłèıľäººçĶµç«ŀ":7734,"ï¿½_":7735,"åĪ¶åº¦":7736,"çŀ":7737,"WJ":7738,"çľŁéĴ±æ£ĭçīĮ":7739,"è¿Ĳè¾ĵ":7740,"æĬ½":7741,"Ġé¹°æ½Ń|":7742,"Ġæ¾İ":7743,"ĊæĤ¨çİ°åľ¨":7744,"UUå¿«ä¸ī":7745,"å¿«ä¹Ĳ10åĪĨ":7746,"Ġå¤§åıĳ2åĪĨå½©":7747,"ï¼ļ0":7748,"éªĹäºº":7749,"Ġæģ¯":7750,"3)":7751,"æľįåĭĻ":7752,"éīĦç®ĹçĽĺå¼Ģå¥ĸç»ĵæŀľ":7753,"åĵªä¸ªå¹³åı°":7754,"cation":7755,"éĥ¨|":7756,"Ġéļı":7757,"åįĶ":7758,"ates":7759,"ĊL":7760,"Ċæīĭæľº":7761,"Ġ365ä½ĵèĤ²å®ĺç½ĳ":7762,"åĩºçīĪç¤¾":7763,"çĩĥ":7764,"Ġ67":7765,"sun":7766,"æ±Łè¥¿":7767,"GF":7768,"Ġçİ¯äºļæ¸¸æĪıå¹³åı°":7769,"ĠçĻ¾å®¶åĪ©":7770,"«|":7771,"å°Ķå¤ļ":7772,"Ġagå®ĺç½ĳ":7773,"æ£ĭçīĮappä¸ĭè½½":7774,"æıĲ|":7775,"Ġä¸ľè¥¿":7776,"å¢¨":7777,"ä¸º|":7778,"Ġ&&":7779,"sl":7780,"æĹħé¤¨":7781,"ç¸º":7782,"Ġ356betæıĲæ¬¾":7783,"ĠéŃ":7784,"ĠèİĴ":7785,"Ġ77":7786,"MN":7787,"·åİ¿|":7788,"ãĢĳãĢĲ;ãĢĳãĢĲ":7789,"Ġç§Ģ":7790,"è´·":7791,"ç½ķ":7792,"ZX":7793,"æĹ¶æĹ¶å½©å¹³åı°":7794,"å·¦åı³":7795,"âĢĿâĢľ":7796,"Ġæ½į":7797,"åĳ¨|":7798,"å¾Īå¿«":7799,"ä¾¦":7800,"Ġä¿¡èªīå¥½çļĦ":7801,"è¶³çĲĥæ¯ĶåĪĨ":7802,"1',":7803,"åĶĲ|":7804,"22æĹ¥":7805,"Ñĥ":7806,"ãĢĳãĢĲ2ãĢĳãĢĲ":7807,"OX":7808,"å¡ŀ|":7809,"VI":7810,"Ġè¥¿å³¡|":7811,"ById":7812,"å°±æĺ¯åįļ":7813,"å®ĺæĸ¹ä¸ĭè½½ç½ĳç«Ļ":7814,"Ġçİ¯äºļçĶµæ¸¸ä¸ĭè½½":7815,"Ġ5åĪĨpk10":7816,"åŁĶ|":7817,"æĿ¥è¶Ĭ":7818,"é¥®åĵģ":7819,"ĠAN":7820,"ĠåĪ©æĿ¥æ£ĭçīĮ":7821,"çĥ§":7822,"Ġ54":7823,"å·¥ä¸ļ":7824,"åĬĽéĩı":7825,"è¼ī":7826,"ï¼ĮçĽ®åīį":7827,"é¹ı":7828,"ç½ĳç«Ļ_":7829,"ç¿°":7830,"arch":7831,"Ġå³¨çľīå±±|":7832,"à¹ī":7833,"æ¯Ķè¾ĥ":7834,"Ġä¸ľè¥¿æ¹ĸ|":7835,"(\"#":7836,"æµıè§ĪåĻ¨":7837,"ĠåĵªéĩĮ":7838,"è¶ĬæĿ¥è¶Ĭ":7839,"ĊG":7840,"æĭ¥":7841,"éĺ¶":7842,"è©ķåĥ¹":7843,"pb":7844,"ĠblogAbstract:'":7845,"éĦī":7846,"Ġåŀ¦":7847,"æĿ¥åĪ°":7848,"çĶ±äºİ":7849,"Ġagçİ¯äºļéĽĨåĽ¢å¨±ä¹Ĳ":7850,"è¿Ļç§į":7851,"æİ¨èĸ¦,":7852,"Ġè»":7853,"çĶŁåĳ½":7854,"éº¦":7855,"è§£æĶ¾":7856,"çľĭæĸ°éĹ»ç½ĳ":7857,"æĻ®éĢļ":7858,"åīįï¼Į":7859,"Ġä¹Įæĭīçī¹åīįæĹĹ|":7860,"æ£ł":7861,"è¯Ħçº§":7862,"Ġagçİ¯äºļæīĭæľºçīĪ":7863,"æīĢåľ¨":7864,"appæīĭæľºçīĪ":7865,"ĠåľŁé»ĺçī¹å·¦æĹĹ|":7866,"è¯¦æĥħ":7867,"Ġä¹Įæĭīçī¹ä¸ŃæĹĹ|":7868,"åı·ï¼ļ":7869,"-ä½ĵèĤ²æĬķæ³¨":7870,"ä¸ĢãĢĳãĢĲ":7871,"èĴĤ":7872,"Ġèĭıå°¼çī¹å·¦æĹĹ|":7873,"Ġéĺ¿æĭīåĸĦå·¦æĹĹ|":7874,"news":7875,"éĿŀæ³ķ":7876,"ĠéĤĵ":7877,"Ċçľĭçľĭæĸ°éĹ»ç½ĳ":7878,"æıĲé«ĺ":7879,"Ġ39":7880,"åĴĮåİ¿|":7881,"Ġagäºļæ´²åĽ½éĻħæ¸¸æĪı":7882,"ä¸²ä¸Ģ":7883,"æĹ©çĤ¹å°ıåĲĥåĬłçĽŁ":7884,"æľĢå¥½çļĦ":7885,"åĺ´":7886,"Ġæ²¿":7887,"éĩįçĤ¹":7888,"åĪĨæľŁ":7889,"æ¶īå«Į":7890,"è³¼å±ĭåĦªæĥł":7891,"<ãĢĳãĢĲpãĢĳãĢĲ>ãĢĳãĢĲ":7892,"ä¹¡åİ¿|":7893,"éĩĩåıĸ":7894,"Ġå¤§åıĳæĹ¶æĹ¶å½©æĺ¯":7895,"Ġåĩ¯åıĳå®ĺç½ĳæīĭæľºçīĪ":7896,"Ġä»ĬæĹ¥":7897,"åľ¨çº¿ç½ĳæĬķ":7898,"amp":7899,"ĠåĭĲ":7900,"âĦĥ":7901,".d":7902,"¥ï¿½":7903,"å²ģçļĦ":7904,"span":7905,"å¹¿è¥¿":7906,"æ¢¯":7907,"Ġå¾®ä¿¡":7908,"åıįå¯¹":7909,"ä¸Ńæĸ¹":7910,"èĪ¬":7911,"åįļçī©":7912,"ox":7913,"Ġagçİ¯äºļæĹĹèĪ°":7914,"Ċå½ĵåīįä½įç½®:":7915,"Ġ70":7916,"åī²":7917,"ĊF":7918,"ä¸ĩäºº":7919,"èŀ":7920,"æĬ¥ãĢĭ":7921,"éĤĦ":7922,"ç¢¼":7923,"æĬķè¯ī":7924,"İè«ĸ":7925,"æľīåĵªäºĽl":7926,"åı¬å¼Ģ":7927,"Ġ2018éªŀï¿½":7928,"å®ĺç½ĳ_":7929,"='":7930,"ä¼ļ|":7931,"Ġ56":7932,"iLCJ":7933,"æ±ĤèģĮ":7934,"ģï¿½":7935,"èº«åĪĨèŃīåĢŁéĮ¢":7936,"çĶ¢åĵģ":7937,"ĠçĿ¢":7938,"ä¸»é¢ĺ":7939,"Ġåµ©":7940,"Ġagçİ¯äºļæīĭæľºå¹³åı°":7941,"Ċé¦ĸéłģ":7942,"Ġä¹Įé²ģæľ¨é½Ĳ":7943,"\\n":7944,"æī«":7945,"so":7946,"Ġåıĳå¸ĥæĹ¶éĹ´ï¼ļ2019":7947,"èģĮä½į":7948,"Ġå¤´":7949,"AF":7950,"çĶ³åįļ":7951,"ä¿¡èªīç½ĳ":7952,"éĻ¶":7953,"UL":7954,"æ¡£":7955,"Ġç§ĴéĢŁèµĽè½¦":7956,"Ġè¯¸":7957,"\\/":7958,"å¹³åı°_":7959,"ool":7960,"ä»ĸçļĦ":7961,"éģĵ|":7962,"åĽ¾|":7963,"Ġå¤©ä¸ĭçİ°éĩĳç½ĳ":7964,"UJ":7965,"æĢİéº¼":7966,"Fwv":7967,"20æĹ¥ï¼Į":7968,"è¿Ī":7969,"ĠåĢĭäºº":7970,"ence":7971,"ĠæµĻæ±Ł":7972,"Ġç»´":7973,"ĠäºĳåįĹ":7974,"åħīä¸´":7975,"åľ¨çº¿çĻ»å½ķ":7976,"10å¤§åĵģçīĮ":7977,"Ġ(1)":7978,"Ġcom":7979,"</":7980,"4å¹´":7981,"Ġæľį":7982,"ĠèģĬ":7983,"Ġçİ¯äºļçĶµæ¸¸å®¢æĪ·ç«¯":7984,"Ġåĩ¯æĹ¶app":7985,"æĹıèĩªæ²»åİ¿|":7986,"ä¸įè¿ĩ":7987,"mg":7988,"ance":7989,"Ġå²ļ":7990,"EV":7991,"æ¯Ľåįĵäºĳ":7992,"ĠäººçĶŁå°±æĺ¯åįļd88":7993,"Ġ78":7994,"ï¼į":7995,"è¿Ľåİ»":7996,"åĲįæĹ©é¤ĲåĬłçĽŁ":7997,"Ċçİ¯çĲĥç½ĳ":7998,"æıĴ":7999,"He":8000,"å·¥ä½ľäººåĳĺ":8001,"éĿ¢å¯¹éĿ¢":8002,"Ġ91":8003,"çĨŁ":8004,"(\"script":8005,"hmt":8006,"Ġ57":8007,"éĩĮå·´å·´":8008,"Ġ_hmt":8009,"åĪ©çĶ¨":8010,"Ġæ¾³æ´²å¹¸è¿Ĳ":8011,"err":8012,"Ġå²±":8013,"æ²³ç½ĳ":8014,"ntiAd":8015,"å¤«åŃĲæĹ©é¤ĲåĬłçĽŁ":8016,"Ġ365æ£ĭçīĮæ°´æŀľ":8017,"ä¸ºäºĨ":8018,"ç¾©":8019,"çº¿è·¯æ£Ģæµĭ":8020,"ĠæĶ¶èĹı":8021,"ï¼īï¼Į":8022,"ä¿®æĶ¹":8023,"Ġåĩ¯åıĳä¸»æĴŃ":8024,"Ġæ©":8025,"æľĢæĸ°é¦ĸé¡µ":8026,"Ġ2020-02-26":8027,"éŃĶ":8028,"2000":8029,"ç½ĳç«Ļåħ¥åı£":8030,"é¥®åĵģåĬłçĽŁ":8031,"âĢľä¸Ģå¸¦ä¸Ģè·¯":8032,"Ġç¡":8033,"ģà¸":8034,"æ··":8035,"ĠäºķéĻ":8036,"Ġ87":8037,"åĲĽ":8038,"Ġ2019-08":8039,"åľĺ":8040,"Ġæ±Ĥ":8041,"ĠèĲ¥åħ»":8042,"æĸĩæ±ĩ":8043,"Ġå°Ĭé¾Ļå°±æĺ¯åįļ":8044,"Ġ2009":8045,"å¯¼èĩ´":8046,"<ãĢĳãĢĲ/":8047,"WN":8048,"ĠåĪ©æĿ¥w66æ³¨åĨĮ":8049,"ä¹ĭéĹ´":8050,"æľĢåĩĨ":8051,"ĠçīĽ":8052,"Ġå¤§åıĳ1åĪĨå½©":8053,"èĩªæİĴ":8054,"è¿ģ":8055,"å¾®ä¿¡ç¾¤":8056,"èĲ§":8057,"Ġd88å°Ĭé¾ĻçĶµåŃĲæ¸¸æĪı":8058,"Ġåįļå¤©":8059,"åĢĳ":8060,"åĲĪèĤ¥":8061,"éĶ¡":8062,"OJ":8063,"YB":8064,"Ġå°ıé±¼åĦ¿":8065,"Ġagæįķé±¼":8066,"æĸ¯çī¹":8067,"hm.":8068,"ĠåĪ©æĿ¥æīĭæľºå®¢æĪ·ç«¯":8069,"æĿĳ|":8070,"1.5åĪĨå½©":8071,"ĠiPhone":8072,"èĢģçļĦ":8073,":'1',":8074,"ç»ĳå®ļ":8075,"åľ¾":8076,"ĠåħŃçĽĴå®Ŀåħ¸":8077,"äºĨåĲĹ":8078,"que":8079,"å¡ĳ":8080,"Ġsecond":8081,"èĻ½çĦ¶":8082,"Ġ365ä½ĵèĤ²åľ¨çº¿æĬķæ³¨":8083,"åĬªåĬĽ":8084,"è·ĳçĭĹ":8085,"ph":8086,"Ċåıĭæĥħéĵ¾æİ¥":8087,"ĠæĬķæ³¨":8088,"Ġå¾·å·ŀæīĳåħĭ":8089,"YN":8090,"Ġå°Ĭé¾ĻäººçĶŁçİ°éĩĳå®ĺç½ĳ":8091,"äºŀ":8092,"ç«Ł":8093,"SN":8094,"åĤ³":8095,"éŁ¦":8096,"éĥ¨éķ¿":8097,"Ġip":8098,"nb":8099,"å®ı":8100,"sc2":8101,"ä½ĵçİ°":8102,"uan":8103,"å¨±ä¹ĲçĻ»å½ķ":8104,"æİĪæĿĥ":8105,"ZmF":8106,"ZmFsc2":8107,"I6ZmFsc2":8108,"I6ZmFsc2Us":8109,"åĮºåŁŁ":8110,"iOi":8111,"Ġæ¾³éĹ¨åĽ½éĻħ":8112,"é¡¯":8113,"æİĴåĪĹä¸ī":8114,"ç½ĳç«Ļå¹³åı°":8115,"å®ŀéĻħ":8116,"bj":8117,"è®¡åĪĴç¾¤":8118,"Ġpl":8119,"æ»ļ":8120,"å½©çĲĥç½ĳ":8121,"400":8122,"åĲĦç§į":8123,"å¨±ä¹Ĳapp":8124,"Ġï½ľ":8125,"Name":8126,"Ġbet365çº¿ä¸Ĭ":8127,"ļĮåŁ":8128,"ĠåĲĲ":8129,"æĻĭæ±Łæĸ°éĹ»ç½ĳ":8130,"ĊçĶĺèĤĥ":8131,"I6ZmFsc2UsIm":8132,"æķ£":8133,"å¡ĺ":8134,"Ġagçİ¯äºļå¹³åı°":8135,"KB":8136,"¡ä¸¹":8137,"Ġå¤§åıĳ5åĪĨå½©":8138,"æ¡ĥ|":8139,"å§Ķä¼ļ":8140,"ĠæĹ©é¤Ĳé¦ħé¥¼åĬłçĽŁ":8141,"åħįè´¹æĬķæ³¨":8142,"Ġå¤§åıĳå¹¸è¿Ĳ":8143,"15æĹ¥":8144,"ank":8145,"Ġå®ľåĲ":8146,"æ´ģ":8147,"/1":8148,"æĶ¿åºľç½ĳ":8149,"Ġhmcon:'1',":8150,"Ġæ¸¸æĪı":8151,"2YX":8152,"CF":8153,"e.":8154,"èģª":8155,"åįķåıĮï¼ļå¤§åıĳå½©ç¥ŀ":8156,"èĤ¯":8157,"ĠåĪ©æĿ¥app":8158,"è©±":8159,"YR":8160,"Ċ<":8161,"ĠéĽ¶":8162,"Ġåģ¥åº·æĹ©é¤ĲåºĹåĬłçĽŁ":8163,"çļĦç½ĳåĿĢæĺ¯å¤ļå°ĳ":8164,"è¢ĭ":8165,"Ġ365æ£ĭçīĮæĸ°æīĭåį¡":8166,"åīĤ":8167,"EP":8168,"åĢº":8169,"åĽ½åĬ¡":8170,"ä¼ĺåĮĸ":8171,"ä¸ľåĮĹ":8172,"åĭ¤":8173,"Ġåĳ¼ä¼¦è´Ŀ":8174,"è¿Ŀæ³ķåĲĹ":8175,"ĠæľŃ":8176,"MX":8177,"èĻ¹":8178,"Ċæ³ī":8179,"uz":8180,"éĵ¶è¡Įåį¡":8181,"å¯¶":8182,"ĠåįĹæĬķ":8183,"MJ":8184,"ĠæĪĳæĥ³åĬłçĽŁæĹ©çĤ¹":8185,"Ġå¹¿å·ŀ":8186,"Ġåħ»":8187,"å¤§ä»Ļ":8188,"ç¼ĸè¾ĳï¼ļ":8189,"Ġæ´ĭ":8190,"ç¥ĸåĽ½":8191,"Ġsport":8192,"Ġ43":8193,"è¾¾åĪ°":8194,"ąć":8195,"Ġå°Ĭé¾Ļæĸ°çīĪapp":8196,"Ġå¤§åıĳ3åĪĨå½©":8197,"æ¡Īä»¶":8198,"å¾ĹåĪ°":8199,"ãĪ":8200,"ä¸ĭä¸Ģ":8201,"æĺĤ":8202,"éķ¿æľŁ":8203,"agæĹĹèĪ°åİħä¸ĭè½½":8204,"Ġä½ĵèĤ²æ¯ĶåĪĨ365":8205,"page":8206,"Ġä¸ºä»Ģä¹Īä¸ĩåįļ":8207,"Ġä»£":8208,"ĠéĿ¢è®®":8209,"/æĹ¥åĿĩ":8210,"æĮ¯":8211,"ä»ĵ":8212,"Ġ42":8213,"Ġ1æĹ¶":8214,"ĠéĢŁ":8215,"ĠæīĭåĬ¨":8216,"èĮĤ":8217,"pZHRo":8218,"Ċåħ³éĶ®è¯į":8219,"è¬":8220,"Ġåį³":8221,"Ġ97":8222,"ç½ĳç«Ļ365":8223,"ï¼ŁâĢĿ":8224,"ĠäºļæĲıå®ĺç½ĳ":8225,"ĠèĩªåĬ©":8226,"æŁ±|":8227,"Ġçªģ":8228,"Ġè·¯":8229,"ĠéĦĤæ¸©":8230,"ther":8231,"åŁºéĩĳ":8232,"ef":8233,"äºķ":8234,"å¤ı|":8235,"ĠåĲĲé²ģ":8236,"Ċå½ĵåīįä½įç½®ï¼ļé¦ĸé¡µ":8237,"sg":8238,"æĤ¨çļĦä½įç½®ï¼ļ":8239,"HR":8240,"MR":8241,"æ¡Īä¾ĭ":8242,"æķ¬":8243,"å¹¿æĴŃçĶµåı°":8244,"AR":8245,"YJ":8246,"çļĦæīĭæľº":8247,"åħĳæį¢":8248,"çĶµæ°Ķ":8249,"Õ«":8250,"·éĥ½":8251,"ç§Ģ|":8252,"åıĹåĪ°":8253,"æľĢæĸ°çīĪæľ¬ä¸ĭè½½":8254,"99çĤ¹c0m":8255,"å½ĵæĹ¶":8256,"å°º":8257,"YF":8258,"å®µ":8259,"Ċå±±è¥¿":8260,"ĠæĻ®æ´":8261,"æ¸¸æĪıç½ĳåĿĢå¤§åħ¨":8262,"çµĲ":8263,"KN":8264,"ï¼Įä»ĸä»¬":8265,"----------------":8266,"æ³ķæ¡Ī":8267,"ĊæµĻæ±Ł":8268,"æ¾İæ¹ĸ":8269,"Ĭï¿½":8270,"å¹²éĥ¨":8271,"īï¿½":8272,"åħ¬å®īå±Ģ":8273,"å½©ç½ĳç«Ļ":8274,"ory":8275,"ç½ĳä¸Ĭå¨±ä¹Ĳ":8276,"Ġå¼łå®¶çķĮ":8277,"Ġå°Ĭé¾Ļå°±æĺ¯åįļæĹ§çīĪ":8278,"åħ±æ¬¢ä¹Ĳ":8279,"ĠåĪ©æĿ¥appä¸ĭè½½":8280,"Ġ2018-10":8281,"ĠUUå¿«ä¸ī":8282,"ĠåĪ©æĿ¥èµĦæºĲç«Ļ":8283,"Ġçº¿ä¸ĬçľŁéĴ±å®ĺç½ĳ":8284,"åħ¬å¹³":8285,"Ġéĥ¨èĲ½":8286,"äºĶå¤§èģĶèµĽ":8287,"æī¶è´«":8288,"æ²³å¸Ĥ|":8289,"Ġé©¬éŀį":8290,"é¢Ŀåº¦":8291,"Ġks8åĩ¯åıĳ":8292,"obj":8293,"ä½ĵï¼ļ":8294,"ä¸īä¸²ä¸Ģ":8295,"==\"":8296,"ï¼Īè®°èĢħ":8297,"ĊçĪ±":8298,"éļĶ":8299,"Ġnba":8300,"æĦĽ":8301,"https":8302,"Ġ3åĪĨpk10":8303,"ï¼Įåħ¶ä¸Ń":8304,"Ġæ»ļçĲĥ365":8305,"å½»":8306,"å¦ĩ":8307,"Ċä¸Ĭä¸Ģç¯ĩ":8308,"å®īå¿ĥ":8309,"å±ķå¼Ģ":8310,"1åĪĨå¿«3":8311,"å¼ķåıĳ":8312,"æķĻç¨ĭ":8313,"Ġhave":8314,"Ġbet356æĢİä¹Ī":8315,"KF":8316,"Ġäº¿":8317,"ĊçĻ¾åº¦æĸ°éĹ»":8318,"åı°çģ£":8319,"Ċä¸Ģ":8320,"ãĢĳãĢĲ1ãĢĳãĢĲ":8321,"ĠAnd":8322,"æ²³åĮĹ":8323,"ãĢĢâĢľ":8324,"ĊD":8325,"Ġåĩ¯åıĳå¨±ä¹Ĳ":8326,"è¿Ļæĺ¯":8327,"èº«ä»½éªĮè¯ģ":8328,"UiOmZhbHNlLCJ":8329,"Ijoi":8330,"IjpmYWxzZSwi":8331,"ĠçĽĬ":8332,"ĠçĦ¦":8333,"ãĢĤçĽ®åīįï¼Į":8334,"ĠCol":8335,"å®ĺç½ĳé¦ĸé¡µ":8336,"èĮĥåĽ´":8337,"Ġappä¸ĭè½½":8338,"Ġé£İ":8339,"åĢĭäººä¿¡è²¸":8340,"Ġæŀ£åºĦ":8341,"çķĻè»Ĭ":8342,"Ġ365betå®ĺç½ĳçº¿ä¸Ĭ":8343,"Ġèıı":8344,"ĠIN":8345,"ĠTr":8346,"Ġ2åĪĨæĹ¶æĹ¶å½©":8347,"æ¬¢è¿İåħīä¸´":8348,"Ċbet365":8349,"èģ·":8350,"åĲĭ":8351,"ĠccåĽ½éĻħå½©çĲĥ":8352,"æĮīçħ§":8353,"Ġè¯ļ":8354,"çĽ´çº¿":8355,"Ċè¥¿èĹı":8356,"å¿«åĲĹ":8357,"Ċç¬¬ä¸Ģ":8358,"çŁŃä¿¡":8359,"Ġhttp://www.":8360,"ç½ĳåĿĢ_":8361,"19æĹ¥ï¼Į":8362,"Ġmod":8363,"ild":8364,"å¯¼å¸Ī":8365,"Ġï¿½ï¿½ï¿½":8366,"Ċ|":8367,"Ġé¦Ļæ¸¯åħŃ":8368,"ĠèļĮåŁ":8369,"æĸĹåľ°ä¸»":8370,"ĠåĪ©æĿ¥w66å¨±ä¹Ĳ":8371,"æīĵé±¼":8372,"GJ":8373,"Ċ365ä½ĵèĤ²æĬķæ³¨":8374,"Ġseo":8375,"Ġæİ¨èĸ¦":8376,"äºļæ´²çľŁäºº":8377,"åĩºå¸Ń":8378,"indows":8379,"è´¢ç¥ŀ":8380,"ĠçĭĹä¸ĩæµģæ°´":8381,"å¹´æĿ¥":8382,"Ġagçİ¯äºļæīĭæľºçĻ»éĻĨ":8383,"Ġç«ł":8384,"æŃ£å¸¸":8385,"Ġèī²":8386,"AJ":8387,"å¥Ķ":8388,"Ġæ¯ķ":8389,"åľ¨ãĢĳãĢĲ":8390,"Ãł":8391,"Ġ365betå®ĺç½ĳæīĭæľº":8392,"æĢķ":8393,"ä¹ĭåĲİï¼Į":8394,"Ġåĩ¯åıĳçĶµæ¸¸æ³¨åĨĮ":8395,"æ¸¸èīº":8396,"ĠçĭĹä¸ĩmb":8397,"äºĴèģĶç½ĳ":8398,"ĠçĴ":8399,"å®¶äºº":8400,"ä¿ĿéĻ©":8401,"å®ģæ³¢":8402,"ç±»ä¼¼":8403,"Ġ2020-02-19":8404,"Ġåĩ¯åıĳå½©ç¥¨å®ĺç½ĳ":8405,"æĦıçĶ²":8406,"Ġä¼Ĺ":8407,"çŃ¹":8408,"å®Įæķ´":8409,".h":8410,"Õ¥":8411,"Ġ2020å¹´":8412,"ĠçĶµèĦĳ":8413,"æ¬§åĨł":8414,"SR":8415,"Ġä¼ģä¸ļ":8416,"åĪĻ|":8417,"Ġ96":8418,"Ċåħ³äºİ":8419,"å¤º":8420,"Ġæľīæ²¡æľī":8421,"ä¸Ģçłģ":8422,"Ġå·´å½¦":8423,"Ġ74":8424,"æĬķç¥¨":8425,"Ġ1.5":8426,"çī¹åĮºæĬ¥":8427,"å¤§ç¥ŀ":8428,"åı°ä¸Ń":8429,"æ±¡":8430,"Type":8431,"æĿ¥æºĲ:":8432,"ĈĆ":8433,"çİ»çĴĥ":8434,"å¸Ī|":8435,"ä¿¡èªīç½ĳ_":8436,"Ġè³":8437,"ĠèµĮéĴ±æ¸¸æĪı":8438,"åĴĮåĲĪ":8439,"Ġä¹ī":8440,"æ¹ĸåĮĹ":8441,"ä¼ĺæĥłå¤ļä¸ĢçĤ¹":8442,"WB":8443,"Ċé»Ħ":8444,"çĭ±":8445,"æµ·åİ¿|":8446,"CL":8447,"Ċæ³īå·ŀç½ĳ":8448,"KV":8449,"åħ¼èģĮ":8450,"Ċ2019å¹´10æľĪ":8451,"Ġå°Ĭé¾Ļapp":8452,"Ġ76":8453,"åħ±äº§":8454,"æĸĩ|":8455,"åĪĨæ¬¢ä¹ĲçĶŁèĤĸ":8456,"Ġè®°èĢħ":8457,"ĠçĽ¸åħ³":8458,"æĹ¥æĬ¥éģĵï¼Į":8459,"çĦ¦":8460,"å¾Ĳ":8461,"æ»ĭ":8462,"èĿ":8463,"ç¨±":8464,"ĊæłĩçŃ¾ï¼ļ":8465,"³å·ŀ|":8466,"ä¸ĸçŁ³":8467,"uite":8468,"åħįçķĻè»Ĭ":8469,"åĽ½ãĢĳãĢĲ":8470,"Ġbet36å¤ĩçĶ¨":8471,"KR":8472,"è¾½å®ģ":8473,"æ´Ľ|":8474,"Ġ365ä½ĵèĤ²æĬķæ³¨æīĭæľº":8475,"æĸ°éĹ»ç½ĳ...":8476,"å®ħ":8477,"åħĥ|":8478,"ĠæĽ¾":8479,"Ġ365ä½ĵèĤ²æĬķæ³¨çº¿ä¸Ĭ":8480,"å°Ĭé¾ĻäººçĶŁ":8481,"åĪĨäºĮåħ«":8482,"Ġèµ¢":8483,"ontent":8484,"ç¥ŀå½©äºīéľ¸8":8485,"åĿĬ|":8486,"ç½ĳä¸Ĭå¼ĢæĪ·":8487,"ä½ľçĶ¨":8488,"WX":8489,"åĪĨé¾ĻèĻİ":8490,"âĪ":8491,"å´ĩ":8492,"ĥåľ¾":8493,"ake":8494,"çĽĹ":8495,"ä¼¦æĺ¥":8496,"Ġwww.d88.comå°Ĭé¾ĻäººçĶŁ":8497,"Ġä½ľèĢħ:":8498,"YV":8499,"Ġä¸ģ":8500,"ĠäºļæĲıå½©ç¥¨":8501,"Ġwill":8502,"ICP":8503,"£à¸":8504,"åħ±äº§åħļ":8505,"ä»Ģä¹ĪæĹ¶åĢĻ":8506,"ç«ĭåį³":8507,"ĠéĦĤä¼¦æĺ¥":8508,"èĬĤ|":8509,"Ġä½ıå®¿":8510,"ç±»åŀĭ":8511,"å®ĺæĸ¹æīĭæľºapp":8512,"æ±¾|":8513,"Ġçİ¯äºļç½ĳåĿĢ":8514,"äººæīį":8515,"Ġ86":8516,"ĠèĪŁ":8517,"çĲĨ|":8518,"Ġdocument.getElementById":8519,"æ³Ĭ":8520,"Ġåıĳè¡¨äºİ":8521,"ĠçľŁäººå¹³åı°":8522,"ç½ĳä¸ĬæĬķæ³¨":8523,"âĳ":8524,"å¤§éĩı":8525,"ĠåĪ©æĿ¥w66ä¸ĭè½½":8526,"å¸ĥ|":8527,"Ġæĸ°èĳ¡ï¿½ï¿½":8528,"lot":8529,"IJ":8530,"è·Į":8531,"è¯Ĭ":8532,"Ġ365betå®ĺç½ĳå¹³åı°":8533,"åĦ¿ç«¥":8534,"Ġå®ŀ":8535,"´ï¿½":8536,"Ġåıĳå¸ĥæĹ¶éĹ´:":8537,"åĮ»çĶŁ":8538,"-æ¬¢è¿İæĤ¨":8539,"åħħ|":8540,"åĳĺå·¥":8541,"ĠéĤ¯éĥ":8542,"KJ":8543,"GR":8544,"æŁľ":8545,"è¿ĩåİ»":8546,"Ġçİ¯äºļagæ³¨åĨĮ":8547,"Ġï¼İ":8548,"ä¸įå°ĳ":8549,"Õ¶":8550,"Ġbet356æıĲæ¬¾":8551,"åħ¬è·¯":8552,"æĿİä¸ĸçŁ³":8553,"é¸Ń":8554,"åĽłæŃ¤":8555,"42":8556,"XC9h":8557,"å·¡":8558,"åģ¿":8559,"ĊåĵģçīĮ":8560,"Ġæĸ°åįİç¤¾":8561,"ĠUUå¿«3":8562,"äº§çĶŁ":8563,"ä¸ĵæłı":8564,"çĶļ":8565,"old":8566,"Ġå¾½":8567,"ĠéĦĤä¼¦æĺ¥èĩªæ²»":8568,"å¼ĢæĪ·_":8569,"æĮ¥":8570,"Ġè®©":8571,"å¦¹":8572,"Nz":8573,"å¦»":8574,"èĢģå¸Ī":8575,"éĿĴå²Ľ":8576,"ç¼ĥ":8577,"SC":8578,"çİ°éĩĳå¹³åı°":8579,"ĠåĨ·":8580,"ĠäºĴ":8581,"çī§":8582,"Ġçİ¯äºļæ¸¸æĪıapp":8583,"å®ĺç½ĳå¼ĢæĪ·":8584,"[0":8585,"Ħ|":8586,"æł¸å¿ĥ":8587,"æĳĬ":8588,"çĽ´çº¿è·Ŀç¦»":8589,"µ|":8590,"æ´²|":8591,"èĬ±|":8592,"ĊçĥŃ":8593,"å±±ç½ĳ":8594,"arent":8595,"Ġæ¿®":8596,"è³ª":8597,"ĠAre":8598,"Ġ52":8599,"éĶ¦|":8600,"è¯Ħä¼°":8601,"Ġåĩ¯åıĳç½ĳæĬķ":8602,"çİ¯çĲĥæĹ¶æĬ¥":8603,"ĠæĹ¥åįļå®ĺç½ĳ":8604,"ĠåĸĢä»Ģ|":8605,"èİ±|":8606,"0a":8607,"ĠçĶµçİ©åŁİæ£ĭçīĮ":8608,"æ¸ł|":8609,"çļĭ|":8610,"hem":8611,"åĽŃ|":8612,"çªģçĦ¶":8613,"Ġèħ¾":8614,"ĠéĶ¡æŀĹ":8615,"ĠèµĮåįļ":8616,"Ġ59":8617,"Ġè¨İè«ĸ":8618,"å°Ķåı¤":8619,"åīįå¾Ģ":8620,"QD":8621,"å®Įåħ¨":8622,"365æ»ļçĲĥ":8623,"ç¢į":8624,"åĩĨå¤ĩ":8625,"æľºæ¢°":8626,"çĵ¶":8627,"Ġéĺ¿åĭĴæ³°|":8628,"IZ":8629,"æĭ¼":8630,"Mj":8631,"48XC9":8632,"Ļ|":8633,"æ´¾åĩº":8634,"Ċäººæ°ĳæĹ¥æĬ¥":8635,"ä¸ŃãĢĳãĢĲ":8636,"Ġåŀ¦åĪ©|":8637,"ĠæĬĢ":8638,"å¾·å¸Ĥ|":8639,"åħ¬å¯ĵ":8640,"åĮħè£ħ":8641,"ĊæłĩçŃ¾":8642,"æł¼|":8643,"»|":8644,"ĠéĻķ":8645,"QT":8646,"äººæ°ĳå¹¿æĴŃçĶµåı°":8647,"å¨±ä¹Ĳ_":8648,"éħĴé¬¼éħĴåħ¬åı¸":8649,"åŃĲçİĭ":8650,"Ġæ²³æ±ł|":8651,"Ġé¦Ļæ¸¯æľĢå¿«":8652,"å¥¥ä¸Ģ":8653,"èĩªçĦ¶":8654,"Ċ2017-12":8655,"Ġåĩ¯åıĳAG":8656,"ĠæĿ¡":8657,"èĬ¦":8658,"ĠçŁ³æĻ¯":8659,"Ġalert(\"":8660,"å¹´|":8661,"Str":8662,"ee":8663,"ĠåĽ¾æľ¨èĪĴåħĭ|":8664,"ä¼¦|":8665,"QX":8666,"duct":8667,"æ¥ļç½ĳ":8668,"å·ŀå¸ĤéĤ®ç¼ĸ":8669,"çĽ´çº¿è·Ŀç¦»ä¸º":8670,"Ġåħ¨æ°ĳ":8671,"gc":8672,"Ċç½ĳæĺĵ":8673,"åºĵ|":8674,"æĹ¥æĬ¥ç½ĳ":8675,"Ġçļ®":8676,"ç®Ń":8677,"çļĦçĽ´çº¿è·Ŀç¦»ä¸º":8678,"æĹ©é¤ĲæĢİä¹ĪåĬłçĽŁ":8679,"Ġé¢Ŀå°Ķåı¤":8680,"å·ŀå¸ĤåĮºåı·":8681,"600":8682,"łæ°´|":8683,"æıĲåįĩ":8684,"æ²³åı£|":8685,"ç»ĵ|":8686,"ç¥¨|":8687,"dãĢĳãĢĲ":8688,"å¸Ĥå§Ķ":8689,"Ċä¸»":8690,"å°¾|":8691,"Ġå¤§åıĳ10åĪĨå½©":8692,"å®¹|":8693,"å¥ĩ|":8694,"tag":8695,"åĳ¢":8696,"ĸå·ŀ|":8697,"ç¦ı|":8698,"Ċ365betå®ĺç½ĳ":8699,"Ġç§ĴéĢŁå¿«3":8700,"Ġå°Ĭé¾ĻäººçĶŁå°±æĺ¯æĲı":8701,"æ¦Ĩ|":8702,"Ġmg":8703,"å®ľ|":8704,".f":8705,"Ġä¸ĸæĿ¯æĬķæ³¨365":8706,"Ġ63":8707,"æĿĥ|":8708,"to":8709,"=ãĢĳãĢĲ\"ãĢĳãĢĲ":8710,"Ġçİ¯äºļagæĹĹèĪ°":8711,"æıı":8712,"åħ¨|":8713,"æ°¸|":8714,"éĿ¢æĿ¡":8715,"ç«ł|":8716,"ä¸½|":8717,"/2":8718,"å¡Ķ|":8719,"ĠéĿĴå²Ľ":8720,"å®Ĺ|":8721,"å½©ç¥¨åĲĹ":8722,"æīĭæľºçīĪä¸ĭè½½å®īè£ħ":8723,"Ġè±Ĩ":8724,"(s":8725,"ä¸Ĭ|":8726,"éĥĳ|":8727,"SV":8728,"éĿ¢é¦Ĩ":8729,"ĠéĦĤä¼¦æĺ¥èĩªæ²»æĹĹ|":8730,"ç«¹|":8731,"æµª|":8732,"åİŁåĪĽ":8733,"åĺİ|":8734,"ķå®ģ|":8735,"çķĻ|":8736,"Gl":8737,"æ½¼|":8738,"å¥³å£«":8739,"ç¼ĵ":8740,"Ċ1.":8741,"æĿľ":8742,"²æĺ¥|":8743,"é²ģ|":8744,"æĲŀ":8745,"éĿĸ":8746,"-L":8747,"å®¿|":8748,"å§ĭ|":8749,"ä¿Ŀ|":8750,"é»İ|":8751,"ä¸ļ|":8752,"Ġåĩ¯åıĳå®¢æĪ·ç«¯":8753,"æ¼³|":8754,"åĤ¨":8755,"çĻ»|":8756,"è¯´ï¼ļâĢľ":8757,"é£İ|":8758,"ĠIntern":8759,"çİ¯äºļapp":8760,"UH":8761,"Ġçī¹èī²æĹ©é¤ĲåºĹåĬłçĽŁ":8762,"é»Ħ|":8763,"æŁı|":8764,"23æĹ¥":8765,"å®¶åħ·":8766,"Ġåħ¨çĲĥåĬłçĽŁç½ĳ":8767,"å¡«":8768,"è§ī|":8769,"å³¶":8770,"æ²¡æľīäºĨ":8771,"ãĢĳãĢĲ0ãĢĳãĢĲ":8772,"èĶ¡|":8773,"SL":8774,"ĿåĮĹ|":8775,"Ġæ¾³éĹ¨ag":8776,"ä½ĵç³»":8777,"å±±å¸Ĥ":8778,"Ġæµ·åįĹ":8779,"Ġåĩ¯åıĳå®¢æĪ·ç«¯ä¸ĭè½½":8780,"ade":8781,"åķĨåĬ¡":8782,"åĬ¨æĹ©é¤ĲåĬłçĽŁ":8783,"åĲĪæĪĲ":8784,"icro":8785,"çķĻè¨Ģ":8786,"ĠèĩªåĬ¨":8787,"åĬłåħ¥":8788,"åĶ±":8789,"çĽĬ|":8790,"name":8791,"ĠçĤ¹åĩ»ï¼ļ":8792,"åĨħéĥ¨":8793,"ä¸įè¶³":8794,"çī¹èī²æĹ©çĤ¹":8795,"æĹ¥æľŁï¼ļ":8796,"Ġ53":8797,"æĴŃæĶ¾":8798,"æ²½|":8799,"str":8800,"Ġ41":8801,"Ċæ³¨åĨĮ":8802,"Ġæĸ¼":8803,"ĠAir":8804,"ç¦ıæĿ¥":8805,"æİ¨è¿Ľ":8806,"Ġ84":8807,"è½¦ç«Ļ":8808,"Ġbet365æīĭæľº":8809,"åĭ¤|":8810,"æ»©|":8811,"Ġ356betçº¿ä¸Ĭ":8812,"æµ·ç½ĳ":8813,"å²³":8814,"Ġ89":8815,"Ġç«¹å±±|":8816,"Ġéł":8817,"beat365":8818,"çļĦéĹ®é¢ĺ":8819,"ĠéĦĤæ¸©åħĭ":8820,"åĨ¶|":8821,"Ġåı°å®ī|":8822,"éĿ¢é¦ĨåĬłçĽŁ":8823,"Ġé»Ķæ±Ł|":8824,"åĽº|":8825,"Ġèµŀ":8826,"ĠæĹ©é¤Ĳç±»åĬłçĽŁ":8827,"æĿ¡æĹ©é¤ĲåĬłçĽŁ":8828,"ĠæĻº":8829,"Ġåģ¥åº·æĹ©é¤ĲåĬłçĽŁ":8830,"Ġå®ľåĲĽ|":8831,"Ġä¹Įåħ°|":8832,"naHQ":8833,"WlnaHQ":8834,"åĩºæ¬¾":8835,"æĹ¶æĹ¶":8836,"åĽŀé¡¾":8837,"ç¾İ|":8838,"Ġ10åĪĨå¿«3":8839,"ï¼Įä½ł":8840,"éĿ¢æĿ¡åĬłçĽŁ":8841,"ĠçĽ´":8842,"ĠèĤĥå®ģ|":8843,"Ġåį¡":8844,"ï¿½o":8845,"WU":8846,"Ġ2020-06":8847,"ç¦ıæĿ¥æĹ©çĤ¹åĬłçĽŁ":8848,"äºĶçłģ":8849,"å¥½çĶ¨":8850,"äººãĢĳãĢĲ":8851,"Ġä¸ľåĮĹæĹ©é¤ĲåĬłçĽŁ":8852,"Ġä¼łç»ŁæĹ©é¤ĲåºĹåĬłçĽŁ":8853,"åıĹä¼¤":8854,"ĠçľŁéĩĳæįķé±¼":8855,"Ġåı£":8856,"ĠæĹ©é¤ĲåĬłçĽŁåĵªä¸ªå¥½":8857,"åİ¦":8858,"ä¸ĭè½½æīĭæľºçīĪ":8859,"Ġèİĺåİ¿|":8860,"Ġvi":8861,"Ġop":8862,"ĠéĦĤæ¸©åħĭæĹıèĩªæ²»":8863,"å±±æ¸¯|":8864,"reate":8865,"æĽĿ":8866,"Ġä¸īäºļ":8867,"è²¸æ¬¾åĪ©çİĩ":8868,"ãĢĤï¼Īå¤®è§Ĩè®°èĢħ":8869,"Ġæ·Ħåįļ":8870,"æ¬§ç¾İ":8871,"ä¸Ģå¤©":8872,"åįķåıĮï¼ļå¤§åıĳ":8873,"åŃ¸çĶŁ":8874,"ĠéĻĪä»ĵ|":8875,"æµİçº³":8876,"ä¼łç»Ł":8877,"è²¸æ¬¾åĹİ":8878,"èĭ±è¯Ń":8879,"æĸ°èģŀ":8880,"èĥ¶":8881,"ĠéĦĤæīĺåħĭåīįæĹĹ|":8882,"äººï¼ļ":8883,"æ¬§çĽŁ":8884,"è±ĨèħĲ":8885,"åĪ°è´¦å¿«":8886,"Ġam":8887,"å¿ĺè®°":8888,"å®ļä½į":8889,"/10":8890,"Ġäºļç¾İam8app":8891,"ĠéĦĤæ¸©åħĭæĹıèĩªæ²»æĹĹ|":8892,"ä¸Ĭä¸ĭåĪĨ":8893,"Ġ365betæīĭæľº":8894,"åĬłæĭ¿å¤§":8895,"Ġé¢Ŀæµİçº³":8896,"éĹ¨æĪ·":8897,"æĻĤéĸĵ":8898,"KX":8899,"QB":8900,"åĨ»ç»ĵ":8901,"ress":8902,"ä¸įåı¯":8903,"Ċï¼Ī":8904,"æ¦Ĩ":8905,"Ġæīİåħ°":8906,"ĠagåĽ½éĻħé¦Ĩ":8907,"ä¿Ĭ":8908,"-åįĥ":8909,"é«ĺåº¦":8910,"å¤§åŀĭ":8911,"ä¹ĭå®¶":8912,"åħ±æľī":8913,"ĠåĪ©æĿ¥w66å¹³åı°":8914,"aWR0a":8915,"åľ°éĵģ":8916,"æ³¨éĶĢ":8917,"lag":8918,"ike":8919,"äºı":8920,"å¥¥ä¸Ģç½ĳ":8921,"Ġç§¯":8922,"QV":8923,"çĽ´å±ŀ":8924,"è¯¦ç»Ĩ":8925,"ĠArt":8926,"Ġlol":8927,"æĮĩåĩºï¼Į":8928,"ĠæĻ¯å¾·":8929,"Ġä¸īéĹ¨":8930,"Ġsp":8931,"ä»Ģä¹Īå¥½":8932,"Zn":8933,"ä¸Ģå®¶":8934,"æ·®":8935,"Ġfalse,":8936,"ĠæľŁ":8937,"Ġï¼Ī1":8938,"ĠçĶ±Hotel":8939,"ĠæĹħæ¸¸":8940,"ĠæĶ¹":8941,"å¹³åĿĩ":8942,"Ġ2019-05":8943,"èĭ¦":8944,"ï¼Ĵ":8945,"aW5":8946,"Ċåıĳå¸ĥæĹ¶éĹ´ï¼ļ":8947,"åĩĢ":8948,"Ġçī¡ä¸¹":8949,"Ġæ¾³éĹ¨çĻ¾å®¶ä¹Ĳçİ©æ³ķ":8950,"åĲİçļĦ":8951,"Ġ69":8952,"ç¹Ŀï¿½":8953,"åĳ¨åīį":8954,"Ġ1.6":8955,"Ċ>":8956,"ä¸»æĮģ":8957,"UZ":8958,"å¯¦":8959,"tYX":8960,"èĢ³åħ¶":8961,"ZnJhb":8962,"Ġå°±":8963,"TV":8964,"Ġåĳ¼åĴĮ":8965,"åı¶":8966,"«èĬ¦":8967,"ä¸ĵé¢ĺ":8968,"Ġno":8969,"Ġä¸ĭè½½çİ¯äºļapp":8970,"+1":8971,"æ¯ķä¸ļ":8972,"æĢİä¹Īç®Ĺ":8973,"GB":8974,"roid":8975,"Ġç§¦çļĩ":8976,"ĊåĲĪèĤ¥":8977,"ĠMar":8978,"ç½ĳç«Ļå¤ĩçĶ¨çĻ»å½ķ":8979,"ivers":8980,"è®¾ç½®ä¸Ńæĸĩ":8981,"cIi":8982,"Ġç³»":8983,"https://":8984,"Ġåİ»":8985,"éī´":8986,"ĠåĤ":8987,"Ġå°Ĭé¾Ļç½ĳç»ľå¹³åı°":8988,"Ġ2åĪĨpk10":8989,"è´µå®¾":8990,"æķ¦":8991,"Ġ356betæīĭæľº":8992,"Ġå¨ģå°¼æĸ¯":8993,"éĢ²":8994,"oh":8995,"Ġäºļç¾İagæĹĹèĪ°åİħä¸ĭè½½":8996,"Ċæ±Łè¥¿äººæ°ĳå¹¿æĴŃçĶµåı°":8997,"çİ°åľºçĽ´æĴŃ":8998,"å¥ī":8999,"çļĦæĥħåĨµ":9000,"æģĲ":9001,"éĢĲ":9002,"YWRz":9003,"ĠçĨ":9004,"APPï¼ļå½©ç¥ŀäºīéľ¸8":9005,"EZ":9006,"appä¸ĭè½½âĢķ":9007,"è°ĥæķ´":9008,"ĠæīĢ":9009,"Ġurl":9010,"ä¾¿æ°ĳ":9011,"äººæ°ĳå¸ģ":9012,"WZ":9013,"Ġ2020-02-24":9014,"CX":9015,"äºĮåĽĽåħŃ":9016,"å±ıæĿ±":9017,"atch":9018,"ç³ĸ":9019,"åĽ½å®¶ä¸»å¸Ńä¹łè¿ĳå¹³":9020,"rid":9021,"è¥¿çĶ²":9022,"Ġåĩ¯åıĳå½©ç¥¨ä¸ĭè½½":9023,"AH":9024,"æ°¸åĪ©":9025,"ĠæİĴ":9026,"éĩįå¤§":9027,"Ġagçİ¯äºļéĽĨåĽ¢å®ĺç½ĳ":9028,"æĬķæ³¨ç½ĳ":9029,"åĵªéĩĮçļĦ":9030,"ash":9031,"é£ŀæľº":9032,"Ġé¢Ŀæµİçº³æĹĹ|":9033,"Ġæ´±":9034,"å±±åĮº|":9035,"å¤§éĺŁ":9036,"åĪ¥":9037,"æĿ¥å°±éĢģ38":9038,"s.comæıĲä¾Ľ":9039,"èģ¯":9040,"Ġçİ¯äºļagæīĭæľºçīĪ":9041,"ĠçĶ±Hotels.comæıĲä¾Ľ":9042,"Ġå°ıãĢĳ":9043,"Ġå·´æŀĹå·¦æĹĹ|":9044,"Ġæľº":9045,"QQ":9046,"Ġ365betçº¿ä¸Ĭ":9047,"ãĢĤèĢĮ":9048,"Ċå¤®è§Ĩ":9049,"Ġèħ¾è®¯æĹ¶æĹ¶å½©":9050,"ange":9051,"ah":9052,"Ġæĸ°èĳ¡äº¬":9053,"Ġ2019-06":9054,"äºļæ¸¸å®ĺç½ĳ":9055,"åĩĮ":9056,"Le":9057,"çĴĲ":9058,"Ġ79":9059,"ĠçĦ¦ä½ľ":9060,"èĤł":9061,"åĲįåŃĹ":9062,"09æľĪ":9063,"oo":9064,"oZWlnaHQ":9065,"ĠagçĽ´æĴŃåİħ":9066,"ĠçĭĹä¸ĩç½ĳåĿĢ":9067,"æĬ¥çłģ":9068,"æī¾ä¸įåĪ°":9069,"çĶ¨åĵģ":9070,"ç½ĳç«Ļåľ°åĽ¾":9071,"æīĭæľ¯":9072,"Ġ365ä½ĵèĤ²æĬķæ³¨å¤ĩçĶ¨":9073,"Ġ2020-04-04":9074,"Ġå¤§èį":9075,"Ġagæ¸¸èīĩä¼ļå®ĺç½ĳ":9076,"Ġ365betå¹³åı°":9077,"Ð»":9078,"è®²è¯Ŀ":9079,"ĠAGäºļ":9080,"ĠCon":9081,"éĢļçŁ¥":9082,"çł´è§£åĻ¨":9083,"ĠåĲķ":9084,"åħ±åĴĮåħļ":9085,"æĢĿæĥ³":9086,"åįľ":9087,"è®¸å¤ļ":9088,"Ġçİ¯äºļagä¸ĭè½½":9089,"Ġåĩ¡":9090,"tem":9091,"ĠåĪ©æĿ¥w66å®ĺç½ĳå®ĺæĸ¹ä¸ĭè½½":9092,"way":9093,"à¸Ńà¸":9094,"éħįéĢģ":9095,"ä¸īèĤĸ":9096,"æıŃ":9097,"w66.com":9098,"Ġåı°åīį":9099,"æĸĩ,":9100,"Ġçĵ¦":9101,"Ġçİ¯äºļéĽĨåĽ¢appä¸ĭè½½":9102,"æĭĸ":9103,"åĭŀå·¥":9104,"46":9105,"Ġ2008":9106,"¢å²":9107,"Ġ83":9108,"Ġk8å¨±ä¹ĲæīĭæľºçīĪç½ĳåĿĢ":9109,"GP":9110,"Ġ2020-02-22":9111,"ç¦ıå½©":9112,"Ġ$(this":9113,"Ċéĵģ":9114,"Ċæ¯ıæĹ¥":9115,"Ġç¥ŀå½©äºīéľ¸":9116,"ĠæīİåĽ":9117,"åĪ©æĿ¥å®ĺç½ĳ":9118,"Ġäº¤éĢļ":9119,"åĲĮæĹ¶ï¼Į":9120,"Ġå²¢å²":9121,"ĵé±¼":9122,"SEO":9123,"Ġ365æ£ĭçīĮçĶµèĦĳ":9124,"Ġ2020-03-29":9125,"Ġæķ°":9126,"Ġbet-":9127,"ä¹ĭåīį":9128,"è¿¹":9129,"Ġå§ľ":9130,"Ġ2020-02-21":9131,"Ġhg":9132,"Ġ365ä½ĵèĤ²æĬķæ³¨æıĲçİ°":9133,"æĳĺè¦ģ":9134,"ĠåĮĹäº¬æĹ©é¤Ĳè½¦åĬłçĽŁ":9135,"Ġçİ¯äºļçľŁäººæ¸¸æĪı":9136,"Ġçİ¯äºļå¨±ä¹Ĳag":9137,"éļıçĿĢ":9138,"Ġä¼ĳ":9139,"ĠãĢĳãĢĲs":9140,"Ġ360":9141,"Ġæĸ°æµª":9142,"éĩıï¼ļ":9143,"Ġ2020-02-20":9144,"ĠçľŁéĴ±æ£ĭçīĮä¸ĭè½½":9145,"è¿ľåİ¿|":9146,"Ġåİ¦éĹ¨":9147,"å®ļåİ¿|":9148,"Ġadmin":9149,"Ġ365å¤ĸåĽ´ç½ĳ":9150,"ç«ŀæĬĢ":9151,"èĬ¯":9152,"æ²ĥ":9153,"ãĢĤ12æľĪ":9154,"åĮĹæºª":9155,"div":9156,"Ġä¹Ŀé¾Ļ":9157,"Ġå¼Ģåħĥæ£ĭçīĮèĥ½":9158,"åĪĹè¡¨":9159,"è®Ģ":9160,"Ġ365çļĩåĨłä½ĵèĤ²":9161,"è¯¾ç¨ĭ":9162,"æĪĳä»¬çļĦ":9163,"æĭĨ":9164,"åľĭéļĽ":9165,"åĵªä¸ªæĺ¯çľŁçļĦ":9166,"æīĭæ¸¸":9167,"Ġè¾½å®ģ":9168,"ĠæŁı":9169,"æ·ĸ":9170,"æģ¢å¤į":9171,"Ġtype:0,":9172,"å®½":9173,"éª¤":9174,"Ġçº¿ä¸ĬçľŁäººç½ĳæĬķ":9175,"ars":9176,"ä¸Ĭå¸Ĥ":9177,"çĶ°åİ¿|":9178,"å®Ŀé©¬":9179,"G9":9180,"å¤©åľ°":9181,"ĊçĽ¸åħ³":9182,"ç§¯åĪĨ":9183,"ĠèİĨ":9184,"æĸ¹åĲĳ":9185,"Ġæį®":9186,"çĹĽ":9187,"Ġçº¿ä¸ĬçľŁéĴ±å¼ĢæĪ·":9188,"Ġä¹°çĲĥ":9189,"å³ª":9190,"empl":9191,"post":9192,"éĮ¢èİĬ":9193,"Ġåĩ¯åıĳå¤ĩçĶ¨ç½ĳåĿĢ":9194,"Ġ73":9195,"row":9196,"é¾į":9197,"ĠéĦĤå°Ķå¤ļ":9198,"Ċ2019-10-23":9199,"Ġéĸĭ":9200,"è®¨è®º":9201,"6b":9202,"Ag":9203,"å°ıåĲĥæĹ©çĤ¹åĬłçĽŁ":9204,"ĠæĿŃéĶ¦æĹĹ|":9205,"Ġ2020-02-23":9206,"åĪĨpkæĭ¾":9207,"éķľ":9208,"Ġ365æ£ĭçīĮæīĭæľº":9209,"Ġçİ¯äºļæĹĹèĪ°åİħä¸ĭè½½":9210,"Ċä¸ĭä¸Ģç¯ĩ":9211,"Ġæ¾³éĹ¨åħŃä¼ļ":9212,"-çļĩ":9213,"çĶ¨äºİ":9214,"æī©":9215,"ĠåŃ¦åİĨ":9216,"å¿«é¤ĲåĬłçĽŁ":9217,"ĠAl":9218,"Ġ72":9219,"Ġ62":9220,"Ġæ¾³éĹ¨356bet":9221,"ä½ľåĩº":9222,"å¹¿æĴŃçĶµè§Ĩ":9223,"Ġå»Ĭ":9224,"US":9225,"Ġæī¾":9226,"èĭĳ":9227,"ĊåįĹäº¬":9228,"ĠéĨ":9229,"ĊæĪĳ":9230,"åľ¨ä¸ŃåĽ½":9231,"ä¿¡èªīçļĦ":9232,"ĠåĽ¾çīĩ":9233,"Ġäºļæ¸¸appéĽĨåĽ¢":9234,"ĠæĻ®æ´±|":9235,"Ġåıĭæĥħéĵ¾æİ¥":9236,"Ġ365è¶³çĲĥå¤ĸåĽ´":9237,"å¥³éĥİ":9238,"Ġ2020-02-18":9239,"Ġåį«":9240,"ĠAP":9241,"çľŁäººæīĭæľºçīĪ":9242,"çĻ¾å§ĵ":9243,"Ġ2019-07":9244,"isplay":9245,"ĠåĽĽèĤĸéĢīä¸ĢèĤĸ":9246,"Ġbet365å¹³åı°":9247,"Ġè¦ģ":9248,"åħŃèĤĸ":9249,"sk":9250,"ĊæĪĲéĥ½":9251,"jcmlwdD":9252,"ãĢĳãĢĲä¸ĢãĢĳãĢĲ":9253,"repl":9254,"åįļçī©é¦Ĩ":9255,"3NjcmlwdD":9256,"4)":9257,"Ġ}else{":9258,"ĊæĺŁå²Ľ":9259,"ĠéĬĢè¡Į":9260,"å¤©ä¸ĭ":9261,"____":9262,"åĬ¨åĬĽ":9263,"-çļĩæģ©éĿłè°±":9264,"æģĴ":9265,"æĬ¥ä»·":9266,"ĠæĶĢ":9267,"ICPå¤ĩ":9268,"åĢ¡":9269,"Ġä¹Įåħ°å¯Ł":9270,"å½©ç¥¨å¤§åıĳå¿«ä¸ī":9271,"ĠpcèĽĭèĽĭ":9272,"Ġèĸ":9273,"èĨľ":9274,"é¼İ":9275,"æĺ¯åģĩ":9276,"Ġme":9277,"book":9278,"SZ":9279,"Ġ356betå¹³åı°":9280,"èį·":9281,"äººä»¬":9282,"å®ĺæĸ¹ç½ĳç«Ļ_":9283,"KZ":9284,"Ġ2020-02-28":9285,"æıĲä¸įäºĨæ¬¾":9286,"èĤ¡ä¸ľ":9287,"æĪĲæľ¬":9288,"Ġé½Ĳé½Ĳ":9289,"ä¹Ŀå·ŀ":9290,"we":9291,"æĸĩä»¶":9292,"åĲĮå¿Ĺ":9293,"Ġ93":9294,"åĬłå·¥":9295,"QH":9296,"æ¹ĸåįĹ":9297,"é¡µéĿ¢":9298,"åįĶåķĨ":9299,"±åİ¿|":9300,"$(\"#":9301,"æļ´å¾Ĵ":9302,"åĽ½çļĦ":9303,"çīĪæĿĥæīĢæľī":9304,"åı£å¸Ĥ|":9305,"Ġbet36æľĢæĸ°":9306,"èĳ±":9307,"Ġæ¹Ľ":9308,"Ġ;":9309,"æīĭæľºæ£ĭçīĮæ¸¸æĪı":9310,"ĠçĬ":9311,"åį¢":9312,"ĠåĽ½å®¶":9313,"ĠæŃ¦å¤·":9314,"ĠKB":9315,"ĠåĪ©æĿ¥w66æīĭæľºçīĪ":9316,"å¤ļä¸ª":9317,"Ġå·´å½¦æ·ĸ":9318,"hl":9319,"Ġ61":9320,"éļĲ":9321,"Ġå¤§åıĳuuå¿«3":9322,"ĠçĭĹä¸ĩåįļ":9323,"Ġé©»":9324,"çº¦ç¿°":9325,"å·ŀåħ¬äº¤":9326,"Ġå¹³é¡¶":9327,"ç»ĺ":9328,"ĠèĩºåįĹå¸Ĥ":9329,"äººå¤§":9330,"å½ª":9331,"æįĲ":9332,"çŁ¥è¯Ĩ":9333,"å¹³å¸Ĥ|":9334,"25l":9335,"æľºä¼ļ":9336,"å½©ç¥¨å¼Ģåħĥæ£ĭçīĮ":9337,"æ²¿":9338,"Ġæ¾³éĹ¨å¨±ä¹Ĳ":9339,"çľŁéĴ±æįķé±¼æ¸¸æĪı":9340,"æ¬²":9341,"QP":9342,"ä¿¡ä»»":9343,"QZ":9344,"6b25l":9345,"åı¯ä»¥è²¸æ¬¾åĹİ":9346,"ĠæģĴ":9347,"åĿĿ":9348,"ĠçĶµçİ©8":9349,"oker":9350,"å¹´åīį":9351,"ä¸įè¦ģ":9352,"Ġæ¾³éĹ¨ç½ĳé¡µ":9353,"äººåľ¨":9354,"æĢİä¹ĪæĬķæ³¨":9355,"ï¼Įè¯¥":9356,"size":9357,"å·ŀå¤©æ°Ķ":9358,"æª¬":9359,"ĠäºļæĲıå¨±ä¹Ĳç½ĳç«Ļåħ¥åı£":9360,"!!":9361,"Ġå·´é©¬|":9362,"ĠçĭĹä¸ĩåħħåĢ¼":9363,"ä¼Ĳ":9364,"æĹĹèĪ°åºĹ":9365,"ä¸Ńæĸ°ç½ĳ":9366,"ç¶Ń":9367,"Ġæ¢§":9368,"éĽ»èħ¦":9369,"åĪĨåĪĨå¿«ä¸ī":9370,"æł¼å°Ķ":9371,"æľĢå¥½":9372,"å½¹":9373,"Ġ2020-04-01":9374,"ĠæĿ¯":9375,"Ġ(0)":9376,"è¾©":9377,"è£ħä¿®":9378,"ĠçľŁäººæ¸¸æĪıä¸ĭè½½":9379,"æ¸Ķ":9380,"æ¨¡æĭŁ":9381,"Ġé¢Ħ":9382,"Ġå¸®":9383,"ĊãĢĬ":9384,"2019-12":9385,"çľŁäººçİ°åľº":9386,"Ġäºļç¾İam8æ³¨åĨĮ":9387,"Ġè¥¿çĽŁ|":9388,"æĭĺ":9389,"EH":9390,"æĪĳåĽ½":9391,"Ġéĥ´":9392,"èı²å¾ĭå®¾":9393,"ãĢĳãĢĲpãĢĳãĢĲx":9394,"Ġtv":9395,"ĆĆ":9396,"ĠåĽ¢":9397,"åĪĨåĪ«":9398,"Ġ92":9399,"ĠæĹ¶éĹ´ï¼ļ2019å¹´":9400,"ä»ĳ":9401,"åīĩ":9402,"å¤ªåģĩ":9403,"æİĴåĪĹ5":9404,"ĠåŃĻ":9405,"ĠéĿŀ":9406,"ĠæĶĢæŀĿ":9407,"å¼Ħ":9408,"ĊåĲ´":9409,"æ°ĳä¼Ĺ":9410,"ç¯Ģ":9411,"ĠæĿ¨åĽ½ç¦ıéº»è¾£çĥ«åĬłçĽŁè´¹":9412,"âĢľä¸Ģå¸¦ä¸Ģè·¯âĢĿ":9413,"uccess":9414,"Ch":9415,"ĠçŁ¥åĲįæĹ©é¤ĲåĬłçĽŁ":9416,"true":9417,"æī°":9418,"Ġç¹Ŀï½":9419,"mer":9420,"åħ¬åĬ¡":9421,"Ġribo88":9422,"Ġæ²³åĮĹæĹ©é¤ĲåĬłçĽŁ":9423,"Ġä¸īåİ¢":9424,"ç¹§ï½¯":9425,"åģĩåĲĹ":9426,"Ġæĺ¥åħīæĹ©é¤ĲåĬłçĽŁ":9427,"Ġpk10éķ¿é¾Ļ":9428,"å¼ĢåºĹ":9429,"Ċéĵģè¡Ģ":9430,"Ġ2020-04-08":9431,"Ġæ±ł":9432,"Ġ2020-04-06":9433,"ç¹Ŀï½¬":9434,"ĊI":9435,"ĠçĤ¹åĩ»:":9436,"æµ´":9437,"yXG":9438,"Ġèĳ«èĬ¦":9439,"åħ¬å¸ĥ":9440,"åĪĨ11éĢī5":9441,"Ã¡":9442,"Ġclass":9443,"ĠReserved.":9444,"æł¡åĽŃ":9445,"Ġé©»é©¬":9446,"Ċ2.":9447,"Ġagçİ¯äºļå®ĺç½ĳä¸ĭè½½":9448,"ĠåŃ¦åİĨä¸įéĻĲ":9449,"ä¸¤ä¸ª":9450,"ĠçĪ±å¿ĥæĹ©é¤ĲåĬłçĽŁ":9451,"Ċå¤§ä¼ĹæĹ¥æĬ¥":9452,"ĠæĹ©çĤ¹åĬłçĽŁåºĹ10å¤§åĵģçīĮ":9453,"ĠåįĸæĹ©é¤ĲåĬłçĽŁ":9454,"Ġåĩ¡å¤«åŃĲæĹ©é¤ĲåĬłçĽŁ":9455,"Ġçİ¯äºļåľ¨çº¿":9456,"ĠæĹ©çĤ¹åĬłçĽŁåºĹæİĴè¡Įæ¦ľ":9457,"Ġåľĭ":9458,"äººæ°ĳæĹ¥æĬ¥":9459,"ĠçĭĹä¸ĩä¸įèĥ½":9460,"Ġç§Ł":9461,"æľīä»Ģä¹Īè¦ģæ±Ĥ":9462,"æ³Ľ":9463,"Ġ82":9464,"ould":9465,"éĸĭç®±":9466,"å®´":9467,"Ġå¤©æ´¥æĹ©çĤ¹åĬłçĽŁæľīåĵªäºĽ":9468,"èº«ä»½è¯ģ":9469,"ĠæĹ©é¤Ĳé¥®åĵģåĬłçĽŁ":9470,"ĠæĹ©çĤ¹åĬłçĽŁåºĹæľīåĵªäºĽl":9471,"ĠåĪ©æĿ¥w66å®ĺæĸ¹ç½ĳ":9472,"Ġä¸ĭè½½å°Ĭé¾Ļapp":9473,"Ġla":9474,"ĠæĹ©çĤ¹æĿ¥åĬłçĽŁ":9475,"Ġå¤©æ´¥æĹ©çĤ¹å°ıåĲĥåŁ¹è®ŃåĬłçĽŁ":9476,"å°¤":9477,"Ġagå®ĺæĸ¹ç½ĳç«Ļ":9478,"æĢ»æĺ¯":9479,"Â©":9480,"Ġid":9481,"èĥ½å¤Ł":9482,"Ġæ¾³éĹ¨åįģå¤§":9483,"Ġåħ»çĶŁæĹ©é¤ĲåĬłçĽŁ":9484,"å·¨å¤§":9485,"ux":9486,"office":9487,"Ġ365betå®ĺç½ĳå¤ĩçĶ¨":9488,"å®ĺæĸ¹å¼ĢæĪ·":9489,"lc8":9490,"ç¦ģæŃ¢":9491,"è¿Ķæ°´":9492,"äºĭä¸ļ":9493,"éĺ³å¸Ĥ":9494,"ç´§æĢ¥":9495,"Ġ71":9496,"Ġä»¥":9497,"ĠèĻİ":9498,"èµ·æĿ¥":9499,"Ġä½³æľ¨":9500,"Ġ2018-12":9501,"Ġå¼Ģåħĥæ£ĭçīĮçīĽçīĽ":9502,"5çłģ":9503,"å®īæİĴ":9504,"çľģæĶ¿åºľ":9505,"Ġçİ©å¤§åıĳå¿«ä¸ī":9506,"ï¼Įè¦ģ":9507,"Ġè¡Įä¸ļ":9508,"ĠåĪ©æĿ¥w66å®ĺæĸ¹ç½ĳç«Ļ":9509,"ç»ĵæĿŁæĬķæ³¨":9510,"Ġç¥ŀå½©äºīéľ¸8":9511,"æĿ©":9512,"éĤ®ç®±éªĮè¯ģ":9513,"æĨ":9514,"æıĲäº¤":9515,"å¨±ä¹Ĳæīĭæľºå¹³åı°":9516,"OFwi":9517,"Ġä¸ľèİŀ":9518,"Ġtime":9519,"/3":9520,"åĲ¯åĬ¨":9521,"çļĦå¹³åı°":9522,"Ġ2020-04-07":9523,"å¤ªéĺ³åŁİ":9524,"Ġåĩī":9525,"æ£ĢæŁ¥":9526,"ä½ĵèĤ²å½©ç¥¨":9527,"Ġå¿«ä¸īå¤§åıĳ":9528,"æĹ©çĤ¹æĢİä¹ĪåĬłçĽŁ":9529,"åįİæĹ©çĤ¹æĢİä¹ĪåĬłçĽŁ":9530,"ĠåĪ©æĿ¥w66èĢģçīĮ":9531,"Ġæ¾³éĹ¨æ£ĭçīĮå¨±ä¹Ĳæīĭæľºå¹³åı°":9532,"çº¯":9533,"ĊJ":9534,"æ±Łç½ĳ":9535,"TC":9536,"Ġ81":9537,"\":\"":9538,"çĻ»åħ¥_":9539,"Ġ2020-04-02":9540,"ç½ĳ,":9541,"ĠéĿ©":9542,"æĶ¯ä»ĺå®Ŀ":9543,"éľĢæ±Ĥ":9544,"çļĦå°ı":9545,"ĠccåĽ½éĻħç½ĳæĬķå¹³åı°":9546,"Ġè¶Ĭ":9547,"2lk":9548,"Ġçİ¯äºļéĽĨåĽ¢agå¥³éĥİ":9549,"Ġ365betå®ĺç½ĳæıĲçİ°":9550,"Ġagäºļæ¸¸éĽĨåĽ¢":9551,"çĸŁ":9552,"åĲķå¸ĥ":9553,"çİ©æ³ķ_":9554,"ç±³éĵº":9555,"Ġå°Ĭé¾Ļå¹³åı°":9556,"æĶ»åĿļ":9557,"Ġå¿ĥ":9558,"èº«ä½ĵ":9559,"æĹ©çĤ¹å·¥ç¨ĭåĬłçĽŁ":9560,"éĮĦ":9561,"åı£é¦Ļ":9562,"Ġèħ¾åĨ²":9563,"æĹ©é¤Ĳå·¥ç¨ĭåĬłçĽŁ":9564,"èģĶèµĽçĽ´æĴŃ":9565,"Ġå¸¦":9566,"Ġå¾Ĺ":9567,"Ġéĥ½åĮ":9568,"ç»ıæµİç½ĳ":9569,"Ġ365æ£ĭçīĮå®¢æľį":9570,"ĠæķĻèĤ²":9571,"çĽ´æĴŃ_":9572,"çĸŁçĸ¾":9573,"Ġ\\":9574,"ç´Ħ":9575,"å¦Ĥä½ķè²¸æ¬¾":9576,"font":9577,"®è©¢":9578,"hv":9579,"Ġèµ¶":9580,"Ċâĸ":9581,"ĠåıĮé¸Ń":9582,"Ċå±±ä¸ľ":9583,"ÅŁ":9584,"åľ¨çº¿å¨±ä¹Ĳ":9585,"åĩłçĤ¹":9586,"è¡Ĺéģĵ":9587,"å¤ľå®µ":9588,"å¹¸è¿Ĳé£ŀèīĩ":9589,"å¼Ł":9590,"Ġ365you":9591,"Ġ2020-04-05":9592,"Ġç«Ļ":9593,"ĠæĿ¯æĬķæ³¨":9594,"Ġæ¼¯":9595,"Ĺï¿½":9596,"ä¸¦":9597,"è±ĨèħĲèĦĳ":9598,"åĵĦ":9599,"ç¾İæĹ©é¤ĲåĬłçĽŁ":9600,"Ġsim":9601,"è±ĨèħĲèĦĳåĬłçĽŁ":9602,"Ġçĵ·éĥ½":9603,"æ³ķåĪ¶":9604,"ĠçĻ½éĵ¶":9605,"åı£é¦ĻæĹ©çĤ¹åĬłçĽŁ":9606,"åı¯ä¿¡åĲĹ":9607,"Ġå°Ĭé¾Ļæ³¨åĨĮ":9608,"å¤ľå®µåĬłçĽŁ":9609,"ä¸įå¥½":9610,"åħįè²»":9611,"Ġç¥ŀåĨľæŀ¶":9612,"åħįè´¹åĬłçĽŁ":9613,"æĹ©çĤ¹è½¦":9614,"æĹ©çĤ¹è½¦æĢİä¹ĪåĬłçĽŁ":9615,"å°ıåĲĥåºĹåĬłçĽŁ":9616,"çļĦåĬłçĽŁ":9617,"ãĢĤåİŁæłĩé¢ĺï¼ļ":9618,"Ġ2020-02-27":9619,"å°ļæĹ©é¤ĲåĬłçĽŁ":9620,"ç¦ıæĹ©é¤ĲåĬłçĽŁ":9621,"ĠID":9622,"GZ":9623,"ĩï¿½":9624,"Ĺç²®":9625,"12æľĪ20æĹ¥çĶµ":9626,"æĹ©çĤ¹åĬłçĽŁå¥½":9627,"Ġwho":9628,"îĿ":9629,"æ´ĭèĳ±":9630,"æľĽæĹ©é¤ĲåĬłçĽŁ":9631,"åľĨ":9632,"ci":9633,"Ġè»Ĭ":9634,"é¥ŃåĬłçĽŁ":9635,"æĲľçĭĲ":9636,"ĠAntiAd":9637,"è³ĩè¨Ĭ":9638,"èĤłç²ī":9639,"æĳĬåĬłçĽŁ":9640,"Ġéŀį":9641,"è®¸åĬłçĽŁ":9642,"å¾ģæĹ©é¤ĲåĬłçĽŁ":9643,"æ¿ł":9644,"é«ĺæ½®":9645,"äºŃåĬłçĽŁ":9646,"top":9647,"su":9648,":office":9649,"è¿ŀéĶģåĬłçĽŁåºĹ":9650,"ĠæĹ¥åĸĢ":9651,"å¤ĩçĶ¨ç½ĳåĿĢåĻ¨":9652,"åºĦéĹ²":9653,"Ġäºļç¾İå¤ļä¸ĢçĤ¹":9654,"Ġäºĳæµ®":9655,"æ£ĴçĲĥ":9656,"no":9657,"èĤłç²īåĬłçĽŁ":9658,"Ġçº¢é»ĳå¤§æĪĺ":9659,"åĮħåŃĲåºĹåĬłçĽŁ":9660,"Ĺç²®æĹ©é¤ĲåĬłçĽŁ":9661,"äº¤æµģç¾¤_":9662,"ä¾¿æ°ĳæĹ©çĤ¹åĬłçĽŁ":9663,"éĵºåĬłçĽŁ":9664,"èĢģçļĦåĵģçīĮ":9665,"Ċç½ĳæĺĵæĸ°éĹ»":9666,"åıĳå°Ħ":9667,"æĪ¶":9668,"åĩıå°ĳ":9669,"ãĢĤè¯¥":9670,"Ċ2019-10-19":9671,"æĮº":9672,"è¡Įä¸ļåĬłçĽŁ":9673,"ä¸Ńç¾İ":9674,"ĠæĻ®åħ°":9675,"Ġ10åĪĨæĹ¶æĹ¶å½©":9676,"è¾ħåĬ©åĻ¨":9677,"ĠèĲį":9678,"å¿Ļ":9679,"Ġí":9680,"åĲĪæĪĲæĹ©é¤ĲåĬłçĽŁ":9681,"æĸ°äº¬æĬ¥è®°èĢħ":9682,"éĴ¢æĹ©é¤ĲåĬłçĽŁ":9683,"æľīæĹ©çĤ¹åĬłçĽŁ":9684,"ĠæľĶ":9685,"Ġ365éĿ¢å¯¹éĿ¢":9686,"Ġç»¿èī²":9687,"ĠéĴ¦":9688,"æŃ¤æ¬¡":9689,"å¸¦æĿ¥":9690,"éĤĵ":9691,"ï¿½ï¿½ï¿½ï¿½ï¿½ï¿½ï¿½ï¿½":9692,"12æľĪ19æĹ¥":9693,"åľ°åįĢ(":9694,"åħ±èµ¢åħ±æ¬¢ä¹Ĳ":9695,"reat":9696,"å®ŀåĲį":9697,"Val":9698,"è¸ª":9699,"Ġ365æ£ĭçīĮä¸ĬåĪĨ":9700,"ĠåĲ¯":9701,"æĲº":9702,"Ġæĸ°èĳ¡èĲĦäº¬":9703,"çİ°ä»£":9704,"åĬŀçĲĨ":9705,"Ġèĥ½":9706,"Ġæīĭæľºåı·":9707,"Ċ2019-10-16":9708,"Ġ->":9709,"ê³":9710,"Ġåĩ¯æĹ¶æ¸¸æĪı":9711,"æĹłæ³ķæīĵå¼Ģ":9712,"å½©å½©ç¥¨":9713,"è«®è©¢":9714,"èĻļæĭŁ":9715,"ä¹°å½©ç¥¨":9716,"Ġèİ±èĬ":9717,"Ġå¤§åıĳå¿«ä¸īå¼Ģå¥ĸ":9718,"å¹¿å·ŀ":9719,"èİ«æĸ¯ç§ĳ":9720,"ï¼Įåıª":9721,"åĳ¨åīįï¼ī":9722,"èĭ¹æŀľçīĪ_":9723,"Ġï¼Ī1åĳ¨åīįï¼ī":9724,"æ¯ģ":9725,"æķ¢":9726,"ĊâĢľ":9727,"è²ł":9728,"Ġéĺ¿é²ģ":9729,"Ry":9730,"åĪº":9731,"Ġäºļæ¸¸åĽ½éĻħéĽĨåĽ¢å®ĺç½ĳ":9732,"èĦ¸":9733,"æ´¥åİ¿|":9734,"Ġky":9735,"è¯ģæĺİ":9736,"Ġæ»ģ":9737,"å·ŀ30å¤©å¤©æ°Ķ":9738,"åĨĽäºĭ":9739,"ĠçĻ¾èī²":9740,"å¤§ãĢĳãĢĲ":9741,"ï¼Įè¿Ļæĺ¯":9742,"æĥ¨":9743,"æ®Ĭ":9744,"ĠéĵľéĻµ":9745,"å¤§ä¼Ĺ":9746,"åĨĴçĶ¨":9747,"æ¾³æ´²":9748,"Ġbet365çľŁäºº":9749,"éļıæľº":9750,"æĹħæ¸¸å±Ģ":9751,"ĠArea)":9752,"ĠæµİåįĹ|":9753,"Ġå¤©æ°´|":9754,"çĶ¨ä»Ģä¹Ī":9755,"Ġå°¤":9756,"èĳ¬":9757,"æĶĢ":9758,"ical":9759,"æĹłæ³ķéªĮè¯ģ":9760,"å¸¶":9761,"å·ŀ15å¤©å¤©æ°Ķ":9762,"ĠçľŁäººçĻ»å½ķ":9763,"å°ĳå¹´":9764,"åĮ¹":9765,"check":9766,"Ġèİ«":9767,"æĦŁè°¢":9768,"-m":9769,"67":9770,"ĠCent":9771,"æıĲéĨĴ":9772,"ĠåŃĿæĦŁ":9773,"Ġåħįè²»":9774,"æķı":9775,"Ġ2020-03-30":9776,"ç¦»å¼Ģ":9777,"çĪµ":9778,"å½¢æĪĲ":9779,"å·ŀ10å¤©å¤©æ°Ķ":9780,"Ġbet365äºļæ´²":9781,"Ġä¸ĬèĻ":9782,"è¿Ľåı£":9783,"åĵªè£¡åı¯ä»¥":9784,"Ġå¨Ħåºķ":9785,"èİİ":9786,"çĲĥæİ¢":9787,"åı¯ä»¥æıĲçİ°":9788,"éĩĩè®¿":9789,"Ċ2019-10-21":9790,"Ġå¸®åĬ©":9791,"Ġå¼łæİ":9792,"å£¹":9793,"ĠCo.":9794,"Ċä¸Ĭä¸ĢæĿ¡":9795,"ĠåİŁæłĩé¢ĺï¼ļ":9796,"}|":9797,"_id":9798,"Ġex":9799,"Ġåĩ¯åıĳæīĭæľºå®ĺç½ĳ":9800,"æĲ¬":9801,"49":9802,"Ġå·¢":9803,"æ¸¸æĪı_":9804,"ĊæĹ¶éĹ´ï¼ļ2020å¹´04æľĪ":9805,"Ġå¤§åıĳçº¢é»ĳå¤§æĪĺ":9806,"Ġæµıè§Īæ¬¡æķ°ï¼ļ":9807,"æĺ¯âĢľ":9808,"ç§ĳå°Ķæ²ģ":9809,"Ġä¸ĩåįļä½ĵèĤ²3.0":9810,"CZ":9811,"ÖĤ":9812,"åģļä»£çĲĨ":9813,"ĠåħŃçĽĺ":9814,"Ġ365betæıĲçİ°":9815,"ĠéľįéĤ±|":9816,"ĠApp":9817,"ĠåĽ½åĨħ":9818,"soft":9819,"Ġæįķé±¼æ¸¸æĪı":9820,"Ġäºļç¾İä¼ĺæĥłæ°¸è¿ľå¤ļä¸ĢçĤ¹":9821,"Ġé»ŀ":9822,"åĬ¨è½¦":9823,"Ġé¡µ":9824,"å®ĺç½ĳæ¬¢è¿İæĤ¨":9825,"æľīappåĲĹ":9826,"å¦Ĥä»Ĭ":9827,"æ²ī":9828,"Ġäºļæ¸¸éĽĨåĽ¢app":9829,"ĠäºĮè¿ŀ":9830,"æķ°éĩı":9831,"åĬ«":9832,"Ġèĩ³":9833,"èµĦéĩĳ":9834,"Ġç½ĳç»ľçľŁäººèµĮéĴ±":9835,"ĠåĲīæľ¨èĲ¨":9836,"Ġçİ¯äºļagæīĭæľºçĻ»å½ķ":9837,"TML":9838,"å¤§å¥ĸ":9839,"è®®ä¼ļ":9840,"åĹİ?":9841,"å¼¹åĬ¾æĿ¡æ¬¾":9842,"Ġå¾Ī":9843,"ĠåĸĢåĸĩæ²ģ":9844,"èĶ¡":9845,"Ġé¦ĸçĪ¾":9846,"åħ·æľī":9847,"Ġåīįå¤©20":9848,"Ġå¼ĵ":9849,"ĠæīĭæľºçīĪ":9850,"Ġåĺīå³ª":9851,"orld":9852,"ven":9853,"Ġå°Ĭé¾Ļç½ĳåĿĢ":9854,"åľ°ä¸ĭéĮ¢èİĬ":9855,"Ġæ£ĭçīĮæ¸¸æĪı":9856,"agæĹĹèĪ°":9857,"ï¼ĮåĽłä¸º":9858,"ĊæĤ¨å½ĵåīį":9859,"Ġå¼Ģåħĥæ£ĭçīĮçļĦ":9860,"Ġå¤§åıĳå¿«ä¸īåĴĮåĢ¼":9861,"Ġåľ¨çº¿å¿«3":9862,"Ġè¥¿èĹı":9863,"åħ¬ç½ĳ":9864,"å¼Ģå¥ĸåİĨåı²_":9865,"Ġå¤§åıĳå¿«ä¸īè®¡åĪĴ":9866,"Ġçİ¯äºļçĶµæ¸¸app":9867,"å®ļåĪ¶":9868,"Ġä¸ĥåı°":9869,"åĲĪçĲĨ":9870,"ï»¿ï»¿ï»¿ï»¿":9871,"Ġç½ĳé¡µ":9872,"èĪªæ¯į":9873,"Ġ246":9874,"Ċ2019-10-18":9875,"çĶµæ°Ķå®ĺç½ĳ":9876,"å»³":9877,"çĶµæ°Ķå®ĺç½ĳåĩ¯åıĳå®ĺç½ĳ":9878,"è±¹åŃĲ_":9879,"Ġçİ¯äºļçĶµæ¸¸æīĭæľºçīĪ":9880,"ĠInternational":9881,"ä»ĭç»įï¼Į":9882,"Ġåĩ¯åıĳçĶµæ°Ķå®ĺç½ĳåĩ¯åıĳå®ĺç½ĳ":9883,"Ġå´":9884,"åĮĹäº¬å¸Ĥ":9885,"ĠåĪ©æĿ¥w66.com":9886,"Ġéĥ¨èĲ½å®¢":9887,"åĨħçļĦ":9888,"ĊåįĹäº¬å¤´æĿ¡":9889,"ä¿Ĺ":9890,"Ġå¹³åĩ":9891,"çº³|":9892,"åħīæĺİç½ĳ":9893,"ĠæīĭæľºèµĮéĴ±æ¸¸æĪı":9894,"ç²¾åĵģ":9895,"Ġæ½ŀ":9896,"Ċ2019-04":9897,"èŃīä»¶åĢŁéĮ¢":9898,"æ³¨åįķ":9899,"åĸĬ":9900,"Ġéĺ¿é²ģç§ĳå°Ķæ²ģ":9901,"ĠLe":9902,"aaaa":9903,"æ¶¦":9904,"ft":9905,"Is":9906,"çļĦå·¥ä½ľ":9907,"h0":9908,"æĿĳæ°ĳ":9909,"Ġå°Ĭé¾Ļå¤ĩçĶ¨ç½ĳåĿĢå¼ĢæĪ·":9910,"9u":9911,"è¿ĳæĹ¥ï¼Į":9912,"ĠèĲ¬":9913,"().":9914,"åĪĨéĴŁéĴŁ":9915,".com.cn":9916,"ĊæĻĭæ±Łæĸ°éĹ»ç½ĳ":9917,"ãĢĳãĢĲãĢĤãĢĳãĢĲ<ãĢĳãĢĲ/":9918,"æ¬£":9919,"æİī":9920,"Ġåħ«ä¸Ģ":9921,"bd":9922,"Ġäºļæ´²æ¸¸":9923,"è¾¨":9924,"Ġçļĩæģ©éĿłè°±":9925,"é¾Ļç½ĳ":9926,"Ġéĵĥå£°":9927,"è¯Ģçªį_":9928,"å£®":9929,"error":9930,"å¥Ī":9931,"åħįè´¹åħ¬å¼Ģ":9932,"ëĭ¤":9933,"ĠéĤ¹":9934,"365ä½ĵèĤ²åľ¨çº¿":9935,"åĨľåľº":9936,"Ċ2019-10-15":9937,"èĩªæĪĳ":9938,"åĴĮåĢ¼_":9939,"çĤ¹cc":9940,"æĦıå¤§åĪ©":9941,"ä¸ľæĸ¹":9942,"è»į":9943,"åİŁåİ¿|":9944,"å¤§è¿ŀ":9945,"æĬ¥èŃ¦":9946,"æ·ĺ":9947,"æµ·å¸Ĥ|":9948,"çĨĬçĮ«":9949,"ĠçĽĳ":9950,"Ċ2019-10-22":9951,"éĤĳåİ¿|":9952,"å·´é»İ":9953,"å¼Ģå¥ĸç»ĵæŀľæŁ¥è¯¢":9954,"Ġé¼":9955,"çĸ«æĥħ":9956,"æĪ¿åŃĲ":9957,"Ġbet365å®ĺæĸ¹":9958,"èģĶéĤ¦":9959,"çĶ·åŃ©":9960,"Ġhas":9961,"çĶļèĩ³":9962,"Ġíķ":9963,"Ċ2018-10":9964,"çĪĨåĪĨ":9965,"Ġ2020-04-03":9966,"çĤĴ":9967,"å·Ŀå¸Ĥ|":9968,"Ġfunction()":9969,"æ³īåİ¿|":9970,"Ġæķ¦åĮĸ|":9971,"å®¶å±ŀ":9972,"Ind":9973,"ï¼Įä¸ŃåĽ½":9974,"ìĿ´":9975,"åıªï¿½":9976,"Ġåĩ¯åıĳçĽ´æĴŃapp":9977,"Ġåºĵå°Ķ":9978,"æ³½åİ¿|":9979,"Ġèµ¶éĽĨ":9980,"Ġ356betæıĲçİ°":9981,"ĠäºĶèİ²|":9982,"li":9983,"æ·±åħ¥":9984,"æĮĳæĪĺ":9985,"Ġçªģæ³ī|":9986,"æľĢæĸ°çĻ»å½ķç½ĳç«Ļ":9987,"Ġæ³ķå¾ĭ":9988,"æºĲçłģ":9989,"Ġå¤§åĲį|":9990,"æĽ¹":9991,"Ġæ¹ĸåı£|":9992,"ĠæĶ¾":9993,"éĻĲé¢Ŀ":9994,"ĠmainCommentCount:0,":9995,"ĠcommentCount:0,":9996,"ĠChina":9997,"Ġé¦Ļæ²³|":9998,"ĠæĹº":9999,"+app":10000,"ĠçīŁå®ļ|":10001,"åŀĥåľ¾":10002,"Ġå°Ĭé¾Ļå¤ĩçĶ¨ç½ĳç«Ļ":10003,"TE":10004,"Ġéĺ¿åŁİ|":10005,"èĭ¹æŀľAPPï¼ļå½©ç¥ŀ":10006,"Ġæ´±æºĲ|":10007,"ĠåĪ©æĿ¥æ¸¸æĪı":10008,"Ġbt365ä½ĵèĤ²æĬķæ³¨":10009,"Ġå²Ĳå±±|":10010,"ĠåĴĮé¾Ļ|":10011,"Ċ365bet":10012,"ĠèĬĴ":10013,"Ġåĺīç¦¾|":10014,"ï¼ļå½©ç¥ŀäºīéľ¸8":10015,"82":10016,"54":10017,"æ»©":10018,"åĲįç§°":10019,"ond":10020,"ĠæĿ¾æ±Ł|":10021,"èĩªåĬ©":10022,"ï¼ĮæĽ´":10023,"é©±":10024,"lic":10025,"Ġç¦ıå½©":10026,"æİ¥åı£":10027,"ãĢĤæĪĳ":10028,"ä¸Ģä½į":10029,"åĬ¨çī©":10030,"æĵļ":10031,"ĠçīĻ":10032,"Ġè°·":10033,"Ġå¯ŁåĵĪå°Ķåı³ç¿¼åĲİæĹĹ|":10034,"Ġå¥¥":10035,"indow.":10036,"ĊèĲ§":10037,"ç½ĳ|":10038,"Ġå¤§èįĶ|":10039,"æŃ¥éª¤":10040,"Ġåıĸæ¶Ī":10041,"Ġåı°åīį|":10042,"æĲ¶":10043,"æľµ":10044,"ĠæŃ£éĺ³|":10045,"Ġæīİåħ°å±¯|":10046,"Ġç¯":10047,"Ġä¹Įé©¬":10048,"Ĺİ":10049,"Ġä¸īåĪĨæĹ¶æĹ¶å½©":10050,"ĠæľĢå¥½çļĦ":10051,"AM":10052,"Ġ2020-04-09":10053,"Ġä¹Įåħ°æµ©çī¹|":10054,"æĹłäºº":10055,"Y29":10056,"èĲ½å®ŀ":10057,"IOSä¸ĭè½½_":10058,"æ¸¯æ¾³":10059,"Ġå®ģæ³¢":10060,"æĸ½å·¥":10061,"Ġåĳ¼çİĽ|":10062,"èĩºåįĹå¸Ĥ":10063,"Ġ!=":10064,"æ£Ģå¯Ł":10065,"Ġç¿ģæºĲ|":10066,"Ġæ¶¿é¹¿|":10067,"ä¸Ńæĸĩå®ĺç½ĳ":10068,"å°ıåĮº":10069,"Ġ365ä½ĵèĤ²å®ĺæĸ¹":10070,"ä¸ĭè½½å®¢æĪ·ç«¯":10071,"ĠAp":10072,"æĹłæ³ķæıĲçİ°":10073,"ï¼Įè¢«":10074,"åķıé¡Į":10075,"é¢Ĩå¯¼äºº":10076,"è¾ŀ":10077,"ĊH":10078,"Ġä¹Įå½ĵ|":10079,"Ġ2019-11-18":10080,"ater":10081,"ĠæīİåĽĬ|":10082,"è¢ĸ":10083,"ĠæľŃè¾¾|":10084,"ĠåĬ¡":10085,"éĤĬ":10086,"ĠåĸĢåĸĩæ²ģå·¦ç¿¼":10087,"Ġå²¢å²ļ|":10088,"cessed":10089,"Ġåıĳå¸ĥæĹ¶éĹ´ï¼ļ2020-0":10090,"Ġå¼ĵéķ¿":10091,"èĥ½æıĲçİ°":10092,"å¹¼":10093,"èĥľå½ª":10094,"ĠèĽ":10095,"èĥľå½ªä¸ĵæłı":10096,"Ġwww.baidu.com/":10097,"æķ°ï¼ļ":10098,"ui":10099,"p>":10100,"åĪ©äºļ":10101,"ĊåĲ´èĥľå½ªä¸ĵæłı":10102,"Ġæµ®æ¢ģ|":10103,"è©ķæ¯Ķ":10104,"Ġé¢Ŀå°Ķåı¤çº³|":10105,"(data":10106,"è°Ĭ":10107,"Ġä¹Įé©¬æ²³|":10108,"Ġèİ·":10109,"èĦ±|":10110,"éĩĮéĿ¢":10111,"???":10112,"Ġæ±Łèĭıå¿«3":10113,"Ġå¼ĵéķ¿å²Ń|":10114,"Ġéħį":10115,"ĠåĸĢåĸĩæ²ģå·¦ç¿¼|":10116,"Ġè±ª":10117,"Ġab":10118,"èĪį":10119,"ĠæĿľéĽĨ|":10120,"æ²»çĸĹ":10121,"Ġéĺ¿é²ģç§ĳå°Ķæ²ģæĹĹ|":10122,"Ġå¢¨èĦ±|":10123,"ä¸īåħ¬":10124,"Ġ365æ£ĭçīĮæ°´æŀľæľº":10125,"Ġåīįå¤©04":10126,"çľŁäººçĽ´æĴŃ":10127,"ĠæĢĢæŁ":10128,"åĺİ":10129,"èĢģäºº":10130,"Ġåīįå¤©19":10131,"åħ¨å¤©è®¡åĪĴ_":10132,"2016å¹´":10133,"Image":10134,"Ġéĺ¿åĽ¾":10135,"Ġå°Ĭé¾Ļæ£ĭçīĮ":10136,"Ġéĺ¿çĵ¦":10137,"æŃ¦æ±ī":10138,"æīĭæľºçīĪ_":10139,"ç¼´":10140,"ãĢĤä¹łè¿ĳå¹³":10141,"åĲĦåľ°":10142,"äººå·¥è®¡åĪĴ":10143,"ech":10144,"Ġéĺ¿æĭīåĸĦåı³æĹĹ|":10145,"Ġäºļç¾İä¼ĺæĥłå¤ļä¸ĢçĤ¹":10146,"æĹ¢":10147,"Ġåħ«ä¸Ģéķĩ|":10148,"UUå¿«3":10149,"å±±åİ¿":10150,"ĠæĹ¥åľŁ":10151,"lock":10152,"ĠåĪ©æĿ¥w66æľĢç»ĻåĪ©çļĦèĢģçīĮ":10153,"Ġ[];":10154,"ĠäºļæĲıä¸ĭè½½å®¢æĪ·ç«¯":10155,"ï¼İ":10156,"ĠäºļæĲıçľŁäººçĽ´æĴŃ":10157,"Ġ2020-03-31":10158,"æĭ¥æľī":10159,"æĪ¿éĹ´":10160,"ãĢĳãĢĲäººãĢĳãĢĲ":10161,"(0)":10162,"ĠéĹ¨å¤´":10163,"Ġéĥİ":10164,"ìĦ":10165,"ä¿¡åı·":10166,"ĠéĦ¯":10167,"ĠçĭĹä¸ĩä¹°çĲĥ":10168,"ĊThe":10169,"ĠçĶµçİ©åŁİæįķé±¼":10170,"à¸«":10171,"Ġå¸®åĬ©ä¸Ńå¿ĥ":10172,"ä¸ĩçĭĹ":10173,"ï¼ĵ":10174,"çħ§çīĩ":10175,"æĸ°ç¤¾":10176,"åľ¨åĮĹäº¬":10177,"ĸéľ":10178,"Ĥåİ¿|":10179,"ç¼©":10180,"ĠèģĤæĭī":10181,"éļĬ":10182,"æ³¨åĨĮå¼ĢæĪ·":10183,"Ġï¿¥":10184,"ä¿¡èªīç½ĳç«Ļ":10185,"Ġåĩ¯æĹ¶åĽ½éĻħå¼ĢæĪ·":10186,"è§£ç»ĳ":10187,"§ï¿½":10188,"_å¤§åıĳ":10189,"word":10190,"çº¦ç¿°éĢĬ":10191,"å½©èµĦæĸĻ":10192,"æ³¨åĨĮéĢģéĴ±":10193,"ä¿ĥè¿Ľ":10194,"ìĹ":10195,"µè¡Į":10196,"Ġæ±Łèĭıå¿«ä¸ī":10197,"Ċæĺ¥":10198,"ĠçĭĹä¸ĩæľī":10199,"Ġ$('#":10200,"Ġæīİé²ģ":10201,"èĭ¹æŀľapp":10202,"äºĮåįģ":10203,"Ð¾Ð":10204,"Ġä¹Ĳæ©ĻåĽ½éĻħ":10205,"ŀï¿½":10206,"Ġ918åįļå¤©å¨±ä¹Ĳ":10207,"éĥ½æľī":10208,"æª¬åıªï¿½":10209,"éŁ³ä¹Ĳ":10210,"é«ĺæ½®çīĪ":10211,"åĪ°è´¦æĹ¶éĹ´":10212,"Ġ918ï¿½éİıçĦ¯æª¬åıªï¿½":10213,"Ġç¦»":10214,"Ġåĩ¯åıĳå®ĺç½ĳä¸ĭè½½ç½ĳåĿĢ":10215,"Ġagæ³¨åĨĮ":10216,"Ġæ¾³éĹ¨bet365":10217,"ŀà¸":10218,"è¾ĵéĴ±_":10219,"Ġè°ĥ":10220,"Ġè°¢éĢļ":10221,"æīĭæľºå®ĺæĸ¹å®¢æĪ·ç«¯ä¸ĭè½½":10222,"Ċä»ĬæĹ¥æĹ©æĬ¥":10223,"Mjh":10224,"å®ŀæĹ¶":10225,"ëĬ":10226,"Ġå¤§åıĳå¿«ä¸īçļĦ":10227,"num":10228,"iti":10229,"éĢī7":10230,"ĠçŁ³çĭ®":10231,"æĢª":10232,"Ġåĩ¯åıĳæ³¨åĨĮå¹³åı°åħįè´¹ä¸ĭè½½":10233,"AS":10234,"Ġåīįå¤©17":10235,"åħĭåħ°":10236,"Ċ2019-10-20":10237,"èĩªæ²»åĮº":10238,"çºĮ":10239,"åİļ":10240,"à¸¥à¸":10241,"Ĺåİ¿|":10242,"ä½ĵèĤ²å®ĺç½ĳ":10243,"ä¸ºâĢľ":10244,"è¡¡":10245,"åħ´åİ¿|":10246,"æĪĲåĳĺ":10247,"åħ¬æ°ĳ":10248,"çĶ¯":10249,"Ċ356bet":10250,"Ġè¾ī":10251,"ĊçĻ¼è¡¨æĸ¼":10252,"24æĹ¥":10253,"irst":10254,"æıĲéĹ®":10255,"å½©ä¹Ĳ":10256,"ä½łä»¬":10257,"ä¸Ģå¹´":10258,"HJ":10259,"ĠçĭĹä¸ĩé»ĳ":10260,"Ġéĺ³æľ":10261,"å½©ccåĽ½éĻħ":10262,"Ĥï¿½":10263,"ĠåĬłæĭ¿å¤§":10264,"æľĢæĸ°å®ĺç½ĳ":10265,"è´§è½¦":10266,"èµ°åĬ¿åĽ¾_":10267,"anji":10268,"Ġçİ¯äºļagå®ĺç½ĳ":10269,"ĠçĭĹä¸ĩè½¯ä»¶":10270,"ä¸Ĭç½ĳ":10271,"Ġå¤§åıĳå¿«ä¸īå®ĺç½ĳ":10272,"çļĦéĩįè¦ģ":10273,"åı¸æľº":10274,"åħ¬å¼ĢéĢīæĸĻ":10275,"å®¢æĪ¿":10276,"æĢ»ä»£_":10277,"æĸ¤":10278,"å·²è¢«":10279,"ä¿¡èªīå¥½":10280,"nãĢĳãĢĲtãĢĳãĢĲ":10281,"ç²¹":10282,"Ġ66åĪ©æĿ¥å®ĺç½ĳ":10283,"Ġæ¸łéģĵ":10284,"ä»ĺæ¬¾":10285,"æĸ°æĹ¶ä»£":10286,"ç´«":10287,"Ġè¯¦":10288,"åĨľä¸ļ":10289,"ĠåĮħåŃĲ":10290,"Ġåīįå¤©02":10291,"çĤ¹ï¼Į":10292,"Ġç¦¹":10293,"05ï¿½ï¿½":10294,"Ġéĵĥå£°é«ĺæ½®çīĪ":10295,"Ġçº¿ä¸ĬçľŁäººèµĮéĴ±":10296,"ĠèµĽ":10297,"ç¹Ŀï½«":10298,"èĥģ":10299,"Ġçİ¯äºļagçĻ»å½ķ":10300,"çĽĳçĿ£":10301,"ĊTh":10302,"Ġç¥ŀåĨľæŀ¶æŀĹ":10303,"8,":10304,"è¨Īç®Ĺ":10305,"çĪ½":10306,"Ġåīįå¤©05":10307,"/å¤§åıĳ":10308,"Ġæķħ":10309,"ĠLtd":10310,"ç´ħ":10311,"Ġdes":10312,"Ġæ²»":10313,"ĠNew":10314,"èµ°åĬ¿_":10315,"ĠOn":10316,"Ġ2016-12":10317,"æľĢæĸ°åľ°åĿĢ":10318,"uy":10319,"ĊæĺĨä»ĳ":10320,"Ġà¹":10321,"Ġmore":10322,"å¥Ĺè·¯":10323,"éĳ«":10324,"èµ«":10325,"Ġè¥¿å®ī":10326,"ç®Ĺåĳ½":10327,"åħĥï¼Į":10328,"ĠæµģåĬ¨æĹ©é¤ĲåĬłçĽŁ":10329,"Ġæ¾³éĹ¨365betå®ĺç½ĳ":10330,"ĠæĿŃå·ŀ":10331,"Ġ365betå¤ĩçĶ¨":10332,"Ġåīįå¤©14":10333,"Ġåīįå¤©23":10334,"å§ĵåĲį":10335,"ĠBy":10336,"ĠæĹ©é¤ĲåĬłçĽŁåĵªå®¶å¥½":10337,"èŁ":10338,"Ġæİ¨èįĲ":10339,"Ġå¤§ä¸ĵ":10340,"ĠåŃ¦çĶŁæĹ©é¤ĲåĬłçĽŁ":10341,"eed":10342,"çľŁäººå¨±ä¹Ĳ":10343,"_è®¡åĪĴå¸Ī":10344,"ãĢĳãĢĲoãĢĳãĢĲrãĢĳãĢĲ":10345,"ĠéĽĦå·ŀæĹ©é¤ĲåĬłçĽŁçĶµè¯Ŀ":10346,"Ġå¤©æ´¥æĹ©çĤ¹åĬłçĽŁè½¦":10347,"ĠæĹ©çĤ¹ç²¥åĬłçĽŁ":10348,"Ġå°Ĭé¾Ļd88ä¸ĭè½½":10349,"è´¯":10350,"ç½ĳç«Ļå¤ļå°ĳ":10351,"ä¸įå¾Ĺ":10352,"Ġè±ĨæµĨ":10353,"ĠåĮħåŃĲæĹ©çĤ¹åĬłçĽŁ":10354,"ĠåĬłçĽŁçī¹èī²æĹ©çĤ¹":10355,"Ġå¹¿å¼ıæĹ©é¤ĲåĬłçĽŁ":10356,"Ġå³¡":10357,"æ±Łåį«":10358,"Ġå®īå¾½æĹ©çĤ¹åĬłçĽŁ":10359,"æŃ£è§Ħç½ĳç«Ļ":10360,"ä¹Ķ":10361,"ĠæĹ©çĤ¹é¤Ĳé¥®åĬłçĽŁ":10362,"ĠåĮĹäº¬æĹ©çĤ¹åĬłçĽŁ":10363,"0000":10364,"Ġstyle":10365,"Ġæ¹ĸåįĹçī¹èī²æĹ©çĤ¹åĬłçĽŁ":10366,"Ġåīįå¤©11":10367,"ĊåĲīæŀĹ":10368,"Ġçİ¯äºļagæ¸¸æĪı":10369,"ĠæĹ©çĤ¹å°ıåĲĥåĬłçĽŁç½ĳ":10370,"ĠæĹ©é¤Ĳé¤Ĳé¥®åĬłçĽŁ":10371,"èµł":10372,"è´º":10373,"ĠæĹ©é¤ĲåŁ¹è®ŃåĬłçĽŁ":10374,"Ġæ²¹æĿ¡æĹ©é¤ĲåĬłçĽŁ":10375,"Ġåĩ¯æĹ¶åĽ½éĻħå¹³åı°":10376,"åĽ½éĺ²":10377,"ĠæĹ©é¤ĲåĬłçĽŁå¥½é¡¹çĽ®":10378,"æ¹ĺæ½Ń":10379,"èİ·åıĸ":10380,"Ġup":10381,"Ġ???":10382,"Ġæ¾³éĹ¨365ä½ĵèĤ²æĬķæ³¨":10383,"ĠæĹ©é¤ĲéĿ¢é¦ĨåĬłçĽŁ":10384,"ãĢģãĢģ":10385,"Ċçĩķ":10386,"åħ¶ä¸Ń":10387,"ĠéĻķè¥¿æĹ©çĤ¹åĬłçĽŁ":10388,"ä¸¾åĬŀ":10389,"ĠæĹ©çĤ¹åĬłçĽŁé¡¹çĽ®":10390,"ĠéĽĦå·ŀæĹ©é¤ĲæĢİä¹ĪåĬłçĽŁ":10391,"å®īè£ħ_":10392,"èµĦèŀį":10393,"Ġè±ĨæµĨæĹ©é¤ĲåĬłçĽŁ":10394,"äºĭæĥħ":10395,"Ġå±±ä¸ľæĹ©é¤ĲåĬłçĽŁ":10396,"Ġåģ¥åº·æĹ©çĤ¹åĬłçĽŁ":10397,"Ġåīįå¤©10":10398,"ĠccåĽ½éĻħå¹³åı°":10399,"è¢«åĨĴçĶ¨":10400,"ĠæĹ©é¤ĲåĮħåŃĲåĬłçĽŁ":10401,"ĠæĹ©çĤ¹å°ıåĲĥåĬłçĽŁæİĴè¡Įæ¦ľ":10402,"Ġåīįå¤©01":10403,"åįĹæĬķ":10404,"è®¼":10405,"Ġé¦Ļæł¼éĩĮ":10406,"Ġæµı":10407,"å¯¼èĪªç½ĳ_":10408,"ãĢĳãĢĲäºĨ":10409,"ĠæĹ©çĤ¹è½¦åĬłçĽŁ":10410,"è¾ħåĬ©_":10411,"åĥ¹æł¼":10412,"ĠæĶ¶ä¸įåĪ°":10413,"ä¿¡èªīæĢİä¹Īæł·":10414,"Ġæ¸łéģĵåĲĪä½ľ":10415,"Ġå¤§ç¦ıæĿ¥æĹ©çĤ¹åĬłçĽŁ":10416,"ĠæĶ¶ä¸įåĪ°éªĮè¯ģ":10417,"ĠæĹ©çĤ¹éĿ¢æĿ¡åĬłçĽŁ":10418,"Ġæīİé²ģçī¹æĹĹ|":10419,"Ġæ±ŁèĭıæĹ©é¤ĲåĬłçĽŁ":10420,"43":10421,"æŀģéĢŁå¿«ä¸ī":10422,"ĠæĹ©é¤ĲåºĹåĬłçĽŁåĵªå®¶å¥½":10423,"çĽ¸ä¿¡":10424,"èĢĥèĻĳ":10425,"ï¼Įå¥¹":10426,"ç¶²è·¯":10427,"çĿ¡":10428,"æĪĲç»©":10429,"Ġæ¹ĸåĮĹæĹ©é¤ĲåĬłçĽŁ":10430,"Ġåīįå¤©07":10431,"æķĮ":10432,"Ġæ¾³éĹ¨ç²¾åĩĨ":10433,"Ġå·´æŀĹåı³æĹĹ|":10434,"Ġw66å®ĺç½ĳ":10435,"Ġå¾·éĴ":10436,"é¹¿":10437,"Ġæłĸéľ":10438,"246":10439,"æ³¨åĨĮå®ĺç½ĳ":10440,"Ġä¸Ĭæµ·æĹ©çĤ¹åĬłçĽŁ":10441,"Ġä¸Ńå¼ıæĹ©çĤ¹åĬłçĽŁ":10442,"5åĪĨæĹ¶æĹ¶å½©":10443,"ĠçĭĹä¸ĩä¸ĭè½½":10444,"ĠæĹ©çĤ¹åĬłçĽŁç½ĳ":10445,"ĠAGäºļå®ĺæĸ¹":10446,"ĠåĲ¦":10447,"°ï¿½ï¿½":10448,"ĠæĹ©é¤Ĳå·¥ç¨ĭåĬłçĽŁ":10449,"Ġå¾Ģ":10450,"Ġä¾¯":10451,"éĥµå±Ģ":10452,"å¸Ĥéķĩ":10453,"æĸ°ç½ĳåĿĢ":10454,"ä¸ĭè¼ī":10455,"Ġè½¦":10456,"è¥Ħ":10457,"ĠæĹ©çĤ¹è¿ŀéĶģåĬłçĽŁ":10458,"Ġæĸ°ä¸ĩåįļ":10459,"rip":10460,"Mz":10461,"57":10462,"æķĳæı´":10463,"å¾ĭå¸Ī":10464,"ĠæĺĨæĺİ":10465,"ĠæĻ´":10466,"ĠæĬ¥":10467,"Ġ365åľ¨çº¿ä½ĵèĤ²æĬķæ³¨":10468,"Ġåīįå¤©09":10469,"ĠæģŃ":10470,"ĠçĻ¼è¡¨":10471,"ĠèĢĴ":10472,"æĬĢå·§_":10473,"æ´Ľéĺ³":10474,"æ£ĭçīĮå®¤":10475,"Ganji":10476,"ĠåĽ¾ä»¬":10477,"ä»İåĵªéĩĮ":10478,"éĺµ":10479,"ĠçıŃæĪ":10480,"Ġçİ¯äºļæīĭæľºapp":10481,"éĥ½ä¼ļ":10482,"æ©ĭ":10483,"Ġäºļç¾İåĽ½éĻħå¹³åı°":10484,"æĩĤ":10485,"style":10486,"Ġ365ä½ĵèĤ²æĬķæ³¨çľŁäºº":10487,"èµĦèŀįåĪ¸":10488,"Ġåīįå¤©08":10489,"Ġäºļç¾İam8å®ĺæĸ¹ç½ĳç«Ļ":10490,"Ġåīįå¤©16":10491,"Ġåĺīèį":10492,"éĺ³åİ¿":10493,"Ġå¤§æ´":10494,"å¤§éĻĨ":10495,"Ġä¹ħæ²»":10496,"æĺİå¹´":10497,"Ġè¿Ń":10498,"çº³å£«":10499,"ĠTempl":10500,"çĲĨè´¢":10501,"Ġçĵ¦æĪ¿":10502,"ä¼ļãĢĳãĢĲ":10503,"æĴ¤":10504,"Ġåīįå¤©12":10505,"icrosoft":10506,"è´¤çº³å£«":10507,"åľŁèĢ³åħ¶":10508,"Ġæ²Ľåİ¿|":10509,"è¿ħ":10510,"ĊæĹ¶éĹ´ï¼ļ2020-0":10511,"Ġç¥ŀåĨľæŀ¶æŀĹåĮº|":10512,"remove":10513,"åįķåıĮï¼ļå½©ç¥ŀäºīéľ¸8":10514,"ĠæĭĽè´¤çº³å£«":10515,"Ġwww.baidu.com/aaaa":10516,"ĠåĬ¨æ¼«":10517,"å®īåįĵçīĪ_":10518,"åĮĹäº¬èµĽè½¦":10519,"ush":10520,"ĠåĩĨ":10521,"iversity":10522,"Ġæĸ°çĸĨ":10523,"Ġäºļæ¸¸appæĢİæł·":10524,"æ¸¬":10525,"ĠèĹģ":10526,"Ġèĭ¥ç¾":10527,"æ¯«":10528,"å¥ĸéĩĳä»£çłģ":10529,"Ġç´¢":10530,"ĠæŃ¦é¸":10531,"IP":10532,"cted":10533,"Ġw66æīĭæľº":10534,"å¦Ĥä½ķæıĲæ¬¾":10535,"ĊâĢĿ":10536,"ĠäºķçłĶ":10537,"ound":10538,"èļ":10539,"Ċåīį":10540,"Ġbet356ä½ĵèĤ²åľ¨çº¿":10541,"ï¼Įä½Ĩæĺ¯":10542,"Ġå£¤":10543,"order":10544,"ĠæĹłæ£":10545,"ĊæĺĨä»ĳç½ĳ":10546,"ĊCopyrightÂ©":10547,"ĠçŁ³æ²³":10548,"Ġåºĵä¼¦":10549,"25æĹ¥":10550,"ĠåĪ©æĿ¥AGæĹĹèĪ°åİħ":10551,"æĺ¯å¤ĸåĽ´åĲĹ":10552,"Ġk8å¨±ä¹Ĳå®ĺç½ĳåľ°åĿĢå¨±ä¹Ĳ":10553,"ä»ĸä»¬çļĦ":10554,"29æĹ¥":10555,"ĠCity":10556,"çĶŁçī©":10557,"æĪªåĽ¾":10558,"ãĢıãĢİ":10559,"çĶ¨è½¦":10560,"éĤ£äºĽ":10561,"box":10562,"Ġå½©ç¥ŀapp":10563,"èĭ¹æŀľçīĪå®ĺæĸ¹ä¸ĭè½½":10564,"Ġæł¹":10565,"æĹ¥æĬ¥éģĵ":10566,"ä¼łåªĴç½ĳ":10567,"è§£éĻ¤":10568,"Ġå²Ĺ":10569,"Ġagçİ¯äºļç½ĳç«Ļ":10570,"ĠçĻ½æľĹ":10571,"æĮ£":10572,"Ġåīįå¤©18":10573,"æįŁå¤±":10574,"ĠåĻ":10575,"ĠäºļæĲıä½ĵèĤ²èĭ¹æŀľçīĪå®ĺæĸ¹ä¸ĭè½½":10576,"èµı":10577,"æĭĽåķĨåĬłçĽŁ":10578,"ãĢĳãĢĲiãĢĳãĢĲnãĢĳãĢĲ":10579,"å®ĺç½ĳçĻ»å½ķä¸ĭè½½":10580,"attr(\"":10581,"æļ¨":10582,"ĠIt":10583,"ä»Ķ":10584,"ãĢĤæĪĳä»¬":10585,"ĠåĮºåİ¿":10586,"Ġæľ¬åľŁ":10587,"å®£ä¼ł":10588,"è¯¸":10589,"éİ®":10590,"ĠåĲ«":10591,"æŃ£ç½ĳå¹³åı°":10592,"ĊæĿŃå·ŀ":10593,"ua":10594,"Ġbet365æıĲçİ°":10595,"ç½ĳé¡µçīĪçĻ»å½ķ":10596,"Ċ365æ£ĭçīĮ":10597,"Ġå·´é»İ":10598,"Ġå¸Ī":10599,"Ġä¸İ":10600,"Ġk8æ£ĭçīĮ":10601,"èı±":10602,"Ġä¸ĭä¸Ģç¯ĩï¼ļæ²¡æľīäºĨ":10603,"å¼Ģå¿ĥ":10604,"ä»£æĽ¸è²¸æ¬¾":10605,"çİ°åľºå¨±ä¹Ĳ":10606,"ï¼Įåı¯":10607,"ĠçĭĹä¸ĩç»ĵç®Ĺ":10608,"Ċçĩķèµµ":10609,"Ġåīįå¤©06":10610,"å¼Ģä»Ģä¹Ī":10611,"Ġim":10612,"ĠèĬ¦":10613,"Ġçł´":10614,"æ¬Ħ":10615,"ç¼ĺ":10616,"ĠåĪļ":10617,"bte365":10618,"(R":10619,"vis":10620,"LO":10621,"çĤ¹è¯Ħ":10622,"Ġæīĭæľºåı·è¢«åĨĴçĶ¨":10623,"Ċåıĳå¸ĥæĹ¶éĹ´:":10624,"ĠåĮºåİ¿å¯¼èĪª":10625,"ĊæĤ¨çļĦä½įç½®ï¼ļ":10626,"Ġstr":10627,"V4":10628,"Ġç§°":10629,"éłħ":10630,"Ġå§ļ":10631,"äºļæ¸¸éĽĨåĽ¢":10632,"Ġ365æ£ĭçīĮå¾®ä¿¡":10633,"ä¸įæľĥ":10634,"å±ħæ°ĳ":10635,"åħįè´¹èµĦæŀĵå¤§åħ¨":10636,"Ġåĩ¯åıĳçĶµæ¸¸å®ĺæĸ¹ç½ĳç«Ļ":10637,"èĬ±èĵ®":10638,"appä¸ĭè½½å®ĺç½ĳ":10639,"ĠCD":10640,"Ġé¢Ŀæķ":10641,"Ġæī¿å¾·åİ¿|":10642,"me":10643,"Ġæ¾³éĹ¨365bet":10644,"ĠæĪ¿å±ĭæ±Ĥ":10645,"æľĢæĸ°æĬķæ³¨":10646,"éĿĴå¹´æĬ¥":10647,"æĿĥåĪ©":10648,"å¨±ä¹Ĳç½ĳ":10649,"Ċä¸Ńæĸ°ç½ĳ":10650,"Ġ10åĪĨpk10":10651,"Ġè¾½éĺ³åİ¿|":10652,"ï½ŀ":10653,"ĠéĹ¨æºĲ|":10654,"æ¯ĶèµĽé¢Ħæµĭ":10655,"per":10656,"inese":10657,"Ġé»Ħå±±å¸Ĥ|":10658,"Ċæ¹ĺæ½Ń":10659,"Ġéģµä¹īåİ¿|":10660,"åĽŀè¦Ĩ":10661,"Ġkyå¼Ģåħĥæ£ĭçīĮ":10662,"åħĭæĸ¯":10663,"Ġmobile":10664,"ĠçĭĹä¸ĩè®©çĲĥ":10665,"Ġå¿Ĺ":10666,"Ġæłªæ´²åİ¿|":10667,"Ġæĸ°ç«¹åİ¿|":10668,"Ġä¸Ĭé¥¶åİ¿|":10669,"ĠèĬľæ¹ĸåİ¿|":10670,"ï¼Įä»¥åıĬ":10671,"Ġå®ľå®¾åİ¿|":10672,"åħļå§Ķ":10673,"ç½Ĳ":10674,"æ²Ī":10675,"èĦ±æ¬§":10676,"Ġqueries":10677,"éĿ¢ä¸´":10678,"ä¸įä»ħ":10679,"Ġä¼Ĭå®ģåİ¿|":10680,"Ġåı°åĮĹåİ¿|":10681,"äººæ°ĳç½ĳ":10682,"æķ´ä¸ª":10683,"Ġè¡¡éĺ³åİ¿|":10684,"æĬ¥éģĵç§°ï¼Į":10685,"æĺİç¡®":10686,"ĠéĢļåĮĸåİ¿|":10687,"Ċä½ľèĢħ:":10688,"èµĸ":10689,"ĠÃĹ":10690,"çĻ»ä¸įä¸Ĭåİ»":10691,"çģŃ":10692,"back":10693,"ä»·ï¼ļ":10694,"çĽĳæİ§":10695,"Ċåħ³äºİGanji":10696,"åħ¨ç«Ļ":10697,"ĠåįĹæĺĮåİ¿|":10698,"agçľŁäºº":10699,"Ġå¤§åĲĮåİ¿|":10700,"æŃ¤åĪĨé¡ŀ":10701,"å¼Ģå¥ĸ_":10702,"åĲĪåĲĮ":10703,"ĠçĭĹä¸ĩæĢİä¹Īä¹°":10704,"æĦıä¹ī":10705,"Ġéķ¿æ²»åİ¿|":10706,"Image1":10707,"iderImage1":10708,"Ġmodify":10709,"ä¸ľäº¬":10710,"Ġagä¸ĭè½½å®ĺæĸ¹ç½ĳç«Ļ":10711,"åĬłæĹ¶":10712,"Ġä¹Ŀæ±Łåİ¿|":10713,"Ġå¤§åĲĮå¸Ĥ|":10714,"è©ķæ¯Ķ,":10715,"æĽ´åĬł":10716,"æµĭè¯ķ":10717,"ãĢĳãĢĲåľ¨ãĢĳãĢĲ":10718,"yXG5":10719,"è¥¿åįĹ":10720,"Ġèµ¶éĽĨæİ¨å¹¿":10721,"Ġbet365å¤ĩçĶ¨":10722,"Ġä¸Ńåį«":10723,"Ġ365betå®ĺç½ĳçľŁäºº":10724,"Ġåĩ¯åıĳçľŁäººå¹³åı°":10725,"Ġagç½ĳç«Ļ":10726,"çµ±":10727,"ä¾Ŀæ³ķ":10728,"ĠåĲīå®īåİ¿|":10729,"Ġåºĵä¼¦æĹĹ|":10730,"Ġåīįå¤©22":10731,"Ġåı°çģ£":10732,"å¨±ä¹Ĳæ¸¸æĪıå¹³åı°":10733,"å°ĩ":10734,"ç²¾å½©":10735,"ĠéĤµéĺ³åİ¿|":10736,"Ġåı°ä¸Ńåİ¿|":10737,".net":10738,"Ċæĺ¥åħī":10739,"ĠæĲľ":10740,"ĠæľĿéĺ³åİ¿|":10741,"Ċåģ¥åº·":10742,"Ġä»ĭ":10743,"æĦŁè§ī":10744,"ĠæĬļé¡ºåİ¿|":10745,"****":10746,"ĠéĨ´":10747,"Ġä¸´å¤ıåİ¿|":10748,"Ġå²³éĺ³åİ¿|":10749,"ons":10750,"Ġåīįå¤©21":10751,"dG":10752,"Ċ2019-10-14":10753,"è½¯ä»¶_":10754,"è¿Ļä¹Ī":10755,"åŁİæĸ°éĹ»ç½ĳ":10756,"å·ŀæĹ¥æĬ¥":10757,"Ġå¼Ģå°ģåİ¿|":10758,"Ġå®£åĮĸåİ¿|":10759,"Ġéĵģå²Ńåİ¿|":10760,"æīĭæľºç«¯ä¸ĭè½½":10761,"æŃ£è§Ħç½ĳ_":10762,"105":10763,"ç¯®çĲĥæ»ļçĲĥ":10764,"åĲģ":10765,"çĻ¾å®¶å®¶ä¹Ĳapp":10766,"Ġåĺīä¹īåİ¿|":10767,"è´Łè´£äºº":10768,"æĸ¯Â·":10769,"Ġé«ĺéĽĦåİ¿|":10770,"Ċæ¹ĺæ½Ńåľ¨çº¿":10771,"Ġ{å¤§ç¥ŀ":10772,"Ġåı°åįĹåİ¿|":10773,"Ġç»įåħ´åİ¿|":10774,"ribo88çĤ¹cc":10775,"æ²ŁéĢļ":10776,"Ġæīĭæľºèµ¶éĽĨ":10777,"Ġæ¹ĺæ½Ńåİ¿|":10778,"æ¯Ķäºļ":10779,"å¿«ä¹Ĳåħ«":10780,"ï¼Įå¦Ĥæŀľ":10781,"ZSI6ZmFsc2UsIm":10782,"ĠçĭĹä¸ĩåĴĮ":10783,"Ġæĸ°æ²":10784,"çĻ¾åº¦åľ°åĽ¾":10785,"æĢ»ç»Łçī¹æľĹæĻ®":10786,"åĴĭ":10787,"Ċï¿½ï¿½":10788,"Ġæ»ķ":10789,"ĠSP":10790,"Ġæ¦Ĥ":10791,"ĠéĤµéĺ³å¸Ĥ|":10792,"Ġ2019-03":10793,"çĶ°æ£®":10794,"åĪĺæ±Łåį«":10795,"Ġæ¾³éĹ¨æŃ£çīĪ":10796,"Õ¸ÖĤ":10797,"Ġ365betå®ĺç½ĳå®ĺæĸ¹":10798,"ä¸ĭéĻį":10799,"Ġç©º":10800,"365.com":10801,"Ġä½ĵèĤ²åľ¨çº¿":10802,"æĸ°æµª":10803,"âĢĢ":10804,"Ġæµª":10805,"6çłģ":10806,"èĤĩ":10807,"ĠUN":10808,"ĠmodifyTime":10809,"ĠmodifyTime:0,":10810,"ran":10811,"ä¼ļè§ģ":10812,"å»ºè®®":10813,"æŁı":10814,"èµĦæĸĻå¤§åħ¨|":10815,"å®¾é¦Ĩ":10816,"Ġçİ°åľ¨":10817,"CNN":10818,"æĬķæ³¨ç½ĳç«Ļ":10819,"Ġåĵªå®¶":10820,"c.":10821,"åķĨä¸ļ":10822,"apk":10823,"Ġäºļç¾İagæĹĹèĪ°åİħappä¸ĭè½½":10824,"Ġäºļæ¸¸çĶµæ¸¸":10825,"äºĶæĺŁ":10826,"æŀĹåİ¿|":10827,"Ġsecond(s":10828,"value":10829,"Qu":10830,"ĠåĪ©æĿ¥æīĭæľºapp":10831,"Ġéĥ½æ±Ł":10832,"æĹ©çĤ¹å¿«é¤ĲåĬłçĽŁ":10833,"½ï¿½":10834,"ĠçŁ³åĺ´":10835,"æī§æ³ķ":10836,"¦ï¿½":10837,"æ©Łè»ĬåĪĨæľŁ":10838,"Ġagæīĭæľºå®¢æĪ·ç«¯ä¸ĭè½½":10839,"ï¼Įä¹Łæĺ¯":10840,"osted":10841,"ä¼¯æ¸©":10842,"Ġäºļç¾İåħ¬åı¸":10843,"Ġ365betå®ĺç½ĳæ»ļçĲĥ":10844,"æĺ¯çľŁå®ŀåĲĹ_":10845,"ç£¨":10846,"Ġçİ¯äºļéĽĨåĽ¢app":10847,"ï¼ĮåĲĮ":10848,"ä¿Ŀè¯ģ":10849,"æĭĽåķĨä¸»ç®¡":10850,"Ġè¿ľ":10851,"Ġ2018å¹´":10852,"ä¸ºæĤ¨":10853,"Ġå¹³åı°":10854,"å¦ĤæŃ¤":10855,"Ġ365ä½ĵèĤ²æĬķæ³¨å®ĺæĸ¹":10856,"Ġ1.0":10857,"æµ·åħ³":10858,"çħ¤":10859,"ĠccåĽ½éĻħå½©çĲĥç½ĳ":10860,"åħ¬åħ±":10861,"Ġ2020-04-10":10862,"Ġåīįå¤©03":10863,"ĠåĽ´":10864,"çļĦä½įç½®":10865,"éģį":10866,"å¨±ä¹Ĳå¼ĢæĪ·":10867,"çŃīåľ°":10868,"ëĬĶ":10869,"1å¹´":10870,"æĸ¹æĹ©é¤ĲåĬłçĽŁ":10871,"wa":10872,"éĩĩè´Ń":10873,"æķĻå¸Ī":10874,"dGg":10875,"è·Ŀ":10876,"Ċ2019-10-17":10877,"çĦ¶åĲİ":10878,"123":10879,"ĠSH":10880,"2lkdGg":10881,"form":10882,"Ġæ¾³éĹ¨|":10883,"ĠçĪ±å½©ä¹Ĳ":10884,"Ġçİ¯äºļçĶµæ¸¸ag":10885,"ĠéĩĳåĿĽ":10886,"ï¿½ï¿½ï¿½ï¿½ï¿½ï¿½ï¿½":10887,"ï¼īãĢĤ":10888,"æĮĤæľº":10889,"Ġ$.":10890,"AD":10891,"Ġçģµå®Ŀ":10892,"ialog":10893,"éĢ£":10894,"agæĹĹèĪ°åİħå®ĺç½ĳ":10895,"èĢģæĺ¯":10896,"Ġ2018-07":10897,"çķ«":10898,"åħ¬éĸĭ":10899,"å®ĺæĸ¹appä¸ĭè½½":10900,"4OT":10901,"å®¶ä¹ĲæĹ©é¤ĲåĬłçĽŁ":10902,"Ċ2019-12-06":10903,"æ¬§æ´²è¶³çĲĥ":10904,"Mjh4OT":10905,"Ġæ°¸åĪ©":10906,"gYWR":10907,"å¼±":10908,"å®ģå¸Ĥ":10909,"éªĹå±Ģ_":10910,"æĢİæł·åĬłçĽŁ":10911,"-d":10912,"Ċå¨ģ":10913,"Ġæ©Ł":10914,"åĪĨæİĴåĪĹ5":10915,"Ċ2019-03":10916,"Ġeå½©ccåĽ½éĻħ":10917,"æĹ©çĤ¹æĢİæł·åĬłçĽŁ":10918,"éħįéĢģåĬłçĽŁ":10919,"_äºļåįļ":10920,"è½´":10921,"Ġæł¼å°Ķ":10922,"Ġé±¼":10923,"æĹ©çĤ¹åºĹåĬłçĽŁ":10924,"Ġ356betå¤ĩçĶ¨":10925,"çº½çº¦":10926,"ç½ĳç«Ļæĺ¯å¤ļå°ĳ":10927,"æľ¬åľ°":10928,"Ġé©¬è¾¹|":10929,"ĠçĭĹä¸ĩæľĢä½İ":10930,"ç¿ł":10931,"Ġ2020-07":10932,"å®ĹæĹ©çĤ¹åĬłçĽŁ":10933,"Ġnull":10934,"Ġå±±è¥¿":10935,"æľ±":10936,"éĥ¨éĺŁ":10937,"æĿł":10938,"ĊèĬ":10939,"ĠæĻ¯ä¸ľ|":10940,"åĴĸ":10941,"æĳĩ":10942,"èµĦæĸĻ|":10943,"âĨĵ":10944,"Ġä¸ľä¹¡|":10945,"çł´åĿı":10946,"åĲ§åĬłçĽŁ":10947,"Ġäºļç¾İAGæĹĹèĪ°åİħ":10948,"Ġèį£æĪĲ":10949,"ĊåįĹæĸ¹":10950,"Ġå¿«é¤ĲæĹ©é¤ĲåĬłçĽŁ":10951,"Ġäºļæ¸¸å¹³åı°":10952,"ç¯®çĲĥæĬķæ³¨":10953,"Ġå®½åŁİ|":10954,"Ġå«":10955,"ĠçīĻåħĭ":10956,"Ċ2020":10957,"Ġæ²Ń":10958,"ä¸ŃåĽ½çļĦ":10959,"ĠæĻ¯è°·|":10960,"å¼ĥ":10961,"ĠèĤĥåįĹ|":10962,"åĩłä¹İ":10963,"åĮĹéĥ¨":10964,"ĠäºĶå³°|":10965,"Ġä½ł":10966,"ëĮ":10967,"å¤ĸæĮĤ_":10968,"åıĳè¨Ģäºº":10969,"å¿ĹæĦ¿":10970,"ĠæģŃåŁİ|":10971,"ĠåĪ©æĿ¥ç½ĳåĿĢ":10972,"çł´è§£çīĪ":10973,"Ġé¤":10974,"g,":10975,"çļĦåľ°æĸ¹":10976,"çĽĪåĪ©":10977,"æĶ¹åıĺ":10978,"Ġä»Ģ":10979,"Ġ6up":10980,"åĲĹï¼Ł":10981,"æĪĴ":10982,"é¢ľ":10983,"ĠäºļæĲıæīĭæľºçīĪ":10984,"æĺł":10985,"åĽ½äº§":10986,"Ġdocument.getElementById(\"":10987,"ĠOF":10988,"èŃīä»¶åĢŁæ¬¾":10989,"ĠçŁ³æŀĹ|":10990,"ec":10991,"IM":10992,"áº":10993,"çļĦæ¸¸æĪı":10994,"ĠâĹı":10995,"ĠåĪ©æĿ¥w66æĹĹèĪ°çīĪ":10996,"_c":10997,"Ġèµ«":10998,"åĪ°åºķ":10999,"åļ":11000,"é¦Ī":11001,"Ġä¾Ľ":11002,"åı°æĿ±":11003,"èĹį":11004,"âĢľãĢĳãĢĲ":11005,"æĺ¯ä»Ģä¹Īä¸ľè¥¿":11006,"å°ģåı·":11007,"å¤ļæ¬¡":11008,"Ġif(data":11009,"å¤ļä¹ħåĪ°å¸Ĳ":11010,"Ġæ±½è½¦":11011,"Ġ2020-02-29":11012,"replace":11013,"å¶":11014,"Ġåĩ¯åıĳçĶµæ¸¸æ¸¸æĪı":11015,"Ġçº¿ä¸ĬçľŁäººåıĳçīĮçİ°åľºå¨±ä¹Ĳ":11016,"åįİä¸º":11017,"Ġåĩ¯åıĳå®ĺç½ĳæīĭæľºçīĪä¸ĭè½½":11018,"ĠçĻ¾å®¶ä¹Ĳç½ĳåĿĢ":11019,"oy":11020,"2012":11021,"Ġåı³":11022,"ight,":11023,"éĿ¢ç§¯":11024,"æĦıåĳ³":11025,"ç½©":11026,"çĪ¸":11027,"Ġåı¥":11028,"ç©ºæ°Ķ":11029,"ĠçĭĹä¸ĩçº¢åĮħ":11030,"Ċå¤§è¿ŀ":11031,"Ġäºļç¾İå®ĺç½ĳ":11032,"a8":11033,"åķ¡":11034,"åªĽ":11035,"åĩºçļĦ":11036,"_365bet":11037,"çĲ´":11038,"Ġçº¿ä¸ĬçľŁäººæĸĹçīĽ":11039,"äºĳåİ¿|":11040,"åĵªè£¡åı¯ä»¥åĢŁéĮ¢":11041,"Price":11042,"åįĬå¹´":11043,"åĵĪå°Ķæ»¨":11044,"æĽ²åİ¿|":11045,"Ġæ¾³éĹ¨çľŁéĴ±åľ¨çº¿ç½ĳæĬķ":11046,"/5":11047,"±è®Ģ":11048,"Ġæľ¬ç§ĳ":11049,"èµ¢å®¶":11050,"çĩŁ":11051,"éħįä»¶":11052,"Ġçİ¯äºļå¤§å¸ĪèµĽ":11053,"Ġåĩ¯åıĳæ³¨åĨĮä¸ĭè½½ç½ĳåĿĢ":11054,"ä»ģåİ¿|":11055,"åĶ¯ä¸Ģå®ĺç½ĳ":11056,"List":11057,"ĠAGçĻ¾å®¶ä¹Ĳ":11058,"over":11059,"æ¨ª":11060,"èµ´":11061,"ä½ĵéªĮéĩĳ":11062,"21æĹ¥ï¼Į":11063,"åľ°ä¸ĭéĮ¢èİĬåĢŁéĮ¢":11064,"ç´į":11065,"è¯ļä¿¡":11066,"æĢĴ":11067,"åıĬæĹ¶":11068,"Ġ2018éªŀï¿½05ï¿½ï¿½":11069,"æĬķæ³¨æĬĢå·§":11070,"å¹¿å¤§":11071,"ä¾ĽåºĶåķĨ":11072,"Ġå¤§åıĳæĹ¶æĹ¶å½©è®¡åĪĴ":11073,"æ»´":11074,"ĠRoad":11075,"Ġæ¾³éĹ¨çľŁéĴ±ç½ĳ":11076,"Ġçĩ":11077,"Ċæĸ°åįİç½ĳäºĳåįĹ":11078,"ĠSp":11079,"Ġå¼Ģåħĥæ£ĭçīĮæĸĹçīĽ":11080,"æĮĩæİ§":11081,"å¹¿ç½ĳ":11082,"Ġæ¾³éĹ¨çľŁéĴ±å¹³åı°":11083,"çľŁåģĩ_":11084,"Ġå½©ç¥ŀéĢļ":11085,"ï¼Įä¸İ":11086,"åĲīåħĭ":11087,"åı£åİ¿|":11088,"ĠAM":11089,"Ċå°ı":11090,"å¹¿æĴŃçĶµè§Ĩç½ĳ":11091,"Ġag9":11092,"éģĵï¼ļâĢľ":11093,"ç«ĭæ³ķ":11094,"Fwi":11095,"Ġ1åĪĨå½©":11096,"ï¼Įåħ±":11097,"éĥ½åİ¿|":11098,"Ġä»Ĭå¤©":11099,"Ðº":11100,"ä¹Ĳåİ¿|":11101,"Ġè¢":11102,"ç¡ķ":11103,"Ġ365betå®ĺæĸ¹":11104,"ç²¾éĢīèµĦæĸĻå¤§åħ¨|":11105,"åħĥ/":11106,"ĠTemplates":11107,"åķĨåŁİ":11108,"Ġæ¾³éĹ¨çĻ¾å®¶ä¹Ĳç½ĳç«Ļ":11109,"Ġçİ¯äºļæ¸¸æĪıæľĢæĸ°ç½ĳåĿĢ":11110,"ĊåįĹåĽ½":11111,"æŃ¦åİ¿|":11112,"ç¼ħ":11113,"å¯Ĵ":11114,"Ġç¥¥":11115,"éģ©":11116,"Ġä¸Ĭæµ·å¿«3":11117,"åħ°åİ¿|":11118,"Vp":11119,"Ġåĩ¯åıĳå®ĺæĸ¹å½©ç¥¨":11120,"åĪĨ3D":11121,"Ġçİ¯äºļagå®¢æĪ·ç«¯":11122,"Ġåĩ¯åıĳç²¾èĭ±":11123,"Ġåīįå¤©00":11124,"Ġæĸ°éĹ»ä¸Ńå¿ĥ":11125,"Õ¡Õ¶":11126,"å¤ĩçĶ¨ç½ĳåĿĢåħ¥åı£":11127,"Ġé¦Ļæ¸¯é©¬ä¼ļ":11128,"][":11129,"æĸĩåı²":11130,"åĲĪä½ľä¼Ļä¼´":11131,"Ġåĩ¤åĩ°":11132,"é¡ºåİ¿|":11133,"I6Ij":11134,"éĥ½ç½ĳ":11135,"Ċéĵģè¡Ģç¤¾åĮº":11136,"å¤§éĢī":11137,"ç»ıå¸¸":11138,"è£½":11139,"å¼Ģå¥ĸç»ĵæŀľ_":11140,"eX":11141,"æ³¡":11142,"ä¹łè¿ĳå¹³æĢ»ä¹¦è®°":11143,"æŃ£çīĪåĽĽä¸įåĥı":11144,"ä»¥æĿ¥":11145,"åĤĻ":11146,"Ġå¥İ":11147,"éĺª":11148,"ä¹ĺå®¢":11149,"åİŁåĪĻ":11150,"ãĢĳãĢĲä¸ļ":11151,"äº«åıĹ":11152,"å¿ħä¸Ńä¸ĢèĤĸ":11153,"åŁĶ":11154,"ayer":11155,"éģĵè·¯":11156,"æ½ľ":11157,"Ġ365æ£ĭçīĮæľī":11158,"Ċæ¸ħ":11159,"å½©ç¥ŀ8":11160,"é½":11161,"äººå·¥æĻºèĥ½":11162,"ĠéŁ©åĽ½":11163,"éģĹæ¼ı_":11164,"æ£ī":11165,"éĿ¢è®®":11166,"éģ¥":11167,"article":11168,"ç½ĳä¸ĬçĶµåŃĲæ¸¸æĪı":11169,"ĠæĹłæ³ķ":11170,"ç¹Ŀï½¼ç¹Ŀï½«":11171,"Ġç»©":11172,"Lm":11173,"ä»£çĲĨ_":11174,"Ġæĸ°åįİç¤¾è®°èĢħ":11175,"Ġåīįå¤©15":11176,"2015å¹´":11177,"ĊæĤ¨çİ°åľ¨çļĦä½įç½®ï¼ļ":11178,"éĶĲ":11179,"ä¸ĸçºª":11180,"cclx":11181,"ĠæĢİä¹Īåľ¨":11182,"è¶³çĲĥèµĮåįļ":11183,"å¼¹åĬ¾æ¡Ī":11184,"æĭľçĻ»":11185,"å®ª":11186,"°Ģ":11187,"Ġæ¶ª":11188,"ãĢĳãĢĲlãĢĳãĢĲeãĢĳãĢĲ":11189,"4799çĤ¹c0m":11190,"æ³¢éŁ³":11191,"ĠäºĶå®¶":11192,"çºł":11193,"ï¼Įè¿ĻäºĽ":11194,"åįģäºĮ":11195,"Wlu":11196,"Ġåģı":11197,"ĠAGçİ°éĩĳç½ĳ":11198,"Ġå¤¹":11199,"Ġå¹¿åĳĬæľįåĬ¡":11200,"2010":11201,"yst":11202,"nbsp":11203,"ĊæĤ¨çļĦå½ĵåīįä½įç½®ï¼ļ":11204,"cclxu":11205,"Ċ2019å¹´09æľĪ":11206,"Ċ2020-08":11207,"Ċ2018-11":11208,"æħ¶":11209,"åįıä¼ļ":11210,"âĢľåĮĹæºª":11211,"æĬķèµĦåĬłçĽŁåºĹ":11212,"çĲĥéĺŁ":11213,"Ġçİ¯äºļç½ĳä¸ĬçĶµåŃĲæ¸¸æĪı":11214,"äºĭåĬ¡":11215,"çģ¯,":11216,"ãĢĳãĢĲpãĢĳãĢĲ>ãĢĳ":11217,"åĪ·æµģæ°´":11218,"è¡¨ç¤ºï¼ĮâĢľ":11219,"åĤµåĭĻæķ´åĲĪ":11220,"ĠCPåĢ¼":11221,"Ġè¶³çĲĥå¤ĸåĽ´365":11222,"Ġåĩ¯æĹ¶kb88.com":11223,"è®¸ï¼Į":11224,"ä¿¡æģ¯ç½ĳ":11225,"çĪ¶æ¯į":11226,"Ġåĩ¯åıĳçĶµçİ©":11227,"ĠçĭĹä¸ĩè¦ģ":11228,"ĠæĦıçĶ²":11229,"14æĹ¥":11230,"Ġget":11231,"Ġå°ıåĲĥ":11232,"ĠHe":11233,"Ġä¸Ńåľĭ":11234,"Ġè²¸":11235,"å¾Ħ":11236,"¢ç¹Ŀï½³":11237,"åĳ¼åĲģ":11238,"è¥¿äºļ":11239,"æ¸¯åı°":11240,"à¸£à¸":11241,"31æĹ¥":11242,"èĲĿ":11243,"188":11244,"Ġåĩ¯åıĳAGæĹĹèĪ°åİħå®ĺç½ĳ":11245,"appiosçīĪä¸ĭè½½":11246,"Ġk8å¨±ä¹ĲappiosçīĪä¸ĭè½½":11247,"ĠåĪĽ":11248,"ĠPh":11249,"Ġåĩ¯åıĳçĶµæ¸¸æīĭæľºçīĪ":11250,"ĠçĭĹ":11251,"å»£":11252,"è¿ŀç»Ń":11253,"ĹĨ":11254,"çī¹é©¬ç»ĵæŀľ":11255,"åľ¨çº¿å¼ĢæĪ·":11256,"æĭħä»»":11257,"çĳļ":11258,"Ġåıĸçİ°":11259,"å²ģï¼ī":11260,"Ġ365ä½ĵèĤ²æĬķæ³¨çİ°éĩĳ":11261,"çŁ¥åĲį":11262,"èĴĻåı¤è¯Ń":11263,"ï¼ĮåĲĮæĹ¶":11264,"ĠçŃĸ":11265,"function(){":11266,"4e":11267,"Ġåĩ¯åıĳçĶµæ¸¸å®ĺç½ĳ":11268,"Ġé«ĺéĤ®":11269,"Ġèı²å¾ĭå®¾çĶ³åįļ":11270,"Ġ365æ¸¸æĪı":11271,"Ġä»²":11272,"å¹¿æĴŃçĶµè§Ĩåı°":11273,"é£ŀè¡Į":11274,"è¿Ļæł·çļĦ":11275,"D1cIj":11276,"é¢Ħæµĭ_":11277,"Ġ365å½©ç¥¨":11278,"Ġæ±ª":11279,"Ġèĭıå·ŀ":11280,"Ġå¼Ģåħĥæ£ĭçīĮè¾ĵäºĨ":11281,"Ġé©¬å°Ķ":11282,"è¿Ľè¡ĮäºĨ":11283,"Ġæ»ļçĲĥçĽĺ":11284,"æĢĿèģª":11285,"æ¥¼çĽĺ":11286,"iosçīĪ":11287,"668":11288,"æŁĲæŁĲ":11289,"Ġæīĵåį°":11290,"éĢĢåĩº":11291,"Ġå¹³åº¦":11292,"åħ·ä½ĵ":11293,"Ġæ¸ħæ°´":11294,"ä¸Ģèĩ´":11295,"Ġå»ī":11296,"ĠéĴĵé±¼":11297,"æŀĹèĬĿ":11298,"Ċæĸ°åįİ":11299,"äº¿åĽ½éĻħ":11300,"éĶģå®ļ":11301,"Ċæĸ°çĸĨæĸ°éĹ»ç½ĳ":11302,"ĠæĢĿèĮ":11303,"åİ»å¹´":11304,"Ġç¡®":11305,"Ĭçĳļ":11306,"è¯ģæį®":11307,"ĠäºļæĲıä½ĵèĤ²æīĭæľºçīĪä¸ĭè½½":11308,"±çľ":11309,"Ġéª":11310,"åĽĽèĤĸéĢīä¸ĢèĤĸ":11311,"Ġå¼Ģåħĥæ£ĭçīĮæ³¨åĨĮéĢģ":11312,"Ġäºļæ¸¸åĽ½éĻħæ¸¸æĪıå®ĺç½ĳ":11313,"Ġwww.w66.com":11314,"\\\"":11315,"2009":11316,"ä¸¥æł¼":11317,"show":11318,"Ġw66åĪ©æĿ¥å¹³åı°":11319,"å£ĵ":11320,"æ¶ĪéĻ¤":11321,"ĠMan":11322,"ĠäºļæĲıçĶµç«ŀ":11323,"æĸĩåĮĸç½ĳ":11324,"Ċå¹¿è¥¿èĩªæ²»åĮºæĶ¿åºľ":11325,"iao":11326,"11éĢī5èµ°åĬ¿åĽ¾":11327,"ç§»æ°ĳ":11328,")-":11329,"ĠçĻ¾å®¶ä¹Ĳç½ĳåĿĢå¤§åħ¨":11330,"4d":11331,"Ġè¾Ľ":11332,"Ċè§£æĶ¾":11333,"ĊèĴĻåı¤è¯Ń":11334,"å®¢è½¦":11335,"éĽ¢":11336,"Ġç¶¦":11337,"Ċæ´Ľéĺ³":11338,"Ġsuccess":11339,"çİĽä¸½":11340,"ĠAn":11341,"ĊçľĭçĤ¹":11342,"1æĹ¥":11343,"ç½¢":11344,"ĠÄ":11345,"ä»Ĩ":11346,"ĠYou":11347,"Ċçķª":11348,"i5":11349,"ĠçĭĹä¸ĩèµ¢éĴ±æıĲçİ°":11350,"ç®Ĺæ³ķ":11351,"å¨±å¤´æĿ¡":11352,"å¼ķèµ·":11353,"Ġ365betä½ĵèĤ²æĬķæ³¨":11354,"pty":11355,"éł»":11356,"Ġæ¾³éĹ¨éĵ¶":11357,"ãĢģï¿½":11358,"%çļĦ":11359,"åıĤèĢĥæ¶Īæģ¯":11360,"è¡Ķ":11361,"å¡ĶåĲīåħĭ":11362,"ï¼ĮåĮħæĭ¬":11363,"è¿ĶçĤ¹":11364,"è·¯åı£":11365,"ï¼Įè¯·":11366,"îī":11367,"Ġè½®":11368,"Ġåĩ¯åıĳçĻ»å½ķç½ĳåĿĢ":11369,"Ġä¿¡æģ¯":11370,"ï¿½]":11371,"title":11372,"ä¸°å¯Į":11373,"çĽ¾":11374,"ĠAGçİ¯äºļå®ĺç½ĳapp":11375,"å»ł":11376,"ĊçľĭçĤ¹å¨±å¤´æĿ¡":11377,"Ġ365è¶³çĲĥå¤ĸåĽ´ç½ĳç«Ļ":11378,"Ġå¤§åıĳæŀģéĢŁpk10":11379,"åĲĦå¤§":11380,"Ġhost":11381,"ĠçĥŁåı°":11382,"ĠåĲĮå¿ĥ":11383,"Ġä¹Ŀå¯¨":11384,"åĽŀè¡Ģ_":11385,"ĠéĩĮ":11386,"Ġæ¾³éĹ¨éĵ¶éĵ¶æ²³":11387,"Ġä¸ľæĸ¹":11388,"å«ģ":11389,"åĤ²":11390,"åı°åįĹ":11391,"¤èĤī":11392,"Ċä¸ľåĮĹ":11393,"qqç¾¤":11394,"Ċæ°´":11395,"é»Ħéĩĳ":11396,"ĊæĹ©çĤ¹åĬłçĽŁåºĹ":11397,"ä¸ľåįĹ":11398,"ç¡®ä¿Ŀ":11399,"äººãĢĤ":11400,"ÂłÂł":11401,"æ°Ķæ¸©":11402,"MT+":11403,"è²łåĤµ":11404,"Ġ365ä½ĵèĤ²æĬķæ³¨ä½ĵèĤ²æĬķæ³¨":11405,"Ġd88.com":11406,"çŃĨ":11407,"Ġ365åľ¨çº¿ä½ĵèĤ²":11408,"Ġä¸Ĭæµ·æĹ©é¤Ĳè½¦åĬłçĽŁ":11409,"å»·":11410,"ĠæĹ©çĤ¹å¿«é¤ĲåĬłçĽŁ":11411,"ĠSD":11412,"Ġè²¸æ¬¾":11413,"user":11414,"hide":11415,"HTML":11416,"ĠAd":11417,"ĠæĹ©çĤ¹åĬłçĽŁå¤ļå°ĳéĴ±":11418,"åįķåıĮï¼ļæŀģéĢŁ":11419,"ĠagæĹĹèĪ°åİħä¸ĭè½½ç½ĳç«Ļ":11420,"Ġ2007":11421,"æĸĩæ±ĩæĬ¥":11422,"éĤ®ç®±æĹłæ³ķéªĮè¯ģ":11423,"mgæīĭæľºçīĪ":11424,"Heiti":11425,"Ġå¤§åıĳå¿«ä¸īæĢİä¹Ī":11426,"Ġåı£åı£é¦ĻæĹ©çĤ¹åĬłçĽŁ":11427,"ĠæĹ©çĤ¹åºĹåĬłçĽŁ":11428,"Ġäºļæ¸¸éĽĨåĽ¢æīĭæľºå®¢æĪ·ç«¯":11429,"01æľĪ":11430,"ĠæĹ©çĤ¹åĬłçĽŁå¥½é¡¹çĽ®":11431,"Ġsimsun":11432,"Ġæ¸ħç¾İæĹ©é¤ĲåĬłçĽŁ":11433,"æĺ¯çľŁçļĦåĲĹ_":11434,"ĠæĹ©çĤ¹åĬłçĽŁåĵģçīĮ":11435,"ĠæĹ©çĤ¹å¤ľå®µåĬłçĽŁ":11436,"ĠæĹ©é¤Ĳè±ĨèħĲèĦĳåĬłçĽŁ":11437,"Ġsimsun,":11438,"Ġå®ľæĺĮ|":11439,"Ġæ¸ħçľŁæĹ©çĤ¹åĬłçĽŁ":11440,"Ġæĸ°å°ļæĹ©é¤ĲåĬłçĽŁ":11441,"ä»·åĢ¼":11442,".äºĶåĪĨå½©":11443,"ä»£æĽ¸åĢŁæ¬¾":11444,"ĠæĿĤ":11445,"ĠEX":11446,"ĠSTHeiti":11447,"ä»£è¾¦":11448,"Ġ365æ£ĭçīĮéĵ¶åķĨ":11449,"ĠæĹ©é¥ŃåĬłçĽŁ":11450,"Ġåħ¨ç¦ıæĹ©é¤ĲåĬłçĽŁ":11451,"Ċè§£æĶ¾æĹ¥æĬ¥":11452,"æĸĹåħŃ":11453,"SC-L":11454,"agæīĭæľºçīĪ":11455,"ĠåĮĹäº¬çī¹èī²æĹ©çĤ¹åĬłçĽŁ":11456,"Ċ2015":11457,"æĹĭ":11458,"æĪ²":11459,"Ġåĵªå®¶æĹ©çĤ¹åĬłçĽŁå¥½":11460,"Ġèİ²":11461,"ĠæĹ©é¤ĲåĬłçĽŁé¡¹çĽ®":11462,"ĠæĹ©çĤ¹å°ıåĲĥåºĹåĬłçĽŁ":11463,"ĠæĹ©çĤ¹åĬłçĽŁå°ıåĲĥ":11464,"åį±éĻ©":11465,"äº¿ç¾İåħĥ":11466,"åĢ¼å¾Ĺ":11467,"ĠåįĸæĹ©çĤ¹åĬłçĽŁ":11468,"Ġè¿ŀéĶģæĹ©é¤ĲåĬłçĽŁ":11469,"Ġå¨ĺå®¶æĹ©é¤ĲåĬłçĽŁ":11470,"Ġå¤©æ´¥æĹ©é¤ĲåĬłçĽŁ":11471,"å¼Ģåħĥ":11472,"6)":11473,"Ġå¤§åįİæĹ©çĤ¹æĢİä¹ĪåĬłçĽŁ":11474,"ĠET":11475,"ĠåĵģçīĮæĹ©é¤ĲåĬłçĽŁ":11476,"ĠæĹ©é¤ĲåĬłçĽŁç½ĳ":11477,"Ġå±±ä¸ľæĹ©çĤ¹åĬłçĽŁ":11478,"SC-Light,":11479,"ĠSTHeitiSC-Light,":11480,"Ġä¼ĹæľĽæĹ©é¤ĲåĬłçĽŁ":11481,".j":11482,"ĠæĹ©é¤Ĳç²¥åĬłçĽŁ":11483,"ĠæĹ©é¤Ĳç²¥è½¦åĬłçĽŁ":11484,"ç´¯è®¡":11485,"Ċæ³ķåĪ¶":11486,"ĠåĮĹäº¬æĹ©é¤ĲåĬłçĽŁ":11487,"ĠæĹ©é¤ĲåºĹ":11488,"ĠæĹ©é¤Ĳåħįè´¹åĬłçĽŁ":11489,"æĺ¯æŃ£è§ĦçļĦåĲĹ":11490,"Ġçİ¯äºļå®ĺæĸ¹":11491,"ĠæĹ©é¤Ĳå°ıåĲĥåºĹåĬłçĽŁ":11492,"itt":11493,"å¥ĹåĪ©":11494,"ĠåĮħåŃĲæĹ©é¤ĲåĬłçĽŁ":11495,"æĪĺæĸĹ":11496,"ĠæĹ©çĤ¹å°ıåĲĥåĬłçĽŁè¿ŀéĶģ":11497,"Ġæ±ŁèĭıæĹ©çĤ¹åĬłçĽŁ":11498,"Ġå°ıåĲĥæĹ©çĤ¹åĬłçĽŁ":11499,"Ġçī¹èī²æĹ©çĤ¹å°ıåĲĥåĬłçĽŁåºĹ":11500,"ĠæĹ©çĤ¹è±ĨæµĨåĬłçĽŁ":11501,"Ġç¾İåĳ³æĹ©é¤ĲåĬłçĽŁ":11502,"ĠçķĮ":11503,"ĠæĹ©é¤ĲåĬłçĽŁåĵģçīĮ":11504,"Ġçī¹èī²æĹ©çĤ¹åĬłçĽŁåºĹæİĴè¡Įæ¦ľ":11505,"å·Ŀéº»":11506,"Ġå¹¿å¼ıæĹ©çĤ¹åĬłçĽŁ":11507,"çľŁäººæīĭæľºapp":11508,"ĠæĹ©é¤ĲåĬłçĽŁä»Ģä¹Īå¥½":11509,"çļĦæĸ°":11510,"Ġå¨ĺå®¶æĹ©çĤ¹è½¦æĢİä¹ĪåĬłçĽŁ":11511,"Ġæ²³åįĹæĹ©çĤ¹åĬłçĽŁ":11512,"ĠåĵģçīĮæĹ©çĤ¹åĬłçĽŁ":11513,"ĠæĹ©é¤Ĳç²¥åºĹåĬłçĽŁ":11514,"Ġç§»åĬ¨æĹ©é¤ĲåĬłçĽŁ":11515,"Ġç²Ĺç²®æĹ©é¤ĲåĬłçĽŁ":11516,"Ġæ±Łè¥¿æĹ©çĤ¹åĬłçĽŁ":11517,"ĠæĹ©é¤ĲèĤłç²īåĬłçĽŁ":11518,"Ġä¸Ĭæµ·æĹ©çĤ¹åĬłçĽŁåºĹ":11519,"ĠæĹ©é¤Ĳè±ĨæµĨåĬłçĽŁ":11520,"ĠåĮĹäº¬æĹ©çĤ¹å°ıåĲĥåĬłçĽŁåºĹ":11521,"ĠåĬłçĽŁæĹ©çĤ¹åºĹ":11522,"ĠåĪ©æĿ¥mgæīĭæľºçīĪ":11523,"Ġçī¹è®¸åĬłçĽŁ":11524,"æ®ĭ":11525,"ĠæŃ£è§ĦçľŁäºº":11526,"Ġæĺ¥åħīæĹ©çĤ¹åĬłçĽŁ":11527,"ĠäºĶèĬ³æĸĭæĹ©é¤ĲåĬłçĽŁ":11528,"ĠæĹ©çĤ¹è¿ŀéĶģåĬłçĽŁåºĹ":11529,"Ġåħ¬ä¸»":11530,"ĠåĮĹäº¬æĹ©çĤ¹æĳĬåĬłçĽŁ":11531,"å¯¹è¯Ŀ":11532,"ĠèĮĥå¾ģæĹ©é¤ĲåĬłçĽŁ":11533,"ĠåĪ©æĿ¥w66æĹĹèĪ°åİħ":11534,"Ġè£ķ":11535,"å¸ĸåŃĲ":11536,"äºī8":11537,"ĠæĹ©çĤ¹æĿ¥åĬłçĽŁåºĹ":11538,"ĠåĽĽå·Ŀçī¹èī²æĹ©çĤ¹åĬłçĽŁ":11539,"Ġæĺ¥åħīæĹ©çĤ¹å·¥ç¨ĭåĬłçĽŁ":11540,"ĠèĪĴå¿ĥæĹ©é¤ĲåĬłçĽŁ":11541,"Ġ365çļĦ":11542,"åĬŀåħ¬å®¤":11543,"Ġæ¸¯å¼ıæĹ©é¤ĲåĬłçĽŁ":11544,"Ġ356betå®ĺæĸ¹":11545,"ĠåĮĹäº¬æĹ©çĤ¹å°ıåĲĥåŁ¹è®ŃåĬłçĽŁ":11546,"ĠæĹ©é¤ĲäºŃåĬłçĽŁ":11547,"çķª|":11548,"çŃĸåĪĴ":11549,"ĠæĹ©çĤ¹åĬłçĽŁæİĴè¡Įæ¦ľ":11550,"Ġç¾İå¼ıæĹ©é¤ĲåĬłçĽŁ":11551,"Ġæĺ¥åħīæĹ©é¤Ĳå·¥ç¨ĭåĬłçĽŁ":11552,"ĠæĹ©é¤ĲçļĦåĬłçĽŁ":11553,"Ċåħ³éĶ®è¯įï¼ļ":11554,"åĴĮåĲĪå½©":11555,"ĠServ":11556,"ĠåĽĽå·ĿæĹ©çĤ¹åĬłçĽŁ":11557,"åŁİåĮº":11558,"Ġä¾¿æ°ĳæĹ©çĤ¹åĬłçĽŁ":11559,"ĠåĲĲé²ģçķª|":11560,"è´¡çĮ®":11561,"ĠåĦĭ":11562,"Ġç§»åĬ¨æĹ©çĤ¹åĬłçĽŁ":11563,"ĠæĹ©çĤ¹åĬłçĽŁåŁ¹è®Ń":11564,"å¹«":11565,"æĢİä¹ĪæıĲçİ°":11566,"ĠæĹ©çĤ¹éĵºåĬłçĽŁ":11567,"ĠæĹ©é¤ĲåĮħåŃĲåºĹåĬłçĽŁ":11568,"ĠæĹ©é¤Ĳè¡Įä¸ļåĬłçĽŁ":11569,"ĠæĹ©é¤ĲåĬłçĽŁæİĴè¡Įæ¦ľ":11570,"å¥³åŃ©":11571,"Ġå¿«é¤ĲæĹ©çĤ¹åĬłçĽŁ":11572,"ĠæĹ©çĤ¹å¿«é¤ĲåºĹåĬłçĽŁ":11573,"Ġæ²³åįĹæĹ©é¤ĲåĬłçĽŁ":11574,"ĠæŁ¯":11575,"±à¸":11576,"åĲĬ":11577,"ĠåıĮåĲĪæĪĲæĹ©é¤ĲåĬłçĽŁ":11578,"å°ĭ":11579,"ĠæĹ©çĤ¹å¿«é¤ĲåĬłçĽŁåºĹ":11580,"ĠæĹ©é¤ĲåĬłçĽŁå¼ĢåºĹ":11581,"ĠæĹ©é¤ĲåĬłçĽŁè´¹çĶ¨":11582,"ĠåĵªéĩĮæľīæĹ©çĤ¹åĬłçĽŁ":11583,"ĠåĮĹäº¬æĹ©çĤ¹è½¦åĬłçĽŁ":11584,"ĠæĹ©é¤Ĳè¿ŀéĶģåºĹåĬłçĽŁ":11585,"èŃ°":11586,"Ġæ¹ĸåĮĹæĹ©çĤ¹åĬłçĽŁ":11587,"Ġæ¸ħçľŁæĹ©é¤ĲåĬłçĽŁ":11588,"ĠåĬłçĽŁæĹ©çĤ¹è½¦":11589,"åĿĳäºº":11590,"Ġç¾İåĳ³æĹ©çĤ¹åĬłçĽŁ":11591,"Ġé¦ĸéĴ¢æĹ©é¤ĲåĬłçĽŁ":11592,"Ġé»ĳé¾Ļæ±ŁæĹ©é¤ĲåĬłçĽŁ":11593,"ĠAT":11594,"Ġä¸Ĭæµ·æĹ©çĤ¹":11595,"-èĩºåįĹå¸Ĥ":11596,"Ġä¸Ĭæµ·æĹ©é¤ĲåĬłçĽŁ":11597,"Ġä¸Ńå¼ıæĹ©é¤ĲåºĹåĬłçĽŁ":11598,"å½©ç¥¨_":11599,"XHJ":11600,"ĠæĹ©çĤ¹æĿ¥æĹ©é¤ĲåĬłçĽŁ":11601,"èŀįè³ĩ":11602,"éĢ±":11603,"æľīåĩłä¸ª":11604,"XHJc":11605,"Ġìŀ":11606,"ĠäºĶæĮĩ":11607,"ĠæĹ©çĤ¹é¡¹çĽ®åĬłçĽŁ":11608,"Ġéĺ¿æĭīå°Ķ|":11609,"Ġbut":11610,"-2019":11611,"ĠåĵģçīĮæĹ©é¤ĲåºĹåĬłçĽŁ":11612,"ĠåĿª":11613,"ç¹§ï½¯ç¹Ŀï½¬":11614,"Ġç»¿èī²æĹ©é¤ĲåĬłçĽŁ":11615,"ZHM":11616,"Ġåĥ":11617,"Ġ$(this).":11618,"ĠæĹ©çĤ¹åĮħåŃĲåĬłçĽŁ":11619,"çĪ¶äº²":11620,"åĩºè¡Į":11621,"Ġé¦Ĩ":11622,"æŀĹéĥŃ":11623,"Ġçľīå±±|":11624,"ĠæĹ©çĤ¹å°ıåĲĥåĬłçĽŁåºĹ":11625,"ĠæĹ©çĤ¹åĬłçĽŁè¿ŀéĶģåºĹ":11626,"Ġä¸ĩåįļAPP":11627,"dod":11628,"Ġæ¾³éĹ¨çĻ¾å®¶ä¹Ĳå®ĺç½ĳ":11629,"Ġbet365ä½ĵèĤ²åľ¨çº¿æĬķæ³¨":11630,"éĩįåºĨæĹ¶æĹ¶å½©":11631,"Ċä¸ŃåĽ½è¥¿èĹıæŀĹèĬĿ":11632,"Ġï¼ī":11633,"æıĲçİ°æ£ĭçīĮæ¸¸æĪı":11634,"ĠæĹ©çĤ¹å·¥ç¨ĭåĬłçĽŁ":11635,"ãĢĤè¿Ļæĺ¯":11636,"Ġ0.0":11637,"è½¬æį¢":11638,"éĻª":11639,"åķĨå®¶":11640,"æīĭæ©Ł":11641,"è§Ĩé¢ĳæ£ĭçīĮæ¸¸æĪı":11642,"çļĦæĹ¶åĢĻ":11643,"éĭª":11644,"æīĳåħĭå®ĺç½ĳ":11645,"åĨ¬å¥¥":11646,"Ġè¥Ħæ¨":11647,"ï¼Įç§°":11648,"Ġw66åĪ©æĿ¥æľĢ":11649,"Ċæµ·å³¡":11650,"Ġåĩ¯åıĳçĶµæ¸¸äºļæ´²":11651,"amF":11652,"åŃŁ":11653,"å°ıé¡įè²¸æ¬¾":11654,"SS":11655,"Ġåĩ¯åıĳk8":11656,"Ġå·§":11657,"APPï¼ļå¤§åıĳå½©ç¥ŀ":11658,"Ġå¤§åıĳå¿«ä¸īæľī":11659,"çĻ»å½ķå®īåįĵçīĪä¸ĭè½½":11660,"åħ¬å®īæľºåħ³":11661,"Ġåıĸæ¶ĪåĽŀè¦Ĩ":11662,"¢ç¹Ŀï½³ç¹§ï½¯ç¹Ŀï½¬":11663,"ï¼Įå¤§":11664,"æ¡Ĩ":11665,"Ġç¨»":11666,"Ġ365ä½ĵèĤ²æĬķæ³¨å¼ĢæĪ·":11667,"Ġé©¬éŀįå±±|":11668,"Ġç»¥åĮĸ|":11669,"ĠéĻĲ":11670,"å®ĭ":11671,"Ġæ¾³éĹ¨éĩĳæ²Ļ":11672,"Ġ365betå®ĺç½ĳäºļæ´²":11673,"¢ç¹Ŀï½³ç¹§ï½¯ç¹Ŀï½¬ç¹Ŀï½¼ç¹Ŀï½«":11674,"Ċ2019-12-07":11675,"/æŀģéĢŁ":11676,"æ¯Ķä¾ĭ":11677,"ĠåłĨ":11678,"Ġæ¬¢è¿İ":11679,"çĬ¯æ³ķ":11680,"Ġç½ĳèµĮ":11681,"eXBl":11682,"ä¸¨":11683,"à¸¡":11684,"Ġå½©ç¥ŀv":11685,"Ġçģ«":11686,"ĊåĬłçĽŁ":11687,"Ġéĺħè¯»ï¼ļ":11688,"Ġagçİ¯äºļçĻ»å½ķ":11689,"c6":11690,"æ¼ıæ´ŀ_":11691,"ĠéħĴæ³ī|":11692,"ï¼Įå®ĥ":11693,"Ġ365ä½ĵèĤ²æĬķæ³¨æ»ļçĲĥ":11694,"åŃĶ":11695,"ĠUniversity":11696,"Ġåı°å·ŀ|":11697,"ç»ıåİĨ":11698,"ĠåĴĮæŀĹ":11699,"aWdod":11700,"Ġå¼łå®¶çķĮ|":11701,"Ġå°Ĭé¾ĻäººçĶŁå°±æĺ¯æĲıæĹ§çīĪ":11702,"ĠéľįæŀĹéĥŃ":11703,"Ġåºľ":11704,"otal":11705,"ĠéĢŁåº¦":11706,"2ç«Ļ":11707,"Ġäºļç¾İåľ¨çº¿":11708,"dn":11709,"éĢļè®¯":11710,"æľĹçİĽ":11711,"å®ŀä½ĵ":11712,"ä¸įåģĩ":11713,"Ġé»ĦçŁ³|":11714,"ä¸¤å²¸":11715,"Ġ365ç¯®çĲĥæ»ļçĲĥ":11716,"Ġæ¾³éĹ¨èµĮåľº":11717,"Ġ1.6L":11718,"éĢĨ":11719,"Ġç§ĳæĬĢ":11720,"Ġviews":11721,"Ġå·´éĩĮ":11722,"ĠæŃ¦å¤·å±±|":11723,"é»ĳç½ĳ":11724,"è¿Ķè¿ĺ":11725,"PHN":11726,"omo":11727,"Ċè¥¿èĹıèĩªæ²»åĮºæĶ¿åºľ":11728,"CB0":11729,"ĊåįİåķĨæĬ¥":11730,"Ġ365ä½ĵèĤ²æĬķæ³¨äºļæ´²":11731,"Ġå¤§åıĳæŀģéĢŁæĹ¶æĹ¶å½©":11732,"Î»":11733,"Ġéĺ¿åħĭèĭı|":11734,"ĠìĿ":11735,"FwvamF":11736,"Ċå¤©æ¶¯":11737,"Ġæĸ°å·´å°ĶèĻİåı³æĹĹ|":11738,"Ġå·´ä¸Ń|":11739,"ĠåĮĹæµ·|":11740,"æĤīï¼Į":11741,"Ġä¸ľä¹Įçıłç©Ĩæ²ģæĹĹ|":11742,"Ġåĩ¯åıĳæľĢæĸ°å®ĺæĸ¹appä¸ĭè½½":11743,"Ġå¸¸å·ŀ|":11744,"jing":11745,"Ġå¼łå®¶åı£|":11746,"arse":11747,"Ċå¨±":11748,"Ġéľŀ":11749,"Ġè¥¿ä¹Įçıłç©Ĩæ²ģæĹĹ|":11750,"ãĢĤä»Ĭå¹´":11751,"åĨłäºļ":11752,"ç¬¬åĽĽ":11753,"é¾ĻæĹ©é¤ĲåĬłçĽŁ":11754,"Ċå¼Ģåħĥæ£ĭçīĮ":11755,"ä¹Į|":11756,"é¸¿":11757,"Ġå¯¿åħī|":11758,"ĠåĵĪå¯Ĩ|":11759,"ĠèģĬåŁİ|":11760,"lick":11761,"Ġå»¶å®ī|":11762,"Ġour":11763,"Ġä¹Ĳæ¸ħ|":11764,"PHNjcmlwd":11765,"CB0eXBl":11766,"jcmlwdFwi":11767,"GV4d":11768,"FwvamF2YX":11769,"PHNjcmlwdCB0eXBl":11770,"NjcmlwdFwi":11771,"widGV4d":11772,"PHNjcmlwdCB0eXBlPV":11773,"FwvamF2YXNjcmlwdFwi":11774,"PHNjcmlwdCB0eXBlPVwidGV4d":11775,"PHNjcmlwdCB0eXBlPVwidGV4dFwvamF2YXNjcmlwdFwi":11776,"ĠåĺīåĸĦ|":11777,"ĠåĪ©æĿ¥w66ç½ĳåĿĢ":11778,"Ġè¾½æºĲ|":11779,"å¿ĺäºĨ":11780,"ĊåĮĹäº¬çĶµè§Ĩåı°":11781,"ãĢĳãĢĲä¸ŃãĢĳãĢĲ":11782,"æ¯ıå¤©":11783,"X01":11784,"éľįæ´Ľ":11785,"dHB":11786,"æ±¾":11787,"Ġä¸Ĭä¸Ģç¯ĩæĸĩç«łï¼ļ":11788,"Ġåĩ¯åıĳç²¾èĭ±ä½ĵèĤ²":11789,"åħħåĪĨ":11790,"ä¸ĵçº¿":11791,"åĩºæĿ¥":11792,"éķ¶":11793,"åıĳçĶŁéĶĻè¯¯":11794,"ĠåįĹå®ī|":11795,"iOiJ":11796,"QiOiJ":11797,"X01f":11798,"Ġæķ¦çħ":11799,"é¾Ļå¾·":11800,"ä¸ľæĸ°":11801,"Ġæ½®å·ŀ|":11802,"Ġäºļæ¸¸éĽĨåĽ¢ä¸ĭè½½":11803,"Ġä¸īæĺİ|":11804,"ĠäºļæĲıçĽ´æĴŃå¹³åı°app":11805,"ĠLa":11806,"è¨Ńè¨Ī":11807,"ĠåºĦæ²³|":11808,"ĠæĹ¥åľŁ|":11809,"Ċé»ĳé¾Ļæ±Łä¸ľåĮĹ":11810,"èĦ±è´«æĶ»åĿļ":11811,"æĶ¶åĪ°":11812,"(R)":11813,"Ġéĺľéĺ³|":11814,"ĠèļĮåŁł|":11815,"Ġå¤©éķ¿|":11816,"ĠPark":11817,"éĩĳéľįæ´Ľ":11818,"çł´è§£_":11819,"ç½ĳappæīĭæľºçīĪ":11820,"è¥¿åĵ¥":11821,"ĠäºļæĲıç½ĳappæīĭæľºçīĪ":11822,"éĢģåĪĨ":11823,"Ġç»ĩ":11824,"HE":11825,"åĪĨéĴŁå½©":11826,"Ġå¥Ī":11827,"120":11828,"éĶĪ":11829,"Ġåĳ¼ä¼¦è´Ŀå°Ķ|":11830,"ĊéĿĴæµ·çľģæĶ¿åºľ":11831,"Ġå¢¨ç«¹":11832,"ĠäºļæĲıå¨±ä¹Ĳappä¸ĭè½½å®ĺç½ĳ":11833,"çĳĻ":11834,"Ġè¾¾å°Ķ":11835,"Ġå°ıé±¼åĦ¿çİĦæľº":11836,"ĠBet365":11837,"Ċä¸ŃåĽ½æĸ°éĹ»ç½ĳ":11838,"Ġsecond(s),":11839,"Ġéĺ¿åĿĿ|":11840,"ĠåłĨé¾Ļå¾·":11841,"Ġæ³Ĺæ´ª|":11842,"è¿Ľä¸įåİ»äºĨ":11843,"å¹´è½»":11844,"Ġä¼Ĭéĩĳéľįæ´Ľ":11845,"ĠèĢģèĻİ":11846,"Ġå¤ªåİŁ":11847,"æĮ£éĴ±":11848,"ç¨®":11849,"âĢĺ,":11850,"æ¶Ķ":11851,"ãĢĤãĢĤ":11852,"åĩłåįģ":11853,"ZnJhbWU":11854,"å·¥åį¡":11855,"Iiwid":11856,"Ġè®¾":11857,">>âĢĺ,":11858,"æľīãĢĳãĢĲ":11859,"ĠäºļæĲıå¹³åı°":11860,"gYWRf":11861,"Ġé¼İ":11862,"åºĨåİ¿|":11863,"æ·»åĬłçĶľèľľç´ł":11864,"âĢ¦Ã©":11865,"åĽ½åĬ¡éĻ¢":11866,"oZWlnaHQ9":11867,"ĠäºĶå¤§è¿ŀ":11868,"âĢ¦Ã©>>âĢĺ,":11869,"çĴ°":11870,"éĵ¶å·Ŀ":11871,"Ġå¯¹":11872,"Ġè¾¹":11873,"å®¢æľº":11874,"çĻ»å½ķä¸įäºĨ":11875,"ä»Ģåħĭ":11876,"èĪĸ":11877,"Ht":11878,"ock":11879,"ĠçıĬçĳļ":11880,"Ġæµ·æ·":11881,"èĤĩäºĭ":11882,"éĿ¢å¯¹":11883,"ĠèĶ¡":11884,"Ġä»ĬæľŁ":11885,"Ġ?(R)":11886,"ĠåĨĢ":11887,"æıĲä¸įäºĨçİ°":11888,"Ġå¢¨ç«¹å·¥åį¡":11889,"ä»Ģåħĭèħ¾":11890,"Ġäºļç¾İå¤ļä¸ĢçĤ¹æīĭæľºçīĪ":11891,"æĪ¿å¹¿åĳĬ":11892,"NzI":11893,"Ġçİ¯äºļå®¢æĪ·ç«¯":11894,"4eD":11895,"X01fNzI":11896,"4eDkw":11897,"X01fNzI4eDkw":11898,"Ġåħĭä»Ģåħĭèħ¾":11899,"çĹĩ":11900,"ĠéĶĻ":11901,"\").html":11902,"æ±½è»ĬåĢŁæ¬¾":11903,"Ġç§ĴéĢŁé£ŀèīĩ":11904,"w66åĪ©æĿ¥":11905,"èµļéĴ±åĲĹ":11906,"Ġä¸ĩçĽĽ":11907,"èĬ±åĽŃ":11908,"åĳ¨æľŁ":11909,"ãĢĭï¼Į":11910,"Ċ2017-10":11911,"Ġä¸ĭä¸Ģç¯ĩæĸĩç«łï¼ļ":11912,"å°İè¦½":11913,"éĩĳé¢Ŀ":11914,"ĊéĶ":11915,"Ċä¸ŃåĽ½è¥¿èĹıæŀĹèĬĿç½ĳ":11916,"çļĦè¯Ŀ":11917,"éĻĩ":11918,"ãĢĭï¼Ī":11919,"Ġå°ĸ":11920,"Ġbet356å¨±ä¹Ĳåľº":11921,"Ġå©º":11922,"hZ":11923,"dpZHRo":11924,"iew":11925,"ĠéĻĪå·´å°ĶèĻİ":11926,"Ġç¼ĸè¾ĳï¼ļ":11927,"éĽªçĲĥ":11928,"èµĦæĸĻåħįè´¹":11929,"ç°¡":11930,"ĠçľŁéĴ±çīĪ":11931,"ĊæĳĦ":11932,"Ġå´Ĥ":11933,"çİĦæľºåĽ¾":11934,"èĭ±çĥĪ":11935,"ĠçľŁéĴ±çīĪæ£ĭçīĮappä¸ĭè½½":11936,"ï¼īçļĦ":11937,"ual":11938,"åĳĨ":11939,"Ġå¡ĺ":11940,"èĥľè´Ł":11941,"Ċåħīæĺİç½ĳ":11942,"è¾ĸ":11943,"å¼Ģé©¬":11944,"åĪĳäºĭ":11945,"2æľĪ":11946,"èµĮåľºç½ĳæĬķ":11947,"è¦ª":11948,"éĩįæĸ°":11949,"800":11950,"éĺľ":11951,"Ġå¾·éĴ¦|":11952,"è¥¿éĥ½å¸ĤæĬ¥":11953,"Ġå½©ç¥ŀå¤§åıĳå¿«ä¸ī":11954,"ĉçĻ¼è¡¨":11955,"ãĢĳãĢĲä¼ļãĢĳãĢĲ":11956,"æĭīéĿ¢":11957,"åķ¦":11958,"ĊäºĶ":11959,"çİĭæĢĿèģª":11960,"æµ¼":11961,"ĊéĽĦ":11962,"ħé±¼":11963,"Ġç¶ĵ":11964,"ç«ŀäºī":11965,"Ġæ¢ħéĩĮ":11966,"8åħĥ":11967,"ç¬¦åĲĪ":11968,"append":11969,"éĽ¾":11970,"ä¹°å½©ç¥¨å®īåħ¨":11971,"èµī":11972,"è¾£æ¤Ĵ":11973,"çĶº":11974,"Ġåı¯ä»¥çİ©":11975,"æĺİå®ī":11976,"æĪ·åı£":11977,"å¯¹åŃĲ":11978,"èªĮ":11979,"Ġä¹Ŀé¾Ļ|":11980,"æĹ¶å°ļ":11981,"å®ĮåĸĦ":11982,"ç½ĳç«Ļåľ°åĽ¾|":11983,"èµļéĴ±çļĦ":11984,"ĠåĪĿ":11985,"Ġæ¾³éĹ¨çľŁéĴ±èµĮåľºç½ĳæĬķ":11986,"åīĳ":11987,"ĠçĭĹä¸ĩä½ĵèĤ²-":11988,"æŃ¡":11989,"Ġéĺ¿åħĭéĻ¶|":11990,"ãĢĳãĢĲæĺ¯":11991,"çģı":11992,"ĠåĲīé¦ĸ|":11993,"ĠçĭĹä¸ĩåŃĺæ¬¾":11994,"ĊCopyrightÂ©2020":11995,"ĠæīĺéĩĮ|":11996,"éĽ»åŃĲéĥµä»¶":11997,"Ġæĸ°éĥ½|":11998,"åħ¬åĬ¡çĶ¨è½¦":11999,"Ġå¤§çĶ°|":12000,"ĠagåĽ½éĻħåİħè¯ķçİ©":12001,"ä¼łæĴŃ":12002,"æ²ģ|":12003,"Ġå¤§åıĳåĪĨåĪĨæĹ¶æĹ¶å½©":12004,"Ġå»ºæĺĮ|":12005,"Ġéľ¸":12006,"ĠReservedç½ĳç«Ļåľ°åĽ¾|":12007,"ĠReservedç½ĳç«Ļåľ°åĽ¾|çĻ¾åº¦åľ°åĽ¾":12008,"çļĦæīĭæľºæ£ĭçīĮ":12009,"èĮĤæĺİå®ī":12010,"ç½ķèĮĤæĺİå®ī":12011,"é«ĺçº§":12012,"é¢Ĩåıĸ":12013,"ĠçŁ³å®¶åºĦ|":12014,"ĠèĬĴåº·|":12015,"å¹²åĺĽ":12016,"Ġä¹¡å®ģ|":12017,"1d":12018,"åħ«çłģ":12019,"Ġå·´éĩĮåĿ":12020,"éªĹäººçļĦåĲĹ":12021,"Ġä¸ĩå®ī|":12022,"Ġéĥİæºª|":12023,"ĠèĢĴéĺ³|":12024,"ĠæĪĲéĥ½|":12025,"03æľĪ":12026,"ĠçİĽæ²ģ|":12027,"Ġå·´ä¸ľ|":12028,"æĭĸ|":12029,"é¢Ĺ":12030,"å¯¼èĪªç½ĳ":12031,"Ċ3.":12032,"ç½ķèĮĤæĺİå®īèģĶåĲĪ":12033,"ĠæĻ®å®ģ|":12034,"Ġå®īè¾¾|":12035,"Ġä¸Ķ":12036,"Ġæ²Ĥæ°´|":12037,"ĠçıŃæĪĪ|":12038,"ĠåĲįç¨±":12039,"ĠæŃ£å®ģ|":12040,"çķĻåŃ¦":12041,"Ġéĺ³æľĶ|":12042,"Ġéĺ¿åĽ¾ä»Ģ|":12043,"ĠæŃ¦éļĨ|":12044,"ĉçĻ¼è¡¨è¿´éŁ¿":12045,"Ġæĸĩå®ī|":12046,"åħįè´¹çīĪ":12047,"ĠåĲīæľ¨èĲ¨å°Ķ|":12048,"ĠæŃ¦é¸£|":12049,"Ġé¢Ŀæķı|":12050,"Ġå¸ĥæĭĸ|":12051,"Ġè¾¾å°Ķç½ķèĮĤæĺİå®īèģĶåĲĪ":12052,"Ċé»ĳé¾Ļæ±Łä¸ľåĮĹç½ĳ":12053,"Ġå¤§åıĳä¸ĢåĪĨéĴŁpk10":12054,"Ġåĺīèį«|":12055,"Ġç©Ĩ":12056,"Ġå¼łå®¶æ¸¯|":12057,"æł¹æľ¬":12058,"Ġå¤ªè°·|":12059,"Ġé«ĺéĺ³|":12060,"ĠåĵĪå°Ķæ»¨|":12061,"Ċèĭı":12062,"ĠéĿĴåİ¿|":12063,"çİ°éĩĳçīĪ":12064,"ĠåįĹåĴĮ|":12065,"ĠæĪ·åİ¿|":12066,"çıłæµ·":12067,"Ġéĩĳæ¹ĸ|":12068,"ĠçĭĹä¸ĩæĦıçĶ²":12069,"Ġæ³°å®ģ|":12070,"Ġåı¯ä»¥çİ©éĴ±":12071,"Ġé©¬åħ³|":12072,"Ġéĥ½åĮĢ|":12073,"ĠéĽ»åŃĲéĥµä»¶":12074,"Ġæľ¨åħ°|":12075,"Ġåı¯ä»¥çİ©éĴ±çļĦæīĭæľºæ£ĭçīĮ":12076,"Ġåĩ¯æĹ¶å®ĺç½ĳ":12077,"è²·?":12078,"Ġå·¦è´¡|":12079,"Ġé»ĳå±±|":12080,"ĠäºĮè¿ŀæµ©çī¹|":12081,"ĠåĽ¾ä»¬|":12082,"Ġå§ĭ":12083,"Ġ365æ»ļçĲĥç½ĳç«Ļ":12084,"éĢĬ|":12085,"Ġä½ķ":12086,"ĠèģĤæĭīæľ¨|":12087,"Ġå¸¸å±±|":12088,"Ġéĥ½åħ°|":12089,"ä¼į":12090,"Ġä¸´åİ¿|":12091,"Ġé¸¡ä¸ľ|":12092,"èµ¢äºĨ":12093,"ĠåįĹå®ģ|":12094,"Ġå¤§åŁĶ|":12095,"Ġå½°æŃ¦|":12096,"Ġéĺ¿çĵ¦æıĲ|":12097,"ç´°":12098,"Ġéķ¿æĺ¥|":12099,"Ġæłĸéľŀ|":12100,"ĠæŃ¦èĥľ|":12101,"Ġä¹ħæ²»|":12102,"Ġé©¬é¾Ļ|":12103,"ĠåĵĪå·´":12104,"Ġæ²Ļæ²³|":12105,"Ġæ²ģæ°´|":12106,"åħ¹":12107,"Ġso":12108,"ĠåįĹåŁİ|":12109,"çľĮ":12110,"ĠéĢļæ±Ł|":12111,"Ã¼":12112,"ĠæĹłæ££|":12113,"Ġä¸Ĭé«ĺ|":12114,"Ġç§¦å®ī|":12115,"æĬĺæī£":12116,"Ġå¥ĩåı°|":12117,"éĹ¯":12118,"ĠéĦ¯åĸĦ|":12119,"éĬĢ":12120,"Ġæ¼³å¹³|":12121,"Ġæ²ĻåĿª":12122,"åŀĤ":12123,"Ġçº¢å®ī|":12124,"ĠæĹłä¸º|":12125,"Ġæ¹ĺä¹¡|":12126,"ĠäºķçłĶ|":12127,"åŁİåİ¿":12128,"Ġè¿ŀå·ŀ|":12129,"Ġèħ¾åĨ²|":12130,"ĠèĢ¿":12131,"Ċä¸ľæ¥ļç½ĳ":12132,"Ġä¸¹æ£±|":12133,"Ġå¼ĢåĮĸ|":12134,"pv":12135,"éĹ®é¢ĺãĢĤ":12136,"æ¬Ħä½į":12137,"Ġåĩ¯åıĳä½ĵèĤ²å®ĺç½ĳ":12138,"è¾ĵåħ¥":12139,"Ġ365betæ»ļçĲĥ":12140,"Ġæĸ°å®ī|":12141,"ĠèįĶæ³¢|":12142,"Ġè¾¾å°Ķç½ķèĮĤæĺİå®īèģĶåĲĪæĹĹ|":12143,"Ġå®£å¨ģ|":12144,"ĠäºĶèĲ¥|":12145,"ĠçĽĪæ±Ł|":12146,"Ġå·´éĩĮåĿ¤|":12147,"Ġæµıéĺ³|":12148,"Ġå¿ħè¦ģ":12149,"ĠåĽºå®ī|":12150,"ĠåĶĲåİ¿|":12151,"ãĢĤä¸ŃåĽ½":12152,"ĠäºĶåįİ|":12153,"ä½įåĿĢ":12154,"Ġå³¡æ±Ł|":12155,"Ġå¤§æ´¼|":12156,"çĶµèĦĳå®¢æĪ·ç«¯":12157,"ĠäºķåĨĪ":12158,"Ġå¤ªä»ĵ|":12159,"Ġè¿Ńéĥ¨|":12160,"Ġé²ħé±¼":12161,"Ġæ»¡æ´²":12162,"Ġå£¤å¡ĺ|":12163,"ĠåķĨæ°´|":12164,"ĠéĿĴçĶ°|":12165,"æ¨Ļè¨ĺ":12166,"Ġæ¸ħæ¶§|":12167,"Ġåħ´å®ī|":12168,"ĠåıĮéĺ³|":12169,"ç§¯|":12170,"Ġä¸ĭä¸Ģé¡µ":12171,"éŃĤ":12172,"Ġåĩ¤åĨĪ|":12173,"Ġæ½¼åįĹ|":12174,"ipad_":12175,"Ġèĭ¥ç¾Į|":12176,"è²¡":12177,"Ġæ²Ļæ¹¾|":12178,"Ġåĩ¯åıĳçĶµçİ©å¨±ä¹Ĳå®ĺç½ĳ":12179,"ä¿Ŀå®ī":12180,"Ġäºļæ¸¸éĽĨåĽ¢åľ¨çº¿":12181,"ä¸įåĪ°è´¦":12182,"ĠåĲ´æ±Ł|":12183,"åĳ¨è¾¹":12184,"ĠWe":12185,"Ċæĸ°æµªåı°æ¹¾":12186,"Ġäºļæ¸¸æ¸¸æĪıå¹³åı°":12187,"ĠçıĬçĳļå²Ľ|":12188,"æīĵæ³ķ":12189,"Ġäºļæ¸¸éĽĨåĽ¢appä¸ĭè½½":12190,"ĠæīĺåħĭéĢĬ|":12191,"Ġéº¦ç§¯|":12192,"é¸Ł":12193,"ĠGD":12194,"ï¿½ï¼ļ":12195,"åħĴ":12196,"r\\n":12197,"Ġå´Ĥå±±|":12198,".create":12199,"ĠèĹģåŁİ|":12200,"ĠED":12201,"Ġå¹¿è¥¿å¿«3":12202,"+365":12203,"Ġè°¢éĢļéĹ¨|":12204,"èµĽäºĭçĽ´æĴŃ":12205,"ĠåĢĭäººç¶²ç«Ļ":12206,"ĠæĪ¿å±±|":12207,"å®Įç¾İ":12208,"Ġé»Ħå¤§ä»Ļ":12209,"Ġå°Ħæ´ª|":12210,"Ġä¸´çĮ":12211,"ĠåĲĮå®ī|":12212,"Ġçİ¯äºļæ³¨åĨĮ":12213,"Ġé¾Ļå±±|":12214,"ĠåĪ©æĿ¥åĽ½æłĩå¨±ä¹Ĳ":12215,"ĠéĩĳéĹ¨|":12216,"Ġå°¼çİĽ|":12217,"iness":12218,"ä¸įæľĥè¢«":12219,"Ġçıłç©Ĩ":12220,"revi":12221,"Ġæ³ķå¾ĭå£°æĺİ":12222,"ĠæŀĹåĳ¨|":12223,"Ġä¸ľå±±|":12224,"è½¬è½½":12225,"ĠéĿĴå·Ŀ|":12226,"Ġä¸¾":12227,"ĠçŁ³æĻ¯å±±|":12228,"Ġçıłç©ĨæľĹçİĽ":12229,"ï¼īæŃ£æĸĩå·²ç»ĵæĿŁï¼ĮæĤ¨åı¯ä»¥æĮīalt+4è¿Ľè¡Įè¯Ħè®º":12230,"Ġæĸĩç«łå°İè¦½":12231,"åħ¬éĸĭãĢĤ":12232,"åľĪ|":12233,"çī¹åĪ«è¡ĮæĶ¿":12234,"ĠéĿ©åĲī|":12235,"è®Ĭ":12236,"ç·¨":12237,"ĠçĴ§":12238,"ĠæĻ®éĻ":12239,"æ¨Ļè¨ĺçĤº":12240,"ĠäºĳæŀĹ|":12241,"è¸ı":12242,"Ġå¿ħè¦ģæ¬Ħä½į":12243,"Ġå¿ħè¦ģæ¬Ħä½įæ¨Ļè¨ĺçĤº":12244,"ĉä½łçļĦ":12245,"éĽ»åŃĲéĥµä»¶ä½įåĿĢ":12246,"Ġè¡ĮåĶĲ|":12247,"ä¸¦ä¸įæľĥè¢«":12248,"éĽ»åŃĲéĥµä»¶ä½įåĿĢä¸¦ä¸įæľĥè¢«":12249,"éĽ»åŃĲéĥµä»¶ä½įåĿĢä¸¦ä¸įæľĥè¢«åħ¬éĸĭãĢĤ":12250,"ĉä½łçļĦéĽ»åŃĲéĥµä»¶ä½įåĿĢä¸¦ä¸įæľĥè¢«åħ¬éĸĭãĢĤ":12251,"Ġ*è¿´éŁ¿":12252,"ĊåķĨéĥ½ç½ĳ":12253,"ĠèģĤèį£|":12254,"æ¬¡æķ°:":12255,"RC":12256,"ĠåµĬæ³":12257,"éĶĢåķĨ":12258,"Ċ2019-11-12":12259,"å¹¶ä¸į":12260,"ĊçĽ¸åħ³æĸĩç«ł":12261,"Ġåģĥ":12262,"Ġé«ĺç¢ĳ":12263,"æľĢéķ¿":12264,"MT+8,":12265,"essage":12266,"ĠåĨħä¸ĺ|":12267,"Ġæ¢¨":12268,"Ġéĺ¿åħĭå¡ŀ|":12269,"æĻļä¸Ĭ":12270,"Ġæ´¥å¸Ĥ|":12271,"Ċ2018-12":12272,"å¥ĭæĸĹ":12273,"ĠæĺĤä»ģ|":12274,"Ġåĵªä¸ª":12275,"Ġæ¾³éĹ¨æ¸¸æĪıå¹³åı°å¨±ä¹ĲçĻ»å½ķ":12276,"sb":12277,"æŃī":12278,"Ġè¾¾æĭīçī¹":12279,"Ġè¥¿å±±|":12280,"ä¼ĺåĬ¿":12281,"ä½£":12282,"ãĢĳãĢĲãĢĤãĢĳãĢĲ<ãĢĳãĢĲ/ãĢĳãĢĲpãĢĳãĢĲ>ãĢĳ":12283,"å¸Ĥéķ¿":12284,"ĠåĲ´ä¸Ń|":12285,"ĠæĬļæĿ¾|":12286,"Ġæ¢ħéĩĮæĸ¯|":12287,"ä»¤åĵĪ":12288,"Ġèİİ":12289,"ï¼Ĭï¼Ĭï¼Ĭï¼Ĭ":12290,"Ċåįİè¥¿éĥ½å¸ĤæĬ¥":12291,"Ġçıłç©ĨæľĹçİĽå³°|":12292,"Ġæ³Ĭ":12293,"Ġé²ħé±¼åľĪ|":12294,"ĠåįĹå±±|":12295,"æµİåįĹ":12296,"Ġäºĳå®ī|":12297,"ĠéĵľéĻµåİ¿|":12298,"æĢİä¹ĪåħħåĢ¼":12299,"ĠçĻ½æľĹ|":12300,"æĺ¯åľ¨":12301,"Ġå¸ĥå°Ķ":12302,"ton":12303,"æķĳæĬ¤":12304,"Ġå±ıä¸ľ|":12305,"Ġéĺ²åŁİåĮº|":12306,"åı£è¯Ģ_":12307,"ĠæĽ²æ°´|":12308,"è¿«":12309,"è§Ģ":12310,"Ġæ¾³éĹ¨åħ¨éĥ¨":12311,"rict":12312,"æĭīå°Ķ":12313,"Ġéĸĭç®±":12314,"Ġä¹Įæĭīçī¹åĲİæĹĹ|":12315,"åĨħåľ°":12316,"Ġsl":12317,"èĥĮæĻ¯":12318,"Ġç»¥èĬ¬":12319,"åĪĹè½¦":12320,"ãĢĳãĢĲtãĢĳãĢĲy":12321,"æ·±åº¦":12322,"ĠæŀĹèĬĿéķĩ|":12323,"ĠéĦ¢":12324,"å¾·å·ŀ":12325,"ĠagæĹĹèĪ°åİħå®ĺæĸ¹ç½ĳç«Ļ":12326,"åĴĮå¹³":12327,"ç¾ħ":12328,"Ġå®ĿåºĶ":12329,"Ġ356betçľŁäºº":12330,"0aW":12331,"Ġéķ¿èĳ":12332,"ĠéĿĴéĵľ":12333,"å·¥ä½ľç»ıéªĮ":12334,"Ġèµ£åİ¿|":12335,"Ġæ¯Ķå¦Ĥ":12336,"Ġäºļç¾İå¹³åı°":12337,"å¸Įå°Ķ":12338,"Ġå¾·ä»¤åĵĪ":12339,"ä¼ģæ¥Ń":12340,"æĢ¨":12341,"åŃĺåħ¥":12342,"cial":12343,"äººæŃ»äº¡":12344,"All":12345,"Ġåħĭä»Ģåħĭèħ¾æĹĹ|":12346,"ING":12347,"Ġéĵģå±±|":12348,"åĽŀäºĭ":12349,"Ġè¨İè«ĸ,":12350,"å¨ģèĥģ":12351,"è¼ķ":12352,"Ġè¿ŀäºĳåĮº|":12353,"çľŁäººçīĪ":12354,"ĠéĹ»":12355,".00åħĥ":12356,"ĠçĤī":12357,"æŃ»äºº":12358,"Ġä¼Ĭéĩĳéľįæ´ĽæĹĹ|":12359,"åľ°éľĩ":12360,"Ġ365æ£ĭçīĮæ¸¸æĪıä¸Ńå¿ĥ":12361,"²ï¿½":12362,"æ¯Ķå¦Ĥ":12363,"5)":12364,"æĺİæĺ¾":12365,"ĠéĴĵé±¼å²Ľ|":12366,"Ġèĭıå°¼çī¹åı³æĹĹ|":12367,"Ġåĩ¯åıĳçĶµæ¸¸å¼ĢæĪ·":12368,"Ġé£¯åºĹ":12369,"åĴĮãĢĳãĢĲ":12370,"ĠéĻĪå·´å°ĶèĻİæĹĹ|":12371,"ä¸īåĪĨå½©":12372,"ĠåľŁé»ĺçī¹åı³æĹĹ|":12373,"æĭĽçĶŁ":12374,"ä½ĵèĤ²çĽ´æĴŃ":12375,"åı¯åĶ®":12376,"æ·¡":12377,"Ġå°¼åĭĴ":12378,"110":12379,"ï¼ĮåĲĳ":12380,"ĠåĨĮ":12381,"Ġæľīä¿¡èªīçļĦ":12382,"gh":12383,"ĠæĺŁæľŁ":12384,"ĠåıĻ":12385,"æŀªåĩ»":12386,"çŁ³å®¶åºĦ":12387,"Ġéĺ¿åĲĪ":12388,"ĠäºļæĲıå¨±ä¹Ĳç½ĳé¡µçīĪçĻ»å½ķ":12389,"Ġåĩ¯åıĳç½ĳåĿĢæĺ¯å¤ļå°ĳ":12390,"ĠåĽĽåŃĲçİĭ":12391,"æ¹ĸåİ¿|":12392,"Ġéº¦çĽĸ":12393,"å¸ĥæ±Ł":12394,"ĠçİĽçº³":12395,"ä¾ł":12396,"Ċ2019-11-14":12397,"å¤ļæķ°":12398,"ä»Ĩå¯º":12399,"è§Ĥåħī":12400,"ĊThis":12401,"æŃ£ç½ĳ_":12402,"éĢ¸":12403,"éłĺ":12404,"ĠåįĹæľ¨":12405,"ä¹Įé½Ĳ":12406,"çİ¯çĲĥç½ĳæĬ¥éģĵ":12407,"ç½ĳç«Ļé¦ĸé¡µ":12408,"Ġ365ä½ĵèĤ²æĬķæ³¨å¤ĩçĶ¨ç½ĳåĿĢ":12409,"æĿĢåı·":12410,"å¹´çº§":12411,"æĤ²":12412,"ä½ıæ°ĳ":12413,"ĠåĲīæľ¨ä¹":12414,"Ġç¿ģçīĽ":12415,"vel":12416,"Ġç±»ä¹Įé½Ĳ":12417,"ä¿ĳ":12418,"Ġå¤§æ¸¡":12419,"éĹ¨åİ¿|":12420,"2008":12421,"Ġæµªåį¡":12422,"Ġèĭ±åĲī":12423,"okerst":12424,"Ġæīİèµī":12425,"Ġå¤ªä»Ĩå¯º":12426,"sia":12427,"Ġåĳ¼åĽ¾":12428,"ĠCollect":12429,"å®īåİ¿":12430,"åħŃåĲĪå½©":12431,"Ġåĩ¯åıĳå®ĺæĸ¹ç½ĳç«Ļ":12432,"ç½ĳçĽĺ":12433,"Ġåįļå¤©918":12434,"å¥ĹæĪ¿":12435,"Ġå²³æĻ®":12436,"Ġåĩ¯åıĳappå®īåįĵçīĪä¸ĭè½½":12437,"ĨĲ":12438,"è¿Ł":12439,"Ġä¸ĵä¸ļ":12440,"Ġæ°ĳéĸĵ":12441,"Ġèĭ¥å°Ķ":12442,"ç§ĳæĬĢæľīéĻĲåħ¬åı¸":12443,"198":12444,"ï¿½x":12445,"ĠåĪ©æĿ¥æ³¨åĨĮ":12446,"è½©":12447,"æĬĹè®®":12448,"èµĦæľ¬":12449,"click":12450,"Ġ5åĪĨå½©":12451,"Ġä¹Ĳæ©Ļlc8":12452,"ĠåĩĨæł¼å°Ķ":12453,"11éĢīäºĶ":12454,"Ġå·¥å¸ĥæ±Ł":12455,"Ġåľ£":12456,"ĠCo.,":12457,"TD":12458,"ĠåĲĪä½ľä¼Ļä¼´":12459,"Ġk8å¨±ä¹Ĳå®ĺç½ĳåħįè´¹ä¸ĭè½½":12460,"æ²»çĲĨ":12461,"ĠPM":12462,"Ġçķª":12463,"Ġk8å¨±ä¹Ĳç½ĳç«Ļ":12464,"Ġpk10è®¡åĪĴ":12465,"èµĮå½©":12466,"åħ¬åı¸çļĦ":12467,"èīĺ":12468,"9)":12469,"é¦ĸåħĪ":12470,"åħ±å»º":12471,"åĪ«å¢ħ":12472,"åĪĨå¿«ä¹Ĳ10åĪĨ":12473,"ëĭ¤.":12474,"è¡Įæĥħ":12475,"Ġæ¾³éĹ¨ç½ĳä¸ĬèµĮæĲı":12476,"Ġæĸ¹æŃ£":12477,"ĠçľŁäººèµĮéĴ±æ£ĭçīĮæ¸¸æĪıå¹³åı°":12478,"çŃīãĢĤ":12479,"Ġéĥģ":12480,"å±±åĮº":12481,"uuå¿«ä¸ī":12482,"åĪĨå¿«ä¹ĲåįģåĪĨ":12483,"XC9hZHM":12484,"ĠåĪ©æĿ¥w66æľĢèĢģçīĮ":12485,"ĠåįĹå®«":12486,"ĠéĻ¤":12487,"çº¿ä¸ĬçľŁäºº":12488,"åĪĨï¼Į":12489,"ç²¾éģ¸":12490,"The":12491,"Ġè¶³å½©çĭĹä¸ĩ":12492,"ĠHouse":12493,"Ġè°ĥåħµ":12494,"ãĢĳãĢĲtãĢĳãĢĲyãĢĳãĢĲlãĢĳãĢĲeãĢĳãĢĲ":12495,"æľĢæĸ°åľ¨çº¿":12496,".COM":12497,"ystem":12498,"èħ¾è®¯åĪĨåĪĨå½©":12499,"å¦Ĥä½ķæıĲçİ°":12500,"Ġç¿¼":12501,"æĹ¦":12502,"Ġæ²Ĳ":12503,"ĠåºĲ":12504,"éķ¶çĻ½":12505,"ä¸ºåķ¥":12506,"åľ°äº§":12507,"Ġuuå¿«3":12508,"10æĹ¥":12509,"ĠQQ":12510,"ep":12511,"ĠèĩªåĬ©æĹ©é¤ĲåĬłçĽŁ":12512,"äºĭéķ¿":12513,"Ġæ¨Ł":12514,"Ġåĩ¯åıĳæ¸¸æĪıå®ĺç½ĳ":12515,"éĩĮçļĦ":12516,"ĠæŃ£éķ¶çĻ½":12517,"Ġåĩ¯åıĳçĶµæ¸¸å®¢æĪ·ç«¯":12518,"æ¶Īéĺ²åĳĺ":12519,"Ġè¾°":12520,"177":12521,"æİ¥è§¦":12522,"ĠçĭĹä¸ĩå¾®ä¿¡":12523,"é£¾":12524,".parent":12525,"Ġåĩ¯åıĳçĶµæ¸¸äºļæ´²é¦ĸéĢī":12526,"Ċ2019-12-08":12527,"ĠéŁ³":12528,"Ġel":12529,"Ġ365æ£ĭçīĮæ¸¸æĪıå¤§åİħ":12530,"ĊO":12531,"åħ©":12532,"æ³¨åĨĮ_":12533,"èĩ³å°ĳ":12534,"ĠèĮĮ":12535,"Ġæ¹¾":12536,"Ġ365æ£ĭçīĮè´¦åı·":12537,"èĩº":12538,"Ġæ¾³éĹ¨ç½ĳé¡µå¨±ä¹Ĳç½ĳç«Ļ":12539,"ä»Ģéº¼":12540,"è©ķè«ĸ":12541,"ä¿Ŀäºº":12542,"lish":12543,"å®ł":12544,"login":12545,"Ċ2019-11-15":12546,"å®ĺæĸ¹åħ¥åı£":12547,"ĠæĬķç¨¿":12548,"æ±Ĺ":12549,"åįİäºº":12550,"ä¸»åĬ¨":12551,"åĪĨæŀĲ_":12552,"index":12553,"Jn":12554,"èĨł":12555,"Ġçķ¥":12556,"ĠAB":12557,"ãĢĤæĻ®äº¬":12558,"åģľæŃ¢":12559,"Ġåĵį":12560,"ĠäºļæĲıæīĭæľºçīĪå®ĺæĸ¹ä¸ĭè½½":12561,"ĠåĪ©æĿ¥æľĢèĢģçīĮç½ĳç«Ļ":12562,"ä¹Łæľī":12563,"Ġåĩ¯æĹ¶åĽ½éĻħapp":12564,"ãĢĤä¸įè¿ĩ":12565,"å¹²åĺĽçļĦ":12566,"è¿Ĳè¡Į":12567,"ç¼ĥï¿½":12568,"éĭ¼":12569,"ç§ĺç±į":12570,"Ġå¤§è¿ŀ":12571,"å½±éĻ¢":12572,"Ġæ½įåĿĬ":12573,"ï¼ĮæĬĬ":12574,"360":12575,"Ċä¹¦":12576,"å°Ķå¤«":12577,"sport":12578,"éĻµåĽŃ":12579,"%ãĢĤ":12580,"Ġå·¥ä½ľ":12581,"ĠAGåİħ":12582,"Ġæ¶¡":12583,"ĠéĢļè®¯":12584,"Ġé¤Ĳ":12585,"çĵľ":12586,"ĠæĽ´æĸ°":12587,"å½©ç¥¨å®ĺç½ĳ":12588,"Ġä¸ĺ":12589,"å¤ļåĲį":12590,"èĭĹæłĹ":12591,"ens":12592,"ĠçŃī":12593,"ãĢĤç¾İåĽ½":12594,"ç»ı|":12595,"åħĦ":12596,"æĮ¡":12597,"æ³¨åĨĮæĶ¶ä¸įåĪ°éĤ®ä»¶":12598,"è¯Ħæµĭ":12599,"Ġå¤§çŁ³":12600,"å¤§éģĵ":12601,"ĊéĶ¡æŀĹ":12602,"\").c":12603,"ĠéĹµè¡Į":12604,"è£Ĥ":12605,"Ġé¾Ļæ³ī":12606,"ĠæľĢæĸ°æīĭæľºçīĪ":12607,"ĠæľĿéĺ³":12608,"3aWR0a":12609,"æłĩçŃ¾":12610,"ardo":12611,"ĠArticle":12612,"æĹıèĩªæ²»å·ŀåĮºåı·":12613,"ĠæľĢæĸ°æīĭæľºçīĪçľŁéĴ±æ£ĭçīĮ":12614,"appä¸ĭè½½åľ°åĿĢ":12615,"Ġagå®¢æĪ·ç«¯":12616,"oto":12617,"ðŁ":12618,"èĥľå®¢":12619,"æĹıèĩªæ²»å·ŀéĤ®ç¼ĸ":12620,"Ġè¾¾æĭīçī¹æĹĹ|":12621,"Ġå«©":12622,"ute":12623,"HM":12624,"è¾¾äºº":12625,"Ġç¦ıå»ºå¿«3":12626,"åĢŁéĮ¢ç®¡éģĵ":12627,"Ġäºļæ¸¸éĽĨåĽ¢å¹³åı°":12628,"è¾¾æĪĲ":12629,"çĥ¦":12630,"ĊéĶ¡æŀĹæµ©çī¹":12631,"Ġone":12632,"Ġåĩ¯åıĳæīĭæľºå®¢æĪ·ç«¯":12633,"ĠåĨ·æ°´":12634,"Ġæł¡":12635,"Ċæ³¨åĨĮæĹ¶éĹ´ï¼ļ2019":12636,"Ġstyle=\"":12637,"ĠéĤ®":12638,"Ġéĵħ":12639,"æĭħä¿Ŀç½ĳ":12640,"å½©å¤§åıĳå¿«ä¸ī":12641,"ĠMP":12642,"app|":12643,"http://www.":12644,"åĦ¿åŃĲ":12645,"å®ŀéªĮ":12646,"Ġåıª":12647,"æ®º":12648,"ĠSN":12649,"Ġåĩ¯åıĳå®ĺæĸ¹æīĭæľºapp":12650,"å±±æĹħæ¸¸":12651,">ãĢĳãĢĲ":12652,"ĠéĤ»":12653,"èµĶåģ¿":12654,"Ġ918æĲıå¤©åłĤæīĭæľºçĻ»å½ķ":12655,"Ġå¦":12656,"Ġæĸ°å»º":12657,"Ġåŀ«":12658,"ç¬¬äºĶ":12659,"èĢĲ":12660,"é¦Ļæ¸¯|":12661,"éħįèµĦåħ¬åı¸":12662,"ĠæĶ¯":12663,"ĠåĩŃ":12664,"ä¸Ńåħ±":12665,"ç¨ĭåº¦":12666,"Ġæµĳ":12667,"Ġ365betå®ĺç½ĳä½ĵèĤ²æĬķæ³¨":12668,"ĠçĤİ":12669,"Ġæ¯ı":12670,"çıį":12671,"les":12672,"Ġæ¦ķ":12673,"éłĲè¨Ĥ":12674,"ç»ĦæĪĲ":12675,"ĠæľĢç»ĻåĬĽ":12676,"ĠCF":12677,"Ġè½¯ä»¶":12678,"ç¿Ĵ":12679,"Ġæĸ¯":12680,"æĭĶ":12681,"ĠåĳĪ":12682,"ĠèĢģèĻİæľº":12683,"çī¹æ®Ĭ":12684,"gin":12685,"å¥½è¿Ĳå¿«ä¸ī":12686,"éĩİçĮª":12687,"tYXJn":12688,"tYXJnaW5":12689,"ĠéĦĤæīĺåħĭæĹĹ|":12690,"ĠåĽĽåŃĲçİĭæĹĹ|":12691,"Ġæµ¦ä¸ľæĸ°":12692,"Ġ365betå®ĺç½ĳçİ°éĩĳ":12693,"ä»Ģä¹Īæł·":12694,"ĊæŃ¤åĪĨé¡ŀ":12695,"Ġç¢Į":12696,"æĭħä¿Ŀç½ĳå®ĺç½ĳå¹³åı°":12697,"åĬłæĸ¯":12698,"Ġå¤ªä»Ĩå¯ºæĹĹ|":12699,"iosä¸ĭè½½":12700,"ĠBl":12701,"Intro":12702,"Ġç§ŁæĪ¿å¹¿åĳĬ":12703,"Ġæ¹Ħ":12704,"ĠåĮĹç¢":12705,"Ġæ¾³éĹ¨ç½ĳæĬķæĭħä¿Ŀç½ĳå®ĺç½ĳå¹³åı°":12706,"Ġæ¼ł":12707,"æĸĩåı²çīĪ":12708,"æ³¨åĨĮéĢģ18":12709,"ç¢°":12710,"ä¼ĳéĹ²":12711,"Ġåĭĥ":12712,"æµ·åĨĽ":12713,"Ġç¿ģçīĽçī¹æĹĹ|":12714,"cIiB":12715,"ĠåĲĽ":12716,"åĿļæĮģ":12717,"ç²¤":12718,"éĽĨä¸Ń":12719,"æ´®":12720,"å¼ĢæĪ·éĵ¾æİ¥":12721,"Ġæķĸ":12722,"è·ĳçĭĹåĽ¾":12723,"Ġä¹ĥ":12724,"å®īåħ¨ä¹Ī":12725,"ĠæĺĶ":12726,"ĠéĿĴæµ·":12727,"ĠæľĢè¿ĳ":12728,"Ġå¤§åıĳå½©ç¥ŀ8":12729,"åĢ¾":12730,"Ġæīİèµīçī¹æĹĹ|":12731,"Ċåıĳå¸ĥæĹ¶éĹ´ï¼ļ2019":12732,"ĠæŀĿ":12733,"å·¥åľ°":12734,"Ċæ±Łèĭıå¹¿æĴŃçĶµè§Ĩç½ĳ":12735,"é²¸":12736,"ĠæĿŃéĶ¦åĲİæĹĹ|":12737,"Ġè¯ı":12738,"ĠåĸĢåĸĩæ²ģæĹĹ|":12739,"æĽ¿":12740,"ĠåĪ©æĿ¥æľĢç»ĻåĬĽ":12741,"è¶³å½©åĲ§":12742,"uest":12743,"æŁ±":12744,"ĠçĽ®":12745,"Ľå´":12746,"çī²":12747,"ĠOD":12748,"Ġæ´®":12749,"è¯Ĺæĸĩåı²çīĪ":12750,"ï¿½|ï¿½^":12751,"ĠæĹ¶éĹ´ï¼ļ2019å¹´10æľĪ":12752,"Ġä¼½":12753,"ĠèĽŁ":12754,"åĮ»åŃ¦":12755,"ĠLtd.":12756,"Ġæ¢ĵ":12757,"Ġå»ºçĵ":12758,"Ġæ¡Ĳæ¢":12759,"Ġæ¡ĥåľĴ":12760,"ĠåĩĨæł¼å°ĶæĹĹ|":12761,"å¸Ĳåı·":12762,"ä¸Ĭä¸Ģç¯ĩï¼ļ":12763,"Ġäºļæ¸¸æīĭæľºçīĪ":12764,"Ġæ²½":12765,"åŀĴ":12766,"Ġéķ¶":12767,"ĠèĬ®":12768,"Ġå¯Įè£":12769,"ajax({":12770,"Ġag8":12771,"æĸ°åİ¿|":12772,"Ġäºļæ¸¸appå®ĺç½ĳä¸ĭè½½":12773,"èµ¤":12774,"éĻ½":12775,"Ġè´ŀ":12776,"æ°´å¸Ĥ|":12777,"å§ļ":12778,"ĠéĵģåĬĽ":12779,"Ġéĩĳå±±":12780,"Ġå®ķ":12781,"ĊæĳĦè¯Ĺæĸĩåı²çīĪ":12782,"arget":12783,"ĠéºŁ":12784,"ĠæīĭæľºçĻ¾å®¶ä¹Ĳæ£ĭçīĮ":12785,"æĢ»ç«Ļ":12786,"ĠåįĹæ±ĩ":12787,"åıĳå±ķçļĦ":12788,"éĺ´åİ¿|":12789,"UUçĽ´æĴŃ":12790,"ãĢĳãĢĲäºĨãĢĳãĢĲ":12791,"Ġåĩ¯åıĳçĶµæ¸¸ç½ĳé¡µçīĪ":12792,"Ġä¸¹æ±Ł":12793,"Ġ3åĪĨå½©":12794,"att":12795,"Ġäºĳéľ":12796,"æĮĩç¤º":12797,"åŃĹä½ĵï¼ļ":12798,"èĹ¤":12799,"å¯¹æĸ¹":12800,"ĠæŃ£éķ¶çĻ½æĹĹ|":12801,"Ġagçİ¯äºļæ³¨åĨĮç½ĳåĿĢ":12802,"çİ¯ä¿Ŀ":12803,"Ġç¹ģå³":12804,"ç¿Ķ":12805,"Ġå½Ŀ":12806,"æ¸łéģĵ":12807,"Ġåĩ¯åıĳæľĢæĸ°çĻ»å½ķç½ĳåĿĢ":12808,"å¤±åİ»":12809,"æĪ¿è²¸åĪ©çİĩ":12810,"ĠæŁŀ":12811,"ache":12812,"ĠçĭĹä¸ĩå®ĺç½ĳç½ĳåĿĢ":12813,"çĦ¶èĢĮ":12814,"Ġå·§å®¶":12815,"result":12816,"¿åĲį":12817,"Ġå£¶":12818,"Ġbet365åľ¨çº¿":12819,"èĭ±è¶ħèģĶèµĽ":12820,"ĠéĢļæ¸":12821,"ĠhostIntro":12822,"Ġçłļ":12823,"Ġå¤§åıĳæĹ¶æĹ¶å½©å¼Ģå¥ĸ":12824,"Ġç£´":12825,"é¾Ļåİ¿|":12826,"Ċ2019-11-18":12827,"å¼ĢæĪ·çĻ»åħ¥":12828,"ĠåĪ©æĿ¥w66å¹³åı°æ³¨åĨĮ":12829,"02æľĪ":12830,"éŀŃ":12831,"Ġç¨·":12832,"Ċ*":12833,"Ġèķī":12834,"å¿§":12835,"Ġåħ°èĢĥ":12836,"ĠçİĭèĢħ":12837,"ĠéĺĨ":12838,"åı¦ä¸Ģ":12839,"Ġæ±¨":12840,"ĠåĨĮäº":12841,"Ġé£ŀ":12842,"Ġä¹Įå®¡":12843,"åĩĮæĻ¨":12844,"Ġå®ĿåĿ":12845,"appåľ¨çº¿":12846,"ĠæŃ¦åĬŁ":12847,"æºĲå¸Ĥ|":12848,"Ġæ±Łæ²¹":12849,"åĽŀæĶ¶":12850,"usiness":12851,"ĠæŃ¦éĻ":12852,"Ġå¼ĭ":12853,"éªĮè¯ģçłģ":12854,"Ġå®ļè¥Ħ":12855,"Ġäºļç¾İam8å¹³åı°":12856,"Ġå½ĵæ¶":12857,"ĠéĿĸå®ĩ":12858,"Ġå¤§åıĳæŀģéĢŁå¿«ä¸ī":12859,"ä¹Įåħĭåħ°":12860,"ĠéĩĳåłĤ":12861,"ĠæľĽè°":12862,"åĬłçĽŁæĿ¡ä»¶":12863,"Ġçº³éĽ":12864,"Ġçļĭ":12865,"Ġèĭ±éĽĦ":12866,"Ġè¥¿çķ":12867,"Ġæŀŀ":12868,"Ċ2019-12-09":12869,"åįģä¸ī":12870,"Ġå¤ĸåĽ´ç½ĳç«Ļ365":12871,"Ġå¯Łéļ":12872,"Ġå·´æ¥ļ":12873,"Ġèĭįæ¢":12874,"Ġæ¦Ĩç¤¾":12875,"åĪ¶å®ļ":12876,"é¥°åĬłçĽŁ":12877,"Ġæĸ½ç§":12878,"Ġå²ĳå·":12879,"Ġéĥĵ":12880,"Ġbet356ä½ĵèĤ²":12881,"ĠéĢĬ":12882,"å°Ĩåľ¨":12883,"ĠéĤĽå´":12884,"aut":12885,"Ġå¯Įèķ":12886,"æĶ¾å¿ĥæĹ©çĤ¹":12887,"ĠçĽ±çľ":12888,"ĠéĦ±":12889,"Ġæģ¯çĥ":12890,"Ġé«ĺæ·":12891,"Ġæĸ°ç»":12892,"Ġä¸´æľ":12893,"å®ĺæĸ¹æ³¨åĨĮ":12894,"Ġdi":12895,"ĠçŁ³éĺ":12896,"Ġé¢į":12897,"Ġ12æľĪ":12898,"Ġåįĵå°¼":12899,"Ġä¸´æ´®":12900,"ĠäºĶå¸¸":12901,"Ġä¸¾æĬ¥":12902,"Ġå¾·æĥł":12903,"ĠçĶµçİ©å¨±ä¹Ĳæ£ĭçīĮ":12904,"ife":12905,"Ġåŀ£":12906,"ĠåĴĮæĶ¿":12907,"ĠèĴĻèĩª":12908,"Ġéº»æłĹ":12909,"ĠåİĨ":12910,"å¹³åı°åĲĹ":12911,"Ġä»ªéĻĩ":12912,"Ġagäºļç¾İ":12913,"ãĢĢæĿ¥æºĲï¼ļ":12914,"Ġä¸Ńæĸĩ":12915,"æĺ¯çľŁæĺ¯åģĩ":12916,"Ġæ³Į":12917,"Ġæµ·æĻ":12918,"Ġèµŀçļĩ":12919,"Ġéĥ§":12920,"Ġæµ·çĽ":12921,"åħĪéĶĭ":12922,"ĠåĽĬ":12923,"ĠMF":12924,"wan":12925,"ä¼¯çī¹":12926,"Ġæ²³éĹ´":12927,"Ġæ·ħ":12928,"ĠåĴĮéĿĻ":12929,"Ġä¸ĩè½½":12930,"Ġæ¸ĳ":12931,"Ġä¸Ńçī":12932,"Ġéķ¿æ±":12933,"Ġç±³èĦ":12934,"ĠåĬłæŁ¥":12935,"çī¹åĮºæĶ¿åºľ":12936,"Ġæ½¢":12937,"Ġæ¿ī":12938,"¤èĤīåĬłçĽŁ":12939,"Ġæ°¸æµİ":12940,"Ġä¸ĬæĢĿ":12941,"ĠHD":12942,"ĠæŃ¦ç©":12943,"åĮħåĬłçĽŁ":12944,"999":12945,"Ġæ´ªæ´ŀ":12946,"Ġä¸Ķæľ«":12947,"iss":12948,"Ġé»Ħéª":12949,"Ġéĥ¸":12950,"éĻįä½İ":12951,"åįķåıĮè®¡åĪĴ_":12952,"ĠæĹĮ":12953,"æĿİèį£":12954,"Ġå¹¿çģµ":12955,"Ġé»Ħæ¢ħ":12956,"Ġä¼ĬåĲ":12957,"åıªæĺ¯":12958,"éĺ¶æ®µ":12959,"Ġçľĭ":12960,"Ġä¸´æ¡":12961,"Ġä»ĢéĤ":12962,"Ġè®·":12963,"Ġç¾İå§":12964,"æĮĩå¯¼":12965,"æĻºæħ§":12966,"Ġå°īçĬ":12967,"ads":12968,"æµľï¿½":12969,"location":12970,"ĠéĶĻéĤ£":12971,"Ġå¤§åıĳå½©ç¥¨å¿«ä¸ī":12972,"çªģçł´":12973,"12æľĪ21æĹ¥çĶµ":12974,"åŁºæĸ¯åĿ¦":12975,"éħ¸":12976,"ĠçŁ³æ¥¼":12977,"ĠåįļçĪ±":12978,"Ġå°ļå¿Ĺ":12979,"ĠæĹºèĭ":12980,"Ġçİ¯äºļy":12981,"åº¦åģĩ":12982,"ĠæŃ¦å®£":12983,"ç½ĳé¡µçĻ»å½ķ":12984,"Ġä¹Įæģ":12985,"çģ°":12986,"ĠåĻ¶":12987,"Ġçĵ®":12988,"ä¹ĭåĲİ":12989,"åĬłçĽŁè´¹åıĬ":12990,"åĬłçĽŁè´¹åıĬåĬłçĽŁæĿ¡ä»¶":12991,"Ńå½Ĵ":12992,"æĸĻåºĹåĬłçĽŁ":12993,"èĥľå®¢åĬłçĽŁè´¹åıĬåĬłçĽŁæĿ¡ä»¶":12994,"çł´è§£è½¯ä»¶":12995,"ĠèĪŀéĴ¢":12996,"ĠåįĹæ¾³":12997,"Ġå¤§åİĤ":12998,"æ¾³åįļ":12999,"Ġæĸ°éĤ":13000,"æ¸¸æĪıæ³¨åĨĮ":13001,"ĠçģµçĴ":13002,"Ġä¸īç©":13003,"Ġå®ģéĻ":13004,"Ġæī¶ç»":13005,"Ġéķ¶é»Ħ":13006,"ĠæĻĭåŁİ|":13007,"Ġå¾ĲéĹ»":13008,"Ġæ³½æĻ®":13009,"Ġä¸´é¢":13010,"Ġåħ¨æ¤Ĵ":13011,"Ġå¼ķ":13012,"Ġåĩ¯åıĳæ³¨åĨĮappåľ¨çº¿":13013,"ĠKN":13014,"ĠåĽĬè°":13015,"Ġç¼Ļ":13016,"é§":13017,"ĠæĿ¾æ½":13018,"ĠçĬį":13019,"ĠåįĵèµĦ":13020,"Ġå¤§æĤ":13021,"Pad":13022,"ener":13023,"åħ´å¥ĭ":13024,"Ġç»Ŀ":13025,"Ġå½©ç¥ŀäºīéľ¸8ä¸ĭè½½":13026,"åĳ³åĬłçĽŁ":13027,"Ġå¤§èĭ±":13028,"ĠçłĢ":13029,"Ġå´ĩç¤¼":13030,"ĠéļĨå°":13031,"ĠéģĵåŃ":13032,"Ġåħ¬éĩĮ":13033,"Y2F":13034,"Ġæ°¸ä¿®":13035,"ĠæĽ²éº»":13036,"Ġå¹³æŀľ":13037,"ĊéĶ¡æŀĹæµ©çī¹æĸ°éĹ»ç½ĳ":13038,"px;":13039,"åĩºåıĳ":13040,"åºĵå°Ķ":13041,"Ġå¥ĪæĽ¼":13042,"Ġä¼ļåĲĮ":13043,"ĠæľĽå¥":13044,"ĠåįĹåı¬":13045,"çºµ":13046,"å³°ä¼ļ":13047,"Ċäººæ°ĳç½ĳåĨħèĴĻåı¤":13048,"ĠåĪļå¯Ł":13049,"Ġåı¤èĶ":13050,"ĠéĿĴç¥ŀ":13051,"Ġåĺīé±¼":13052,"Ġä¸´æ¾":13053,"Ġå°ģå¼Ģ":13054,"Ġå¾ª":13055,"åĢ¡è®®":13056,"onardo":13057,"ĠçŃł":13058,"Ġ{}":13059,"ES":13060,"ĠéĦĦ":13061,"Ġç¬¬ä¸Ģ":13062,"alax":13063,"å¹¸è¿Ĳ28":13064,"Ġåı¤äº¤":13065,"Ġ356betä½ĵèĤ²æĬķæ³¨":13066,"åĩ¡åĵį":13067,"ĠProcessed":13068,"pvbm":13069,"Ġå¹³èĪ":13070,"Ģã":13071,"ĠæºĨ":13072,"ä¹¦è®°ãĢģ":13073,"ç¬¬ä¸Ģæ¬¡":13074,"çĻ¾ä¸ĩ":13075,"onse":13076,"Ċèħ¾è®¯":13077,"è¿Ŀåıį":13078,"Ġè¶³çĲĥå¤ĸåĽ´":13079,"Ġåįİèĵ":13080,"ĠåįĹçļ®":13081,"Ġåĩ¯åıĳçĶµæ¸¸æľĢæĸ°çĻ»å½ķåľ°åĿĢ":13082,"éĨī":13083,"ĠåıĮçīĮ":13084,"ĠæľĢç»ĻåĬĽåĪ©æĿ¥":13085,"è§ĦèĮĥ":13086,"Ġåı¤ä¸":13087,"ä¸Ģå°į":13088,"å¤ļç§į":13089,"Ġåĩ¯åıĳæ¬¢è¿İåħīä¸´":13090,"Ġç§Ńå½Ĵ":13091,"Ġreturn;":13092,"éģĵãĢĤ":13093,"ĠåŃ¸":13094,"ï¼Įåı¯ä»¥":13095,"ĠéļĨåĽŀ":13096,"Ġ2018-11":13097,"æľŁæľŁåĩĨé¦Ļæ¸¯|":13098,"åĲİåı°":13099,"ĠåĪ©è¾":13100,"å¨ĥ":13101,"ĠagèµĮåľºåİħ":13102,"çĳ°":13103,"Ġæķĸæ±ī":13104,"Ġsports":13105,"Ġæ°´å¯Į":13106,"Ġï¿½ï¿½ï¿½ï¿½ï¿½ï¿½":13107,"åĪĨåŃĲ":13108,"Ġçİĭä¸ŃçİĭéīĦç®ĹçĽĺå¼Ģå¥ĸç»ĵæŀľ":13109,"lãĢĳãĢĲiãĢĳãĢĲ":13110,"Ġmanbetx":13111,"ĠèĲ¨è¿":13112,"ï¼ĮéĢļè¿ĩ":13113,"Ġç¾İé£Ł":13114,"Ġbt365ä½ĵèĤ²åľ¨çº¿æĬķæ³¨":13115,";&":13116,"é«ĺä¸Ń":13117,"æĹłæ³ķåħħåĢ¼":13118,"Ġç±³æĺĵ":13119,"alaxy":13120,"bc":13121,"æķĻæİĪ":13122,"Ġæ¾³éĹ¨ç½ĳåĿĢ":13123,"0088":13124,"/å½©ç¥ŀäºīéľ¸8":13125,"è¢«é»ĳ":13126,"ĠåĪ©æĿ¥æľĢèĢģçļĦåĵģçīĮ":13127,"ãĢĳãĢĲåĴĮãĢĳãĢĲ":13128,"leG9":13129,"æµ£":13130,"Ġéĥ¯":13131,"Ġbest365æıĲçİ°":13132,"aWR6b25l":13133,"Ġæ¾³éĹ¨çĻ¾å®¶å¼ĢæĪ·":13134,"Ġ365betäºļæ´²":13135,"73":13136,"îĬ":13137,"26æĹ¥":13138,"Ġçļĩå®¶":13139,"ĊéĽĦå·ŀ":13140,"ĠæĿ¥èĩª":13141,"Ġäºļç¾İam8æīĭæľºçīĪ":13142,"åĪĨåįģä¸ĢéĢīäºĶ":13143,"ĠçĸıéĻĦ":13144,"(/":13145,"Ġå®£æģ©":13146,"æīĭæľºæ¸¸æĪı":13147,"ideo":13148,"ä¸įå¤ļ":13149,"æĿĨ":13150,"ĠçľŁåģĩ":13151,"ãĢĳãĢĲâĢĿ":13152,"ĠCl":13153,"XHJcbj":13154,"Ġ365betçľŁäºº":13155,"ç»ĵæŀĦ":13156,"ĠçĭĹä¸ĩåı¯ä»¥":13157,"ĠæŃ£èĵĿ":13158,"[0];":13159,"èĢĹ":13160,"Ċå¨ģæµ·ç½ĳ":13161,"ãĢĤä¸Ģ":13162,"äººç±»":13163,"ĊæĲľçĭĲ":13164,"è¯ģåĪ¸":13165,"ï¼ĮèŃ¦æĸ¹":13166,"ĊâĹı":13167,"Ġåħ¨å¤©":13168,"Ċå¤©æ´¥æĹ©çĤ¹åĬłçĽŁ":13169,"kwXCI":13170,"ub3NjcmlwdD":13171,"cyOFwi":13172,"Ġé¡¶":13173,"ĠEV":13174,"æ´¾å¯¹":13175,"Query":13176,"å¤ªåģĩäºĨ":13177,"ings":13178,"ĠçĭĹä¸ĩèĥ½":13179,"ĠĈ":13180,"å¯Ħ":13181,"Ġroom":13182,"reak":13183,"å°ĶÂ·":13184,"æĿ¥è¯´ï¼Į":13185,"ä¸ĭåįĪï¼Į":13186,"çĻ»éĻĨä¸ĭè½½":13187,"Ċæĸĩ":13188,"Ġè¯ļèģĺ":13189,"ĠæĶ¾å¿ĥ":13190,"Ġæ²Ļæ´ĭ":13191,"ĠWindows":13192,"Ġet":13193,"æĿİèį£èŀį":13194,"ily":13195,"ç¾İé£Ł":13196,"å¼Ģå¹ķ":13197,"fer":13198,"ä¸ŃãĢĤ":13199,"Leonardo":13200,"3Dæīĵåį°":13201,"çĽĳçĭ±":13202,"Ġ1,":13203,"å¦Ļ":13204,"Ċæĸ°åįİç½ĳå®ģå¤ı":13205,"è¶ĭ":13206,"ĠæĹ¥æľŁ":13207,"ä¸įç»ĻæıĲçİ°":13208,"æĦŁåĪ°":13209,"ĠèŀįèµĦèŀįåĪ¸":13210,"ĠèµĦè®¯":13211,"æ©Łåł´":13212,"Ġçī©":13213,"çī¢":13214,"æĬķæ³¨å®ĺç½ĳ":13215,"èĻķ":13216,"empty":13217,"è´¢æĶ¿":13218,"ĠçŁ³æ£":13219,"Ġçľģ":13220,"ä¸ĭè½½æīĭæľºapp":13221,"Ġsal":13222,"ä¸ºãĢĳãĢĲ":13223,"ç¡®å®ļ":13224,"ä¼ı":13225,"åħ¨åľº":13226,"æĢİä¹Īè¿Ľ":13227,"å°Ĩäºİ":13228,"çļĦåīį":13229,"Ġd88å°Ĭé¾Ļå®ĺç½ĳ":13230,"è¡¢":13231,"æµ©çī¹å¸Ĥ|":13232,"çłĶåıĳ":13233,"Ġçİ¯äºļæīĭæľºçĻ»å½ķ":13234,"#ãĢĳãĢĲ":13235,"ä¸ĥçłģ":13236,"åĲĪéĽĨ":13237,"ĠéĿĴå¹´":13238,"hide();":13239,"attr('":13240,"ï¼Įè¦ģæ±Ĥ":13241,"«åİ¿|":13242,"ĠåĪ©æĿ¥åĽ½åĽ½éĻħ":13243,"appéĤĢè¯·çłģ_":13244,"éĶĪéĴ¢":13245,"cn":13246,"æĢ»ç»ĵ":13247,"Ġiphone":13248,"ĠåĽĽèĤĸéĢīä¸ĢèĤĸæľŁæľŁåĩĨé¦Ļæ¸¯|":13249,"LeonardoæıĲä¾Ľ":13250,"ä¸ĩåįļAPP":13251,"è½¬è´¦":13252,"åĲ¸å¼ķ":13253,"Ġå½©ç¥ŀx":13254,"ĠMT":13255,"è¿ĽçĲĥ":13256,"åı¤å·´":13257,"Ġå¤§å§":13258,"Ċéĵ¶å·Ŀ":13259,"ĠagçľŁäººæ¸¸æĪıå¹³åı°":13260,"ĊPosted":13261,"ç¥Ŀ|":13262,"28åħĥ":13263,"è¿ĶåĽŀ":13264,"ģåİ¿|":13265,"Ġéķĩèµ":13266,"è§Ħå¾ĭ_":13267,"Ċ2019-11-20":13268,"Ġå¤©ç¥Ŀ|":13269,"ä»ĭç»įï¼ļ":13270,"çľŁå®ŀçº¿ä¸ĬçľŁäºº":13271,"eop":13272,"Ġæ¾³éĹ¨çľŁå®ŀçº¿ä¸ĬçľŁäºº":13273,"Ġ356betæ»ļçĲĥ":13274,"ç¤ºå¨ģ":13275,"éĨ«":13276,"åºĶæĢ¥":13277,"ĠéĤ»æ°´|":13278,"Ġvery":13279,"ï¼īãĢģ":13280,"12æĹ¥":13281,"Ġ918ï¿½éİıçĦ¯ï¿½":13282,"-2017":13283,"Ġåĩ¯åıĳæ¸¸æĪıçĻ»å½ķ":13284,"ĠçľŁéĴ±æ£ĭçīĮç½ĳåĿĢ":13285,"ĠEng":13286,"ĠåĪ©æĿ¥æīĭæľºåĽ½éĻħå®ĺç½ĳ":13287,"270":13288,"ĠKF":13289,"Ġçİ¯äºļé¦ĸé¡µ":13290,"ãĢĳãĢĲè¡Į":13291,"¡åİ¿|":13292,"Ġçº¿ä¸ĬçľŁéĴ±çĻ»å½ķ":13293,"Ġéĵ¶è¡Į":13294,"æ°ĳçĶŁ":13295,"Ġåıĸæ¬¾":13296,"Ġæľīäºº":13297,"ZT":13298,"é¦ĸéĥ½":13299,"Ġéķ¶é»ĦæĹĹ|":13300,"iang":13301,"çģ«ç®Ń":13302,"Ġå±ķ":13303,"æ¬Ĭ":13304,"Ġå¤§åİĤ|":13305,"Ġæ¾³éĹ¨çľŁéĴ±ç½ĳåĿĢ":13306,"Ġæ¾³éĹ¨æ¾³åįļ":13307,"ç¨³èµļæĬĢå·§":13308,"Ġbt365ä½ĵèĤ²åľ¨çº¿":13309,"éĴ»":13310,"æ±¤":13311,"Ċ$":13312,"Ġåı°åĮĹå¸Ĥ|":13313,"éĿĴç½ĳ":13314,"bet36ä½ĵèĤ²åľ¨çº¿":13315,"¸åİ¿|":13316,"Ġ365betå®ĺç½ĳå¼ĢæĪ·":13317,"èª¿":13318,"Class('":13319,"Ġçº¿ä¸ĬçľŁéĴ±å¹³åı°":13320,"çĤī":13321,"æ¸¸æĪıæľīåĵªäºĽ":13322,"Ġæ¾³éĹ¨çľŁéĴ±çīĽçīĽ":13323,"Ġèł":13324,"æĺ¯ä¸į":13325,"Ģâ":13326,"è¦ı":13327,"Ġ})();":13328,"åľ°åĿĢï¼ļ":13329,"Ġæĸ°ç«¹å¸Ĥ|":13330,"ĠéĿ¢å¯¹éĿ¢":13331,"ç½ĳä¸ĬèµĮåľº":13332,"Ċ2019-11-19":13333,"èİī":13334,"å¥īçĮ®":13335,"è³ĩæĸĻ":13336,"®ï¿½ï¿½":13337,"ĠæĬķèµĦ":13338,"Ġä¹Įå®¡æĹĹ|":13339,"ĠAF":13340,"åĿł":13341,"Ġçº¿ä¸Ĭä½ĵèĤ²å¹³åı°":13342,"ĠagåĽ½éĻħåİħapp":13343,"çīº":13344,"Ġåĩ¯åıĳå®ĺç½ĳæ³¨åĨĮ":13345,"Ġåĩ¯æĹ¶åĽ½éĻħç½ĳç«Ļ":13346,"å¥¹çļĦ":13347,"Ġå½©ç¥ŀç½ĳ":13348,"226":13349,"Ċæ¹ĸåĮĹçĶµè§Ĩåı°":13350,"ä¾¦æŁ¥":13351,"Ġäºļç¾İè§Ĩè®¯":13352,"ĠWh":13353,"éĽĨåħ¨":13354,"ĠåĪ©æĿ¥æīĭæľºåĽ½éĻħ":13355,"Ġæµ¦ä¸ľæĸ°åĮº|":13356,"å»īå¸Įå°Ķ":13357,".createElement":13358,"Ġçº¿ä¸Ĭæ¸¸æĪıæľīåĵªäºĽ":13359,"çĲĨå¿µ":13360,"åħ´å¸Ĥ|":13361,"e7":13362,"æľĢæĸ°çīĪä¸ĭè½½":13363,"LI":13364,"bãĢĳãĢĲ":13365,"æĤ¬":13366,"Ġæ½ĺ":13367,"ĠæĬļé¡ºå¸Ĥ|":13368,"°åİ¿|":13369,"Ġhtml":13370,"ung":13371,"ä¸įãĢĳãĢĲ":13372,"Ċ2020å¹´":13373,"çļĦéĴ±":13374,"win":13375,"ages":13376,"Ġéķ¿æ²»å¸Ĥ|":13377,"Ġar":13378,"Ġæķĸæ±īæĹĹ|":13379,"ä¿Ħç½Ĺæĸ¯æĢ»ç»Ł":13380,"Ġéħī":13381,"Ġå¥ĪæĽ¼æĹĹ|":13382,"Ġbet356æ³¨åĨĮ":13383,"Un":13384,"ĠåĮĹæĸ¹æĹ©é¤ĲåĬłçĽŁ":13385,"çī¹é©¬èµĦæĸĻ":13386,"Ġå¼Ģåħĥæ£ĭçīĮåı¯ä»¥":13387,".cc":13388,"30æĹ¥":13389,"Ġå®īå¾½æĹ©é¤ĲåĬłçĽŁ":13390,"æ©Łè»Ĭè²¸æ¬¾":13391,"red":13392,"å°¼äºļ":13393,"Ġå¹´èıľ":13394,"æĸ°åĮº":13395,"Ġæ¸ħèĭ":13396,"è³¼çī©ç¶²":13397,"Ġé«ĺéĽĦå¸Ĥ|":13398,"åĳ¨æľ«":13399,"ĠæŀĹèĬĿåİ¿|":13400,"Ġä¸Ĭé¥¶å¸Ĥ|":13401,"Ġ365B":13402,"Ġçī¹èī²å°ıåĲĥæĹ©çĤ¹åĬłçĽŁ":13403,"Ġbet356ä½ĵèĤ²æĬķæ³¨":13404,"365.tv":13405,"æ´Ľè¥¿":13406,"ios&":13407,"Ġæī¿å¾·å¸Ĥ|":13408,"ĠIF":13409,"ĠæĶ¾å¿ĥæĹ©çĤ¹åĬłçĽŁ":13410,"ĠéĢļåĮĸå¸Ĥ|":13411,"ios&å®īåįĵappä¸ĭè½½":13412,"Ġäºļæ¸¸ä½ĵèĤ²appä¸ĭè½½":13413,"éĢģåį¡":13414,"å½©ç¥¨éĤĢè¯·çłģ_":13415,"Ġäº¿å®¶ä¹ĲæĹ©é¤ĲåĬłçĽŁ":13416,"ç§ĺä¹¦":13417,"VD":13418,"Ġèģļ":13419,"ĠæľĿéĺ³å¸Ĥ|":13420,"Ġ365ä½ĵèĤ²æĬķæ³¨åľ¨çº¿":13421,"ĠåįĹæĺĮå¸Ĥ|":13422,"çİ°éĩĳä¸Ģä¸ĭ":13423,"éĢıéľ²":13424,"lem":13425,"Ġæłªæ´²å¸Ĥ|":13426,"ĠèĬľæ¹ĸå¸Ĥ|":13427,"Ġé©¬ä¸Ĭ":13428,"Ġéģµä¹īå¸Ĥ|":13429,"79":13430,"Ġå®£åĮĸ":13431,"ĠèĲ¥åħ»æĹ©çĤ¹åĬłçĽŁ":13432,"ĠccåĽ½éĻħå½©ç¥¨":13433,"Ġä¸Ńå¼ıæĹ©é¤ĲåĬłçĽŁ":13434,"ãĢĳãĢĲä¸ļãĢĳãĢĲ":13435,"ĠæŃ£èĵĿæĹĹ|":13436,"ĠçĻ½æ²Ļ|":13437,"sBy":13438,"ĠagçľŁäººæĹĹèĪ°åİħä¸ĭè½½":13439,"¾æ¿":13440,"çīºçī²":13441,"Ġåĺīä¹īå¸Ĥ|":13442,"Ġä¹Ŀæ±Łå¸Ĥ|":13443,"éģŃéģĩ":13444,"Ġæ¸¯å¼ıæĹ©çĤ¹åĬłçĽŁ":13445,"Ġä¼Ĭå®ģå¸Ĥ|":13446,"ĠæĹ©é¤ĲéħįéĢģåĬłçĽŁ":13447,"Ġåħ¨åĽ½è¿ŀéĶģåĬłçĽŁ":13448,"ĠæĻ¯å®ģ|":13449,"å¨±ä¹Ĳå¼Ģåħĥæ£ĭçīĮ":13450,"ĠæĹ©çĤ¹æĭĽèģĺ":13451,"Ġå½±":13452,"æľĢå°ĳ":13453,"ä¸ĵéĹ¨":13454,"è¥¿å®ī":13455,"Ġå²³éĺ³å¸Ĥ|":13456,"Ġ365æ£ĭçīĮæĸ°æīĭåį¡æĢİä¹Ī":13457,"Ġå¼Ģå°ģå¸Ĥ|":13458,"28æĹ¥":13459,"ĠæĹ©é¤ĲæĹ©çĤ¹åºĹåĬłçĽŁ":13460,"åħ¨å¤©åħįè´¹è®¡åĪĴ":13461,"ĠéĻµæ°´|":13462,"èº«åĪĨèŃīåĢŁæ¬¾":13463,"å±¥":13464,"çº¿è·¯æ£Ģæµĭä¸Ńå¿ĥ":13465,"Ġè¾½éĺ³å¸Ĥ|":13466,"ç¢Ł":13467,"Ġçī¹èī²æĹ©çĤ¹å°ıåĲĥåĬłçĽŁ":13468,"ĠåĲīå®īå¸Ĥ|":13469,"Ġåı°ä¸Ńå¸Ĥ|":13470,"é¢ģ":13471,"365betå®ĺç½ĳå®ĺç½ĳ":13472,"ï¼Įäºİ":13473,"æķĳä¸ĸ":13474,"å¤§åħ¨|":13475,"det365":13476,"æĴ¥":13477,"05æľĪ":13478,"Ġç»įåħ´å¸Ĥ|":13479,"Ġåĩ¯åıĳçĶµæ¸¸æ³¨åĨĮéĢģ":13480,"ĠçĻ½äºĳ":13481,"æĢİä¹Īä¸ĭ":13482,"sert":13483,"ĠäºĶèĬ³æĸĭæĹ©çĤ¹æĢİæł·åĬłçĽŁ":13484,"Ġä¸´å¤ıå¸Ĥ|":13485,"ĠéĵľéĻµå¸Ĥ|":13486,"Ġéĵģå²Ńå¸Ĥ|":13487,"å¤§åıĳå½©ç¥¨":13488,"Ġå°Ĭé¾Ļd88å®ĺç½ĳ":13489,"è¥¿æĸ¹":13490,"A-":13491,"ä½©æ´Ľè¥¿":13492,"ĠæĹ©é¤Ĳé¡¹çĽ®åĬłçĽŁ":13493,"Ġå®ľå®¾å¸Ĥ|":13494,"Ġæ¹ĺæ½Ńå¸Ĥ|":13495,"efore":13496,"ĠçĶĺåŃľ|":13497,"Ġåħ¨åĽ½æĭĽåķĨåĬłçĽŁ":13498,"Ġè¡¡éĺ³å¸Ĥ|":13499,"åıĸåĲį":13500,"ĠäºĴåĬ©":13501,"ĠåĬ¨æ¼«åĬłçĽŁ":13502,"îĿ¹":13503,"ĠæĬĢæľ¯":13504,"Ġåĩ¯åıĳæ³¨åĨĮå¤ĩçĶ¨ç½ĳåĿĢ":13505,"ĠæŃ£å®ĹæĹ©çĤ¹åĬłçĽŁ":13506,"å°¸":13507,"çĽ®çļĦ":13508,"Ġåı°åįĹå¸Ĥ|":13509,"ĠåĬłçĽŁåĮħåŃĲ":13510,"Ġä¸Ńå¼ıæĹ©çĤ¹å¿«é¤ĲåĬłçĽŁ":13511,"Ġå½ĵåīį":13512,"Ġéķ¿æ²Ļåİ¿|":13513,"åģ¶":13514,"æ¯įäº²":13515,"ĠagæĹĹèĪ°åİħapp":13516,"åŁºåľ°":13517,"ç¸ºï½":13518,"Ġtype:":13519,"7)":13520,"åŁºéļĨ":13521,"Ġç½ĳåĲ§åĬłçĽŁ":13522,"å¤ĸäº¤éĥ¨":13523,"ç®¡åĪ¶":13524,"å¯¹æİ¥":13525,"è´·æ¬¾":13526,"èķī":13527,"æīĭæľºçīĪåħ¥åı£":13528,"Ċ0":13529,"oogletag":13530,"ĠçĲ¼ä¸Ń|":13531,"ĠãĢĳãĢĲsãĢĳãĢĲtãĢĳãĢĲyãĢĳãĢĲlãĢĳãĢĲeãĢĳãĢĲ":13532,"omain":13533,"Ġä¿ĿäºŃ|":13534,"īèĢ":13535,"ĠæĹ©çĤ¹åĬłçĽŁåķĨ":13536,"bet365ä½ĵèĤ²":13537,"refix":13538,"ĠçĦ¡":13539,"Ġå°Ĭé¾Ļæ¸¸æĪı":13540,
[...]
