{"<s>":0,"</s>":1,"<pad>":2,"<unk>":3,"<mask>":4,"Ā":5,"ā":6,"Ă":7,"ă":8,"Ą":9,"ą":10,"Ć":11,"ć":12,"Ĉ":13,"ĉ":14,"Ċ":15,"ċ":16,"Č":17,"č":18,"Ď":19,"ď":20,"Đ":21,"đ":22,"Ē":23,"ē":24,"Ĕ":25,"ĕ":26,"Ė":27,"ė":28,"Ę":29,"ę":30,"Ě":31,"ě":32,"Ĝ":33,"ĝ":34,"Ğ":35,"ğ":36,"Ġ":37,"!":38,"\"":39,"#":40,"$":41,"%":42,"&":43,"'":44,"(":45,")":46,"*":47,"+":48,",":49,"-":50,".":51,"/":52,"0":53,"1":54,"2":55,"3":56,"4":57,"5":58,"6":59,"7":60,"8":61,"9":62,":":63,";":64,"<":65,"=":66,">":67,"?":68,"@":69,"A":70,"B":71,"C":72,"D":73,"E":74,"F":75,"G":76,"H":77,"I":78,"J":79,"K":80,"L":81,"M":82,"N":83,"O":84,"P":85,"Q":86,"R":87,"S":88,"T":89,"U":90,"V":91,"W":92,"X":93,"Y":94,"Z":95,"[":96,"\\":97,"]":98,"^":99,"_":100,"`":101,"a":102,"b":103,"c":104,"d":105,"e":106,"f":107,"g":108,"h":109,"i":110,"j":111,"k":112,"l":113,"m":114,"n":115,"o":116,"p":117,"q":118,"r":119,"s":120,"t":121,"u":122,"v":123,"w":124,"x":125,"y":126,"z":127,"{":128,"|":129,"}":130,"~":131,"ġ":132,"Ģ":133,"ģ":134,"Ĥ":135,"ĥ":136,"Ħ":137,"ħ":138,"Ĩ":139,"ĩ":140,"Ī":141,"ī":142,"Ĭ":143,"ĭ":144,"Į":145,"į":146,"İ":147,"ı":148,"Ĳ":149,"ĳ":150,"Ĵ":151,"ĵ":152,"Ķ":153,"ķ":154,"ĸ":155,"Ĺ":156,"ĺ":157,"Ļ":158,"ļ":159,"Ľ":160,"ľ":161,"Ŀ":162,"ŀ":163,"Ł":164,"ł":165,"¡":166,"¢":167,"£":168,"¤":169,"¥":170,"¦":171,"§":172,"¨":173,"©":174,"ª":175,"«":176,"¬":177,"Ń":178,"®":179,"¯":180,"°":181,"±":182,"²":183,"³":184,"´":185,"µ":186,"¶":187,"·":188,"¸":189,"¹":190,"º":191,"»":192,"¼":193,"½":194,"¾":195,"¿":196,"À":197,"Á":198,"Â":199,"Ã":200,"Ä":201,"Å":202,"Æ":203,"Ç":204,"È":205,"É":206,"Ê":207,"Ë":208,"Ì":209,"Í":210,"Î":211,"Ï":212,"Ð":213,"Ñ":214,"Ò":215,"Ó":216,"Ô":217,"Õ":218,"Ö":219,"×":220,"Ø":221,"Ù":222,"Ú":223,"Û":224,"Ü":225,"Ý":226,"Þ":227,"ß":228,"à":229,"á":230,"â":231,"ã":232,"ä":233,"å":234,"æ":235,"ç":236,"è":237,"é":238,"ê":239,"ë":240,"ì":241,"í":242,"î":243,"ï":244,"ð":245,"ñ":246,"ò":247,"ó":248,"ô":249,"õ":250,"ö":251,"÷":252,"ø":253,"ù":254,"ú":255,"û":256,"ü":257,"ý":258,"þ":259,"ÿ":260,"ä¸":261,"Ġå":262,"äº":263,"åı":264,"ç½":265,"Ġæ":266,"å®":267,"ç½ĳ":268,"ãĢ":269,"Ġç":270,"æľ":271,"å¤":272,"ï¼":273,"æĹ":274,"36":275,"365":276,"çī":277,"åħ":278,"ä¹":279,"åıĳ":280,"å®ĺ":281,"ä½":282,"æĸ":283,"åĪ":284,"åĽ":285,"å½":286,"äºļ":287,"æ¸":288,"æĪ":289,"è½":290,"be":291,"Ġé":292,"åİ":293,"åį":294,"å®ĺç½ĳ":295,"åĬ":296,"Ġ365":297,"bet":298,"æī":299,"20":300,"ä¸ĭ":301,"èĤ":302,"åľ":303,"å¹":304,"æ¸¸":305,"Ġåĩ":306,"æ³":307,"ï¼Į":308,"ä»":309,"Ġåĩ¯":310,"æĬ":311,"ä¸ĩ":312,"çĽ":313,"ä½ĵ":314,"ç«":315,"çĶ":316,"è½½":317,"ä¸ĭè½½":318,"èĤ²":319,"Ġè":320,"çļ":321,"ä½ĵèĤ²":322,"æľº":323,"Ġåĩ¯åıĳ":324,"å½©":325,"åĲ":326,"çļĦ":327,"ãĢĳ":328,"ãĢĲ":329,"æīĭ":330,"¿½":331,"ï¿½":332,"ag":333,"çīĮ":334,"ap":335,"æ³¨":336,"æĹ¶":337,"å°":338,"app":339,"æĿ":340,"ãĢĳãĢĲ":341,"çİ":342,"å·":343,"éĹ":344,"å¤©":345,"æ£":346,"åİ¿":347,"æīĭæľº":348,"å¸":349,"ä¹Ĳ":350,"å¼":351,"åĿ":352,"å¿":353,"åĽ½":354,"æĺ":355,"Ġå¤":356,"äºº":357,"ĭçīĮ":358,"å¹³":359,"èµ":360,"åı°":361,"éĻ":362,"æ£ĭçīĮ":363,"åİ¿|":364,"çº":365,"åĬł":366,"è¿":367,"æĬķ":368,"è®":369,"åĪĨ":370,"çĽŁ":371,"çĻ":372,"Ġ|":373,"Ġäºļ":374,"ï¼ļ":375,"åĬłçĽŁ":376,"åľ¨":377,"ç«Ļ":378,"åĿĢ":379,"åĨ":380,"å¹³åı°":381,"åº":382,"çīĪ":383,"ç¥":384,"æĸ¹":385,"å¤§":386,"ç»":387,"å¿«":388,"ä¸Ń":389,"éĢ":390,"ç½ĳç«Ļ":391,"å±":392,"Ġå¤§":393,"201":394,"ĭĹ":395,"ä¸Ģ":396,"Ġag":397,"åĮ":398,"âĢ":399,"è¯":400,"æĪı":401,"çľ":402,"å¼Ģ":403,"æ¸¸æĪı":404,"æĸ°":405,"çĲ":406,"å¨":407,"ãĢĤ":408,"æĿ¥":409,"æĬķæ³¨":410,"¯äºļ":411,"çº¿":412,"Ġ-":413,"å¸Ĥ":414,"ç½ĳåĿĢ":415,"ä¸Ĭ":416,"ä¼":417,"æ°":418,"ĭĹä¸ĩ":419,"±ä¹Ĳ":420,"æĪ·":421,"åŃ":422,"éĩ":423,"è§":424,"è´":425,"ĠçĭĹä¸ĩ":426,"å¨±ä¹Ĳ":427,"10":428,"å¥":429,"-0":430,"æĺ¯":431,"æµ":432,"çĻ»":433,"æĢ":434,"å®ĺæĸ¹":435,"Ġæĺ":436,"æ¬":437,"ä¸ī":438,"æĹ©":439,"Ġbet":440,"Ġ365bet":441,"çĤ":442,"å®¶":443,"éĻħ":444,"Ġå¤§åıĳ":445,"æŀ":446,"ä¹Ī":447,"Ġçİ":448,"æ²":449,"¾Ļ":450,"éĹ¨":451,"çĤ¹":452,"éĺ":453,"ä¸į":454,"å½ķ":455,"ï¿½ï¿½":456,"è¡":457,"åĽ½éĻħ":458,"å½©ç¥":459,"æ±":460,"åŁ":461,"æ´":462,"åįļ":463,"ĠåĪ":464,"åĩ":465,"ä¿":466,"©æĿ¥":467,"å®¢":468,"é¾Ļ":469,"Ġ365ä½ĵèĤ²":470,"å®ī":471,"é¤":472,"¨å¤©":473,"ç¾":474,"éĽ":475,"çľŁ":476,"çĻ»å½ķ":477,"çĲĥ":478,"éĴ":479,"å¾":480,"ĠæĹ":481,"é¤Ĳ":482,"35":483,"é¡":484,"åľ¨çº¿":485,"æĹĹ":486,"¾³":487,"Ġæĺ¨å¤©":488,"Ġäºļæ¸¸":489,"çĶµ":490,"Ġ1":491,"èĢ":492,"å·ŀ":493,"æīĭæľºçīĪ":494,"Ġå°":495,"å±±":496,"åħĥ":497,"¾³éĹ¨":498,"356":499,"Ġçİ¯äºļ":500,"æľī":501,"2019":502,"æŃ":503,"åĨĮ":504,"Ġå®":505,"çĶ¨":506,"å¯":507,"å¸Ĥ|":508,"æĹ¥":509,"æ³¨åĨĮ":510,"åĵ":511,"ç¾İ":512,"æł":513,"åŁİ":514,"å½©ç¥¨":515,"èĪ":516,"ĠåĪ©æĿ¥":517,"-1":518,"çİ°":519,"æ¬¾":520,"ä¸ĩ+":521,"éĥ":522,"æĢİ":523,"æľĢ":524,"éĿ":525,"æº":526,"å¿«ä¸ī":527,"æİ":528,"Ġbet365":529,"Ġæ¾³éĹ¨":530,"ç«¯":531,"æı":532,"é¢":533,"Ĭé¾Ļ":534,"åľ°":535,"å¹´":536,"æĶ":537,"īį":538,"å®¢æĪ·":539,"Ġå¼":540,"Ġä¸":541,"Ġ0":542,"éĴ±":543,"é¦":544,"³|":545,"Ġ365æ£ĭçīĮ":546,"æĢİä¹Ī":547,"å®¢æĪ·ç«¯":548,"åİħ":549,"äºĨ":550,"Ġ365ä½ĵèĤ²æĬķæ³¨":551,"ãĢģ":552,"ç§":553,"88":554,"æıĲ":555,"¥¿":556,"in":557,"åħĥæ£ĭçīĮ":558,"è¾":559,"Ġåį":560,"Ġ365betå®ĺç½ĳ":561,"Ġ>":562,"æĬ¥":563,"éĽĨ":564,"2020":565,"356bet":566,"æ±Ł":567,"æĭ":568,"å°ı":569,"åħ¬":570,"åįĹ":571,"Ġåħ":572,"åħ¨":573,"on":574,"ĴĮ":575,"å¤ļ":576,"Ġå¼Ģ":577,"Ġå°Ĭé¾Ļ":578,"åĳ":579,"er":580,"åĲĹ":581,"éĩĳ":582,"æĹ¶å½©":583,"æĹ©é¤Ĳ":584,"è¡Į":585,"æķ":586,"çľŁäºº":587,"an":588,"ä¼ļ":589,"è¶":590,"åĢ":591,"ĠæĹ©":592,"çİ¯äºļ":593,"66":594,"æĹ¶æĹ¶å½©":595,"Ġ356bet":596,"Ġæĸ":597,"é¡µ":598,"åĽ¢":599,"åŃĲ":600,"çĶŁ":601,"æĹ©çĤ¹":602,"åĽ¾":603,"èĪ°":604,"åīį":605,"om":606,"çł":607,"éĤ":608,"ä¿¡":609,"èĥ":610,"æĹĹèĪ°":611,"åľº":612,"æºĲ":613,"è½¦":614,"appä¸ĭè½½":615,"åºĹ":616,"éģ":617,"å±±|":618,"äº¬":619,"2020-0":620,"åĴĮ":621,"-2":622,":0":623,"éĽĨåĽ¢":624,"å¼ĢæĪ·":625,"¾å®¶":626,"Ġ2":627,"Ġåı":628,"éĹ»":629,"èĭ":630,"æŀľ":631,"Ġå¼Ģåħĥæ£ĭçīĮ":632,"re":633,"åĮº":634,"Ġå¹":635,"æ´²":636,"st":637,"å¤ĩ":638,"æĻ":639,"è¥¿":640,"å¿«3":641,"æ¯":642,"æĸĩ":643,"ä½ľ":644,"ç®":645,"at":646,"èĩ":647,"å¥ĸ":648,"âĢĿ":649,"è²":650,"æµ·":651,"æ³ķ":652,"âĢľ":653,"åı·":654,"æ°´":655,"Ġc":656,"çī¹":657,"æľĪ":658,"é¦ĸ":659,"è®¡":660,"æĸ°éĹ»":661,"ĠA":662,"al":663,"çĲĨ":664,"Ġb":665,"åı£":666,"Ġäº":667,"èī":668,"æĹ©é¤ĲåĬłçĽŁ":669,"en":670,"Ġäºļç¾İ":671,"ä»¶":672,"w66":673,"æĮ":674,"æĴ":675,"«ĺ":676,"åĪ°":677,"éĢŁ":678,"æĥ":679,"Ġä¸ĩ":680,"Ġt":681,"èģ":682,"å®ĺæĸ¹ç½ĳç«Ļ":683,"Ġåĩ¯æĹ¶":684,"éķ":685,"çĽ´":686,":4":687,"èµĦ":688,"å¥½":689,"Ġæĸ°":690,":5":691,"åģ":692,"æĹĹèĪ°åİħ":693,"å¤ĸ":694,"ä¸º":695,"åĮĹ":696,"è´¹":697,"å¤ĩçĶ¨":698,"Ġagçİ¯äºļ":699,"åĲĪ":700,":2":701,"è°":702,"ä¸ª":703,"Ġæĺ¨å¤©0":704,"æŃ£":705,"è¦":706,"æ»":707,"å¤§åıĳ":708,"ä»£":709,"æĲ":710,"ģ|":711,"å¼Ģå¥ĸ":712,"éĺ³|":713,"è§Ĩ":714,"éľ":715,"ĠæĿ":716,"æĴŃ":717,"åĪĴ":718,"pk":719,"è¶³":720,"çİ©":721,"æ°ĳ":722,"åĩº":723,"å°Ķ":724,"ä¸ľ":725,"ĠçĶ":726,"å·ŀ|":727,"æĹĹ|":728,"Ġå½":729,"se":730,"ä»¥":731,"çķ":732,"ľŁ":733,"æ°Ķ":734,"ä»Ģ":735,"èĢħ":736,"ar":737,"èµĮ":738,"è§Ħ":739,"å·¥":740,":1":741,"éĥ¨":742,"åŁİ|":743,"Ġ/":744,"åĪ©":745,"éĹ´":746,"00":747,"éĶ":748,"ç¤":749,"or":750,"ä¾":751,"å²":752,"Ċ2019":753,"é£":754,"çłģ":755,"åĽ´":756,"Ġæ±":757,"è®¡åĪĴ":758,"è·":759,"åı¯":760,"Ġéĺ":761,"çĶµæ¸¸":762,".c":763,"pk10":764,"ĠåĮ":765,"..":766,"æĹ©çĤ¹åĬłçĽŁ":767,"ç¨":768,"æľĢæĸ°":769,"Ġæľ":770,"è²¸":771,":3":772,"Ġå¤§åıĳå¿«ä¸ī":773,"æ¹":774,"çĻ¾å®¶":775,"Ġæī":776,"èµ°":777,"is":778,"èĥ½":779,"ç¥ŀ":780,"ĠçľŁ":781,"å°±":782,"è¦ģ":783,"çŃ":784,"ĠçĻ":785,"ç»ĵ":786,"é©":787,"é»":788,"åħį":789,"Ġ201":790,"d88":791,"æį":792,"Ġ3":793,"å¿ĥ":794,"Ġæĺ¨å¤©1":795,"ĠåĲ":796,"åĵª":797,"Ġ5":798,"é¦ĸé¡µ":799,"te":800,"åĬ¿":801,"éª":802,"ä»Ģä¹Ī":803,"éĵ":804,"åķ":805,"åįķ":806,"æĸ°éĹ»ç½ĳ":807,"ç½ĳæĬķ":808,"åĬ¨":809,"æ¸¯":810,"æľŁ":811,"èµĽ":812,"Ġæ²":813,"ou":814,"æ±Ł|":815,"çľĭ":816,"èĬ":817,"Ń¦":818,"Ġæµ":819,"è¿Ĳ":820,"ä¸ļ":821,"èĲ":822,"èĩª":823,"çĽ´æĴŃ":824,"å¯¹":825,"Ł³":826,"ĠC":827,"ä¸ŃåĽ½":828,"éĩĮ":829,"åĮĸ":830,"æĸ¯":831,"åħ¥":832,"Ġ2019":833,"le":834,"æĦ":835,"å·Ŀ":836,"Ġk":837,"äºĮ":838,"å®ī|":839,"æ¯Ķ":840,"ĠS":841,"æĪĳ":842,"è¶³çĲĥ":843,"ļçĲĥ":844,"Ł¥":845,"çº¿ä¸Ĭ":846,"ä¸»":847,"å®¢æĪ·ç«¯ä¸ĭè½½":848,"æĽ":849,"èĢģ":850,"åĲį":851,"Ġä¹":852,"ĠåįĹ":853,"he":854,"ä½ĵèĤ²æĬķæ³¨":855,"åľ°åĿĢ":856,"Ġ2020-0":857,"æĲı":858,"éĥ½":859,"è¿Ľ":860,"åĪĨå½©":861,"èµ°åĬ¿":862,"¦Ĥ":863,"Ġ(":864,"å¤©æ°Ķ":865,"åħįè´¹":866,"åħ³":867,"ĠåĮĹ":868,"ĠæĹ©é¤Ĳ":869,"æ¶":870,"éĺ³":871,"°|":872,"Ġå½©":873,"ĠåĽ":874,"å®ļ":875,"æĪĲ":876,"ä½į":877,"æĶ¿":878,"åĵģ":879,"å§":880,"åŃ¦":881,"ç¦":882,"è£":883,"è¡¨":884,"é«ĺ":885,"ç»ı":886,"éģĵ":887,"åħĭ":888,"ĠæĹ©çĤ¹":889,"åĲİ":890,"Ġä¸ĩåįļ":891,"éĢī":892,"Ġåĩ¯åıĳå®ĺç½ĳ":893,"éħ":894,"am":895,"ht":896,"Ġ9":897,"è¿Ļ":898,"å½©ç¥ŀ":899,"æ¡":900,"æľ¬":901,"åįİ":902,"ï¼ī":903,"æĬĢ":904,"äºī":905,"ç¯":906,"18":907,"åıĮ":908,"åı¸":909,"å¼ı":910,"éķ¿":911,"ä½ĵèĤ²åľ¨çº¿":912,"lo":913,"it":914,"æŀĹ":915,"å»":916,"ĠT":917,"éĢļ":918,"ï¼Ī":919,"æ»ļçĲĥ":920,"æĸĻ":921,"éĢģ":922,"ģéĢŁ":923,"äº¤":924,"å£":925,"ĠP":926,"è®°":927,"Ġf":928,"Ġåĩ¯åıĳä½ĵèĤ²":929,"æĹ¶éĹ´":930,"åł":931,"æıĲçİ°":932,"å°ĳ":933,"å½ĵ":934,"Ġcc":935,".com":936,"Ġ}":937,"ä»ĸ":938,"åķĨ":939,"åº¦":940,"Ġæ°":941,"Ġéķ":942,"ç²":943,"å¾·":944,"èµ°åĬ¿åĽ¾":945,"è¢":946,"åİŁ":947,"ri":948,"æģ":949,"Ġå¤©":950,"æľį":951,"-10":952,"äºļæ´²":953,"Ġ4":954,"éľ¸":955,"é©¬":956,"Ġæ³":957,"Ġ=":958,"æĤ":959,"å¤ĸåĽ´":960,"ç¬":961,"Ġå®ī":962,"ç©":963,"äºĭ":964,".0":965,"äºļæ¸¸":966,"è½¯":967,"åĳĺ":968,"éļ":969,"Ġå½©ç¥ŀ":970,"Ġéĩ":971,"æĺİ":972,"äºİ":973,"ç³":974,"éĿ¢":975,"åĪ©æĿ¥":976,"ä¿Ŀ":977,"Ġæŀ":978,"ĠM":979,"Ġbe":980,"ww":981,"åħ¬åı¸":982,"ä»¬":983,"Ġs":984,"Ġèµ":985,"å®ģ|":986,"äºīéľ¸":987,"å¸ĥ":988,"è®º":989,"è½¯ä»¶":990,"ãĢĢ":991,"à¸":992,"çĻ¾å®¶ä¹Ĳ":993,"æ²³":994,"åĬĽ":995,"æºĲï¼ļ":996,"ĠccåĽ½éĻħ":997,"¹æŀľ":998,"Ġm":999,"çĪ":1000,"é¢ĳ":1001,"æİĴ":1002,"åĲĮ":1003,"è·¯":1004,"Ġv":1005,"ĠæĹ¥":1006,");":1007,"ī|":1008,"Ġk8":1009,"åįĵ":1010,"Ġå·":1011,"ç±":1012,"åįķåıĮ":1013,"ç¼":1014,"ent":1015,"ĠäºļæĲı":1016,"æıĲæ¬¾":1017,"Ġå¹³":1018,"Ġçº":1019,"Ġæ¸":1020,"Ġp":1021,"ç´":1022,"åĭ":1023,"ç³»":1024,"è®¯":1025,"»¿":1026,"Ġd":1027,"Ġå¾":1028,"èī²":1029,"è²¸æ¬¾":1030,"èį":1031,"Ġä¸Ń":1032,"Ġé»":1033,"ĠåĮĹäº¬":1034,"t365":1035,"è¢«":1036,"Ġä¸ľ":1037,"ion":1038,"ĠB":1039,"åĢŁ":1040,"ä»£çĲĨ":1041,"åıĸ":1042,"ç¯ĩ":1043,"ĠçľŁäºº":1044,"å¤©å¤©æ°Ķ":1045,"Ġäºļæ¸¸éĽĨåĽ¢":1046,"ĠçĶµ":1047,"æĢ»":1048,"è§£":1049,"ĠåĪ©æĿ¥w66":1050,"é¢ĺ":1051,"å¦Ĥ":1052,"èµ¢":1053,"èģĶ":1054,"ĠéĿ":1055,"åĪ¶":1056,"èĻ":1057,"Ġçİ¯äºļag":1058,"??":1059,"å®ŀ":1060,"åĻ":1061,"æīĵ":1062,"è¨":1063,"Ġ6":1064,"ĠR":1065,"Ġw66":1066,"ç½ĳä¸Ĭ":1067,"Ċ2020-0":1068,"es":1069,"Ġ8":1070,"èĭ¹æŀľ":1071,"æĭī":1072,"çĥ":1073,"ĠH":1074,"ç»ĵæŀľ":1075,"æ²³|":1076,"èİ":1077,"æł·":1078,"çīĩ":1079,"äºĶ":1080,"åĻ¨":1081,"æĪ¿":1082,"è¿ŀ":1083,"ä½ķ":1084,"Ļæ¸¯":1085,"ï¿½ï¿½ï¿½ï¿½":1086,"ï»¿":1087,"å±Ģ":1088,"æ¸¸æĪıå¹³åı°":1089,"ä¸Ģç¯ĩ":1090,"Ġç§":1091,"æºª":1092,"Ġ7":1093,"åįĹ|":1094,"Ġbet356":1095,"æłĩ":1096,"æĹł":1097,"Ġå¯":1098,"åįģ":1099,"Ġ10":1100,"ç¨ĭ":1101,"æµģ":1102,"çģ":1103,"12":1104,"ct":1105,"èĦ":1106,"',":1107,"å¤§åħ¨":1108,"ä¹ĭ":1109,"çİĭ":1110,"è¿ĩ":1111,"å·Ŀ|":1112,"çĸ":1113,"åĢ¼":1114,"Ġå°Ĭé¾Ļd88":1115,"Ġæīĭ":1116,"å»º":1117,"Ġ{":1118,"ĠæĿ¥":1119,"éĴŁ":1120,"åĬ¡":1121,"Ġèĭ":1122,"å¤ĩçĶ¨ç½ĳåĿĢ":1123,"Ċ201":1124,"ç½®":1125,"çĽĺ":1126,"-12":1127,"å¤ļå°ĳ":1128,"æķ°":1129,"æİ¥":1130,"èª":1131,"ä»Ĭ":1132,"Ġbet36":1133,"Ġå¤§åıĳæĹ¶æĹ¶å½©":1134,"Ġæ±Ł":1135,"è´¦":1136,"åĽŀ":1137,"-11":1138,"åħŃ":1139,"ĠæĪ":1140,"ç®¡":1141,"ç¬¬":1142,"è£ħ":1143,"±¼":1144,"åĪĨå¿«3":1145,"Ġåĩ¯åıĳæīĭæľº":1146,"ç¤º":1147,"éĩį":1148,"Ġa":1149,"Ġæ°¸":1150,"æ¹ĸ":1151,"è§Ĩé¢ĳ":1152,"ĠãĢĳãĢĲ":1153,"Ġä¸´":1154,"å®ĺç½ĳä¸ĭè½½":1155,"åİ»":1156,"è¯ģ":1157,":'":1158,"Ġä¸Ĭ":1159,"ic":1160,"å°Ĩ":1161,"æĦı":1162,"åĽĽ":1163,"çĽ®":1164,"Ġè¥¿":1165,"åºĨ":1166,"id":1167,"æĺĮ":1168,"ç½Ĺ":1169,"å®īåįĵ":1170,"Ġå¹¿":1171,"éĤ®":1172,"Ġåīį":1173,"Ġéĩĳ":1174,"å¹³|":1175,"çĦ":1176,"æĹħ":1177,"å¹¿":1178,"é±¼":1179,"éĻĨ":1180,"ï½":1181,"åĸ":1182,"un":1183,"æ·":1184,"è¯·":1185,"Ġçī":1186,"åģĩ":1187,"åį¡":1188,"çķĮ":1189,"å·§":1190,"AP":1191,"æ¼":1192,"èµĦæĸĻ":1193,"ä¸ĸ":1194,"ç¥¨":1195,"ĠæĻ":1196,"ä¹°":1197,"åĪĨéĴŁ":1198,"Ġåĩ¯åıĳapp":1199,"ĠæŃ¦":1200,"11":1201,"å°±æĺ¯":1202,"ĠI":1203,"æ¬¡":1204,"æ°´|":1205,"æĥħ":1206,"Ġé¦":1207,"æ¢":1208,"æİ¨":1209,"åºľ":1210,"æĹ¥æĬ¥":1211,"åĨħ":1212,"ĠÂ":1213,".5":1214,"ĠL":1215,"Ġéķ¿":1216,"ght":1217,"ĠâĢ":1218,"è¯´":1219,"éĻ¢":1220,"çī©":1221,"æĬĢå·§":1222,"ĠD":1223,"ç®Ĺ":1224,"æīĢ":1225,"ĠçĻ¾å®¶":1226,"äºĳ":1227,"Ġé«ĺ":1228,"Ġi":1229,"åŀ":1230,"´|":1231,"Ġå¿":1232,"æ´¥":1233,"AG":1234,"å³":1235,"ĠAG":1236,"åŃĹ":1237,"Ġåīįå¤©":1238,"åĬ©":1239,"éĹ®":1240,"éĿĴ":1241,"ing":1242,"å¼Ģåħĥæ£ĭçīĮ":1243,"ed":1244,"åĨł":1245,"Ġ:":1246,"30":1247,"æĤ¨":1248,"åºĹåĬłçĽŁ":1249,"ç¤¾":1250,"æ²»":1251,"Ġåĩ¯åıĳçº¿ä¸Ĭ":1252,"äº§":1253,"ĠçĽ":1254,"Ġæīĭæľº":1255,"å¢":1256,"å®ģ":1257,"ĠæĹ¥åįļ":1258,"æīĭæľºçīĪä¸ĭè½½":1259,"Ġåı°":1260,"Ġç»":1261,"éĿł":1262,"èĤĸ":1263,"åĮħ":1264,"çŃī":1265,"äººçĶŁ":1266,"op":1267,"æ©":1268,"æł¼":1269,"APP":1270,"æŁ¥":1271,"å¼Ģå¥ĸç»ĵæŀľ":1272,"æīĭæľºçĻ»å½ķ":1273,"ä¸İ":1274,"æĶ¿åºľ":1275,"åįķåıĮï¼ļ":1276,"æīĭæľºå®¢æĪ·ç«¯":1277,"æ²¡":1278,"å¨±ä¹Ĳå®ĺç½ĳ":1279,"èĢģçīĮ":1280,"¡|":1281,"å±ķ":1282,"ä¸Ģç¯ĩï¼ļ":1283,"et":1284,"Ġw":1285,"Ġw66åĪ©æĿ¥":1286,"çİ°éĩĳ":1287,"Ġthe":1288,"Ġå°ı":1289,"ç»Ł":1290,"...":1291,"Ġè¿":1292,"æ¥":1293,"è¯Ŀ":1294,"Ġbt365":1295,"åĪĹ":1296,"å¡":1297,"Ġè´":1298,"å®ĺæĸ¹ä¸ĭè½½":1299,"åħ±":1300,"å°ıæĹ¶":1301,"15":1302,"è¾¾":1303,"ĠãĢĲ":1304,"åı¯ä»¥":1305,"æ¨":1306,"éħĴ":1307,"Ġéĺ¿":1308,"èĤ¡":1309,"ç«ŀ":1310,"ĠåĬ":1311,"ç§ĳ":1312,"èĭ±":1313,"365bet":1314,"ä¹Ł":1315,"ĠéĢ":1316,"åħħ":1317,"ç¿":1318,"Ġå¨":1319,"çľŁéĴ±":1320,"åħī":1321,"è¿ĳ":1322,"Ġçļ":1323,"çº§":1324,"è¯Ħ":1325,"ro":1326,"é»ĳ":1327,"æ¸ħ":1328,"Ġéĵ":1329,"èµ·":1330,"ad":1331,"ĠæŀģéĢŁ":1332,"ĠG":1333,"ç²¾":1334,"çİĩ":1335,".2":1336,"å®ĺç½ĳçĻ»å½ķ":1337,"é£ŀ":1338,"è®®":1339,"--":1340,"ç¾¤":1341,"å¾ĭ":1342,"é¢Ħ":1343,"åº·":1344,"¸è¿Ĳ":1345,"è®¾":1346,"agæĹĹèĪ°åİħ":1347,"Ġä¸ī":1348,"æŃ£è§Ħ":1349,"ĠæŃ":1350,"åĩĨ":1351,"åī":1352,"Ġåĩ¯åıĳçĶµæ¸¸":1353,"Ġå¥":1354,"æºĲ|":1355,"è¿ĺ":1356,"Ġåº":1357,"å·²":1358,"å¸Ī":1359,"nt":1360,"Ġå®ģ":1361,"ĠéĽ":1362,"éªĮ":1363,"¦|":1364,"å¾Ĺ":1365,"æĶ¶":1366,"ll":1367,"çīĽ":1368,"Ġéĥ":1369,"æ£ĭçīĮæ¸¸æĪı":1370,"ä½įç½®":1371,"ĠåĪĨ":1372,"èĬ±":1373,"æŁ":1374,"Ġäºļæ´²":1375,"Ġæ´":1376,"ac":1377,"æĿ¡":1378,"è±":1379,"åĲĥ":1380,"éķĩ":1381,"èı":1382,"and":1383,"ĠF":1384,"åĶ":1385,"å°Ĭé¾Ļ":1386,".1":1387,"ç»Ļ":1388,"ĠN":1389,"å¤§åıĳå¿«ä¸ī":1390,"è³":1391,"ç¦ı":1392,"èº":1393,"ĠæĿ¥æºĲï¼ļ":1394,"çĻ»éĻĨ":1395,"Ġå»":1396,"åłĤ":1397,"Ġæ¹":1398,"Ġn":1399,"æĿĥ":1400,"ä»»":1401,"ç©º":1402,"of":1403,"ä½ĵèĤ²app":1404,"am8":1405,"st365":1406,"(\"":1407,"ĠagåĽ½éĻħ":1408,"å¯¼":1409,"æĺŁ":1410,"æµĭ":1411,"ĠéĻ":1412,"äººæ°ĳ":1413,"ĠäºĮ":1414,"éĻĲ":1415,"åħ¶":1416,"Ġre":1417,"ç½ĳé¡µ":1418,"æį®":1419,"ç«ł":1420,"çĭĹ":1421,"ç¼ĸ":1422,"æģ¯":1423,"çĮ":1424,"Ġå±":1425,"ay":1426,"æĻļ":1427,"Ġä¹Ĳ":1428,"Ġçº¿":1429,"æ¯ĶåĪĨ":1430,"ĠW":1431,"çīĪä¸ĭè½½":1432,"ĠéĤ":1433,"åĪĨæĹ¶æĹ¶å½©":1434,"è»":1435,"å°ıæĹ¶åīį":1436,"ment":1437,"Ġçº¿ä¸Ĭ":1438,"èªī":1439,"Ġagäºļæ´²":1440,"Ġ\"":1441,"2-2":1442,"åıĬ":1443,".6":1444,"Ġ365æ£ĭçīĮæ¸¸æĪı":1445,"Ċ2019-0":1446,"ĠE":1447,"å°¼":1448,"âĢĶ":1449,"ãĢĭ":1450,".8":1451,"éĻµ":1452,"æīĭæľºapp":1453,"Ġä¹Į":1454,"Ġh":1455,"éĿŀ":1456,"éĮ":1457,"èº«":1458,"ľ|":1459,"èµĽè½¦":1460,"ä¸ľ|":1461,"æ¬¢":1462,"as":1463,"æŃ¤":1464,"Ġæµ·":1465,"Ġåĩ¯æĹ¶åĽ½éĻħ":1466,"è§Ĥ":1467,"ĠçŁ³":1468,"ãĢĬ":1469,"æĮĩ":1470,"åģļ":1471,"19":1472,".3":1473,"å·´":1474,"Ń|":1475,"ä»İ":1476,"æ¹¾":1477,"Ġè¾":1478,"æºª|":1479,".4":1480,"ç¾İåĽ½":1481,"Ġä¼":1482,"å¨±ä¹Ĳåľº":1483,".9":1484,"Ġå¤ĸ":1485,"æĭĽ":1486,"Ġåĩ¯åıĳå½©ç¥¨":1487,"èĻİ":1488,"äººçĶŁå°±æĺ¯":1489,"çĿ":1490,"Ġæĺ¨å¤©2":1491,"èĭı":1492,"æĽ´":1493,"çĽ¸":1494,"Ġæ·":1495,"Ġç¦":1496,"ä¸Ńå¿ĥ":1497,"ĠæĢ":1498,"ĠæŃ£":1499,"åĮº|":1500,"æ¾³éĹ¨":1501,"å®Ŀ":1502,"å®¢æľį":1503,"Ġ20":1504,"æĻ®":1505,"Ġ2018":1506,"åĦ":1507,"ä»·":1508,"éĩı":1509,"ï¿½ï¿½ï¿½":1510,"èīĩ":1511,"æĺ¯ä»Ģä¹Ī":1512,"Ġé¾Ļ":1513,"Ġ#":1514,"å²Ľ":1515,"ä¿¡èªī":1516,"ç¹":1517,".7":1518,"åĥ":1519,"éĵ¶":1520,"4-0":1521,"Ġæ¡":1522,"æ½":1523,").":1524,"æĥł":1525,"æĪĳä»¬":1526,"ĠäºĶ":1527,"Ġå¸":1528,"Ġ$":1529,"ķé±¼":1530,"Ġåľ":1531,"å©":1532,"è®°èĢħ":1533,"é¥":1534,"èĳ":1535,"alse":1536,"ĠçĻ¾å®¶ä¹Ĳ":1537,"å¾®":1538,"åĲ§":1539,"ur":1540,"é¡¹":1541,"æĪĺ":1542,"ä¸¤":1543,"çĻ¾":1544,"æ²Ļ":1545,"çİ°åľº":1546,"èŃ¦":1547,"el":1548,"Ġæ»":1549,"æ¡Ī":1550,"Ġåįļ":1551,"od":1552,"çı":1553,"è»Ĭ":1554,"æ´»":1555,"å¦Ĥä½ķ":1556,"Ġå®ľ":1557,"ç§°":1558,"Ġå¾·":1559,"åĮĹäº¬":1560,"æķĻ":1561,"å¤´":1562,"Ġbest365":1563,"www":1564,"Ġin":1565,"åºĶ":1566,"æ¶Ī":1567,"365ä½ĵèĤ²æĬķæ³¨":1568,"èµĮåľº":1569,"ol":1570,"èĹ":1571,"æŀģéĢŁ":1572,"äºĽ":1573,"ä¸ĵ":1574,"éĸ":1575,"Ċä¸Ĭ":1576,"âĢķ":1577,"èĲ¥":1578,"Ġè¯":1579,"ĠåĨ":1580,"ĠU":1581,"åĩ¯":1582,"åĳ¨":1583,"Ġy":1584,"æĺĵ":1585,"è¶ħ":1586,"è¥¿|":1587,"é¦Ļæ¸¯":1588,"ĩåĨł":1589,"å®īåħ¨":1590,"ä½ľèĢħ":1591,"ç±»":1592,"éĤĢ":1593,"éĮ¢":1594,"Ċæĸ°":1595,"äººçĶŁå°±æĺ¯åįļ":1596,"ĠO":1597,"åŀĭ":1598,"os":1599,"é£İ":1600,"åŃĺ":1601,"Ġå²":1602,"å·¦":1603,"æ±Ĥ":1604,"Ġ[":1605,"éªĹ":1606,"ĬĢ":1607,"te365":1608,"æĹ¶éĹ´ï¼ļ":1609,"éĤĢè¯·":1610,"è¾ĵ":1611,"Ġä¸Ģ":1612,"ĠåĬł":1613,"çĭ":1614,"æĺĮ|":1615,"Â·":1616,"å°ıåĲĥ":1617,"us":1618,"Ġd88":1619,"Ġä½":1620,"å®īè£ħ":1621,"åı¤":1622,"æµİ":1623,"åıª":1624,"æµ·|":1625,"éħį":1626,"æĺ¥":1627,"ä¸ĸçķĮ":1628,"çł´":1629,"ow":1630,"é²":1631,"æľĢæĸ°çĻ»å½ķ":1632,"çª":1633,"åĨĽ":1634,"ĠéĿĴ":1635,"æľ¨":1636,"½|":1637,"ĠV":1638,"å£«":1639,"å¤©åłĤ":1640,"æĹħæ¸¸":1641,"Ġæ²³":1642,"Ġvar":1643,"é»Ħ":1644,"åĽ½å®¶":1645,"æĮģ":1646,"ĠK":1647,"ä¸Ńæĸĩ":1648,"Ġof":1649,"¾İ":1650,"è°±":1651,"åħ¥åı£":1652,"æĥ³":1653,"Ġåĵ":1654,"ĠJ":1655,"ï¼ģ":1656,"Ġæ¸ħ":1657,"ĠæĹ©çĤ¹åĬłçĽŁ":1658,"ä½įç½®ï¼ļ":1659,"çº¢":1660,"Ġå·´":1661,"ĠéĢļ":1662,"Ġäºļæ¸¸åĽ½éĻħ":1663,"Ġå¤ĸåĽ´":1664,"å½±":1665,"åĵªä¸ª":1666,"cc":1667,"ĺī":1668,"å§Ķ":1669,"ĠåĽ½":1670,"éĤĢè¯·çłģ":1671,"åĳĬ":1672,"alse,":1673,"å¼º":1674,"å½ĵåīį":1675,"éĽĦ":1676,"ç«ĭ":1677,"Ġd88å°Ĭé¾Ļ":1678,"çŁ¥":1679,"è½¬":1680,"ĠAGçİ¯äºļ":1681,"æ²¡æľī":1682,"th":1683,"èĦĳ":1684,"èĪª":1685,"åħ°":1686,"éĶģ":1687,"ç»ľ":1688,"ä¸ĩåįļ":1689,"èħ":1690,"ĠçľŁéĴ±":1691,"åħļ":1692,"Ġé»Ħ":1693,"Ġk8å¨±ä¹Ĳ":1694,"Ġ365æ»ļçĲĥ":1695,"çĶµåŃĲ":1696,"Ġbte365":1697,"ä¾Ľ":1698,"Ġäºļç¾İam8":1699,"ĳ|":1700,"æĿ¯":1701,"Ġå½©ç¥ŀäºīéľ¸":1702,"å¹¶":1703,"ä¿®":1704,"åĬŀ":1705,"com":1706,"ote":1707,"éŁ":1708,"åı³":1709,"ä¹¦":1710,"å¥³":1711,"åĿĽ":1712,"ç»´":1713,"å·¥ä½ľ":1714,"åĪĨåĪĨå½©":1715,"ç¡":1716,"çĶµè¯Ŀ":1717,"log":1718,"right":1719,"ç§Ĵ":1720,"ä¼ĺ":1721,"ç¶":1722,"ï¼Ł":1723,"ĠæĽ":1724,"Ġâ":1725,"Ġpk10":1726,"ç½ĳç»ľ":1727,"Ġçİ¯äºļçĶµæ¸¸":1728,"çŁ":1729,"ä½ł":1730,"ĠagçľŁäºº":1731,"ĠçĻ½":1732,"èµĮéĴ±":1733,"Ġè¶":1734,"ction":1735,"Ġçģ":1736,":f":1737,"éĿłè°±":1738,"åĲĳ":1739,"æĺ¯çľŁ":1740,"é£ŀèīĩ":1741,"åı£|":1742,"åİĨ":1743,"ip":1744,"Ġå¿«":1745,"èĲ½":1746,"ä¹ħ":1747,"åĮĸ|":1748,"ä½Ĩ":1749,"å¸¸":1750,"12æľĪ":1751,"Ġis":1752,"çĦ¶":1753,"è©":1754,"å½©ç¥ŀäºīéľ¸":1755,"Ġ12":1756,"éº":1757,"Ġä½ĵèĤ²":1758,"èĢĮ":1759,"Ġéĺ³":1760,"Ġ&":1761,"åŁº":1762,"ãĥ":1763,"Ġand":1764,"è®¤":1765,"èµļ":1766,"çļĦåĲĹ":1767,":false,":1768,"çľģ":1769,"ĬĢè¡Į":1770,"-20":1771,"ĠèĬ":1772,"æ¦":1773,"æĶ¾":1774,"æĳ":1775,"åĽŃ":1776,"im":1777,"åħħåĢ¼":1778,"åıĹ":1779,"åĽł":1780,"ŀį":1781,"ĠåŃ":1782,"Ġ2019-0":1783,"Ġåħ´":1784,"æļ":1785,"ä¸įäºĨ":1786,"è´¦åı·":1787,"www.":1788,"æ¬§":1789,"-19":1790,"ä¹ł":1791,"ĠccåĽ½éĻħç½ĳæĬķ":1792,"çĿĢ":1793,"èĹı":1794,"å¿«ä¹Ĳ":1795,"æľª":1796,"è°ĥ":1797,"æĢĿ":1798,"éĹ®é¢ĺ":1799,"Ġç¦ı":1800,"åı²":1801,"ew":1802,"æīĭæľºå®¢æĪ·ç«¯ä¸ĭè½½":1803,"Ġèİ":1804,"åĢŁæ¬¾":1805,"28":1806,"èĤ¡ç¥¨":1807,"ĠåĲī":1808,"Ġé©":1809,"å¾Ī":1810,"Ġå°Ĭé¾ĻäººçĶŁå°±æĺ¯åįļ":1811,"ç®±":1812,"bet365":1813,"ĠæĬ":1814,"Ġ11":1815,"at365":1816,"åĪĻ":1817,"åıĭ":1818,"æĶ¯":1819,"è§Ħå¾ĭ":1820,"èĸ":1821,"åĩł":1822,"Ġè¡":1823,"Ġåĳ":1824,"æįķé±¼":1825,"Ġäºļæ¸¸å®ĺç½ĳ":1826,"èĮ":1827,"ä¸Ģä¸ª":1828,"Ġæł":1829,"Ġç¥":1830,"ml":1831,"ä¹ī":1832,"è¯»":1833,"ĠåĴĮ":1834,"Ġto":1835,"ä¼Ĺ":1836,"ĠåħŃ":1837,"Ġéģ":1838,"å¤§å°ı":1839,"æĮĤ":1840,"æ©Ł":1841,"ç¨³":1842,"Ġæ½":1843,"ä¿Ħ":1844,"Ġåıĳ":1845,"Ġé¦Ļæ¸¯":1846,"Ġä¸ĩçĭĹ":1847,"ĠæľĢ":1848,"Ġ365å¤ĸåĽ´":1849,"é¡º":1850,"çİ¯":1851,"çĬ":1852,"-18":1853,"è¡¨ç¤º":1854,"ä¸¾":1855,"Ġï¿½":1856,"ä»ĭ":1857,"Ġåĩ¯åıĳçľŁäºº":1858,"ĠéĦ":1859,"çŁ³":1860,"åª":1861,":'',":1862,"è¯¥":1863,"éªĮè¯ģ":1864,"å¿ħ":1865,"é¡¹çĽ®":1866,"Ġåħ¨":1867,"çĻ½":1868,"ç¢":1869,"éĬĢè¡Į":1870,"Ġåĩ¯åıĳæ¸¸æĪı":1871,"b88":1872,"Ċ2019-10":1873,"åĢŁéĮ¢":1874,"Ġè®":1875,"å®¾":1876,"365æ£ĭçīĮ":1877,"bo":1878,"ĠçĭĹä¸ĩåıĸ":1879,"ç¿¼":1880,"Ġèĭ±":1881,"åħ¬äº¤":1882,"èĩ³":1883,"ch":1884,"å¤Ħ":1885,"æĿ¥æºĲï¼ļ":1886,"éł":1887,"Ġ::":1888,"å¨ģ":1889,"å¦":1890,"Ġg":1891,"éĺŁ":1892,"åĪ«":1893,"è¯ķ":1894,"ĠX":1895,"Ġæı":1896,"918":1897,"èĴ":1898,"Ġäºĳ":1899,"å£°":1900,"è¿Ľè¡Į":1901,"æĬ¤":1902,"ä¸°|":1903,"æ®":1904,"è¾¹":1905,"å®¹":1906,"Ġèģ":1907,"åĲĦ":1908,"éĤ£":1909,"Ġ15":1910,"ä»½":1911,"åĵĪ":1912,"ĠçĶµçİ©":1913,"Ġåĺī":1914,"æľ¯":1915,"æ·±":1916,"éĻµ|":1917,"çģ«":1918,"è®ºåĿĽ":1919,"åĮ»":1920,"è®©":1921,"Ġ09":1922,"Ġå¹¸è¿Ĳ":1923,"ä¸ĭä¸Ģç¯ĩï¼ļ":1924,"åĩ¯åıĳ":1925,"éĺ³åİ¿|":1926,"çĭĹä¸ĩ":1927,"èĢĥ":1928,"æħ":1929,"èŃ":1930,"Ġ+":1931,"unction":1932,"ãĢĤâĢĿ":1933,"åı°|":1934,"åĩ»":1935,".8ä¸ĩ+":1936,".6ä¸ĩ+":1937,".0ä¸ĩ+":1938,".7ä¸ĩ+":1939,".5ä¸ĩ+":1940,".9ä¸ĩ+":1941,".3ä¸ĩ+":1942,"å¾®ä¿¡":1943,"æĢİä¹Īä¸ĭè½½":1944,"ĠY":1945,"çĶ±":1946,".2ä¸ĩ+":1947,".1ä¸ĩ+":1948,"åħ´":1949,".4ä¸ĩ+":1950,"Ĩ|":1951,"ub":1952,"åıĳå±ķ":1953,"åħ«":1954,"å¤ª":1955,"21":1956,"æ±ł":1957,"Ġ19":1958,"å¤ı":1959,"æľįåĬ¡":1960,"åįĢ":1961,"Ġ2020-02-2":1962,"Ġåĩ¯åıĳæĹĹèĪ°åİħ":1963,"éĢł":1964,"çħ":1965,"Ġç«":1966,"Ġå±±":1967,"8-0":1968,"è´Ń":1969,"éĺ²":1970,"åĲī":1971,"æ¼ı":1972,"è¿ŀéĶģ":1973,"åıį":1974,"Ġé©¬":1975,"ä¾¿":1976,"ĠåĽĽ":1977,"ĠæĶ":1978,"çİ©æ³ķ":1979,"ĠåıĮ":1980,"Ġåĩ¯åıĳç½ĳåĿĢ":1981,"ĠæĹ©é¤ĲåĬłçĽŁ":1982,"æĦŁ":1983,"åħĪ":1984,"ĺ|":1985,"ç»ıæµİ":1986,"åĤ":1987,"Ċä¸ŃåĽ½":1988,"èģĮ":1989,"éĹ¨|":1990,"çĪ±":1991,"Ġçī¹":1992,"æİĴåĪĹ":1993,"¿|":1994,"ï¼Ľ":1995,"Ġ'":1996,"æ²ģ":1997,"åĮºåı·":1998,"éĤ®ç¼ĸ":1999,"ce":2000,"Ġ?":2001,"Ġ16":2002,"é¢Ħæµĭ":2003,"Ġæ¢":2004,"Ġbeat365":2005,"Ġäºļæ¸¸ag":2006,"åį³":2007,"ä¼ł":2008,"æĶ¹":2009,"Ġ918":2010,"Ġåľ¨":2011,"æĢİä¹Īæł·":2012,"åĪĨpk10":2013,"Ġbet365ä½ĵèĤ²":2014,"ä¼ģ":2015,"èıľ":2016,"ĠèµĮ":2017,"ç§į":2018,"çķĻ":2019,"èĬĤ":2020,"ç»Ń":2021,"æĹ¥ï¼Į":2022,"å¤®":2023,"èģĺ":2024,"Ġåįİ":2025,"365betå®ĺç½ĳ":2026,"ç½ĳé¡µçīĪ":2027,"Ġæ¶":2028,"Ġåİ":2029,"åĵģçīĮ":2030,"Ġä¸Ĭæµ·":2031,"ue":2032,"Ġè¶³":2033,"ä½İ":2034,"èµ¢éĴ±":2035,"å¤į":2036,"æķ´":2037,"å¾·|":2038,"Ġ//":2039,"çĥŃ":2040,"æŀĹ|":2041,":00":2042,"éľĢ":2043,"è´¢":2044,"ĠåĬłçĽŁ":2045,"çł´è§£":2046,"å¸¦":2047,"il":2048,"Ġ2017":2049,"opy":2050,"ç±³":2051,"ve":2052,"AN":2053,"çĶµè§Ĩ":2054,"otel":2055,"æĸ½":2056,"Ġåĩ¯åıĳåľ¨çº¿":2057,"æ³¢":2058,"ĠéĹ":2059,"Ġç¾İ":2060,"Ġä¸ĭè½½":2061,"åŃĹåı·":2062,"ĠæĲ":2063,"éĥ½|":2064,"Ġå¯Į":2065,"Ġ17":2066,"æ¯ı":2067,"è¿İ":2068,"å·¥ç¨ĭ":2069,"åªĴ":2070,"ĠãĢĳ":2071,"Ġ2020-04-0":2072,"å¤§åİħ":2073,"ount":2074,"Ġå¼ł":2075,"Ġéļ":2076,"éĵ¾":2077,"Ġåĩ¯åıĳå½©ç¥¨app":2078,"åı°æ¹¾":2079,"Ġä¸ĩåįļä½ĵèĤ²app":2080,"ä¸įèĥ½":2081,"Ġé¹":2082,"ä¹¡":2083,"ĠâĢĵ":2084,"æİĴè¡Į":2085,"Ġèį":2086,"Ġif":2087,"tp":2088,"æİ§":2089,"ĠèĤ":2090,"ä¿¡æģ¯":2091,"Ġæķ":2092,"opyright":2093,"æĺ¯å¤ļå°ĳ":2094,"ç»Ħ":2095,"15å¤©å¤©æ°Ķ":2096,"22":2097,"30å¤©å¤©æ°Ķ":2098,"10å¤©å¤©æ°Ķ":2099,"åħ·":2100,"Ġä¸ĩåįļapp":2101,"ĊC":2102,"åĵªéĩĮ":2103,"Ġå®ļ":2104,"Ġéķĩ":2105,"å½ĵåīįä½įç½®ï¼ļ":2106,"åıĳå¸ĥ":2107,"å±ĭ":2108,"16":2109,"æ³¨åĨĮéĢģ":2110,"Ġä»":2111,"éĢī5":2112,"æĹı":2113,"Ġ14":2114,"Ġçİ¯äºļéĽĨåĽ¢":2115,"æŃ¥":2116,"èĩªæ²»":2117,"Ġåķ":2118,"åıĤ":2119,"è¨Ģ":2120,"ä½¿":2121,"17":2122,"//":2123,"ight":2124,"Ġæ¬":2125,"åħ´|":2126,"å®¤":2127,"one":2128,"é¡į":2129,"çĶµèĦĳ":2130,"ĠåĽ½éĻħ":2131,"Ġæĸĩ":2132,"åĸĦ":2133,"-17":2134,"ĠæĹł":2135,"é¢Ĩ":2136,"ĠèĲ":2137,"æ³ī|":2138,"Ġå¤ª":2139,"sp":2140,"ĠçĶµåŃĲ":2141,"Ġde":2142,"Ġå¨ģ":2143,"å¤ļä¹ħ":2144,"åĦ¿":2145,"é¦Ĩ":2146,"çĹ":2147,"ot":2148,"ç¦»":2149,"Ċä¸Ĭä¸Ģç¯ĩï¼ļ":2150,"Ġl":2151,"æľĹ":2152,"ĠQ":2153,"å¤±":2154,"éİ":2155,"åĨ³":2156,"????":2157,"ä¸įåİ»":2158,"æĿĳ":2159,"èį£":2160,"50":2161,"è§Ĥçľĭ":2162,"äº«":2163,"è´§":2164,"Ġæ¹ĸ":2165,"('":2166,"åĲİï¼Į":2167,"14":2168,"Ġåĩ¯åıĳç½ĳ":2169,"Ġ18":2170,"åį°":2171,"æīĢæľī":2172,"å·ŀå¸Ĥ|":2173,"ĠåķĨ":2174,"con":2175,"å¹²":2176,"ĠåĪ©æĿ¥æľĢ":2177,"åŁ¹":2178,"000":2179,"Ġåĩ¯åıĳä½ĵèĤ²app":2180,"ä¸įåĪ°":2181,"ħè¯»":2182,"Ġå»º":2183,"æłĩé¢ĺ":2184,"Ġçİĭ":2185,"åºĵ":2186,"é²ģ":2187,"ĠZ":2188,"æ¡¥":2189,"è®Ń":2190,"ios":2191,"çĳ":2192,"ï¼Įä½Ĩ":2193,"Ġ08":2194,"å®Į":2195,"åĭĴ":2196,"ĠåĲĪ":2197,"éħĴåºĹ":2198,"çº¦":2199,"çº³":2200,"Ġæĥ":2201,"Ġä¸į":2202,"Ġæ¾³éĹ¨çĻ¾å®¶ä¹Ĳ":2203,"-21":2204,"Ġæ¾³éĹ¨çĻ¾å®¶":2205,"¾è®¯":2206,"æŀĲ":2207,"åİĨåı²":2208,"Ġæĭ":2209,"æīĭæľºçīĪå®ĺç½ĳ":2210,"Ġåīįå¤©0":2211,"Ġ@":2212,"Ġèĩ":2213,"å¼ł":2214,"ost":2215,"Ġåĩ¯åıĳå®ĺæĸ¹":2216,"åĩ¡":2217,"æ¨¡":2218,"å·±":2219,"Ġe":2220,"å¯Ł":2221,"åĪĽ":2222,"åĬŁ":2223,"é¢Ŀ":2224,"ĳåħĭ":2225,"å¸ĤéĤ®ç¼ĸ":2226,"ï¼Įè¿Ļ":2227,"å¸ĤåĮºåı·":2228,"ĠagåĽ½éĻħäºļæ¸¸":2229,"Ġapp":2230,"åĶ®":2231,"ä¹¡|":2232,"99":2233,"çłĶ":2234,"åĥı":2235,"è¯Ħè®º":2236,"pe":2237,"erv":2238,"Ġå¦Ĥ":2239,"æ¦ľ":2240,"åľŁ":2241,"APPï¼ļ":2242,"åĪĨéĴŁå¿«ä¸ī":2243,"æĪĸ":2244,"æĸĹ":2245,"Ġè¿ŀ":2246,"ĠæĻ®":2247,"æĵ":2248,"ç¹Ŀ":2249,"æĸĩç«ł":2250,"è§Ī":2251,"åºĦ":2252,"ĠÂ»":2253,"ĠçļĩåĨł":2254,"¥åº·":2255,"æĬ¥éģĵ":2256,"å¹¸è¿Ĳ":2257,"http":2258,"Ġwww.":2259,"kb88":2260,"æľīéĻĲ":2261,"ation":2262,"Ċ2017":2263,"±|":2264,"éĵ¾æİ¥":2265,"ä½ľèĢħï¼ļ":2266,"æ¹ĸ|":2267,"ç¶²":2268,"çĵ":2269,".cn":2270,"èĽ":2271,"ĠagæĹĹèĪ°åİħ":2272,"Ġæľī":2273,"Ġçİ°":2274,"å¨±ä¹Ĳå¹³åı°":2275,"å¤§åıĳæĹ¶æĹ¶å½©":2276,"æĿ¿":2277,"-22":2278,"é¸":2279,"è³¼":2280,"ĨĴ":2281,"æ±½":2282,"æł¡":2283,"ä¸Ńçİĭ":2284,"è®°å½ķ":2285,"å®ĺç½ĳç½ĳåĿĢ":2286,"11éĢī5":2287,"æĭĽèģĺ":2288,"äºĮæīĭ":2289,"è¼":2290,"Ġè´µ":2291,"æ°¸":2292,"å¿Ĺ":2293,"å°ģ":2294,"ĠæĹ¶":2295,"éĤ¦":2296,"ang":2297,"Ġåıĳå¸ĥ":2298,"è°·":2299,"çĽĳ":2300,"åľĭ":2301,"åį«":2302,"Ġå¤§åıĳå¿«3":2303,"åįĥ":2304,"½Ĳ":2305,"ª|":2306,"ä½ı":2307,"ä¸Ń|":2308,"èĳ¡":2309,"ate":2310,"çŃ¾":2311,"ĠçĶĺ":2312,"åİŁ|":2313,"èĩªå·±":2314,"Ġå¤©æ´¥":2315,"æ¸¸æĪıå®ĺç½ĳ":2316,"æłĩé¢ĺï¼ļ":2317,"çĴ":2318,"Ġéĺľ":2319,"åĢį":2320,"è§Ĩè®¯":2321,"åľ°åĽ¾":2322,"ï¼Įåľ¨":2323,"èµĮåįļ":2324,"k8":2325,"èĵ":2326,"Ġk8å¨±ä¹ĲæīĭæľºçīĪ":2327,"æīį":2328,"ind":2329,"çĩ":2330,"å¼Ĭ":2331,"éªĹå±Ģ":2332,"ä¾Ŀ":2333,"\").":2334,"éķĩ|":2335,"ĠèµĮéĴ±":2336,"ĠçĭĹä¸ĩæıĲæ¬¾":2337,"ĠèĮ":2338,"Ġ,":2339,"Ċ2019-11":2340,"æĮī":2341,"å§ĭ":2342,"Ġ>>":2343,"å¤ĩçĶ¨ç½ĳç«Ļ":2344,"Ġå¥½":2345,"´ĩ":2346,"åĺ":2347,"Ġç§Ĵ":2348,"ĠæĺĮ":2349,"Ġ07":2350,"åĲĪä½ľ":2351,"å¯Ĩ":2352,"Ġæ¾³éĹ¨çľŁéĴ±":2353,"å®ļ|":2354,"æĻ¯":2355,"ort":2356,"§|":2357,"ata":2358,"Ġåħ¬":2359,"éŁ©":2360,"çµ":2361,"ç§Ł":2362,"ĠéĦĤ":2363,"è¡¨ç¤ºï¼Į":2364,"ok":2365,"åħ¸":2366,"ĠæıĲ":2367,"2020å¹´":2368,"æŁĲ":2369,"Ġåĩ¯åıĳagæĹĹèĪ°åİħ":2370,"Ġåĩ¤":2371,"å°¼æĸ¯":2372,"----":2373,"ä½Ļ":2374,"AGæĹĹèĪ°åİħ":2375,"å½©éĩĳ":2376,"ĠäºĮæīĭ":2377,"åĬłçĽŁåºĹ":2378,"åĪ°è´¦":2379,"åĪĨæŀĲ":2380,"-23":2381,"Ġth":2382,"Ġæ¼":2383,"å¸Ń":2384,"åįİç½ĳ":2385,"æĢģ":2386,"æ¥¼":2387,"åħ°|":2388,"æľĽ":2389,"Ġåĩ¯æĹ¶kb88":2390,"itor":2391,"Ġçİī":2392,"æŃ»":2393,"æ¬¢ä¹Ĳ":2394,"é¾Ļ|":2395,"éĵģ":2396,"è¿ľ":2397,"Ġse":2398,"ç®¡çĲĨ":2399,"ĠçĻ¾":2400,"å©Ĩ":2401,"Ġç½ĳä¸Ĭ":2402,"åĳ½":2403,"åŃĹåı·ï¼ļ":2404,"éĺ³å¸Ĥ|":2405,"æĿİ":2406,"æĽ²":2407,"Ġå®Ŀ":2408,"è§ģ":2409,"æ¿":2410,"-16":2411,"ä¼ĺæĥł":2412,"if":2413,"è¯Ń":2414,"Ġagäºļæ¸¸":2415,"ä¿¡è²¸":2416,"è¶³å½©":2417,"ï¼ĮãĢĳãĢĲ":2418,"Ġä¹Ŀ":2419,"Ġçº¢":2420,"25":2421,"çĶ°":2422,"èĴĻ":2423,"æ£Ģ":2424,"æıĲä¾Ľ":2425,"çķ¥":2426,"éŁ³":2427,"å°ıé¡į":2428,"æī¾":2429,"ç¡®":2430,"æĻļæĬ¥":2431,"Ġæ³°":2432,"Ġlo":2433,"Ġåģ":2434,"age":2435,"ãĢĳãĢĲï¼ĮãĢĳãĢĲ":2436,":0,":2437,"Ġç®":2438,"çĽĺåı£":2439,"å²ģ":2440,"ĠãĢĲåŃĹåı·ï¼ļ":2441,"è®¸":2442,"ä¸ĭè½½ç½ĳåĿĢ":2443,"çĶ²":2444,"çĶ³":2445,"èŀį":2446,"end":2447,"è«":2448,"éĶĢ":2449,"um":2450,"Ġç§ĳ":2451,"Ċ2019-12":2452,"æĲľ":2453,"çİĽ":2454,"åĨľ":2455,"()":2456,"ĠèĪ":2457,"å®¡":2458,"å¤«":2459,"åĽ½éĻħåİħ":2460,"åıĺ":2461,"Ġçº¿ä¸ĬçľŁéĴ±":2462,"ĊCopyright":2463,"å¼¹":2464,"Ġagçİ¯äºļéĽĨåĽ¢":2465,"çī¹èī²":2466,"åįı":2467,"ĠæĲı":2468,"ĠæĽ²":2469,"è¿ľ|":2470,"ä½ľå¼Ĭ":2471,"ç½Ĺæĸ¯":2472,"Ġç»¥":2473,"isitor":2474,"å¤©å¤©":2475,"åŁ¹è®Ń":2476,"Count":2477,"Ġ.":2478,"İ|":2479,"åĨį":2480,"åįĩ":2481,"æĹłæ³ķ":2482,"äº¿":2483,"Ġ22":2484,"å®ĺç½ĳapp":2485,"ç¬¬ä¸Ģ":2486,"Ġ05":2487,"æĹ©é¤ĲåºĹåĬłçĽŁ":2488,"å¯¼èĪª":2489,"Ġèı":2490,"¯|":2491,"ia":2492,"Ġ06":2493,"å¡Ķ":2494,"Ġæĥł":2495,"Ġæ±ī":2496,"ç´¢":2497,"éĻ¤":2498,"å®ĺæĸ¹å®¢æĪ·ç«¯ä¸ĭè½½":2499,"Ġ23":2500,"èµĦæĸĻå¤§åħ¨":2501,"è¡Ģ":2502,"Ġ21":2503,"-15":2504,"æ´ŀ":2505,"Ġé¦ĸ":2506,"Ġfunction":2507,"æīĭæľºçīĪappä¸ĭè½½":2508,"èĽĭ":2509,"é£Ł":2510,"æ´Ľ":2511,"å¤§åŃ¦":2512,"=\"":2513,"Ġèĵ":2514,"æľīéĻĲåħ¬åı¸":2515,"è¶Ĭ":2516,"è¯¢":2517,"çĶ°|":2518,"Ġé¡":2519,"å²Ľ|":2520,"çĨ":2521,"ĠçĭĹä¸ĩæıĲçİ°":2522,"å®ĺæĸ¹ç½ĳ":2523,"://":2524,"Ġä¿Ŀ":2525,"Ġä¸°":2526,"éĽ»":2527,"Ġä¼Ĭ":2528,"Ad":2529,"Ġçı":2530,"Ġæľ¬":2531,"çĶ»":2532,"æİĴè¡Įæ¦ľ":2533,"Ċå¤§":2534,"è´¨":2535,"Ġçģµ":2536,"Ġé»ĳ":2537,"ame":2538,"å¢ŀ":2539,"Ġst":2540,"ĠæĪĳ":2541,"çĶµè§Ĩåı°":2542,"\",":2543,"æ±ī":2544,"åĴĮ|":2545,"¨|":2546,"èĸ¦":2547,"æķĪ":2548,"æµģæ°´":2549,"å·¦æĹĹ|":2550,"åľ¨çº¿è§Ĥçľĭ":2551,"ä½³":2552,"Ġ01":2553,"Ġ365ä½ĵèĤ²åľ¨çº¿":2554,"èįĲ":2555,"èĥľ":2556,"Ġæİ":2557,"æ¸¯|":2558,"ĠHotel":2559,"ĠçĤ":2560,"å±±åİ¿|":2561,"åİŁæłĩé¢ĺï¼ļ":2562,"è¯Ģ":2563,"Ċé¦ĸé¡µ":2564,"âĢĿãĢĤ":2565,"ıçĦ":2566,"éħįèµĦ":2567,"éİıçĦ":2568,"éİıçĦ¯":2569,"ç§°ï¼Į":2570,"åŁŁ":2571,"Ġé¢":2572,"ï¼Įå¹¶":2573,"ĠçĽĲ":2574,"oc":2575,"ĠåĪ©æĿ¥ag":2576,"Ġåĩ¯åıĳæ³¨åĨĮ":2577,"Ġéº":2578,"å¼ķ":2579,"Ġä¸¹":2580,"Ĺ|":2581,"æ©Ļ":2582,"éĻ©":2583,"Ġèħ":2584,"Ġ04":2585,"å±ŀ":2586,"ç®Ģ":2587,"ĠåĮĹäº¬pk10":2588,"In":2589,"Ġfor":2590,"ä»ĸä»¬":2591,"Ġåĩ¯åıĳå®ĺç½ĳå¹³åı°":2592,"888":2593,"Ij":2594,"çİ°åľ¨":2595,"Ġ00":2596,"Ġçº¿ä¸ĬçľŁäºº":2597,"Ġ...":2598,"ä¸ĢçĤ¹":2599,"ir":2600,"æ¬¢è¿İ":2601,"éĥ¨èĲ½":2602,"éĿĴå¹´":2603,"ĠTI":2604,"ĠèĢ":2605,"Ġì":2606,"å®ĺç½ĳå¹³åı°":2607,"æĤ¨çļĦ":2608,"ıè§Ī":2609,"Ġç½Ĺ":2610,"ä¿¡çĶ¨":2611,"24":2612,"å¯Į":2613,"å®¶å©Ĩ":2614,"man":2615,"ĠåŁ":2616,"ĊæĹ©é¤Ĳ":2617,"çĶ¸":2618,"Ċäººæ°ĳ":2619,"ĠçļĦ":2620,"Ġè¶³çĲĥ":2621,"æĺ¾":2622,"è´µ":2623,"æīĳåħĭ":2624,"¾|":2625,"Id":2626,"WR":2627,"Ġ03":2628,"77":2629,"éĢĢ":2630,"æ±ł|":2631,"Ġagå¹³åı°":2632,"/å½©ç¥ŀäºīéľ¸":2633,"æ¥Ń":2634,"à¹":2635,"æ²¹":2636,"Ġ02":2637,"ĠåĲ´":2638,"Ġéľ":2639,"çĽ¸åħ³":2640,":30":2641,"Ġå»¶":2642,"31":2643,"è¾ħ":2644,"Ġ2016":2645,"Ġç¥ŀ":2646,"ı|":2647,"ype":2648,"Ġæ²Ļ":2649,"æł¸":2650,"ul":2651,"200":2652,"çĻ¼":2653,"ĠæŀĹ":2654,"Ġè¯Ħ":2655,"éº»":2656,"å½©ç¥¨365":2657,"çĸĨ":2658,"èĭ¹æŀľçīĪ":2659,"çļĩåĨł":2660,"ĠæĢĢ":2661,"Ġäºļæ¸¸app":2662,"\":":2663,"-14":2664,"ä¸ĢèĤĸ":2665,"åĴĮåĢ¼":2666,"Ġå´ĩ":2667,"è´£":2668,"æĹ©çĤ¹å°ıåĲĥ":2669,"ä»ĺ":2670,"ä¿Ħç½Ĺæĸ¯":2671,"èīº":2672,"Ġå¨±ä¹Ĳ":2673,"å¾½":2674,"èŃī":2675,"Ġç±":2676,"ä¸įå¼Ģ":2677,"Ġåĩ¯åıĳæľĢæĸ°çĻ»å½ķ":2678,"Ġä¸ĸ":2679,"Ġè°":2680,"Ġéĩį":2681,"ut":2682,"æ¤":2683,"å¨±":2684,"ä¼ģä¸ļ":2685,"è¯´ï¼Į":2686,"å¥½çļĦ":2687,"èĩ´":2688,"æīĭæľºçĻ»éĻĨ":2689,"éļ¾":2690,"em":2691,"åĨµ":2692,"Ġå¯Ł":2693,"ĠæĻ¯":2694,"Ġåĩ¯åıĳæľĢæĸ°":2695,"Ġå¤©ç©º":2696,"Ġæ¯":2697,"åı³ç¿¼":2698,"å°Ķ|":2699,"å°Ķæ²ģ":2700,"æŃ£ç½ĳ":2701,"åİĤ":2702,"âĢ¦":2703,"æ¾³":2704,"ĠæĪ¿":2705,"æĺ¯çľŁçļĦåĲĹ":2706,"éĤ®ç®±":2707,"åĩ¤":2708,"ore":2709,"},":2710,"æ¸ħ|":2711,"ĊåįĹ":2712,"åľ°åĮº":2713,"æīĭæľºæĬķæ³¨":2714,"å¥Ĺ":2715,"ĠåĨħ":2716,"Ġéħ":2717,"æīĵä¸įå¼Ģ":2718,"æĿŁ":2719,"åĥ¹":2720,"åĲĪæ³ķ":2721,"åħ¨éĥ¨":2722,"åı¯éĿł":2723,"Ġ200":2724,"Ġ$(\"":2725,"Ġåĩ¯åıĳk":2726,"ä¼¦":2727,"ĠæĿ¾":2728,"è®¿":2729,"è¿ĳå¹³":2730,"Ġagä½ĵèĤ²":2731,"æ³ī":2732,"æµª":2733,"Ġè¯Ħè®º":2734,"æĿ±":2735,"ĠæĪĲ":2736,"ĪæĿĥ":2737,"æ¸©":2738,"ĠæĲıå¤©åłĤ":2739,"Ġ2019-11":2740,"éģĹ":2741,"éĸĵ":2742,"æł¹":2743,"æĬĬ":2744,"çĮľ":2745,"Ġ*":2746,"åĳ³":2747,"è¯į":2748,"æĢİä¹Īä¹°":2749,"Ġä»Ĭ":2750,"Ċä¸ĭä¸Ģç¯ĩï¼ļ":2751,"æ¯ĶèµĽ":2752,"è¡Ĺ":2753,"å®ĺç½ĳåľ°åĿĢ":2754,".p":2755,"Ġçī¹èī²":2756,"èİ·":2757,"éĢļè¿ĩ":2758,"ä¹Į":2759,"ET":2760,"åľ³":2761,"æµ©":2762,"ĠçľŁéĴ±æ£ĭçīĮ":2763,"èµĦæºĲ":2764,"æģ©":2765,"ĊãĢĲ":2766,"ä¸ŃæĹĹ|":2767,"Ġæ±Łèĭı":2768,"Ġåĸ":2769,"æ¶ĵ":2770,"å¥ĩ":2771,"Ġæ¾³éĹ¨ç½ĳæĬķ":2772,"æķĳ":2773,"Ġæį":2774,"ĠÂ©":2775,"åºĨ|":2776,"äº¤æµģ":2777,"ç¹Ŀï½":2778,"æĢİæł·":2779,"åŃ¸":2780,"-09":2781,"è¾ħåĬ©":2782,":10":2783,"get":2784,"åįĪ":2785,"Ī|":2786,"Ĭ|":2787,"æį¢":2788,"Ġåĩ¯åıĳkå¨±ä¹Ĳ":2789,"Ġéĵľ":2790,"æ±ĩ":2791,"è¦ģæ±Ĥ":2792,"çħ§":2793,"çĶµç«ŀ":2794,"ä¸Ńï¼Į":2795,"æĢ»ç»Ł":2796,"çļĩ":2797,"éĿŀåĩ¡":2798,"Ġåħĥ":2799,"ĠèµĦ":2800,"ä¾ĭ":2801,"ä¹łè¿ĳå¹³":2802,"å³°":2803,"åĪ·":2804,"é¹":2805,"Ġäºļæ´²æ¸¸æĪı":2806,"é¬":2807,"æĻº":2808,"ĠagåĽ½éĻħåİħ":2809,"éĩĩ":2810,"Ġåĩ¯åıĳä½ĵèĤ²ç½ĳåĿĢ":2811,"tr":2812,"Ġç½ĳç«Ļ":2813,"erved":2814,"ä½ĵèĤ²åľ¨çº¿æĬķæ³¨":2815,"çĻ»åħ¥":2816,"ĠçĭĹä¸ĩåıĸæ¬¾":2817,"è§ĦåĪĻ":2818,"js":2819,"ä¹Ĳ|":2820,"ity":2821,"ä¸ĸçķĮæĿ¯":2822,"å®īåįĵçīĪ":2823,"Ġä¹Ĳæ©Ļ":2824,"ä¸°":2825,"åĪ©çİĩ":2826,"çĶµçİ©":2827,"æ´¥|":2828,"\");":2829,"Ġä½ĵèĤ²å½©ç¥¨365":2830,"å²Ń|":2831,"æī¹":2832,":14":2833,"è´´":2834,"æ¸¸æĪıä¸ĭè½½":2835,"åıĳçĶŁ":2836,"Ġæĺ¨å¤©20":2837,"ĠéļĨ":2838,":35":2839,"Ġåı¤":2840,":45":2841,":20":2842,":18":2843,"Ġå¤©ç©ºéĥ¨èĲ½":2844,"æĸ¹æ³ķ":2845,"ĠTIAN":2846,"Ġåĩ¯åıĳæĹĹèĪ°åİħæ³¨åĨĮ":2847,":12":2848,":15":2849,"æ¯į":2850,"ĠçĭĹä¸ĩä»£çĲĨ":2851,"ĠçĲ":2852,":28":2853,"æķ°æį®":2854,":01":2855,"ç«¹":2856,"ç»ĻåĬĽ":2857,"Ŀ|":2858,"Ġæ´Ľ":2859,"Ġä¸ŃåĽ½":2860,"();":2861,":26":2862,"Ġæģ":2863,"æĢİä¹Īçİ©":2864,"ç²¥":2865,":05":2866,"âĢĿï¼Į":2867,":50":2868,"é½Ĳ":2869,":25":2870,"ain":2871,"åºķ":2872,":16":2873,"Ġé¸":2874,"Ġä¸ĭ":2875,":38":2876,"åĽ¾çīĩ":2877,":59":2878,":55":2879,":11":2880,"æŃ¦":2881,":46":2882,":40":2883,"äººåĳĺ":2884,":31":2885,":04":2886,":24":2887,":06":2888,":19":2889,"æİ¨èįĲ":2890,"¯åºĹ":2891,":32":2892,"åĴ":2893,"è®¢":2894,"åħ»":2895,"èģĶèµĽ":2896,":17":2897,":34":2898,"èĤ¡ç¥¨|":2899,":58":2900,"å¾Ģ":2901,"å»ºè®¾":2902,"Ġk8å½©ç¥¨":2903,"å¤§åıĳå½©ç¥ŀ":2904,"Ġæĺ¨å¤©19":2905,":52":2906,"Ġbet365å®ĺç½ĳ":2907,":47":2908,"ĠAll":2909,":03":2910,"ä¸²":2911,":23":2912,"åĹ":2913,":39":2914,":02":2915,":36":2916,":44":2917,"å®īåİ¿|":2918,":41":2919,"Ġæ£":2920,"Ġæĺ¨å¤©04":2921,":27":2922,"æĶ»":2923,":53":2924,":51":2925,":42":2926,":22":2927,":21":2928,":29":2929,":33":2930,":57":2931,":49":2932,":09":2933,"Ċæ¾³éĹ¨":2934,"Ġk8å¨±ä¹ĲæīĭæľºçīĪå®¢æĪ·ç«¯":2935,":48":2936,":08":2937,"æ®µ":2938,"çļĦèĢģçīĮ":2939,":37":2940,"ĠæĢİ":2941,":43":2942,":07":2943,"ter":2944,"Ġäºº":2945,"åĦª":2946,":56":2947,"Ġby":2948,"ä¼ļåĳĺ":2949,":54":2950,"åĪĨå¿«ä¸ī":2951,"å°¼æĸ¯äºº":2952,"Ġçİ°éĩĳ":2953,"è½¦åĬłçĽŁ":2954,"ç»ĵæĿŁ":2955,"å¥¥":2956,"23":2957,"å®¶ä¹Ĳ":2958,"ä¹Ŀ":2959,"å¼ĢæĪ·ç½ĳåĿĢ":2960,"Ġç½ĳ":2961,"pl":2962,"ĠçĪ":2963,"æĹ¥æľ¬":2964,"ite":2965,"Ġæĺ¨å¤©17":2966,"ĊæĿ¥æºĲï¼ļ":2967,"å¸Ĥåľº":2968,"é¾ĻèĻİ":2969,"Ġè¾½":2970,"åħįè´¹è§Ĩé¢ĳ":2971,"ä»ģ|":2972,"ĠçĹ":2973,"Ġåĩ¯åıĳä¸ĭè½½":2974,"ĠèĴ":2975,"Ġå¸¸":2976,"http://":2977,"åĨ²":2978,"ĠåĮĹäº¬èµĽè½¦":2979,"pãĢĳãĢĲ":2980,"çĽ®åīį":2981,"æĹ§":2982,"Ġæĺ¨å¤©02":2983,"-24":2984,"éĺ¿":2985,"Ġæĺ¨å¤©05":2986,"2018":2987,"äºĮæīĭè½¦":2988,"æ´»åĬ¨":2989,"åĵĪå°Ķ":2990,"Ġæĺ¨å¤©14":2991,"åŃ©":2992,"Ġçİ¯äºļæ¸¸æĪı":2993,"éĽħ":2994,"åĪĨæİĴåĪĹ":2995,"Ġè¾¾":2996,"éĿłè°±åĲĹ":2997,"å®£":2998,"Ġçķ":2999,"çİ°éĩĳç½ĳ":3000,"èĴĻåı¤":3001,"Ġæĺ¨å¤©23":3002,"å°ļ":3003,"æİ¨èĸ¦":3004,"Ġal":3005,"æŀĦ":3006,"Ġæĺ¨å¤©11":3007,"åŁİåİ¿|":3008,"æ¼ıæ´ŀ":3009,"æīĺ":3010,"å®ĺç½ĳappä¸ĭè½½":3011,"éĤĢè¯·çłģ_":3012,"Ġæĺ¨å¤©10":3013,"æķħ":3014,"Ġæµİ":3015,"tãĢĳãĢĲ":3016,"-07":3017,"Ġæĺ¨å¤©01":3018,"æŃ¦|":3019,"çĥĪ":3020,"åįļå½©":3021,"è¿Ŀ":3022,"å®īåįĵçīĪä¸ĭè½½":3023,"çĲĥç½ĳ":3024,"åĮĹ|":3025,"Ķ|":3026,"Ġæĺ¨å¤©07":3027,"vip":3028,"2019å¹´":3029,"æīĭæľºçĻ»å½ķä¸ĭè½½":3030,"æĹ¶ï¼Į":3031,"åĿĩ":3032,"æ´ĭ":3033,"è¿Ľä¸įåİ»":3034,"html":3035,"Ġæĺ¨å¤©09":3036,"ŀå®¢":3037,"Ġæĺ¨å¤©16":3038,"Ġæĺ¨å¤©12":3039,"Ġå¤§åıĳå½©ç¥ŀ":3040,"ŀå®¢éĤ¦":3041,"å¸Į":3042,"Ġæĺ¨å¤©08":3043,"ĠåĪ©":3044,"ĠçĹŀå®¢éĤ¦":3045,"è§Ĩé¢ĳåľ¨çº¿è§Ĥçľĭ":3046,"ç¸":3047,"ver":3048,":{":3049,"å¹³åı°æ³¨åĨĮ":3050,"çĶŁæ´»":3051,"æľĹæĻ®":3052,"ä¸įæĺ¯":3053,"Ġæ°ĳ":3054,"ä¸¥":3055,"ç¯®":3056,"äºĳ|":3057,"çľŁäººæ¸¸æĪı":3058,"è²·":3059,"æľĢæĸ°ç½ĳåĿĢ":3060,"pt":3061,"our":3062,"Ġæĺ¨å¤©18":3063,"ba":3064,"Ġ365betå®ĺç½ĳå®ĺç½ĳ":3065,"ĠèĬ±":3066,"è¯ī":3067,"çĪ°":3068,"çĶ·":3069,"Ġå®£":3070,"Ġæĺ¨å¤©06":3071,"else":3072,"Ġä¸ĩåįļä½ĵèĤ²":3073,"éļı":3074,"Ġagçİ¯äºļçĶµæ¸¸":3075,"ĠåĲĮ":3076,"Ġæ·®":3077,"Ġèĩª":3078,"ä¸¹":3079,"ex":3080,"åİĭ":3081,"ç©¶":3082,"ä¸ĭè½½app":3083,"è¾Ĩ":3084,"ig":3085,"ĠæĬļ":3086,"åħįè´¹è§Ĩé¢ĳ_":3087,"å¢ĥ":3088,"åģļçĪ°":3089,"æ³½|":3090,"ĠçĭĹä¸ĩèµ¢éĴ±":3091,"Ġå¤§åıĳæŀģéĢŁ":3092,"Ġä¸Ģçº§":3093,"ç³»ç»Ł":3094,"å·²ç»ı":3095,"ile":3096,"40":3097,"ack":3098,"Ġu":3099,"æ£®":3100,"Ġè¡¡":3101,"Ġèĭı":3102,"éĤĳ|":3103,"åŁİå¸Ĥ":3104,"Ġåĩ¯åıĳæīĭæľºå¨±ä¹Ĳå®ĺç½ĳ":3105,"åģļçĪ°çīĩ":3106,"é»Ħçīĩ":3107,"Ġæĺ¨å¤©22":3108,"éĺ´|":3109,"Ġåĩ¯åıĳæ¸¸æĪıæīĭæľºçĻ»å½ķ":3110,"Ġæ»ļçĲĥ":3111,"æīĭæľºä¸ĭè½½":3112,"AåģļçĪ°çīĩ":3113,"åħįè´¹é»Ħçīĩ":3114,"Ġåĳ¼":3115,"Ġæĺ¨å¤©21":3116,"åħįè´¹è§Ĩé¢ĳ_åħįè´¹é»Ħçīĩ":3117,"åħįè´¹è§Ĩé¢ĳ_åħįè´¹é»Ħçīĩè§Ĩé¢ĳåľ¨çº¿è§Ĥçľĭ":3118,"AåģļçĪ°çīĩåħįè´¹è§Ĩé¢ĳ_åħįè´¹é»Ħçīĩè§Ĩé¢ĳåľ¨çº¿è§Ĥçľĭ":3119,"AåģļçĪ°çīĩåħįè´¹è§Ĩé¢ĳ_åħįè´¹é»Ħçīĩè§Ĩé¢ĳåľ¨çº¿è§Ĥçľĭ2019":3120,"çī¹æľĹæĻ®":3121,"Ċäººæ°ĳç½ĳ":3122,"Ġvisitor":3123,"Ċ[":3124,"åĵªäºĽ":3125,"äº®":3126,"èĤĥ":3127,"è¨Ĥ":3128,"Ġåĩ¯åıĳå½©ç¥¨appæīĭæľºçīĪä¸ĭè½½":3129,"äºļç¾İ":3130,"Ġç§ĳå°Ķæ²ģ":3131,"ç¤¾ä¼ļ":3132,"Ġä¸Ģçº§AåģļçĪ°çīĩåħįè´¹è§Ĩé¢ĳ_åħįè´¹é»Ħçīĩè§Ĩé¢ĳåľ¨çº¿è§Ĥçľĭ2019":3133,"nd":3134,":{},":3135,"3d":3136,"Ġåĩ¯åıĳçº¿ä¸Ĭæīĭæľºå®¢æĪ·ç«¯ä¸ĭè½½":3137,"Ġå¨±ä¹Ĳåĩ¯åıĳ":3138,"æľĥ":3139,"ĠçĶµçİ©åŁİ":3140,"ĠéĿĸ":3141,"Ġä¸º":3142,"æĻĤ":3143,"Ġç²":3144,"çŃĸ":3145,"æµ©çī¹":3146,"XC":3147,"æĸĩåĮĸ":3148,"Ġ2019-10":3149,"Ġåĩ¯åıĳçº¿ä¸ĬæīĭæľºçĻ»å½ķä¸ĭè½½":3150,"âĸ":3151,"æĦıæĢĿ":3152,"éĩįåºĨ":3153,"Ġæĺ¨å¤©03":3154,"Ġç´":3155,"å§Ĳ":3156,"Ġå¢":3157,"ĠæľĢæĸ°":3158,"Ġåľ¨çº¿":3159,"ä¸»é¡µ":3160,"å®ľ":3161,"åįĬ":3162,"å±Ĥ":3163,"-06":3164,"æīĭæľºappä¸ĭè½½":3165,"æĿĢ":3166,"Ġç¬":3167,"Ġä¼ļ":3168,"ãĢĳãĢĲpãĢĳãĢĲ":3169,"Blog":3170,"Ġç§ĴéĢŁ":3171,"èĥİ":3172,"Ġ2020-01":3173,"betx":3174,"LC":3175,"ĠèģĶ":3176,"Ġéĥ½":3177,"Ġå¤§åıĳå½©ç¥¨":3178,"è´Ł":3179,"é¥®":3180,"Ġéĵ¶":3181,"Ċ1":3182,"æľĢæĸ°çĻ»å½ķåľ°åĿĢ":3183,"å¸ģ":3184,"Ġ365ä½ĵèĤ²æĬķæ³¨å®ĺç½ĳ":3185,"éķ¿é¾Ļ":3186,"ĠéŁ":3187,"å±ħ":3188,"Ġç®¡":3189,"sc":3190,"comBlog":3191,"å¤§å¸Ī":3192,"å¨±ä¹ĲåŁİ":3193,"Ġå¤§åıĳä¸Ģ":3194,"å¹³åı°å®ĺç½ĳ":3195,"çĹħ":3196,"åħ³ç³»":3197,"æĭħ":3198,"æŃ£çīĪ":3199,"åĵį":3200,"Ġèħ¾è®¯":3201,"tt":3202,"Ġï¿½ï¿½":3203,"åħįè´¹ä¸ĭè½½":3204,"çºª":3205,"åĭĻ":3206,"Ġåĩ¯åıĳag":3207,"æĽ¾":3208,"æļ´":3209,"å¥¹":3210,"å¤§åıĳå¿«3":3211,"Ċä¸Ń":3212,"å¤ļä¸ĢçĤ¹":3213,"å¨±ä¹Ĳå®ĺæĸ¹ç½ĳç«Ļ":3214,"äºĴ":3215,"Ġagäºļæ´²æ¸¸æĪı":3216,"çıŃ":3217,"Ġåĩ¯åıĳappå®ĺæĸ¹ä¸ĭè½½":3218,"åŃĺæ¬¾":3219,"Ġåĩ¯åıĳappæĢİä¹Īä¸ĭè½½":3220,"fo":3221,"éľĢè¦ģ":3222,"å½¢":3223,"æ¼Ķ":3224,"çĭĤ":3225,"38":3226,"Ġæĺ¨å¤©00":3227,"Ġon":3228,"Ġéĵģ":3229,"åıĪ":3230,"Ġæĺ¨å¤©15":3231,"ĸ|":3232,"ĠéĶ":3233,"ine":3234,"Ġåħĭ":3235,"å½ĵåľ°":3236,"Ġåĩ¯åıĳæīĭæľºå®ĺæĸ¹å®¢æĪ·ç«¯ä¸ĭè½½":3237,"æ¢Ŀ":3238,"æĿĲ":3239,"æĺ¥|":3240,"é¬¼":3241,"æ¬§æ´²":3242,"çıł":3243,"è±Ĩ":3244,"ĠæĢİä¹Ī":3245,"Ġåĩ¯åıĳå®ĺç½ĳæīĭæľºçīĪappä¸ĭè½½":3246,"çīĽçīĽ":3247,"èĭ¹æŀľçīĪä¸ĭè½½":3248,"Ġå®ĺ":3249,"è¾ĳ":3250,"å¥½å½©":3251,"ä¸ĺ|":3252,"å«":3253,"29":3254,"ab":3255,"Ġåĩ¯åıĳæīĭæľºçīĪå®ĺç½ĳ":3256,"åº·|":3257,"å®¢æľįçĶµè¯Ŀ":3258,"\")":3259,"æŀģ":3260,"Ġæ·±":3261,"å¤ľ":3262,"éĶĻ":3263,"ï¼Įä¸Ģ":3264,"åħ³|":3265,"ç»į":3266,"365ä½ĵèĤ²":3267,"èµĶ":3268,"æķĻèĤ²":3269,"ong":3270,"æĸ¼":3271,"é£¯åºĹ":3272,"æľĢä½³":3273,"2017":3274,"ĠÂ·":3275,"Ġçĥ":3276,"æŀ¶":3277,"ç½ĳæĬķå¹³åı°":3278,"ç§»":3279,"Ġ});":3280,"Ġè§":3281,"çĶ¸|":3282,"ĠéĴ":3283,"art":3284,"åĦªæĥł":3285,"éĵ¶è¡Į":3286,"Ċ2016":3287,"è°Ī":3288,"åĢĻ":3289,"åĲ¦":3290,"çĶµåŃĲæ¸¸æĪı":3291,"èĮĥ":3292,"å¾ħ":3293,"ĠéĩįåºĨ":3294,"è¿Ķ":3295,"Ġ]":3296,"é¾Ļæ±Ł":3297,"Ċæĸ°åįİç½ĳ":3298,"æ¸¸æĪıç½ĳåĿĢ":3299,"å©ļ":3300,"ĠçīĪæĿĥ":3301,"ĠåĽ¾":3302,"ãĢĤâĢľ":3303,"äº²":3304,"Ġæ¾³éĹ¨å¹³åı°":3305,"Ċ2018-0":3306,"åĽĽåħŃ":3307,"çĶĺ":3308,"é¡º|":3309,"80":3310,"Ł|":3311,"åŃĲ|":3312,"åĮħåŃĲ":3313,"æľīåĵªäºĽ":3314,"low":3315,"Ġæ¹ĺ":3316,"éĺħè¯»":3317,"Ġäºļæ¸¸éĽĨåĽ¢å®ĺç½ĳ":3318,"Ġç¬¬":3319,"çĽĬ":3320,"¥Ħ":3321,"ï¼Įä¸į":3322,"ãĢĳãĢĲtãĢĳãĢĲ":3323,"æĭĽåķĨ":3324,"ra":3325,"ĊæĹ¶éĹ´ï¼ļ":3326,"ĠæŃ£è§Ħ":3327,"omment":3328,"åħ¨åĽ½":3329,"Re":3330,"èµļéĴ±":3331,"ç£":3332,"åģľ":3333,"å®ĺæĸ¹ç½ĳåĿĢ":3334,"èŃ¦æĸ¹":3335,"ä¸»å¸Ń":3336,"éĽĨåĽ¢å®ĺç½ĳ":3337,"Ġåĳ¨":3338,"éĵ¶æ²³":3339,"æĸ¹å¼ı":3340,"åıªä¸º":3341,"abo":3342,"æ©Łè»Ĭ":3343,"åĬ¾":3344,"Ċå¤©":3345,"Ġ356betå®ĺç½ĳ":3346,"ç§¯":3347,"ç·":3348,"Ġå¤ĸåĽ´365":3349,"ä½¿çĶ¨":3350,"è¿Ľåħ¥":3351,"ä»ĭç»į":3352,"Ġï¼Į":3353,"æŃĮ":3354,"æĬĢæľ¯":3355,"lis":3356,"bet356":3357,"åīįæĹĹ|":3358,"æĬķèµĦ":3359,"çĸĳ":3360,"è´«":3361,"wi":3362,"ĠéĹ¨":3363,"é¦Ļ":3364,"åħ¨å¤©":3365,"åħµ":3366,"¾Ħ":3367,"æ½Ń":3368,"èĶ":3369,"¹åŃĲ":3370,"ĠCh":3371,"Ġåĩ¯åıĳappå®ĺæĸ¹ç½ĳç«Ļ":3372,"ĠæŁ":3373,"æĽ´æĸ°":3374,"ist":3375,"æĿ¥ï¼Į":3376,"og":3377,"èİ±":3378,"ä¸½":3379,"Ġåº·":3380,"å³°|":3381,"ãĥ»":3382,"ĠåĪ©æĿ¥åĽ½éĻħ":3383,"Ċ2":3384,"åľ¨åĵª":3385,"Ġå³":3386,"666":3387,"å®¿":3388,"å®«":3389,"Ċ2020-02-2":3390,"YX":3391,"Ġåĩ¯åıĳä½ĵèĤ²å®ĺç½ĳä¸ĭè½½":3392,"Ġåįģ":3393,"å¼¹åĬ¾":3394,"æĹıèĩªæ²»":3395,"-29":3396,"ç¯®çĲĥ":3397,"åĪĨå¿«ä¹Ĳ":3398,"Ġå¿ħ":3399,"æ»¡":3400,"ç»ĵç®Ĺ":3401,"ĠåĶ":3402,"çľŁåģĩ":3403,"04":3404,"èĢģèĻİ":3405,"æ±Łåİ¿|":3406,"çĻ¾å®¶å®¶ä¹Ĳ":3407,"è®¡åĪĴ_":3408,"ont":3409,"ĠçĭĹä¸ĩåıĸçİ°":3410,"éĴ¢":3411,"Ġ365è¶³çĲĥ":3412,"ï¼ĮæĪĳ":3413,"åĵ¥":3414,"Ġï¿½éİıçĦ¯":3415,"Ġbet365ä½ĵèĤ²æĬķæ³¨":3416,"è¥¿èĹı":3417,"æĢ¥":3418,"Ċæµ·":3419,"èµĦè®¯":3420,"ZS":3421,"é¼":3422,"ç´ł":3423,"è°ĥæŁ¥":3424,"Ċæ±Ł":3425,"äº§åĵģ":3426,"äºĳåįĹ":3427,"100":3428,"Ġæ³¸":3429,"Ġ2020-02":3430,"ĠçĶµåŃĲæ¸¸æĪı":3431,"çĽĽ":3432,"éĢģå½©éĩĳ":3433,"è°ģ":3434,"-25":3435,"ç½ª":3436,"ome":3437,"æĭīçī¹":3438,"æĽ¸":3439,"çªģ":3440,"åªĴä½ĵ":3441,"Ġ365ä½ĵèĤ²å½©ç¥¨":3442,"atus":3443,"ĠÐ":3444,"ĠçľŁäººèµĮéĴ±":3445,"-08":3446,"Ġèĳ":3447,"ç½ĳ_":3448,"ãĤ":3449,"ĠåĪ©æĿ¥åĽ½":3450,"åĩ°":3451,"å¼Ģå¥ĸè®°å½ķ":3452,"åŃ¦éĻ¢":3453,"PK":3454,"åĪĺ":3455,"Ġæ¨":3456,"Ģ|":3457,"Ġç¹":3458,"ĠRes":3459,"ĠæĻĭ":3460,"è´´åĲ§":3461,"ç«ŀçĮľ":3462,"ĊÂ·":3463,"èĳ¡äº¬":3464,"ob":3465,"Ġå¦Ĥä½ķ":3466,"eãĢĳãĢĲ":3467,"æĥħåĨµ":3468,"èģĶç³»":3469,"çī¹é©¬":3470,"Ġam8":3471,"Ġåĩ¯åıĳæľĢæĸ°æīĭæľºçĻ»éĻĨ":3472,"urn":3473,"åħ¬å¼Ģ":3474,"åħ¶ä»ĸ":3475,"å¿«éĢŁ":3476,"Ġæ¬¡":3477,"Ġ$(\"#":3478,".com/":3479,"æľŁæľŁ":3480,"ĊæĹ©çĤ¹":3481,"çļĦä¸Ģ":3482,"å®ģåİ¿|":3483,"Ġat":3484,"ï¼ļâĢľ":3485,"20æĹ¥":3486,"ĠçīĪæĿĥæīĢæľī":3487,"æ´¾":3488,"Ġ24":3489,"ass":3490,"å¿«é¤Ĳ":3491,"èº«ä»½":3492,"èĲ¨":3493,"ä¸ĭæ³¨":3494,"Ġæ£ĭçīĮ":3495,"éļĨ|":3496,"Ġåĩ¯åıĳå®ĺæĸ¹æīĭæľºçīĪ":3497,"Ġagè§Ĩè®¯":3498,"éĤ®ä»¶":3499,"ĠĠ":3500,"åħŃåĲĪ":3501,"ä¸¾æĬ¥":3502,"ç§ĳæĬĢ":3503,"Ġå½©ç¥ŀäºīéľ¸8":3504,"Ġï¿½ï¿½ï¿½ï¿½":3505,"çĻ¾åº¦":3506,"ä¸ĩåįļapp":3507,"æĶ¯æĮģ":3508,"Ġå¨±ä¹Ĳåĩ¯åıĳappä¸ĭè½½":3509,"¶|":3510,"åĪĨéĴŁpk10":3511,"åĿĳ":3512,"Ġå¹´":3513,"-26":3514,"æĺİ|":3515,"ĊåĮĹäº¬":3516,"ç»´æĬ¤":3517,"å±±å¸Ĥ|":3518,"Ġè·":3519,"ĠSt":3520,"ĠäºļæĲıå¨±ä¹Ĳ":3521,"åįķåıĮï¼ļå½©ç¥ŀ":3522,"åĹİ":3523,"çĶŁèĤĸ":3524,"manbetx":3525,"Ċåıĳå¸ĥ":3526,"60":3527,"ãĦ":3528,"Ġç®¡å®¶å©Ĩ":3529,"Ġå¤§åıĳäºĶ":3530,"éĢı":3531,"ç»Ī":3532,"Ġåĩ¯åıĳæīĭæľºå®¢æĪ·ç«¯ä¸ĭè½½":3533,"æĹ©çĤ¹åĬłçĽŁåºĹ":3534,"Ġä½ľèĢħï¼ļ":3535,"éĻĦ":3536,"Ġå²³":3537,"Ġå¥½è¿Ĳ":3538,"Ġå¼łå®¶":3539,"çĻ»å½ķä¸ĭè½½":3540,"pp":3541,"åī¯":3542,"å®³":3543,"Ġagæīĭæľº":3544,"Ġæ¾³":3545,"ç»Ŀ":3546,"ĠæĹ©çĤ¹å°ıåĲĥ":3547,"åįģåĪĨ":3548,"å®īåħ¨åĲĹ":3549,"qu":3550,"ä¼¤":3551,"æĢİä¹Īçľĭ":3552,"ĠçĪ±":3553,"ĠåĽº":3554,"Ċç¬¬":3555,"è³ĩ":3556,"70":3557,"è¾ĵéĴ±":3558,"å¡ŀ":3559,"ĠâĨĴ":3560,"åĽ½éĻħå¹³åı°":3561,"Ļæ±Ł":3562,"Ġif(":3563,"ä¸Ńå¤®":3564,"éģĬ":3565,"çŃĶ":3566,"Ġåĩ¯åıĳçĽ´æĴŃ":3567,"æī§":3568,"åĶ¯":3569,"ä¸ºä»Ģä¹Ī":3570,"ĠéħĴ":3571,"ĠçĭĹä¸ĩapp":3572,"æ±½è½¦":3573,"éĿ©":3574,":2,":3575,".t":3576,"åĵªå®¶":3577,"ãĢĤåľ¨":3578,"ç³»åĪĹ":3579,"Ġæĸ°éĹ»":3580,"ĊâĢ":3581,"Ġ<":3582,"ĠèģĶç³»":3583,"ãĢĤæį®":3584,"æ¶Īæģ¯":3585,"Ġéľį":3586,"å¾ģ":3587,"ax":3588,"æŃ¢":3589,"ç²¾åĩĨ":3590,"èģĶåĲĪ":3591,"å·¥ç¨ĭåĬłçĽŁ":3592,"Ġé¹¤":3593,"æĹ¶éĹ´:":3594,"2016":3595,"åı³æĹĹ|":3596,"ĠçĤ¹":3597,"ĊÂ":3598,"è¯ķçİ©":3599,"èµŀ":3600,"res":3601,"æĤ¨çļĦå½ĵåīįä½įç½®ï¼ļ":3602,"ess":3603,"Ġåĩ¯åıĳæľĢæĸ°çĻ»å½ķç½ĳç«Ļ":3604,"Ġåħ°":3605,"-01":3606,"åģ¥åº·":3607,"Ġäºļç¾İag":3608,"æĬķæ³¨å¹³åı°":3609,"åĸľ":3610,"éĵº":3611,"ä»·æł¼":3612,"IN":3613,"ime":3614,"ĠäºļæĲıä½ĵèĤ²":3615,"Ġï¼Ī":3616,"çļĦâĢľ":3617,"äºŃ|":3618,"6åĲĪ":3619,"Ċ3":3620,"æŁ¥è¯¢":3621,"Ġ1åĪĨå¿«3":3622,"Ġë":3623,"çļ®":3624,"ĠIn":3625,"Ġæįķé±¼":3626,"èĪ¹":3627,"ä¹ī|":3628,"Ċ2020-04-0":3629,"ä¸ĥ":3630,"ï¼ĮâĢľ":3631,"éĻį":3632,"ç§ĺ":3633,"æĢ»ä»£":3634,"§ï½":3635,"Ġam8äºļç¾İ":3636,"è·Ł":3637,"éĩįè¦ģ":3638,"åĪ©|":3639,"å¹¿æĴŃ":3640,"æĽ²|":3641,"æ¢Ŀä»¶":3642,"Ġbet365ä½ĵèĤ²åľ¨çº¿":3643,"åĲ¬":3644,"Ġåĩ¯åıĳå®ĺç½ĳä¸ĭè½½":3645,"Ġåĭ":3646,"Ġèİ±":3647,"¥|":3648,"05":3649,"HN":3650,"çĤ¸":3651,"Ġå¡":3652,"åĭķ":3653,"Ġæ¦":3654,"Ġçĳ":3655,"ĠåİŁ":3656,"Ġdet365":3657,"0,":3658,"éģĹæ¼ı":3659,"æ³°":3660,"èľ":3661,"ä¸ĵä¸ļ":3662,"æµ¦|":3663,"status":3664,"this":3665,"ach":3666,"Ġæµ¦":3667,"çĪĨ":3668,"è®²":3669,"è¾¹|":3670,"æľĢå¿«":3671,"éĶ®":3672,"Ċå½ĵåīįä½įç½®ï¼ļ":3673,"åĵĪå°Ķåı³ç¿¼":3674,"è©ķ":3675,"åĢĭ":3676,"çĽ´èĲ¥":3677,"æĭ¿":3678,"ç¦ģ":3679,"Ġå¯ŁåĵĪå°Ķåı³ç¿¼":3680,"çłĶç©¶":3681,"Ġæĺ¥":3682,"-30":3683,"è¾¾|":3684,"data":3685,"k8å®¢æĪ·ç«¯ä¸ĭè½½":3686,"ä¼¼":3687,"å·¦ç¿¼":3688,"Ġ2020-03":3689,"Ċ2018":3690,"å¼ıæĹ©é¤ĲåĬłçĽŁ":3691,"æĺ¾ç¤º":3692,"ĠåĽ½éĻħåĪ©æĿ¥":3693,"pc":3694,"è´¥":3695,"ĠæıĲçİ°":3696,"å¿µ":3697,"Ġbet365è¶³çĲĥ":3698,"48":3699,"Ġæīİ":3700,"ayou":3701,"Ġåĵģ":3702,"çļĦç½ĳåĿĢ":3703,"çļĦäºº":3704,"Ġèĥ":3705,"ER":3706,"éĶĽ":3707,"åĪ¤":3708,"iO":3709,"èĦ±":3710,"Ġåĩ¯åıĳçº¿ä¸Ĭå¼ĢæĪ·":3711,"æĺ¯åĵªä¸ª":3712,"éį":3713,"éĢīäºĶ":3714,"åĪĨé£ŀèīĩ":3715,"min":3716,"ak":3717,"how":3718,"æĻ®äº¬":3719,"Ċ2016:":3720,"Ġx":3721,"åĲİæĹĹ|":3722,"ç²¾éĢī":3723,"å¤©åīį":3724,"īåİ¿|":3725,"Ġè±":3726,"Ġ2019å¹´":3727,"45":3728,"åįĸ":3729,"ĠæŁ³":3730,"Ġåħ«":3731,"Ĉą":3732,"666k8å®¢æĪ·ç«¯ä¸ĭè½½":3733,"Ġåĩ¯åıĳçº¿ä¸Ĭå¹³åı°":3734,"è±¹åŃĲ":3735,"Ġåĩ¯åıĳ666k8å®¢æĪ·ç«¯ä¸ĭè½½":3736,"åı·çłģ":3737,"å½©äºīéľ¸":3738,"Ġ2019-12":3739,"è´¸":3740,"åĽ°":3741,"Ġåı¯":3742,"Ġæ¸©":3743,"è°·|":3744,"Ġçİĭä¸Ńçİĭ":3745,"Ġäºļåįļ":3746,"hone":3747,"é¬¼éħĴ":3748,"éĥ½å¸Ĥ":3749,"éħĴé¬¼éħĴ":3750,"ç»ĻåĬĽçļĦèĢģçīĮ":3751,"Ġåĩ¯åıĳç½ĳå¨±ä¹Ĳå®ĺç½ĳ":3752,"ķè¥¿":3753,"ä¸´":3754,"éĥ¨åĪĨ":3755,"äº¤æµģç¾¤":3756,"Ċå¹¿":3757,"ĠåħŃåĲĪ":3758,"Ġå§":3759,"ĠâĢº":3760,"éŃ":3761,"åĶ¯ä¸Ģ":3762,"è·ĳ":3763,"æ¯ĶåĪĨçĽ´æĴŃ":3764,"çīĪæľ¬":3765,"åıĳè¡¨":3766,"Ġåĩ¯åıĳç½ĳå¨±ä¹Ĳå®ĺç½ĳå®ĺç½ĳçĻ»å½ķ":3767,"ĠåĶĲ":3768,"èİ«":3769,"æĪĲåĬŁ":3770,"ĠåĵĪ":3771,"éĩĳèĬ±":3772,"å¤ļå°ĳéĴ±":3773,"33":3774,"è¡Įä¸ļ":3775,"10æľĪ":3776,"æĶ¶ä¸įåĪ°":3777,"val":3778,"åįģä¸Ģ":3779,"Ċ2020-01":3780,"ud":3781,"iãĢĳãĢĲ":3782,"Info":3783,"çĬ¯":3784,"éĥ¨éĹ¨":3785,"ĠéģĤ":3786,"Ġåĵª":3787,"å½Ĵ":3788,"åĽĽå·Ŀ":3789,"çİĭä¸Ńçİĭ":3790,"Ġéĺ¿æĭī":3791,"é»ĺ":3792,"éĩĮ|":3793,"**":3794,"Ġçİ©":3795,"åĮĹæĹ©é¤ĲåĬłçĽŁ":3796,"æ¶ī":3797,"Ŀç¦»":3798,"01":3799,"ĠThe":3800,"Ġæ¾³éĹ¨æ£ĭçīĮ":3801,"æħ¢":3802,"ï¼Įä¹Ł":3803,"ink":3804,"are":3805,"Ġ)":3806,"çĽĴ":3807,"å¹ķ":3808,"åı¯éĿłåĲĹ":3809,"Ġé£":3810,"æīĭæľºçīĪapp":3811,"ä»Ĭå¤©":3812,"è¾ĥ":3813,"Ġç¿":3814,"çļĦç½ĳç«Ļ":3815,"ä»Ĭå¹´":3816,"Ġå¤§åıĳä¸ī":3817,"Ġå¤§åıĳäºĮ":3818,"è¿Ļä¸ª":3819,"åº§":3820,"¯çĭĤ":3821,"è¡£":3822,"Ċ4":3823,"Ġåįļå½©":3824,"Ġçĳŀ":3825,"ĠåĮħ":3826,"Ġåħį":3827,"ith":3828,"Ġäºļç¾İagæĹĹèĪ°åİħ":3829,"åħ¬å¼ı":3830,"åĪĿ":3831,"Ġpub":3832,"ä¼Ł":3833,"è®¤ä¸º":3834,"Ġyayou":3835,"Ġåĩ¯åıĳä½ĵèĤ²appå®ĺç½ĳ":3836,"æľĿ":3837,"ard":3838,"æĹ¥åįļ":3839,"å½©ç¥ŀäºīéľ¸8":3840,"Ġæ´ª":3841,"æī¿":3842,"æ¬¢è¿İæĤ¨":3843,"Ġåģ¥åº·":3844,"ĠèĵĿ":3845,"Ġå½Ń":3846,"Ġå®īåįĵ":3847,"è½®":3848,"ert":3849,"Ġéĺħè¯»":3850,"all":3851,"å¤©å¤©å¥½å½©":3852,"Ġé¦ĸé¡µ":3853,"Õ¡":3854,"æ¨Ļ":3855,"Ġ==":3856,"-05":3857,"rom":3858,"éļĨ":3859,"çŁ¥éģĵ":3860,"ollow":3861,"æ·±åľ³":3862,"æĲıå¤©åłĤ":3863,"çĩķ":3864,"æĵį":3865,"Ġåĩ¯åıĳç½ĳåĿĢå¨±ä¹Ĳ":3866,"ĠæĿŃ":3867,"åįĹåİ¿|":3868,"Ġçİ°éĩĳç½ĳ":3869,"Ġå¢¨":3870,"rk":3871,"Ġ365ä½ĵèĤ²æĬķæ³¨è¶³çĲĥ":3872,"çĻ¼è¡¨":3873,"ace":3874,"Ġè¥Ħ":3875,"çľ¼":3876,"Ġéº»":3877,"æłĩåĩĨ":3878,"Ġæµıè§Ī":3879,"åŃ£":3880,"ï¼Įä»ĸ":3881,"åħ¬éĩĮ":3882,"Ġä¸ĭä¸Ģç¯ĩï¼ļ":3883,"åĲī|":3884,"ĠçĶ³":3885,"ĠçľŁäººçĻ¾å®¶ä¹Ĳ":3886,"aW":3887,"Ġ5åĪĨå¿«3":3888,"Ġbtt":3889,"éĿĴæµ·":3890,"æĩ":3891,"Ġåī":3892,"æ¡ĥ":3893,"hb":3894,"çŁŃ":3895,"APPä¸ĭè½½":3896,"ï»¿ï»¿":3897,"Ġæĳ":3898,"å¼Ģå¥ĸçİ°åľº":3899,"Ċä¸ľ":3900,"åĪĩ":3901,"Ġå½©ç¥¨":3902,"Ĳ|":3903,"Ġåŀ":3904,"Ġèµ¤":3905,"éĸĭ":3906,"éģŃ":3907,"rou":3908,"ä¸Ĭæµ·":3909,"éĽ¨":3910,"ĠæľĽ":3911,"åľĴ":3912,"ĊæĤ¨":3913,"ç¤¼":3914,"åī§":3915,"åĿļ":3916,"æĹ§çīĪ":3917,"¤|":3918,"port":3919,"å§Ķåĳĺ":3920,"Ĥ|":3921,"ä¹°çĲĥ":3922,"ä¹¦è®°":3923,"Ġæ¾³éĹ¨ç½ĳä¸Ĭ":3924,"ĠåŁİ":3925,"åĿĿ|":3926,"Ġ2015":3927,"è®¾è®¡":3928,"ĠæĿ¨":3929,"åıĳçİ°":3930,"åıĸæ¬¾":3931,"Ġå±ı":3932,"ill":3933,"è¯¯":3934,"è¼ĥ":3935,"-27":3936,"è±¡":3937,"æĸŃ":3938,"Ġç¼":3939,"Ġç¤":3940,"ĠçĤ¹åĩ»":3941,"Ċ2019-09":3942,"åĲĪæ³ķåĲĹ":3943,"Ġèĭ±åĽ½":3944,"Ġçĵ":3945,"Ġæ¼³":3946,"å®ģå¤ı":3947,"Ċé¦Ļæ¸¯":3948,"è²»":3949,"Ġå¿«3":3950,"çļĦãĢĳãĢĲ":3951,"łèıľ":3952,"æīĵå¼Ģ":3953,"ĠæĿİ":3954,"çİĦ":3955,"Ġåĩ¯åıĳéĽĨåĽ¢":3956,"¼åĲĪ":3957,"ç¨İ":3958,"èĥĮ":3959,"ãĢĳãĢĲeãĢĳãĢĲ":3960,"ç§ĴéĢŁ":3961,"ä¼´":3962,"Ġæº":3963,"©|":3964,"å½©ç¥¨å¹³åı°":3965,"ews":3966,"ï¼Įæĺ¯":3967,"èĵĿ":3968,"æĭ¾":3969,"ĠèģĶç³»æĪĳä»¬":3970,"è´Ŀ":3971,"åı¯èĥ½":3972,"Ġ356betè¶³çĲĥ":3973,"-28":3974,"Ġ365betå®ĺç½ĳè¶³çĲĥ":3975,"98":3976,"ice":3977,"Ġç¥ģ":3978,"3D":3979,"ĵ|":3980,"iv":3981,"å¥½è¿Ĳ":3982,"Ġhttp://":3983,"åĽ½éĻħå®ĺç½ĳ":3984,"å¹³åı°ç½ĳåĿĢ":3985,"Ġäº¤":3986,"ï¼Įä»¥":3987,"ĊT":3988,"åĨĻ":3989,"ãĢĳãĢĲçļĦãĢĳãĢĲ":3990,"ĠRight":3991,"ĠéĤµ":3992,"åĤµ":3993,"Ġ365betå®ĺç½ĳä½ĵèĤ²":3994,"ood":3995,"ç¨³å®ļ":3996,"å·ŀæĸ°éĹ»ç½ĳ":3997,"åĪĨäº«":3998,"é«":3999,"âĢĶâĢĶ":4000,"åı£è¯Ģ":4001,"å¤§æĪĺ":4002,"ï¼ĮèĢĮ":4003,"ĠçĭĹä¸ĩä½ĵèĤ²":4004,"ĠâĢ¢":4005,"Ġæĺİ":4006,"æ¯Ľ":4007,"Ġè¯Ħè®º(":4008,"èµĶçİĩ":4009,"ck":4010,"ĠäºĮåĽĽåħŃ":4011,"éļľ":4012,"æĭį":4013,"çģ¯":4014,"å¤§åĪ©":4015,"æľīä»Ģä¹Ī":4016,"Ġç²¾":4017,"Ġæ¢ħ":4018,"Ġç«ĭ":4019,"å°ıé¡įåĢŁæ¬¾":4020,"åĿĬ":4021,"ç»ĩ":4022,"äº¡":4023,"æĿ¾":4024,"çŃ¾ï¼ļ":4025,"æ³°|":4026,"æ¥ļ":4027,"Ġçľ":4028,"ç»§":4029,"å¼Ģå§ĭ":4030,"Ġåĩ¯åıĳä½ĵèĤ²appæīĭæľº":4031,"ĠåĵģçīĮ":4032,"å®ĥ":4033,"åĪĨéĴŁæĹ¶æĹ¶å½©":4034,"turn":4035,"Ġä»ģ":4036,"Ġä¹Įæĭīçī¹":4037,"Ġç¶":4038,"Ġres":4039,"æľĢå¤§":4040,"åŃ¦çĶŁ":4041,"ä»¤":4042,"æŃ£åľ¨":4043,"å¯¿|":4044,"hm":4045,"çĢ":4046,"ï¿½ï¿½ï¿½ï¿½ï¿½":4047,"å®Ŀåħ¸":4048,"éĥ½å¸ĤæĬ¥":4049,"åĮ»éĻ¢":4050,".8ä¸ĩ":4051,"Ġé¢Ŀ":4052,"Ġå®¿":4053,"Ċ2017:":4054,"Ġå±±ä¸ľ":4055,"Ġåĩ¯æĹ¶AG":4056,"Ġ365betè¶³çĲĥ":4057,"Ċæ²³":4058,"Ġå½ĵ":4059,"ĠåĪĨåĪĨå½©":4060,"Ċâ":4061,"åºŃ":4062,"ä¸įåĥı":4063,"åĮºæĸ°éĹ»ç½ĳ":4064,"Ġçĸ":4065,"èµĮåŁİ":4066,"Ġç±³":4067,"ĠåĸĢ":4068,"åĩ¤åĩ°":4069,"Ġåĩ¯åıĳåľ¨çº¿çĻ»å½ķä¸ĭè½½":4070,"Ġlof":4071,"Ġ365ä½ĵèĤ²æĬķæ³¨ä½ĵèĤ²":4072,"Ġ365betä½ĵèĤ²":4073,"æ¡¥|":4074,"iz":4075,"Ġæĺ¥åħī":4076,"åŁ¹è®ŃåĬłçĽŁ":4077,"å±ı":4078,"-100,":4079,"é©¬|":4080,"rk:":4081,"rk:-100,":4082,"status:'":4083,"Info:{},":4084,"ä¼Ĭ":4085,"æĪ¿è²¸":4086,"åįİç¤¾":4087,"ĠéĽĦ":4088,"resp":4089,"OT":4090,"åħ³äºİ":4091,"Ġ3åĪĨå¿«3":4092,"æĽ´å¤ļ":4093,"é¡¶":4094,"åħ¨çĲĥ":4095,"ord":4096,"Ġä½Ľ":4097,"3.0":4098,"è¿½":4099,"æľĢä½İ":4100,"éĶ¦":4101,"365æ£ĭçīĮæ¸¸æĪı":4102,"éĽ·":4103,"ä¸Ńçī¹":4104,"ĠRights":4105,"ç¹§ï½":4106,"ĠåĪ©æĿ¥èĢģçīĮ":4107,"500":4108,"Ġ_":4109,"Im":4110,"ial":4111,"ãĢĤè¿Ļ":4112,"Ġ365betå®ĺç½ĳä½ĵèĤ²åľ¨çº¿":4113,"Ġåħ³":4114,"HQ":4115,"èĭ±åĽ½":4116,"ĠçĭĹä¸ĩ(":4117,"ä¸ĭè½½åľ°åĿĢ":4118,"90":4119,"Ġæ¡Ĥ":4120,"æ¶Īè´¹":4121,"äººçļĦ":4122,"Ġçİ¯äºļå®ĺç½ĳ":4123,"Ġç½ĳç»ľ":4124,"LCJ":4125,"åºı":4126,"ĠåºĨ":4127,"ng":4128,"äºĨä¸Ģ":4129,"ä¸ĢçĽ´":4130,"her":4131,"ĠæĬķ":4132,"Ġå¾Ĳ":4133,"ä»¥ä¸Ĭ":4134,"ant":4135,"å²Ń":4136,"ĠæŁ¥":4137,"éłģ":4138,"av":4139,"Ġæ½®":4140,"å«Į":4141,"any":4142,"Count:0,":4143,"ument":4144,"çľģ|":4145,"æµĨ":4146,"åħ¬å®ī":4147,"ä»ĬæĹ¥":4148,"RecomBlog":4149,"26":4150,"åł´":4151,"ĠãĢĤ":4152,"ĠåľŁ":4153,"Ġåı°åĮĹ":4154,"Ġäºļæ¸¸æ¸¸æĪı":4155,"è¯Ĩ":4156,"UU":4157,"ãĢĤï¼Ī":4158,"£|":4159,"å°ıå§Ĳ":4160,"åĨħå®¹":4161,"){":4162,"ĠèĤĩ":4163,"æĲľç´¢":4164,"CB":4165,"Us":4166,".get":4167,"æĹ¶æĬ¥":4168,"å£°æĺİ":4169,"Ġåĩ¯åıĳAGæĹĹèĪ°åİħ":4170,"éĽĨ|":4171,"-31":4172,"19æĹ¥":4173,"oãĢĳãĢĲ":4174,"è®®éĻ¢":4175,"æĶ¿æ²»":4176,"ie":4177,"Ġåħ¶":4178,"ĠåĢ":4179,"ãģ":4180,"åĵªå®¶å¥½":4181,"aãĢĳãĢĲ":4182,"Ċ2019å¹´":4183,"Ġé«ĺéĽĦ":4184,"Ġäºļæ¸¸å®ĺæĸ¹":4185,"æĦ¿":4186,"æ³¨åĨĮç½ĳç«Ļ":4187,"ai":4188,"çı¾":4189,"Ġé¡º":4190,"78":4191,"æŀª":4192,"').":4193,"Ġï¼":4194,"ĊâĢ¢":4195,"omp":4196,"ĠåĴ":4197,"åħ³éĶ®":4198,"Ġé¥":4199,"è§Ĵ":4200,"åĪ¸":4201,"çĬ¶":4202,"çĶµèĦĳçīĪ":4203,"Ġæīĺ":4204,"ç»Ĩ":4205,"Ġåĩ¯åıĳagæĹĹèĪ°åİħæīĭæľºå®¢æĪ·ç«¯":4206,"åĳ¼":4207,"æĶ»çķ¥":4208,"è´µå·ŀ":4209,"å°½":4210,"10åĪĨ":4211,"ĠåŃ¦":4212,"Ġæ¡ĥ":4213,"ĠçŃ":4214,"ĠçĻ¾å®¶ä¹ĲçľŁäºº":4215,"ĠèĲ¥":4216,"Ġæ°´":4217,"Ġæ³ķ":4218,"æĬ¥éģĵï¼Į":4219,"çİĦæľº":4220,"Ġå¤§åıĳåĪĨåĪĨå½©":4221,"éĺħ":4222,"ĠReserved":4223,"eb":4224,"ä¼ĳ":4225,"Ġyou":4226,"08":4227,"ocument":4228,"äº¤éĢļ":4229,"eng":4230,"åĪ»":4231,"è¯Ħä»·":4232,"ìĿ":4233,"èĢģèĻİæľº":4234,"äºļåįļ":4235,"Ġ365ä½ĵèĤ²æĬķæ³¨ä½ĵèĤ²åľ¨çº¿":4236,"çĻ»å½ķç½ĳåĿĢ":4237,"æľºæŀĦ":4238,"Ġæĸ¹":4239,"ao":4240,"çĵ¦":4241,"ãĢĢãĢĳãĢĲ":4242,"11æľĪ":4243,"OS":4244,"ä¾Ĩ":4245,"Ġè¡Į":4246,"0ãĢĳãĢĲ":4247,"ãĢĳãĢĲiãĢĳãĢĲ":4248,"set":4249,"ĠçİĽ":4250,"çĭ¬":4251,"èħ¾è®¯":4252,"ĠèĢģ":4253,"å¤®è§Ĩ":4254,"è°¢":4255,"è¾¦":4256,"ĠæĹħ":4257,"06":4258,"ĠæĺŃ":4259,"ld":4260,"èī¯":4261,"æĪĲä¸º":4262,"21æĹ¥":4263,"èµĽäºĭ":4264,"æİ¢":4265,"å·´å°Ķ":4266,"çī¹èī²æĹ©çĤ¹åĬłçĽŁ":4267,"éĢīä¸ĢèĤĸ":4268,"Ġå¤§åıĳå¿«ä¸īæĺ¯":4269,"é¢Ħè®¢":4270,"åįİ|":4271,"09":4272,"æĢİä¹ĪåĬłçĽŁ":4273,"åľ¨åĵªéĩĮ":4274,"å¤ĸæĮĤ":4275,"pkæĭ¾":4276,"\";":4277,"éģĩ":4278,"Ġtype":4279,"è¾£":4280,"Ġçł":4281,"ç¨³èµļ":4282,"lass":4283,"Ġæ¾³éĹ¨æŃ£è§Ħ":4284,"æ³½":4285,"ĊP":4286,"å¼Ģå¥ĸåİĨåı²":4287,"Ġæ¦Ĩ":4288,"Ċæ¹ĸ":4289,"Ġj":4290,"åĲ´":4291,"Ġbtt918":4292,"çĳŀ":4293,"å·´å°ĶèĻİ":4294,"ĠçĻ¾åº¦":4295,"èĢ³":4296,"Ġright":4297,"ä¸Ńå¥ĸ":4298,"ĠMB":4299,".6ä¸ĩ":4300,"åķĨæĬ¥":4301,"æĹ¶éĹ´ï¼ļ2019":4302,"æīĭæľºç½ĳåĿĢ":4303,"æ¢ħ":4304,"s:":4305,"äº¬æĬ¥":4306,"ZH":4307,"ä¼Ļ":4308,"åįļå®¢":4309,"å¿ĺ":4310,"Ġåı°ä¸Ń":4311,"æľŁæľŁåĩĨ":4312,"ĠæľĿ":4313,"ĠæĶ¶":4314,"--------":4315,"Ġå¤ı":4316,"Ġä¸ºä»Ģä¹Ī":4317,".5ä¸ĩ":4318,"Ġæłĩ":4319,"Ġ356betä½ĵèĤ²":4320,"Ġå¾®":4321,"Ċåįİ":4322,"èĲ¬":4323,"ĠçľŁäººæ¸¸æĪı":4324,"éģİ":4325,"ä¿¡çĶ¨è²¸æ¬¾":4326,"åŁİå¸Ĥ|":4327,"æįķé±¼æ¸¸æĪı":4328,"Ġä¸ĸçķĮ":4329,"-03":4330,"Ġæ¯Ķ":4331,"IC":4332,"æ½Ń|":4333,"æĳĦ":4334,"ĠæĲıå¤©åłĤ918":4335,"åįģä¸ĢéĢīäºĶ":4336,".2ä¸ĩ":4337,"Ġ2åĪĨå¿«3":4338,"Ġåĩ¯åıĳappå®ĺç½ĳ":4339,"lement":4340,"ĠèĴĻ":4341,"æ¼«":4342,"åīµ":4343,"Ġæļ":4344,"ç»¼åĲĪ":4345,"à¸²":4346,"å°Ī":4347,"æĸ¯|":4348,"Ġbet36ä½ĵèĤ²":4349,"ĊÂ©":4350,"è¿ĺæĺ¯":4351,"aa":4352,"è¿Ŀæ³ķ":4353,"Ġå¯¿":4354,"Ġå®īå¾½":4355,"æĸ¹|":4356,"Ġæ¿":4357,"Ġå·¥":4358,"Ġåıĭ":4359,"çŁ³|":4360,"Ġ918æĲıå¤©åłĤ":4361,"çĤ¸éĩĳèĬ±":4362,"åĨĪ|":4363,"AGæĹĹèĪ°":4364,"ç©Ĩ":4365,"å¤§å¸ĪèµĽ":4366,"Ġæ³Ĺ":4367,"Ġelse":4368,"è¿ª":4369,"éĥŃ":4370,"Õ¡Õ":4371,"æŃ£æĸĩ":4372,"éĩİ":4373,"MT":4374,"äºĮåħ«":4375,"æºĲ:":4376,"ĠæĹ©çĤ¹åĬłçĽŁåºĹ":4377,"Ġèĭ¹æŀľ":4378,"åĽłä¸º":4379,"ĠçĭĹä¸ĩæĢİä¹Ī":4380,"Ċãĥ»":4381,"ide":4382,"è§£åĨ³":4383,"Ġ2020":4384,"è®¾å¤ĩ":4385,"ãĢĳãĢĲãĢĤ":4386,"Ġ365betä½ĵèĤ²åľ¨çº¿":4387,"Ġå½©ç¥ŀ8":4388,"å¡ĺ|":4389,"¿è¿Ĳ":4390,"äºĮèĥİ":4391,"03":4392,"å¤ĩçĶ¨çĻ»å½ķ":4393,".9ä¸ĩ":4394,"æīĭæľºå¨±ä¹Ĳ":4395,"Ġå¼Ģåħĥæ£ĭçīĮæľī":4396,"Ġéĺ¿åħĭ":4397,"Ġwith":4398,"Ġå¥ī":4399,"èį£|":4400,".3ä¸ĩ":4401,"Ġçİ¯äºļçľŁäºº":4402,"ĠæĹ¶éĹ´":4403,"ĠBe":4404,"åŃ©åŃĲ":4405,"å·ŀå¸Ĥ":4406,"ĠéĻĨ":4407,"åĿª":4408,"æ£ĭçīĮæ¸¸æĪıå¹³åı°":4409,"Ġç§ĳå°Ķæ²ģå·¦ç¿¼":4410,"è½»":4411,"Ġäºļç¾İåĽ½éĻħ":4412,"åĮºæĶ¿åºľ":4413,"Ġ356betä½ĵèĤ²åľ¨çº¿":4414,"è¾ĵäºĨ":4415,".7ä¸ĩ":4416,"å¤±è´¥":4417,"æĸ°|":4418,"éĻĪ":4419,"æ²Ļ|":4420,"Ċ5":4421,"ĠæĹ¶æĹ¶å½©":4422,"ä»į":4423,"éĽª":4424,".1ä¸ĩ":4425,"è¡ĮæĶ¿":4426,"å»¶":4427,"up":4428,"Ġbet365æ»ļçĲĥ":4429,"ä¸¾è¡Į":4430,"äººï¼Į":4431,"Ġäº¬":4432,"ĠéĻĪ":4433,"çĸĹ":4434,"ĠåĪ©æĿ¥æľĢèĢģçīĮ":4435,".4ä¸ĩ":4436,"ies":4437,"Ġå¤ļ":4438,"Ġæ²³åįĹ":4439,"Ġäºķ":4440,"è£¡":4441,"èĨ":4442,"wv":4443,"âĢĶå¤§åıĳæĹ¶æĹ¶å½©":4444,"wd":4445,"æ¸¡":4446,"æ¯Ķè¼ĥ":4447,"Ġreturn":4448,"Ġblog":4449,"ç¬¬äºĮ":4450,"æ¬¡æķ°":4451,"å¼ıæĹ©çĤ¹åĬłçĽŁ":4452,"Ġhm":4453,"ç§ģ":4454,"çĶĺèĤĥ":4455,"è®¿éĹ®":4456,"alt":4457,"æİ§åĪ¶":4458,"ĠçľŁäººçĻ¾å®¶å®¶ä¹Ĳ":4459,"Ċä½ľèĢħï¼ļ":4460,"Ġä¿¡":4461,"ç²ī":4462,"åį´":4463,"å®īå¸Ĥ|":4464,"ĠèĻ":4465,"éī":4466,"Ġåĩ¯åıĳçľŁäººæ¸¸æĪı":4467,"çĶ¨æĪ·":4468,"åĽ½éĻħå¨±ä¹Ĳ":4469,"è®¡åĪĴè½¯ä»¶":4470,"æĸ¹éĿ¢":4471,"ä¼¯":4472,"ç¼ĸè¾ĳ":4473,"Ġæ²ģ":4474,"ĠæĹ©é¤Ĳç²¥":4475,"94":4476,"Ġç£":4477,"Ġåĩ¯åıĳç½ĳå¨±ä¹Ĳå®ĺæĸ¹ç½ĳç«Ļ":4478,"çº¿è·¯":4479,"åĿª|":4480,"çĶŁäº§":4481,"å¹³åı°å¼ĢæĪ·":4482,"åĭĴ|":4483,"ä»ģ":4484,"é©¬ä¼ļ":4485,"âĢĿçļĦ":4486,"åĮĸåİ¿|":4487,"Ġæ¾³éĹ¨æĸ°":4488,"Ġå¤§åĲĮ":4489,"é»ĳé¾Ļæ±Ł":4490,"å®īå¾½":4491,"çĮ®":4492,"Ġå°Ĭé¾Ļag":4493,"Ġäºļæ¸¸å®ĺç½ĳéĿŀåĩ¡":4494,"Ġagåľ¨çº¿":4495,"ï¼Įæľī":4496,"Ġé²":4497,"æ¾":4498,"äººå·¥":4499,"Ġåĩ¯åıĳæĹĹèĪ°åİħæ³¨åĨĮä¸ĭè½½ç½ĳåĿĢ":4500,"æĿ¥çļĦ":4501,"åĵªä¸ªå¥½":4502,"çĶ³è¯·":4503,"Ġå¼Ģåħĥæ£ĭçīĮæĺ¯":4504,"Ġä¸ĩåįļmanbetx":4505,"å·ŀæīĳåħĭ":4506,"åĢŁè²¸":4507,"ĠåĪ©æĿ¥å®ĺç½ĳ":4508,"ast":4509,"æ²³åİ¿|":4510,"Ġ36":4511,"çĮ«":4512,"-04":4513,"æ³¨åĨĮç½ĳåĿĢ":4514,"åĪĨæİĴåĪĹ3":4515,"ĠçĲ¼":4516,"Ġrights":4517,"1)":4518,"Ġäºļæ´²æ¸¸æĪıag":4519,"Ġèĭį":4520,"Ġæ¢ģ":4521,"ä»ħ":4522,"åĪļ":4523,"æµ¦":4524,"__":4525,"å®ĺæĸ¹å¹³åı°":4526,"ĠæŀģéĢŁå¿«3":4527,"å¹´ï¼Į":4528,"ĠæĦ":4529,"Ċ2019-08":4530,"èı²":4531,"ĭ|":4532,"Ġäºļæ¸¸éĽĨåĽ¢ç½ĳç«Ļ":4533,"ä¸įä¸Ĭ":4534,"į|":4535,"ĠæīĭæľºçĻ¾å®¶ä¹Ĳ":4536,"æĺĮåİ¿|":4537,"èĽĭèĽĭ":4538,"ä»£è¡¨":4539,"ĠèĪĴ":4540,"ĠåŃŁ":4541,"Ġåľ°":4542,"åĪĳ":4543,"ï¼ĮæĤ¨":4544,"ĠåĪ©æĿ¥w66å®ĺç½ĳ":4545,"3åĪĨå½©":4546,"ĠçĦ":4547,"Ġäºļç¾İæ¸¸æĪı":4548,"ĠæŁ¥çľĭ":4549,"ode":4550,"å¨ģå°¼æĸ¯äºº":4551,"Ċä¸ī":4552,"åĽº":4553,"äºĭä»¶":4554,"åĽĽä¸įåĥı":4555,"Ġè¨":4556,"Ľ|":4557,"Ġç¨":4558,"0)":4559,"çĪ¾":4560,"å´":4561,"èĪĴ":4562,".0ä¸ĩ":4563,"å½±åĵį":4564,"§åİ¿|":4565,"æµ©çī¹|":4566,"27":4567,"æŃ£å¼ı":4568,"Ġæ±Ŀ":4569,"ä¸Ĭä¸įåİ»":4570,"æĶ¯ä»ĺ":4571,"åħįè´¹èµĦæĸĻ":4572,"å¤ļ|":4573,"æłĳ":4574,"Ġæī¶":4575,"Ġå³¨":4576,"ĠæĳĦ":4577,"Ġ66":4578,"åĪ°äºĨ":4579,"Ġå¤į":4580,"Ġè¶³å½©":4581,"æīĭæľºå¹³åı°":4582,"éĹŃ":4583,"ä¸ĭè½½å®īè£ħ":4584,"ĠæĺŁ":4585,"èĭĹ":4586,"éĽ¶":4587,"Ġå°Ĭé¾Ļå®ĺç½ĳ":4588,"æµĻæ±Ł":4589,"Ġå¤§åıĳpk10":4590,"å¹³åİ¿|":4591,"å¯Ĩçłģ":4592,"ucc":4593,"ĠéĻĩ":4594,"ä¸»ç®¡":4595,"å·Ŀåİ¿|":4596,"å¤ĦçĲĨ":4597,"éĿĴ|":4598,"æ°´åİ¿|":4599,"Ġæ³¨":4600,"ä½Ľ":4601,"Ġ2019-09":4602,"XC9":4603,"æī£":4604,"function":4605,"Ċä½ľèĢħ":4606,"ĠçĻ¾å®¶ä¹Ĳåľ¨çº¿":4607,"é²ľ":4608,"å¸ĮæľĽ":4609,"Ġä¹°":4610,"Ġåºĵ":4611,"ç»¿":4612,"ID":4613,"Ġé»Ķ":4614,"ç¿»":4615,"Ġagçİ¯äºļå®ĺç½ĳ":4616,"ĠéĽĨ":4617,"LE":4618,"ick":4619,"Ġå°Ĭé¾Ļå¤ĩçĶ¨":4620,"æ»¨":4621,"Ġdocument":4622,"Ġåµ":4623,"åĩı":4624,"åı¯ä»¥æĮī":4625,"ä¸ŃæĸĩçīĪ":4626,"çĤº":4627,"æµľ":4628,"æŃ£è§ĦåĲĹ":4629,"æĹ¶åĢĻ":4630,"æİĴåĲį":4631,"Ġæĭī":4632,"å¿ħä¸Ń":4633,"å·²ç»ĵæĿŁ":4634,"łèıľäºº":4635,"å¸®":4636,"īå±±|":4637,"+4":4638,"Ġåĩ¯åıĳå½©ç¥¨é¦ĸé¡µ":4639,"âĸ³":4640,"Ġåĩ¯åıĳä½ĵèĤ²å®ĺç½ĳappä¸ĭè½½":4641,"Ġåĩ¯åıĳå¼ĢæĪ·":4642,"ĠèĤĥ":4643,"ĠæĪ¿å±ĭ":4644,"ç¤¾åĮº":4645,"ï¼ĮæĪĳä»¬":4646,"ĠåĪĨç±»":4647,"Ġ25":4648,"å½©ç½ĳ":4649,"ĠAGçİ¯äºļéĽĨåĽ¢":4650,"ãĢĳãĢĲoãĢĳãĢĲ":4651,"Ġï¿½éİıçĦ¯ï¿½":4652,"PS":4653,"ĠæľĪ":4654,"Ġä¸´æ²":4655,"å¾Īå¤ļ":4656,"Ġç¦ıå»º":4657,"Ġéĵ¶æ²³":4658,"Ġå¤©æ´¥æĹ©çĤ¹åĬłçĽŁ":4659,"ç«¥":4660,"de":4661,"Ġæ¡Ĳ":4662,"Ġagæ¸¸":4663,"Ġæ¾Ħ":4664,"Ċåĩ¤åĩ°":4665,"åĽŀè¡Ģ":4666,"alt+4":4667,"ĺåİ¿|":4668,"äºĨè§£":4669,"ers":4670,"éĥ½æĺ¯":4671,"èĬĿ":4672,"æĺ¯çľŁçļĦ":4673,"Ġäºļæ¸¸ä¼ļ":4674,"è£ģ":4675,"Ġå¸ĥ":4676,"ĊéĿĴæµ·":4677,"ç»ĳ":4678,"ĠåĽĽå·Ŀ":4679,"çĻ¼è¡¨æĸ¼":4680,"çªį":4681,"åı«":4682,"å¤´æĿ¡":4683,"åħ³æ³¨":4684,"ç·ļ":4685,"è¿Ľè¡Įè¯Ħè®º":4686,"éŀ":4687,"ï¼ĮæĤ¨åı¯ä»¥æĮī":4688,"alt+4è¿Ľè¡Įè¯Ħè®º":4689,"ï¼ĮæĤ¨åı¯ä»¥æĮīalt+4è¿Ľè¡Įè¯Ħè®º":4690,"å·²ç»ĵæĿŁï¼ĮæĤ¨åı¯ä»¥æĮīalt+4è¿Ľè¡Įè¯Ħè®º":4691,"åĺī":4692,"çĶµå½±":4693,"æŃ£æĸĩå·²ç»ĵæĿŁï¼ĮæĤ¨åı¯ä»¥æĮīalt+4è¿Ľè¡Įè¯Ħè®º":4694,"æİª":4695,"Ġagæīĭæľºå®¢æĪ·ç«¯":4696,"Ġå°¼":4697,"è¿°":4698,"Ġ28":4699,"ä¸ĭï¼Į":4700,"ä¼ļè®®":4701,"Ġå®¶":4702,"æ¶ĵï¿½":4703,"æ±Łå¸Ĥ|":4704,"ĠåĴ¸":4705,"æĸ¹æ¡Ī":4706,"Ćć":4707,"Element":4708,"PK10":4709,"âĢĻ":4710,"ç´§":4711,"èĬ³":4712,"out":4713,"ĠéĽĦå·ŀ":4714,"ĠçĶ±":4715,"åŃ¦ä¹ł":4716,"jc":4717,"äºļæ´²çīĪ":4718,"Ġè¦":4719,"æĭ©":4720,"qq":4721,"d88.com":4722,"çļĦæĺ¯":4723,"èģĶçĽŁ":4724,"Ġwh":4725,"uu":4726,"Ġbet36ä½ĵèĤ²åľ¨çº¿":4727,"èĦļ":4728,"Y2":4729,"ãĢĳãĢĲãĢĤãĢĳãĢĲ":4730,"åĩ¯æĹ¶":4731,"APPï¼ļå½©ç¥ŀ":4732,"Ġwww.d88.com":4733,"Ġæ³¾":4734,"æ¾İ":4735,"Ġéģµ":4736,"ļ|":4737,"Ġæ±¤":4738,"xt":4739,"_å®ĺæĸ¹":4740,"bet36":4741,"å§Ĩ":4742,"æĶ¿çŃĸ":4743,"indow":4744,"éģ¸":4745,"Ġfrom":4746,"Ġäºļæ¸¸å®ĺç½ĳçĻ»å½ķ":4747,"');":4748,"ĠçĭĹä¸ĩæĺ¯":4749,"ä¸ªäºº":4750,"æµıè§Ī":4751,"Bl":4752,"Ġåįĥ":4753,"èĤĸéĢīä¸ĢèĤĸ":4754,"ç¸£":4755,"Ġtr":4756,"å¾ĭå®¾":4757,"ľæ¹ĸ":4758,"ĠéĽ·":4759,"è«ĸ":4760,"éĶĻè¯¯":4761,"du":4762,"åıįæ°´":4763,"Ġæŀ£":4764,"è©¦":4765,"åľ¨çº¿ä½ĵèĤ²æĬķæ³¨":4766,"è³¼çī©":4767,"Ċ2019-05":4768,"ĠæĭĽ":4769,"å¦Ĥæŀľ":4770,"åĲ¯":4771,"å¨±ä¹Ĳç½ĳåĿĢ":4772,"Ġåıĸ":4773,"Ġé¸¡":4774,"ç§Ģ":4775,"éĸĢ":4776,"ç½ĳç«ĻçĻ»å½ķ":4777,"Ġèµ£":4778,"iosçīĪä¸ĭè½½":4779,">>":4780,"æĸ°çīĪ":4781,"ĊåİŁæłĩé¢ĺï¼ļ":4782,"Ġç±»":4783,"éĢĻ":4784,"ult":4785,"ĠåĪ©æĿ¥æľĢç»ĻåĬĽçļĦèĢģçīĮ":4786,"å¤ĸåĽ´ç½ĳç«Ļ":4787,"Ġå·¦":4788,"åħ¨å¹´":4789,"éŁ©åĽ½":4790,"Ġç«ĭåį³":4791,"èİ²":4792,"Ġéĺľæĸ°":4793,"æı´":4794,"åĨ·":4795,"æľĭ":4796,"äºĨï¼Į":4797,"æĢİä¹ĪåĬŀ":4798,"Ċè¥¿":4799,"è¯¦":4800,"å±¯|":4801,"Ġé¦Ļ":4802,"è±ª":4803,"Ġäºļæ¸¸agç½ĳç«Ļ":4804,"Ġçİ¯äºļapp":4805,"è¨Ī":4806,"éªŀ":4807,"çİ¯çĲĥç½ĳ":4808,"Ġä½Ļ":4809,"éĥµ":4810,"Ġé¸¿è¿Ĳ":4811,"ç»Ħç»ĩ":4812,"éĢĤ":4813,"\",\"":4814,"çī¹å·¦æĹĹ|":4815,"Ġ30":4816,"Ġ????":4817,"æĬ¢":4818,"æ£Ģæµĭ":4819,"èĤī":4820,"å°±éĢģ":4821,"ŀ|":4822,":ãĢĳãĢĲ":4823,"XN":4824,"çģ£":4825,"ä»£æĽ¸":4826,"ç¨¿":4827,"Ġçĭ":4828,"è¯ļ":4829,"jcml":4830,"jcmlwd":4831,"å°į":4832,"ĠåĮĸ":4833,"å¼Ģå¥ĸçĽ´æĴŃ":4834,"Ġäºļæ´²å®ĺæĸ¹ç½ĳç«Ļ":4835,"ĠèµĮéĴ±ç½ĳç«Ļ":4836,"è¸":4837,"åĩºçİ°":4838,"ĠæĹ©çĤ¹å°ıåĲĥåĬłçĽŁ":4839,"ĠåĪ©æĿ¥èµĦæºĲ":4840,"Ġk8å¨±ä¹Ĳå®ĺç½ĳ":4841,"Wl":4842,"Ġéĺ¿æĭīåĸĦ":4843,"est":4844,"è½¦è¾Ĩ":4845,"ĠéŁ©":4846,"çŃĳ":4847,"ĠæĹ©çĤ¹æĿ¥":4848,"å¼Ģåıĳ":4849,"åĪĨèŃī":4850,"Ġä»ĬæĻļ":4851,"ern":4852,"é¤Ĳé¥®":4853,"Ġäºļæ¸¸å®ĺæĸ¹ç½ĳ":4854,"ĠPro":4855,"ĠçĶµç«ŀ":4856,"Ġæİ¨":4857,"ç²¾ç¥ŀ":4858,"xp":4859,"ç¬ĳ":4860,"ł|":4861,"ĠçĭĹä¸ĩçļĦ":4862,"Ċ2020-02":4863,"çİī":4864,"ĠéĿ¢":4865,"åŃ¦æł¡":4866,"åľ¨çº¿ä½ĵèĤ²":4867,"åįģå¤§":4868,"äº¤æĺĵ":4869,"Ġäºļæ¸¸çĻ»å½ķ":4870,"Ġäºļæ¸¸åĽ½éĻħag":4871,"æĳ©":4872,"éĿŀåĲĮ":4873,"é»ĳå¤§æĪĺ":4874,"Ġpost":4875,"å¾Ĵ":4876,"å®Ī":4877,"åģĩçļĦ":4878,"åķĨåĵģ":4879,"Ġå¡Ķ":4880,"åľ°æĸ¹":4881,"Ġéĺ²":4882,"ĠUU":4883,"ĠåĪ©æĿ¥åĽ½æłĩ":4884,"2.0":4885,"ĠæĺĨ":4886,"èĥľ|":4887,"è¡Įä¸º":4888,"Ġäºļæ¸¸ä½ĵèĤ²":4889,"ä¸ŃçļĦ":4890,"åºĬ":4891,"åı¬":4892,"Ġyabo":4893,"æ°ĳéĸĵ":4894,".00":4895,"ï¼Įåħ¶":4896,"ä½ľå¼ĬåĻ¨":4897,"ãĢĳãĢĲ\"":4898,"Ġare":4899,"è§ī":4900,"åħįè´¹èµĦæĸĻå¤§åħ¨":4901,"roup":4902,"Ġpro":4903,"æĭ¬":4904,"æĹ¥æľŁ":4905,"é»İ":4906,"à¸²à¸":4907,"url":4908,"èįī":4909,"æµģç¨ĭ":4910,"èµĮæĲı":4911,"Ġä¿®":4912,".C":4913,"';":4914,"Ġæ¥":4915,"ªæ´²":4916,"æľĢé«ĺ":4917,"Ġæľ¨":4918,"è¯¾":4919,"Ġå¨ģå°¼æĸ¯äºº":4920,"ä¿ĿæĬ¤":4921,"Ġè©":4922,"ĠæıŃ":4923,"ly":4924,"æ¢°":4925,"ä¸ĢæŃ¥":4926,"AT":4927,"é«Ķ":4928,"Ġæ¸¯":4929,"Ċæĸ°æµª":4930,"Ð¾":4931,"BC":4932,"Ġåĩ¯åıĳæĹĹèĪ°åİħæ³¨åĨĮçĻ»å½ķ":4933,"Ġç´«":4934,"æłĹ":4935,"å³¡":4936,"ä»¥åıĬ":4937,"èº«åĪĨèŃī":4938,"å®Ĺ":4939,"è¡¥":4940,"ĠCC":4941,"æĬĺ":4942,"Ġad":4943,"åĬ¨æĢģ":4944,"ian":4945,"Ġåĩ¯åıĳæīĭæľºçīĪ":4946,"èµ¶":4947,"ä¸ĢåĲį":4948,"75":4949,"è´¸æĺĵ":4950,"æĸĹçīĽ":4951,"Ġåħ¶ä»ĸ":4952,"ä¸ĬåĪĨ":4953,"å¯Ĩ|":4954,"âĢķæŀģéĢŁ":4955,"Ġèį£":4956,"æĭŁ":4957,"æ¨¡å¼ı":4958,"Ġåıĳå¸ĥæĹ¶éĹ´":4959,"é¡¾":4960,"ĠçĶ°":4961,"Ġå¤įåĪ¶":4962,"ĊæĹ©çĤ¹åĬłçĽŁ":4963,"Ġçİ¯äºļagæĹĹèĪ°åİħ":4964,"Ġreserved":4965,"æĻĵ":4966,"ML":4967,"æľ¨|":4968,"-02":4969,"Ġå¹¿ä¸ľ":4970,"åħ±åĴĮ":4971,"ä»Ģ|":4972,"ZG":4973,"å®ĮæĪĲ":4974,"åģ¥":4975,"éŁ¿":4976,"è´¡|":4977,"æºĲåİ¿|":4978,"Į|":4979,"ĠåĬłçĽŁæĹ©çĤ¹":4980,"å°Ħ":4981,"çķª":4982,"é¤¨":4983,"çķ¶":4984,"æĥħéĵ¾æİ¥":4985,"_å½©ç¥¨":4986,"æ¬¢ä¹ĲçĶŁèĤĸ":4987,"éĩĳæ²Ļ":4988,"å³¡|":4989,"è¨ĤæĪ¿":4990,"ĠçĽ¸":4991,"Ġæ¾³éĹ¨åħŃ":4992,"Ġä¸ĥ":4993,"Ġæľ¬æºª":4994,"æĢİä¹Īæ³¨åĨĮ":4995,"åł±":4996,"ĠåĪ©æĿ¥w66æľĢ":4997,"Ċæłĩ":4998,"çģµ":4999,"ĠæīĭæľºèµĮéĴ±":5000,"ä¹ĺ":5001,"OF":5002,"æĸ°çĸĨ":5003,"å¾·åĽ½":5004,"ĠéĤ£":5005,"åį°åº¦":5006,"æµ·å¤ĸ":5007,"ãĢĤä»ĸ":5008,"Ġw66.com":5009,"cm":5010,"Ġä¸ĸçķĮæĿ¯":5011,"....":5012,"æĿ¥èĩª":5013,"Ġas":5014,"ail":5015,"Ġç½ĳç«Ļåľ°åĽ¾":5016,"ref":5017,"éĻĦè¿ĳ":5018,"ĠæŀģéĢŁæĹ¶æĹ¶å½©":5019,"æ¹¾|":5020,"Ġåĩ¯åıĳå®ĺç½ĳçĻ»å½ķ":5021,"èľľ":5022,"éĳ":5023,"ç»§ç»Ń":5024,"çĶ¢":5025,"ĠæĽ´":5026,"Ġagæīĭæľºäºļæ¸¸":5027,"Ġæĺ¯":5028,"èĤ¥":5029,"ST":5030,"è½ī":5031,"Ġä¹Įåħ°":5032,"ç»ıéªĮ":5033,"å®ĩ":5034,"æĹ¶éĹ´ï¼ļ2020-0":5035,"è¨ĺ":5036,"Ġ2014":5037,"»åĬ¨":5038,"è¯Ģçªį":5039,"èį¯":5040,"è¨Ĭ":5041,"èĭ±è¶ħ":5042,"åı¦":5043,"å§ĵ":5044,"ï¼Įä¸º":5045,"Ċ2019-06":5046,"¡æŀĹ":5047,"ĤæĹł":5048,"åĿ¦":5049,"æĻºèĥ½":5050,"èīĩä¼ļ":5051,"éĢļ|":5052,"Ġå®ĺç½ĳ":5053,"æĹħéģĬ":5054,"ĠagèµĮåľº":5055,"55":5056,"ĊA":5057,"ĊæĹ©é¤ĲåĬłçĽŁ":5058,"Ġåıĳå¸ĥæĹ¶éĹ´ï¼Ľ":5059,"åĪ¶éĢł":5060,"ä¸Ńå°ı":5061,"ĠäºļæĲıä½ĵèĤ²app":5062,"ĠçĶµçİ©å¨±ä¹Ĳ":5063,"zh":5064,"ĠéĿĻ":5065,"ä»ª":5066,"ä¸¤åĽ½":5067,"ribo":5068,"çªĹ":5069,"æ°ĳä¸»":5070,"ĠæıĲæ¬¾":5071,"ribo88":5072,"Ġå°Ĭé¾Ļd88æ³¨åĨĮ":5073,"èħ¾":5074,"Ġæ³¨åĨĮ":5075,"è¿ĻäºĽ":5076,"Ġr":5077,"ĥ|":5078,"éĴĪ":5079,"åķĬ":5080,"æŃ»äº¡":5081,"Ġå¹¸è¿Ĳé£ŀèīĩ":5082,"==":5083,"æł¹æį®":5084,"ĠåĲį":5085,"ery":5086,"ãĢĳãĢĲpãĢĳãĢĲ>":5087,"åĪĨ3d":5088,"ä¸ģ":5089,"ĠåŃĿ":5090,"çĽĪ":5091,"ĠåĪ©æĿ¥æīĭæľº":5092,"åĩºç§Ł":5093,"è¿ŀ|":5094,"Ġäºļæ¸¸éĽĨåĽ¢æ¸¸æĪı":5095,"Ċæĸ°çĸĨ":5096,"ħ|":5097,"Ćą":5098,"ark":5099,"éģĵï¼Į":5100,"ĠæŃ£æĸĩ":5101,"ĠâĢľ":5102,"ber":5103,"çİ¯çĲĥ":5104,"ĺħ":5105,"rãĢĳãĢĲ":5106,"ä¹İ":5107,"ä¸Ķ":5108,"åĪĬ":5109,"ull":5110,"ĠéĽħ":5111,"1ãĢĳãĢĲ":5112,"-8":5113,"ĠÕ":5114,"OD":5115,"è®¤è¯ģ":5116,"å¤´|":5117,"ãĢĮ":5118,"å±±ä¸ľ":5119,"Pro":5120,"By":5121,"ive":5122,"å±Ĭ":5123,"åħ¼":5124,"ä»Ļ":5125,"åŃľ|":5126,"å½©åĽ¾":5127,"ĠæĹ©çĤ¹å¿«é¤Ĳ":5128,"ä¾¿å®ľ":5129,"ä¸Ĭï¼Į":5130,"ç»ĻåĪ©":5131,"çļĦï¼Į":5132,"æıĲä¸įäºĨ":5133,"æ¹ĺ":5134,"æķ¸":5135,"å¤ļä¹ħåĪ°è´¦":5136,"Ġäºļæ¸¸å®ĺæĸ¹ä¸ĭè½½":5137,"çĻ½|":5138,"éľ²":5139,"HNl":5140,"è«ĭ":5141,"Ġæĸ°å·´å°ĶèĻİ":5142,"ik":5143,"Ġéģĵ":5144,"åīµæ¥Ń":5145,"ä¸ĢæĿ¡":5146,"çº¢åĮħ":5147,"ĠäºĮåĽĽåħŃå¤©å¤©å¥½å½©":5148,"Ġ365æ£ĭçīĮæĢİä¹Ī":5149,"æĺ¯åĲ¦":5150,"éĩĳ|":5151,"Ġäºļæ¸¸å®ĺç½ĳç½ĳç«Ļ":5152,"Ġåĩ¯æĹ¶å¨±ä¹Ĳ":5153,"æ¸¸æĪıå¤§åİħ":5154,"ä½ĵéªĮ":5155,"Ġï¿½éİıçĦ¯ï¿½918":5156,"è®¡åĪĴç½ĳ":5157,"Ġä¸½":5158,"åģ·":5159,"è®¾ç½®":5160,":1,":5161,"Ġå¤įåĪ¶çĻ»å½ķ":5162,"Ġå£":5163,"ure":5164,"åį³æĹ¶":5165,"cy":5166,"Ġsh":5167,"ON":5168,"âĢĶå¤§åıĳ":5169,"åį±":5170,"åºĹ|":5171,"Ġkb88":5172,"å§Ķåĳĺä¼ļ":5173,"çĶľ":5174,"æĪ¿å±ĭ":5175,"cont":5176,"è¿ĺæľī":5177,"çī¹æĹĹ|":5178,"ĠãĢģ":5179,"æĹ©é¤Ĳè½¦åĬłçĽŁ":5180,"ĠÂ¥":5181,"å·¨":5182,"Ġagçİ¯äºļæīĭæľºçĻ»å½ķ":5183,"å¹³åı°ç½ĳç«Ļ":5184,"ib":5185,"Ġthat":5186,"ç»´çłģ":5187,"åĮħæĭ¬":5188,"YWR":5189,"å·®":5190,"Ġçļĩ":5191,"Ġäºļæ¸¸æ³¨åĨĮ":5192,"Ċä¸ĭ":5193,"ä¾ĽåºĶ":5194,"ãĢį":5195,"æ°£":5196,"Ġèıłèıľäºº":5197,"ä¹ĭæĺŁ":5198,"éĢīæĭ©":5199,"Ġæ±Łè¥¿":5200,"ower":5201,"ĠäºļæĲıçĽ´æĴŃ":5202,"Ġä¸ĭè½½å°Ĭé¾Ļ":5203,"5åĪĨå½©":5204,"æĭĴ":5205,"é£İéĻ©":5206,"02":5207,"å®ŀæĸ½":5208,"ĊçĭĹä¸ĩ":5209,"åĺĽ":5210,"ç½ĳ...":5211,"Ĺı":5212,"ä½įç½®:":5213,"¹åŁİ|":5214,"ĠèĤ¥":5215,"Ġåįļå½©bet356":5216,"æ¢¦":5217,"åł°|":5218,"ĠåĪ©æĿ¥agæĹĹèĪ°åİħ":5219,"æĬĹ":5220,"Ġé¹°":5221,"app_":5222,"wid":5223,"Ġæ²Ĥ":5224,"æĸ°æīĭ":5225,"éĿĸ|":5226,"Ii":5227,"Ġ888":5228,"å²¸":5229,"Ċ6":5230,"éĬ":5231,"çļĦè½¯ä»¶":5232,"åħĭ|":5233,"äºĮç»´çłģ":5234,"ĠçľŁéĩĳ":5235,"ķ|":5236,"Ġèĵ¬":5237,"ust":5238,"æĻ¶":5239,"æłĳ|":5240,"Ġå¸Ĥ":5241,"Ġäºļç¾İä¼ĺæĥł":5242,"æ¿Ģ":5243,"Ġè½¬":5244,"æľĭåıĭ":5245,"Ġåĩ¯åıĳçĻ»å½ķ":5246,"ĠæĹ¶éĹ´ï¼ļ":5247,"éĽĦ|":5248,"Ċæ±Łè¥¿":5249,"æ°¸è¿ľ":5250,"Ċå¹¿è¥¿":5251,"comm":5252,"Ġagæ¸¸èīĩä¼ļ":5253,"çľŁäººçĻ¾å®¶ä¹Ĳ":5254,"ĠçŁ¥":5255,"é¸¡":5256,"æ°ĳ|":5257,"èĩªåĬ¨":5258,"ä¸Ģèµ·":5259,"ä»Ģä¹ĪæĦıæĢĿ":5260,"47":5261,"PV":5262,"Ġçİ¯äºļå¨±ä¹Ĳ":5263,"æ±½è»Ĭ":5264,"èĩªå·±çļĦ":5265,"Ġ2012":5266,"èĭ±éĽĦ":5267,"erm":5268,"æĹ¶ä»£":5269,"ä¿ĥ":5270,"å¯¨|":5271,"Ġäº§":5272,"ĠPI":5273,"æĿ¡ä»¶":5274,"åįıè®®":5275,"_s":5276,"å½©ç¥¨ç½ĳ":5277,"ĠccåĽ½éĻħå½©":5278,"èī¯|":5279,"Tag":5280,"æ²ģæĹĹ|":5281,"åĨłåĨĽ":5282,"Ġçİ¯":5283,"ov":5284,"é»ŀ":5285,"ĠãĢĬ":5286,"å®¶åºĦ":5287,"åĲ¸":5288,"HA":5289,"æľĪäº®":5290,"å·´|":5291,"éĿĻ":5292,"å¼Ģå¥ĸçİ°åľºçĽ´æĴŃ":5293,"Ġç©":5294,"åı¥":5295,"é¤Ĳé¥®åĬłçĽŁ":5296,"Ġé»İ":5297,"å¿«ä¹ĲåįģåĪĨ":5298,"é¥¶":5299,"çİĽ|":5300,"ç½ĳåĿĢå¤§åħ¨":5301,"ED":5302,"å¿ĥæĹ©é¤ĲåĬłçĽŁ":5303,"çĥŁ":5304,"åķ¥":5305,"æľªæĿ¥":5306,"ä¸įåĲĮ":5307,"Ġdata":5308,"ĠagåĽ½éĻħäºļæ¸¸çĻ»å½ķ":5309,"ff":5310,"æĹ©çĤ¹å°ıåĲĥåŁ¹è®ŃåĬłçĽŁ":5311,"Ġç½ĳæĺĵ":5312,"åĩºåı£":5313,"ç°":5314,"OM":5315,"éĿŀå¸¸":5316,"ne":5317,"ry":5318,"wb":5319,"ä¸Ģè·¯":5320,"Ġç«¹":5321,"æĵįä½ľ":5322,"é¥°":5323,"Ġit":5324,"Ġåĩº":5325,"LA":5326,"æĻĭ":5327,"åįĹå¸Ĥ":5328,"éĢĴ":5329,"æĬķæ³¨ç½ĳåĿĢ":5330,"ä¸ĭåĪĨ":5331,"mb":5332,"ĠæķĻ":5333,".s":5334,"æ¶Īéĺ²":5335,"97":5336,"ĠåĩĮ":5337,"admin":5338,"å²Ĺ":5339,"ä¸ĭè½½_":5340,"lf":5341,"åŁºæľ¬":5342,"Ġê":5343,"Ġç§¦":5344,"æ²Ł":5345,"Ġèĳ¡":5346,"è´£ä»»":5347,"åħ§":5348,"Ġåĩ¯åıĳä½ĵèĤ²vip":5349,"ĠçģĮ":5350,"ç¢ĳ":5351,"æĪª":5352,"urre":5353,"ĠèĮĤ":5354,"åĭĩ":5355,"è¿´":5356,"Ġagäºļ":5357,"æİ¥åıĹ":5358,"éĦ":5359,"Ġèī":5360,"æĽ¼":5361,"Ġä¹¡":5362,"å®ĺç½ĳæ³¨åĨĮ":5363,"Ġèĭ±è¶ħ":5364,"éľĩ":5365,"ç½²":5366,"Ġæ¸¸":5367,"Home":5368,"éĲ":5369,"Ġä»İ":5370,"XNET":5371,"Ġ!":5372,"ĠåĪĺ":5373,"1.0":5374,"æįŁ":5375,"æľŁè´§":5376,"ĠPIXNET":5377,"ext":5378,"éº¼":5379,"Ġå¹¸è¿Ĳå¿«3":5380,"è±ĨæµĨ":5381,"ĠåĬ¨":5382,"å¹¿åĳĬ":5383,"ĠèĬľæ¹ĸ":5384,"è´¹çĶ¨":5385,"åĨĪ":5386,"ä¹īåİ¿|":5387,"è©¦ç®Ĺ":5388,"ĊæĹ¶éĹ´ï¼ļ2020å¹´":5389,"âĢĺ":5390,"è·¨":5391,"44":5392,"æ£ĭçīĮå¹³åı°":5393,"æĸĩç«łï¼ļ":5394,"çī¹åĪ«":5395,"éĹľ":5396,"ä¼°":5397,"ĠåĿ":5398,"],":5399,"åħ±åĲĮ":5400,"éı":5401,"çľŁå®ŀ":5402,"best365":5403,"çĪ¶":5404,"Ġagçİ¯äºļæ¸¸æĪıå®ĺç½ĳ":5405,"ç©¿":5406,"æĬ¼":5407,"æĿ¨":5408,"æľºåħ³":5409,"æĢĢ":5410,"é©¶":5411,"ss":5412,"ĊéĩįåºĨ":5413,"æĮģç»Ń":5414,"Ġæħ":5415,"Ċçľĭ":5416,"CT":5417,"Ċæ²³åĮĹ":5418,"åĪĨç±»":5419,"éĩĳèŀį":5420,"Ġo":5421,"ĊS":5422,"ç±į":5423,"Ġå½°":5424,"Ġåīĳ":5425,"è¿´éŁ¿":5426,"å½©äºīéľ¸8":5427,"çĸ¾":5428,"çĸ«":5429,"Ġæ³½":5430,"å°ıè¯´":5431,"ç¬Ķ":5432,"é©¾":5433,"çļĦä½įç½®ï¼ļ":5434,"ook":5435,"å¾·åİ¿|":5436,"æ¨Ĥ":5437,"æĺĨ":5438,"2ãĢĳãĢĲ":5439,"Ġäºļæ¸¸éĽĨåĽ¢ag":5440,"Ġä¿¡èªī":5441,"Ġ365æ£ĭçīĮå®ĺç½ĳ":5442,"æĹ©çĤ¹å°ıåĲĥåĬłçĽŁåºĹ":5443,"æıĲåĩº":5444,"è¯º":5445,"I6":5446,"Ġä¸»":5447,"ĠagçĶµæ¸¸":5448,"XG":5449,"éĶĭ":5450,"å¸Ĳ":5451,"Ðµ":5452,"Add":5453,"ä¸ĩåħĥ":5454,"ä½ĵèĤ²å¹³åı°":5455,"Ġèŀį":5456,"æľºåĻ¨":5457,"æīĭç»Ń":5458,"çĶŁæĹ©é¤ĲåĬłçĽŁ":5459,"åĬłçĽŁæĹ©çĤ¹":5460,"é¢Ĩå¯¼":5461,"èĤ¡ç¥¨éħįèµĦ":5462,"37":5463,"07":5464,"ãĢĳãĢĲ\"ãĢĳãĢĲ":5465,"58":5466,"ä»ĬæĻļ":5467,"ina":5468,"Ġå¼Ģåħĥæ£ĭçīĮæĢİä¹Ī":5469,"æĶ¶ä¸įåĪ°éĤ®ä»¶":5470,"ç¤ºåħ¨éĥ¨":5471,"ç®¡éģĵ":5472,"Ċæ·±åľ³":5473,"Ġæĺĵ":5474,"Ġ918åįļ":5475,"å®¡æł¸":5476,"UR":5477,"íķ":5478,"çľŁçļĦ":5479,"Ġçİ¯äºļå¹³åı°":5480,"s8":5481,"ä¼Ļä¼´":5482,"Ġæ»¡":5483,"Ġæĸ°èĳ¡":5484,"çĥ«":5485,"åį³æĹ¶æ¯ĶåĪĨ":5486,"2015":5487,"Ġ26":5488,"ĠåĪ©æĿ¥çĶµæ¸¸":5489,"Ġé¹¿":5490,"ä¸»è¦ģ":5491,"éĢŁåº¦":5492,"ä¸įä¼ļ":5493,"Ġè®¢":5494,"ĠéĽ»":5495,"Ċæľ¬":5496,"Ġæ¨ª":5497,"æ´Ĺ":5498,"æĬ¥åĳĬ":5499,"ä¿Ŀéļľ":5500,"Ġç§»åĬ¨":5501,"èģļ":5502,"ĠåĮĹäº¬æĹ©çĤ¹":5503,"å®īåįĵapp":5504,"å¥½é¡¹çĽ®":5505,"Ġè´¡":5506,"è·Ŀç¦»":5507,"ĠåĪĨåĪĨå¿«3":5508,"èµļå°±":5509,"),":5510,"åĽ½åĨħ":5511,"æĿ¡æ¬¾":5512,"æºªåİ¿|":5513,"å¤§å®¶":5514,"ä¸»ä»»":5515,"Ġå®ĺæĸ¹":5516,"åĩłä¸ª":5517,"Ġæīĭæľºäºļæ¸¸":5518,"ĠèįĨ":5519,"nãĢĳãĢĲ":5520,"Ċå¤©æ´¥":5521,"ä¸ľåİ¿|":5522,"ç¥¥":5523,"æ£ĭçīĮä¸ĭè½½":5524,"ï¼Įå¯¹":5525,"Ġ||":5526,"ç¶ĵ":5527,"å¥ĸéĩĳ":5528,"ä»£çłģ":5529,"å®ŀçİ°":5530,"èµµ":5531,"åħ¨éĿ¢":5532,"Ġæ¡¦":5533,"å¯¨":5534,"åĩºçīĪ":5535,"hed":5536,"Ġé¥¶":5537,"æĸ°æīĭåį¡":5538,"ĊæĺŁ":5539,"åĮħåŃĲåĬłçĽŁ":5540,"è¾ī":5541,"ompany":5542,"Ġçĭ¬":5543,"è¾½":5544,"æī¬":5545,"Ġçİ¯äºļappä¸ĭè½½":5546,"ĠAr":5547,"æª":5548,"çĽĸ":5549,"Ġ8äºļæ¸¸":5550,"æĥ³èµļå°±":5551,"Ġæ·±åľ³":5552,"èĺ":5553,"åıĤåĬł":5554,"åıªä¸ºéĿŀåĲĮ":5555,"95":5556,"å°¾":5557,"Ġåĩ¯åıĳæŃ£è§Ħ":5558,"æ¯Ĵ":5559,"èķ":5560,"ĺï¿½":5561,"Ġrem":5562,"yle":5563,"Ġbet366":5564,"è³£":5565,"åĸĦ|":5566,"Ġç»į":5567,"èĲĦ":5568,"Ġ365è¶³çĲĥä½ĵèĤ²":5569,"ĠæļĤæĹł":5570,"ize":5571,"å¹´çļĦ":5572,"ĠåľŁé»ĺ":5573,"æ´ª|":5574,"å®ģå¸Ĥ|":5575,"æ¢ģ|":5576,"ments":5577,"Ġèĭıå°¼":5578,"éĹ²":5579,"å¤ĸåĽ´æĬķæ³¨":5580,"èĮ¶":5581,"ĠåĲīæŀĹ":5582,"ĠåĮĹäº¬èµĽè½¦pk10":5583,"å¨±ä¹Ĳå½©ç¥¨":5584,"urrent":5585,"éĢĶ":5586,"è¿Ļæł·":5587,"lect":5588,"Ġæ¹ĸåĮĹ":5589,"Ã©":5590,"æľ«":5591,"Phone":5592,"æ³¨åĨĮå¹³åı°":5593,"Ġ$('":5594,"ĠåĪĨç±»ï¼ļ":5595,"åıªä¸ºéĿŀåĩ¡":5596,"ç½ĳåĿĢæĺ¯å¤ļå°ĳ":5597,"none":5598,"2)":5599,"ï¿½éİıçĦ¯":5600,"çİ¯äºļçľŁäºº":5601,"çº¸":5602,"Ġ918ï¿½éİıçĦ¯":5603,"ave":5604,"Ġæ²Ī":5605,"Ġæ±ķ":5606,"å¯¹éĿ¢":5607,"Ġçıł":5608,"Ġåħĭæĭī":5609,"ĊåĽĽå·Ŀ":5610,"æ¢ģ":5611,"Ġçİ¯äºļçĻ»å½ķ":5612,"Ġagäºļæ´²çĻ»éĻĨ":5613,"OP":5614,"è¿Ľä¸ĢæŃ¥":5615,"Ġäºļæ¸¸åĽ½éĻħæīĭæľºå¨±ä¹Ĳ":5616,"riend":5617,"mZ":5618,"ä¸ĬçļĦ":5619,"Ġ})":5620,"ase":5621,"Ġç½ĳåĿĢ":5622,"Ġç§ĳå°Ķæ²ģåı³ç¿¼":5623,";ãĢĳãĢĲ":5624,"Ð¸":5625,"Ġèı²":5626,"æĸ¯åĿ¦":5627,"æī¶":5628,"æĿ°":5629,"Ġå®¾":5630,"ä¹±":5631,"Ċ7":5632,"æľĢæĸ°ç½ĳç«Ļ":5633,"åĬ©æīĭ":5634,"Ġäºļç¾İçĶµæ¸¸":5635,"Ġè°¢":5636,"å¼Ģåı·":5637,"Ġæī¿":5638,"ï¿½I":5639,"Ċ2020-07":5640,"Ġå·´æŀĹ":5641,"ript":5642,"éĥĳ":5643,"åħĳ":5644,"åŃĲæĹ©é¤ĲåĬłçĽŁ":5645,"¶éĻµ|":5646,"èĭ±æĸĩ":5647,"ļåİ¿|":5648,"ĠåĪ°":5649,"Ġç»įåħ´":5650,"Ġle":5651,"æ°´æŀľ":5652,"çĸ¯çĭĤ":5653,"Ċåıĳè¡¨":5654,"èªŀ":5655,"æĶ¶è´¹":5656,"ĠéĻµ":5657,"âĢ¦âĢ¦":5658,"ç´ļ":5659,"ĠåĨħèĴĻåı¤":5660,"å¼ĢæĪ·å¹³åı°":5661,"å½ĵåľ°æĹ¶éĹ´":5662,"æĿŃ":5663,"å¤©æ´¥":5664,"æ¸¸|":5665,"èīºæľ¯":5666,"Ġæ»¨":5667,"æ°ĳèŃ¦":5668,"æŀĿ":5669,"è½¯ä»¶ä¸ĭè½½":5670,"Ġcomment":5671,"çĥĪå£«":5672,"Ġå½©ç¥ŀäºīéľ¸å¤§åıĳå¿«ä¸ī":5673,"Ġhe":5674,"Ġæī¬":5675,"éº»è¾£":5676,"æīįèĥ½":5677,"Ġå¿«éĢŁ":5678,"Ġåį°":5679,"Ġçİ¯äºļagæīĭæľºå®¢æĪ·ç«¯":5680,"æľĢè¿ĳ":5681,"12æľĪ20æĹ¥":5682,"æĥ³èµļå°±è½¬":5683,"ä½©":5684,"æľŁéĹ´":5685,"æ½®":5686,"Ġçİ¯äºļæīĭæľºçīĪ":5687,"æĭ¿å¤§":5688,"åĪĨ6åĲĪ":5689,"Ġæ¬§":5690,"New":5691,"è´¡":5692,"çµĦ":5693,"Ġæĸ°ç«¹":5694,"æŃ¤åīį":5695,"è¦ĸ":5696,"Ġ35":5697,"éĺģ":5698,"ãĢģãĢĳãĢĲ":5699,"Ġä»Ļ":5700,"åĲ«":5701,"ç²¥åĬłçĽŁ":5702,"é¡ŀ":5703,"39":5704,"ç®¡å®¶å©Ĩ":5705,"ä»»ä½ķ":5706,"Ġagçİ¯äºļæīĭæľºå®¢æĪ·ç«¯":5707,"-ãĢĳãĢĲ":5708,"æľīåħ³":5709,"é©»":5710,"Ð°":5711,"Ġåıĳè¡¨":5712,"ĠæĹ©é¤Ĳè¿ŀéĶģ":5713,"éĻķè¥¿":5714,"å¤ĸï¼Į":5715,"Ġ??":5716,"å®ĺæĸ¹app":5717,"ĠçĶŁ":5718,"hbHNl":5719,"iOmZ":5720,"hbHNlLCJ":5721,"iOmZhbHNlLCJ":5722,"5æľĪ":5723,"ĺå®¶":5724,"Ġks8":5725,"Ġä½ĵèĤ²æĬķæ³¨":5726,"ä½ľä¸º":5727,"Ġæµģ":5728,"IB":5729,"éĥ¨ãĢģ":5730,"ĠèĴ²":5731,"ĊäºĳåįĹ":5732,"åĬłå¼º":5733,"365å¤ĸåĽ´":5734,"å±±è¥¿":5735,"Ċæµ·åįĹ":5736,"å®¾|":5737,"æĸ°ç½ĳ":5738,"Ġå¤§åıĳç§ĴéĢŁ":5739,"Ġæ¾³éĹ¨çĻ¾å®¶åĪ©":5740,"çİĽä¾Ŀ":5741,"ç®Ģä»ĭ":5742,"å½©å¼Ģå¥ĸç»ĵæŀľ":5743,"Ġè§Ĩ":5744,"æĮĩæķ°":5745,"åĽ½ç¦ı":5746,"Ġå¼Ģå°ģ":5747,"èĳĹ":5748,"æłı":5749,"Ġfalse":5750,"Ċå®ģå¤ı":5751,"äºŃ":5752,"appâĢķ":5753,"éº»è¾£çĥ«":5754,"åıĳçīĮ":5755,"éłĲ":5756,"ĠâĢĶ":5757,"èĸª":5758,"Ġåħįè´¹":5759,"ĠæĿ¥æºĲï¼ļä¸ŃåĽ½":5760,"å¤Ł":5761,"net":5762,"éĶĽï¿½":5763,"ĠRe":5764,"åĸĩ":5765,"ç¡®è®¤":5766,"Ċä¸Ĭæµ·":5767,"åĨĴ":5768,"Ġé½Ĳ":5769,"Ġå¤§åıĳä¸ĢåĪĨéĴŁå¿«ä¸ī":5770,"åĬ¨çĶ»":5771,"Ġè²":5772,"æĢ»ä»£çĲĨ":5773,"ĠåħĭæĭīçİĽä¾Ŀ":5774,"åĬłçĽŁè´¹":5775,"çªĿ":5776,"æģ©éĿłè°±":5777,"ince":5778,"ä¸¥éĩį":5779,"æīĭæľºç½ĳé¡µçīĪ":5780,"åĬ³":5781,"ç«ŀå½©":5782,"å¹³åı°app":5783,"æŁ¥çľĭ":5784,".5åĪĨå½©":5785,"ans":5786,"åĽ½ç¦ıéº»è¾£çĥ«":5787,"SD":5788,"çīĻ":5789,"ĠçĲĨ":5790,"æķ´åĲĪ":5791,"ãĢĳãĢĲãĢģãĢĳãĢĲ":5792,"ĠåŃĹ":5793,"Ġ365betå®ĺç½ĳæĢİä¹Ī":5794,"ĠåĪ©æĿ¥æľĢç»ĻåĬĽçļĦèĢģçīĮå¹³åı°":5795,"GV":5796,"æĸĩç«łæĿ¥æºĲï¼ļ":5797,"åħ±èµ¢":5798,"é«ĺæīĭ":5799,"Ġname":5800,"ç±¤":5801,"cIj":5802,"Ġagçİ¯äºļæ¸¸æĪı":5803,"èµĦæŀ":5804,"æİªæĸ½":5805,"åĲĮæĹ¶":5806,"åĢįæĬķ":5807,"æ±Łèĭı":5808,"è¡ĮåĬ¨":5809,"ĠçľŁéĴ±çľŁäººçĻ¾å®¶ä¹Ĳ":5810,"è±ĨæµĨåĬłçĽŁ":5811,"èŃ¦å¯Ł":5812,"éĻĲåĪ¶":5813,"è¿ŀéĶģåĬłçĽŁ":5814,"Ġæ»¦":5815,"Ġè£":5816,"ĠåĪĨäº«":5817,"çĶµçİ©åŁİ":5818,"ingle":5819,"vi":5820,"Ġæķ¦":5821,"å¯ĵ":5822,"Ijo":5823,"ºåįĹå¸Ĥ":5824,"Ġ},":5825,"å®ĺç½ĳæīĭæľºçīĪ":5826,"åĲīæŀĹ":5827,"Ġäºİ":5828,"æıĲåīį":5829,"ï¼Įå°±":5830,"æĸ°äº¬æĬ¥":5831,"Ġagçİ¯äºļæĹĹèĪ°åİħ":5832,"Ġåħ±":5833,".getElement":5834,"åİŁåĽł":5835,"è¿ĩç¨ĭ":5836,"Ġï¼ļ":5837,"User":5838,"Comment":5839,"Ġç»¿":5840,"Ġch":5841,"ĠèĹ":5842,"å£ģ":5843,".tv":5844,"ıåİ¿|":5845,"Show":5846,"æİ¨å¹¿":5847,"2åĪĨå½©":5848,"Ġ27":5849,"ĠçĻ¾å®¶äºĨ":5850,"Ġå¿ħèµ¢":5851,"çº·":5852,"éĤ£ä¸ª":5853,"ç§»åĬ¨":5854,"Ġfriend":5855,"èĥ½æºĲ":5856,"ä¸Ģç¯ĩæĸĩç«łï¼ļ":5857,"ĠåĽ½éĻħcc":5858,"Ġçİ¯äºļéĽĨåĽ¢ag":5859,"çĥŃçº¿":5860,"EL":5861,"ĠæłĩçŃ¾ï¼ļ":5862,"æĤī":5863,"é¢ĳéģĵ":5864,"Ġèĳ¡äº¬":5865,"åīµæ¥Ńè²¸æ¬¾":5866,"Ġéĥ¨":5867,"å¥ĭ":5868,"æīİ":5869,"æİ¨åĬ¨":5870,"Ċ2020-05":5871,"æĺ¯ä»Ģä¹ĪæĦıæĢĿ":5872,"Ġthis":5873,"è¨Ń":5874,"lc":5875,"ä¸ĢäºĽ":5876,"Ġç»ı":5877,"Ġæ¹ĸåįĹ":5878,"Ċ10":5879,"64":5880,"ï¼Ĭ":5881,"èĭı|":5882,"Ġçİ¯äºļAG":5883,"Ġéĥĳ":5884,"è£Ŀ":5885,"ĠçĶ³åįļ":5886,"åįķä½į":5887,"ç½ĳç«Ļå¤§åħ¨":5888,"åĴ¨":5889,"Ċéķ¿":5890,"Ġbet356å®ĺç½ĳ":5891,"Ġå°Ĭé¾Ļå¤ĩçĶ¨ç½ĳåĿĢ":5892,"WF":5893,"ç§ĳåŃ¦":5894,"Ġæłªæ´²":5895,"è´¦æĪ·":5896,"åĽ¾åºĵ":5897,"147":5898,"Ġagäºļæ´²æ¸¸æĪıéĽĨåĽ¢":5899,"æ¤į":5900,"åĢĭäºº":5901,"Ġç¼ĸ":5902,"é¥¼":5903,"XCI":5904,"éĹª":5905,"Ġæ²³åĮĹ":5906,"ç§Łè½¦":5907,"Ġcurrent":5908,"æ³¢|":5909,"ĠèģĤ":5910,"ä¸Ģæł·":5911,"0',":5912,"ä¸ĬåįĪ":5913,"è´¢ç»ı":5914,"éĻµåİ¿|":5915,"Ġè°ģ":5916,"åį·":5917,"rice":5918,"æľĢåĲİ":5919,"ç®ĹçĽĺ":5920,"ä¸»ä¹ī":5921,"ĠÃ":5922,"æĿ¯æĬķæ³¨":5923,"Ġä¸ª":5924,"Ġåĩ¯åıĳåľ¨çº¿å¹³åı°":5925,"æ¦Ĥ":5926,"ublis":5927,"Ġè®¢éĺħ":5928,"-5":5929,"Ġæ³ī":5930,"Ġåįĵ":5931,"ĠDe":5932,"Ġ50":5933,"commend":5934,"Ġæ¾³æ´²":5935,"YW":5936,"æīĺåħĭ":5937,"SH":5938,"å½©ç¥¨å¨±ä¹Ĳ":5939,"èĭ¹æŀľä¸ĭè½½":5940,"åħī|":5941,"éĻ¶|":5942,"Ġçī¹èī²æĹ©çĤ¹åĬłçĽŁåºĹ":5943,"UV":5944,":'0',":5945,"Ġç¤¾":5946,"èİŀ":5947,"yabo":5948,"gå¼Ģåħĥæ£ĭçīĮ":5949,"æĮĩåįĹ":5950,"éķ¿|":5951,"æ»¨|":5952,"çľŁäººå¹³åı°":5953,"obile":5954,"Ċ8":5955,"å¯º":5956,"¼|":5957,"ĠæĿľ":5958,"æ¨Ļç±¤":5959,"çīĪæľ¬ä¸ĭè½½":5960,"åĿ¡":5961,"åĪĢ":5962,"ï¿½ï¿½ï¿½ï¿½ï¿½ï¿½":5963,"å¨±ä¹Ĳç½ĳç«Ļ":5964,"Ġä¹¦":5965,"å¼Ģå¥ĸåı·çłģ":5966,"ä¸Ŀ":5967,"ĠçĻ½å°ıå§Ĳ":5968,"Ġç½ĳä¸ĬçĻ¾å®¶ä¹Ĳ":5969,"èı¯":5970,"é¡¿":5971,"æĸĭ":5972,"æķ°åŃĹ":5973,"è¯Ĺ":5974,"ĠåŁº":5975,"-3":5976,"Ġ/>":5977,"åł°":5978,"Ġèĭ¥":5979,"Ġagçİ¯äºļä¸ĭè½½":5980,"é«ĺ|":5981,"ĠåĪ©èİ±":5982,"å»ī":5983,"Ġä»»":5984,"èĥ¡":5985,"Ġ918åįļå¤©":5986,"æ£±|":5987,"Ċå½ĵåīį":5988,"é¦ĸ|":5989,"Ċåıĳè¡¨äºİ":5990,"Ċèį":5991,"ä¸°åİ¿|":5992,"æ°ĳä¸»åħļ":5993,"ĠéĦĤæīĺåħĭ":5994,"é¡»":5995,"ĠåºĶ":5996,"è´¨éĩı":5997,"Ċåĩ¤åĩ°ç½ĳ":5998,"éĶĢåĶ®":5999,"ç½ĳèµĮ":6000,"åĨ¬":6001,"Ġåįĸ":6002,"ä¸ĺ":6003,"åįł":6004,"ç¦ıåĪ©":6005,"ji":6006,"è²¼":6007,"Ġå¹¿è¥¿":6008,"æĮĩåĩº":6009,"Ġå®ľå®¾":6010,"ĠåįĹäº¬":6011,"èĩªçĶ±":6012,"ä»ĵ|":6013,"æĿ¾|":6014,"Ġ$(":6015,"è®©çĲĥ":6016,"åľĪ":6017,"ove":6018,"æ²Ĵ":6019,"ç»Łä¸Ģ":6020,"Ġ--":6021,"ĠéħĴåºĹ":6022,"Ġå°Ĭé¾Ļd88.com":6023,"_å¤§å°ı":6024,"æľīæ²¡æľī":6025,"å¾Į":6026,"æĴŀ":6027,"åĢįçİĩ":6028,"Ċå¤§ä¼Ĺ":6029,"Ġå¤§æĸ¹|":6030,"Ġfollow":6031,"éĺ´":6032,"Ġæ´ŀ":6033,".m":6034,"Ġatt":6035,"Ġåĩ¯åıĳAGæĹĹèĪ°":6036,"good":6037,"pr":6038,"Ġæµ®":6039,"åĤµåĭĻ":6040,"Ġçİ¯äºļagå¹³åı°":6041,"Ġå¯Ĩ":6042,"æľīæķĪ":6043,"Ġéķ¿æ²»":6044,"ãĢĤä½Ĩ":6045,"ç£Ĭ":6046,"åŁŁåĲį":6047,"äº§ä¸ļ":6048,"è¯Ī":6049,"ĠéĩįåºĨæĹ¶æĹ¶å½©":6050,"ĠSh":6051,"content":6052,"ï¼ļå½©ç¥ŀ":6053,"OL":6054,"Ġagäºļæ´²åĽ½éĻħ":6055,"æľºåľº":6056,"èµŀåĬ©":6057,"æĹº":6058,"å®£å¸ĥ":6059,"ä¸įéĻĲ":6060,"3N":6061,"Ġgroup":6062,"Ġagçİ¯äºļæ¸¸æĪıå¹³åı°":6063,"å¤§åĵģçīĮ":6064,"gãĢĳãĢĲ":6065,"Ġè®¸":6066,"å¨±ä¹Ĳappä¸ĭè½½":6067,"Ġk8å¨±ä¹Ĳå®ĺç½ĳåľ°åĿĢ":6068,"æī§è¡Į":6069,"Ġä¸Ĭé¥¶":6070,"ĠæŃ£çīĪ":6071,"icle":6072,"åĲĹ?":6073,"61":6074,"çİ¯å¢ĥ":6075,"Ġæ¹ĺæ½Ń":6076,"PT":6077,"Ġäºļæ¸¸åĽ½éĻħé¦ĸé¡µ":6078,"ĠéĶ¦":6079,"Ġ99":6080,"éĨ":6081,"Ġbet365æĢİä¹Ī":6082,"å¤§ä¸Ńå°ı":6083,"æį·":6084,"å¾®åįļ":6085,"Ċ2020-03":6086,"ĠèĤ¡ç¥¨":6087,"å¤ĸåĽ´365":6088,"blog":6089,"ĠçĶ·":6090,"âĢľä¸Ģ":6091,"Ġä½ľèĢħ":6092,"];":6093,"ä¸Ģä¸ĭ":6094,"å·¥åħ·":6095,"Ġä½³":6096,"æ·»":6097,"Ċéĺħè¯»":6098,"âĨĴ":6099,"éĭ":6100,"Ġç¿ģ":6101,"Ġ365ä½ĵèĤ²æĬķæ³¨æĢİä¹Ī":6102,"Ġç¢":6103,"Ġ~":6104,"ix":6105,"å¹¸":6106,"å¢ħ":6107,"ĠåĦ":6108,"able":6109,"åħ³éĶ®è¯į":6110,"ĠSe":6111,"è®¡ç®Ĺ":6112,"åı¯æıĲçİ°":6113,"Ġä¸´å¤ı":6114,"Ġï½":6115,"æĬĵ":6116,"ĠæĬļé¡º":6117,"ä¼ļåĳĺçĻ»å½ķ":6118,"åĪĨåĪĨæĹ¶æĹ¶å½©":6119,"Ġkb88åĩ¯æĹ¶":6120,"Ġåĩ¯8":6121,"Ġéĵģå²Ń":6122,"Ġå¤©ä¸ĭ":6123,"Ġåħī":6124,"èĬ³æĸĭ":6125,"¹åİ¿|":6126,"ĠåĪ©æĿ¥agåĽ½éĻħåİħ":6127,"Ġagçİ¯äºļå®ĺç½ĳæľĢä½³":6128,"à¤":6129,"ĠåĪĨåĪĨæĹ¶æĹ¶å½©":6130,"pm":6131,"è®°èĢħä¼ļ":6132,"æįķ":6133,"Ġæ¶¿":6134,"èŃīä»¶":6135,"Ġself":6136,"Ġist":6137,"ĠRo":6138,"æ£ĭçīĮapp":6139,"é¡¹çĽ®åĬłçĽŁ":6140,"File":6141,"0m":6142,"å¢ĵ":6143,"UN":6144,"Ġæĺ¾":6145,"Ġ365betæĢİä¹Ī":6146,"åľŁåľ°":6147,"Ġmain":6148,"Ġçİ¯äºļçĶµæ¸¸ç½ĳç«Ļ":6149,"æ´ª":6150,"æĸ¯ç§ĳ":6151,"Ġè§Ĩé¢ĳ":6152,"Ġnew":6153,"Ġ118":6154,"={":6155,"äºĭæķħ":6156,"åİĤå®¶":6157,"łåİ¿|":6158,"åĽ½|":6159,"æĻ¨":6160,"Ġdocument.getElement":6161,"Ġcon":6162,"ä¸»æĴŃ":6163,"éĿ©åĳ½":6164,"Ġè¿ŀäºĳ":6165,"è§¦":6166,"ĠæĿŃéĶ¦":6167,"ĠéĻķè¥¿":6168,"Ġä¼ł":6169,"è´Łè´£":6170,"çİĩåĪ©":6171,"ä¾¯":6172,"Ľåİ¿|":6173,"è²¨":6174,"ublished":6175,"åĵªè£¡":6176,"ç§Ĵç§Ĵ":6177,"Ġäº§åĵģ":6178,"åĢĴ":6179,"aWR":6180,"èĪŀ":6181,"-6":6182,"Ġ356betæĢİä¹Ī":6183,"ĠçıŃ":6184,"Ġçİ¯äºļagåĽ½éĻħåİħ":6185,"å²©|":6186,"ĠåºĦ":6187,"Ċé»ĳé¾Ļæ±Ł":6188,"æĿĲæĸĻ":6189,"å¯¸":6190,"ĠéĽĦå·ŀæĹ©é¤ĲåĬłçĽŁ":6191,"sed":6192,"æĸ°åįİç¤¾":6193,"Ġ75":6194,"ĠçĭĹä¸ĩå®ĺç½ĳ":6195,"ĠæĹ©é¤ĲåºĹåĬłçĽŁ":6196,"Ġåħ¨åĽ½":6197,"Ġï":6198,"Ġåį¢":6199,"Ġåĩ¯åıĳappä¸ĭè½½":6200,"åķı":6201,"ĠçĻ¾å®¶æ¬¢ä¹Ĳ":6202,"å±ı|":6203,"å¥³åŃĲ":6204,"ipad":6205,"Ġåı°åįĹ":6206,"å¢ŀéķ¿":6207,"Ġ}else":6208,"å°Ĭ":6209,"Ġéĺľæĸ°å¸Ĥ|":6210,"Ġæĸ½":6211,"Ġä¸ĵ":6212,"£ï¿½":6213,"px":6214,"åł¡":6215,"ä½Ļé¢Ŀ":6216,"Ġ29":6217,"ä¹Łæĺ¯":6218,"Ġsan":6219,"æ§":6220,"åĩºäºĨ":6221,"1åĪĨå½©":6222,"ermal":6223,"vince":6224,"jb":6225,"é¥Ń":6226,"Ġè´º":6227,"æµ®":6228,"è´Ńä¹°":6229,"çĨ±":6230,"èĩªæ²»åĮºæĶ¿åºľ":6231,"å¤§åĪ©äºļ":6232,"Ġå¤§åıĳå¤§åıĳå½©ç¥ŀ":6233,"æ°ĳæĹı":6234,"ĠçĽĺ":6235,"ä¿¡çĶ¨åį¡":6236,"çĨĬ":6237,"å¼ĢæĮĤ":6238,"Ġw66åĪ©æĿ¥èĢģçīĮ":6239,"7147":6240,"èĤ¡ä»½":6241,"IF":6242,"åĨ°":6243,"æ²§|":6244,"City":6245,"ä¿±ä¹Ĳ":6246,"åħĪçĶŁ":6247,"Ġç½ĳæĺĵåįļå®¢":6248,"Ġ47":6249,"Ġå¼Ģåħĥ":6250,"å¼ĢæĪ·å®ĺç½ĳ":6251,"ĠæļĤæĹłè¯Ħä»·":6252,"è¥¿åİ¿|":6253,"ä¿±ä¹Ĳéĥ¨":6254,"æĹ©æĬ¥":6255,"Ġwww":6256,"éĢłæĪĲ":6257,"ermalink":6258,"Ġç®Ģ":6259,"ĠåĸĢåĸĩ":6260,"ĠCopyright":6261,"2018å¹´":6262,"IH":6263,"Ġ365ä½ĵèĤ²æĬķæ³¨å¨±ä¹Ĳåľº":6264,"åĬ±":6265,"Ġæģ©":6266,"con:'',":6267,"ä¸ĭåįĪ":6268,"ĠçĶĺèĤĥ":6269,"xz":6270,"ä¸Ńåįİ":6271,"ĠTh":6272,"æĹĹèĪ°åİħä¸ĭè½½":6273,"æİĴåĪĹ3":6274,"4æľĪ":6275,"æĢ»çĲĨ":6276,"åĶĲ":6277,"ĠåŃĲ":6278,"na":6279,"Ġç»µ":6280,"é¦ĸéłģ":6281,"âĶ":6282,"Ċ2020-06":6283,"åıĮæĸ¹":6284,"Ġå·´å½":6285,"éŀĭ":6286,"this.p":6287,"Ġå¥³":6288,"Ġéĸ":6289,"Ġé¸¿è¿ĲåĽ½éĻħ":6290,"Ġsan7147":6291,"Ġsan7147çĻ¼è¡¨æĸ¼":6292,"ä¸ªæľĪ":6293,"GN":6294,"RE":6295,"ĠæŀģéĢŁpk10":6296,"å¤§çļĦ":6297,"à¸Ļ":6298,"ey":6299,"Ġæ¬¢":6300,"-4":6301,"ĳåİ¿|":6302,"ĠæĿ¥æºĲ:":6303,"Ġç«ĭåį³é¢Ħè®¢":6304,"æĭľ":6305,"æ±ī|":6306,"night":6307,"åĽŀåºĶ":6308,"Ġus":6309,"éĥİ":6310,"éĥ¸":6311,"Ġqu":6312,"æĸ¹ç½ĳ":6313,"Ġ88":6314,"s.":6315,"åºĶè¯¥":6316,"idu":6317,"æ°¸è¿ľå¤ļä¸ĢçĤ¹":6318,"CP":6319,"æĺ¯åĵª":6320,"ç¬¦":6321,"Ġå°ģ":6322,"è¾°":6323,"sh":6324,"åıĳè´¢":6325,"Ġæ²§":6326,"[],":6327,"Ġäºļç¾İç½ĳ":6328,"ĠagæĹĹèĪ°åİħä¸ĭè½½":6329,"Ġå¤©å¤©":6330,"èģĶç½ĳ":6331,"åľ¨çº¿æ³¨åĨĮ":6332,"çį":6333,"Black":6334,"ĠæĤ":6335,"ĠéĹ¨åºĹ":6336,"è¦ģå¤ļä¹ħ":6337,"¯éĥ¸":6338,"ĵå¤§åħ¨":6339,"Ġä¸¤":6340,"çİ»":6341,"æĸ°çļĦ":6342,"çĶľèľľ":6343,"Ġå°ļ":6344,"ĠST":6345,"æ¥¼å±Ĥ":6346,"å¼Ĥ":6347,"ĠæĢĿ":6348,"ĠæĮ":6349,"18æĹ¥":6350,"ç»ĥ":6351,"ition":6352,"æ¡Į":6353,"Ġpublis":6354,"è§Ħå®ļ":6355,"Ġåİ¦":6356,"ge":6357,"è©¢":6358,"Ċåįĥ":6359,"kw":6360,"ï¿½^":6361,"ï¼ģâĢĿ":6362,"Ġå¥½è¿Ĳå¿«3":6363,"å£ģ|":6364,"è¾½|":6365,"ĠisShow":6366,"Ġåįķ":6367,"å¹´èıľ":6368,"ĠçĻ»":6369,"ä½Ļ|":6370,"88çİ¯äºļ":6371,"118":6372,"Ċthis.p":6373,"bm":6374,"Ċthis.p={":6375,"Ġvote":6376,"ĠéĹ¨åºĹåľ°åĽ¾":6377,"æĳĺ":6378,"ĠåĪ©æĿ¥w66ç½ĳç«Ļ":6379,"ä¸Ģæ¬¡":6380,"çĢ¹":6381,"ç½Ĺ|":6382,"Time":6383,"é¡Į":6384,"è°ĭ":6385,"æ²Ł|":6386,"Id:0,":6387,"Ġéĺ²åŁİ":6388,"åŀ£|":6389,"è°ģæľī":6390,"æľŁè´§éħįèµĦ":6391,"ĠéŁ¶":6392,"YT":6393,"å¤ĸåĽ´åĲĹ":6394,"å®¢æĪ·ç«¯å®ĺç½ĳä¸ĭè½½":6395,"_åįķåıĮ":6396,"æĺ¯ä¸įæĺ¯":6397,"åĽ½å®¶çļĦ":6398,"é»ĳéĴ±":6399,"æĹ¥|":6400,"æľŁæľŁåĩĨ|":6401,"ç¦®":6402,"æĭĴç»Ŀ":6403,"ç¾İåħĥ":6404,"WD":6405,"åĿĹ":6406,"å²Ĺ|":6407,"äºĶåĪĨå½©":6408,"Ġçĸ¯çĭĤ":6409,"Ġç¹Ŀ":6410,"å²³|":6411,"Follow":6412,"æ¯ķ":6413,"ç¼º":6414,"Ġ0äºº":6415,"Ġrecommend":6416,"ä¿¡|":6417,"çĬ¹":6418,"Hotel":6419,"Ġ45":6420,"Ġå¿«ä¸ī":6421,"own":6422,"éĵľ":6423,"Ġan":6424,"ä¹īå¸Ĥ|":6425,"æµģ|":6426,"MB":6427,"æĪĲç«ĭ":6428,"æ°ı|":6429,"æĶ¹éĿ©":6430,"åĴ¨è¯¢":6431,"ĠæĶ¿":6432,"æ¶Īè´¹èĢħ":6433,"å¹²|":6434,"çİī|":6435,"img":6436,"ÑĤ":6437,"ä¼¦è´Ŀ":6438,"æĿ¥|":6439,"è´¤|":6440,"ç¥ĸ":6441,"æ³¨æĦı":6442,"èĩ³|":6443,"ç¥¥|":6444,"int":6445,"D1":6446,"å¼º|":6447,"æľºåĻ¨äºº":6448,"çļĩåĨłä½ĵèĤ²":6449,"ä¸¹|":6450,"Ġæ¸Ń":6451,"Ġåĩ¯åıĳé¦ĸé¡µ":6452,"Succ":6453,"tP":6454,"Ġæīĳåħĭ":6455,"èµĮçĲĥ":6456,"000',":6457,"ŀåŁİ|":6458,"º|":6459,"æĮĳ":6460,"çĿ£":6461,"ĠåĲīæľ¨":6462,"Ġ38":6463,"æĿ¥å°±éĢģ":6464,"St":6465,"CH":6466,"å¤©çĦ¶":6467,"éĻĨ|":6468,"Ġé»ĳé¾Ļæ±Ł":6469,"Ġbs":6470,"Ġé²ģ":6471,"åĿ¡|":6472,"Ġremind":6473,"åĪ°ï¼Į":6474,"æīİ|":6475,"Ġattach":6476,"ĠCCåĽ½éĻħ":6477,"æ¶¨":6478,"è¿·":6479,"éĩİ|":6480,"Published":6481,"Province":6482,"åĳĬè¯ī":6483,"åıĳè´¢ç½ĳ":6484,"åĩ¤|":6485,"ĠèĭĹ":6486,"pcèĽĭèĽĭ":6487,"éĽħ|":6488,"çĴĥ":6489,"å¤·":6490,"ĠçĿ":6491,"ĠPl":6492,"åĨ³å®ļ":6493,"ĠèµĮéĴ±çļĦè½¯ä»¶":6494,"Ġæ¥ļ":6495,"Ġlofter":6496,"aj":6497,"ä¼łåªĴ":6498,"_single":6499,"Ro":6500,"Ġæ·Ħ":6501,"æ£ĭ":6502,"6æľĪ":6503,"Ġå¿»":6504,"ĠçīŁ":6505,"Visitor":6506,"\").val":6507,"æľĢæĸ°çīĪ":6508,"ï¼Ĭï¼Ĭ":6509,"Ids:":6510,"none',":6511,"Ġw66åĪ©æĿ¥å®ĺç½ĳ":6512,"Ġ|ä¸¾æĬ¥":6513,"ear":6514,"Yod":6515,"æļĸ":6516,"Ġistop":6517,"Ġm:2,":6518,"Ġb:2,":6519,"Ġ|åŃĹåı·":6520,"æĺ¾ç¤ºï¼Į":6521,"Ġè¿Ľ":6522,"Ġ|åŃĹåı·å¤§ä¸Ńå°ı":6523,"ĠèĲ¨":6524,"ermalink:'',":6525,"ĠloftP":6526,"ĠloftPermalink:'',":6527,"æ²Ļå²Ľ|":6528,"æī¹åıĳ":6529,"Ġç¹ģ":6530,"æĪĲéĥ½":6531,"Ġattachments":6532,"set:'":6533,"Ġå¤§åıĳäºĶåĪĨéĴŁå¿«ä¸ī":6534,"ĠgroupInfo:{},":6535,"goodnight":6536,"Ġbsrk:-100,":6537,"Ġvote:{},":6538,"Ġsrk:-100,":6539,"Ġistop:false,":6540,"status:'un":6541,"Ġfriendstatus:'":6542,"Follow',":6543,"Ġfriendstatus:'none',":6544,"status:'unFollow',":6545,"ĠisBlack":6546,"NewUser":6547,"ĠvisitorProvince":6548,"ĠvisitorProvince:'',":6549,"Visitor:false,":6550,"ĠisBlackVisitor:false,":6551,"ĠvisitorNewUser":6552,"ĠvisitorNewUser:false,":6553,"ĠisPublished":6554,"ĠisPublished:1,":6555,"Ġfollowstatus:'unFollow',":6556,"ĠvisitorCity":6557,"FileIds:":6558,"ĠvisitorCity:'',":6559,"ĠattachmentsFileIds:":6560,"ĠattachmentsFileIds:[],":6561,"aoAd":6562,"ĠisShowYod":6563,"ĠisShowYodaoAd":6564,"ĠpostAdd":6565,"blog:false,":6566,"ĠpubSucc":6567,"Ġremindgoodnight":6568,"ĠpostAddInfo:{},":6569,"ĠpubSucc:'',":6570,"Ġremindgoodnightblog:false,":6571,"Ġmcon:'',":6572,"Ġpublisher":6573,"Ġmset:'":6574,"Ġmset:'000',":6575,"ĠcurrentRecomBlog":6576,"ĠcurrentRecomBlog:false,":6577,"Ġlofter_single":6578,"Ġlofter_single:'":6579,"Ġä½¿":6580,"æ£Ĵ":6581,"Ġå°Ħ":6582,"æĬµ":6583,"åĩ¯åıĳå®ĺç½ĳ":6584,"çļĦæ£ĭçīĮæ¸¸æĪı":6585,"æĹħè¡Į":6586,"Ġåĩ¯åıĳæīĭæľºapp":6587,"èĬ¬":6588,"ĠpublisherId:0,":6589,"ĠrecomBlog":6590,"ĠrecomBlogHome":6591,"Ġç§Ĵç§Ĵ":6592,"éĿĴå¹´åīµæ¥Ńè²¸æ¬¾":6593,"_app":6594,"æ³¨åĨĮåľ°åĿĢ":6595,"ign":6596,"Ġå¨Ħ":6597,"IT":6598,"çĶ·åŃĲ":6599,"Ñģ":6600,"Ġpc":6601,"Ġå®¢":6602,"é¢ĨåŁŁ":6603,"çĻ»ä¸įä¸Ĭ":6604,"ä½ĵå½©":6605,"SE":6606,"æ¯ıæĹ¥":6607,"æĸ¹ä¾¿":6608,"æĪ´":6609,"function()":6610,"ç¾Ĭ":6611,"ç»ıèĲ¥":6612,"éĶĺï¿½":6613,"è»Ĭè²¸":6614,"au":6615,"çŁ¿|":6616,"Ċå®īå¾½":6617,"å®ĺæĸ¹ç½ĳç«Ļä¸ĭè½½":6618,"æīĢä»¥":6619,"çĶľèľľç´ł":6620,"å¤§ä¼ļ":6621,"éĵ¶åķĨ":6622,"ç¬¬ä¸ī":6623,"Ġagçİ¯äºļ88":6624,"ĠçľŁäººèµĮéĴ±æ¸¸æĪı":6625,"è¦Ĩ":6626,"Ġå°Ĭé¾ĻäººçĶŁå°±æĺ¯åįļå®ĺç½ĳ":6627,"Ġ2019-01":6628,"ĠåĢĭ":6629,"ĠagæĹĹèĪ°":6630,"ä¸ĵå®¶":6631,"Ġè©ķ":6632,"çİ©å®¶":6633,"ÖĢ":6634,"ĠrecomBlogHome:false,":6635,"_è®¡åĪĴ":6636,"çĽĴå®Ŀåħ¸":6637,"Ġæ´¥":6638,"å²©":6639,"Ġéº¦":6640,"Ġ1å°ıæĹ¶åīį":6641,"ĠPower":6642,"Ġåĩ¯åıĳç½ĳç«Ļ":6643,"ĠåĲĪä½ľ":6644,"Ġå©":6645,"æ¸¸å®¢":6646,"ĠåĪ©æĿ¥æīĭæľºçīĪ":6647,"å·ŀç½ĳ":6648,"åĩłå¤©":6649,"ĠçĥŃ":6650,"åľ¨çº¿æĬķæ³¨":6651,"ĠæŃ¦æ±ī":6652,"åŃĺåľ¨":6653,"Ċ2020-08-0":6654,"ĠèĮĥ":6655,"åĸ®":6656,"å¼ĢæĪ·ç½ĳç«Ļ":6657,"MP":6658,"°ï¿½":6659,"ãĢĤçĽ®åīį":6660,"ä¸įç»Ļ":6661,"o.":6662,"Ġè·Ŀç¦»":6663,"Ġq":6664,"åħ¨å¤©è®¡åĪĴ":6665,"Ġæ¾³éĹ¨æ¸¸æĪıå¹³åı°":6666,"å¯»":6667,"æİĮ":6668,"å°İ":6669,"ç®Ģåįķ":6670,"Ġ60":6671,"åŁĥ":6672,"ĠæĪĲéĥ½":6673,"å¸¦ä¸Ģè·¯":6674,"æ±Łæĸ°éĹ»ç½ĳ":6675,"ĠçĶµåŃĲæ¸¸æĪıå¹³åı°":6676,"éĩĳå¸ģ":6677,"Ċ?":6678,"åĬłçĽŁç½ĳ":6679,"ĠåĪ©æĿ¥å®ĺæĸ¹ç½ĳç«Ļ":6680,"Ġè¶ħ":6681,"04æľĪ":6682,"åıĤä¸İ":6683,"æ¬¡æķ°ï¼ļ":6684,"æ£ĭçīĮ365":6685,"éĺ³åŁİ":6686,"Ġagçİ¯äºļå®ĺç½ĳçĻ»å½ķ":6687,"æİĪ":6688,"vent":6689,"ĊB":6690,"äººäºº":6691,"å¾·å·ŀæīĳåħĭ":6692,"å¼ĢæĪ·åľ°åĿĢ":6693,"åıĸå¾Ĺ":6694,"KT":6695,"æ³ķéĻ¢":6696,"ĠèįĶ":6697,"ç²¾èĭ±":6698,"Ġæ¾³éĹ¨èĳ¡äº¬":6699,"ä¼Ĺè®®éĻ¢":6700,"Ġå·¨":6701,"çļĦãĢĤ":6702,"Ġreserved.":6703,"çī¹åĮº":6704,"å¢Ļ":6705,"æīĭç»Ńè´¹":6706,"çİ©åĲĹ":6707,"Ġ40":6708,"é©°":6709,"é¦ĸæ¬¡":6710,"å¿ĥå¾Ĺ":6711,"Ġèı²å¾ĭå®¾":6712,"c0m":6713,"åľ£":6714,"à¸Ń":6715,"æĿŃå·ŀ":6716,"oog":6717,"Ġå¿«é¤Ĳ":6718,"Ġæ¾³éĹ¨æĸ°éĵ¶æ²³":6719,"SB":6720,"Ġæ±½":6721,"é¾":6722,"äººåı£":6723,"çĤ¹c0m":6724,"Ġios":6725,"çıłç©Ĩ":6726,"orm":6727,"ĊåĮĹ":6728,"AL":6729,"âķ":6730,"Ġä»ª":6731,"1æľĪ":6732,"itle":6733,"èģĬ":6734,"æµ·å¤ĸç½ĳ":6735,"åĽŀçŃĶ":6736,"éĨĴ":6737,"attr":6738,"ces":6739,"łéģĵ":6740,"Ġ365betå®ĺç½ĳå¨±ä¹Ĳåľº":6741,"èĻļ":6742,"è´¤":6743,"è¶£":6744,"OH":6745,"Ġæīĺåħĭ":6746,"Ġå¼Ģåħĥæ£ĭçīĮæ¸¸æĪı":6747,"æĺ¯çľŁå®ŀ":6748,"ç§¯æŀģ":6749,"Ġå¤§åıĳä¸īåĪĨéĴŁå¿«ä¸ī":6750,"åıĸæ¶Ī":6751,"oogle":6752,"æŁĵ":6753,"éīĦ":6754,"è´Ńå½©":6755,"Ġ3å°ıæĹ¶åīį":6756,"Ġuu":6757,"ç»Łè®¡":6758,"ĠéĴŁ":6759,"Ġor":6760,"baidu":6761,"ç»©":6762,"çľŁäººèµĮéĴ±":6763,"åľ°ä¸»":6764,"\">":6765,"Ġåı¯ä»¥":6766,"æ¤Ĵ":6767,"æīĵåį°":6768,"Ġåħ¨çĲĥ":6769,"Ġå¤§åıĳäºĮåĪĨéĴŁå¿«ä¸ī":6770,"çĤ¹åĩ»":6771,"ich":6772,"-9":6773,"Ġ2å°ıæĹ¶åīį":6774,"åĮĸå¸Ĥ|":6775,"Ċ-":6776,"ç§Łè½¦-":6777,"ä»¥ä¸ĭ":6778,"ç¨³èµ¢":6779,"ç½ĳåĿĢå¤ļå°ĳ":6780,"éĢıè§Ĩ":6781,"Ġagäºļæ´²å®ĺæĸ¹":6782,"åĭŀ":6783,"68":6784,"Ććą":6785,"ĠåĽŀ":6786,"cL":6787,"Ġæ¾³éĹ¨æ£ĭçīĮæ¸¸æĪı":6788,"Ġæ½ľ":6789,"çĻ¾ç§ĳ":6790,"Ċè´µå·ŀ":6791,"åħ³éĹŃ":6792,"Ġå±¯":6793,"Ġæº§":6794,"5åĪĨ":6795,"å¹¿åľº":6796,"ä½įäºİ":6797,"Ġæľ¬æºªå¸Ĥ|":6798,"({":6799,"ĠæĪĳè¦ģ":6800,"Ġ4å°ıæĹ¶åīį":6801,"mm":6802,"æĩī":6803,"cl":6804,"ĠæħĪ":6805,"ĠæĹ¥æľ¬":6806,"èĵ®":6807,"åĬª":6808,"Ġhmcon":6809,"å¨±ä¹Ĳåľ¨çº¿":6810,"Ċï¿½":6811,"Ġun":6812,"heck":6813,"ä¹Įçıłç©Ĩ":6814,"Ġ356betå¨±ä¹Ĳåľº":6815,"Ġà¸":6816,"é¦ħ":6817,"Ġäºļæ¸¸å®ĺç½ĳåıªä¸ºéĿŀåĲĮ":6818,"Ġ365æ£ĭçīĮèĭ¹æŀľ":6819,"Ġå®½":6820,"á»":6821,"å¿ł":6822,"è¯ĪéªĹ":6823,"Łåİ¿|":6824,"éĢĬ":6825,"æħ§":6826,"Ġ365æ£ĭçīĮèĢģèĻİæľº":6827,"3J":6828,"Ġ5åĪĨæĹ¶æĹ¶å½©":6829,"ä¿ĿæĮģ":6830,"å¿«ä¹Ĳ8":6831,"ĠæĸĹ":6832,"é£Łåĵģ":6833,"WV":6834,"åįĢ(":6835,"åľĸ":6836,"èİ·å¾Ĺ":6837,"åĪĨæİĴåĪĹä¸ī":6838,"Ġ5å°ıæĹ¶åīį":6839,"ç®ĹçĽĺå¼Ģå¥ĸç»ĵæŀľ":6840,"Ġ7å°ıæĹ¶åīį":6841,"åĪĨå¿«ä¹Ĳ8":6842,"è´«åĽ°":6843,"åĿĲ":6844,"Ġ9å°ıæĹ¶åīį":6845,"è®¡åĪĴapp":6846,"3æľĪ":6847,"xzZS":6848,"ç½ĳåıĭ":6849,"Ġ6å°ıæĹ¶åīį":6850,"Ijpm":6851,"YWxzZS":6852,"IjpmYWxzZS":6853,"èĻ½":6854,"Ġî":6855,"æīĭæľºç«¯":6856,"ä¹ĲåĽŃ":6857,"Ġ8å°ıæĹ¶åīį":6858,"ational":6859,"åį«æĺŁ":6860,"ç»ĻåĪ©çļĦèĢģçīĮ":6861,"-7":6862,"è·³":6863,"Ġæ½¼":6864,"ĠçľŁéĴ±çº¿ä¸Ĭ":6865,"Ġç¾İåĳ³":6866,"è¤":6867,"ccåĽ½éĻħ":6868,"ĠæĦı":6869,"Ġèĥ¶":6870,"Ġæ¸ħçľŁ":6871,"âĨ":6872,"åĵ¡":6873,"Ċ9":6874,"a)":6875,"Ġæĸĩç«ł":6876,"çīĪæĿĥ":6877,"CD":6878,"åģı":6879,"åĪ©æģ¯":6880,"ç½ĳåĿĢå¤ĩçĶ¨çĻ»å½ķ":6881,"æĹıèĩªæ²»å·ŀ":6882,"RecomBlogCount":6883,"ĠselfRecomBlogCount":6884,"èĥĨ":6885,"ĠæŀĹèĬĿ":6886,"å«Įçĸĳ":6887,"ç¡Ģ":6888,"8æľĪ":6889,"Ġè¡¢":6890,"ĠæĿ¨åĽ½ç¦ıéº»è¾£çĥ«":6891,"AX":6892,"ä½ľåĵģ":6893,"æ²³åįĹ":6894,"baidu.com/":6895,"16æĹ¥":6896,"åĽ½ä¼ļ":6897,"load":6898,"ãĢĳãĢĲpãĢĳãĢĲ>ãĢĳãĢĲ":6899,"Ġå¨ĺå®¶":6900,"çĦ¡":6901,"åĲķ":6902,"æ¹ĥ":6903,"å¸ķ":6904,"é¢¨":6905,"bt365":6906,"å¨ľ":6907,"ĠçĭĹä¸ĩæ»ļçĲĥ":6908,"ug":6909,"é¦ĸéĢī":6910,"83":6911,"æĥĬ":6912,"Ġ0å°ıæĹ¶åīį":6913,"ä¸ĭè½½appåľ°åĿĢ":6914,"é¦ħé¥¼":6915,"ĠæĪĳæĥ³":6916,"Ġè®°":6917,"è´Ńçī©":6918,"çºªå¿µ":6919,"uuå¿«3":6920,"çº¢é»ĳå¤§æĪĺ":6921,"ĠçĽĪ":6922,"Ġæ¡ĳ":6923,"Ġåı°æ¹¾":6924,"ä½łçļĦ":6925,"17æĹ¥":6926,"æĦıè§ģ":6927,"ĠæĹ©çĤ¹åĬłçĽŁè¿ŀéĶģ":6928,"olor":6929,"Ġæ¾":6930,"ãĢĳãĢĲ/":6931,"ç¹Ŀï½³":6932,"åĬŀåħ¬":6933,"è¯´æĺİ":6934,"10åĪĨå½©":6935,"é³":6936,"èģŀ":6937,"è®¤ä¸ºï¼Į":6938,"æļ´åĬĽ":6939,"éĬĢè¡Įè²¸æ¬¾":6940,"ä¸ľè¥¿":6941,"Ġè¿ģ":6942,"777":6943,"æīĭæľºå®¢æĪ·ç«¯app":6944,"Ġäºļç¾İçľŁäºº":6945,"æĺ¯æŃ£è§Ħ":6946,"Ġå¿«ä¹Ĳ":6947,"å¤ĸäº¤":6948,"ouse":6949,"ï¼Įå°Ĩ":6950,"365ä½ĵèĤ²åľ¨çº¿æĬķæ³¨":6951,"ï¼Įè®©":6952,"Ġéķ¿æ²Ļ":6953,"å¸ĸ":6954,"æĸĩæĺİ":6955,"QL":6956,"ĊN":6957,"éªŀï¿½":6958,"Ġçİ¯äºļæīĭæľº":6959,"åľ¨çº¿ä¸ĭè½½":6960,"Ġç¥ŀåĨľ":6961,"æĿ¯æĬķæ³¨365":6962,"act":6963,".html":6964,"åĪ©çĽĬ":6965,"Ġéĵ¶æ²³åĽ½éĻħ":6966,"ĠselfRecomBlogCount:'0',":6967,"Âł":6968,"é¦ħé¥¼åĬłçĽŁ":6969,"2018-0":6970,"è¯ĳ":6971,"åĨħèĴĻåı¤":6972,"ĊçĻ¾åº¦":6973,"ä¹Įçıłç©Ĩæ²ģæĹĹ|":6974,"Ġ$(\"#resp":6975,"å½©ç¥¨app":6976,"ç½ĳçĲĥ":6977,"you":6978,"Ġåĩ¯åıĳå®ĺç½ĳåħ¥åı£":6979,"Ġæľª":6980,"Ġåħ¬åı¸":6981,"Ġä¼ģ":6982,"Ġæ³¢":6983,"Ġ2010":6984,"é±¼åĦ¿":6985,"ĠCP":6986,"çĽ´æİ¥":6987,"æĺ¯ä¸Ģ":6988,"æĺ¯çľŁå®ŀåĲĹ":6989,"åĨ»":6990,"Ġçİ¯äºļçĶµæ¸¸æĥ³èµļå°±è½¬":6991,"Ġwe":6992,"Ġç§ĴéĢŁæĹ¶æĹ¶å½©":6993,"è§Ĥå¯Ł":6994,"CC":6995,"Ġwas":6996,"ĠèĵĿæľĪäº®":6997,"è¿ŀæİ¥":6998,"cond":6999,"èĻĳ":7000,"7æľĪ":7001,"å±ŀäºİ":7002,"å»ºçŃĳ":7003,"Ħĥ":7004,"Ġè±¡":7005,"ĠInt":7006,"æ¾³å¤§åĪ©äºļ":7007,"Ġ2020-05":7008,"åľ¨çº¿å¹³åı°":7009,"ĠèĪŀ":7010,"åį«çĶŁ":7011,"æĹħæ¸¸ç½ĳ":7012,"Ġçİ¯äºļæīĭæľºä¸ĭè½½":7013,"äºĨãĢĤ":7014,"Ġåħ³äºİ":7015,"Ġyour":7016,"pZH":7017,"åĲį|":7018,"æ³ķå¾ĭ":7019,"room":7020,"æīĳ":7021,"å¯¹æŃ¤":7022,"Ġman":7023,"å¦Ī":7024,"ä¹ĭä¸Ģ":7025,"èħĲ":7026,"5åĪĨå¿«3":7027,"IOS":7028,"Ġ58":7029,"ç§¦":7030,"Ġå·©":7031,"ç½ĳæĺĵ":7032,"Ġå¤ĸåĽ´è¶³çĲĥ":7033,"åįĩçº§":7034,"éĤ±|":7035,"éļĽ":7036,"Ġç¤¼":7037,"è³¼å±ĭ":7038,"Ġag88çİ¯äºļ":7039,"ĠmainComment":7040,"åİ¢":7041,"ä½ıå®¿":7042,"9æľĪ":7043,"ork":7044,"åıªæľī":7045,"äººçĶŁå°±æĺ¯æĲı":7046,"æĺ¯ä»Ģä¹Īç½ĳç«Ļ":7047,"Ġè½¬åıĳ":7048,"Ĉć":7049,"Ġ32":7050,"è¿Ļä¸Ģ":7051,"çĽŁ|":7052,"ä¸įåĩº":7053,"ä¸Ńæĸĩç½ĳ":7054,"Ġä¾Ŀ":7055,"Ġå¹¿åĳĬ":7056,"Ġ365æ»ļçĲĥçĽĺ":7057,"ĠéĦĤå·ŀ|":7058,"å»ºç«ĭ":7059,"IR":7060,"æľªçŁ¥":7061,"Ġ48":7062,"Ġåĸľ":7063,"èµ°åľ°":7064,"Ġæīĵ":7065,"Ġæĸ°å·´å°ĶèĻİå·¦æĹĹ|":7066,"æľ¬ç«Ļ":7067,"Ċ2018-01":7068,"ç¹ģ":7069,"Ġèķ":7070,"é«ĺéĢŁ":7071,"éĥµä»¶":7072,"ç¨ĭåºı":7073,"åĮ»çĸĹ":7074,"Ċéĺħè¯»(":7075,"add":7076,"Ġæĭľ":7077,"ĠåħĭæĭīçİĽä¾Ŀ|":7078,"å¹¿ä¸ľ":7079,"Ġ34":7080,"æ©Łè»ĬåĢŁæ¬¾":7081,"è®®åĳĺ":7082,"æľĢæĸ°ä½ĵèĤ²":7083,"éģĭ":7084,"App":7085,"Ġagå®ĺæĸ¹":7086,"é¾Ħ":7087,"çĻ»å½ķé¦ĸé¡µ":7088,"ĠagåĽ½éĻħäºļæ¸¸å®ĺç½ĳ":7089,"')":7090,"çľŁæŃ£":7091,"Ġè½¬åıĳ(":7092,"å¼Ģå±ķ":7093,"play":7094,"Ġâĸ":7095,"ï¿½|":7096,"ract":7097,"åŃĲéĥµä»¶":7098,"åĿı":7099,"ç¹Ŀï½¼":7100,"Ġçģ¯":7101,"Ġä¸Ńå¼ı":7102,"ç§ĭ":7103,"è¿ĻéĩĮ":7104,"1.2":7105,"åŃĺéĴ±":7106,"åĽŀå¤į":7107,"Ġå³¨çľ":7108,"å½ĵ|":7109,"æĮĤçīĮ":7110,"ç¶²ç«Ļ":7111,"æ¯ĶåĪĨç½ĳ":7112,"å¿ħé¡»":7113,"Ġ500":7114,"ĊM":7115,"script":7116,"Ġå¯ŁåĵĪå°Ķåı³ç¿¼ä¸ŃæĹĹ|":7117,"Ĳå±±|":7118,"å¤§å°ıåįķåıĮ":7119,"æŃĮè¯į":7120,"èİ²|":7121,"é¹¿|":7122,"çĩķçªĿ":7123,"Ġw66.comåĪ©æĿ¥":7124,"çĶµåı°":7125,".Company":7126,"Ġkgå¼Ģåħĥæ£ĭçīĮ":7127,"æĺĮå¸Ĥ|":7128,"åĽĽèĤĸ":7129,"è¿ĲèĲ¥":7130,"ä¸Ģé¡µ":7131,"çĭ®":7132,"æľīapp":7133,"Ġå¯ŁåĵĪå°Ķåı³ç¿¼åīįæĹĹ|":7134,"Ġä»£çĲĨ":7135,"éķ·":7136,"ĠæµİåįĹ":7137,"Ġå°Ĭé¾Ļd88ç½ĳåĿĢ":7138,"é²ģæľ¨":7139,"Ġbet365å¨±ä¹Ĳåľº":7140,"Ġç§ĳå°Ķæ²ģå·¦ç¿¼åĲİæĹĹ|":7141,"Ġç§ĳå°Ķæ²ģåı³ç¿¼ä¸ŃæĹĹ|":7142,"æ¹ĥæĸ°éĹ»":7143,"Ġè°ģæľī":7144,"é²ģæľ¨é½Ĳ":7145,"èĺŃ":7146,"line":7147,"_æ³¨åĨĮ":7148,"ç¦¾|":7149,"Ġæīĳåħĭä¹ĭæĺŁ":7150,"appå®ĺæĸ¹ä¸ĭè½½":7151,"Ġçİ¯äºļag88":7152,"Ċæĸĩç«łæĿ¥æºĲï¼ļ":7153,"å¹»":7154,"è¶ħè¿ĩ":7155,"ĠèĮ¶éĻµ|":7156,"Ġè´µå·ŀ":7157,"ä¸ĩåįļapp)":7158,"åĳ¨åĪĬ":7159,"å¼ĢæĶ¾":7160,"çļĦapp":7161,"Ġçª":7162,"Ġç§ĳå°Ķæ²ģå·¦ç¿¼ä¸ŃæĹĹ|":7163,"ary":7164,"ere":7165,"ĠInn":7166,"æ»ļçĲĥçĽĺ":7167,"Ċæ¹ĸåįĹ":7168,"Ġalert":7169,"æĭħä¿Ŀ":7170,"ree":7171,"ous":7172,"Ġèµµ":7173,"Ġå·²":7174,"ç¥Ŀ":7175,"é©¬æĬ¥":7176,"æļĹ":7177,"è®¨":7178,"Ġæ¾³åįļ":7179,"Ġ365ä½ĵèĤ²ç½ĳæĬķ":7180,"ĠĠĠĠ":7181,"åı°åĮĹ":7182,"rand":7183,"Ġ31":7184,"Ġfalse;":7185,"Ġæ¾³éĹ¨å¨ģå°¼æĸ¯äºº":7186,"çİ¯äºļçľŁäººæ¸¸æĪıå¹³åı°":7187,"Õ¸":7188,"ç»ıçĲĨ":7189,"}}":7190,"io":7191,"èĲĦäº¬":7192,"iver":7193,"çī¹åı³æĹĹ|":7194,"è¦½":7195,"ĠæĺĤ":7196,"éĺ»":7197,"Ċçī¹èī²":7198,"GL":7199,"åľ°ä¸ĭ":7200,"¿¥":7201,"Ħà¸":7202,"å¸«":7203,"èī¾":7204,"Ġ55":7205,"ĠUn":7206,"å®¶åºŃ":7207,"éĹ®é¢ĺï¼Į":7208,"å¸®åĬ©":7209,"èĢĢ":7210,"ength":7211,"Ġçº³":7212,"Ġ49":7213,"s.com":7214,"Ġç¼ĸè¾ĳ":7215,"èĪĩ":7216,"äººçī©":7217,"äººå£«":7218,"Ġ365ä½ĵèĤ²æĬķæ³¨æıĲæ¬¾":7219,"Ġ2011":7220,"oZ":7221,"ëĭ":7222,"æģ¶":7223,"Ġæł¼":7224,"ner":7225,"åĳ¨å¹´":7226,"çı¾éĩĳ":7227,"GH":7228,"Ġä½ı":7229,"åħīæĺİ":7230,"ĠåĮº":7231,"Ġéĺ¿åĭĴ":7232,"Ġnot":7233,"Ġç±»ä¼¼":7234,"/æĹ¥":7235,"ĠçĥŁ":7236,"ç´¹":7237,"Ġäºļæ´²çİ¯äºļçľŁäººæ¸¸æĪıå¹³åı°":7238,"Ġ100":7239,"Ġå°Ĭé¾Ļå¤ĩçĶ¨å¼ĢæĪ·":7240,"é«ĺæ¸ħ":7241,"ĠçķĻ":7242,"ĠèĶ":7243,"æĲŃ":7244,"æľĢç»Ī":7245,"ç»ıè¿ĩ":7246,"ĠĈą":7247,"åŁºç¡Ģ":7248,"éĵģè·¯":7249,"Ġ3åĪĨæĹ¶æĹ¶å½©":7250,"Ċ(":7251,"EN":7252,"ĠéĹ½":7253,"Ġ51":7254,"è¹":7255,"æĶ¶èĹı":7256,"ĠäºĶèĬ³æĸĭ":7257,"æĢ»ä¹¦è®°":7258,"æľĢä½³çľŁäººæ¸¸æĪı":7259,".in":7260,"äºĶå¤§":7261,"appä¸ĭè½½å®īè£ħ":7262,"Ġ365betå¨±ä¹Ĳåľº":7263,"SP":7264,"æ£ĭçīĮå®ĺç½ĳ":7265,"Ġè¿Ĳ":7266,"å®īåįĵappä¸ĭè½½":7267,"ĠæŀģéĢŁèµĽè½¦":7268,"çĭĲ":7269,"ä»»åĬ¡":7270,"ãĢİ":7271,"lx":7272,"ç½ļ":7273,"ĠäºļæĲıè§Ĩé¢ĳ":7274,"èµĦæŀĵå¤§åħ¨":7275,"Ġå¤§åıĳå¿«ä¸īå½©ç¥¨":7276,"ç»´ä¿®":7277,"ĠâĢ¦":7278,"ĠåµĬ":7279,"åĸĢ":7280,"çĤ¹åį¡":7281,"65":7282,"Ġåĩ¯åıĳæ³¨åĨĮå¹³åı°":7283,"çī©æµģ":7284,"8ä¸ĭè½½":7285,"Ġ1åĪĨæĹ¶æĹ¶å½©":7286,"Ġçİ¯äºļæľĢä½³çľŁäººæ¸¸æĪı":7287,"ä¾µ":7288,"ÄŁ":7289,"ider":7290,"éĿłè°±ä¹Ī":7291,"ç½ĳä¸Ĭæ³¨åĨĮ":7292,"Ġbet365æıĲæ¬¾":7293,"é¼ĵ":7294,"æľĢå¤§çļĦ":7295,"åľ¨çº¿è®¡åĪĴ":7296,"æĮĩå®ļ":7297,"éª¨":7298,"åŃĻ":7299,"ĠblogTag":7300,"å¤©çĦ¶æ°Ķ":7301,"Ġéĺ¿èį£":7302,"åħ¬åĽŃ":7303,"éłŃ":7304,"off":7305,"af":7306,"rem":7307,"ĠblogTag:'',":7308,"æ£®æŀĹ":7309,"ĊèįĨ":7310,"é¦¬":7311,"ä»ĭç´¹":7312,"ä»¥æĿ¥ï¼Į":7313,"éĢĥ":7314,"è¡Ĺæľº":7315,"çº¿ä¸Ĭå¹³åı°":7316,"å¸Ŀ":7317,"Ġæĺ¾ç¤ºåħ¨éĥ¨":7318,"å¹´åº¦":7319,"Ġ90":7320,"IV":7321,"Ġå¼¥":7322,"åħ¨æ°ĳ":7323,"åĽŀå½Ĵ":7324,"çŁ³ç£Ĭ":7325,"ĊéĻķè¥¿":7326,"å©´":7327,"Ġåĩ¯åıĳå¤ĩçĶ¨":7328,"åľ¨çº¿å®ĺç½ĳ":7329,"æ°´å¹³":7330,"Ġå·«":7331,"oft":7332,"å®īåįĵä¸ĭè½½":7333,"Ð½":7334,"ä¹Ĳå½©":7335,"Ġ64":7336,"Ġäºļæ¸¸å®ĺæĸ¹ç½ĳç«Ļ":7337,"ç¦ıå»º":7338,"æł¼éĩĮ":7339,"Class":7340,"çģ¾":7341,"Ġçİ¯äºļagçĶµæ¸¸":7342,"UD":7343,"ĠæĽ´å¤ļ":7344,"ç´¯":7345,"Jhb":7346,"Ġ94":7347,"éģ¿":7348,"æ¡ĳ":7349,"äºĪ":7350,"ĠagçĽ´æĴŃ":7351,"ĠåĪ©æĿ¥ç½ĳç«Ļ":7352,"Ċä»ĬæĹ¥":7353,"à¸¥":7354,"ĠçŁ³å®¶åºĦ":7355,"å¤ļä¹ħåĪ°":7356,"Ġå¯»":7357,"æĪĳçļĦ":7358,"Ġç¶²":7359,"åĽ¢éĺŁ":7360,"çĶŁæĢģ":7361,"æľĿé²ľ":7362,"Ġagçİ¯äºļå®ĺç½ĳå¹³åı°":7363,"èĭ¥":7364,"èĥ½åĬĽ":7365,"Ġçİ¯äºļçĶµæ¸¸å¨±ä¹Ĳå®ĺç½ĳ":7366,"Ġçİ¯äºļ88":7367,"è²¸æ¬¾çİĩåĪ©":7368,"Ġæ¾³éĹ¨èµĮæĲı":7369,"èİĬ":7370,"ï¼Įæ¯ı":7371,"éĩĬ":7372,"æľ¨èĪĴ":7373,"ï¼Įç¾İåĽ½":7374,"Ġå²ĳ":7375,"Ľï¿½":7376,"Ġéĺ¿èį£æĹĹ|":7377,"12æľĪ21æĹ¥":7378,"Ġ{{":7379,"æĿĤ":7380,"Ġagçİ¯äºļçĶµæ¸¸å®ĺç½ĳ":7381,"ect":7382,"Ġçİ¯äºļéĽĨåĽ¢æīĭæľºçīĪ":7383,"Ġä¼ĺ":7384,"Ġå¼Ģå¥ĸ":7385,"åıĭæĥħéĵ¾æİ¥":7386,"Ġ365ä½ĵèĤ²æĬķæ³¨å¹³åı°":7387,"å¯¹äºİ":7388,"éº»å°Ĩ":7389,"Ġå°Ĭé¾ĻäººçĶŁå°±æĺ¯åįļæĹ§çīĪ":7390,"Ġç£Ĳ":7391,"æĹĹèĪ°ä¸ĭè½½":7392,"ï¼Įè¿ĺ":7393,"è½¦|":7394,"ä¿®å¤į":7395,"è¿ĲåĬ¨":7396,"OR":7397,"ï¼Įä»İ":7398,"å·¥ç¨ĭå¸Ī":7399,"91":7400,"300":7401,"Ġå¤§åıĳåįģ":7402,"EX":7403,"ĠæŀģéĢŁé£ŀèīĩ":7404,"ĠåĽ¾æľ¨èĪĴ":7405,"Ġ37":7406,"è®¾æĸ½":7407,"åĪĨèµĽè½¦":7408,"ĠagçľŁäººåľ¨çº¿":7409,"ï¼ĳ":7410,"Ġ44":7411,"Ġä½¿çĶ¨":7412,"Ġz":7413,"æ¾İæ¹ĥæĸ°éĹ»":7414,"Ġæ¾³éĹ¨åħŃä¸ĭ":7415,"AB":7416,"ĠagçľŁäººæ¸¸æĪı":7417,"ĠæĹ¬":7418,"Ġæł¾":7419,"çĮª":7420,"åħ¬åĳĬ":7421,"Ġæ±¾":7422,"CN":7423,"å¼ºè°ĥ":7424,"Ġæ·³":7425,"çİ°éĩĳå®ĺç½ĳ":7426,"æ·»åĬł":7427,"Ġæ¾³éĹ¨ç½ĳç«Ļ":7428,"Ġä¹ħ":7429,"Ġæ±¶":7430,"è§ĦåĪĴ":7431,"2N":7432,"Ġ85":7433,"Ġå°ī":7434,"éĽĻ":7435,"Ġè´¢":7436,"Ġæ¹Ł":7437,"UF":7438,"Ab":7439,"åħĥèµ·":7440,"Ġæ¡ĵ":7441,"ĠäººçĶŁå°±æĺ¯åįļ":7442,"Ġæ¾³éĹ¨æĬķæ³¨":7443,"ĠæŁĺ":7444,"åıĺåĮĸ":7445,"Ġçĸı":7446,"å½ĵå¤©":7447,"å¸Ĥæ°ĳ":7448,"èŃ·":7449,"ç±»åĬłçĽŁ":7450,"ted":7451,"æ³¨åĨĮé¦ĸé¡µ":7452,"åı°åİ¿|":7453,"Ġå¤©å³":7454,"Ġåı¶":7455,"çĽ´èĲ¥ç½ĳ":7456,"ify":7457,"æµł":7458,"Ġæ²ħ":7459,"Ġæ¶ŀ":7460,"isc":7461,"(ä¸ĩåįļapp)":7462,"æ¶§|":7463,"Ġæ²¾":7464,"ç»ŁæĹ©é¤ĲåºĹåĬłçĽŁ":7465,"æ¯ĶåĪĨ365":7466,"td":7467,"æĢ»éĥ¨":7468,"éĤ£ä¹Ī":7469,"32":7470,"åĨįæ¬¡":7471,"ire":7472,"Ċç¾İåĽ½":7473,"äº¿åħĥ":7474,"Ċæ±Łèĭı":7475,"ĠæĪĸ":7476,"ĠçĮ":7477,"ĠåĵĪå°Ķ":7478,"çļĦå¤§":7479,"Ġ365betæıĲæ¬¾":7480,"æ»ĳ":7481,"æĶ¾å¿ĥ":7482,"ath":7483,"ĠâĶ":7484,"Ġæ¶Ł":7485,"Ġæİª":7486,"åŃľ":7487,"Ġtrue":7488,"æī¾åĪ°":7489,"åħįè´¹è®¡åĪĴ":7490,"éŀį":7491,"ç¾¤ä¼Ĺ":7492,"Ġæ²¹":7493,"Ġç¾İåĽ½":7494,"å¤®è§Ĩè®°èĢħ":7495,"Ġbet36ä½ĵèĤ²æĬķæ³¨":7496,"s,":7497,"å±¯":7498,"æı¡":7499,"Ġèį¥":7500,"æĸĩåŃĹ":7501,"éĴĪå¯¹":7502,"ä¸ĢæľŁ":7503,"ĠAGçİ¯äºļç½ĳåĿĢ":7504,"ç²®":7505,"Ġ365betå®ĺç½ĳæıĲæ¬¾":7506,"è§Ħæ¨¡":7507,"è®¸åı¯":7508,"Ġagä¸ĭè½½":7509,"Ġcan":7510,"ä¸Ģå®ļ":7511,"length":7512,"ç¡¬":7513,"az":7514,"Ġall":7515,"ĠrecommendCount:0,":7516,"çĽ®æłĩ":7517,"stract":7518,"Ġ98":7519,"çĬ¶æĢģ":7520,"ĠisShowYodaoAd:false,":7521,"æĪĸèĢħ":7522,"Ġæĸ°å®¾|":7523,"çŁ¿":7524,"Ġèħ¾è®¯åĪĨåĪĨå½©":7525,"4-10":7526,"Ġagçİ¯äºļå¤ĩçĶ¨ç½ĳåĿĢ":7527,"é«ĺéĽĦ":7528,"æ³ķåĽ½":7529,"Ġbet.":7530,"bt":7531,"å¿«éĢĴ":7532,"å¹ħ":7533,"çĽĳç®¡":7534,"éĩĮå·´":7535,"OB":7536,"ãĢı":7537,"ish":7538,"åĪĽæĸ°":7539,"Ġè¿Ļ":7540,"åĪ¶è£ģ":7541,"Ġw66åĪ©æĿ¥æīĭæľºapp":7542,"éľį":7543,"åı¯ä¿¡":7544,"åıĤè®®éĻ¢":7545,"ļĮ":7546,"éĬĢè¡Įä¿¡è²¸":7547,"ä¸ĩåįļä½ĵèĤ²app":7548,"å¨±ä¹Ĳä¸ĭè½½":7549,"å¯¿":7550,"æĪĺçķ¥":7551,"çĺ":7552,"åĩºåĶ®":7553,"Ġå°Ĭé¾Ļä¸ĭè½½":7554,"ĥå£°":7555,"Int":7556,"2l":7557,"Ġäºļæ¸¸ç½ĳåĿĢ":7558,"é©Ĺ":7559,"ä½ľæĸĩ":7560,"éĬ·":7561,"çľĭåĪ°":7562,"Ġ`":7563,"GD":7564,"ãĢĤæŃ£æĸĩå·²ç»ĵæĿŁï¼ĮæĤ¨åı¯ä»¥æĮīalt+4è¿Ľè¡Įè¯Ħè®º":7565,"èµ¶éĽĨ":7566,"å®ŀåĬĽ":7567,"èĦ±è´«":7568,"Ġ2.0":7569,"æ¶¯":7570,"Ġmy":7571,"è¢Ń":7572,"Ġè¥¿çĶ²":7573,"Ġç¦Ħ":7574,"ĊæĺĨ":7575,"ãĢĳãĢĲl":7576,"ãĢĳãĢĲaãĢĳãĢĲ":7577,"Ġ65":7578,"çĶ³è«ĭ":7579,"Ġå¥ĩ":7580,"äºĭå®ŀ":7581,"mp":7582,"'s":7583,"ĠçĭĹä¸ĩ-":7584,"Ġå°Ĭé¾ĻäººçĶŁ":7585,"Ġagç½ĳæĬķ":7586,"ç½ĳç»ľå¹³åı°":7587,"ĊæĹ¶éĹ´:":7588,"ĠçĶ¨":7589,"èĢĥè¯ķ":7590,"dH":7591,"æ³µ":7592,"ĠåĨľ":7593,"æľĢå¤ļ":7594,"MF":7595,"96":7596,"Ġ1åĪĨpk10":7597,"????????":7598,"Ġä½ĵèĤ²365":7599,"åºĶçĶ¨":7600,"æ¾¶":7601,"Ċæ¹ĸåĮĹ":7602,"å±ķç¤º":7603,"Ċéĩĳ":7604,"ä¸»å¸Ńä¹łè¿ĳå¹³":7605,"Ļåİ¿|":7606,"åĪĨé¡ŀ":7607,"èĪªç©º":7608,"èģĮä¸ļ":7609,"Ġåł":7610,"Ġagçİ¯äºļçĶµæ¸¸ç½ĳåĿĢ":7611,"ĠéĤ¢":7612,"å«Įçĸĳäºº":7613,"Ġå°Ĭé¾Ļæĸ°çīĪ":7614,"Ġen":7615,"Ġçİ¯äºļçĻ¾å®¶ä¹Ĳ":7616,"çº½":7617,"âĢķå¤§åıĳ":7618,"ĠagçĻ»å½ķ":7619,"Ġçº¿ä¸ĬçľŁäººåıĳçīĮ":7620,"Ġæľīä»Ģä¹Ī":7621,"éĹªéĢĢ":7622,"Ġdo":7623,"Ġ46":7624,"Ġ()":7625,"ĠagåĽ½éĻħåİħä¸ĭè½½":7626,"ĊW":7627,"æģ¢":7628,"éªĹåŃĲ":7629,"åĬŁèĥ½":7630,"å°ıé¡įä¿¡è²¸":7631,"ĠçĻ¼":7632,"æ¡ĥåľĴ":7633,"ĠPowered":7634,"Ġç¾":7635,"åĲ¨":7636,"éĻ¤äºĨ":7637,"æķħäºĭ":7638,"Ġ68":7639,"ĊåķĨ":7640,"æĬ±":7641,"Ġè¿ŀéĶģ":7642,"å°ĸ":7643,"Ġ80":7644,"æļĤ":7645,"èªª":7646,"1000":7647,"å®¹æĺĵ":7648,"à¹Ī":7649,"Ġçİ¯äºļä¸ĭè½½":7650,"eries":7651,"èģĶåĲĪåĽ½":7652,"åĪĨå¿«ä¹Ĳåħ«":7653,"ç©ºéĹ´":7654,"åŃ¦éĻ¢âĸ³":7655,"é¢Ħè®¡":7656,"ãĢĤæŃ¤":7657,"è¡ĵ":7658,"çķħ":7659,"åĪ¶ä½ľ":7660,"èħ¦":7661,"æŁ³":7662,"åıĤèĢĥ":7663,"Ĥ¬":7664,"ä¸ļåĬ¡":7665,"èĲ¥|":7666,"ÑĢ":7667,"json":7668,"éĻ·":7669,"Ġ33":7670,"Ġä¹¦åºĹåĬłçĽŁ":7671,"æĶ¶åħ¥":7672,"ä¸įæĸŃ":7673,"Ġ95":7674,"Ġå¼Ģåħĥæ£ĭçīĮçĤ¸éĩĳèĬ±":7675,"åĸľæ¬¢":7676,"æ¨£":7677,"åıĳè¨Ģ":7678,"Ġå°Ĩ":7679,"Abstract":7680,"æīĭæľºçīĪå®¢æĪ·ç«¯":7681,"å·ŀäºĮæīĭè½¦":7682,"Ġç«ŀ":7683,"Ġä¹¾":7684,"æĹĹèĪ°çīĪ":7685,"2017å¹´":7686,"å¸½":7687,"type":7688,"å¨±ä¹Ĳæ³¨åĨĮ":7689,"Abstract:'":7690,"text":7691,"Ġ2020-02-25":7692,"å®īæĸ°éĹ»ç½ĳ":7693,"mF":7694,"æĤ£":7695,"æľįåĬ¡åĻ¨":7696,"çĬ¯ç½ª":7697,"æ¶²":7698,"é©¾é©¶":7699,"ĠæĿ±":7700,"Ġæ¾³éĹ¨çļĩåĨł":7701,"å¿«æĬ¥":7702,"è¢«å°ģ":7703,"å¢ŀåĬł":7704,"èĻŁ":7705,"Ġd88å°Ĭé¾Ļå¤ĩçĶ¨ç½ĳåĿĢ":7706,"éĢīæĸĻ":7707,"åħ±åĴĮåĽ½":7708,"agåıĳè´¢ç½ĳ":7709,"Ċç¾İ":7710,"å¨ģ|":7711,"Ġæĺ¾ç¤ºåħ¨éĥ¨æ¥¼å±Ĥ":7712,"åĬŀæ³ķ":7713,"Ġéĩĳæ²Ļ":7714,"ç»¿èī²":7715,"Ġç³":7716,"Ġç½ĳä¸ĬçĻ¾å®¶":7717,"éģĶ":7718,"åħ¨æĸĩ":7719,"èĳ£":7720,"åįĵäºĳ":7721,"âĺħ":7722,"rc":7723,"var":7724,"åı¯ä»¥ä¹°":7725,"æľīäºº":7726,"nti":7727,"è½¨":7728,"ï¿½_":7729,"Ċ2019-07":7730,"item":7731,"Ċä¸ŃåĽ½è¥¿èĹı":7732,"ajax":7733,"YP":7734,"åĪ¶åº¦":7735,"ĠèıłèıľäººçĶµç«ŀ":7736,"çŀ":7737,"WJ":7738,"è¿Ĳè¾ĵ":7739,"æĬ½":7740,"çľŁéĴ±æ£ĭçīĮ":7741,"Ġæ¾İ":7742,"Ġé¹°æ½Ń|":7743,"ĊæĤ¨çİ°åľ¨":7744,"å¿«ä¹Ĳ10åĪĨ":7745,"UUå¿«ä¸ī":7746,"Ġå¤§åıĳ2åĪĨå½©":7747,"ï¼ļ0":7748,"éªĹäºº":7749,"æľįåĭĻ":7750,"Ġæģ¯":7751,"3)":7752,"éīĦç®ĹçĽĺå¼Ģå¥ĸç»ĵæŀľ":7753,"åĵªä¸ªå¹³åı°":7754,"åįĶ":7755,"cation":7756,"éĥ¨|":7757,"Ġéļı":7758,"ates":7759,"ĊL":7760,"Ċæīĭæľº":7761,"çĩĥ":7762,"åĩºçīĪç¤¾":7763,"Ġ365ä½ĵèĤ²å®ĺç½ĳ":7764,"GF":7765,"Ġ67":7766,"æ±Łè¥¿":7767,"sun":7768,"ĠçĻ¾å®¶åĪ©":7769,"Ġçİ¯äºļæ¸¸æĪıå¹³åı°":7770,"Ġagå®ĺç½ĳ":7771,"«|":7772,"å°Ķå¤ļ":7773,"æıĲ|":7774,"æ£ĭçīĮappä¸ĭè½½":7775,"å¢¨":7776,"Ġä¸ľè¥¿":7777,"Ġ&&":7778,"ä¸º|":7779,"ç¸º":7780,"sl":7781,"æĹħé¤¨":7782,"Ġ356betæıĲæ¬¾":7783,"ĠéŃ":7784,"ĠèİĴ":7785,"è´·":7786,"Ġ77":7787,"MN":7788,"·åİ¿|":7789,"å·¦åı³":7790,"Ġç§Ģ":7791,"ZX":7792,"ç½ķ":7793,"âĢĿâĢľ":7794,"ãĢĳãĢĲ;ãĢĳãĢĲ":7795,"æĹ¶æĹ¶å½©å¹³åı°":7796,"Ġæ½į":7797,"å¾Īå¿«":7798,"åĳ¨|":7799,"Ġä¿¡èªīå¥½çļĦ":7800,"ä¾¦":7801,"Ñĥ":7802,"1',":7803,"è¶³çĲĥæ¯ĶåĪĨ":7804,"OX":7805,"ById":7806,"åĶĲ|":7807,"22æĹ¥":7808,"ãĢĳãĢĲ2ãĢĳãĢĲ":7809,"VI":7810,"å¡ŀ|":7811,"æĿ¥è¶Ĭ":7812,"Ġè¥¿å³¡|":7813,"å®ĺæĸ¹ä¸ĭè½½ç½ĳç«Ļ":7814,"Ġçİ¯äºļçĶµæ¸¸ä¸ĭè½½":7815,"å·¥ä¸ļ":7816,"å°±æĺ¯åįļ":7817,"åŁĶ|":7818,"åĬĽéĩı":7819,"é¥®åĵģ":7820,"ĠAN":7821,"Ġ5åĪĨpk10":7822,"çĥ§":7823,"Ġ54":7824,"ĠåĪ©æĿ¥æ£ĭçīĮ":7825,"è¼ī":7826,"ï¼ĮçĽ®åīį":7827,"æ¯Ķè¾ĥ":7828,"é¹ı":7829,"ç¿°":7830,"ç½ĳç«Ļ_":7831,"æĭ¥":7832,"Ġå³¨çľīå±±|":7833,"arch":7834,"è¶ĬæĿ¥è¶Ĭ":7835,"à¹ī":7836,"éĺ¶":7837,"æµıè§ĪåĻ¨":7838,"Ġä¸ľè¥¿æ¹ĸ|":7839,"(\"#":7840,"ĊG":7841,"ĠåĵªéĩĮ":7842,"è©ķåĥ¹":7843,"pb":7844,"çĶ±äºİ":7845,"éĦī":7846,"è¿Ļç§į":7847,"ĠblogAbstract:'":7848,"Ġåŀ¦":7849,"æĿ¥åĪ°":7850,"Ġagçİ¯äºļéĽĨåĽ¢å¨±ä¹Ĳ":7851,"Ġè»":7852,"çĶŁåĳ½":7853,"éº¦":7854,"è§£æĶ¾":7855,"ä¸ĢãĢĳãĢĲ":7856,"æİ¨èĸ¦,":7857,"æĻ®éĢļ":7858,"åīįï¼Į":7859,"çľĭæĸ°éĹ»ç½ĳ":7860,"Ġä¹Įæĭīçī¹åīįæĹĹ|":7861,"è¯Ħçº§":7862,"æ£ł":7863,"Ġagçİ¯äºļæīĭæľºçīĪ":7864,"æīĢåľ¨":7865,"appæīĭæľºçīĪ":7866,"èĴĤ":7867,"ĠåľŁé»ĺçī¹å·¦æĹĹ|":7868,"è¯¦æĥħ":7869,"åı·ï¼ļ":7870,"Ġä¹Įæĭīçī¹ä¸ŃæĹĹ|":7871,"-ä½ĵèĤ²æĬķæ³¨":7872,"Ġèĭıå°¼çī¹å·¦æĹĹ|":7873,"æıĲé«ĺ":7874,"éĿŀæ³ķ":7875,"Ġéĺ¿æĭīåĸĦå·¦æĹĹ|":7876,"news":7877,"ĠéĤĵ":7878,"Ġagäºļæ´²åĽ½éĻħæ¸¸æĪı":7879,"Ċçľĭçľĭæĸ°éĹ»ç½ĳ":7880,"Ġ39":7881,"åĴĮåİ¿|":7882,"ä¸²ä¸Ģ":7883,"éĩįçĤ¹":7884,"åĺ´":7885,"æľĢå¥½çļĦ":7886,"æĹ©çĤ¹å°ıåĲĥåĬłçĽŁ":7887,"åĪĨæľŁ":7888,"æ¶īå«Į":7889,"Ġæ²¿":7890,"éĩĩåıĸ":7891,"è³¼å±ĭåĦªæĥł":7892,"ä¹¡åİ¿|":7893,"<ãĢĳãĢĲpãĢĳãĢĲ>ãĢĳãĢĲ":7894,"Ġå¤§åıĳæĹ¶æĹ¶å½©æĺ¯":7895,"âĦĥ":7896,"Ġåĩ¯åıĳå®ĺç½ĳæīĭæľºçīĪ":7897,".d":7898,"Ġä»ĬæĹ¥":7899,"å²ģçļĦ":7900,"¥ï¿½":7901,"ĠåĭĲ":7902,"èĪ¬":7903,"åľ¨çº¿ç½ĳæĬķ":7904,"amp":7905,"æ¢¯":7906,"å¹¿è¥¿":7907,"ä¸Ńæĸ¹":7908,"span":7909,"Ġå¾®ä¿¡":7910,"åıįå¯¹":7911,"åįļçī©":7912,"åī²":7913,"ox":7914,"éĤĦ":7915,"Ġagçİ¯äºļæĹĹèĪ°":7916,"Ċå½ĵåīįä½įç½®:":7917,"åı¬å¼Ģ":7918,"ä¸ĩäºº":7919,"ĊF":7920,"Ġ70":7921,"èŀ":7922,"ç¢¼":7923,"æĬ¥ãĢĭ":7924,"æĬķè¯ī":7925,"Ġ2018éªŀï¿½":7926,"İè«ĸ":7927,"æľīåĵªäºĽl":7928,"å®ĺç½ĳ_":7929,"ģï¿½":7930,"Ġ56":7931,"ä¼ļ|":7932,"iLCJ":7933,"='":7934,"æ±ĤèģĮ":7935,"ä¸»é¢ĺ":7936,"èº«åĪĨèŃīåĢŁéĮ¢":7937,"çĶ¢åĵģ":7938,"ĠçĿ¢":7939,"Ġagçİ¯äºļæīĭæľºå¹³åı°":7940,"æī«":7941,"\\n":7942,"Ġåµ©":7943,"èģĮä½į":7944,"Ċé¦ĸéłģ":7945,"æ¡£":7946,"Ġä¹Įé²ģæľ¨é½Ĳ":7947,"AF":7948,"UL":7949,"so":7950,"çĶ³åįļ":7951,"Ġå¤´":7952,"Ġåıĳå¸ĥæĹ¶éĹ´ï¼ļ2019":7953,"ä»ĸçļĦ":7954,"éĻ¶":7955,"ä¿¡èªīç½ĳ":7956,"Ġè¯¸":7957,"Ġç§ĴéĢŁèµĽè½¦":7958,"UJ":7959,"å¹³åı°_":7960,"ool":7961,"\\/":7962,"Ġå¤©ä¸ĭçİ°éĩĳç½ĳ":7963,"æĢİéº¼":7964,"éģĵ|":7965,"åĽ¾|":7966,"Fwv":7967,"è¿Ī":7968,"20æĹ¥ï¼Į":7969,"ĠåĢĭäºº":7970,"ence":7971,"ĠæµĻæ±Ł":7972,"Ġç»´":7973,"ĠäºĳåįĹ":7974,"åľ¨çº¿çĻ»å½ķ":7975,"åħīä¸´":7976,"4å¹´":7977,"10å¤§åĵģçīĮ":7978,"Ġcom":7979,"Ġ(1)":7980,"Ġæľį":7981,"</":7982,"ĠèģĬ":7983,"Ġçİ¯äºļçĶµæ¸¸å®¢æĪ·ç«¯":7984,"ä¸įè¿ĩ":7985,"Ġåĩ¯æĹ¶app":7986,"mg":7987,"æĹıèĩªæ²»åİ¿|":7988,"ance":7989,"æ¯Ľåįĵäºĳ":7990,"Ġå²ļ":7991,"EV":7992,"è¿Ľåİ»":7993,"Ġ78":7994,"çĨŁ":7995,"ĠäººçĶŁå°±æĺ¯åįļd88":7996,"æıĴ":7997,"ï¼į":7998,"å·¥ä½ľäººåĳĺ":7999,"åĲįæĹ©é¤ĲåĬłçĽŁ":8000,"Ċçİ¯çĲĥç½ĳ":8001,"åĪ©çĶ¨":8002,"He":8003,"éĿ¢å¯¹éĿ¢":8004,"(\"script":8005,"Ġ91":8006,"hmt":8007,"éĩĮå·´å·´":8008,"Ġ57":8009,"Ġ_hmt":8010,"err":8011,"Ġå²±":8012,"æ²³ç½ĳ":8013,"ntiAd":8014,"Ġæ¾³æ´²å¹¸è¿Ĳ":8015,"ä¸ºäºĨ":8016,"ç¾©":8017,"å¤«åŃĲæĹ©é¤ĲåĬłçĽŁ":8018,"ï¼īï¼Į":8019,"Ġ365æ£ĭçīĮæ°´æŀľ":8020,"éŃĶ":8021,"Ġæ©":8022,"ä¿®æĶ¹":8023,"çº¿è·¯æ£Ģæµĭ":8024,"2000":8025,"Ġåĩ¯åıĳä¸»æĴŃ":8026,"ĠæĶ¶èĹı":8027,"Ġ2020-02-26":8028,"æľĢæĸ°é¦ĸé¡µ":8029,"åĲĽ":8030,"âĢľä¸Ģå¸¦ä¸Ģè·¯":8031,"é¥®åĵģåĬłçĽŁ":8032,"ç½ĳç«Ļåħ¥åı£":8033,"æ··":8034,"Ġç¡":8035,"ģà¸":8036,"åľĺ":8037,"ĠäºķéĻ":8038,"Ġ87":8039,"Ġ2019-08":8040,"Ġæ±Ĥ":8041,"ĠèĲ¥åħ»":8042,"æĸĩæ±ĩ":8043,"å¯¼èĩ´":8044,"ä¹ĭéĹ´":8045,"Ġ2009":8046,"Ġå°Ĭé¾Ļå°±æĺ¯åįļ":8047,"WN":8048,"<ãĢĳãĢĲ/":8049,"èĩªæİĴ":8050,"æľĢåĩĨ":8051,"è¿ģ":8052,"Ġå¤§åıĳ1åĪĨå½©":8053,"ĠçīĽ":8054,"ĠåĪ©æĿ¥w66æ³¨åĨĮ":8055,"åĢĳ":8056,"å¾®ä¿¡ç¾¤":8057,"èĲ§":8058,"Ġd88å°Ĭé¾ĻçĶµåŃĲæ¸¸æĪı":8059,"Ġåįļå¤©":8060,"éĶ¡":8061,"OJ":8062,"åĲĪèĤ¥":8063,"YB":8064,"æĸ¯çī¹":8065,"Ġå°ıé±¼åĦ¿":8066,"Ġagæįķé±¼":8067,"hm.":8068,"æĿĳ|":8069,"ĠåĪ©æĿ¥æīĭæľºå®¢æĪ·ç«¯":8070,"1.5åĪĨå½©":8071,"åľ¾":8072,"èĻ½çĦ¶":8073,":'1',":8074,"å¡ĳ":8075,"ç»ĳå®ļ":8076,"ĠiPhone":8077,"èĢģçļĦ":8078,"que":8079,"äºĨåĲĹ":8080,"ĠåħŃçĽĴå®Ŀåħ¸":8081,"åĬªåĬĽ":8082,"è·ĳçĭĹ":8083,"Ġsecond":8084,"Ġ365ä½ĵèĤ²åľ¨çº¿æĬķæ³¨":8085,"Ċåıĭæĥħéĵ¾æİ¥":8086,"ph":8087,"ĠæĬķæ³¨":8088,"ç«Ł":8089,"Ġå¾·å·ŀæīĳåħĭ":8090,"äºŀ":8091,"åĤ³":8092,"éĥ¨éķ¿":8093,"YN":8094,"éŁ¦":8095,"Ġå°Ĭé¾ĻäººçĶŁçİ°éĩĳå®ĺç½ĳ":8096,"SN":8097,"å®ı":8098,"Ġip":8099,"nb":8100,"sc2":8101,"uan":8102,"ä½ĵçİ°":8103,"å¨±ä¹ĲçĻ»å½ķ":8104,"ZmF":8105,"ZmFsc2":8106,"I6ZmFsc2":8107,"I6ZmFsc2Us":8108,"åĮºåŁŁ":8109,"æİĪæĿĥ":8110,"iOi":8111,"å®ŀéĻħ":8112,"Ġæ¾³éĹ¨åĽ½éĻħ":8113,"é¡¯":8114,"æİĴåĪĹä¸ī":8115,"ç½ĳç«Ļå¹³åı°":8116,"æķ£":8117,"bj":8118,"åĲĦç§į":8119,"è®¡åĪĴç¾¤":8120,"æ»ļ":8121,"Ġpl":8122,"400":8123,"å½©çĲĥç½ĳ":8124,"Ġï½ľ":8125,"Name":8126,"ļĮåŁ":8127,"Ġbet365çº¿ä¸Ĭ":8128,"I6ZmFsc2UsIm":8129,"ĊçĶĺèĤĥ":8130,"å¨±ä¹Ĳapp":8131,"æĻĭæ±Łæĸ°éĹ»ç½ĳ":8132,"ĠåĲĲ":8133,"å¡ĺ":8134,"Ġagçİ¯äºļå¹³åı°":8135,"å§Ķä¼ļ":8136,"KB":8137,"¡ä¸¹":8138,"Ġå¤§åıĳ5åĪĨå½©":8139,"æ¡ĥ|":8140,"æ´ģ":8141,"ank":8142,"ĠæĹ©é¤Ĳé¦ħé¥¼åĬłçĽŁ":8143,"åħįè´¹æĬķæ³¨":8144,"15æĹ¥":8145,"èĤ¯":8146,"Ġå®ľåĲ":8147,"/1":8148,"Ġå¤§åıĳå¹¸è¿Ĳ":8149,"æĶ¿åºľç½ĳ":8150,"Ġæ¸¸æĪı":8151,"Ġhmcon:'1',":8152,"2YX":8153,"åįķåıĮï¼ļå¤§åıĳå½©ç¥ŀ":8154,"CF":8155,"è©±":8156,"è¢ĭ":8157,"e.":8158,"èģª":8159,"Ċ<":8160,"YR":8161,"ĠéĽ¶":8162,"ĠåĪ©æĿ¥app":8163,"çļĦç½ĳåĿĢæĺ¯å¤ļå°ĳ":8164,"Ġåģ¥åº·æĹ©é¤ĲåºĹåĬłçĽŁ":8165,"åīĤ":8166,"Ġ365æ£ĭçīĮæĸ°æīĭåį¡":8167,"åĢº":8168,"EP":8169,"åĽ½åĬ¡":8170,"ä¼ĺåĮĸ":8171,"ąć":8172,"ä¸ľåĮĹ":8173,"åĭ¤":8174,"èĻ¹":8175,"Ġåĳ¼ä¼¦è´Ŀ":8176,"MX":8177,"è¿Ŀæ³ķåĲĹ":8178,"ĠæľŃ":8179,"Ċæ³ī":8180,"å¯¶":8181,"MJ":8182,"uz":8183,"ĠåįĹæĬķ":8184,"éĵ¶è¡Įåį¡":8185,"Ġå¹¿å·ŀ":8186,"ç¼ĸè¾ĳï¼ļ":8187,"ĠæĪĳæĥ³åĬłçĽŁæĹ©çĤ¹":8188,"Ġåħ»":8189,"å¤§ä»Ļ":8190,"è¾¾åĪ°":8191,"ãĪ":8192,"æ¡Īä»¶":8193,"Ġæ´ĭ":8194,"ç¥ĸåĽ½":8195,"å¾ĹåĪ°":8196,"Ġsport":8197,"Ġ43":8198,"ä¸ĭä¸Ģ":8199,"Ġå°Ĭé¾Ļæĸ°çīĪapp":8200,"Ġå¤§åıĳ3åĪĨå½©":8201,"æĺĤ":8202,"éķ¿æľŁ":8203,"agæĹĹèĪ°åİħä¸ĭè½½":8204,"åŁºéĩĳ":8205,"Ġä½ĵèĤ²æ¯ĶåĪĨ365":8206,"æĮ¯":8207,"/æĹ¥åĿĩ":8208,"Ġä¸ºä»Ģä¹Īä¸ĩåįļ":8209,"Ġä»£":8210,"page":8211,"ä»ĵ":8212,"ĠéĿ¢è®®":8213,"Ġ42":8214,"è¬":8215,"ï¼ŁâĢĿ":8216,"Ġ1æĹ¶":8217,"ĠéĢŁ":8218,"pZHRo":8219,"ĠæīĭåĬ¨":8220,"Ċåħ³éĶ®è¯į":8221,"èĮĤ":8222,"Ġ97":8223,"Ġåį³":8224,"ç½ĳç«Ļ365":8225,"ĠäºļæĲıå®ĺç½ĳ":8226,"ĠèĩªåĬ©":8227,"æŁ±|":8228,"Ġçªģ":8229,"Ġè·¯":8230,"ther":8231,"ĠéĦĤæ¸©":8232,"äºķ":8233,"ef":8234,"æķ¬":8235,"sg":8236,"å¤ı|":8237,"Ċå½ĵåīįä½įç½®ï¼ļé¦ĸé¡µ":8238,"æ¡Īä¾ĭ":8239,"æĤ¨çļĦä½įç½®ï¼ļ":8240,"ĠåĲĲé²ģ":8241,"HR":8242,"MR":8243,"AR":8244,"å¹¿æĴŃçĶµåı°":8245,"YJ":8246,"åıĹåĪ°":8247,"åħĳæį¢":8248,"Õ«":8249,"çļĦæīĭæľº":8250,"çĶµæ°Ķ":8251,"ç§Ģ|":8252,"·éĥ½":8253,"å°º":8254,"å½ĵæĹ¶":8255,"æľĢæĸ°çīĪæľ¬ä¸ĭè½½":8256,"99çĤ¹c0m":8257,"YF":8258,"çµĲ":8259,"å®µ":8260,"Ċå±±è¥¿":8261,"ï¼Įä»ĸä»¬":8262,"īï¿½":8263,"å¹²éĥ¨":8264,"æ¸¸æĪıç½ĳåĿĢå¤§åħ¨":8265,"ĠæĻ®æ´":8266,"KN":8267,"Ĭï¿½":8268,"ĊæµĻæ±Ł":8269,"æ¾İæ¹ĸ":8270,"----------------":8271,"æ³ķæ¡Ī":8272,"ory":8273,"å½©ç½ĳç«Ļ":8274,"åħ¬å®īå±Ģ":8275,"ç½ĳä¸Ĭå¨±ä¹Ĳ":8276,"Ġå¼łå®¶çķĮ":8277,"Ġå°Ĭé¾Ļå°±æĺ¯åįļæĹ§çīĪ":8278,"æī¶è´«":8279,"åħ±æ¬¢ä¹Ĳ":8280,"ĠåĪ©æĿ¥appä¸ĭè½½":8281,"Ġ2018-10":8282,"ĠUUå¿«ä¸ī":8283,"Ġçº¿ä¸ĬçľŁéĴ±å®ĺç½ĳ":8284,"åħ¬å¹³":8285,"ĠåĪ©æĿ¥èµĦæºĲç«Ļ":8286,"Ġéĥ¨èĲ½":8287,"æ²³å¸Ĥ|":8288,"äºĶå¤§èģĶèµĽ":8289,"Ġé©¬éŀį":8290,"Ġks8åĩ¯åıĳ":8291,"é¢Ŀåº¦":8292,"éļĶ":8293,"ä½ĵï¼ļ":8294,"æĦĽ":8295,"ä¸īä¸²ä¸Ģ":8296,"ï¼Īè®°èĢħ":8297,"obj":8298,"å½»":8299,"==\"":8300,"ĊçĪ±":8301,"Ġnba":8302,"ï¼Įåħ¶ä¸Ń":8303,"https":8304,"Ġ3åĪĨpk10":8305,"Ġæ»ļçĲĥ365":8306,"å¦ĩ":8307,"å®īå¿ĥ":8308,"Ċä¸Ĭä¸Ģç¯ĩ":8309,"å±ķå¼Ģ":8310,"å¼ķåıĳ":8311,"1åĪĨå¿«3":8312,"åľ¨ãĢĳãĢĲ":8313,"Ġhave":8314,"æķĻç¨ĭ":8315,"Ċä¸Ģ":8316,"Ġbet356æĢİä¹Ī":8317,"KF":8318,"åı°çģ£":8319,"æ²³åĮĹ":8320,"ĊçĻ¾åº¦æĸ°éĹ»":8321,"Ġäº¿":8322,"ãĢĢâĢľ":8323,"ĠAnd":8324,"è¿Ļæĺ¯":8325,"ĊD":8326,"èº«ä»½éªĮè¯ģ":8327,"UiOmZhbHNlLCJ":8328,"Ijoi":8329,"Ġåĩ¯åıĳå¨±ä¹Ĳ":8330,"IjpmYWxzZSwi":8331,"èĮĥåĽ´":8332,"ĠçĦ¦":8333,"ĠçĽĬ":8334,"ãĢĤçĽ®åīįï¼Į":8335,"ĠCol":8336,"å®ĺç½ĳé¦ĸé¡µ":8337,"åĢĭäººä¿¡è²¸":8338,"Ġé£İ":8339,"Ġappä¸ĭè½½":8340,"çķĻè»Ĭ":8341,"Ġæŀ£åºĦ":8342,"Ġ365betå®ĺç½ĳçº¿ä¸Ĭ":8343,"Ġèıı":8344,"ĠTr":8345,"ĠIN":8346,"æĮīçħ§":8347,"èģ·":8348,"Ġ2åĪĨæĹ¶æĹ¶å½©":8349,"æ¬¢è¿İåħīä¸´":8350,"æĸĹåľ°ä¸»":8351,"Ċbet365":8352,"åĲĭ":8353,"çĽ´çº¿":8354,"ĠccåĽ½éĻħå½©çĲĥ":8355,"Ġè¯ļ":8356,"Ċè¥¿èĹı":8357,"19æĹ¥ï¼Į":8358,"Ċç¬¬ä¸Ģ":8359,"å¿«åĲĹ":8360,"GJ":8361,"çŁŃä¿¡":8362,"Ġhttp://www.":8363,"ç½ĳåĿĢ_":8364,"Ċ|":8365,"Ġmod":8366,"ild":8367,"Ġï¿½ï¿½ï¿½":8368,"å¯¼å¸Ī":8369,"ĠèļĮåŁ":8370,"æīĵé±¼":8371,"Ġé¦Ļæ¸¯åħŃ":8372,"ĠåĪ©æĿ¥w66å¨±ä¹Ĳ":8373,"Ġseo":8374,"Ċ365ä½ĵèĤ²æĬķæ³¨":8375,"åĩºå¸Ń":8376,"äºļæ´²çľŁäºº":8377,"Ġæİ¨èĸ¦":8378,"è´¢ç¥ŀ":8379,"å¹´æĿ¥":8380,"indows":8381,"ĠçĭĹä¸ĩæµģæ°´":8382,"æŃ£å¸¸":8383,"Ġagçİ¯äºļæīĭæľºçĻ»éĻĨ":8384,"å¥Ķ":8385,"ãĢĳãĢĲ1ãĢĳãĢĲ":8386,"AJ":8387,"Ġèī²":8388,"Ġæ¯ķ":8389,"Ġç«ł":8390,"æĢķ":8391,"ä¹ĭåĲİï¼Į":8392,"Ãł":8393,"äºĴèģĶç½ĳ":8394,"Ġ365betå®ĺç½ĳæīĭæľº":8395,"Ġåĩ¯åıĳçĶµæ¸¸æ³¨åĨĮ":8396,"ä¿ĿéĻ©":8397,"æ¸¸èīº":8398,"ĠçĭĹä¸ĩmb":8399,"å®ģæ³¢":8400,"å®¶äºº":8401,"ĠçĴ":8402,"ç±»ä¼¼":8403,"Ġ2020-02-19":8404,"çŃ¹":8405,"ĈĆ":8406,"Ġåĩ¯åıĳå½©ç¥¨å®ĺç½ĳ":8407,"æĦıçĶ²":8408,"å®Įæķ´":8409,"Ġä¼Ĺ":8410,".h":8411,"Õ¥":8412,"Ġ2020å¹´":8413,"å¤º":8414,"æ¬§åĨł":8415,"SR":8416,"Ġä¼ģä¸ļ":8417,"ĠçĶµèĦĳ":8418,"åĪĻ|":8419,"Ċåħ³äºİ":8420,"Ġ96":8421,"åı°ä¸Ń":8422,"æ±¡":8423,"Ġå·´å½¦":8424,"42":8425,"Ġæľīæ²¡æľī":8426,"æĬķç¥¨":8427,"ä¸Ģçłģ":8428,"Ġ1.5":8429,"çī¹åĮºæĬ¥":8430,"çİ»çĴĥ":8431,"æĿ¥æºĲ:":8432,"Type":8433,"å¤§ç¥ŀ":8434,"æ¹ĸåĮĹ":8435,"å¸Ī|":8436,"ĠèµĮéĴ±æ¸¸æĪı":8437,"ä¿¡èªīç½ĳ_":8438,"Ġè³":8439,"Ġä¹ī":8440,"Ċé»Ħ":8441,"çĭ±":8442,"WB":8443,"åĴĮåĲĪ":8444,"ä¼ĺæĥłå¤ļä¸ĢçĤ¹":8445,"CL":8446,"æµ·åİ¿|":8447,"Ċæ³īå·ŀç½ĳ":8448,"KV":8449,"Ġ76":8450,"åħ¼èģĮ":8451,"Ċ2019å¹´10æľĪ":8452,"åħ±äº§":8453,"Ġå°Ĭé¾Ļapp":8454,"çĦ¦":8455,"åĪĨæ¬¢ä¹ĲçĶŁèĤĸ":8456,"æĸĩ|":8457,"Ġè®°èĢħ":8458,"èĿ":8459,"å¾Ĳ":8460,"ĠçĽ¸åħ³":8461,"æ»ĭ":8462,"æĹ¥æĬ¥éģĵï¼Į":8463,"ç¨±":8464,"ä¸ĸçŁ³":8465,"åĽ½ãĢĳãĢĲ":8466,"ĊæłĩçŃ¾ï¼ļ":8467,"åħįçķĻè»Ĭ":8468,"³å·ŀ|":8469,"uite":8470,"KR":8471,"è¾½å®ģ":8472,"å®ħ":8473,"Ġbet36å¤ĩçĶ¨":8474,"Ġ365ä½ĵèĤ²æĬķæ³¨æīĭæľº":8475,"æ´Ľ|":8476,"æĸ°éĹ»ç½ĳ...":8477,"ä½ľçĶ¨":8478,"åħĥ|":8479,"Ġ365ä½ĵèĤ²æĬķæ³¨çº¿ä¸Ĭ":8480,"ĠæĽ¾":8481,"åĪĨäºĮåħ«":8482,"ç¥ŀå½©äºīéľ¸8":8483,"å°Ĭé¾ĻäººçĶŁ":8484,"ontent":8485,"Ġèµ¢":8486,"åĿĬ|":8487,"âĪ":8488,"ç½ĳä¸Ĭå¼ĢæĪ·":8489,"WX":8490,"åĪĨé¾ĻèĻİ":8491,"å´ĩ":8492,"çĽĹ":8493,"ĥåľ¾":8494,"ake":8495,"ä¼¦æĺ¥":8496,"Ġä½ľèĢħ:":8497,"Ġwww.d88.comå°Ĭé¾ĻäººçĶŁ":8498,"YV":8499,"äººæīį":8500,"ĠäºļæĲıå½©ç¥¨":8501,"Ġä¸ģ":8502,"ICP":8503,"Ġwill":8504,"åħ±äº§åħļ":8505,"ç«ĭåį³":8506,"£à¸":8507,"ä»Ģä¹ĪæĹ¶åĢĻ":8508,"ç±»åŀĭ":8509,"ĠéĦĤä¼¦æĺ¥":8510,"Ġä½ıå®¿":8511,"èĬĤ|":8512,"æ±¾|":8513,"å®ĺæĸ¹æīĭæľºapp":8514,"Ġçİ¯äºļç½ĳåĿĢ":8515,"Ġdocument.getElementById":8516,"Ġ86":8517,"IJ":8518,"å¤§éĩı":8519,"ĠèĪŁ":8520,"âĳ":8521,"æ³Ĭ":8522,"çĲĨ|":8523,"ç½ĳä¸ĬæĬķæ³¨":8524,"Ġåıĳè¡¨äºİ":8525,"è·Į":8526,"ĠçľŁäººå¹³åı°":8527,"åĦ¿ç«¥":8528,"è¯Ĭ":8529,"ĠåĪ©æĿ¥w66ä¸ĭè½½":8530,"å¸ĥ|":8531,"Ġæĸ°èĳ¡ï¿½ï¿½":8532,"´ï¿½":8533,"lot":8534,"åĳĺå·¥":8535,"åĮ»çĶŁ":8536,"Ġ365betå®ĺç½ĳå¹³åı°":8537,"æŁľ":8538,"Ġå®ŀ":8539,"è¿ĩåİ»":8540,"Ġåıĳå¸ĥæĹ¶éĹ´:":8541,"åħħ|":8542,"ä¸įå°ĳ":8543,"åĽłæŃ¤":8544,"GR":8545,"-æ¬¢è¿İæĤ¨":8546,"KJ":8547,"Ġçİ¯äºļagæ³¨åĨĮ":8548,"é¸Ń":8549,"å·¡":8550,"ĠéĤ¯éĥ¸":8551,"åģ¿":8552,"Ġï¼İ":8553,"çĶļ":8554,"æĿİä¸ĸçŁ³":8555,"Õ¶":8556,"Ġ74":8557,"åħ¬è·¯":8558,"Ġbet356æıĲæ¬¾":8559,"XC9h":8560,"äº§çĶŁ":8561,"ĊåĵģçīĮ":8562,"æĮ¥":8563,"old":8564,"Ġæĸ°åįİç¤¾":8565,"ä¸ĵæłı":8566,"èĢģå¸Ī":8567,"å¦»":8568,"ĠUUå¿«3":8569,"å¦¹":8570,"Ġå¾½":8571,"å®ĺç½ĳå¼ĢæĪ·":8572,"ĠéĦĤä¼¦æĺ¥èĩªæ²»":8573,"éĿĴå²Ľ":8574,"Ġè®©":8575,"Nz":8576,"çī§":8577,"ç¼ĥ":8578,"æł¸å¿ĥ":8579,"SC":8580,"çİ°éĩĳå¹³åı°":8581,"ĠäºĴ":8582,"ĠåĨ·":8583,"Ġçİ¯äºļæ¸¸æĪıapp":8584,"å¼ĢæĪ·_":8585,"çĽ´çº¿è·Ŀç¦»":8586,"Ħ|":8587,"[0":8588,"æĳĬ":8589,"µ|":8590,"æ´²|":8591,"ĊçĥŃ":8592,"èĬ±|":8593,"è³ª":8594,"ĠAre":8595,"å±±ç½ĳ":8596,"Ġæ¿®":8597,"çİ¯çĲĥæĹ¶æĬ¥":8598,"arent":8599,"è¯Ħä¼°":8600,"Ġ52":8601,"éĶ¦|":8602,"Ġåĩ¯åıĳç½ĳæĬķ":8603,"ĠæĹ¥åįļå®ĺç½ĳ":8604,"0a":8605,"ĠåĸĢä»Ģ|":8606,"çªģçĦ¶":8607,"èİ±|":8608,"æ¸ł|":8609,"çļĭ|":8610,"å®Įåħ¨":8611,"ĠçĶµçİ©åŁİæ£ĭçīĮ":8612,"hem":8613,"åĽŃ|":8614,"ĠéĶ¡æŀĹ":8615,"Ġèħ¾":8616,"åīįå¾Ģ":8617,"ĠèµĮåįļ":8618,"Ġ59":8619,"Ġè¨İè«ĸ":8620,"å°Ķåı¤":8621,"åĩĨå¤ĩ":8622,"QD":8623,"æľºæ¢°":8624,"ç¢į":8625,"365æ»ļçĲĥ":8626,"ä¸ŃãĢĳãĢĲ":8627,"IZ":8628,"çĵ¶":8629,"æĭ¼":8630,"Ġéĺ¿åĭĴæ³°|":8631,"æ´¾åĩº":8632,"Mj":8633,"48XC9":8634,"Ļ|":8635,"Ċäººæ°ĳæĹ¥æĬ¥":8636,"åħ¬å¯ĵ":8637,"Ġåŀ¦åĪ©|":8638,"ĠæĬĢ":8639,"å¾·å¸Ĥ|":8640,"æł¼|":8641,"åĮħè£ħ":8642,"ĊæłĩçŃ¾":8643,"»|":8644,"QT":8645,"èĩªçĦ¶":8646,"ĠéĻķ":8647,"å¨±ä¹Ĳ_":8648,"éħĴé¬¼éħĴåħ¬åı¸":8649,"äººæ°ĳå¹¿æĴŃçĶµåı°":8650,"Ġæ²³æ±ł|":8651,"åŃĲçİĭ":8652,"å¥¥ä¸Ģ":8653,"Ġåĩ¯åıĳAG":8654,"èĬ¦":8655,"Ċ2017-12":8656,"Ġé¦Ļæ¸¯æľĢå¿«":8657,"ĠæĿ¡":8658,"ĠçŁ³æĻ¯":8659,"ee":8660,"ĠåĽ¾æľ¨èĪĴåħĭ|":8661,"å¹´|":8662,"ä¼¦|":8663,"Str":8664,"çĽ´çº¿è·Ŀç¦»ä¸º":8665,"Ġalert(\"":8666,"QX":8667,"æ¥ļç½ĳ":8668,"å·ŀå¸ĤéĤ®ç¼ĸ":8669,"æıĲåįĩ":8670,"duct":8671,"Ġåħ¨æ°ĳ":8672,"gc":8673,"ç®Ń":8674,"çļĦçĽ´çº¿è·Ŀç¦»ä¸º":8675,"å¸Ĥå§Ķ":8676,"Ġçļ®":8677,"åºĵ|":8678,"Ċç½ĳæĺĵ":8679,"æĹ¥æĬ¥ç½ĳ":8680,"åĳ¢":8681,"600":8682,"Ġé¢Ŀå°Ķåı¤":8683,"æĹ©é¤ĲæĢİä¹ĪåĬłçĽŁ":8684,"å·ŀå¸ĤåĮºåı·":8685,"łæ°´|":8686,"ç¥¨|":8687,"ç»ĵ|":8688,"æ²³åı£|":8689,"Ċä¸»":8690,"dãĢĳãĢĲ":8691,"å°¾|":8692,"Ġå¤§åıĳ10åĪĨå½©":8693,"å¥ĩ|":8694,"å®¹|":8695,"ĸå·ŀ|":8696,"tag":8697,"ç¦ı|":8698,"Ċ365betå®ĺç½ĳ":8699,"Ġç§ĴéĢŁå¿«3":8700,"Ġå°Ĭé¾ĻäººçĶŁå°±æĺ¯æĲı":8701,"æ¦Ĩ|":8702,"å®ľ|":8703,"Ġmg":8704,"Ġ63":8705,"æĿĥ|":8706,"Ġä¸ĸæĿ¯æĬķæ³¨365":8707,".f":8708,"æıı":8709,"to":8710,"Ġçİ¯äºļagæĹĹèĪ°":8711,"=ãĢĳãĢĲ\"ãĢĳãĢĲ":8712,"åħ¨|":8713,"éĿ¢æĿ¡":8714,"æ°¸|":8715,"ç«ł|":8716,"ĠéĿĴå²Ľ":8717,"/2":8718,"ä¸½|":8719,"å¡Ķ|":8720,"å®Ĺ|":8721,"SV":8722,"(s":8723,"å½©ç¥¨åĲĹ":8724,"æīĭæľºçīĪä¸ĭè½½å®īè£ħ":8725,"Ġè±Ĩ":8726,"åİŁåĪĽ":8727,"éĥĳ|":8728,"ä¸Ĭ|":8729,"ç¼ĵ":8730,"ĠéĦĤä¼¦æĺ¥èĩªæ²»æĹĹ|":8731,"éĿ¢é¦Ĩ":8732,"ç«¹|":8733,"æµª|":8734,"åĺİ|":8735,"Gl":8736,"æĲŀ":8737,"ķå®ģ|":8738,"çķĻ|":8739,"æĿľ":8740,"åĤ¨":8741,"æ½¼|":8742,"Ċ1.":8743,"å¥³å£«":8744,"éĿĸ":8745,"è¯´ï¼ļâĢľ":8746,"²æĺ¥|":8747,"é²ģ|":8748,"-L":8749,"å®¿|":8750,"Ġåĩ¯åıĳå®¢æĪ·ç«¯":8751,"å§ĭ|":8752,"ä¿Ŀ|":8753,"é»İ|":8754,"æ¼³|":8755,"çĻ»|":8756,"UH":8757,"ä¸ļ|":8758,"å®¶åħ·":8759,"é£İ|":8760,"çİ¯äºļapp":8761,"ãĢĳãĢĲ0ãĢĳãĢĲ":8762,"ĠIntern":8763,"Ġçī¹èī²æĹ©é¤ĲåºĹåĬłçĽŁ":8764,"å¡«":8765,"é»Ħ|":8766,"23æĹ¥":8767,"ä½ĵç³»":8768,"æŁı|":8769,"Ġåħ¨çĲĥåĬłçĽŁç½ĳ":8770,"å³¶":8771,"åķĨåĬ¡":8772,"è§ī|":8773,"æ²¡æľīäºĨ":8774,"SL":8775,"Ġæ¾³éĹ¨ag":8776,"å±±å¸Ĥ":8777,"èĶ¡|":8778,"ĿåĮĹ|":8779,"Ġåĩ¯åıĳå®¢æĪ·ç«¯ä¸ĭè½½":8780,"åĬłåħ¥":8781,"åĶ±":8782,"Ġæµ·åįĹ":8783,"ade":8784,"icro":8785,"ĠèĩªåĬ¨":8786,"åĲĪæĪĲ":8787,"æİ¨è¿Ľ":8788,"çķĻè¨Ģ":8789,"åĬ¨æĹ©é¤ĲåĬłçĽŁ":8790,"åĨħéĥ¨":8791,"ä¸įè¶³":8792,"æĴŃæĶ¾":8793,"ĠçĤ¹åĩ»ï¼ļ":8794,"çĽĬ|":8795,"çī¹èī²æĹ©çĤ¹":8796,"name":8797,"æĹ¥æľŁï¼ļ":8798,"Ġ53":8799,"Ġ41":8800,"æ²½|":8801,"Ċæ³¨åĨĮ":8802,"ĠAir":8803,"str":8804,"è½¦ç«Ļ":8805,"å²³":8806,"Ġæĸ¼":8807,"ç¦ıæĿ¥":8808,"Ġ84":8809,"çļĦéĹ®é¢ĺ":8810,"åĭ¤|":8811,"Ġbet365æīĭæľº":8812,"æ»©|":8813,"beat365":8814,"Ġ356betçº¿ä¸Ĭ":8815,"æµ·ç½ĳ":8816,"Ġ89":8817,"Ġéł":8818,"Ġç«¹å±±|":8819,"ĠéĦĤæ¸©åħĭ":8820,"ï¼Įä½ł":8821,"åĨ¶|":8822,"Ġåı°å®ī|":8823,"éĿ¢é¦ĨåĬłçĽŁ":8824,"äººãĢĳãĢĲ":8825,"åĽº|":8826,"Ġé»Ķæ±Ł|":8827,"Ġèµŀ":8828,"ĠæĹ©é¤Ĳç±»åĬłçĽŁ":8829,"æĿ¡æĹ©é¤ĲåĬłçĽŁ":8830,"naHQ":8831,"WlnaHQ":8832,"ĠæĻº":8833,"Ġåģ¥åº·æĹ©é¤ĲåĬłçĽŁ":8834,"Ġå®ľåĲĽ|":8835,"åĽŀé¡¾":8836,"Ġä¹Įåħ°|":8837,"åĩºæ¬¾":8838,"ï¿½o":8839,"ç¾İ|":8840,"æĹ¶æĹ¶":8841,"éĿ¢æĿ¡åĬłçĽŁ":8842,"Ġ10åĪĨå¿«3":8843,"Ġåį¡":8844,"WU":8845,"ĠçĽ´":8846,"ĠèĤĥå®ģ|":8847,"Ġ2020-06":8848,"å¥½çĶ¨":8849,"ç¦ıæĿ¥æĹ©çĤ¹åĬłçĽŁ":8850,"åıĹä¼¤":8851,"åİ¦":8852,"äºĶçłģ":8853,"Ġä¸ľåĮĹæĹ©é¤ĲåĬłçĽŁ":8854,"Ġä¼łç»ŁæĹ©é¤ĲåºĹåĬłçĽŁ":8855,"Ġåı£":8856,"ä¸ĭè½½æīĭæľºçīĪ":8857,"ĠæĹ©é¤ĲåĬłçĽŁåĵªä¸ªå¥½":8858,"Ġèİĺåİ¿|":8859,"æĽĿ":8860,"è²¸æ¬¾åĪ©çİĩ":8861,"Ġop":8862,"ĠéĦĤæ¸©åħĭæĹıèĩªæ²»":8863,"å±±æ¸¯|":8864,"Ġvi":8865,"ĠçľŁéĩĳæįķé±¼":8866,"reate":8867,"åįķåıĮï¼ļå¤§åıĳ":8868,"Ġä¸īäºļ":8869,"ä¼łç»Ł":8870,"ä¸Ģå¤©":8871,"èĭ±è¯Ń":8872,"Ġæ·Ħåįļ":8873,"ãĢĤï¼Īå¤®è§Ĩè®°èĢħ":8874,"æ¬§ç¾İ":8875,"åŃ¸çĶŁ":8876,"èĥ¶":8877,"è²¸æ¬¾åĹİ":8878,"ĠéĻĪä»ĵ|":8879,"æµİçº³":8880,"äººï¼ļ":8881,"æĸ°èģŀ":8882,"ĠéĦĤæīĺåħĭåīįæĹĹ|":8883,"æ¬§çĽŁ":8884,"åĪ°è´¦å¿«":8885,"Ġam":8886,"è±ĨèħĲ":8887,"å¿ĺè®°":8888,"å®ļä½į":8889,"åĬłæĭ¿å¤§":8890,"/10":8891,"Ġäºļç¾İam8app":8892,"ĠéĦĤæ¸©åħĭæĹıèĩªæ²»æĹĹ|":8893,"ä¸Ĭä¸ĭåĪĨ":8894,"Ġ365betæīĭæľº":8895,"éĹ¨æĪ·":8896,"Ġé¢Ŀæµİçº³":8897,"æĻĤéĸĵ":8898,"KX":8899,"Ċï¼Ī":8900,"ä¸įåı¯":8901,"QB":8902,"ress":8903,"ä¿Ĭ":8904,"åĨ»ç»ĵ":8905,"å¤§åŀĭ":8906,"ĠagåĽ½éĻħé¦Ĩ":8907,"æ¦Ĩ":8908,"é«ĺåº¦":8909,"Ġæīİåħ°":8910,"åħ±æľī":8911,"-åįĥ":8912,"ä¹ĭå®¶":8913,"ĠåĪ©æĿ¥w66å¹³åı°":8914,"aWR0a":8915,"åľ°éĵģ":8916,"äºı":8917,"æ³¨éĶĢ":8918,"lag":8919,"ike":8920,"å¥¥ä¸Ģç½ĳ":8921,"è¯¦ç»Ĩ":8922,"QV":8923,"Ġç§¯":8924,"æĮĩåĩºï¼Į":8925,"çĽ´å±ŀ":8926,"Ġlol":8927,"ĠArt":8928,"æ·®":8929,"ĠæĻ¯å¾·":8930,"Ġä¸īéĹ¨":8931,"ä¸Ģå®¶":8932,"ä»Ģä¹Īå¥½":8933,"Ġsp":8934,"Zn":8935,"èĭ¦":8936,"ĠæľŁ":8937,"Ġfalse,":8938,"å¹³åĿĩ":8939,"ĠçĶ±Hotel":8940,"ĠæĹħæ¸¸":8941,"åĩĢ":8942,"Ġï¼Ī1":8943,"ĠæĶ¹":8944,"ï¼Ĵ":8945,"Ġ2019-05":8946,"aW5":8947,"Ċåıĳå¸ĥæĹ¶éĹ´ï¼ļ":8948,"Ġæ¾³éĹ¨çĻ¾å®¶ä¹Ĳçİ©æ³ķ":8949,"Ġçī¡ä¸¹":8950,"åĲİçļĦ":8951,"å¯¦":8952,"ä¸»æĮģ":8953,"Ġ69":8954,"ç¹Ŀï¿½":8955,"UZ":8956,"Ġ1.6":8957,"Ċ>":8958,"åĳ¨åīį":8959,"tYX":8960,"åı¶":8961,"èĢ³åħ¶":8962,"ZnJhb":8963,"Ġå°±":8964,"Ġåĳ¼åĴĮ":8965,"TV":8966,"ä¸ĵé¢ĺ":8967,"æ¯ķä¸ļ":8968,"«èĬ¦":8969,"GB":8970,"Ġno":8971,"Ġä¸ĭè½½çİ¯äºļapp":8972,"+1":8973,"æĢİä¹Īç®Ĺ":8974,"roid":8975,"Ġç§¦çļĩ":8976,"ĊåĲĪèĤ¥":8977,"ĠMar":8978,"ivers":8979,"è®¾ç½®ä¸Ńæĸĩ":8980,"ĠåĤ":8981,"cIi":8982,"https://":8983,"ç½ĳç«Ļå¤ĩçĶ¨çĻ»å½ķ":8984,"éĢ²":8985,"Ġç³»":8986,"éī´":8987,"Ġåİ»":8988,"è´µå®¾":8989,"Ġ2åĪĨpk10":8990,"æķ¦":8991,"oh":8992,"Ġå°Ĭé¾Ļç½ĳç»ľå¹³åı°":8993,"æģĲ":8994,"Ġ356betæīĭæľº":8995,"Ġå¨ģå°¼æĸ¯":8996,"éĢĲ":8997,"å¥ī":8998,"Ġäºļç¾İagæĹĹèĪ°åİħä¸ĭè½½":8999,"çļĦæĥħåĨµ":9000,"Ċæ±Łè¥¿äººæ°ĳå¹¿æĴŃçĶµåı°":9001,"çİ°åľºçĽ´æĴŃ":9002,"APPï¼ļå½©ç¥ŀäºīéľ¸8":9003,"YWRz":9004,"EZ":9005,"ĠçĨ":9006,"è°ĥæķ´":9007,"appä¸ĭè½½âĢķ":9008,"ĠæīĢ":9009,"äººæ°ĳå¸ģ":9010,"Ġurl":9011,"ä¾¿æ°ĳ":9012,"WZ":9013,"Ġ2020-02-24":9014,"å±ıæĿ±":9015,"CX":9016,"äºĮåĽĽåħŃ":9017,"ç³ĸ":9018,"atch":9019,"è¥¿çĶ²":9020,"åĽ½å®¶ä¸»å¸Ńä¹łè¿ĳå¹³":9021,"rid":9022,"éĩįå¤§":9023,"AH":9024,"Ġåĩ¯åıĳå½©ç¥¨ä¸ĭè½½":9025,"æ°¸åĪ©":9026,"åĪ¥":9027,"ĠæİĴ":9028,"Ġagçİ¯äºļéĽĨåĽ¢å®ĺç½ĳ":9029,"é£ŀæľº":9030,"æĬķæ³¨ç½ĳ":9031,"èģ¯":9032,"ash":9033,"Ġé¢Ŀæµİçº³æĹĹ|":9034,"å±±åĮº|":9035,"åĵªéĩĮçļĦ":9036,"Ġæ´±":9037,"s.comæıĲä¾Ľ":9038,"Ġçİ¯äºļagæīĭæľºçīĪ":9039,"å¤§éĺŁ":9040,"ĠçĶ±Hotels.comæıĲä¾Ľ":9041,"æĿ¥å°±éĢģ38":9042,"QQ":9043,"Ġå°ıãĢĳ":9044,"ãĢĤèĢĮ":9045,"Ġæľº":9046,"Ġå·´æŀĹå·¦æĹĹ|":9047,"Ċå¤®è§Ĩ":9048,"Ġ365betçº¿ä¸Ĭ":9049,"ah":9050,"Ġèħ¾è®¯æĹ¶æĹ¶å½©":9051,"ange":9052,"åĩĮ":9053,"çĴĲ":9054,"Ġæĸ°èĳ¡äº¬":9055,"äºļæ¸¸å®ĺç½ĳ":9056,"Le":9057,"Ġ2019-06":9058,"èĤł":9059,"Ġ79":9060,"ĠçĦ¦ä½ľ":9061,"åĲįåŃĹ":9062,"09æľĪ":9063,"oo":9064,"oZWlnaHQ":9065,"ĠçĭĹä¸ĩç½ĳåĿĢ":9066,"ĠagçĽ´æĴŃåİħ":9067,"çĶ¨åĵģ":9068,"æĬ¥çłģ":9069,"æīĭæľ¯":9070,"æī¾ä¸įåĪ°":9071,"ç½ĳç«Ļåľ°åĽ¾":9072,"Ġ365ä½ĵèĤ²æĬķæ³¨å¤ĩçĶ¨":9073,"Ġagæ¸¸èīĩä¼ļå®ĺç½ĳ":9074,"Ġ2020-04-04":9075,"æĢĿæĥ³":9076,"Ġå¤§èį":9077,"Ð»":9078,"è®²è¯Ŀ":9079,"éĢļçŁ¥":9080,"Ġ365betå¹³åı°":9081,"åħ±åĴĮåħļ":9082,"ĠAGäºļ":9083,"è®¸å¤ļ":9084,"çł´è§£åĻ¨":9085,"ĠCon":9086,"ĠåĲķ":9087,"Ġçİ¯äºļagä¸ĭè½½":9088,"åįľ":9089,"Ġåĩ¡":9090,"tem":9091,"way":9092,"æıŃ":9093,"ĠåĪ©æĿ¥w66å®ĺç½ĳå®ĺæĸ¹ä¸ĭè½½":9094,"éħįéĢģ":9095,"ä¸īèĤĸ":9096,"à¸Ńà¸":9097,"æĭĸ":9098,"Ġçĵ¦":9099,"åĭŀå·¥":9100,"Ġçİ¯äºļéĽĨåĽ¢appä¸ĭè½½":9101,"46":9102,"w66.com":9103,"Ġåı°åīį":9104,"æĸĩ,":9105,"ç¦ıå½©":9106,"¢å²":9107,"Ġ2008":9108,"Ġ83":9109,"GP":9110,"Ġk8å¨±ä¹ĲæīĭæľºçīĪç½ĳåĿĢ":9111,"Ġ2020-02-22":9112,"Ġ$(this":9113,"Ċéĵģ":9114,"Ċæ¯ıæĹ¥":9115,"Ġç¥ŀå½©äºīéľ¸":9116,"åĲĮæĹ¶ï¼Į":9117,"ĠæīİåĽ":9118,"Ġäº¤éĢļ":9119,"åĪ©æĿ¥å®ĺç½ĳ":9120,"ĵé±¼":9121,"Ġå²¢å²":9122,"SEO":9123,"ä¹ĭåīį":9124,"Ġ365æ£ĭçīĮçĶµèĦĳ":9125,"Ġ2020-03-29":9126,"Ġæķ°":9127,"è¿¹":9128,"Ġbet-":9129,"Ġå§ľ":9130,"éļıçĿĢ":9131,"Ġ2020-02-21":9132,"Ġhg":9133,"æĳĺè¦ģ":9134,"Ġ365ä½ĵèĤ²æĬķæ³¨æıĲçİ°":9135,"Ġçİ¯äºļçľŁäººæ¸¸æĪı":9136,"ĠåĮĹäº¬æĹ©é¤Ĳè½¦åĬłçĽŁ":9137,"Ġä¼ĳ":9138,"Ġçİ¯äºļå¨±ä¹Ĳag":9139,"éĩıï¼ļ":9140,"Ġ360":9141,"ĠãĢĳãĢĲs":9142,"èĬ¯":9143,"Ġæĸ°æµª":9144,"Ġåİ¦éĹ¨":9145,"è¿ľåİ¿|":9146,"Ġ2020-02-20":9147,"å®ļåİ¿|":9148,"ĠçľŁéĴ±æ£ĭçīĮä¸ĭè½½":9149,"æ²ĥ":9150,"ç«ŀæĬĢ":9151,"Ġadmin":9152,"Ġ365å¤ĸåĽ´ç½ĳ":9153,"ãĢĤ12æľĪ":9154,"æĪĳä»¬çļĦ":9155,"è¯¾ç¨ĭ":9156,"Ġä¹Ŀé¾Ļ":9157,"Ġå¼Ģåħĥæ£ĭçīĮèĥ½":9158,"è®Ģ":9159,"åĪĹè¡¨":9160,"æĭĨ":9161,"div":9162,"åĮĹæºª":9163,"Ġ365çļĩåĨłä½ĵèĤ²":9164,"åľĭéļĽ":9165,"æģ¢å¤į":9166,"æīĭæ¸¸":9167,"åĵªä¸ªæĺ¯çľŁçļĦ":9168,"Ġè¾½å®ģ":9169,"å®½":9170,"ĠæŁı":9171,"æ·ĸ":9172,"Ġtype:0,":9173,"ars":9174,"æĸ¹åĲĳ":9175,"éª¤":9176,"ä¸Ĭå¸Ĥ":9177,"å®Ŀé©¬":9178,"Ġçº¿ä¸ĬçľŁäººç½ĳæĬķ":9179,"çĶ°åİ¿|":9180,"G9":9181,"ç§¯åĪĨ":9182,"çĹĽ":9183,"å¤©åľ°":9184,"ĊçĽ¸åħ³":9185,"ĠèİĨ":9186,"post":9187,"Ġæį®":9188,"å³ª":9189,"é¾į":9190,"Ġçº¿ä¸ĬçľŁéĴ±å¼ĢæĪ·":9191,"Ġä¹°çĲĥ":9192,"éĮ¢èİĬ":9193,"empl":9194,"Ġåĩ¯åıĳå¤ĩçĶ¨ç½ĳåĿĢ":9195,"Ġ73":9196,"è®¨è®º":9197,"row":9198,"ĠéĦĤå°Ķå¤ļ":9199,"Ċ2019-10-23":9200,"Ag":9201,"Ġéĸĭ":9202,"6b":9203,"éķľ":9204,"å°ıåĲĥæĹ©çĤ¹åĬłçĽŁ":9205,"ĠæĿŃéĶ¦æĹĹ|":9206,"Ġ2020-02-23":9207,"æī©":9208,"çĶ¨äºİ":9209,"åĪĨpkæĭ¾":9210,"Ġ365æ£ĭçīĮæīĭæľº":9211,"Ġçİ¯äºļæĹĹèĪ°åİħä¸ĭè½½":9212,"Ġæ¾³éĹ¨åħŃä¼ļ":9213,"Ċä¸ĭä¸Ģç¯ĩ":9214,"-çļĩ":9215,"ĠAl":9216,"ä½ľåĩº":9217,"å¿«é¤ĲåĬłçĽŁ":9218,"Ġ72":9219,"ĠåŃ¦åİĨ":9220,"ĊæĪĳ":9221,"Ġæ¾³éĹ¨356bet":9222,"Ġ62":9223,"å¹¿æĴŃçĶµè§Ĩ":9224,"Ġå»Ĭ":9225,"US":9226,"èĭĳ":9227,"Ġæī¾":9228,"åľ¨ä¸ŃåĽ½":9229,"ĠåĽ¾çīĩ":9230,"ĠéĨ":9231,"ĊåįĹäº¬":9232,"ä¿¡èªīçļĦ":9233,"Ġäºļæ¸¸appéĽĨåĽ¢":9234,"ĠæĻ®æ´±|":9235,"å¥³éĥİ":9236,"Ġåıĭæĥħéĵ¾æİ¥":9237,"Ġ365è¶³çĲĥå¤ĸåĽ´":9238,"Ġåį«":9239,"Ġ2020-02-18":9240,"ãĢĳãĢĲä¸ĢãĢĳãĢĲ":9241,"ĠAP":9242,"çĻ¾å§ĵ":9243,"isplay":9244,"Ġ2019-07":9245,"çľŁäººæīĭæľºçīĪ":9246,"ĠåĽĽèĤĸéĢīä¸ĢèĤĸ":9247,"Ġbet365å¹³åı°":9248,"Ġè¦ģ":9249,"åħŃèĤĸ":9250,"sk":9251,"åįļçī©é¦Ĩ":9252,"jcmlwdD":9253,"ĊæĪĲéĥ½":9254,"3NjcmlwdD":9255,"repl":9256,"æģĴ":9257,"4)":9258,"ĊæĺŁå²Ľ":9259,"Ġ}else{":9260,"æĬ¥ä»·":9261,"åĬ¨åĬĽ":9262,"ĠéĬĢè¡Į":9263,"å¤©ä¸ĭ":9264,"åĢ¡":9265,"____":9266,"ICPå¤ĩ":9267,"-çļĩæģ©éĿłè°±":9268,"ĠæĶĢ":9269,"Ġä¹Įåħ°å¯Ł":9270,"ĠpcèĽĭèĽĭ":9271,"å½©ç¥¨å¤§åıĳå¿«ä¸ī":9272,"Ġèĸ":9273,"èĨľ":9274,"é¼İ":9275,"äººä»¬":9276,"æĺ¯åģĩ":9277,"èį·":9278,"Ġme":9279,"book":9280,"SZ":9281,"Ġ356betå¹³åı°":9282,"æĪĲæľ¬":9283,"å®ĺæĸ¹ç½ĳç«Ļ_":9284,"KZ":9285,"æĸĩä»¶":9286,"èĤ¡ä¸ľ":9287,"Ġ2020-02-28":9288,"we":9289,"åĲĮå¿Ĺ":9290,"æıĲä¸įäºĨæ¬¾":9291,"ä¹Ŀå·ŀ":9292,"åĬłå·¥":9293,"Ġé½Ĳé½Ĳ":9294,"æ¹ĸåįĹ":9295,"Ġ93":9296,"åįĶåķĨ":9297,"èĳ±":9298,"QH":9299,"é¡µéĿ¢":9300,"±åİ¿|":9301,"åĽ½çļĦ":9302,"$(\"#":9303,"çīĪæĿĥæīĢæľī":9304,"åı£å¸Ĥ|":9305,"æļ´å¾Ĵ":9306,"Ġæ¹Ľ":9307,"Ġ;":9308,"Ġbet36æľĢæĸ°":9309,"åį¢":9310,"æīĭæľºæ£ĭçīĮæ¸¸æĪı":9311,"ĠçĬ":9312,"éļĲ":9313,"ĠæŃ¦å¤·":9314,"ĠåĽ½å®¶":9315,"å¤ļä¸ª":9316,"ĠKB":9317,"ĠåĪ©æĿ¥w66æīĭæľºçīĪ":9318,"hl":9319,"Ġå·´å½¦æ·ĸ":9320,"çŁ¥è¯Ĩ":9321,"Ġå¤§åıĳuuå¿«3":9322,"Ġ61":9323,"ĠçĭĹä¸ĩåįļ":9324,"äººå¤§":9325,"Ġé©»":9326,"çº¦ç¿°":9327,"ç»ĺ":9328,"å·ŀåħ¬äº¤":9329,"æįĲ":9330,"Ġå¹³é¡¶":9331,"ĠèĩºåįĹå¸Ĥ":9332,"å½ª":9333,"å¹³å¸Ĥ|":9334,"æľºä¼ļ":9335,"æ¬²":9336,"æ²¿":9337,"25l":9338,"Ġæ¾³éĹ¨å¨±ä¹Ĳ":9339,"å½©ç¥¨å¼Ģåħĥæ£ĭçīĮ":9340,"ä¿¡ä»»":9341,"QP":9342,"QZ":9343,"åı¯ä»¥è²¸æ¬¾åĹİ":9344,"6b25l":9345,"åĿĿ":9346,"ĠæģĴ":9347,"å¹´åīį":9348,"ä¸įè¦ģ":9349,"oker":9350,"çľŁéĴ±æįķé±¼æ¸¸æĪı":9351,"ĠçĶµçİ©8":9352,"äººåľ¨":9353,"Ġæ¾³éĹ¨ç½ĳé¡µ":9354,"ï¼Įè¯¥":9355,"æĢİä¹ĪæĬķæ³¨":9356,"ä¼Ĳ":9357,"size":9358,"å·ŀå¤©æ°Ķ":9359,"!!":9360,"ĠäºļæĲıå¨±ä¹Ĳç½ĳç«Ļåħ¥åı£":9361,"Ġå·´é©¬|":9362,"æª¬":9363,"ĆĆ":9364,"ĠçĭĹä¸ĩåħħåĢ¼":9365,"ç¶Ń":9366,"æĹĹèĪ°åºĹ":9367,"ä¸Ńæĸ°ç½ĳ":9368,"Ġæ¢§":9369,"å½¹":9370,"æľĢå¥½":9371,"æł¼å°Ķ":9372,"éĽ»èħ¦":9373,"åĪĨåĪĨå¿«ä¸ī":9374,"Ġ2020-04-01":9375,"è£ħä¿®":9376,"è¾©":9377,"ĠæĿ¯":9378,"Ġ(0)":9379,"ĊãĢĬ":9380,"æ¨¡æĭŁ":9381,"Ġé¢Ħ":9382,"ĠçľŁäººæ¸¸æĪıä¸ĭè½½":9383,"æ¸Ķ":9384,"Ġå¸®":9385,"2019-12":9386,"çľŁäººçİ°åľº":9387,"æĪĳåĽ½":9388,"EH":9389,"Ġäºļç¾İam8æ³¨åĨĮ":9390,"Ġè¥¿çĽŁ|":9391,"èı²å¾ĭå®¾":9392,"æĭĺ":9393,"Ġéĥ´":9394,"åĪĨåĪ«":9395,"Ġtv":9396,"ãĢĳãĢĲpãĢĳãĢĲx":9397,"ĠåĽ¢":9398,"Ġ92":9399,"åīĩ":9400,"ä»ĳ":9401,"ĠæĹ¶éĹ´ï¼ļ2019å¹´":9402,"å¤ªåģĩ":9403,"æİĴåĪĹ5":9404,"å¼Ħ":9405,"ĠéĿŀ":9406,"ç¯Ģ":9407,"ĠåŃĻ":9408,"æ°ĳä¼Ĺ":9409,"ĠæĶĢæŀĿ":9410,"ĊåĲ´":9411,"âĢľä¸Ģå¸¦ä¸Ģè·¯âĢĿ":9412,"ĠæĿ¨åĽ½ç¦ıéº»è¾£çĥ«åĬłçĽŁè´¹":9413,"uccess":9414,"Ch":9415,"æī°":9416,"true":9417,"ĠçŁ¥åĲįæĹ©é¤ĲåĬłçĽŁ":9418,"Ġç¹Ŀï½":9419,"mer":9420,"Ġä¸īåİ¢":9421,"åħ¬åĬ¡":9422,"Ġribo88":9423,"ç¹§ï½¯":9424,"Ġæ²³åĮĹæĹ©é¤ĲåĬłçĽŁ":9425,"å¼ĢåºĹ":9426,"Ġæĺ¥åħīæĹ©é¤ĲåĬłçĽŁ":9427,"Ċéĵģè¡Ģ":9428,"Ġpk10éķ¿é¾Ļ":9429,"åģĩåĲĹ":9430,"æµ´":9431,"Ġ2020-04-08":9432,"Ġ2020-04-06":9433,"ç¹Ŀï½¬":9434,"Ġæ±ł":9435,"ĊI":9436,"åħ¬å¸ĥ":9437,"ĠçĤ¹åĩ»:":9438,"yXG":9439,"ä¸¤ä¸ª":9440,"Ġèĳ«èĬ¦":9441,"Ã¡":9442,"æł¡åĽŃ":9443,"åĪĨ11éĢī5":9444,"ĠReserved.":9445,"Ġclass":9446,"Ċ2.":9447,"Ġé©»é©¬":9448,"Ġagçİ¯äºļå®ĺç½ĳä¸ĭè½½":9449,"ĠçĪ±å¿ĥæĹ©é¤ĲåĬłçĽŁ":9450,"ĠåįĸæĹ©é¤ĲåĬłçĽŁ":9451,"Ġåĩ¡å¤«åŃĲæĹ©é¤ĲåĬłçĽŁ":9452,"ĠæĹ©çĤ¹åĬłçĽŁåºĹ10å¤§åĵģçīĮ":9453,"Ċå¤§ä¼ĹæĹ¥æĬ¥":9454,"æ³Ľ":9455,"ĠæĹ©çĤ¹åĬłçĽŁåºĹæİĴè¡Įæ¦ľ":9456,"ĠåŃ¦åİĨä¸įéĻĲ":9457,"Ġçİ¯äºļåľ¨çº¿":9458,"Ġåľĭ":9459,"äººæ°ĳæĹ¥æĬ¥":9460,"ĠçĭĹä¸ĩä¸įèĥ½":9461,"æľīä»Ģä¹Īè¦ģæ±Ĥ":9462,"Ġç§Ł":9463,"éĸĭç®±":9464,"Ġ82":9465,"ould":9466,"èº«ä»½è¯ģ":9467,"å®´":9468,"å°¤":9469,"Ġå¤©æ´¥æĹ©çĤ¹åĬłçĽŁæľīåĵªäºĽ":9470,"ĠæĹ©é¤Ĳé¥®åĵģåĬłçĽŁ":9471,"èĥ½å¤Ł":9472,"ĠæĹ©çĤ¹åĬłçĽŁåºĹæľīåĵªäºĽl":9473,"Ġla":9474,"ĠåĪ©æĿ¥w66å®ĺæĸ¹ç½ĳ":9475,"ĠæĹ©çĤ¹æĿ¥åĬłçĽŁ":9476,"Ġå¤©æ´¥æĹ©çĤ¹å°ıåĲĥåŁ¹è®ŃåĬłçĽŁ":9477,"Ġä¸ĭè½½å°Ĭé¾Ļapp":9478,"æĢ»æĺ¯":9479,"Ġagå®ĺæĸ¹ç½ĳç«Ļ":9480,"Â©":9481,"Ġæ¾³éĹ¨åįģå¤§":9482,"lc8":9483,"å·¨å¤§":9484,"Ġid":9485,"Ġåħ»çĶŁæĹ©é¤ĲåĬłçĽŁ":9486,"äºĭä¸ļ":9487,"office":9488,"ux":9489,"Ġ365betå®ĺç½ĳå¤ĩçĶ¨":9490,"å®ĺæĸ¹å¼ĢæĪ·":9491,"ç¦ģæŃ¢":9492,"èµ·æĿ¥":9493,"è¿Ķæ°´":9494,"Ġä»¥":9495,"éĺ³å¸Ĥ":9496,"æĿ©":9497,"ç´§æĢ¥":9498,"ï¼Įè¦ģ":9499,"Ġ71":9500,"ĠèĻİ":9501,"Ġä½³æľ¨":9502,"å®īæİĴ":9503,"Ġå¼Ģåħĥæ£ĭçīĮçīĽçīĽ":9504,"Ġ2018-12":9505,"çľģæĶ¿åºľ":9506,"5çłģ":9507,"æĨ":9508,"Ġç¥ŀå½©äºīéľ¸8":9509,"Ġè¡Įä¸ļ":9510,"Ġçİ©å¤§åıĳå¿«ä¸ī":9511,"ç»ĵæĿŁæĬķæ³¨":9512,"åĲ¯åĬ¨":9513,"å¨±ä¹Ĳæīĭæľºå¹³åı°":9514,"ĠåĪ©æĿ¥w66å®ĺæĸ¹ç½ĳç«Ļ":9515,"æıĲäº¤":9516,"éĤ®ç®±éªĮè¯ģ":9517,"æ£ĢæŁ¥":9518,"OFwi":9519,"Ġä¸ľèİŀ":9520,"Ġtime":9521,"çļĦå¹³åı°":9522,"/3":9523,"å¤ªéĺ³åŁİ":9524,"Ġ2020-04-07":9525,"ä½ĵèĤ²å½©ç¥¨":9526,"Ġåĩī":9527,"çº¯":9528,"ç½ĳ,":9529,"Ġæ¾³éĹ¨æ£ĭçīĮå¨±ä¹Ĳæīĭæľºå¹³åı°":9530,"éľĢæ±Ĥ":9531,"æĹ©çĤ¹æĢİä¹ĪåĬłçĽŁ":9532,"åįİæĹ©çĤ¹æĢİä¹ĪåĬłçĽŁ":9533,"Ġå¿«ä¸īå¤§åıĳ":9534,"ĠåĪ©æĿ¥w66èĢģçīĮ":9535,"ĊJ":9536,"çļĦå°ı":9537,"TC":9538,"Ġ81":9539,"æ±Łç½ĳ":9540,"çĻ»åħ¥_":9541,"\":\"":9542,"æĶ»åĿļ":9543,"Ġ2020-04-02":9544,"ĠéĿ©":9545,"æĶ¯ä»ĺå®Ŀ":9546,"Ġè¶Ĭ":9547,"2lk":9548,"ĠccåĽ½éĻħç½ĳæĬķå¹³åı°":9549,"çĸŁ":9550,"Ġagäºļæ¸¸éĽĨåĽ¢":9551,"Ġçİ¯äºļéĽĨåĽ¢agå¥³éĥİ":9552,"Ġ365betå®ĺç½ĳæıĲçİ°":9553,"åĲķå¸ĥ":9554,"èº«ä½ĵ":9555,"çİ©æ³ķ_":9556,"ç±³éĵº":9557,"Ġå¿ĥ":9558,"éĮĦ":9559,"Ġå°Ĭé¾Ļå¹³åı°":9560,"æĹ©çĤ¹å·¥ç¨ĭåĬłçĽŁ":9561,"åı£é¦Ļ":9562,"Ġå¸¦":9563,"Ġèħ¾åĨ²":9564,"æĹ©é¤Ĳå·¥ç¨ĭåĬłçĽŁ":9565,"èģĶèµĽçĽ´æĴŃ":9566,"Ġå¾Ĺ":9567,"Ġéĥ½åĮ":9568,"çĸŁçĸ¾":9569,"ç»ıæµİç½ĳ":9570,"Ġ365æ£ĭçīĮå®¢æľį":9571,"ç´Ħ":9572,"ĠæķĻèĤ²":9573,"çĽ´æĴŃ_":9574,"å¦Ĥä½ķè²¸æ¬¾":9575,"Ġ\\":9576,"font":9577,"hv":9578,"®è©¢":9579,"å¼Ł":9580,"ÅŁ":9581,"Ċâĸ":9582,"Ġèµ¶":9583,"ĠåıĮé¸Ń":9584,"Ċå±±ä¸ľ":9585,"è¡Ĺéģĵ":9586,"åľ¨çº¿å¨±ä¹Ĳ":9587,"åĩłçĤ¹":9588,"å¹¸è¿Ĳé£ŀèīĩ":9589,"å¤ľå®µ":9590,"åĵĦ":9591,"Ġ365you":9592,"Ġ2020-04-05":9593,"Ġç«Ļ":9594,"ĠæĿ¯æĬķæ³¨":9595,"Ġæ¼¯":9596,"ä¸¦":9597,"Ĺï¿½":9598,"è±ĨèħĲèĦĳ":9599,"ç¾İæĹ©é¤ĲåĬłçĽŁ":9600,"è±ĨèħĲèĦĳåĬłçĽŁ":9601,"Ġsim":9602,"ä¸įå¥½":9603,"æ³ķåĪ¶":9604,"Ġçĵ·éĥ½":9605,"åı£é¦ĻæĹ©çĤ¹åĬłçĽŁ":9606,"åı¯ä¿¡åĲĹ":9607,"ĩï¿½":9608,"ĠçĻ½éĵ¶":9609,"å¤ľå®µåĬłçĽŁ":9610,"åħįè²»":9611,"æ´ĭèĳ±":9612,"Ġå°Ĭé¾Ļæ³¨åĨĮ":9613,"Ġç¥ŀåĨľæŀ¶":9614,"åħįè´¹åĬłçĽŁ":9615,"æĹ©çĤ¹è½¦":9616,"æĹ©çĤ¹è½¦æĢİä¹ĪåĬłçĽŁ":9617,"çļĦåĬłçĽŁ":9618,"å°ıåĲĥåºĹåĬłçĽŁ":9619,"GZ":9620,"åľĨ":9621,"ãĢĤåİŁæłĩé¢ĺï¼ļ":9622,"Ġ2020-02-27":9623,"ç¦ıæĹ©é¤ĲåĬłçĽŁ":9624,"ĠID":9625,"å°ļæĹ©é¤ĲåĬłçĽŁ":9626,"Ĺç²®":9627,"12æľĪ20æĹ¥çĶµ":9628,"Ġè»Ĭ":9629,"Ġwho":9630,"ci":9631,"æľĽæĹ©é¤ĲåĬłçĽŁ":9632,"æĹ©çĤ¹åĬłçĽŁå¥½":9633,"æĲľçĭĲ":9634,"é¥ŃåĬłçĽŁ":9635,"îĿ":9636,"ĠAntiAd":9637,"è³ĩè¨Ĭ":9638,"èĤłç²ī":9639,"æĳĬåĬłçĽŁ":9640,"å¾ģæĹ©é¤ĲåĬłçĽŁ":9641,"è®¸åĬłçĽŁ":9642,"su":9643,"Ġéŀį":9644,"äºŃåĬłçĽŁ":9645,"ĠæĹ¥åĸĢ":9646,"æ¿ł":9647,":office":9648,"åºĦéĹ²":9649,"top":9650,"è¿ŀéĶģåĬłçĽŁåºĹ":9651,"é«ĺæ½®":9652,"å¤ĩçĶ¨ç½ĳåĿĢåĻ¨":9653,"Ġäºļç¾İå¤ļä¸ĢçĤ¹":9654,"Ġäºĳæµ®":9655,"no":9656,"æ£ĴçĲĥ":9657,"èĤłç²īåĬłçĽŁ":9658,"Ĺç²®æĹ©é¤ĲåĬłçĽŁ":9659,"åĮħåŃĲåºĹåĬłçĽŁ":9660,"Ġçº¢é»ĳå¤§æĪĺ":9661,"åĩıå°ĳ":9662,"ä¾¿æ°ĳæĹ©çĤ¹åĬłçĽŁ":9663,"äº¤æµģç¾¤_":9664,"Ċç½ĳæĺĵæĸ°éĹ»":9665,"éĵºåĬłçĽŁ":9666,"æĪ¶":9667,"ãĢĤè¯¥":9668,"ä¸Ńç¾İ":9669,"åıĳå°Ħ":9670,"èĢģçļĦåĵģçīĮ":9671,"æĮº":9672,"å¿Ļ":9673,"Ċ2019-10-19":9674,"è¡Įä¸ļåĬłçĽŁ":9675,"ĠæĻ®åħ°":9676,"è¾ħåĬ©åĻ¨":9677,"Ġ10åĪĨæĹ¶æĹ¶å½©":9678,"ĠèĲį":9679,"åĲĪæĪĲæĹ©é¤ĲåĬłçĽŁ":9680,"Ġí":9681,"éĴ¢æĹ©é¤ĲåĬłçĽŁ":9682,"æĸ°äº¬æĬ¥è®°èĢħ":9683,"ï¿½ï¿½ï¿½ï¿½ï¿½ï¿½ï¿½ï¿½":9684,"å¸¦æĿ¥":9685,"æľīæĹ©çĤ¹åĬłçĽŁ":9686,"æŃ¤æ¬¡":9687,"ĠæľĶ":9688,"Ġ365éĿ¢å¯¹éĿ¢":9689,"Ġç»¿èī²":9690,"ĠéĴ¦":9691,"éĤĵ":9692,"åľ°åįĢ(":9693,"è¸ª":9694,"12æľĪ19æĹ¥":9695,"reat":9696,"åħ±èµ¢åħ±æ¬¢ä¹Ĳ":9697,"æĲº":9698,"å®ŀåĲį":9699,"åĬŀçĲĨ":9700,"çİ°ä»£":9701,"Val":9702,"ĠåĲ¯":9703,"Ġ365æ£ĭçīĮä¸ĬåĪĨ":9704,"Ġæĸ°èĳ¡èĲĦäº¬":9705,"Ġèĥ½":9706,"Ġæīĭæľºåı·":9707,"Ċ2019-10-16":9708,"Ġ->":9709,"Ġåĩ¯æĹ¶æ¸¸æĪı":9710,"ê³":9711,"å½©å½©ç¥¨":9712,"ĊâĢľ":9713,"æĹłæ³ķæīĵå¼Ģ":9714,"è«®è©¢":9715,"ï¼Įåıª":9716,"å¹¿å·ŀ":9717,"èĻļæĭŁ":9718,"èİ«æĸ¯ç§ĳ":9719,"ä¹°å½©ç¥¨":9720,"Ġèİ±èĬ":9721,"æķ¢":9722,"èĦ¸":9723,"Ġå¤§åıĳå¿«ä¸īå¼Ģå¥ĸ":9724,"Ry":9725,"èĭ¹æŀľçīĪ_":9726,"å¤§ãĢĳãĢĲ":9727,"æ¯ģ":9728,"åĪº":9729,"è²ł":9730,"åĳ¨åīįï¼ī":9731,"Ġï¼Ī1åĳ¨åīįï¼ī":9732,"Ġäºļæ¸¸åĽ½éĻħéĽĨåĽ¢å®ĺç½ĳ":9733,"Ġéĺ¿é²ģ":9734,"è¯ģæĺİ":9735,"åĨĽäºĭ":9736,"æ´¥åİ¿|":9737,"ï¼Įè¿Ļæĺ¯":9738,"å·ŀ30å¤©å¤©æ°Ķ":9739,"Ġæ»ģ":9740,"æ®Ĭ":9741,"Ġky":9742,"å¤§ä¼Ĺ":9743,"ĠçĻ¾èī²":9744,"æĥ¨":9745,"æ¾³æ´²":9746,"åĨĴçĶ¨":9747,"ĠéĵľéĻµ":9748,"Ġbet365çľŁäºº":9749,"ĠArea)":9750,"æĹħæ¸¸å±Ģ":9751,"å°ĳå¹´":9752,"éļıæľº":9753,"çĶ¨ä»Ģä¹Ī":9754,"æĶĢ":9755,"ĠæµİåįĹ|":9756,"å¸¶":9757,"Ġå¤©æ°´|":9758,"Ġå°¤":9759,"ical":9760,"èĳ¬":9761,"å·ŀ15å¤©å¤©æ°Ķ":9762,"æĹłæ³ķéªĮè¯ģ":9763,"ĠçľŁäººçĻ»å½ķ":9764,"æĦŁè°¢":9765,"åĮ¹":9766,"67":9767,"æıĲéĨĴ":9768,"æķı":9769,"å½¢æĪĲ":9770,"è¿Ľåı£":9771,"Ġèİ«":9772,"-m":9773,"check":9774,"ĠCent":9775,"ĠåŃĿæĦŁ":9776,"ç¦»å¼Ģ":9777,"Ġåħįè²»":9778,"çĪµ":9779,"Ġ2020-03-30":9780,"å·ŀ10å¤©å¤©æ°Ķ":9781,"åĵªè£¡åı¯ä»¥":9782,"Ġä¸ĬèĻ":9783,"Ġbet365äºļæ´²":9784,"èİİ":9785,"éĩĩè®¿":9786,"Ġå¨Ħåºķ":9787,"åı¯ä»¥æıĲçİ°":9788,"çĲĥæİ¢":9789,"å£¹":9790,"Ċ2019-10-21":9791,"Ġå¸®åĬ©":9792,"Ġå¼łæİ":9793,"Ċä¸Ĭä¸ĢæĿ¡":9794,"ĠCo.":9795,"ĠåİŁæłĩé¢ĺï¼ļ":9796,"_id":9797,"Ġex":9798,"æĲ¬":9799,"Ġåĩ¯åıĳæīĭæľºå®ĺç½ĳ":9800,"49":9801,"æ¸¸æĪı_":9802,"Ġå·¢":9803,"æĺ¯âĢľ":9804,"}|":9805,"ĊæĹ¶éĹ´ï¼ļ2020å¹´04æľĪ":9806,"Ġæµıè§Īæ¬¡æķ°ï¼ļ":9807,"ç§ĳå°Ķæ²ģ":9808,"Ġä¸ĩåįļä½ĵèĤ²3.0":9809,"Ġå¤§åıĳçº¢é»ĳå¤§æĪĺ":9810,"CZ":9811,"ÖĤ":9812,"åģļä»£çĲĨ":9813,"ĠåħŃçĽĺ":9814,"åĬ¨è½¦":9815,"Ġ365betæıĲçİ°":9816,"ĠApp":9817,"ĠéľįéĤ±|":9818,"soft":9819,"ĠåĽ½åĨħ":9820,"å¦Ĥä»Ĭ":9821,"æ²ī":9822,"èµĦéĩĳ":9823,"Ġäºļç¾İä¼ĺæĥłæ°¸è¿ľå¤ļä¸ĢçĤ¹":9824,"Ġæįķé±¼æ¸¸æĪı":9825,"Ġäºļæ¸¸éĽĨåĽ¢app":9826,"Ġé¡µ":9827,"Ġé»ŀ":9828,"å®ĺç½ĳæ¬¢è¿İæĤ¨":9829,"æķ°éĩı":9830,"æľīappåĲĹ":9831,"ĠäºĮè¿ŀ":9832,"åĬ«":9833,"Ġç½ĳç»ľçľŁäººèµĮéĴ±":9834,"Ġèĩ³":9835,"èĶ¡":9836,"åħ·æľī":9837,"TML":9838,"Ġçİ¯äºļagæīĭæľºçĻ»å½ķ":9839,"ĠåĲīæľ¨èĲ¨":9840,"å¼¹åĬ¾æĿ¡æ¬¾":9841,"Ġå¾Ī":9842,"å¤§å¥ĸ":9843,"åĹİ?":9844,"è®®ä¼ļ":9845,"ĠåĸĢåĸĩæ²ģ":9846,"Ġé¦ĸçĪ¾":9847,"Ġå¼ĵ":9848,"Ġåīįå¤©20":9849,"Ġåĺīå³ª":9850,"orld":9851,"ï¼ĮåĽłä¸º":9852,"ĠæīĭæľºçīĪ":9853,"Ġæ£ĭçīĮæ¸¸æĪı":9854,"åľ°ä¸ĭéĮ¢èİĬ":9855,"ven":9856,"Ġå°Ĭé¾Ļç½ĳåĿĢ":9857,"ĊæĤ¨å½ĵåīį":9858,"Ġè¥¿èĹı":9859,"å®ļåĪ¶":9860,"Ġçİ¯äºļçĶµæ¸¸app":9861,"åħ¬ç½ĳ":9862,"agæĹĹèĪ°":9863,"Ġå¼Ģåħĥæ£ĭçīĮçļĦ":9864,"Ġåľ¨çº¿å¿«3":9865,"Ġå¤§åıĳå¿«ä¸īåĴĮåĢ¼":9866,"å¼Ģå¥ĸåİĨåı²_":9867,"Ġä¸ĥåı°":9868,"Ġå¤§åıĳå¿«ä¸īè®¡åĪĴ":9869,"åĲĪçĲĨ":9870,"ä»ĭç»įï¼Į":9871,"ï»¿ï»¿ï»¿ï»¿":9872,"Ġç½ĳé¡µ":9873,"Ċ2019-10-18":9874,"å»³":9875,"Ġ246":9876,"åĮĹäº¬å¸Ĥ":9877,"èĪªæ¯į":9878,"Ġçİ¯äºļçĶµæ¸¸æīĭæľºçīĪ":9879,"çĶµæ°Ķå®ĺç½ĳ":9880,"ĠInternational":9881,"è±¹åŃĲ_":9882,"çĶµæ°Ķå®ĺç½ĳåĩ¯åıĳå®ĺç½ĳ":9883,"Ġåĩ¯åıĳçĶµæ°Ķå®ĺç½ĳåĩ¯åıĳå®ĺç½ĳ":9884,"åĨħçļĦ":9885,"ä¿Ĺ":9886,"Ġå´":9887,"ç²¾åĵģ":9888,"ĠåĪ©æĿ¥w66.com":9889,"Ġéĥ¨èĲ½å®¢":9890,"ĊåįĹäº¬å¤´æĿ¡":9891,"çº³|":9892,"ĠæīĭæľºèµĮéĴ±æ¸¸æĪı":9893,"Ġå¹³åĩ":9894,"åħīæĺİç½ĳ":9895,"æ¶¦":9896,"åĸĬ":9897,"èŃīä»¶åĢŁéĮ¢":9898,"Ġæ½ŀ":9899,"Ċ2019-04":9900,"æ³¨åįķ":9901,"ĠLe":9902,"Ġéĺ¿é²ģç§ĳå°Ķæ²ģ":9903,"Is":9904,"ft":9905,"aaaa":9906,"çļĦå·¥ä½ľ":9907,"h0":9908,"æĿĳæ°ĳ":9909,"9u":9910,"è¿ĳæĹ¥ï¼Į":9911,".com.cn":9912,"Ġå°Ĭé¾Ļå¤ĩçĶ¨ç½ĳåĿĢå¼ĢæĪ·":9913,"ĠèĲ¬":9914,"().":9915,"åĪĨéĴŁéĴŁ":9916,"æ¬£":9917,"è¾¨":9918,"æİī":9919,"ĊæĻĭæ±Łæĸ°éĹ»ç½ĳ":9920,"ãĢĳãĢĲãĢĤãĢĳãĢĲ<ãĢĳãĢĲ/":9921,"bd":9922,"Ġåħ«ä¸Ģ":9923,"Ġäºļæ´²æ¸¸":9924,"Ġçļĩæģ©éĿłè°±":9925,"å£®":9926,"é¾Ļç½ĳ":9927,"å¥Ī":9928,"è¯Ģçªį_":9929,"error":9930,"è»į":9931,"ĠéĤ¹":9932,"Ġéĵĥå£°":9933,"åħįè´¹åħ¬å¼Ģ":9934,"ëĭ¤":9935,"æĦıå¤§åĪ©":9936,"èĩªæĪĳ":9937,"Ċ2019-10-15":9938,"çĸ«æĥħ":9939,"365ä½ĵèĤ²åľ¨çº¿":9940,"æ·ĺ":9941,"å¤§è¿ŀ":9942,"åĨľåľº":9943,"çĤ¹cc":9944,"åĴĮåĢ¼_":9945,"åİŁåİ¿|":9946,"ä¸ľæĸ¹":9947,"æĬ¥èŃ¦":9948,"çĶļèĩ³":9949,"çĶ·åŃ©":9950,"æĪ¿åŃĲ":9951,"æµ·å¸Ĥ|":9952,"Ċ2019-10-22":9953,"ĠçĽĳ":9954,"éĤĳåİ¿|":9955,"å·´é»İ":9956,"çĨĬçĮ«":9957,"å¼Ģå¥ĸç»ĵæŀľæŁ¥è¯¢":9958,"Ġbet365å®ĺæĸ¹":9959,"Ġé¼":9960,"èģĶéĤ¦":9961,"Ġhas":9962,"Ġíķ":9963,"ï¼Įä¸ŃåĽ½":9964,"çĤĴ":9965,"Ċ2018-10":9966,"çĪĨåĪĨ":9967,"Ġ2020-04-03":9968,"æ·±åħ¥":9969,"å·Ŀå¸Ĥ|":9970,"Ġæķ¦åĮĸ|":9971,"æ³īåİ¿|":9972,"Ġfunction()":9973,"Ind":9974,"æĽ¹":9975,"å®¶å±ŀ":9976,"Ġåºĵå°Ķ":9977,"ìĿ´":9978,"æ³½åİ¿|":9979,"Ġåĩ¯åıĳçĽ´æĴŃapp":9980,"æĮĳæĪĺ":9981,"li":9982,"Ġèµ¶éĽĨ":9983,"åıªï¿½":9984,"Ġ356betæıĲçİ°":9985,"ĠäºĶèİ²|":9986,"Ġçªģæ³ī|":9987,"æľĢæĸ°çĻ»å½ķç½ĳç«Ļ":9988,"Ġå¤§åĲį|":9989,"æºĲçłģ":9990,"Ġæ³ķå¾ĭ":9991,"Ġæ¹ĸåı£|":9992,"åŀĥåľ¾":9993,"ĠæĶ¾":9994,"ãĢĤæĪĳ":9995,"Ġé¦Ļæ²³|":9996,"éĻĲé¢Ŀ":9997,"ĠChina":9998,"ĠcommentCount:0,":9999,"ĠmainCommentCount:0,":10000,"ĠæĹº":10001,"+app":10002,"ĠçīŁå®ļ|":10003,"Ġéĺ¿åŁİ|":10004,"TE":10005,"èĭ¹æŀľAPPï¼ļå½©ç¥ŀ":10006,"ï¼ļå½©ç¥ŀäºīéľ¸8":10007,"Ġæ´±æºĲ|":10008,"Ġå°Ĭé¾Ļå¤ĩçĶ¨ç½ĳç«Ļ":10009,"ĠåĪ©æĿ¥æ¸¸æĪı":10010,"82":10011,"Ġå²Ĳå±±|":10012,"Ġbt365ä½ĵèĤ²æĬķæ³¨":10013,"ï¼ĮæĽ´":10014,"ĠåĴĮé¾Ļ|":10015,"Ċ365bet":10016,"ĠèĬĴ":10017,"Ġåĺīç¦¾|":10018,"é©±":10019,"æ»©":10020,"54":10021,"ä¸Ģä½į":10022,"åĲįç§°":10023,"èĩªåĬ©":10024,"æİ¥åı£":10025,"lic":10026,"ĠæĿ¾æ±Ł|":10027,"ond":10028,"æĵļ":10029,"Ġç¦ıå½©":10030,"æľµ":10031,"åĬ¨çī©":10032,"Ġè°·":10033,"èĲ½å®ŀ":10034,"ç½ĳ|":10035,"Ġå¯ŁåĵĪå°Ķåı³ç¿¼åĲİæĹĹ|":10036,"ĠçīĻ":10037,"Ġå¥¥":10038,"Ĺİ":10039,"indow.":10040,"ĊèĲ§":10041,"æŃ¥éª¤":10042,"Ġåıĸæ¶Ī":10043,"Ġå¤§èįĶ|":10044,"Ġåı°åīį|":10045,"æĲ¶":10046,"AM":10047,"ĠæŃ£éĺ³|":10048,"Ġæīİåħ°å±¯|":10049,"Ġä¹Įé©¬":10050,"Ġç¯":10051,"Ġä¸īåĪĨæĹ¶æĹ¶å½©":10052,"ĠæľĢå¥½çļĦ":10053,"æ£Ģå¯Ł":10054,"Ġ2020-04-09":10055,"Y29":10056,"æĸ½å·¥":10057,"æĹłäºº":10058,"Ġä¹Įåħ°æµ©çī¹|":10059,"æ¸¯æ¾³":10060,"IOSä¸ĭè½½_":10061,"Ġ!=":10062,"Ġå®ģæ³¢":10063,"èĩºåįĹå¸Ĥ":10064,"Ġåĳ¼çİĽ|":10065,"Ġæ¶¿é¹¿|":10066,"Ġç¿ģæºĲ|":10067,"ä¸Ńæĸĩå®ĺç½ĳ":10068,"ï¼Įè¢«":10069,"è¾ŀ":10070,"å°ıåĮº":10071,"åķıé¡Į":10072,"ä¸ĭè½½å®¢æĪ·ç«¯":10073,"Ġ365ä½ĵèĤ²å®ĺæĸ¹":10074,"æĹłæ³ķæıĲçİ°":10075,"é¢Ĩå¯¼äºº":10076,"è¢ĸ":10077,"ĠAp":10078,"å¹¼":10079,"ĊH":10080,"éĤĬ":10081,"ater":10082,"Ġä¹Įå½ĵ|":10083,"Ġ2019-11-18":10084,"ĠæīİåĽĬ|":10085,"ĠåĬ¡":10086,"Ġå²¢å²ļ|":10087,"ĠæľŃè¾¾|":10088,"ĠåĸĢåĸĩæ²ģå·¦ç¿¼":10089,"èĥ½æıĲçİ°":10090,"Ġåıĳå¸ĥæĹ¶éĹ´ï¼ļ2020-0":10091,"cessed":10092,"Ġå¼ĵéķ¿":10093,"èĥľå½ª":10094,"p>":10095,"ĠèĽ":10096,"èĥľå½ªä¸ĵæłı":10097,"Ġwww.baidu.com/":10098,"ui":10099,"æķ°ï¼ļ":10100,"åĪ©äºļ":10101,"Ġæµ®æ¢ģ|":10102,"è°Ĭ":10103,"ĊåĲ´èĥľå½ªä¸ĵæłı":10104,"Ġé¢Ŀå°Ķåı¤çº³|":10105,"éĩĮéĿ¢":10106,"è©ķæ¯Ķ":10107,"???":10108,"(data":10109,"Ġä¹Įé©¬æ²³|":10110,"Ġèİ·":10111,"èĦ±|":10112,"èĪį":10113,"Ġå¼ĵéķ¿å²Ń|":10114,"ĠåĸĢåĸĩæ²ģå·¦ç¿¼|":10115,"Ġæ±Łèĭıå¿«3":10116,"Ġéħį":10117,"Ġè±ª":10118,"Ġab":10119,"Ġéĺ¿é²ģç§ĳå°Ķæ²ģæĹĹ|":10120,"ĠæĿľéĽĨ|":10121,"æ²»çĸĹ":10122,"ä¸īåħ¬":10123,"Ġå¢¨èĦ±|":10124,"æŃ¦æ±ī":10125,"2016å¹´":10126,"èĢģäºº":10127,"Ġåīįå¤©04":10128,"Ġ365æ£ĭçīĮæ°´æŀľæľº":10129,"æĹ¢":10130,"åĺİ":10131,"åħ¨å¤©è®¡åĪĴ_":10132,"ĠæĢĢæŁ":10133,"çľŁäººçĽ´æĴŃ":10134,"åĲĦåľ°":10135,"Ġåīįå¤©19":10136,"ç¼´":10137,"Ġéĺ¿åĽ¾":10138,"Ġéĺ¿çĵ¦":10139,"æīĭæľºçīĪ_":10140,"Ġå°Ĭé¾Ļæ£ĭçīĮ":10141,"Image":10142,"ech":10143,"ãĢĤä¹łè¿ĳå¹³":10144,"äººå·¥è®¡åĪĴ":10145,"Ġéĺ¿æĭīåĸĦåı³æĹĹ|":10146,"Ġäºļç¾İä¼ĺæĥłå¤ļä¸ĢçĤ¹":10147,"Ġåħ«ä¸Ģéķĩ|":10148,"UUå¿«3":10149,"å±±åİ¿":10150,"ãĢĳãĢĲäººãĢĳãĢĲ":10151,"lock":10152,"ĠæĹ¥åľŁ":10153,"æĭ¥æľī":10154,"ï¼İ":10155,"ĠåĪ©æĿ¥w66æľĢç»ĻåĪ©çļĦèĢģçīĮ":10156,"Ġ[];":10157,"ĠäºļæĲıä¸ĭè½½å®¢æĪ·ç«¯":10158,"ĠäºļæĲıçľŁäººçĽ´æĴŃ":10159,"æĪ¿éĹ´":10160,"Ġ2020-03-31":10161,"(0)":10162,"ĠéĹ¨å¤´":10163,"Ġéĥİ":10164,"ä¿¡åı·":10165,"ìĦ":10166,"ĠéĦ¯":10167,"ï¼ĵ":10168,"ĠçĭĹä¸ĩä¹°çĲĥ":10169,"ĊThe":10170,"çħ§çīĩ":10171,"Ġå¸®åĬ©ä¸Ńå¿ĥ":10172,"à¸«":10173,"ä¸ĩçĭĹ":10174,"éļĬ":10175,"æĸ°ç¤¾":10176,"åľ¨åĮĹäº¬":10177,"ĠçĶµçİ©åŁİæįķé±¼":10178,"ç¼©":10179,"§ï¿½":10180,"Ĥåİ¿|":10181,"ĸéľ":10182,"ĠèģĤæĭī":10183,"æ³¨åĨĮå¼ĢæĪ·":10184,"_å¤§åıĳ":10185,"Ġåĩ¯æĹ¶åĽ½éĻħå¼ĢæĪ·":10186,"è§£ç»ĳ":10187,"ä¿¡èªīç½ĳç«Ļ":10188,"ä¿ĥè¿Ľ":10189,"Ġï¿¥":10190,"å½©èµĦæĸĻ":10191,"æ³¨åĨĮéĢģéĴ±":10192,"äºĮåįģ":10193,"word":10194,"çº¦ç¿°éĢĬ":10195,"µè¡Į":10196,"ìĹ":10197,"Ġä¹Ĳæ©ĻåĽ½éĻħ":10198,"éŁ³ä¹Ĳ":10199,"Ċæĺ¥":10200,"ŀï¿½":10201,"ĠçĭĹä¸ĩæľī":10202,"Ġæ±Łèĭıå¿«ä¸ī":10203,"éĥ½æľī":10204,"Ġæīİé²ģ":10205,"Ġ$('#":10206,"èĭ¹æŀľapp":10207,"Ð¾Ð":10208,"åĪ°è´¦æĹ¶éĹ´":10209,"éĢī7":10210,"Ġ918åįļå¤©å¨±ä¹Ĳ":10211,"Ġç¦»":10212,"é«ĺæ½®çīĪ":10213,"æª¬åıªï¿½":10214,"Ġ918ï¿½éİıçĦ¯æª¬åıªï¿½":10215,"Ġagæ³¨åĨĮ":10216,"Ġåĩ¯åıĳå®ĺç½ĳä¸ĭè½½ç½ĳåĿĢ":10217,"Ġè°ĥ":10218,"è¾ĵéĴ±_":10219,"Ġæ¾³éĹ¨bet365":10220,"ŀà¸":10221,"Ġè°¢éĢļ":10222,"æīĭæľºå®ĺæĸ¹å®¢æĪ·ç«¯ä¸ĭè½½":10223,"Ċä»ĬæĹ¥æĹ©æĬ¥":10224,"æĢª":10225,"å®ŀæĹ¶":10226,"Mjh":10227,"ëĬ":10228,"åİļ":10229,"Ġå¤§åıĳå¿«ä¸īçļĦ":10230,"num":10231,"åħĭåħ°":10232,"iti":10233,"ĠçŁ³çĭ®":10234,"èĩªæ²»åĮº":10235,"çºĮ":10236,"AS":10237,"Ġåīįå¤©17":10238,"Ċ2019-10-20":10239,"Ġåĩ¯åıĳæ³¨åĨĮå¹³åı°åħįè´¹ä¸ĭè½½":10240,"è¡¡":10241,"Ĺåİ¿|":10242,"çĶ¯":10243,"à¸¥à¸":10244,"æĪĲåĳĺ":10245,"ä¸ºâĢľ":10246,"åħ¬æ°ĳ":10247,"åħ´åİ¿|":10248,"ä½łä»¬":10249,"24æĹ¥":10250,"ä¸Ģå¹´":10251,"ä½ĵèĤ²å®ĺç½ĳ":10252,"Ġè¾ī":10253,"Ċ356bet":10254,"æıĲéĹ®":10255,"ĊçĻ¼è¡¨æĸ¼":10256,"Ĥï¿½":10257,"irst":10258,"å½©ä¹Ĳ":10259,"HJ":10260,"çļĦéĩįè¦ģ":10261,"ĠçĭĹä¸ĩé»ĳ":10262,"Ġéĺ³æľ":10263,"ĠåĬłæĭ¿å¤§":10264,"å½©ccåĽ½éĻħ":10265,"æĸ¤":10266,"è´§è½¦":10267,"anji":10268,"æľĢæĸ°å®ĺç½ĳ":10269,"Ġçİ¯äºļagå®ĺç½ĳ":10270,"èµ°åĬ¿åĽ¾_":10271,"ä¸Ĭç½ĳ":10272,"ĠçĭĹä¸ĩè½¯ä»¶":10273,"Ġå¤§åıĳå¿«ä¸īå®ĺç½ĳ":10274,"åı¸æľº":10275,"åĨľä¸ļ":10276,"ç´«":10277,"å®¢æĪ¿":10278,"å·²è¢«":10279,"åħ¬å¼ĢéĢīæĸĻ":10280,"æĸ°æĹ¶ä»£":10281,"ç²¹":10282,"ä»ĺæ¬¾":10283,"ä¿¡èªīå¥½":10284,"æĢ»ä»£_":10285,"çĤ¹ï¼Į":10286,"Ġæ¸łéģĵ":10287,"Ġ66åĪ©æĿ¥å®ĺç½ĳ":10288,"nãĢĳãĢĲtãĢĳãĢĲ":10289,"Ġåīįå¤©02":10290,"ĠåĮħåŃĲ":10291,"05ï¿½ï¿½":10292,"Ġè¯¦":10293,"Ġç¦¹":10294,"çĽĳçĿ£":10295,"Ġçº¿ä¸ĬçľŁäººèµĮéĴ±":10296,"ç¹Ŀï½«":10297,"Ġçİ¯äºļagçĻ»å½ķ":10298,"Ġéĵĥå£°é«ĺæ½®çīĪ":10299,"èĥģ":10300,"ĠèµĽ":10301,"è¨Īç®Ĺ":10302,"Ġç¥ŀåĨľæŀ¶æŀĹ":10303,"ĊTh":10304,"8,":10305,"çĪ½":10306,"ç´ħ":10307,"Ġåīįå¤©05":10308,"Ġæķħ":10309,"ĠLtd":10310,"Ġdes":10311,"/å¤§åıĳ":10312,"Ġæ²»":10313,"ĠNew":10314,"ĠOn":10315,"èµ°åĬ¿_":10316,"æľĢæĸ°åľ°åĿĢ":10317,"Ġ2016-12":10318,"èµ«":10319,"Ġmore":10320,"uy":10321,"éĳ«":10322,"ĊæĺĨä»ĳ":10323,"å¥Ĺè·¯":10324,"Ġà¹":10325,"Ġè¥¿å®ī":10326,"ç®Ĺåĳ½":10327,"ĠæµģåĬ¨æĹ©é¤ĲåĬłçĽŁ":10328,"åħĥï¼Į":10329,"Ġæ¾³éĹ¨365betå®ĺç½ĳ":10330,"ĠæĿŃå·ŀ":10331,"Ġ365betå¤ĩçĶ¨":10332,"å§ĵåĲį":10333,"Ġåīįå¤©23":10334,"Ġåīįå¤©14":10335,"è´¯":10336,"ĠæĹ©é¤ĲåĬłçĽŁåĵªå®¶å¥½":10337,"ĠBy":10338,"èŁ":10339,"Ġæİ¨èįĲ":10340,"ä¸įå¾Ĺ":10341,"Ġå¤§ä¸ĵ":10342,"ĠåŃ¦çĶŁæĹ©é¤ĲåĬłçĽŁ":10343,"çľŁäººå¨±ä¹Ĳ":10344,"_è®¡åĪĴå¸Ī":10345,"ä¹Ķ":10346,"eed":10347,"Ġå¤©æ´¥æĹ©çĤ¹åĬłçĽŁè½¦":10348,"ĠéĽĦå·ŀæĹ©é¤ĲåĬłçĽŁçĶµè¯Ŀ":10349,"ĠæĹ©çĤ¹ç²¥åĬłçĽŁ":10350,"ãĢĳãĢĲoãĢĳãĢĲrãĢĳãĢĲ":10351,"Ġè±ĨæµĨ":10352,"Ġå³¡":10353,"ĠåĬłçĽŁçī¹èī²æĹ©çĤ¹":10354,"ç½ĳç«Ļå¤ļå°ĳ":10355,"ĠåĮħåŃĲæĹ©çĤ¹åĬłçĽŁ":10356,"Ġå¹¿å¼ıæĹ©é¤ĲåĬłçĽŁ":10357,"Ġå®īå¾½æĹ©çĤ¹åĬłçĽŁ":10358,"æŃ£è§Ħç½ĳç«Ļ":10359,"Ġå°Ĭé¾Ļd88ä¸ĭè½½":10360,"èµł":10361,"è´º":10362,"ĠæĹ©çĤ¹é¤Ĳé¥®åĬłçĽŁ":10363,"åħ¶ä¸Ń":10364,"ĊåĲīæŀĹ":10365,"0000":10366,"èİ·åıĸ":10367,"ĠåĮĹäº¬æĹ©çĤ¹åĬłçĽŁ":10368,"Ġçİ¯äºļagæ¸¸æĪı":10369,"Ġæ¹ĸåįĹçī¹èī²æĹ©çĤ¹åĬłçĽŁ":10370,"Ġåīįå¤©11":10371,"ĠæĹ©çĤ¹å°ıåĲĥåĬłçĽŁç½ĳ":10372,"ĠæĹ©é¤ĲåŁ¹è®ŃåĬłçĽŁ":10373,"æ±Łåį«":10374,"äºĭæĥħ":10375,"ĠæĹ©é¤Ĳé¤Ĳé¥®åĬłçĽŁ":10376,"Ġæ²¹æĿ¡æĹ©é¤ĲåĬłçĽŁ":10377,"ĠæĹ©é¤ĲåĬłçĽŁå¥½é¡¹çĽ®":10378,"Ġstyle":10379,"Ġåĩ¯æĹ¶åĽ½éĻħå¹³åı°":10380,"æ¹ĺæ½Ń":10381,"ä¸¾åĬŀ":10382,"åĽ½éĺ²":10383,"Ġæ¾³éĹ¨365ä½ĵèĤ²æĬķæ³¨":10384,"ĠæĹ©é¤ĲéĿ¢é¦ĨåĬłçĽŁ":10385,"Ċçĩķ":10386,"ãĢĳãĢĲäºĨ":10387,"Ġup":10388,"ãĢģãĢģ":10389,"ĠéĻķè¥¿æĹ©çĤ¹åĬłçĽŁ":10390,"Ġ???":10391,"ĠæĹ©çĤ¹åĬłçĽŁé¡¹çĽ®":10392,"ĠéĽĦå·ŀæĹ©é¤ĲæĢİä¹ĪåĬłçĽŁ":10393,"å®īè£ħ_":10394,"ãĢıãĢİ":10395,"Ġè±ĨæµĨæĹ©é¤ĲåĬłçĽŁ":10396,"Ġåīįå¤©10":10397,"Ġåģ¥åº·æĹ©çĤ¹åĬłçĽŁ":10398,"è¢«åĨĴçĶ¨":10399,"èµĦèŀį":10400,"Ġå±±ä¸ľæĹ©é¤ĲåĬłçĽŁ":10401,"ĠæĹ©é¤ĲåĮħåŃĲåĬłçĽŁ":10402,"ĠccåĽ½éĻħå¹³åı°":10403,"43":10404,"åĥ¹æł¼":10405,"æĪĲç»©":10406,"ĠæĹ©çĤ¹å°ıåĲĥåĬłçĽŁæİĴè¡Įæ¦ľ":10407,"åįĹæĬķ":10408,"ï¼Įå¥¹":10409,"Ġåīįå¤©01":10410,"Ġé¦Ļæł¼éĩĮ":10411,"çĿ¡":10412,"è®¼":10413,"Ġæµı":10414,"çĽ¸ä¿¡":10415,"ĠæĹ©çĤ¹è½¦åĬłçĽŁ":10416,"èĢĥèĻĳ":10417,"è¾ħåĬ©_":10418,"å¯¼èĪªç½ĳ_":10419,"ĠæĶ¶ä¸įåĪ°":10420,"Ġæ¸łéģĵåĲĪä½ľ":10421,"ĠæĶ¶ä¸įåĪ°éªĮè¯ģ":10422,"ä¿¡èªīæĢİä¹Īæł·":10423,"Ġå¤§ç¦ıæĿ¥æĹ©çĤ¹åĬłçĽŁ":10424,"ĠæĹ©çĤ¹éĿ¢æĿ¡åĬłçĽŁ":10425,"ĠæĹ©é¤ĲåºĹåĬłçĽŁåĵªå®¶å¥½":10426,"Ġæīİé²ģçī¹æĹĹ|":10427,"Ġæ±ŁèĭıæĹ©é¤ĲåĬłçĽŁ":10428,"æŀģéĢŁå¿«ä¸ī":10429,"ç¶²è·¯":10430,"æķĮ":10431,"Ġæ¾³éĹ¨ç²¾åĩĨ":10432,"Ġæ¹ĸåĮĹæĹ©é¤ĲåĬłçĽŁ":10433,"Ġåīįå¤©07":10434,"é¹¿":10435,"Ġå·´æŀĹåı³æĹĹ|":10436,"Ġå¾·éĴ":10437,"°ï¿½ï¿½":10438,"Ġw66å®ĺç½ĳ":10439,"Ġæłĸéľ":10440,"246":10441,"æ³¨åĨĮå®ĺç½ĳ":10442,"Ġä¸Ńå¼ıæĹ©çĤ¹åĬłçĽŁ":10443,"ĠAGäºļå®ĺæĸ¹":10444,"Ġä¸Ĭæµ·æĹ©çĤ¹åĬłçĽŁ":10445,"Ġå¾Ģ":10446,"ĠçĭĹä¸ĩä¸ĭè½½":10447,"5åĪĨæĹ¶æĹ¶å½©":10448,"ĠæĹ©çĤ¹åĬłçĽŁç½ĳ":10449,"ĠåĲ¦":10450,"Ġä¾¯":10451,"éĥµå±Ģ":10452,"ĠæĹ©é¤Ĳå·¥ç¨ĭåĬłçĽŁ":10453,"Ġè½¦":10454,"å¸Ĥéķĩ":10455,"ä¸ĭè¼ī":10456,"è¥Ħ":10457,"å¾ĭå¸Ī":10458,"æĸ°ç½ĳåĿĢ":10459,"Mz":10460,"57":10461,"ĠæĹ©çĤ¹è¿ŀéĶģåĬłçĽŁ":10462,"Ġæĸ°ä¸ĩåįļ":10463,"rip":10464,"æķĳæı´":10465,"ĠæĺĨæĺİ":10466,"éĺµ":10467,"ĠæĻ´":10468,"ĠæĬ¥":10469,"Ġ365åľ¨çº¿ä½ĵèĤ²æĬķæ³¨":10470,"Ġåīįå¤©09":10471,"ĠæģŃ":10472,"æ´Ľéĺ³":10473,"ĠèĢĴ":10474,"æĬĢå·§_":10475,"æ£ĭçīĮå®¤":10476,"éĥ½ä¼ļ":10477,"æĩĤ":10478,"Ganji":10479,"ĠçĻ¼è¡¨":10480,"ĠåĽ¾ä»¬":10481,"æ©ĭ":10482,"ä»İåĵªéĩĮ":10483,"Ġçİ¯äºļæīĭæľºapp":10484,"style":10485,"ĠçıŃæĪ":10486,"Ġäºļç¾İåĽ½éĻħå¹³åı°":10487,"Ġ365ä½ĵèĤ²æĬķæ³¨çľŁäºº":10488,"Ġåīįå¤©08":10489,"èµĦèŀįåĪ¸":10490,"Ġäºļç¾İam8å®ĺæĸ¹ç½ĳç«Ļ":10491,"Ġåīįå¤©16":10492,"Ġåĺīèį":10493,"å¤§éĻĨ":10494,"éĺ³åİ¿":10495,"æĺİå¹´":10496,"Ġå¤§æ´":10497,"Ġä¹ħæ²»":10498,"Ġè¿Ń":10499,"ä¼ļãĢĳãĢĲ":10500,"è¿ħ":10501,"æĴ¤":10502,"çĲĨè´¢":10503,"çº³å£«":10504,"ĠTempl":10505,"icrosoft":10506,"Ġçĵ¦æĪ¿":10507,"Ġåīįå¤©12":10508,"è´¤çº³å£«":10509,"åįķåıĮï¼ļå½©ç¥ŀäºīéľ¸8":10510,"åľŁèĢ³åħ¶":10511,"Ġæ²Ľåİ¿|":10512,"Ġç¥ŀåĨľæŀ¶æŀĹåĮº|":10513,"ĊæĹ¶éĹ´ï¼ļ2020-0":10514,"ĠæĭĽè´¤çº³å£«":10515,"Ġwww.baidu.com/aaaa":10516,"remove":10517,"iversity":10518,"æ¸¬":10519,"IP":10520,"åĮĹäº¬èµĽè½¦":10521,"æ¯«":10522,"ĠåĬ¨æ¼«":10523,"ush":10524,"å®īåįĵçīĪ_":10525,"Ġäºļæ¸¸appæĢİæł·":10526,"ĠåĩĨ":10527,"Ġæĸ°çĸĨ":10528,"ĠèĹģ":10529,"Ġèĭ¥ç¾":10530,"Ġç´¢":10531,"ï¼Įä½Ĩæĺ¯":10532,"å¥ĸéĩĳä»£çłģ":10533,"ĠæŃ¦é¸":10534,"cted":10535,"Ġw66æīĭæľº":10536,"ĊâĢĿ":10537,"å¦Ĥä½ķæıĲæ¬¾":10538,"èļ":10539,"ĠäºķçłĶ":10540,"ound":10541,"Ċåīį":10542,"Ġbet356ä½ĵèĤ²åľ¨çº¿":10543,"25æĹ¥":10544,"Ġå£¤":10545,"order":10546,"ĠæĹłæ£":10547,"ĊæĺĨä»ĳç½ĳ":10548,"ĠçŁ³æ²³":10549,"ĊCopyrightÂ©":10550,"Ġåºĵä¼¦":10551,"æĺ¯å¤ĸåĽ´åĲĹ":10552,"ä»ĸä»¬çļĦ":10553,"ĠåĪ©æĿ¥AGæĹĹèĪ°åİħ":10554,"éĤ£äºĽ":10555,"çĶŁçī©":10556,"ĠCity":10557,"Ġk8å¨±ä¹Ĳå®ĺç½ĳåľ°åĿĢå¨±ä¹Ĳ":10558,"29æĹ¥":10559,"æĪªåĽ¾":10560,"æĹ¥æĬ¥éģĵ":10561,"çĶ¨è½¦":10562,"Ġå½©ç¥ŀapp":10563,"Ġagçİ¯äºļç½ĳç«Ļ":10564,"Ġæł¹":10565,"box":10566,"ä¼łåªĴç½ĳ":10567,"èĭ¹æŀľçīĪå®ĺæĸ¹ä¸ĭè½½":10568,"Ġå²Ĺ":10569,"æĮ£":10570,"è§£éĻ¤":10571,"ĠçĻ½æľĹ":10572,"æįŁå¤±":10573,"Ġåīįå¤©18":10574,"èµı":10575,"ĠåĻ":10576,"ĠäºļæĲıä½ĵèĤ²èĭ¹æŀľçīĪå®ĺæĸ¹ä¸ĭè½½":10577,"è¯¸":10578,"æĭĽåķĨåĬłçĽŁ":10579,"ä»Ķ":10580,"å®£ä¼ł":10581,"æļ¨":10582,"ãĢĤæĪĳä»¬":10583,"å®ĺç½ĳçĻ»å½ķä¸ĭè½½":10584,"ĠIt":10585,"éİ®":10586,"ãĢĳãĢĲiãĢĳãĢĲnãĢĳãĢĲ":10587,"Ġæľ¬åľŁ":10588,"attr(\"":10589,"ĠåĮºåİ¿":10590,"ua":10591,"ĠåĲ«":10592,"ĊæĿŃå·ŀ":10593,"æŃ£ç½ĳå¹³åı°":10594,"Ġbet365æıĲçİ°":10595,"Ġå¸Ī":10596,"ç½ĳé¡µçīĪçĻ»å½ķ":10597,"Ċ365æ£ĭçīĮ":10598,"ï¼Įåı¯":10599,"Ġå·´é»İ":10600,"Ġk8æ£ĭçīĮ":10601,"Ġä¸İ":10602,"èı±":10603,"å¼Ģå¿ĥ":10604,"ä»£æĽ¸è²¸æ¬¾":10605,"ãĢĳãĢĲåľ¨ãĢĳãĢĲ":10606,"Ġä¸ĭä¸Ģç¯ĩï¼ļæ²¡æľīäºĨ":10607,"ç¼ĺ":10608,"Ċçĩķèµµ":10609,"ĠçĭĹä¸ĩç»ĵç®Ĺ":10610,"çİ°åľºå¨±ä¹Ĳ":10611,"ĠèĬ¦":10612,"Ġåīįå¤©06":10613,"Ġim":10614,"å¼Ģä»Ģä¹Ī":10615,"æ¬Ħ":10616,"Ġçł´":10617,"ĠåĪļ":10618,"bte365":10619,"vis":10620,"LO":10621,"çĤ¹è¯Ħ":10622,"(R":10623,"Ġæīĭæľºåı·è¢«åĨĴçĶ¨":10624,"éłħ":10625,"ĊæĤ¨çļĦä½įç½®ï¼ļ":10626,"Ċåıĳå¸ĥæĹ¶éĹ´:":10627,"ĠåĮºåİ¿å¯¼èĪª":10628,"V4":10629,"Ġç§°":10630,"Ġstr":10631,"Ġå§ļ":10632,"äºļæ¸¸éĽĨåĽ¢":10633,"ä¸įæľĥ":10634,"å±ħæ°ĳ":10635,"èĬ±èĵ®":10636,"Ġ365æ£ĭçīĮå¾®ä¿¡":10637,"Ġåĩ¯åıĳçĶµæ¸¸å®ĺæĸ¹ç½ĳç«Ļ":10638,"åħįè´¹èµĦæŀĵå¤§åħ¨":10639,"ĠCD":10640,"appä¸ĭè½½å®ĺç½ĳ":10641,"Ġé¢Ŀæķ":10642,"Ġæī¿å¾·åİ¿|":10643,"me":10644,"æĿĥåĪ©":10645,"ĠæĪ¿å±ĭæ±Ĥ":10646,"Ġæ¾³éĹ¨365bet":10647,"æľĢæĸ°æĬķæ³¨":10648,"å¨±ä¹Ĳç½ĳ":10649,"ï½ŀ":10650,"éĿĴå¹´æĬ¥":10651,"per":10652,"Ċä¸Ńæĸ°ç½ĳ":10653,"Ġ10åĪĨpk10":10654,"Ġè¾½éĺ³åİ¿|":10655,"ĠéĹ¨æºĲ|":10656,"æ¯ĶèµĽé¢Ħæµĭ":10657,"Ġéģµä¹īåİ¿|":10658,"inese":10659,"åħļå§Ķ":10660,"Ġé»Ħå±±å¸Ĥ|":10661,"Ċæ¹ĺæ½Ń":10662,"ï¼Įä»¥åıĬ":10663,"Ġkyå¼Ģåħĥæ£ĭçīĮ":10664,"åĽŀè¦Ĩ":10665,"åħĭæĸ¯":10666,"Ġå¿Ĺ":10667,"Ġmobile":10668,"Ġæĸ°ç«¹åİ¿|":10669,"Ġä¸Ĭé¥¶åİ¿|":10670,"Ġæłªæ´²åİ¿|":10671,"æķ´ä¸ª":10672,"ĠçĭĹä¸ĩè®©çĲĥ":10673,"Ġå®ľå®¾åİ¿|":10674,"ĠèĬľæ¹ĸåİ¿|":10675,"ç½Ĳ":10676,"æĺİç¡®":10677,"æ²Ī":10678,"ä¸įä»ħ":10679,"éĿ¢ä¸´":10680,"Ġqueries":10681,"çģŃ":10682,"Ġä¼Ĭå®ģåİ¿|":10683,"äººæ°ĳç½ĳ":10684,"Ġåı°åĮĹåİ¿|":10685,"Ċä½ľèĢħ:":10686,"èµĸ":10687,"Ġè¡¡éĺ³åİ¿|":10688,"ĠéĢļåĮĸåİ¿|":10689,"æĬ¥éģĵç§°ï¼Į":10690,"èĦ±æ¬§":10691,"çĻ»ä¸įä¸Ĭåİ»":10692,"ĠÃĹ":10693,"æĦıä¹ī":10694,"åĲĪåĲĮ":10695,"çĽĳæİ§":10696,"ä»·ï¼ļ":10697,"Ċåħ³äºİGanji":10698,"back":10699,"agçľŁäºº":10700,"Ġå¤§åĲĮåİ¿|":10701,"åħ¨ç«Ļ":10702,"ĠåįĹæĺĮåİ¿|":10703,"æŃ¤åĪĨé¡ŀ":10704,"å¼Ģå¥ĸ_":10705,"ĠçĭĹä¸ĩæĢİä¹Īä¹°":10706,"Ġéķ¿æ²»åİ¿|":10707,"æĽ´åĬł":10708,"Ġmodify":10709,"ä¸ľäº¬":10710,"Ġagä¸ĭè½½å®ĺæĸ¹ç½ĳç«Ļ":10711,"Ġä¹Ŀæ±Łåİ¿|":10712,"Image1":10713,"iderImage1":10714,"åĬłæĹ¶":10715,"è©ķæ¯Ķ,":10716,"Ġå¤§åĲĮå¸Ĥ|":10717,"æµĭè¯ķ":10718,"yXG5":10719,"è¥¿åįĹ":10720,"çµ±":10721,"å°ĩ":10722,"Ġbet365å¤ĩçĶ¨":10723,"Ġèµ¶éĽĨæİ¨å¹¿":10724,"ä¾Ŀæ³ķ":10725,"Ġ365betå®ĺç½ĳçľŁäºº":10726,"Ġä¸Ńåį«":10727,"Ġagç½ĳç«Ļ":10728,"Ġåĩ¯åıĳçľŁäººå¹³åı°":10729,"Ġåīįå¤©22":10730,"ĠåĲīå®īåİ¿|":10731,"Ġåºĵä¼¦æĹĹ|":10732,"Ġåı°çģ£":10733,".net":10734,"å¨±ä¹Ĳæ¸¸æĪıå¹³åı°":10735,"ç²¾å½©":10736,"æĦŁè§ī":10737,"ĠéĤµéĺ³åİ¿|":10738,"Ġåı°ä¸Ńåİ¿|":10739,"ĠæĲľ":10740,"Ċæĺ¥åħī":10741,"ĠæľĿéĺ³åİ¿|":10742,"Ċåģ¥åº·":10743,"Ġä»ĭ":10744,"****":10745,"è¿Ļä¹Ī":10746,"ĠæĬļé¡ºåİ¿|":10747,"ĠéĨ´":10748,"Ġä¸´å¤ıåİ¿|":10749,"Ġå²³éĺ³åİ¿|":10750,"dG":10751,"ons":10752,"Ġåīįå¤©21":10753,"Ċ2019-10-14":10754,"åŁİæĸ°éĹ»ç½ĳ":10755,"è½¯ä»¶_":10756,"å·ŀæĹ¥æĬ¥":10757,"Ġå¼Ģå°ģåİ¿|":10758,"Ġå®£åĮĸåİ¿|":10759,"Ġéĵģå²Ńåİ¿|":10760,"æŃ£è§Ħç½ĳ_":10761,"æīĭæľºç«¯ä¸ĭè½½":10762,"105":10763,"è´Łè´£äºº":10764,"ç¯®çĲĥæ»ļçĲĥ":10765,"åĲģ":10766,"çĻ¾å®¶å®¶ä¹Ĳapp":10767,"æĸ¯Â·":10768,"ï¼Įå¦Ĥæŀľ":10769,"Ġåĺīä¹īåİ¿|":10770,"Ġé«ĺéĽĦåİ¿|":10771,"æ²ŁéĢļ":10772,"Ċæ¹ĺæ½Ńåľ¨çº¿":10773,"Ġåı°åįĹåİ¿|":10774,"æ¯Ķäºļ":10775,"Ġç»įåħ´åİ¿|":10776,"ribo88çĤ¹cc":10777,"å¿«ä¹Ĳåħ«":10778,"Ġæīĭæľºèµ¶éĽĨ":10779,"Ġæ¹ĺæ½Ńåİ¿|":10780,"Ċï¿½ï¿½":10781,"ZSI6ZmFsc2UsIm":10782,"Ġ{å¤§ç¥ŀ":10783,"Ġæĸ°æ²":10784,"ĠçĭĹä¸ĩåĴĮ":10785,"åĴĭ":10786,"çĻ¾åº¦åľ°åĽ¾":10787,"æĢ»ç»Łçī¹æľĹæĻ®":10788,"Ġæ»ķ":10789,"Ġæ¦Ĥ":10790,"ĠSP":10791,"Ġ2019-03":10792,"çĶ°æ£®":10793,"ĠéĤµéĺ³å¸Ĥ|":10794,"ä¸ĭéĻį":10795,"Ġæ¾³éĹ¨æŃ£çīĪ":10796,"Õ¸ÖĤ":10797,"Ġç©º":10798,"Ġ365betå®ĺç½ĳå®ĺæĸ¹":10799,"365.com":10800,"æĸ°æµª":10801,"æĬķæ³¨ç½ĳç«Ļ":10802,"Ġä½ĵèĤ²åľ¨çº¿":10803,"åĪĺæ±Łåį«":10804,"âĢĢ":10805,"Ġæµª":10806,"å»ºè®®":10807,"åķĨä¸ļ":10808,"å®¾é¦Ĩ":10809,"èĤĩ":10810,"ĠUN":10811,"6çłģ":10812,"æŁı":10813,"ĠmodifyTime":10814,"ĠmodifyTime:0,":10815,"ran":10816,"ä¼ļè§ģ":10817,"èµĦæĸĻå¤§åħ¨|":10818,"c.":10819,"CNN":10820,"Ġçİ°åľ¨":10821,"Ġåĵªå®¶":10822,"apk":10823,"Ġäºļç¾İagæĹĹèĪ°åİħappä¸ĭè½½":10824,"Ġäºļæ¸¸çĶµæ¸¸":10825,"äºĶæĺŁ":10826,"Ġsecond(s":10827,"¦ï¿½":10828,"ï¼Įä¹Łæĺ¯":10829,"æŀĹåİ¿|":10830,"½ï¿½":10831,"value":10832,"æī§æ³ķ":10833,"Ġéĥ½æ±Ł":10834,"Qu":10835,"æĹ©çĤ¹å¿«é¤ĲåĬłçĽŁ":10836,"ĠåĪ©æĿ¥æīĭæľºapp":10837,"ç£¨":10838,"æ©Łè»ĬåĪĨæľŁ":10839,"ĠçŁ³åĺ´":10840,"Ġagæīĭæľºå®¢æĪ·ç«¯ä¸ĭè½½":10841,"ï¼ĮåĲĮ":10842,"å¦ĤæŃ¤":10843,"osted":10844,"Ġ365betå®ĺç½ĳæ»ļçĲĥ":10845,"æĺ¯çľŁå®ŀåĲĹ_":10846,"Ġäºļç¾İåħ¬åı¸":10847,"ä¼¯æ¸©":10848,"ä¿Ŀè¯ģ":10849,"ä¸ºæĤ¨":10850,"Ġçİ¯äºļéĽĨåĽ¢app":10851,"åħ¬åħ±":10852,"Ġå¹³åı°":10853,"çħ¤":10854,"éģį":10855,"Ġ2018å¹´":10856,"Ġè¿ľ":10857,"Ġ1.0":10858,"Ġ365ä½ĵèĤ²æĬķæ³¨å®ĺæĸ¹":10859,"æĭĽåķĨä¸»ç®¡":10860,"ĠccåĽ½éĻħå½©çĲĥç½ĳ":10861,"æµ·åħ³":10862,"çļĦä½įç½®":10863,"Ġåīįå¤©03":10864,"Ġ2020-04-10":10865,"1å¹´":10866,"ĠåĽ´":10867,"çŃīåľ°":10868,"ëĬĶ":10869,"ï¿½ï¿½ï¿½ï¿½ï¿½ï¿½ï¿½":10870,"æķĻå¸Ī":10871,"å¨±ä¹Ĳå¼ĢæĪ·":10872,"éĩĩè´Ń":10873,"çĦ¶åĲİ":10874,"wa":10875,"æĸ¹æĹ©é¤ĲåĬłçĽŁ":10876,"è·Ŀ":10877,"dGg":10878,"Ċ2019-10-17":10879,"ï¼īãĢĤ":10880,"2lkdGg":10881,"AD":10882,"123":10883,"form":10884,"ĠSH":10885,"Ġçİ¯äºļçĶµæ¸¸ag":10886,"Ġæ¾³éĹ¨|":10887,"ĠéĩĳåĿĽ":10888,"éĢ£":10889,"ĠçĪ±å½©ä¹Ĳ":10890,"Ġ$.":10891,"çķ«":10892,"æĮĤæľº":10893,"ialog":10894,"Ġçģµå®Ŀ":10895,"èĢģæĺ¯":10896,"agæĹĹèĪ°åİħå®ĺç½ĳ":10897,"åħ¬éĸĭ":10898,"å®ĺæĸ¹appä¸ĭè½½":10899,"Ġ2018-07":10900,"å¼±":10901,"å®¶ä¹ĲæĹ©é¤ĲåĬłçĽŁ":10902,"4OT":10903,"Ċ2019-12-06":10904,"Ġæ°¸åĪ©":10905,"æ¬§æ´²è¶³çĲĥ":10906,"Mjh4OT":10907,"gYWR":10908,"Ġæ©Ł":10909,"å®ģå¸Ĥ":10910,"éªĹå±Ģ_":10911,"Ċå¨ģ":10912,"åĪĨæİĴåĪĹ5":10913,"æĢİæł·åĬłçĽŁ":10914,"-d":10915,"_äºļåįļ":10916,"Ġeå½©ccåĽ½éĻħ":10917,"Ċ2019-03":10918,"éħįéĢģåĬłçĽŁ":10919,"è½´":10920,"æĹ©çĤ¹æĢİæł·åĬłçĽŁ":10921,"Ġæł¼å°Ķ":10922,"Ġé±¼":10923,"æĹ©çĤ¹åºĹåĬłçĽŁ":10924,"æľ±":10925,"æľ¬åľ°":10926,"Ġ356betå¤ĩçĶ¨":10927,"ç½ĳç«Ļæĺ¯å¤ļå°ĳ":10928,"çº½çº¦":10929,"ç¿ł":10930,"Ġé©¬è¾¹|":10931,"Ġnull":10932,"éĥ¨éĺŁ":10933,"ĠçĭĹä¸ĩæľĢä½İ":10934,"åĴĸ":10935,"æĳĩ":10936,"å®ĹæĹ©çĤ¹åĬłçĽŁ":10937,"æĿł":10938,"Ġå±±è¥¿":10939,"Ġ2020-07":10940,"ĊèĬ":10941,"ĠæĻ¯ä¸ľ|":10942,"çł´åĿı":10943,"èµĦæĸĻ|":10944,"Ġä¸ľä¹¡|":10945,"Ġäºļç¾İAGæĹĹèĪ°åİħ":10946,"âĨĵ":10947,"åĲ§åĬłçĽŁ":10948,"Ġèį£æĪĲ":10949,"Ċ2020":10950,"Ġäºļæ¸¸å¹³åı°":10951,"ĊåįĹæĸ¹":10952,"ä¸ŃåĽ½çļĦ":10953,"Ġå¿«é¤ĲæĹ©é¤ĲåĬłçĽŁ":10954,"å¼ĥ":10955,"ç¯®çĲĥæĬķæ³¨":10956,"Ġå®½åŁİ|":10957,"Ġå«":10958,"åĩłä¹İ":10959,"Ġæ²Ń":10960,"ĠçīĻåħĭ":10961,"ĠæĻ¯è°·|":10962,"ëĮ":10963,"ĠèĤĥåįĹ|":10964,"åĮĹéĥ¨":10965,"åĲĹï¼Ł":10966,"ĠäºĶå³°|":10967,"Ġä½ł":10968,"çļĦåľ°æĸ¹":10969,"å¤ĸæĮĤ_":10970,"å¿ĹæĦ¿":10971,"æĶ¹åıĺ":10972,"åıĳè¨Ģäºº":10973,"çł´è§£çīĪ":10974,"ĠæģŃåŁİ|":10975,"çĽĪåĪ©":10976,"Ġ6up":10977,"âĢľãĢĳãĢĲ":10978,"é¢ľ":10979,"Ġé¤":10980,"g,":10981,"ĠåĪ©æĿ¥ç½ĳåĿĢ":10982,"æĪĴ":10983,"æĺł":10984,"Ġä»Ģ":10985,"Ġdocument.getElementById(\"":10986,"åĽ½äº§":10987,"áº":10988,"IM":10989,"èŃīä»¶åĢŁæ¬¾":10990,"ĠäºļæĲıæīĭæľºçīĪ":10991,"ĠOF":10992,"ec":10993,"ĠçŁ³æŀĹ|":10994,"çļĦæ¸¸æĪı":10995,"åļ":10996,"åĪ°åºķ":10997,"ĠåĪ©æĿ¥w66æĹĹèĪ°çīĪ":10998,"_c":10999,"ĠâĹı":11000,"Ġèµ«":11001,"çĪ¸":11002,"å¶":11003,"é¦Ī":11004,"åı°æĿ±":11005,"Ġä¾Ľ":11006,"èĹį":11007,"å¤ļæ¬¡":11008,"Ġæ±½è½¦":11009,"æĺ¯ä»Ģä¹Īä¸ľè¥¿":11010,"å°ģåı·":11011,"Ġ2020-02-29":11012,"å¤ļä¹ħåĪ°å¸Ĳ":11013,"Ġåĩ¯åıĳçĶµæ¸¸æ¸¸æĪı":11014,"2012":11015,"Ġif(data":11016,"åįİä¸º":11017,"Ġçº¿ä¸ĬçľŁäººåıĳçīĮçİ°åľºå¨±ä¹Ĳ":11018,"replace":11019,"Ġåĩ¯åıĳå®ĺç½ĳæīĭæľºçīĪä¸ĭè½½":11020,"oy":11021,"éĿ¢ç§¯":11022,"ç½©":11023,"æĦıåĳ³":11024,"ĠçĻ¾å®¶ä¹Ĳç½ĳåĿĢ":11025,"Ġåı³":11026,"ç©ºæ°Ķ":11027,"åķ¡":11028,"_365bet":11029,"åĩºçļĦ":11030,"ight,":11031,"Ġåı¥":11032,"çĲ´":11033,"Ċå¤§è¿ŀ":11034,"a8":11035,"ĠçĭĹä¸ĩçº¢åĮħ":11036,"åªĽ":11037,"Ġäºļç¾İå®ĺç½ĳ":11038,"åįĬå¹´":11039,"åĵĪå°Ķæ»¨":11040,"åĵªè£¡åı¯ä»¥åĢŁéĮ¢":11041,"Ġçº¿ä¸ĬçľŁäººæĸĹçīĽ":11042,"äºĳåİ¿|":11043,"æĽ²åİ¿|":11044,"Price":11045,"Ġæ¾³éĹ¨çľŁéĴ±åľ¨çº¿ç½ĳæĬķ":11046,"/5":11047,"çĩŁ":11048,"éħįä»¶":11049,"±è®Ģ":11050,"èµ¢å®¶":11051,"Ġæľ¬ç§ĳ":11052,"æ¨ª":11053,"Ġçİ¯äºļå¤§å¸ĪèµĽ":11054,"åĶ¯ä¸Ģå®ĺç½ĳ":11055,"èµ´":11056,"ä»ģåİ¿|":11057,"Ġåĩ¯åıĳæ³¨åĨĮä¸ĭè½½ç½ĳåĿĢ":11058,"ĠAGçĻ¾å®¶ä¹Ĳ":11059,"ä½ĵéªĮéĩĳ":11060,"æĢĴ":11061,"List":11062,"21æĹ¥ï¼Į":11063,"over":11064,"è¯ļä¿¡":11065,"åıĬæĹ¶":11066,"åľ°ä¸ĭéĮ¢èİĬåĢŁéĮ¢":11067,"å¹¿å¤§":11068,"Ġ2018éªŀï¿½05ï¿½ï¿½":11069,"ç´į":11070,"æ»´":11071,"æĬķæ³¨æĬĢå·§":11072,"ä¾ĽåºĶåķĨ":11073,"Ġæ¾³éĹ¨çľŁéĴ±ç½ĳ":11074,"ĠRoad":11075,"Ġå¤§åıĳæĹ¶æĹ¶å½©è®¡åĪĴ":11076,"Ċæĸ°åįİç½ĳäºĳåįĹ":11077,"Ġçĩ":11078,"ĠSp":11079,"ï¼Įä¸İ":11080,"æĮĩæİ§":11081,"Ġå¼Ģåħĥæ£ĭçīĮæĸĹçīĽ":11082,"å¹¿ç½ĳ":11083,"éģĵï¼ļâĢľ":11084,"Ġå½©ç¥ŀéĢļ":11085,"Ġæ¾³éĹ¨çľŁéĴ±å¹³åı°":11086,"ç¡ķ":11087,"ĠAM":11088,"çľŁåģĩ_":11089,"åĲīåħĭ":11090,"Ċå°ı":11091,"ç«ĭæ³ķ":11092,"åı£åİ¿|":11093,"å¹¿æĴŃçĶµè§Ĩç½ĳ":11094,"ï¼Įåħ±":11095,"Ġag9":11096,"Fwi":11097,"Ġä»Ĭå¤©":11098,"Ðº":11099,"å¯Ĵ":11100,"Ġ1åĪĨå½©":11101,"éĥ½åİ¿|":11102,"åħĥ/":11103,"ä¹Ĳåİ¿|":11104,"Ġè¢":11105,"Ġ365betå®ĺæĸ¹":11106,"ç²¾éĢīèµĦæĸĻå¤§åħ¨|":11107,"ĠTemplates":11108,"Ġæ¾³éĹ¨çĻ¾å®¶ä¹Ĳç½ĳç«Ļ":11109,"åķĨåŁİ":11110,"éģ©":11111,"Ġçİ¯äºļæ¸¸æĪıæľĢæĸ°ç½ĳåĿĢ":11112,"ĊåįĹåĽ½":11113,"ç¼ħ":11114,"æŃ¦åİ¿|":11115,"Vp":11116,"åħ°åİ¿|":11117,"Ġç¥¥":11118,"Ġä¸Ĭæµ·å¿«3":11119,"Ġçİ¯äºļagå®¢æĪ·ç«¯":11120,"Ġåĩ¯åıĳå®ĺæĸ¹å½©ç¥¨":11121,"Ġåĩ¯åıĳç²¾èĭ±":11122,"Õ¡Õ¶":11123,"åĪĨ3D":11124,"Ġæĸ°éĹ»ä¸Ńå¿ĥ":11125,"Ġåīįå¤©00":11126,"åĲĪä½ľä¼Ļä¼´":11127,"åĤĻ":11128,"æĸĩåı²":11129,"å¤ĩçĶ¨ç½ĳåĿĢåħ¥åı£":11130,"è£½":11131,"][":11132,"I6Ij":11133,"Ġåĩ¤åĩ°":11134,"ç»ıå¸¸":11135,"é¡ºåİ¿|":11136,"Ġé¦Ļæ¸¯é©¬ä¼ļ":11137,"ä¹łè¿ĳå¹³æĢ»ä¹¦è®°":11138,"æ³¡":11139,"Ċéĵģè¡Ģç¤¾åĮº":11140,"å¤§éĢī":11141,"éĥ½ç½ĳ":11142,"ä»¥æĿ¥":11143,"å¼Ģå¥ĸç»ĵæŀľ_":11144,"eX":11145,"éģĵè·¯":11146,"æŃ£çīĪåĽĽä¸įåĥı":11147,"åİŁåĪĻ":11148,"ä¹ĺå®¢":11149,"äº«åıĹ":11150,"Ġå¥İ":11151,"ãĢĳãĢĲä¸ļ":11152,"æ½ľ":11153,"éĺª":11154,"åŁĶ":11155,"ayer":11156,"é½":11157,"äººå·¥æĻºèĥ½":11158,"å¿ħä¸Ńä¸ĢèĤĸ":11159,"å½©ç¥ŀ8":11160,"Ċæ¸ħ":11161,"æ£ī":11162,"ä¸ĸçºª":11163,"Ġ365æ£ĭçīĮæľī":11164,"éģ¥":11165,"éģĹæ¼ı_":11166,"å®ª":11167,"2015å¹´":11168,"ç¹Ŀï½¼ç¹Ŀï½«":11169,"ĠéŁ©åĽ½":11170,"éĿ¢è®®":11171,"éĶĲ":11172,"ç½ĳä¸ĬçĶµåŃĲæ¸¸æĪı":11173,"ĠæĹłæ³ķ":11174,"Ġåīįå¤©15":11175,"°Ģ":11176,"Lm":11177,"å¼¹åĬ¾æ¡Ī":11178,"ĊæĤ¨çİ°åľ¨çļĦä½įç½®ï¼ļ":11179,"Ġç»©":11180,"çºł":11181,"cclx":11182,"ä»£çĲĨ_":11183,"article":11184,"Ġæĸ°åįİç¤¾è®°èĢħ":11185,"ĠæĢİä¹Īåľ¨":11186,"è¶³çĲĥèµĮåįļ":11187,"åįģäºĮ":11188,"ï¼Įè¿ĻäºĽ":11189,"çģ¯,":11190,"æĭľçĻ»":11191,"Ġæ¶ª":11192,"4799çĤ¹c0m":11193,"ĠäºĶå®¶":11194,"ãĢĳãĢĲlãĢĳãĢĲeãĢĳãĢĲ":11195,"æ³¢éŁ³":11196,"Wlu":11197,"Ġåģı":11198,"2010":11199,"Ġå¤¹":11200,"ĠAGçİ°éĩĳç½ĳ":11201,"Ġå¹¿åĳĬæľįåĬ¡":11202,"ĊæĤ¨çļĦå½ĵåīįä½įç½®ï¼ļ":11203,"yst":11204,"åįıä¼ļ":11205,"Ċ2019å¹´09æľĪ":11206,"æħ¶":11207,"cclxu":11208,"çĲĥéĺŁ":11209,"nbsp":11210,"äºĭåĬ¡":11211,"Ċ2018-11":11212,"Ġçİ¯äºļç½ĳä¸ĬçĶµåŃĲæ¸¸æĪı":11213,"Ċ2020-08":11214,"æĬķèµĦåĬłçĽŁåºĹ":11215,"è¡¨ç¤ºï¼ĮâĢľ":11216,"âĢľåĮĹæºª":11217,"ãĢĳãĢĲpãĢĳãĢĲ>ãĢĳ":11218,"çĪ¶æ¯į":11219,"åĤµåĭĻæķ´åĲĪ":11220,"åĪ·æµģæ°´":11221,"å¾Ħ":11222,"ĠCPåĢ¼":11223,"è®¸ï¼Į":11224,"Ġè¶³çĲĥå¤ĸåĽ´365":11225,"ä¿¡æģ¯ç½ĳ":11226,"Ġåĩ¯æĹ¶kb88.com":11227,"Ġä¸Ńåľĭ":11228,"è¥¿äºļ":11229,"ĠçĭĹä¸ĩè¦ģ":11230,"ĠHe":11231,"Ġåĩ¯åıĳçĶµçİ©":11232,"Ġå°ıåĲĥ":11233,"¢ç¹Ŀï½³":11234,"ĠæĦıçĶ²":11235,"Ġè²¸":11236,"14æĹ¥":11237,"Ġget":11238,"åĳ¼åĲģ":11239,"æ¸¯åı°":11240,"31æĹ¥":11241,"à¸£à¸":11242,"188":11243,"Ġåĩ¯åıĳAGæĹĹèĪ°åİħå®ĺç½ĳ":11244,"å»£":11245,"èĲĿ":11246,"appiosçīĪä¸ĭè½½":11247,"Ġåĩ¯åıĳçĶµæ¸¸æīĭæľºçīĪ":11248,"ĠåĪĽ":11249,"Ġk8å¨±ä¹ĲappiosçīĪä¸ĭè½½":11250,"ĠçĭĹ":11251,"è¿ŀç»Ń":11252,"ĠPh":11253,"æĭħä»»":11254,"ĹĨ":11255,"çī¹é©¬ç»ĵæŀľ":11256,"åľ¨çº¿å¼ĢæĪ·":11257,"ï¼ĮåĲĮæĹ¶":11258,"çŁ¥åĲį":11259,"Ġåıĸçİ°":11260,"å²ģï¼ī":11261,"çĳļ":11262,"Ġ365ä½ĵèĤ²æĬķæ³¨çİ°éĩĳ":11263,"èĴĻåı¤è¯Ń":11264,"ĠçŃĸ":11265,"function(){":11266,"4e":11267,"Ġåĩ¯åıĳçĶµæ¸¸å®ĺç½ĳ":11268,"Ġé«ĺéĤ®":11269,"è¿Ļæł·çļĦ":11270,"Ġèı²å¾ĭå®¾çĶ³åįļ":11271,"Ġ365æ¸¸æĪı":11272,"Ġä»²":11273,"é£ŀè¡Į":11274,"å¹¿æĴŃçĶµè§Ĩåı°":11275,"D1cIj":11276,"è¿Ľè¡ĮäºĨ":11277,"Ġ365å½©ç¥¨":11278,"é¢Ħæµĭ_":11279,"Ġæ±ª":11280,"Ġå¼Ģåħĥæ£ĭçīĮè¾ĵäºĨ":11281,"Ġé©¬å°Ķ":11282,"Ġèĭıå·ŀ":11283,"åħ·ä½ĵ":11284,"Ġæ»ļçĲĥçĽĺ":11285,"æ¥¼çĽĺ":11286,"668":11287,"iosçīĪ":11288,"Ġæīĵåį°":11289,"éĢĢåĩº":11290,"æĢĿèģª":11291,"Ġå¹³åº¦":11292,"ä¸Ģèĩ´":11293,"åİ»å¹´":11294,"æŁĲæŁĲ":11295,"Ġæ¸ħæ°´":11296,"Ġå»ī":11297,"ĠéĴĵé±¼":11298,"æŀĹèĬĿ":11299,"Ċæĸ°åįİ":11300,"éĶģå®ļ":11301,"äº¿åĽ½éĻħ":11302,"Ċæĸ°çĸĨæĸ°éĹ»ç½ĳ":11303,"ĠæĢĿèĮ":11304,"ä¸¥æł¼":11305,"Ġç¡®":11306,"2009":11307,"è¯ģæį®":11308,"Ĭçĳļ":11309,"±çľ":11310,"ĠäºļæĲıä½ĵèĤ²æīĭæľºçīĪä¸ĭè½½":11311,"å£ĵ":11312,"Ġéª":11313,"åĽĽèĤĸéĢīä¸ĢèĤĸ":11314,"Ġå¼Ģåħĥæ£ĭçīĮæ³¨åĨĮéĢģ":11315,"Ġäºļæ¸¸åĽ½éĻħæ¸¸æĪıå®ĺç½ĳ":11316,"æ¶ĪéĻ¤":11317,"Ġwww.w66.com":11318,"iao":11319,"\\\"":11320,"ĠäºļæĲıçĶµç«ŀ":11321,"show":11322,"11éĢī5èµ°åĬ¿åĽ¾":11323,"Ċå¹¿è¥¿èĩªæ²»åĮºæĶ¿åºľ":11324,")-":11325,"æĸĩåĮĸç½ĳ":11326,"ĠMan":11327,"ç§»æ°ĳ":11328,"Ġw66åĪ©æĿ¥å¹³åı°":11329,"ĠçĻ¾å®¶ä¹Ĳç½ĳåĿĢå¤§åħ¨":11330,"4d":11331,"Ċè§£æĶ¾":11332,"éĽ¢":11333,"Ġè¾Ľ":11334,"ĊèĴĻåı¤è¯Ń":11335,"Ġç¶¦":11336,"Ċæ´Ľéĺ³":11337,"Ġsuccess":11338,"å®¢è½¦":11339,"çİĽä¸½":11340,"ĠAn":11341,"ĊçľĭçĤ¹":11342,"1æĹ¥":11343,"ĠÄ":11344,"ç½¢":11345,"ä»Ĩ":11346,"ĠYou":11347,"i5":11348,"Ċçķª":11349,"å¼ķèµ·":11350,"ĠçĭĹä¸ĩèµ¢éĴ±æıĲçİ°":11351,"ç®Ĺæ³ķ":11352,"å¨±å¤´æĿ¡":11353,"ãĢģï¿½":11354,"ï¼Įè¯·":11355,"Ġ365betä½ĵèĤ²æĬķæ³¨":11356,"éł»":11357,"%çļĦ":11358,"pty":11359,"è¡Ķ":11360,"ï¼ĮåĮħæĭ¬":11361,"Ġæ¾³éĹ¨éĵ¶":11362,"åıĤèĢĥæ¶Īæģ¯":11363,"å¡ĶåĲīåħĭ":11364,"ä¸°å¯Į":11365,"è·¯åı£":11366,"Ġåĩ¯åıĳçĻ»å½ķç½ĳåĿĢ":11367,"çĽ¾":11368,"ï¿½]":11369,"è¿ĶçĤ¹":11370,"Ġè½®":11371,"title":11372,"å»ł":11373,"ĠAGçİ¯äºļå®ĺç½ĳapp":11374,"Ġä¿¡æģ¯":11375,"îī":11376,"ĊçľĭçĤ¹å¨±å¤´æĿ¡":11377,"Ġ365è¶³çĲĥå¤ĸåĽ´ç½ĳç«Ļ":11378,"åĲĦå¤§":11379,"Ġhost":11380,"Ġå¤§åıĳæŀģéĢŁpk10":11381,"é»Ħéĩĳ":11382,"ĠåĲĮå¿ĥ":11383,"åĤ²":11384,"ĠçĥŁåı°":11385,"Ġä¹Ŀå¯¨":11386,"åĽŀè¡Ģ_":11387,"å«ģ":11388,"Ġæ¾³éĹ¨éĵ¶éĵ¶æ²³":11389,"ç¡®ä¿Ŀ":11390,"ĠéĩĮ":11391,"åı°åįĹ":11392,"Ġä¸ľæĸ¹":11393,"¤èĤī":11394,"Ċä¸ľåĮĹ":11395,"Ċæ°´":11396,"qqç¾¤":11397,"äººãĢĤ":11398,"ä¸ľåįĹ":11399,"ĊæĹ©çĤ¹åĬłçĽŁåºĹ":11400,"æ°Ķæ¸©":11401,"è²łåĤµ":11402,"MT+":11403,"Ġ365ä½ĵèĤ²æĬķæ³¨ä½ĵèĤ²æĬķæ³¨":11404,"çŃĨ":11405,"Ġ365åľ¨çº¿ä½ĵèĤ²":11406,"Ġä¸Ĭæµ·æĹ©é¤Ĳè½¦åĬłçĽŁ":11407,"ÂłÂł":11408,"å»·":11409,"Ġd88.com":11410,"ĠSD":11411,"ĠæĹ©çĤ¹å¿«é¤ĲåĬłçĽŁ":11412,"Ġè²¸æ¬¾":11413,"HTML":11414,"hide":11415,"user":11416,"åįķåıĮï¼ļæŀģéĢŁ":11417,"ĠAd":11418,"ĠæĹ©çĤ¹åĬłçĽŁå¤ļå°ĳéĴ±":11419,"ĠagæĹĹèĪ°åİħä¸ĭè½½ç½ĳç«Ļ":11420,"Ġ2007":11421,"æĸĩæ±ĩæĬ¥":11422,"ä»·åĢ¼":11423,"éĤ®ç®±æĹłæ³ķéªĮè¯ģ":11424,"Ġäºļæ¸¸éĽĨåĽ¢æīĭæľºå®¢æĪ·ç«¯":11425,"mgæīĭæľºçīĪ":11426,"Ġåı£åı£é¦ĻæĹ©çĤ¹åĬłçĽŁ":11427,"ĠæĹ©çĤ¹åºĹåĬłçĽŁ":11428,"Ġå¤§åıĳå¿«ä¸īæĢİä¹Ī":11429,"01æľĪ":11430,"Heiti":11431,"ĠæĹ©çĤ¹åĬłçĽŁå¥½é¡¹çĽ®":11432,"Ġæ¸ħç¾İæĹ©é¤ĲåĬłçĽŁ":11433,"æĺ¯çľŁçļĦåĲĹ_":11434,"ĠæĹ©çĤ¹åĬłçĽŁåĵģçīĮ":11435,"Ġsimsun":11436,"ä»£æĽ¸åĢŁæ¬¾":11437,"ĠæĹ©çĤ¹å¤ľå®µåĬłçĽŁ":11438,"Ġæ¸ħçľŁæĹ©çĤ¹åĬłçĽŁ":11439,"æĹĭ":11440,"ĠæĹ©é¤Ĳè±ĨèħĲèĦĳåĬłçĽŁ":11441,"æĪ²":11442,"Ġå®ľæĺĮ|":11443,"ä»£è¾¦":11444,"Ġæĸ°å°ļæĹ©é¤ĲåĬłçĽŁ":11445,"æĸĹåħŃ":11446,"ĠæĿĤ":11447,"ĠEX":11448,"Ġsimsun,":11449,"Ċè§£æĶ¾æĹ¥æĬ¥":11450,"Ġ365æ£ĭçīĮéĵ¶åķĨ":11451,"agæīĭæľºçīĪ":11452,"Ċ2015":11453,"Ġåħ¨ç¦ıæĹ©é¤ĲåĬłçĽŁ":11454,"ĠåĮĹäº¬çī¹èī²æĹ©çĤ¹åĬłçĽŁ":11455,".äºĶåĪĨå½©":11456,"ĠæĹ©é¥ŃåĬłçĽŁ":11457,"äº¿ç¾İåħĥ":11458,"åĢ¼å¾Ĺ":11459,"åį±éĻ©":11460,"ĠSTHeiti":11461,"SC-L":11462,".j":11463,"Ġåĵªå®¶æĹ©çĤ¹åĬłçĽŁå¥½":11464,"Ġèİ²":11465,"ĠåįĸæĹ©çĤ¹åĬłçĽŁ":11466,"ĠæĹ©çĤ¹å°ıåĲĥåºĹåĬłçĽŁ":11467,"ĠæĹ©çĤ¹åĬłçĽŁå°ıåĲĥ":11468,"ĠæĹ©é¤ĲåĬłçĽŁé¡¹çĽ®":11469,"Ġè¿ŀéĶģæĹ©é¤ĲåĬłçĽŁ":11470,"ĠåĵģçīĮæĹ©é¤ĲåĬłçĽŁ":11471,"Ġå¤©æ´¥æĹ©é¤ĲåĬłçĽŁ":11472,"6)":11473,"ĠET":11474,"Ġå¤§åįİæĹ©çĤ¹æĢİä¹ĪåĬłçĽŁ":11475,"å¼Ģåħĥ":11476,"Ġå¨ĺå®¶æĹ©é¤ĲåĬłçĽŁ":11477,"ĠæĹ©é¤ĲåĬłçĽŁç½ĳ":11478,"çļĦæĸ°":11479,"Ġå±±ä¸ľæĹ©çĤ¹åĬłçĽŁ":11480,"Ġçİ¯äºļå®ĺæĸ¹":11481,"ç´¯è®¡":11482,"ĠæĹ©é¤Ĳç²¥è½¦åĬłçĽŁ":11483,"Ġä¼ĹæľĽæĹ©é¤ĲåĬłçĽŁ":11484,"Ċæ³ķåĪ¶":11485,"ĠæĹ©é¤Ĳç²¥åĬłçĽŁ":11486,"itt":11487,"ĠæĹ©é¤ĲåºĹ":11488,"SC-Light,":11489,"ĠæĹ©é¤Ĳåħįè´¹åĬłçĽŁ":11490,"ĠåĮĹäº¬æĹ©é¤ĲåĬłçĽŁ":11491,"æĺ¯æŃ£è§ĦçļĦåĲĹ":11492,"ĠSTHeitiSC-Light,":11493,"å¥ĹåĪ©":11494,"ĠæĹ©é¤Ĳå°ıåĲĥåºĹåĬłçĽŁ":11495,"ĠæĹ©çĤ¹å°ıåĲĥåĬłçĽŁè¿ŀéĶģ":11496,"ĠåĮħåŃĲæĹ©é¤ĲåĬłçĽŁ":11497,"æĪĺæĸĹ":11498,"Ġå°ıåĲĥæĹ©çĤ¹åĬłçĽŁ":11499,"Ġæ±ŁèĭıæĹ©çĤ¹åĬłçĽŁ":11500,"Ġçī¹èī²æĹ©çĤ¹å°ıåĲĥåĬłçĽŁåºĹ":11501,"Ġç¾İåĳ³æĹ©é¤ĲåĬłçĽŁ":11502,"ĠæĹ©çĤ¹è±ĨæµĨåĬłçĽŁ":11503,"æ®ĭ":11504,"ĠæĹ©é¤ĲåĬłçĽŁä»Ģä¹Īå¥½":11505,"Ġå¹¿å¼ıæĹ©çĤ¹åĬłçĽŁ":11506,"ĠåĵģçīĮæĹ©çĤ¹åĬłçĽŁ":11507,"ĠæĹ©é¤ĲåĬłçĽŁåĵģçīĮ":11508,"Ġå¨ĺå®¶æĹ©çĤ¹è½¦æĢİä¹ĪåĬłçĽŁ":11509,"Ġçī¹èī²æĹ©çĤ¹åĬłçĽŁåºĹæİĴè¡Įæ¦ľ":11510,"å·Ŀéº»":11511,"çľŁäººæīĭæľºapp":11512,"ĠçķĮ":11513,"Ġæ²³åįĹæĹ©çĤ¹åĬłçĽŁ":11514,"ĠæĹ©é¤Ĳç²¥åºĹåĬłçĽŁ":11515,"å¯¹è¯Ŀ":11516,"åĬŀåħ¬å®¤":11517,"ĠæĹ©é¤Ĳè±ĨæµĨåĬłçĽŁ":11518,"ĠæŃ£è§ĦçľŁäºº":11519,"Ġç²Ĺç²®æĹ©é¤ĲåĬłçĽŁ":11520,"ĠæĹ©é¤ĲèĤłç²īåĬłçĽŁ":11521,"Ġç§»åĬ¨æĹ©é¤ĲåĬłçĽŁ":11522,"äºī8":11523,"ĠåĪ©æĿ¥mgæīĭæľºçīĪ":11524,"Ġæ±Łè¥¿æĹ©çĤ¹åĬłçĽŁ":11525,"Ġçī¹è®¸åĬłçĽŁ":11526,"ĠåĮĹäº¬æĹ©çĤ¹å°ıåĲĥåĬłçĽŁåºĹ":11527,"ĠäºĶèĬ³æĸĭæĹ©é¤ĲåĬłçĽŁ":11528,"Ġä¸Ĭæµ·æĹ©çĤ¹åĬłçĽŁåºĹ":11529,"ĠåĬłçĽŁæĹ©çĤ¹åºĹ":11530,"Ġæĺ¥åħīæĹ©çĤ¹åĬłçĽŁ":11531,"Ġåħ¬ä¸»":11532,"ĠèĮĥå¾ģæĹ©é¤ĲåĬłçĽŁ":11533,"ĠåĮĹäº¬æĹ©çĤ¹æĳĬåĬłçĽŁ":11534,"Ġè£ķ":11535,"ĠæĹ©çĤ¹è¿ŀéĶģåĬłçĽŁåºĹ":11536,"çŃĸåĪĴ":11537,"ĠåĪ©æĿ¥w66æĹĹèĪ°åİħ":11538,"ĠåĽĽå·Ŀçī¹èī²æĹ©çĤ¹åĬłçĽŁ":11539,"å¸ĸåŃĲ":11540,"ĠæĹ©çĤ¹æĿ¥åĬłçĽŁåºĹ":11541,"Ġæĺ¥åħīæĹ©çĤ¹å·¥ç¨ĭåĬłçĽŁ":11542,"Ġ365çļĦ":11543,"ĠèĪĴå¿ĥæĹ©é¤ĲåĬłçĽŁ":11544,"Ġæ¸¯å¼ıæĹ©é¤ĲåĬłçĽŁ":11545,"ĠåĮĹäº¬æĹ©çĤ¹å°ıåĲĥåŁ¹è®ŃåĬłçĽŁ":11546,"Ġ356betå®ĺæĸ¹":11547,"ĠæĹ©é¤ĲäºŃåĬłçĽŁ":11548,"çķª|":11549,"è´¡çĮ®":11550,"ĠæĹ©çĤ¹åĬłçĽŁæİĴè¡Įæ¦ľ":11551,"åŁİåĮº":11552,"å¥³åŃ©":11553,"Ġç¾İå¼ıæĹ©é¤ĲåĬłçĽŁ":11554,"ĠæĹ©é¤ĲçļĦåĬłçĽŁ":11555,"Ġæĺ¥åħīæĹ©é¤Ĳå·¥ç¨ĭåĬłçĽŁ":11556,"Ċåħ³éĶ®è¯įï¼ļ":11557,"å¹«":11558,"ĠåĽĽå·ĿæĹ©çĤ¹åĬłçĽŁ":11559,"ĠåĲĲé²ģçķª|":11560,"ĠåĦĭ":11561,"Ġä¾¿æ°ĳæĹ©çĤ¹åĬłçĽŁ":11562,"ĠServ":11563,"Ġç§»åĬ¨æĹ©çĤ¹åĬłçĽŁ":11564,"æĢİä¹ĪæıĲçİ°":11565,"ĠæĹ©çĤ¹åĬłçĽŁåŁ¹è®Ń":11566,"åĲĬ":11567,"ĠæĹ©é¤Ĳè¡Įä¸ļåĬłçĽŁ":11568,"ĠæĹ©é¤ĲåĮħåŃĲåºĹåĬłçĽŁ":11569,"ĠæĹ©çĤ¹éĵºåĬłçĽŁ":11570,"ĠæĹ©é¤ĲåĬłçĽŁæİĴè¡Įæ¦ľ":11571,"Ġå¿«é¤ĲæĹ©çĤ¹åĬłçĽŁ":11572,"åĴĮåĲĪå½©":11573,"ĠæĹ©çĤ¹å¿«é¤ĲåºĹåĬłçĽŁ":11574,"Ġæ²³åįĹæĹ©é¤ĲåĬłçĽŁ":11575,"ĠæŁ¯":11576,"å°ĭ":11577,"èŃ°":11578,"±à¸":11579,"ĠæĹ©çĤ¹å¿«é¤ĲåĬłçĽŁåºĹ":11580,"ĠåıĮåĲĪæĪĲæĹ©é¤ĲåĬłçĽŁ":11581,"ĠæĹ©é¤ĲåĬłçĽŁå¼ĢåºĹ":11582,"ĠæĹ©é¤Ĳè¿ŀéĶģåºĹåĬłçĽŁ":11583,"ĠæĹ©é¤ĲåĬłçĽŁè´¹çĶ¨":11584,"ĠåĵªéĩĮæľīæĹ©çĤ¹åĬłçĽŁ":11585,"Ġæ¹ĸåĮĹæĹ©çĤ¹åĬłçĽŁ":11586,"ĠåĮĹäº¬æĹ©çĤ¹è½¦åĬłçĽŁ":11587,"èŀįè³ĩ":11588,"Ġæ¸ħçľŁæĹ©é¤ĲåĬłçĽŁ":11589,"éĢ±":11590,"ĠAT":11591,"Ġé¦ĸéĴ¢æĹ©é¤ĲåĬłçĽŁ":11592,"ĠåĬłçĽŁæĹ©çĤ¹è½¦":11593,"Ġç¾İåĳ³æĹ©çĤ¹åĬłçĽŁ":11594,"åĿĳäºº":11595,"Ġä¸Ĭæµ·æĹ©çĤ¹":11596,"Ġé»ĳé¾Ļæ±ŁæĹ©é¤ĲåĬłçĽŁ":11597,"å½©ç¥¨_":11598,"-èĩºåįĹå¸Ĥ":11599,"XHJ":11600,"XHJc":11601,"Ġä¸Ĭæµ·æĹ©é¤ĲåĬłçĽŁ":11602,"ĠæĹ©çĤ¹æĿ¥æĹ©é¤ĲåĬłçĽŁ":11603,"Ġä¸Ńå¼ıæĹ©é¤ĲåºĹåĬłçĽŁ":11604,"æľīåĩłä¸ª":11605,"ĠäºĶæĮĩ":11606,"Ġìŀ":11607,"çĪ¶äº²":11608,"ĠæĹ©çĤ¹é¡¹çĽ®åĬłçĽŁ":11609,"Ġéĺ¿æĭīå°Ķ|":11610,"ç¹§ï½¯ç¹Ŀï½¬":11611,"-2019":11612,"åĩºè¡Į":11613,"Ġbut":11614,"ĠåĵģçīĮæĹ©é¤ĲåºĹåĬłçĽŁ":11615,"Ġ0.0":11616,"ZHM":11617,"Ġç»¿èī²æĹ©é¤ĲåĬłçĽŁ":11618,"ĠåĿª":11619,"Ġåĥ":11620,"ĠæĹ©çĤ¹åĮħåŃĲåĬłçĽŁ":11621,"Ġ$(this).":11622,"æŀĹéĥŃ":11623,"ĠæĹ©çĤ¹å°ıåĲĥåĬłçĽŁåºĹ":11624,"Ġé¦Ĩ":11625,"Ġçľīå±±|":11626,"çļĦæĹ¶åĢĻ":11627,"dod":11628,"ĠæĹ©çĤ¹åĬłçĽŁè¿ŀéĶģåºĹ":11629,"Ġä¸ĩåįļAPP":11630,"Ġæ¾³éĹ¨çĻ¾å®¶ä¹Ĳå®ĺç½ĳ":11631,"Ġbet365ä½ĵèĤ²åľ¨çº¿æĬķæ³¨":11632,"éĩįåºĨæĹ¶æĹ¶å½©":11633,"ãĢĤè¿Ļæĺ¯":11634,"Ċä¸ŃåĽ½è¥¿èĹıæŀĹèĬĿ":11635,"Ġï¼ī":11636,"è½¬æį¢":11637,"éĻª":11638,"æıĲçİ°æ£ĭçīĮæ¸¸æĪı":11639,"ĠæĹ©çĤ¹å·¥ç¨ĭåĬłçĽŁ":11640,"åķĨå®¶":11641,"åĨ¬å¥¥":11642,"æīĭæ©Ł":11643,"éĭª":11644,"è§Ĩé¢ĳæ£ĭçīĮæ¸¸æĪı":11645,"æīĳåħĭå®ĺç½ĳ":11646,"åŃŁ":11647,"Ġè¥Ħæ¨":11648,"SS":11649,"ï¼Įç§°":11650,"Ġw66åĪ©æĿ¥æľĢ":11651,"Ġåĩ¯åıĳçĶµæ¸¸äºļæ´²":11652,"å°ıé¡įè²¸æ¬¾":11653,"Ċæµ·å³¡":11654,"amF":11655,"ï¼Įå¤§":11656,"APPï¼ļå¤§åıĳå½©ç¥ŀ":11657,"å®ĭ":11658,"åħ¬å®īæľºåħ³":11659,"Ġå·§":11660,"æ¡Ĩ":11661,"Ġåĩ¯åıĳk8":11662,"ä¸¨":11663,"¢ç¹Ŀï½³ç¹§ï½¯ç¹Ŀï½¬":11664,"Ġå¤§åıĳå¿«ä¸īæľī":11665,"Ġåıĸæ¶ĪåĽŀè¦Ĩ":11666,"çĻ»å½ķå®īåįĵçīĪä¸ĭè½½":11667,"åŃĶ":11668,"Ġ365ä½ĵèĤ²æĬķæ³¨å¼ĢæĪ·":11669,"Ġç¨»":11670,"¢ç¹Ŀï½³ç¹§ï½¯ç¹Ŀï½¬ç¹Ŀï½¼ç¹Ŀï½«":11671,"Ġé©¬éŀįå±±|":11672,"Ġæ¾³éĹ¨éĩĳæ²Ļ":11673,"Ġç»¥åĮĸ|":11674,"æ¯Ķä¾ĭ":11675,"Ġ365betå®ĺç½ĳäºļæ´²":11676,"Ċ2019-12-07":11677,"ï¼Įå®ĥ":11678,"ĠéĻĲ":11679,"çĬ¯æ³ķ":11680,"eXBl":11681,"Ġæ¬¢è¿İ":11682,"Ġå½©ç¥ŀv":11683,"ĠåłĨ":11684,"/æŀģéĢŁ":11685,"Ġç½ĳèµĮ":11686,"à¸¡":11687,"Ġéĺħè¯»ï¼ļ":11688,"ĊåĬłçĽŁ":11689,"Ġagçİ¯äºļçĻ»å½ķ":11690,"ç»ıåİĨ":11691,"Ġçģ«":11692,"ĠUniversity":11693,"ĠéħĴæ³ī|":11694,"Ġ365ä½ĵèĤ²æĬķæ³¨æ»ļçĲĥ":11695,"c6":11696,"æ¼ıæ´ŀ_":11697,"aWdod":11698,"ä¸¤å²¸":11699,"ĠåĴĮæŀĹ":11700,"Ġåı°å·ŀ|":11701,"Ġå¼łå®¶çķĮ|":11702,"Ġåºľ":11703,"å®ŀä½ĵ":11704,"ĠéľįæŀĹéĥŃ":11705,"2ç«Ļ":11706,"otal":11707,"éĢļè®¯":11708,"ĠéĢŁåº¦":11709,"éĢĨ":11710,"Ġå°Ĭé¾ĻäººçĶŁå°±æĺ¯æĲıæĹ§çīĪ":11711,"dn":11712,"Ġäºļç¾İåľ¨çº¿":11713,"æľĹçİĽ":11714,"ä¸įåģĩ":11715,"Ġé»ĦçŁ³|":11716,"Ġæ¾³éĹ¨èµĮåľº":11717,"Ġç§ĳæĬĢ":11718,"Ġ365ç¯®çĲĥæ»ļçĲĥ":11719,"Ġ1.6L":11720,"Ġå·´éĩĮ":11721,"Ġviews":11722,"ĠæŃ¦å¤·å±±|":11723,"é»ĳç½ĳ":11724,"omo":11725,"Î»":11726,"è¿Ķè¿ĺ":11727,"PHN":11728,"Ċè¥¿èĹıèĩªæ²»åĮºæĶ¿åºľ":11729,"ĊåįİåķĨæĬ¥":11730,"CB0":11731,"Ġ365ä½ĵèĤ²æĬķæ³¨äºļæ´²":11732,"Ġéĺ¿åħĭèĭı|":11733,"æĤīï¼Į":11734,"Ġå·´ä¸Ń|":11735,"FwvamF":11736,"Ċå¤©æ¶¯":11737,"ĠåĮĹæµ·|":11738,"Ġå¤§åıĳæŀģéĢŁæĹ¶æĹ¶å½©":11739,"é¸¿":11740,"ĠìĿ":11741,"Ġæĸ°å·´å°ĶèĻİåı³æĹĹ|":11742,"ãĢĳãĢĲä¸ŃãĢĳãĢĲ":11743,"Ġä¸ľä¹Įçıłç©Ĩæ²ģæĹĹ|":11744,"Ġåĩ¯åıĳæľĢæĸ°å®ĺæĸ¹appä¸ĭè½½":11745,"jing":11746,"Ġå¸¸å·ŀ|":11747,"ãĢĤä»Ĭå¹´":11748,"ç¬¬åĽĽ":11749,"Ġå¼łå®¶åı£|":11750,"Ċå¨±":11751,"Ġè¥¿ä¹Įçıłç©Ĩæ²ģæĹĹ|":11752,"æ¯ıå¤©":11753,"Ġéľŀ":11754,"arse":11755,"ä¹Į|":11756,"é¾ĻæĹ©é¤ĲåĬłçĽŁ":11757,"Ċå¼Ģåħĥæ£ĭçīĮ":11758,"ĠèģĬåŁİ|":11759,"ĠåĵĪå¯Ĩ|":11760,"Ġour":11761,"Ġå¯¿åħī|":11762,"Ġå»¶å®ī|":11763,"lick":11764,"PHNjcmlwd":11765,"CB0eXBl":11766,"jcmlwdFwi":11767,"GV4d":11768,"FwvamF2YX":11769,"PHNjcmlwdCB0eXBl":11770,"NjcmlwdFwi":11771,"widGV4d":11772,"PHNjcmlwdCB0eXBlPV":11773,"FwvamF2YXNjcmlwdFwi":11774,"PHNjcmlwdCB0eXBlPVwidGV4d":11775,"PHNjcmlwdCB0eXBlPVwidGV4dFwvamF2YXNjcmlwdFwi":11776,"Ġä¹Ĳæ¸ħ|":11777,"ĠåĪ©æĿ¥w66ç½ĳåĿĢ":11778,"åħħåĪĨ":11779,"åĨłäºļ":11780,"ĠåĺīåĸĦ|":11781,"Ġè¾½æºĲ|":11782,"X01":11783,"å¿ĺäºĨ":11784,"åĩºæĿ¥":11785,"ĊåĮĹäº¬çĶµè§Ĩåı°":11786,"éľįæ´Ľ":11787,"èĦ±è´«æĶ»åĿļ":11788,"æ±¾":11789,"dHB":11790,"Ġåĩ¯åıĳç²¾èĭ±ä½ĵèĤ²":11791,"Ġä¸Ĭä¸Ģç¯ĩæĸĩç«łï¼ļ":11792,"ä¸ĵçº¿":11793,"éķ¶":11794,"iOiJ":11795,"QiOiJ":11796,"ĠåįĹå®ī|":11797,"åıĳçĶŁéĶĻè¯¯":11798,"Ġäºļæ¸¸éĽĨåĽ¢ä¸ĭè½½":11799,"X01f":11800,"Ġæķ¦çħ":11801,"ä¸ľæĸ°":11802,"é¾Ļå¾·":11803,"è¨Ńè¨Ī":11804,"Ġæ½®å·ŀ|":11805,"æĶ¶åĪ°":11806,"ĠåºĦæ²³|":11807,"ĠLa":11808,"Ġä¸īæĺİ|":11809,"Ċé»ĳé¾Ļæ±Łä¸ľåĮĹ":11810,"ĠäºļæĲıçĽ´æĴŃå¹³åı°app":11811,"ĠPark":11812,"ĠæĹ¥åľŁ|":11813,"Ġå¤©éķ¿|":11814,"Ġéĺľéĺ³|":11815,"ĠèļĮåŁł|":11816,"éĩĳéľįæ´Ľ":11817,"çł´è§£_":11818,"(R)":11819,"è¥¿åĵ¥":11820,"ç½ĳappæīĭæľºçīĪ":11821,"ãĢĤãĢĤ":11822,"çĳĻ":11823,"ĠäºļæĲıç½ĳappæīĭæľºçīĪ":11824,"éĢģåĪĨ":11825,"HE":11826,"Ġç»ĩ":11827,"Ġå¥Ī":11828,"éĶĪ":11829,"å¹´è½»":11830,"åĪĨéĴŁå½©":11831,"120":11832,"ĊéĿĴæµ·çľģæĶ¿åºľ":11833,"Ġåĳ¼ä¼¦è´Ŀå°Ķ|":11834,"Ġå¢¨ç«¹":11835,"ĠäºļæĲıå¨±ä¹Ĳappä¸ĭè½½å®ĺç½ĳ":11836,"Ġå°ıé±¼åĦ¿çİĦæľº":11837,"æ¶Ķ":11838,"ç¨®":11839,"Ġè¾¾å°Ķ":11840,"ĠBet365":11841,"Ċä¸ŃåĽ½æĸ°éĹ»ç½ĳ":11842,"æľīãĢĳãĢĲ":11843,"Ġsecond(s),":11844,"Ġéĺ¿åĿĿ|":11845,"çĴ°":11846,"Ġæ³Ĺæ´ª|":11847,"ĠåłĨé¾Ļå¾·":11848,"è¿Ľä¸įåİ»äºĨ":11849,"Ġä¼Ĭéĩĳéľįæ´Ľ":11850,"ĠèĢģèĻİ":11851,"Ġå¤ªåİŁ":11852,"æĮ£éĴ±":11853,"åĩłåįģ":11854,"âĢĺ,":11855,"åĽ½åĬ¡éĻ¢":11856,"ZnJhbWU":11857,"å·¥åį¡":11858,"Iiwid":11859,"Ġè®¾":11860,"gYWRf":11861,"ĠäºļæĲıå¹³åı°":11862,"æ·»åĬłçĶľèľľç´ł":11863,">>âĢĺ,":11864,"åºĨåİ¿|":11865,"ĠäºĶå¤§è¿ŀ":11866,"Ġé¼İ":11867,"oZWlnaHQ9":11868,"éĵ¶å·Ŀ":11869,"èĪĸ":11870,"Ġå¯¹":11871,"Ġè¾¹":11872,"âĢ¦Ã©":11873,"âĢ¦Ã©>>âĢĺ,":11874,"éĿ¢å¯¹":11875,"çĻ»å½ķä¸įäºĨ":11876,"ä»Ģåħĭ":11877,"å®¢æľº":11878,"èĤĩäºĭ":11879,"ock":11880,"ĠçıĬçĳļ":11881,"Ġæµ·æ·":11882,"Ht":11883,"ĠèĶ¡":11884,"Ġä»ĬæľŁ":11885,"ĠåĨĢ":11886,"Ġå¢¨ç«¹å·¥åį¡":11887,"æıĲä¸įäºĨçİ°":11888,"Ġ?(R)":11889,"ä»Ģåħĭèħ¾":11890,"NzI":11891,"Ġäºļç¾İå¤ļä¸ĢçĤ¹æīĭæľºçīĪ":11892,"Ġçİ¯äºļå®¢æĪ·ç«¯":11893,"æĪ¿å¹¿åĳĬ":11894,"çļĦè¯Ŀ":11895,"çĹĩ":11896,"4eD":11897,"X01fNzI":11898,"4eDkw":11899,"X01fNzI4eDkw":11900,"æ±½è»ĬåĢŁæ¬¾":11901,"ãĢĭï¼Į":11902,"Ġåħĭä»Ģåħĭèħ¾":11903,"èĬ±åĽŃ":11904,"åĳ¨æľŁ":11905,"èµļéĴ±åĲĹ":11906,"ĠéĶĻ":11907,"\").html":11908,"Ġç§ĴéĢŁé£ŀèīĩ":11909,"Ġä¸ĩçĽĽ":11910,"w66åĪ©æĿ¥":11911,"Ċ2017-10":11912,"Ġä¸ĭä¸Ģç¯ĩæĸĩç«łï¼ļ":11913,"å°İè¦½":11914,"éĩĳé¢Ŀ":11915,"éĻĩ":11916,"ĊéĶ":11917,"ãĢĭï¼Ī":11918,"Ċä¸ŃåĽ½è¥¿èĹıæŀĹèĬĿç½ĳ":11919,"hZ":11920,"Ġå°ĸ":11921,"çİĦæľºåĽ¾":11922,"Ġå©º":11923,"Ġbet356å¨±ä¹Ĳåľº":11924,"dpZHRo":11925,"ï¼īçļĦ":11926,"iew":11927,"ĠéĻĪå·´å°ĶèĻİ":11928,"ç°¡":11929,"Ġç¼ĸè¾ĳï¼ļ":11930,"2æľĪ":11931,"èĭ±çĥĪ":11932,"éĽªçĲĥ":11933,"Ġå´Ĥ":11934,"éĩįæĸ°":11935,"èµĦæĸĻåħįè´¹":11936,"ĊæĳĦ":11937,"ual":11938,"ĠçľŁéĴ±çīĪ":11939,"ĠçľŁéĴ±çīĪæ£ĭçīĮappä¸ĭè½½":11940,"åĪĳäºĭ":11941,"è¾ĸ":11942,"Ġå¡ĺ":11943,"Ċåħīæĺİç½ĳ":11944,"åĳĨ":11945,"æµ¼":11946,"èĥľè´Ł":11947,"è¦ª":11948,"800":11949,"éĺľ":11950,"å¼Ģé©¬":11951,"èµĮåľºç½ĳæĬķ":11952,"Ġå½©ç¥ŀå¤§åıĳå¿«ä¸ī":11953,"Ġå¾·éĴ¦|":11954,"ãĢĳãĢĲä¼ļãĢĳãĢĲ":11955,"è¥¿éĥ½å¸ĤæĬ¥":11956,"åķ¦":11957,"ĉçĻ¼è¡¨":11958,"ãĢĳãĢĲæĺ¯":11959,"ç¬¦åĲĪ":11960,"ç«ŀäºī":11961,"ĊäºĶ":11962,"æĭīéĿ¢":11963,"ĊéĽĦ":11964,"ħé±¼":11965,"éĽ¾":11966,"å®ĮåĸĦ":11967,"åīĳ":11968,"çģı":11969,"Ġç¶ĵ":11970,"8åħĥ":11971,"Ġæ¢ħéĩĮ":11972,"è¾£æ¤Ĵ":11973,"çİĭæĢĿèģª":11974,"append":11975,"èµī":11976,"æĪ·åı£":11977,"çĶº":11978,"ä¹°å½©ç¥¨å®īåħ¨":11979,"å¯¹åŃĲ":11980,"æĹ¶å°ļ":11981,"èªĮ":11982,"æĺİå®ī":11983,"æŃ¡":11984,"Ġåı¯ä»¥çİ©":11985,"èµļéĴ±çļĦ":11986,"Ġä¹Ŀé¾Ļ|":11987,"ĠåĪĿ":11988,"ç½ĳç«Ļåľ°åĽ¾|":11989,"Ġæ¾³éĹ¨çľŁéĴ±èµĮåľºç½ĳæĬķ":11990,"ĠçĭĹä¸ĩä½ĵèĤ²-":11991,"ä¼łæĴŃ":11992,"Ġéĺ¿åħĭéĻ¶|":11993,"ĠåĲīé¦ĸ|":11994,"ĊCopyrightÂ©2020":11995,"Ġæĸ°éĥ½|":11996,"ĠçĭĹä¸ĩåŃĺæ¬¾":11997,"ĠæīĺéĩĮ|":11998,"éĽ»åŃĲéĥµä»¶":11999,"Ġå¤§çĶ°|":12000,"ĠagåĽ½éĻħåİħè¯ķçİ©":12001,"é«ĺçº§":12002,"æ²ģ|":12003,"Ġéľ¸":12004,"é¢Ĩåıĸ":12005,"Ġå»ºæĺĮ|":12006,"åħ¬åĬ¡çĶ¨è½¦":12007,"ĠReservedç½ĳç«Ļåľ°åĽ¾|":12008,"ĠReservedç½ĳç«Ļåľ°åĽ¾|çĻ¾åº¦åľ°åĽ¾":12009,"Ġå¤§åıĳåĪĨåĪĨæĹ¶æĹ¶å½©":12010,"ĠçŁ³å®¶åºĦ|":12011,"å¹²åĺĽ":12012,"èĮĤæĺİå®ī":12013,"ç½ķèĮĤæĺİå®ī":12014,"ĠèĬĴåº·|":12015,"çļĦæīĭæľºæ£ĭçīĮ":12016,"1d":12017,"åħ«çłģ":12018,"Ġä¹¡å®ģ|":12019,"é¢Ĺ":12020,"Ġå·´éĩĮåĿ":12021,"éªĹäººçļĦåĲĹ":12022,"Ġä¸ĩå®ī|":12023,"Ġéĥİæºª|":12024,"ĠèĢĴéĺ³|":12025,"ĠæĪĲéĥ½|":12026,"03æľĪ":12027,"çķĻåŃ¦":12028,"Ċ3.":12029,"æĭĸ|":12030,"å¯¼èĪªç½ĳ":12031,"ĠçİĽæ²ģ|":12032,"Ġå·´ä¸ľ|":12033,"ç½ķèĮĤæĺİå®īèģĶåĲĪ":12034,"ĠæĻ®å®ģ|":12035,"Ġå®īè¾¾|":12036,"æł¹æľ¬":12037,"ĠçıŃæĪĪ|":12038,"Ġä¸Ķ":12039,"Ġæ²Ĥæ°´|":12040,"ĠåĲįç¨±":12041,"Ġéĺ³æľĶ|":12042,"ĠæŃ£å®ģ|":12043,"åħįè´¹çīĪ":12044,"Ġéĺ¿åĽ¾ä»Ģ|":12045,"ĠæŃ¦éļĨ|":12046,"Ġå¸ĥæĭĸ|":12047,"ĠåĲīæľ¨èĲ¨å°Ķ|":12048,"Ġæĸĩå®ī|":12049,"ĠæŃ¦é¸£|":12050,"Ċé»ĳé¾Ļæ±Łä¸ľåĮĹç½ĳ":12051,"Ġé¢Ŀæķı|":12052,"ĉçĻ¼è¡¨è¿´éŁ¿":12053,"Ġè¾¾å°Ķç½ķèĮĤæĺİå®īèģĶåĲĪ":12054,"Ġåĺīèį«|":12055,"Ċèĭı":12056,"Ġå¼łå®¶æ¸¯|":12057,"Ġç©Ĩ":12058,"ä¼į":12059,"ĠåĵĪå°Ķæ»¨|":12060,"Ġå¤ªè°·|":12061,"Ġé«ĺéĺ³|":12062,"Ġå¤§åıĳä¸ĢåĪĨéĴŁpk10":12063,"ĠéĿĴåİ¿|":12064,"ĠåįĹåĴĮ|":12065,"çıłæµ·":12066,"Ġéĩĳæ¹ĸ|":12067,"ĠæĪ·åİ¿|":12068,"ç´°":12069,"Ġæ³°å®ģ|":12070,"ĠçĭĹä¸ĩæĦıçĶ²":12071,"Ġé©¬åħ³|":12072,"Ġæľ¨åħ°|":12073,"Ġéĥ½åĮĢ|":12074,"ĠéĽ»åŃĲéĥµä»¶":12075,"Ġåı¯ä»¥çİ©éĴ±":12076,"ĠäºĮè¿ŀæµ©çī¹|":12077,"è²·?":12078,"Ġå·¦è´¡|":12079,"Ġéĥ½åħ°|":12080,"Ġé»ĳå±±|":12081,"ĠåĽ¾ä»¬|":12082,"çİ°éĩĳçīĪ":12083,"Ġå§ĭ":12084,"Ġåı¯ä»¥çİ©éĴ±çļĦæīĭæľºæ£ĭçīĮ":12085,"Ġå¸¸å±±|":12086,"Ġåĩ¯æĹ¶å®ĺç½ĳ":12087,"Ġ365æ»ļçĲĥç½ĳç«Ļ":12088,"Ġä½ķ":12089,"éĢĬ|":12090,"Ġä¸´åİ¿|":12091,"ĠèģĤæĭīæľ¨|":12092,"åħ¹":12093,"Ġé¸¡ä¸ľ|":12094,"èµ¢äºĨ":12095,"ĠåįĹå®ģ|":12096,"åŀĤ":12097,"Ġå¤§åŁĶ|":12098,"ĠæŃ¦èĥľ|":12099,"Ġéĺ¿çĵ¦æıĲ|":12100,"Ġéķ¿æĺ¥|":12101,"Ġå½°æŃ¦|":12102,"Ġæ²Ļæ²³|":12103,"ĠåĵĪå·´":12104,"Ġæłĸéľŀ|":12105,"Ġé©¬é¾Ļ|":12106,"Ġç§¦å®ī|":12107,"Ġso":12108,"Ġæ²ģæ°´|":12109,"Ġä¹ħæ²»|":12110,"åŁİåİ¿":12111,"ĠæĹłæ££|":12112,"Ġä¸Ĭé«ĺ|":12113,"ĠåįĹåŁİ|":12114,"Ã¼":12115,"ĠéĢļæ±Ł|":12116,"Ġæ¼³å¹³|":12117,"éĹ¯":12118,"Ġå¥ĩåı°|":12119,"çľĮ":12120,"ĠéĦ¯åĸĦ|":12121,"æĬĺæī£":12122,"Ġçº¢å®ī|":12123,"éĬĢ":12124,"Ġæ²ĻåĿª":12125,"ĠäºķçłĶ|":12126,"ĠæĹłä¸º|":12127,"éĹ®é¢ĺãĢĤ":12128,"Ġæ¹ĺä¹¡|":12129,"Ċä¸ľæ¥ļç½ĳ":12130,"Ġè¿ŀå·ŀ|":12131,"pv":12132,"è¾ĵåħ¥":12133,"ĠèĢ¿":12134,"Ġä¸¹æ£±|":12135,"Ġèħ¾åĨ²|":12136,"Ġåĩ¯åıĳä½ĵèĤ²å®ĺç½ĳ":12137,"Ġå¼ĢåĮĸ|":12138,"æ¬Ħä½į":12139,"Ġ365betæ»ļçĲĥ":12140,"Ġæĸ°å®ī|":12141,"ĠèįĶæ³¢|":12142,"Ġå®£å¨ģ|":12143,"ĠçĽĪæ±Ł|":12144,"ĠäºĶèĲ¥|":12145,"Ġè¾¾å°Ķç½ķèĮĤæĺİå®īèģĶåĲĪæĹĹ|":12146,"ãĢĤä¸ŃåĽ½":12147,"Ġå·´éĩĮåĿ¤|":12148,"Ġæµıéĺ³|":12149,"ĠåĽºå®ī|":12150,"Ġå¿ħè¦ģ":12151,"ĠåĶĲåİ¿|":12152,"éŃĤ":12153,"Ġå³¡æ±Ł|":12154,"Ġå¤§æ´¼|":12155,"ĠäºĶåįİ|":12156,"ä½įåĿĢ":12157,"çĶµèĦĳå®¢æĪ·ç«¯":12158,"Ġå¤ªä»ĵ|":12159,"ĠäºķåĨĪ":12160,"Ġé²ħé±¼":12161,"Ġè¿Ńéĥ¨|":12162,"Ġæ»¡æ´²":12163,"ĠåķĨæ°´|":12164,"è²¡":12165,"Ġå£¤å¡ĺ|":12166,"ĠéĿĴçĶ°|":12167,"åĳ¨è¾¹":12168,"æ¨Ļè¨ĺ":12169,"Ġæ¸ħæ¶§|":12170,"Ġäºļæ¸¸éĽĨåĽ¢åľ¨çº¿":12171,"Ġåħ´å®ī|":12172,"ç§¯|":12173,"ĠåıĮéĺ³|":12174,"Ġæ½¼åįĹ|":12175,"Ġä¸ĭä¸Ģé¡µ":12176,"Ġæ²Ļæ¹¾|":12177,"Ġèĭ¥ç¾Į|":12178,"ipad_":12179,"Ġåĩ¤åĨĪ|":12180,"Ġäºļæ¸¸éĽĨåĽ¢appä¸ĭè½½":12181,"ĠåĲ´æ±Ł|":12182,"åħĴ":12183,"ä¿Ŀå®ī":12184,"Ġåĩ¯åıĳçĶµçİ©å¨±ä¹Ĳå®ĺç½ĳ":12185,"ä¸įåĪ°è´¦":12186,"Ġäºļæ¸¸æ¸¸æĪıå¹³åı°":12187,"æīĵæ³ķ":12188,"ĠWe":12189,"Ċæĸ°æµªåı°æ¹¾":12190,"é¸Ł":12191,"ï¿½ï¼ļ":12192,"Ġéº¦ç§¯|":12193,"ĠçıĬçĳļå²Ľ|":12194,"ĠæīĺåħĭéĢĬ|":12195,"ĠGD":12196,"r\\n":12197,"Ġå´Ĥå±±|":12198,"å®Įç¾İ":12199,"ĠèĹģåŁİ|":12200,".create":12201,"Ġå¹¿è¥¿å¿«3":12202,"Ġè°¢éĢļéĹ¨|":12203,"+365":12204,"èµĽäºĭçĽ´æĴŃ":12205,"ĠED":12206,"ĠåĢĭäººç¶²ç«Ļ":12207,"ĠæĪ¿å±±|":12208,"è®Ĭ":12209,"Ġä¸´çĮ":12210,"è½¬è½½":12211,"Ġçİ¯äºļæ³¨åĨĮ":12212,"ĠåĲĮå®ī|":12213,"Ġå°Ħæ´ª|":12214,"Ġé»Ħå¤§ä»Ļ":12215,"Ġé¾Ļå±±|":12216,"iness":12217,"Ġå°¼çİĽ|":12218,"revi":12219,"Ġçıłç©Ĩ":12220,"ĠéĩĳéĹ¨|":12221,"ä¸įæľĥè¢«":12222,"ĠåĪ©æĿ¥åĽ½æłĩå¨±ä¹Ĳ":12223,"ĠæŀĹåĳ¨|":12224,"ĠçŁ³æĻ¯å±±|":12225,"Ġæ³ķå¾ĭå£°æĺİ":12226,"Ġä¸ľå±±|":12227,"ĠéĿĴå·Ŀ|":12228,"Ġä¸¾":12229,"ç·¨":12230,"è¸ı":12231,"ï¼īæŃ£æĸĩå·²ç»ĵæĿŁï¼ĮæĤ¨åı¯ä»¥æĮīalt+4è¿Ľè¡Įè¯Ħè®º":12232,"Ġçıłç©ĨæľĹçİĽ":12233,"Ġæĸĩç«łå°İè¦½":12234,"åľĪ|":12235,"åħ¬éĸĭãĢĤ":12236,"ĠéĿ©åĲī|":12237,"ĠæĻ®éĻ":12238,"å¹¶ä¸į":12239,"çī¹åĪ«è¡ĮæĶ¿":12240,"ĠäºĳæŀĹ|":12241,"ĠçĴ§":12242,"RC":12243,"æ¨Ļè¨ĺçĤº":12244,"Ġå¿ħè¦ģæ¬Ħä½į":12245,"Ġå¿ħè¦ģæ¬Ħä½įæ¨Ļè¨ĺçĤº":12246,"ĉä½łçļĦ":12247,"éĽ»åŃĲéĥµä»¶ä½įåĿĢ":12248,"Ġè¡ĮåĶĲ|":12249,"éĶĢåķĨ":12250,"ä¸¦ä¸įæľĥè¢«":12251,"éĽ»åŃĲéĥµä»¶ä½įåĿĢä¸¦ä¸įæľĥè¢«":12252,"éĽ»åŃĲéĥµä»¶ä½įåĿĢä¸¦ä¸įæľĥè¢«åħ¬éĸĭãĢĤ":12253,"ĉä½łçļĦéĽ»åŃĲéĥµä»¶ä½įåĿĢä¸¦ä¸įæľĥè¢«åħ¬éĸĭãĢĤ":12254,"ĊåķĨéĥ½ç½ĳ":12255,"Ġ*è¿´éŁ¿":12256,"ĠåµĬæ³":12257,"ä¼ĺåĬ¿":12258,"ĠèģĤèį£|":12259,"æ¬¡æķ°:":12260,"ĊçĽ¸åħ³æĸĩç«ł":12261,"æĻļä¸Ĭ":12262,"Ġåģĥ":12263,"Ċ2019-11-12":12264,"MT+8,":12265,"Ġé«ĺç¢ĳ":12266,"ĠåĨħä¸ĺ|":12267,"Ġéĺ¿åħĭå¡ŀ|":12268,"æľĢéķ¿":12269,"å¥ĭæĸĹ":12270,"Ġæ¢¨":12271,"essage":12272,"Ġæ´¥å¸Ĥ|":12273,"æŃī":12274,"Ġæ¾³éĹ¨æ¸¸æĪıå¹³åı°å¨±ä¹ĲçĻ»å½ķ":12275,"sb":12276,"Ċ2018-12":12277,"Ġåĵªä¸ª":12278,"ĠæĺĤä»ģ|":12279,"Ġè¾¾æĭīçī¹":12280,"ä½£":12281,"Ġè¥¿å±±|":12282,"æĺ¯åľ¨":12283,"å¸Ĥéķ¿":12284,"ĠåĲ´ä¸Ń|":12285,"ĠæĬļæĿ¾|":12286,"æµİåįĹ":12287,"Ġæ¢ħéĩĮæĸ¯|":12288,"Ġèİİ":12289,"ä»¤åĵĪ":12290,"ãĢĳãĢĲãĢĤãĢĳãĢĲ<ãĢĳãĢĲ/ãĢĳãĢĲpãĢĳãĢĲ>ãĢĳ":12291,"Ċåįİè¥¿éĥ½å¸ĤæĬ¥":12292,"Ġçıłç©ĨæľĹçİĽå³°|":12293,"Ġé²ħé±¼åľĪ|":12294,"Ġæ³Ĭ":12295,"ĠåįĹå±±|":12296,"è¿«":12297,"è§Ģ":12298,"ĠéĵľéĻµåİ¿|":12299,"Ġäºĳå®ī|":12300,"æĢİä¹ĪåħħåĢ¼":12301,"ĠçĻ½æľĹ|":12302,"Ġå¸ĥå°Ķ":12303,"ï¼Ĭï¼Ĭï¼Ĭï¼Ĭ":12304,"ton":12305,"Ġå±ıä¸ľ|":12306,"èĥĮæĻ¯":12307,"ĠæĽ²æ°´|":12308,"åı£è¯Ģ_":12309,"Ġéĺ²åŁİåĮº|":12310,"Ġæ¾³éĹ¨åħ¨éĥ¨":12311,"ING":12312,"æ·±åº¦":12313,"æĭīå°Ķ":12314,"æķĳæĬ¤":12315,"rict":12316,"Ġä¹Įæĭīçī¹åĲİæĹĹ|":12317,"ç¾ħ":12318,"Ġéĸĭç®±":12319,"Ġç»¥èĬ¬":12320,"åĨħåľ°":12321,"åĴĮå¹³":12322,"Ġsl":12323,"ä¼ģæ¥Ń":12324,"åĪĹè½¦":12325,"ĠæŀĹèĬĿéķĩ|":12326,"ĠéĦ¢":12327,"ĠagæĹĹèĪ°åİħå®ĺæĸ¹ç½ĳç«Ļ":12328,"0aW":12329,"å·¥ä½ľç»ıéªĮ":12330,"ãĢĳãĢĲtãĢĳãĢĲy":12331,"Ġ356betçľŁäºº":12332,"Ġå®ĿåºĶ":12333,"å¾·å·ŀ":12334,"ĠéĿĴéĵľ":12335,"å¸Įå°Ķ":12336,"Ġéķ¿èĳ":12337,"Ġèµ£åİ¿|":12338,"æĢ¨":12339,"Ġæ¯Ķå¦Ĥ":12340,"Ġäºļç¾İå¹³åı°":12341,"Ġå¾·ä»¤åĵĪ":12342,"è¼ķ":12343,"åŃĺåħ¥":12344,"cial":12345,"åĽŀäºĭ":12346,"äººæŃ»äº¡":12347,"All":12348,"Ġéĵģå±±|":12349,"Ġåħĭä»Ģåħĭèħ¾æĹĹ|":12350,"Ġè¨İè«ĸ,":12351,"æ¯Ķå¦Ĥ":12352,"²ï¿½":12353,"å¨ģèĥģ":12354,"ĠéĹ»":12355,"Ġè¿ŀäºĳåĮº|":12356,"çľŁäººçīĪ":12357,".00åħĥ":12358,"æĺİæĺ¾":12359,"åľ°éľĩ":12360,"æŃ»äºº":12361,"Ġä¼Ĭéĩĳéľįæ´ĽæĹĹ|":12362,"ĠçĤī":12363,"Ġ365æ£ĭçīĮæ¸¸æĪıä¸Ńå¿ĥ":12364,"åĴĮãĢĳãĢĲ":12365,"æĭĽçĶŁ":12366,"5)":12367,"æ·¡":12368,"ĠéĴĵé±¼å²Ľ|":12369,"Ġåĩ¯åıĳçĶµæ¸¸å¼ĢæĪ·":12370,"Ġèĭıå°¼çī¹åı³æĹĹ|":12371,"Ġé£¯åºĹ":12372,"ĠéĻĪå·´å°ĶèĻİæĹĹ|":12373,"110":12374,"çŁ³å®¶åºĦ":12375,"æŀªåĩ»":12376,"ï¼ĮåĲĳ":12377,"ĠåľŁé»ĺçī¹åı³æĹĹ|":12378,"åı¯åĶ®":12379,"ä¸īåĪĨå½©":12380,"ä½ĵèĤ²çĽ´æĴŃ":12381,"Ġå°¼åĭĴ":12382,"gh":12383,"ĠåĨĮ":12384,"ĠæĺŁæľŁ":12385,"Ġæľīä¿¡èªīçļĦ":12386,"ĠåıĻ":12387,"éĢ¸":12388,"Ġéĺ¿åĲĪ":12389,"ĠäºļæĲıå¨±ä¹Ĳç½ĳé¡µçīĪçĻ»å½ķ":12390,"ä¾ł":12391,"å¤ļæķ°":12392,"ĠåĽĽåŃĲçİĭ":12393,"Ġåĩ¯åıĳç½ĳåĿĢæĺ¯å¤ļå°ĳ":12394,"æ¹ĸåİ¿|":12395,"Ġéº¦çĽĸ":12396,"ĠçİĽçº³":12397,"å¸ĥæ±Ł":12398,"Ċ2019-11-14":12399,"è§Ĥåħī":12400,"éłĺ":12401,"ä»Ĩå¯º":12402,"ĊThis":12403,"æŃ£ç½ĳ_":12404,"çİ¯çĲĥç½ĳæĬ¥éģĵ":12405,"æĤ²":12406,"ä¹Įé½Ĳ":12407,"ĠåįĹæľ¨":12408,"å¹´çº§":12409,"ç½ĳç«Ļé¦ĸé¡µ":12410,"ä½ıæ°ĳ":12411,"Ġç¿ģçīĽ":12412,"ĠåĲīæľ¨ä¹":12413,"Ġ365ä½ĵèĤ²æĬķæ³¨å¤ĩçĶ¨ç½ĳåĿĢ":12414,"okerst":12415,"2008":12416,"æĿĢåı·":12417,"Ġç±»ä¹Įé½Ĳ":12418,"vel":12419,"Ġå¤§æ¸¡":12420,"éĹ¨åİ¿|":12421,"Ġæµªåį¡":12422,"Ġèĭ±åĲī":12423,"Ġæīİèµī":12424,"Ġå¤ªä»Ĩå¯º":12425,"sia":12426,"ä¿ĳ":12427,"Ġåĳ¼åĽ¾":12428,"åħŃåĲĪå½©":12429,"å®īåİ¿":12430,"ĠCollect":12431,"è¿Ł":12432,"Ġåĩ¯åıĳå®ĺæĸ¹ç½ĳç«Ļ":12433,"ç½ĳçĽĺ":12434,"ç§ĳæĬĢæľīéĻĲåħ¬åı¸":12435,"198":12436,"ï¿½x":12437,"Ġå²³æĻ®":12438,"Ġä¸ĵä¸ļ":12439,"ĨĲ":12440,"å¥ĹæĪ¿":12441,"Ġæ°ĳéĸĵ":12442,"Ġåĩ¯åıĳappå®īåįĵçīĪä¸ĭè½½":12443,"Ġåįļå¤©918":12444,"Ġä¹Ĳæ©Ļlc8":12445,"Ġèĭ¥å°Ķ":12446,"èµĦæľ¬":12447,"è½©":12448,"æ²»çĲĨ":12449,"æĬĹè®®":12450,"ĠåĪ©æĿ¥æ³¨åĨĮ":12451,"Ġ5åĪĨå½©":12452,"click":12453,"Ġåľ£":12454,"ĠåĩĨæł¼å°Ķ":12455,"11éĢīäºĶ":12456,"åħ¬åı¸çļĦ":12457,"TD":12458,"Ġå·¥å¸ĥæ±Ł":12459,"èµĮå½©":12460,"ĠåĲĪä½ľä¼Ļä¼´":12461,"çŃīãĢĤ":12462,"ĠCo.,":12463,"é¦ĸåħĪ":12464,"Ġçķª":12465,"Ġk8å¨±ä¹Ĳå®ĺç½ĳåħįè´¹ä¸ĭè½½":12466,"åħ±å»º":12467,"Ġk8å¨±ä¹Ĳç½ĳç«Ļ":12468,"Ġpk10è®¡åĪĴ":12469,"ĠPM":12470,"èīĺ":12471,"9)":12472,"åĪ«å¢ħ":12473,"åĪĨå¿«ä¹Ĳ10åĪĨ":12474,"è¡Įæĥħ":12475,"Ġæ¾³éĹ¨ç½ĳä¸ĬèµĮæĲı":12476,"ĠçľŁäººèµĮéĴ±æ£ĭçīĮæ¸¸æĪıå¹³åı°":12477,"Ġæĸ¹æŃ£":12478,"å±±åĮº":12479,".COM":12480,"ëĭ¤.":12481,"Ġéĥģ":12482,"åĪĨï¼Į":12483,"åĪĨå¿«ä¹ĲåįģåĪĨ":12484,"uuå¿«ä¸ī":12485,"XC9hZHM":12486,"ĠåįĹå®«":12487,"ĠéĻ¤":12488,"çº¿ä¸ĬçľŁäºº":12489,"ç²¾éģ¸":12490,"The":12491,"æĹ¦":12492,"ĠåĪ©æĿ¥w66æľĢèĢģçīĮ":12493,"Ġè¶³å½©çĭĹä¸ĩ":12494,"Ġè°ĥåħµ":12495,"ĠHouse":12496,"æľĢæĸ°åľ¨çº¿":12497,"ãĢĳãĢĲtãĢĳãĢĲyãĢĳãĢĲlãĢĳãĢĲeãĢĳãĢĲ":12498,"èħ¾è®¯åĪĨåĪĨå½©":12499,"ystem":12500,"Ġç¿¼":12501,"å¦Ĥä½ķæıĲçİ°":12502,"åľ°äº§":12503,"Ġæ²Ĳ":12504,"ĠåºĲ":12505,"éķ¶çĻ½":12506,"ä¸ºåķ¥":12507,"äºĭéķ¿":12508,"10æĹ¥":12509,"éĩĮçļĦ":12510,"Ġuuå¿«3":12511,"ĠQQ":12512,"ep":12513,"ĠèĩªåĬ©æĹ©é¤ĲåĬłçĽŁ":12514,"Ġæ¨Ł":12515,"Ġåĩ¯åıĳæ¸¸æĪıå®ĺç½ĳ":12516,"ĠæŃ£éķ¶çĻ½":12517,"Ġåĩ¯åıĳçĶµæ¸¸å®¢æĪ·ç«¯":12518,"æİ¥è§¦":12519,"æ¶Īéĺ²åĳĺ":12520,"Ġè¾°":12521,"åħ©":12522,"177":12523,"é£¾":12524,"ĠçĭĹä¸ĩå¾®ä¿¡":12525,"Ġåĩ¯åıĳçĶµæ¸¸äºļæ´²é¦ĸéĢī":12526,".parent":12527,"èĩº":12528,"Ċ2019-12-08":12529,"ĊO":12530,"èĩ³å°ĳ":12531,"Ġ365æ£ĭçīĮæ¸¸æĪıå¤§åİħ":12532,"Ġel":12533,"æ³¨åĨĮ_":12534,"ĠéŁ³":12535,"å®ł":12536,"ä»Ģéº¼":12537,"ĠèĮĮ":12538,"ä¸»åĬ¨":12539,"Ġæ¹¾":12540,"ä¿Ŀäºº":12541,"Ġæ¾³éĹ¨ç½ĳé¡µå¨±ä¹Ĳç½ĳç«Ļ":12542,"Ġ365æ£ĭçīĮè´¦åı·":12543,"å®ĺæĸ¹åħ¥åı£":12544,"login":12545,"lish":12546,"åįİäºº":12547,"è©ķè«ĸ":12548,"Ċ2019-11-15":12549,"æ±Ĺ":12550,"ĠæĬķç¨¿":12551,"index":12552,"Jn":12553,"åĪĨæŀĲ_":12554,"ãĢĤæĻ®äº¬":12555,"ä¹Łæľī":12556,"ĠAB":12557,"Ġçķ¥":12558,"åģľæŃ¢":12559,"Ġåĵį":12560,"èĨł":12561,"ï¼ĮæĬĬ":12562,"%ãĢĤ":12563,"ĠäºļæĲıæīĭæľºçīĪå®ĺæĸ¹ä¸ĭè½½":12564,"è¿Ĳè¡Į":12565,"éĭ¼":12566,"Ġåĩ¯æĹ¶åĽ½éĻħapp":12567,"360":12568,"å½±éĻ¢":12569,"å¹²åĺĽçļĦ":12570,"ç¼ĥï¿½":12571,"ĠåĪ©æĿ¥æľĢèĢģçīĮç½ĳç«Ļ":12572,"ãĢĤä¸įè¿ĩ":12573,"Ġæ½įåĿĬ":12574,"Ġå¤§è¿ŀ":12575,"çĵľ":12576,"sport":12577,"ç§ĺç±į":12578,"Ċä¹¦":12579,"å°Ķå¤«":12580,"Ġå·¥ä½ľ":12581,"ĠAGåİħ":12582,"ĠéĢļè®¯":12583,"å½©ç¥¨å®ĺç½ĳ":12584,"Ġæ¶¡":12585,"å¤ļåĲį":12586,"ĠæĽ´æĸ°":12587,"Ġé¤Ĳ":12588,"éĻµåĽŃ":12589,"Ġä¸ĺ":12590,"åħĦ":12591,"èĭĹæłĹ":12592,"æĮ¡":12593,"ãĢĤç¾İåĽ½":12594,"ens":12595,"è¯Ħæµĭ":12596,"å¤§éģĵ":12597,"ĠçŃī":12598,"ç»ı|":12599,"æ³¨åĨĮæĶ¶ä¸įåĪ°éĤ®ä»¶":12600,"è£Ĥ":12601,"ĊéĶ¡æŀĹ":12602,"Ġå¤§çŁ³":12603,"\").c":12604,"ĠéĹµè¡Į":12605,"3aWR0a":12606,"Ġé¾Ļæ³ī":12607,"ĠæľĿéĺ³":12608,"ĠæľĢæĸ°æīĭæľºçīĪ":12609,"æłĩçŃ¾":12610,"ardo":12611,"ĠArticle":12612,"æĹıèĩªæ²»å·ŀåĮºåı·":12613,"Ġagå®¢æĪ·ç«¯":12614,"ĠæľĢæĸ°æīĭæľºçīĪçľŁéĴ±æ£ĭçīĮ":12615,"appä¸ĭè½½åľ°åĿĢ":12616,"oto":12617,"ðŁ":12618,"æĹıèĩªæ²»å·ŀéĤ®ç¼ĸ":12619,"Ġè¾¾æĭīçī¹æĹĹ|":12620,"èĥľå®¢":12621,"åĢŁéĮ¢ç®¡éģĵ":12622,"Ġå«©":12623,"çĥ¦":12624,"HM":12625,"è¾¾æĪĲ":12626,"è¾¾äºº":12627,"ute":12628,"Ġç¦ıå»ºå¿«3":12629,"Ġäºļæ¸¸éĽĨåĽ¢å¹³åı°":12630,"ĊéĶ¡æŀĹæµ©çī¹":12631,"Ġone":12632,"http://www.":12633,"Ġåĩ¯åıĳæīĭæľºå®¢æĪ·ç«¯":12634,"ĠåĨ·æ°´":12635,"Ġæł¡":12636,"Ċæ³¨åĨĮæĹ¶éĹ´ï¼ļ2019":12637,"app|":12638,"ĠéĤ®":12639,"åĦ¿åŃĲ":12640,"æĭħä¿Ŀç½ĳ":12641,"å®ŀéªĮ":12642,"Ġéĵħ":12643,"å½©å¤§åıĳå¿«ä¸ī":12644,"ĠMP":12645,"æ®º":12646,"Ġstyle=\"":12647,"èµĶåģ¿":12648,"ĠSN":12649,"å±±æĹħæ¸¸":12650,"Ġåĩ¯åıĳå®ĺæĸ¹æīĭæľºapp":12651,"Ġåıª":12652,">ãĢĳãĢĲ":12653,"ĠéĤ»":12654,"ç¨ĭåº¦":12655,"èĢĲ":12656,"ä¸Ńåħ±":12657,"Ġåŀ«":12658,"çıį":12659,"Ġå¦":12660,"Ġæĸ°å»º":12661,"ç¬¬äºĶ":12662,"Ġ918æĲıå¤©åłĤæīĭæľºçĻ»å½ķ":12663,"é¦Ļæ¸¯|":12664,"ĠæĶ¯":12665,"ĠåĩŃ":12666,"ç¿Ĵ":12667,"Ġæ¯ı":12668,"ç»ĦæĪĲ":12669,"ĠçĤİ":12670,"Ġæµĳ":12671,"Ġ365betå®ĺç½ĳä½ĵèĤ²æĬķæ³¨":12672,"Ġæ¦ķ":12673,"çī¹æ®Ĭ":12674,"æĭĶ":12675,"éłĲè¨Ĥ":12676,"éħįèµĦåħ¬åı¸":12677,"les":12678,"Ġæĸ¯":12679,"ĠCF":12680,"Ġè½¯ä»¶":12681,"ĠæľĢç»ĻåĬĽ":12682,"ĠåĳĪ":12683,"åĿļæĮģ":12684,"ĠèĢģèĻİæľº":12685,"éĩİçĮª":12686,"gin":12687,"tYXJn":12688,"tYXJnaW5":12689,"æŁ±":12690,"ĠåĽĽåŃĲçİĭæĹĹ|":12691,"Ġæµ¦ä¸ľæĸ°":12692,"å¥½è¿Ĳå¿«ä¸ī":12693,"ĠéĦĤæīĺåħĭæĹĹ|":12694,"ä»Ģä¹Īæł·":12695,"æĭħä¿Ŀç½ĳå®ĺç½ĳå¹³åı°":12696,"Ġ365betå®ĺç½ĳçİ°éĩĳ":12697,"Ġç¢Į":12698,"ĠBl":12699,"ĊæŃ¤åĪĨé¡ŀ":12700,"Ġå¤ªä»Ĩå¯ºæĹĹ|":12701,"åĬłæĸ¯":12702,"Intro":12703,"iosä¸ĭè½½":12704,"ç¢°":12705,"éĽĨä¸Ń":12706,"ä¼ĳéĹ²":12707,"ĠåĮĹç¢":12708,"Ġæ¹Ħ":12709,"Ġæ¾³éĹ¨ç½ĳæĬķæĭħä¿Ŀç½ĳå®ĺç½ĳå¹³åı°":12710,"ç²¤":12711,"æ³¨åĨĮéĢģ18":12712,"cIiB":12713,"Ġæ¼ł":12714,"Ġç§ŁæĪ¿å¹¿åĳĬ":12715,"Ġç¿ģçīĽçī¹æĹĹ|":12716,"Ġåĭĥ":12717,"æĸĩåı²çīĪ":12718,"è·ĳçĭĹåĽ¾":12719,"æµ·åĨĽ":12720,"ĠåĲĽ":12721,"åĢ¾":12722,"æ´®":12723,"Ġä¹ĥ":12724,"æĽ¿":12725,"Ġæķĸ":12726,"å®īåħ¨ä¹Ī":12727,"å¼ĢæĪ·éĵ¾æİ¥":12728,"ĠæĺĶ":12729,"ĠéĿĴæµ·":12730,"Ġå¤§åıĳå½©ç¥ŀ8":12731,"ĠæľĢè¿ĳ":12732,"Ġæīİèµīçī¹æĹĹ|":12733,"é²¸":12734,"Ċåıĳå¸ĥæĹ¶éĹ´ï¼ļ2019":12735,"Ċæ±Łèĭıå¹¿æĴŃçĶµè§Ĩç½ĳ":12736,"ĠæŀĿ":12737,"ĠæĿŃéĶ¦åĲİæĹĹ|":12738,"ĠåĸĢåĸĩæ²ģæĹĹ|":12739,"çī²":12740,"Ġè¯ı":12741,"ĠçĽ®":12742,"uest":12743,"Ľå´":12744,"è¶³å½©åĲ§":12745,"å·¥åľ°":12746,"Ġæ´®":12747,"ĠåĪ©æĿ¥æľĢç»ĻåĬĽ":12748,"ĠOD":12749,"ĠæĹ¶éĹ´ï¼ļ2019å¹´10æľĪ":12750,"éĻ½":12751,"Ġä¼½":12752,"ï¿½|ï¿½^":12753,"è¯Ĺæĸĩåı²çīĪ":12754,"åĮ»åŃ¦":12755,"Ġæ¡ĥåľĴ":12756,"ĠèĽŁ":12757,"èµ¤":12758,"Ġæ¡Ĳæ¢":12759,"å¸Ĳåı·":12760,"Ġæ¢ĵ":12761,"ĠLtd.":12762,"Ġå»ºçĵ":12763,"åŀĴ":12764,"ĠåĩĨæł¼å°ĶæĹĹ|":12765,"Ġæ²½":12766,"ä¸Ĭä¸Ģç¯ĩï¼ļ":12767,"Ġäºļæ¸¸æīĭæľºçīĪ":12768,"Ġéķ¶":12769,"ĠèĬ®":12770,"ajax({":12771,"æĸ°åİ¿|":12772,"Ġå¯Įè£":12773,"Ġäºļæ¸¸appå®ĺç½ĳä¸ĭè½½":12774,"Ġag8":12775,"ãĢĳãĢĲäºĨãĢĳãĢĲ":12776,"å§ļ":12777,"åıĳå±ķçļĦ":12778,"Ġè´ŀ":12779,"æ°´å¸Ĥ|":12780,"Ġå®ķ":12781,"Ġéĩĳå±±":12782,"ĠéĵģåĬĽ":12783,"arget":12784,"ĠæīĭæľºçĻ¾å®¶ä¹Ĳæ£ĭçīĮ":12785,"ĠéºŁ":12786,"ĊæĳĦè¯Ĺæĸĩåı²çīĪ":12787,"çİ¯ä¿Ŀ":12788,"æĢ»ç«Ļ":12789,"å¯¹æĸ¹":12790,"Ġåĩ¯åıĳçĶµæ¸¸ç½ĳé¡µçīĪ":12791,"éĺ´åİ¿|":12792,"ĠåįĹæ±ĩ":12793,"æĮĩç¤º":12794,"Ġä¸¹æ±Ł":12795,"UUçĽ´æĴŃ":12796,"Ġäºĳéľ":12797,"èĹ¤":12798,"ç¿Ķ":12799,"åŃĹä½ĵï¼ļ":12800,"att":12801,"Ġ3åĪĨå½©":12802,"æ¸łéģĵ":12803,"Ġagçİ¯äºļæ³¨åĨĮç½ĳåĿĢ":12804,"ĠæŃ£éķ¶çĻ½æĹĹ|":12805,"çĦ¶èĢĮ":12806,"æĪ¿è²¸åĪ©çİĩ":12807,"Ġç¹ģå³":12808,"Ġåĩ¯åıĳæľĢæĸ°çĻ»å½ķç½ĳåĿĢ":12809,"Ġå½Ŀ":12810,"å¤±åİ»":12811,"ĠæŁŀ":12812,"å¿§":12813,"ache":12814,"ĠçĭĹä¸ĩå®ĺç½ĳç½ĳåĿĢ":12815,"Ġå·§å®¶":12816,"åı¦ä¸Ģ":12817,"Ġå£¶":12818,"¿åĲį":12819,"Ġbet365åľ¨çº¿":12820,"ĠhostIntro":12821,"ĠéĢļæ¸":12822,"result":12823,"èĭ±è¶ħèģĶèµĽ":12824,"Ċ2019-11-18":12825,"Ġçłļ":12826,"Ġç£´":12827,"éŀŃ":12828,"Ġå¤§åıĳæĹ¶æĹ¶å½©å¼Ģå¥ĸ":12829,"é¾Ļåİ¿|":12830,"02æľĪ":12831,"Ċ*":12832,"Ġèķī":12833,"å¼ĢæĪ·çĻ»åħ¥":12834,"Ġç¨·":12835,"Ġåħ°èĢĥ":12836,"ĠåĪ©æĿ¥w66å¹³åı°æ³¨åĨĮ":12837,"ĠéĺĨ":12838,"ĠçİĭèĢħ":12839,"åįģä¸ī":12840,"åĽŀæĶ¶":12841,"éªĮè¯ģçłģ":12842,"ĠåĨĮäº":12843,"Ġé£ŀ":12844,"Ġä¹Įå®¡":12845,"ä¹Įåħĭåħ°":12846,"åĩĮæĻ¨":12847,"Ġæ±¨":12848,"æºĲå¸Ĥ|":12849,"appåľ¨çº¿":12850,"ĠæŃ¦åĬŁ":12851,"Ġå®ĿåĿ":12852,"Ġæ±Łæ²¹":12853,"usiness":12854,"Ċ2019-12-09":12855,"ĠæŃ¦éĻ":12856,"Ġå®ļè¥Ħ":12857,"Ġäºļç¾İam8å¹³åı°":12858,"Ġå¼ĭ":12859,"ĠéĿĸå®ĩ":12860,"Ġå½ĵæ¶":12861,"åĪ¶å®ļ":12862,"Ġèĭ±éĽĦ":12863,"ĠæľĽè°":12864,"ĠéĩĳåłĤ":12865,"Ġå¤§åıĳæŀģéĢŁå¿«ä¸ī":12866,"åĬłçĽŁæĿ¡ä»¶":12867,"Ġçļĭ":12868,"Ġè¥¿çķ":12869,"Ġçº³éĽ":12870,"Ġæŀŀ":12871,"Ġå¤ĸåĽ´ç½ĳç«Ļ365":12872,"Ġå·´æ¥ļ":12873,"Ġå¯Łéļ":12874,"å°Ĩåľ¨":12875,"Ġæ¦Ĩç¤¾":12876,"Ġèĭįæ¢":12877,"Ġå²ĳå·":12878,"Ġæĸ½ç§":12879,"Ġéĥĵ":12880,"é¥°åĬłçĽŁ":12881,"ĠéĢĬ":12882,"Ġbet356ä½ĵèĤ²":12883,"ĠéĤĽå´":12884,"aut":12885,"ĠçĽ±çľ":12886,"Ġå¯Įèķ":12887,"ĠéĦ±":12888,"æĶ¾å¿ĥæĹ©çĤ¹":12889,"å®ĺæĸ¹æ³¨åĨĮ":12890,"Ġæģ¯çĥ":12891,"Ġé«ĺæ·":12892,"Ġæĸ°ç»":12893,"Ġ12æľĪ":12894,"Ġä¸´æľ":12895,"Ġdi":12896,"ĠçŁ³éĺ":12897,"ĠäºĶå¸¸":12898,"Ġåįĵå°¼":12899,"Ġå¾·æĥł":12900,"Ġé¢į":12901,"Ġä¸´æ´®":12902,"Ġä¸¾æĬ¥":12903,"ĠåİĨ":12904,"Ġåŀ£":12905,"Ġagäºļç¾İ":12906,"ĠåĴĮæĶ¿":12907,"åıªæĺ¯":12908,"Ġä»ªéĻĩ":12909,"åħĪéĶĭ":12910,"ĠçĶµçİ©å¨±ä¹Ĳæ£ĭçīĮ":12911,"Ġéº»æłĹ":12912,"ife":12913,"æĺ¯çľŁæĺ¯åģĩ":12914,"wan":12915,"ĠèĴĻèĩª":12916,"Ġæµ·æĻ":12917,"å¹³åı°åĲĹ":12918,"éĻįä½İ":12919,"Ġæ³Į":12920,"ãĢĢæĿ¥æºĲï¼ļ":12921,"Ġæµ·çĽ":12922,"æĮĩå¯¼":12923,"ä¼¯çī¹":12924,"ĠåĴĮéĿĻ":12925,"Ġèµŀçļĩ":12926,"Ġéĥ§":12927,"Ġä¸Ńæĸĩ":12928,"ĠåĽĬ":12929,"ĠMF":12930,"Ġæ·ħ":12931,"Ġéķ¿æ±":12932,"Ġæ²³éĹ´":12933,"Ġä¸ĩè½½":12934,"Ġç±³èĦ":12935,"æµľï¿½":12936,"Ġæ¸ĳ":12937,"ĠåĬłæŁ¥":12938,"Ġä¸Ńçī":12939,"éĺ¶æ®µ":12940,"Ġæ½¢":12941,"éħ¸":12942,"Ġæ¿ī":12943,"åŁºæĸ¯åĿ¦":12944,"Ġä¸ĬæĢĿ":12945,"çªģçł´":12946,"999":12947,"¤èĤīåĬłçĽŁ":12948,"æĿİèį£":12949,"æĻºæħ§":12950,"Ġæ°¸æµİ":12951,"ĠæŃ¦ç©":12952,"Ġä¸Ķæľ«":12953,"Ġæ´ªæ´ŀ":12954,"ĠHD":12955,"iss":12956,"åĮħåĬłçĽŁ":12957,"Ġé»Ħéª":12958,"åįķåıĮè®¡åĪĴ_":12959,"Ġéĥ¸":12960,"çī¹åĮºæĶ¿åºľ":12961,"ĠæĹĮ":12962,"Ġå¹¿çģµ":12963,"Ġä¼ĬåĲ":12964,"çģ°":12965,"Ġçľĭ":12966,"ä¹ĭåĲİ":12967,"Ġé»Ħæ¢ħ":12968,"Ġä»ĢéĤ":12969,"åº¦åģĩ":12970,"Ġä¸´æ¡":12971,"Ġå°īçĬ":12972,"Ġç¾İå§":12973,"Ġè®·":12974,"Ġå°ļå¿Ĺ":12975,"ĠåįļçĪ±":12976,"ĠéĶĻéĤ£":12977,"ĠçŁ³æ¥¼":12978,"location":12979,"ĠæĹºèĭ":12980,"ç½ĳé¡µçĻ»å½ķ":12981,"Ġå¤§åıĳå½©ç¥¨å¿«ä¸ī":12982,"12æľĪ21æĹ¥çĶµ":12983,"ads":12984,"ĠæŃ¦å®£":12985,"é§":12986,"Ġçĵ®":12987,"Ġä¹Įæģ":12988,"ĠåĻ¶":12989,"æĸĻåºĹåĬłçĽŁ":12990,"åĬłçĽŁè´¹åıĬ":12991,"åĬłçĽŁè´¹åıĬåĬłçĽŁæĿ¡ä»¶":12992,"æ¾³åįļ":12993,"Ġå¤§åİĤ":12994,"Ńå½Ĵ":12995,"Ġçİ¯äºļy":12996,"èĥľå®¢åĬłçĽŁè´¹åıĬåĬłçĽŁæĿ¡ä»¶":12997,"ĠåįĹæ¾³":12998,"Ġæĸ°éĤ":12999,"ĠèĪŀéĴ¢":13000,"çł´è§£è½¯ä»¶":13001,"ĠçģµçĴ":13002,"æ¸¸æĪıæ³¨åĨĮ":13003,"Ġå¼ķ":13004,"Ġæī¶ç»":13005,"åħ´å¥ĭ":13006,"Ġä¸īç©":13007,"Ġå®ģéĻ":13008,"Ġéķ¶é»Ħ":13009,"ĠæĻĭåŁİ|":13010,"Ġæ³½æĻ®":13011,"Ġå¾ĲéĹ»":13012,"Ġåħ¨æ¤Ĵ":13013,"ĠKN":13014,"Ġä¸´é¢":13015,"Ġåĩ¯åıĳæ³¨åĨĮappåľ¨çº¿":13016,"Ġç¼Ļ":13017,"ĠåĽĬè°":13018,"ĠåįĵèµĦ":13019,"ĠæĿ¾æ½":13020,"ĠçĬį":13021,"Ġç»Ŀ":13022,"Ġå¤§æĤ":13023,"Pad":13024,"çºµ":13025,"Ġå½©ç¥ŀäºīéľ¸8ä¸ĭè½½":13026,"ener":13027,"åĩºåıĳ":13028,"åĳ³åĬłçĽŁ":13029,"Y2F":13030,"ĠéģĵåŃ":13031,"ĠéļĨå°":13032,"Ġå´ĩç¤¼":13033,"Ġå¤§èĭ±":13034,"Ġåħ¬éĩĮ":13035,"ĠçłĢ":13036,"Ġæ°¸ä¿®":13037,"Ģã":13038,"ĊéĶ¡æŀĹæµ©çī¹æĸ°éĹ»ç½ĳ":13039,"åºĵå°Ķ":13040,"Ġå¹³æŀľ":13041,"ĠæĽ²éº»":13042,"Ġå¥ĪæĽ¼":13043,"Ġä¼ļåĲĮ":13044,"åĢ¡è®®":13045,"ĠåįĹåı¬":13046,"Ċäººæ°ĳç½ĳåĨħèĴĻåı¤":13047,"ĠæľĽå¥":13048,"ä¹¦è®°ãĢģ":13049,"ĠéĿĴç¥ŀ":13050,"px;":13051,"ĠåĪļå¯Ł":13052,"Ġå°ģå¼Ģ":13053,"Ġåĺīé±¼":13054,"Ġåı¤èĶ":13055,"ES":13056,"Ġå¾ª":13057,"Ġä¸´æ¾":13058,"å³°ä¼ļ":13059,"onardo":13060,"ĠéĦĦ":13061,"Ġ{}":13062,"ĠçŃł":13063,"å¹¸è¿Ĳ28":13064,"Ġç¬¬ä¸Ģ":13065,"Ġ356betä½ĵèĤ²æĬķæ³¨":13066,"Ġåı¤äº¤":13067,"åĩ¡åĵį":13068,"pvbm":13069,"alax":13070,"ĠProcessed":13071,"Ġå¹³èĪ":13072,"çĻ¾ä¸ĩ":13073,"ç¬¬ä¸Ģæ¬¡":13074,"ĠæºĨ":13075,"onse":13076,"è¿Ŀåıį":13077,"è§ĦèĮĥ":13078,"Ċèħ¾è®¯":13079,"éĨī":13080,"éģĵãĢĤ":13081,"Ġè¶³çĲĥå¤ĸåĽ´":13082,"ï¼Įåı¯ä»¥":13083,"å¤ļç§į":13084,"Ġåįİèĵ":13085,"ĠåįĹçļ®":13086,"Ġåĩ¯åıĳçĶµæ¸¸æľĢæĸ°çĻ»å½ķåľ°åĿĢ":13087,"ĠåıĮçīĮ":13088,"Ġåı¤ä¸":13089,"Ġåĩ¯åıĳæ¬¢è¿İåħīä¸´":13090,"ĠåŃ¸":13091,"å¨ĥ":13092,"ä¸Ģå°į":13093,"çĳ°":13094,"Ġç§Ńå½Ĵ":13095,"ĠæľĢç»ĻåĬĽåĪ©æĿ¥":13096,"è¯ģåĪ¸":13097,"Ġreturn;":13098,"ĠéļĨåĽŀ":13099,"ĠagèµĮåľºåİħ":13100,"åĲİåı°":13101,"æľŁæľŁåĩĨé¦Ļæ¸¯|":13102,"Ġ2018-11":13103,"ĠåĪ©è¾":13104,"ï¼ĮéĢļè¿ĩ":13105,"Ġæķĸæ±ī":13106,"åĪĨåŃĲ":13107,"ĠéĢļè®¸":13108,"Ġsports":13109,"Ġæ°´å¯Į":13110,"æķĻæİĪ":13111,"Ġmanbetx":13112,"Ġçİĭä¸ŃçİĭéīĦç®ĹçĽĺå¼Ģå¥ĸç»ĵæŀľ":13113,"ĠèĲ¨è¿":13114,"é«ĺä¸Ń":13115,"æµ£":13116,"Ġï¿½ï¿½ï¿½ï¿½ï¿½ï¿½":13117,"lãĢĳãĢĲiãĢĳãĢĲ":13118,";&":13119,"Ġç¾İé£Ł":13120,"0088":13121,"Ġbt365ä½ĵèĤ²åľ¨çº¿æĬķæ³¨":13122,"Ġç±³æĺĵ":13123,"ãĢĳãĢĲåĴĮãĢĳãĢĲ":13124,"æĹłæ³ķåħħåĢ¼":13125,"ãĢĳãĢĲâĢĿ":13126,"Ġæ¾³éĹ¨ç½ĳåĿĢ":13127,"è¢«é»ĳ":13128,"bc":13129,"alaxy":13130,"leG9":13131,"73":13132,"Ġéĥ¯":13133,"Ġbest365æıĲçİ°":13134,"/å½©ç¥ŀäºīéľ¸8":13135,"Ġæ¾³éĹ¨çĻ¾å®¶å¼ĢæĪ·":13136,"ĠåĪ©æĿ¥æľĢèĢģçļĦåĵģçīĮ":13137,"26æĹ¥":13138,"aWR6b25l":13139,"Ġ365betäºļæ´²":13140,"ç»ĵæŀĦ":13141,"Ġçļĩå®¶":13142,"ĊéĽĦå·ŀ":13143,"åĪĨåįģä¸ĢéĢīäºĶ":13144,"æĿĨ":13145,"ä¸įå¤ļ":13146,"ĠæĿ¥èĩª":13147,"Ġäºļç¾İam8æīĭæľºçīĪ":13148,"Ġå®£æģ©":13149,"ãĢĤä¸Ģ":13150,"ĠçĸıéĻĦ":13151,"(/":13152,"æīĭæľºæ¸¸æĪı":13153,"îĬ":13154,"ideo":13155,"èĢĹ":13156,"ĠçľŁåģĩ":13157,"XHJcbj":13158,"ĠCl":13159,"äººç±»":13160,"Ġ365betçľŁäºº":13161,"ĠçĭĹä¸ĩåı¯ä»¥":13162,"ĠæŃ£èĵĿ":13163,"[0];":13164,"Ċå¨ģæµ·ç½ĳ":13165,"æ´¾å¯¹":13166,"ĊâĹı":13167,"ï¼ĮèŃ¦æĸ¹":13168,"ĊæĲľçĭĲ":13169,"Ġåħ¨å¤©":13170,"Ċå¤©æ´¥æĹ©çĤ¹åĬłçĽŁ":13171,"kwXCI":13172,"ub3NjcmlwdD":13173,"cyOFwi":13174,"ĠEV":13175,"Ġé¡¶":13176,"ings":13177,"å¤ªåģĩäºĨ":13178,"Query":13179,"ĠĈ":13180,"å°ĶÂ·":13181,"å¯Ħ":13182,"æĿ¥è¯´ï¼Į":13183,"ĠçĭĹä¸ĩèĥ½":13184,"çĻ»éĻĨä¸ĭè½½":13185,"ä¸ĭåįĪï¼Į":13186,"Ġroom":13187,"reak":13188,"Ċæĸĩ":13189,"Ġè¯ļèģĺ":13190,"ĠæĶ¾å¿ĥ":13191,"Ġet":13192,"ç¾İé£Ł":13193,"æĿİèį£èŀį":13194,"Ġæ²Ļæ´ĭ":13195,"ĠWindows":13196,"è¶ĭ":13197,"èĻķ":13198,"ä¸ºãĢĳãĢĲ":13199,"ä¸ŃãĢĤ":13200,"ily":13201,"å¦Ļ":13202,"å¼Ģå¹ķ":13203,"fer":13204,"çĽĳçĭ±":13205,"æĦŁåĪ°":13206,"Leonardo":13207,"Ġ1,":13208,"Ģâ":13209,"çī¢":13210,"è´¢æĶ¿":13211,"Ċæĸ°åįİç½ĳå®ģå¤ı":13212,"ĠæĹ¥æľŁ":13213,"ä¸įç»ĻæıĲçİ°":13214,"æ©Łåł´":13215,"ĠèµĦè®¯":13216,"3Dæīĵåį°":13217,"ä¼ı":13218,"ĠèŀįèµĦèŀįåĪ¸":13219,"Ġçī©":13220,"ç¡®å®ļ":13221,"æĬķæ³¨å®ĺç½ĳ":13222,"ĠçŁ³æ£":13223,"Ġçľģ":13224,"Ġsal":13225,"empty":13226,"çłĶåıĳ":13227,"ä¸ĭè½½æīĭæľºapp":13228,"çļĦåīį":13229,"å°Ĩäºİ":13230,"åħ¨åľº":13231,"åı¤å·´":13232,"æĢİä¹Īè¿Ľ":13233,"ĠéĿĴå¹´":13234,"åĲ¸å¼ķ":13235,"æµ©çī¹å¸Ĥ|":13236,"Ġd88å°Ĭé¾Ļå®ĺç½ĳ":13237,"Ġçİ¯äºļæīĭæľºçĻ»å½ķ":13238,"æĢ»ç»ĵ":13239,"åĲĪéĽĨ":13240,"ä¸ĥçłģ":13241,"#ãĢĳãĢĲ":13242,"è¡¢":13243,"hide();":13244,"ï¼Įè¦ģæ±Ĥ":13245,"«åİ¿|":13246,"éĶĪéĴ¢":13247,"attr('":13248,"cn":13249,"ĠåĪ©æĿ¥åĽ½åĽ½éĻħ":13250,"appéĤĢè¯·çłģ_":13251,"ĠåĽĽèĤĸéĢīä¸ĢèĤĸæľŁæľŁåĩĨé¦Ļæ¸¯|":13252,"LeonardoæıĲä¾Ľ":13253,"ä¸įãĢĳãĢĲ":13254,"Ġå½©ç¥ŀx":13255,"è¿ĽçĲĥ":13256,"è½¬è´¦":13257,"ä¸ĩåįļAPP":13258,"ĠMT":13259,"Ġiphone":13260,"Ġå¤§å§":13261,"Ċéĵ¶å·Ŀ":13262,"ĠagçľŁäººæ¸¸æĪıå¹³åı°":13263,"è¿ĶåĽŀ":13264,"ç¥Ŀ|":13265,"ĊPosted":13266,"ģåİ¿|":13267,"270":13268,"ï¼īãĢģ":13269,"28åħĥ":13270,"éĨ«":13271,"Ċ2019-11-20":13272,"Ġéķĩèµ":13273,"è§Ħå¾ĭ_":13274,"ä»ĭç»įï¼ļ":13275,"Ġå¤©ç¥Ŀ|":13276,"eop":13277,"çľŁå®ŀçº¿ä¸ĬçľŁäºº":13278,"åºĶæĢ¥":13279,"Ġæ¾³éĹ¨çľŁå®ŀçº¿ä¸ĬçľŁäºº":13280,"Ġ356betæ»ļçĲĥ":13281,"Ġåĩ¯åıĳæ¸¸æĪıçĻ»å½ķ":13282,"12æĹ¥":13283,"ĠéĤ»æ°´|":13284,"-2017":13285,"Ġvery":13286,"æ°ĳçĶŁ":13287,"ç¤ºå¨ģ":13288,"ĠKF":13289,"ĠçľŁéĴ±æ£ĭçīĮç½ĳåĿĢ":13290,"Ġçİ¯äºļé¦ĸé¡µ":13291,"Ġ918ï¿½éİıçĦ¯ï¿½":13292,"ĠEng":13293,"ĠåĪ©æĿ¥æīĭæľºåĽ½éĻħå®ĺç½ĳ":13294,"¡åİ¿|":13295,"Ġéĵ¶è¡Į":13296,"Ġçº¿ä¸ĬçľŁéĴ±çĻ»å½ķ":13297,"ZT":13298,"èª¿":13299,"Ġæľīäºº":13300,"é¦ĸéĥ½":13301,"Ġéķ¶é»ĦæĹĹ|":13302,"Ġåıĸæ¬¾":13303,"çģ«ç®Ń":13304,"Ġå±ķ":13305,"æ¬Ĭ":13306,"iang":13307,"Ġå¤§åİĤ|":13308,"éĴ»":13309,"æ±¤":13310,"Ġæ¾³éĹ¨æ¾³åįļ":13311,"Ġæ¾³éĹ¨çľŁéĴ±ç½ĳåĿĢ":13312,"Ġbt365ä½ĵèĤ²åľ¨çº¿":13313,"Ġåı°åĮĹå¸Ĥ|":13314,"Ċ$":13315,"ç¨³èµļæĬĢå·§":13316,"éĿĴç½ĳ":13317,"æĺ¯ä¸į":13318,"Ġ365betå®ĺç½ĳå¼ĢæĪ·":13319,"çĤī":13320,"è¦ı":13321,"bet36ä½ĵèĤ²åľ¨çº¿":13322,"åľ°åĿĢï¼ļ":13323,"èİī":13324,"Ġçº¿ä¸ĬçľŁéĴ±å¹³åı°":13325,"®ï¿½ï¿½":13326,"Class('":13327,"æ¸¸æĪıæľīåĵªäºĽ":13328,"Ġæ¾³éĹ¨çľŁéĴ±çīĽçīĽ":13329,"Ġ})();":13330,"Ġèł":13331,"Ġæĸ°ç«¹å¸Ĥ|":13332,"ç½ĳä¸ĬèµĮåľº":13333,"è³ĩæĸĻ":13334,"ĠéĿ¢å¯¹éĿ¢":13335,"å¥¹çļĦ":13336,"Ċ2019-11-19":13337,"å¥īçĮ®":13338,"Ġä¹Įå®¡æĹĹ|":13339,"ĠæĬķèµĦ":13340,"çīº":13341,"ĠAF":13342,"ãĢĳãĢĲè¡Į":13343,"ĠagåĽ½éĻħåİħapp":13344,"åĿł":13345,"Ġåĩ¯åıĳå®ĺç½ĳæ³¨åĨĮ":13346,"Ġçº¿ä¸Ĭä½ĵèĤ²å¹³åı°":13347,"Ġå½©ç¥ŀç½ĳ":13348,"226":13349,"Ġåĩ¯æĹ¶åĽ½éĻħç½ĳç«Ļ":13350,"çĲĨå¿µ":13351,"ä¾¦æŁ¥":13352,"Ċæ¹ĸåĮĹçĶµè§Ĩåı°":13353,"ĠWh":13354,"LI":13355,"å»īå¸Įå°Ķ":13356,"éĽĨåħ¨":13357,"Ġäºļç¾İè§Ĩè®¯":13358,"Ġæµ¦ä¸ľæĸ°åĮº|":13359,".createElement":13360,"ĠåĪ©æĿ¥æīĭæľºåĽ½éĻħ":13361,"Ġçº¿ä¸Ĭæ¸¸æĪıæľīåĵªäºĽ":13362,"e7":13363,"åħ´å¸Ĥ|":13364,"æľĢæĸ°çīĪä¸ĭè½½":13365,"Ġæ½ĺ":13366,"æĤ¬":13367,"bãĢĳãĢĲ":13368,"Ġhtml":13369,"çļĦéĴ±":13370,"ĠæĬļé¡ºå¸Ĥ|":13371,"°åİ¿|":13372,"ä¿Ħç½Ĺæĸ¯æĢ»ç»Ł":13373,"ung":13374,"win":13375,"å°¼äºļ":13376,"Un":13377,"æĸ°åĮº":13378,"Ċ2020å¹´":13379,"Ġéķ¿æ²»å¸Ĥ|":13380,"Ġå¥ĪæĽ¼æĹĹ|":13381,"Ġæķĸæ±īæĹĹ|":13382,"Ġar":13383,"æ©Łè»Ĭè²¸æ¬¾":13384,"ages":13385,"Ġéħī":13386,"Ġbet356æ³¨åĨĮ":13387,".cc":13388,"30æĹ¥":13389,"Ġå¼Ģåħĥæ£ĭçīĮåı¯ä»¥":13390,"ĠåĮĹæĸ¹æĹ©é¤ĲåĬłçĽŁ":13391,"red":13392,"çī¹é©¬èµĦæĸĻ":13393,"Ġå®īå¾½æĹ©é¤ĲåĬłçĽŁ":13394,"Ġæ¸ħèĭ":13395,"è³¼çī©ç¶²":13396,"åĳ¨æľ«":13397,"ĠæŀĹèĬĿåİ¿|":13398,"Ġé«ĺéĽĦå¸Ĥ|":13399,"ç§ĺä¹¦":13400,"Ġä¸Ĭé¥¶å¸Ĥ|":13401,"Ġçī¹èī²å°ıåĲĥæĹ©çĤ¹åĬłçĽŁ":13402,"Ġ365B":13403,"Ġå¹´èıľ":13404,"Ġbet356ä½ĵèĤ²æĬķæ³¨":13405,"365.tv":13406,"Ġäºļæ¸¸ä½ĵèĤ²appä¸ĭè½½":13407,"ios&":13408,"æ´Ľè¥¿":13409,"Ġæī¿å¾·å¸Ĥ|":13410,"ĠéĢļåĮĸå¸Ĥ|":13411,"ĠIF":13412,"ĠæĶ¾å¿ĥæĹ©çĤ¹åĬłçĽŁ":13413,"ios&å®īåįĵappä¸ĭè½½":13414,"éĢģåį¡":13415,"Ġäº¿å®¶ä¹ĲæĹ©é¤ĲåĬłçĽŁ":13416,"å½©ç¥¨éĤĢè¯·çłģ_":13417,"éĢıéľ²":13418,"ĠæľĿéĺ³å¸Ĥ|":13419,"Ġ365ä½ĵèĤ²æĬķæ³¨åľ¨çº¿":13420,"çİ°éĩĳä¸Ģä¸ĭ":13421,"79":13422,"Ġèģļ":13423,"lem":13424,"ĠåįĹæĺĮå¸Ĥ|":13425,"VD":13426,"Ġæłªæ´²å¸Ĥ|":13427,"ĠèĬľæ¹ĸå¸Ĥ|":13428,"Ġéģµä¹īå¸Ĥ|":13429,"Ġå®£åĮĸ":13430,"ĠèĲ¥åħ»æĹ©çĤ¹åĬłçĽŁ":13431,"çīºçī²":13432,"ĠagçľŁäººæĹĹèĪ°åİħä¸ĭè½½":13433,"ĠccåĽ½éĻħå½©ç¥¨":13434,"é¢ģ":13435,"ĠçĻ½æ²Ļ|":13436,"Ġä¸Ńå¼ıæĹ©é¤ĲåĬłçĽŁ":13437,"ãĢĳãĢĲä¸ļãĢĳãĢĲ":13438,"sBy":13439,"è¥¿å®ī":13440,"ĠæŃ£èĵĿæĹĹ|":13441,"å±¥":13442,"¾æ¿":13443,"éģŃéģĩ":13444,"Ġåĺīä¹īå¸Ĥ|":13445,"Ġé©¬ä¸Ĭ":13446,"Ġä¹Ŀæ±Łå¸Ĥ|":13447,"Ġæ¸¯å¼ıæĹ©çĤ¹åĬłçĽŁ":13448,"Ġä¼Ĭå®ģå¸Ĥ|":13449,"Ġåħ¨åĽ½è¿ŀéĶģåĬłçĽŁ":13450,"ĠæĹ©é¤ĲéħįéĢģåĬłçĽŁ":13451,"ä¸ĵéĹ¨":13452,"å¨±ä¹Ĳå¼Ģåħĥæ£ĭçīĮ":13453,"ĠæĻ¯å®ģ|":13454,"ĠæĹ©çĤ¹æĭĽèģĺ":13455,"Ġå½±":13456,"èº«åĪĨèŃīåĢŁæ¬¾":13457,"æľĢå°ĳ":13458,"Ġå²³éĺ³å¸Ĥ|":13459,"28æĹ¥":13460,"Ġå¼Ģå°ģå¸Ĥ|":13461,"Ġ365æ£ĭçīĮæĸ°æīĭåį¡æĢİä¹Ī":13462,"ĠæĹ©é¤ĲæĹ©çĤ¹åºĹåĬłçĽŁ":13463,"ç¢Ł":13464,"ĠéĻµæ°´|":13465,"çº¿è·¯æ£Ģæµĭä¸Ńå¿ĥ":13466,"Ġè¾½éĺ³å¸Ĥ|":13467,"Ġçī¹èī²æĹ©çĤ¹å°ıåĲĥåĬłçĽŁ":13468,"ï¼Įäºİ":13469,"æķĳä¸ĸ":13470,"æĴ¥":13471,"ĠåĲīå®īå¸Ĥ|":13472,"det365":13473,"Ġåı°ä¸Ńå¸Ĥ|":13474,"365betå®ĺç½ĳå®ĺç½ĳ":13475,"å¤§åħ¨|":13476,"05æľĪ":13477,"å°¸":13478,"åħ¨å¤©åħįè´¹è®¡åĪĴ":13479,"Ġç»įåħ´å¸Ĥ|":13480,"è¥¿æĸ¹":13481,"Ġåĩ¯åıĳçĶµæ¸¸æ³¨åĨĮéĢģ":13482,"ĠçĻ½äºĳ":13483,"æĢİä¹Īä¸ĭ":13484,"ĠéĵľéĻµå¸Ĥ|":13485,"sert":13486,"Ġä¸´å¤ıå¸Ĥ|":13487,"ĠäºĶèĬ³æĸĭæĹ©çĤ¹æĢİæł·åĬłçĽŁ":13488,"çĽ®çļĦ":13489,"Ġéĵģå²Ńå¸Ĥ|":13490,"å¤§åıĳå½©ç¥¨":13491,"A-":13492,"ĠæĹ©é¤Ĳé¡¹çĽ®åĬłçĽŁ":13493,"ĠçĶĺåŃľ|":13494,"Ġå°Ĭé¾Ļd88å®ĺç½ĳ":13495,"Ġå®ľå®¾å¸Ĥ|":13496,"ä½©æ´Ľè¥¿":13497,"efore":13498,"Ġæ¹ĺæ½Ńå¸Ĥ|":13499,"åŁºåľ°":13500,"åģ¶":13501,"Ġåħ¨åĽ½æĭĽåķĨåĬłçĽŁ":13502,"Ġè¡¡éĺ³å¸Ĥ|":13503,"ĠäºĴåĬ©":13504,"ĠåĬ¨æ¼«åĬłçĽŁ":13505,"ĠæĬĢæľ¯":13506,"åıĸåĲį":13507,"Ġåĩ¯åıĳæ³¨åĨĮå¤ĩçĶ¨ç½ĳåĿĢ":13508,"ĠæŃ£å®ĹæĹ©çĤ¹åĬłçĽŁ":13509,"Ġåı°åįĹå¸Ĥ|":13510,"ĠåĬłçĽŁåĮħåŃĲ":13511,"æ¯įäº²":13512,"Ġå½ĵåīį":13513,"è´·æ¬¾":13514,"ç¸ºï½":13515,"ĠagæĹĹèĪ°åİħapp":13516,"Ġéķ¿æ²Ļåİ¿|":13517,"Ġä¸Ńå¼ıæĹ©çĤ¹å¿«é¤ĲåĬłçĽŁ":13518,"îĿ¹":13519,"åŁºéļĨ":13520,"Ġtype:":13521,"7)":13522,"å¯¹æİ¥":13523,"Ġç½ĳåĲ§åĬłçĽŁ":13524,"å¤ĸäº¤éĥ¨":13525,"èķī":13526,"ç®¡åĪ¶":13527,"æīĭæľºçīĪåħ¥åı£":13528,"oogletag":13529,"ĠçĲ¼ä¸Ń|":13530,"Ċ0":13531,"omain":13532,"ĠãĢĳãĢĲsãĢĳãĢĲtãĢĳãĢĲyãĢĳãĢĲlãĢĳãĢĲeãĢĳãĢĲ":13533,"Ġä¿ĿäºŃ|":13534,"īèĢ":13535,"ĠçĦ¡":13536,"bet365ä½ĵèĤ²":13537,"²æŀĹ":13538,"ĠæĹ©çĤ¹åĬłçĽŁåķĨ":13539,"æ¸ħæ¥ļ":13540,
[...]
