{
  "version": "1.0",
  "truncation": null,
  "padding": null,
  "added_tokens": [
    {
      "id": 0,
      "content": "<pad>",
      "single_word": false,
      "lstrip": false,
      "rstrip": false,
      "normalized": false,
      "special": true
    },
    {
      "id": 1,
      "content": "<unk>",
      "single_word": false,
      "lstrip": false,
      "rstrip": false,
      "normalized": false,
      "special": true
    },
    {
      "id": 2,
      "content": "<bos>",
      "single_word": false,
      "lstrip": false,
      "rstrip": false,
      "normalized": false,
      "special": true
    },
    {
      "id": 3,
      "content": "<eos>",
      "single_word": false,
      "lstrip": false,
      "rstrip": false,
      "normalized": false,
      "special": true
    }
  ],
  "normalizer": null,
  "pre_tokenizer": {
    "type": "ByteLevel",
    "add_prefix_space": false,
    "trim_offsets": true,
    "use_regex": true
  },
  "post_processor": {
    "type": "ByteLevel",
    "add_prefix_space": true,
    "trim_offsets": false,
    "use_regex": true
  },
  "decoder": {
    "type": "ByteLevel",
    "add_prefix_space": true,
    "trim_offsets": true,
    "use_regex": true
  },
  "model": {
    "type": "BPE",
    "dropout": null,
    "unk_token": null,
    "continuing_subword_prefix": null,
    "end_of_word_suffix": null,
    "fuse_unk": false,
    "byte_fallback": false,
    "ignore_merges": false,
    "vocab": {
      "<pad>": 0,
      "<unk>": 1,
      "<bos>": 2,
      "<eos>": 3,
      "!": 4,
      "\"": 5,
      "#": 6,
      "$": 7,
      "%": 8,
      "&": 9,
      "'": 10,
      "(": 11,
      ")": 12,
      "*": 13,
      "+": 14,
      ",": 15,
      "-": 16,
      ".": 17,
      "/": 18,
      "0": 19,
      "1": 20,
      "2": 21,
      "3": 22,
      "4": 23,
      "5": 24,
      "6": 25,
      "7": 26,
      "8": 27,
      "9": 28,
      ":": 29,
      ";": 30,
      "<": 31,
      "=": 32,
      ">": 33,
      "?": 34,
      "@": 35,
      "A": 36,
      "B": 37,
      "C": 38,
      "D": 39,
      "E": 40,
      "F": 41,
      "G": 42,
      "H": 43,
      "I": 44,
      "J": 45,
      "K": 46,
      "L": 47,
      "M": 48,
      "N": 49,
      "O": 50,
      "P": 51,
      "Q": 52,
      "R": 53,
      "S": 54,
      "T": 55,
      "U": 56,
      "V": 57,
      "W": 58,
      "X": 59,
      "Y": 60,
      "Z": 61,
      "[": 62,
      "\\": 63,
      "]": 64,
      "^": 65,
      "_": 66,
      "`": 67,
      "a": 68,
      "b": 69,
      "c": 70,
      "d": 71,
      "e": 72,
      "f": 73,
      "g": 74,
      "h": 75,
      "i": 76,
      "j": 77,
      "k": 78,
      "l": 79,
      "m": 80,
      "n": 81,
      "o": 82,
      "p": 83,
      "q": 84,
      "r": 85,
      "s": 86,
      "t": 87,
      "u": 88,
      "v": 89,
      "w": 90,
      "x": 91,
      "y": 92,
      "z": 93,
      "{": 94,
      "|": 95,
      "}": 96,
      "~": 97,
      "¡": 98,
      "¢": 99,
      "£": 100,
      "¤": 101,
      "¥": 102,
      "¦": 103,
      "§": 104,
      "¨": 105,
      "©": 106,
      "ª": 107,
      "«": 108,
      "¬": 109,
      "®": 110,
      "¯": 111,
      "°": 112,
      "±": 113,
      "²": 114,
      "³": 115,
      "´": 116,
      "µ": 117,
      "¶": 118,
      "·": 119,
      "¸": 120,
      "¹": 121,
      "º": 122,
      "»": 123,
      "¼": 124,
      "½": 125,
      "¾": 126,
      "¿": 127,
      "À": 128,
      "Á": 129,
      "Â": 130,
      "Ã": 131,
      "Ä": 132,
      "Å": 133,
      "Æ": 134,
      "Ç": 135,
      "È": 136,
      "É": 137,
      "Ê": 138,
      "Ë": 139,
      "Ì": 140,
      "Í": 141,
      "Î": 142,
      "Ï": 143,
      "Ð": 144,
      "Ñ": 145,
      "Ò": 146,
      "Ó": 147,
      "Ô": 148,
      "Õ": 149,
      "Ö": 150,
      "×": 151,
      "Ø": 152,
      "Ù": 153,
      "Ú": 154,
      "Û": 155,
      "Ü": 156,
      "Ý": 157,
      "Þ": 158,
      "ß": 159,
      "à": 160,
      "á": 161,
      "â": 162,
      "ã": 163,
      "ä": 164,
      "å": 165,
      "æ": 166,
      "ç": 167,
      "è": 168,
      "é": 169,
      "ê": 170,
      "ë": 171,
      "ì": 172,
      "í": 173,
      "î": 174,
      "ï": 175,
      "ð": 176,
      "ñ": 177,
      "ò": 178,
      "ó": 179,
      "ô": 180,
      "õ": 181,
      "ö": 182,
      "÷": 183,
      "ø": 184,
      "ù": 185,
      "ú": 186,
      "û": 187,
      "ü": 188,
      "ý": 189,
      "þ": 190,
      "ÿ": 191,
      "Ā": 192,
      "ā": 193,
      "Ă": 194,
      "ă": 195,
      "Ą": 196,
      "ą": 197,
      "Ć": 198,
      "ć": 199,
      "Ĉ": 200,
      "ĉ": 201,
      "Ċ": 202,
      "ċ": 203,
      "Č": 204,
      "č": 205,
      "Ď": 206,
      "ď": 207,
      "Đ": 208,
      "đ": 209,
      "Ē": 210,
      "ē": 211,
      "Ĕ": 212,
      "ĕ": 213,
      "Ė": 214,
      "ė": 215,
      "Ę": 216,
      "ę": 217,
      "Ě": 218,
      "ě": 219,
      "Ĝ": 220,
      "ĝ": 221,
      "Ğ": 222,
      "ğ": 223,
      "Ġ": 224,
      "ġ": 225,
      "Ģ": 226,
      "ģ": 227,
      "Ĥ": 228,
      "ĥ": 229,
      "Ħ": 230,
      "ħ": 231,
      "Ĩ": 232,
      "ĩ": 233,
      "Ī": 234,
      "ī": 235,
      "Ĭ": 236,
      "ĭ": 237,
      "Į": 238,
      "į": 239,
      "İ": 240,
      "ı": 241,
      "Ĳ": 242,
      "ĳ": 243,
      "Ĵ": 244,
      "ĵ": 245,
      "Ķ": 246,
      "ķ": 247,
      "ĸ": 248,
      "Ĺ": 249,
      "ĺ": 250,
      "Ļ": 251,
      "ļ": 252,
      "Ľ": 253,
      "ľ": 254,
      "Ŀ": 255,
      "ŀ": 256,
      "Ł": 257,
      "ł": 258,
      "Ń": 259,
      "ãĢ": 260,
      "ä¸": 261,
      "ï¼": 262,
      "ï¼Į": 263,
      "äº": 264,
      "ãĢĲ": 265,
      "ãĢĳ": 266,
      "ãĢĳãĢĲ": 267,
      "¿½": 268,
      "ï¿½": 269,
      "åı": 270,
      "å®": 271,
      "å¤": 272,
      "æľ": 273,
      "çļ": 274,
      "çļĦ": 275,
      "åħ": 276,
      "åĪ": 277,
      "ä»": 278,
      "ä¹": 279,
      "ç½": 280,
      "æĸ": 281,
      "ãĢĤ": 282,
      "åľ": 283,
      "æĹ": 284,
      "ï¿½ï¿½": 285,
      "ä½": 286,
      "æĪ": 287,
      "ç½ĳ": 288,
      "åĽ": 289,
      "åĲ": 290,
      "åį": 291,
      "å¹": 292,
      "æĺ": 293,
      "åĬ": 294,
      "è¿": 295,
      "çĶ": 296,
      "å½": 297,
      "å°": 298,
      "âĢ": 299,
      "çī": 300,
      "æī": 301,
      "å¤§": 302,
      "ç»": 303,
      "æĿ": 304,
      "è®": 305,
      "ä¸Ģ": 306,
      "ãĢģ": 307,
      "è¯": 308,
      "å·": 309,
      "å¼": 310,
      "å¸": 311,
      "äºº": 312,
      "èµ": 313,
      "ä¼": 314,
      "è½": 315,
      "åıĳ": 316,
      "æĬ": 317,
      "åĩ": 318,
      "åŃ": 319,
      "å¿": 320,
      "éĹ": 321,
      "çİ": 322,
      "Ġæ": 323,
      "åľ¨": 324,
      "éĢ": 325,
      "æĺ¯": 326,
      "éĩ": 327,
      "åĨ": 328,
      "çĽ": 329,
      "åĮ": 330,
      "æ¸": 331,
      "ä¸Ń": 332,
      "åº": 333,
      "å½©": 334,
      "æ³": 335,
      "åİ": 336,
      "ç«": 337,
      "åĽ½": 338,
      "ä¸ĭ": 339,
      "çľ": 340,
      "å±": 341,
      "å¥": 342,
      "å¾": 343,
      "20": 344,
      "å®ĺ": 345,
      "æľī": 346,
      "éĻ": 347,
      "ï¼ļ": 348,
      "ä¸į": 349,
      "è¡": 350,
      "æĹ¶": 351,
      "çº": 352,
      "åĪĨ": 353,
      "è§": 354,
      "è´": 355,
      "äºĨ": 356,
      "æµ": 357,
      "èĢ": 358,
      "å¯": 359,
      "ä¸Ĭ": 360,
      "ç¥": 361,
      "å®¶": 362,
      "æ°": 363,
      "çĻ": 364,
      "æľº": 365,
      "æŃ": 366,
      "å¹³": 367,
      "ä¿": 368,
      "èĤ": 369,
      "æķ": 370,
      "æĸ°": 371,
      "æ¸¸": 372,
      "36": 373,
      "ä¹Ĳ": 374,
      "åı°": 375,
      "æĶ": 376,
      "çĲ": 377,
      "æĸ¹": 378,
      "å¼Ģ": 379,
      "æīĭ": 380,
      "ç§": 381,
      "æł": 382,
      "éĥ": 383,
      "æĿ¥": 384,
      "åĿ": 385,
      "å¹´": 386,
      "âĢľ": 387,
      "âĢĿ": 388,
      "åĴ": 389,
      "365": 390,
      "æ²": 391,
      "æİ": 392,
      "æŀ": 393,
      "å¤©": 394,
      "åĳ": 395,
      "éĿ": 396,
      "äºļ": 397,
      "æĢ": 398,
      "è½½": 399,
      "æĭ": 400,
      "åŁ": 401,
      "éĺ": 402,
      "å¿«": 403,
      "åĴĮ": 404,
      "ä½ĵ": 405,
      "ä¸ĭè½½": 406,
      "éĹ¨": 407,
      "åĵ": 408,
      "æ¬": 409,
      "å®ĺç½ĳ": 410,
      "èĩ": 411,
      "èĥ": 412,
      "ä¸º": 413,
      "é¢": 414,
      "åħ¬": 415,
      "æ±": 416,
      "å¨": 417,
      "ä¼ļ": 418,
      "æ£": 419,
      "éģ": 420,
      "å¸Ĥ": 421,
      "çīĮ": 422,
      "ap": 423,
      "åī": 424,
      "ç¾": 425,
      "ä¸ĩ": 426,
      "10": 427,
      "çĶŁ": 428,
      "éĽ": 429,
      "è¡Į": 430,
      "å¹³åı°": 431,
      "çľŁ": 432,
      "ç«Ļ": 433,
      "è¾": 434,
      "è¦": 435,
      "æĪĳ": 436,
      "åľ°": 437,
      "app": 438,
      "å½©ç¥": 439,
      "æĹ¥": 440,
      "æ³¨": 441,
      "åħ¨": 442,
      "æ´": 443,
      "åĪ°": 444,
      "ä»¥": 445,
      "et": 446,
      "ä¸ļ": 447,
      "ä¸ī": 448,
      "æĥ": 449,
      "ä½ľ": 450,
      "201": 451,
      "ä¸ª": 452,
      "å·¥": 453,
      "çĤ": 454,
      "çĶ¨": 455,
      "èĤ²": 456,
      "åĩº": 457,
      "å¤§åıĳ": 458,
      "èģ": 459,
      "çĶµ": 460,
      "æīĭæľº": 461,
      "åĬł": 462,
      "¾³": 463,
      "è¦ģ": 464,
      "éĴ": 465,
      "ï¿½ï¿½ï¿½ï¿½": 466,
      "åĪ©": 467,
      "æĮ": 468,
      "çŃ": 469,
      "é¡": 470,
      "åŃ¦": 471,
      "éķ": 472,
      "è¿Ļ": 473,
      "æĪı": 474,
      "æ¯": 475,
      "çº¿": 476,
      "çīĪ": 477,
      "bet": 478,
      "å°ı": 479,
      "å¤ļ": 480,
      "ĭçīĮ": 481,
      "æĬķ": 482,
      "æ¸¸æĪı": 483,
      "å®ī": 484,
      "ç½ĳç«Ļ": 485,
      "åĢ": 486,
      "¾³éĹ¨": 487,
      "è·": 488,
      "æ£ĭçīĮ": 489,
      "ä¾": 490,
      "èĥ½": 491,
      "é«": 492,
      "çİ°": 493,
      "ç®": 494,
      "åĿĢ": 495,
      "éĩĳ": 496,
      "çĲĨ": 497,
      "æĻ": 498,
      "æĪĲ": 499,
      "çł": 500,
      "æĽ": 501,
      "åı¯": 502,
      "æľĢ": 503,
      "å¨±": 504,
      "æĦ": 505,
      "Ġ365": 506,
      "åŃĲ": 507,
      "æı": 508,
      "æ¶": 509,
      "ç¾İ": 510,
      "é«ĺ": 511,
      "å¥½": 512,
      "éĤ": 513,
      "ä½ĵèĤ²": 514,
      "åģ": 515,
      "ä¹Ī": 516,
      "å§": 517,
      "Ġç": 518,
      "å¨±ä¹Ĳ": 519,
      "éĶ": 520,
      "å»": 521,
      "å¦": 522,
      "åĩ¯": 523,
      "çĻ¾": 524,
      "æĸĩ": 525,
      "èĪ": 526,
      "èĩª": 527,
      "å®ĺæĸ¹": 528,
      "Ġæ¾³éĹ¨": 529,
      "ä¹ĭ": 530,
      "é¦": 531,
      "å°±": 532,
      "åĮĹ": 533,
      "è¶": 534,
      "å¯¹": 535,
      "ç¨": 536,
      "èĭ": 537,
      "è½¦": 538,
      "æ³ķ": 539,
      "ä¿¡": 540,
      "åīį": 541,
      "åĲĪ": 542,
      "è°": 543,
      "åĬ¨": 544,
      "ä»ĸ": 545,
      "éĥ¨": 546,
      "é£": 547,
      "æľĪ": 548,
      "ä¸»": 549,
      "èī": 550,
      "Ġåĩ¯": 551,
      "çĤ¹": 552,
      "ag": 553,
      "æĪ·": 554,
      "Ġå¤§åıĳ": 555,
      "è®¡": 556,
      "åľº": 557,
      "åĲİ": 558,
      "ç¤": 559,
      "å¿ĥ": 560,
      "åİ¿": 561,
      "ç½ĳåĿĢ": 562,
      "çķ": 563,
      "éķ¿": 564,
      "ä¹Ł": 565,
      "åŁİ": 566,
      "è¿Ľ": 567,
      "äºİ": 568,
      "åįĹ": 569,
      "ç¬": 570,
      "åĬĽ": 571,
      "ä»¬": 572,
      "ç»ı": 573,
      "åĮº": 574,
      "æľ¬": 575,
      "ï¼Ī": 576,
      "ï¼ī": 577,
      "åįļ": 578,
      "å®ŀ": 579,
      "çŁ": 580,
      "æıĲ": 581,
      "éĴ±": 582,
      "åķ": 583,
      "å±±": 584,
      "éľ": 585,
      "èĬ": 586,
      "åı¸": 587,
      "Ġåĩ¯åıĳ": 588,
      "äº¬": 589,
      "èµĦ": 590,
      "æ°ĳ": 591,
      "åħ³": 592,
      "Ġäºļ": 593,
      "éĿ¢": 594,
      "åĵģ": 595,
      "å½©ç¥¨": 596,
      "éģĵ": 597,
      "éĥ½": 598,
      "åĲĮ": 599,
      "è¥": 600,
      "èĢħ": 601,
      "å·ŀ": 602,
      "å»º": 603,
      "åĮĸ": 604,
      "éĻħ": 605,
      "äºĮ": 606,
      "éĢļ": 607,
      "çĻ»": 608,
      "çİ¯": 609,
      "èĲ": 610,
      "çľŁäºº": 611,
      "æŃ£": 612,
      "åħĥ": 613,
      "çĲĥ": 614,
      "äºĭ": 615,
      "åĽ¾": 616,
      "ä»£": 617,
      "00": 618,
      "éĵ": 619,
      "è¥¿": 620,
      "æģ": 621,
      "ï¿½ï¿½ï¿½": 622,
      "é¾": 623,
      "co": 624,
      "é©": 625,
      "å®ļ": 626,
      "å¤ĸ": 627,
      "è¿ĩ": 628,
      "çŃī": 629,
      "éļ": 630,
      "çľĭ": 631,
      "å±ķ": 632,
      "ãĢĳãĢĲï¼Į": 633,
      "æµ·": 634,
      "é»": 635,
      "éĩį": 636,
      "æº": 637,
      "äº§": 638,
      "ãĢĳãĢĲï¼ĮãĢĳãĢĲ": 639,
      "æŀľ": 640,
      "æį": 641,
      "åħ¥": 642,
      "å®¢": 643,
      "çĽŁ": 644,
      "æĬ¥": 645,
      "æŁ": 646,
      "ĆĈ": 647,
      "æ°´": 648,
      "åħ¬åı¸": 649,
      "åĬ¡": 650,
      "çĻ¾å®¶": 651,
      "å¾Ĺ": 652,
      "ä»¶": 653,
      "ä¸ŃåĽ½": 654,
      "ç´": 655,
      "åĲį": 656,
      "çĿ": 657,
      "åĽ½éĻħ": 658,
      "æĹ©": 659,
      "çĦ": 660,
      "ç©": 661,
      "ä¸ľ": 662,
      "å¦Ĥ": 663,
      "å£": 664,
      "é¾Ļ": 665,
      "å°Ĩ": 666,
      "çī¹": 667,
      "ä¸İ": 668,
      "å½ķ": 669,
      "éĩĮ": 670,
      "å½©ç¥ŀ": 671,
      "éħ": 672,
      "æľŁ": 673,
      "éĹ´": 674,
      "åĳĺ": 675,
      "çģ": 676,
      "åĪĴ": 677,
      "æĬĢ": 678,
      "??": 679,
      "åĨĮ": 680,
      "è¯´": 681,
      "è£": 682,
      "å¢": 683,
      "åĬłçĽŁ": 684,
      "åº¦": 685,
      "åįķ": 686,
      "è§Ħ": 687,
      "æ¡": 688,
      "åľ¨çº¿": 689,
      "èµ°": 690,
      "æĺİ": 691,
      "ä¿Ŀ": 692,
      "æ¬¾": 693,
      "èĢĮ": 694,
      "ä½į": 695,
      "éĽĨ": 696,
      "com": 697,
      "ç®¡": 698,
      "è·¯": 699,
      "æ³¨åĨĮ": 700,
      "Ġ|": 701,
      "åķĨ": 702,
      "è¢": 703,
      "2019": 704,
      "æ·": 705,
      "è¡¨": 706,
      "çĪ": 707,
      "pk": 708,
      "æīĢ": 709,
      "æĶ¿": 710,
      "åħ¶": 711,
      "æĬķæ³¨": 712,
      "ç³": 713,
      "Ġ1": 714,
      "ç²": 715,
      "å¿«ä¸ī": 716,
      "æĥħ": 717,
      "éĢŁ": 718,
      "..": 719,
      "ç¦": 720,
      "äº¤": 721,
      "è®¾": 722,
      "åįģ": 723,
      "éª": 724,
      "ä½ł": 725,
      "ç¼": 726,
      "è²": 727,
      "NG": 728,
      "ç¨ĭ": 729,
      "è¿Ĳ": 730,
      "å¥ĸ": 731,
      "å²": 732,
      "åĨħ": 733,
      "åı£": 734,
      "æķĻ": 735,
      "æĹ¶æĹ¶": 736,
      "ï¼ģ": 737,
      "çĽ´": 738,
      "åĪ¶": 739,
      "èį": 740,
      "ç¬¬": 741,
      "æĢİ": 742,
      "åĪ©æĿ¥": 743,
      "in": 744,
      "åĭ": 745,
      "æ¯Ķ": 746,
      "å½ĵ": 747,
      "æľį": 748,
      "ï¼Ł": 749,
      "an": 750,
      "çĽ®": 751,
      "ĭĹ": 752,
      "è®¡åĪĴ": 753,
      "åĬ¿": 754,
      "æ¬¡": 755,
      "æ±Ł": 756,
      "çĥ": 757,
      "å¼ı": 758,
      "æĹ¶æĹ¶å½©": 759,
      "è¿ĺ": 760,
      "èĢģ": 761,
      "èµ·": 762,
      "ãĢĬ": 763,
      "ãĢĭ": 764,
      "è§Ĩ": 765,
      "åĮĹäº¬": 766,
      "åıĬ": 767,
      "åºĹ": 768,
      "çĽ¸": 769,
      "æĦı": 770,
      "æĲ": 771,
      "æĹł": 772,
      "è¨": 773,
      "æĴ": 774,
      "æºĲ": 775,
      "æ»": 776,
      "Ġag": 777,
      "èµĮ": 778,
      "çłģ": 779,
      "çĻ»å½ķ": 780,
      "åİ»": 781,
      "éĺ³": 782,
      "çİ¯äºļ": 783,
      "çİ©": 784,
      "ç§ĳ": 785,
      "çī©": 786,
      "çĿĢ": 787,
      "è®°": 788,
      "çĦ¶": 789,
      "ç³»": 790,
      "å¹¿": 791,
      "ç»ĵ": 792,
      "Ćć": 793,
      "èĻ": 794,
      "åĽ¢": 795,
      "æĤ": 796,
      "æīĭæľºçīĪ": 797,
      "è´¹": 798,
      "åı·": 799,
      "èµĽ": 800,
      "è§£": 801,
      "åĸ": 802,
      "åıĮ": 803,
      "æĽ´": 804,
      "éĩı": 805,
      "é¤": 806,
      "æĢ»": 807,
      "é¦ĸ": 808,
      "æĢİä¹Ī": 809,
      "åŀ": 810,
      "ç±": 811,
      "æ¹": 812,
      "è¢«": 813,
      "æķ°": 814,
      "åĽŀ": 815,
      "èİ": 816,
      "éĻ¢": 817,
      "å·¥ä½ľ": 818,
      "å·²": 819,
      "å¤ĩ": 820,
      "å¸ĥ": 821,
      "æĸ¯": 822,
      "11": 823,
      "Ġ-": 824,
      "åł": 825,
      "çĸ": 826,
      "å¸Ī": 827,
      "åįİ": 828,
      "é©¬": 829,
      "èģĶ": 830,
      "æĭĽ": 831,
      "é¢ĺ": 832,
      "æĪ¿": 833,
      "æ¼": 834,
      "ĭĹä¸ĩ": 835,
      "äºĶ": 836,
      "åĲĹ": 837,
      "æŃ¤": 838,
      "ä»Ģ": 839,
      "åĶ": 840,
      "èº": 841,
      "æİ¨": 842,
      "æµģ": 843,
      "éĢī": 844,
      "ä»»": 845,
      "çİĭ": 846,
      "æ¨": 847,
      "æİ¥": 848,
      "åİŁ": 849,
      "æ²³": 850,
      "ww": 851,
      "éŁ": 852,
      "ä»İ": 853,
      "æ²¡": 854,
      "æ´»": 855,
      "ąć": 856,
      "å§Ķ": 857,
      "ï¼Ľ": 858,
      "æĪĺ": 859,
      "er": 860,
      "åºĶ": 861,
      "ï½": 862,
      "æīĵ": 863,
      "88": 864,
      "ä¸ĵ": 865,
      "éĤ£": 866,
      "å¾Ī": 867,
      "åĽĽ": 868,
      "Ġ3": 869,
      "ç¥ŀ": 870,
      "æ¥": 871,
      "æ°Ķ": 872,
      "éĹ®": 873,
      "é¤Ĳ": 874,
      "å±Ģ": 875,
      "èī²": 876,
      "ç¤¾": 877,
      "ĠçĭĹä¸ĩ": 878,
      "æĥ³": 879,
      "ĠåĪ©æĿ¥": 880,
      "å°ĳ": 881,
      "äºĽ": 882,
      "å¼Ģå¥ĸ": 883,
      "ä»Ĭ": 884,
      "èº«": 885,
      "åĨĽ": 886,
      "äºī": 887,
      "è¿ĳ": 888,
      "å¾·": 889,
      "åģļ": 890,
      "ç«¯": 891,
      "çľģ": 892,
      "æ¢": 893,
      "ä½Ĩ": 894,
      "ä¸¤": 895,
      "12": 896,
      "ä¸ĸ": 897,
      "è¯·": 898,
      "å¯¼": 899,
      "åŁº": 900,
      "æĹĹ": 901,
      "æł¼": 902,
      "çŁ¥": 903,
      "2020": 904,
      "å½±": 905,
      "åĲĦ": 906,
      "ä¸Ģä¸ª": 907,
      "èĦ": 908,
      "æł·": 909,
      "çĻ¾å®¶ä¹Ĳ": 910,
      "ç«ĭ": 911,
      "56": 912,
      "Ġæĺ": 913,
      "åħ±": 914,
      "åı¯ä»¥": 915,
      "è¶³": 916,
      "æģ¯": 917,
      "åĻ": 918,
      "æĪĳä»¬": 919,
      "ç¡": 920,
      "on": 921,
      "å¸¸": 922,
      "ä¼ģ": 923,
      "ä»Ģä¹Ī": 924,
      "å¹¶": 925,
      "ç¤º": 926,
      "èª": 927,
      "é£İ": 928,
      "Ġbet": 929,
      "ä¹¦": 930,
      "åĽł": 931,
      "åĲĳ": 932,
      "éĹ»": 933,
      "ä»·": 934,
      "å¼º": 935,
      "ç»Ł": 936,
      "ãĢĢ": 937,
      "æĶ¶": 938,
      "èµ°åĬ¿": 939,
      "æĮģ": 940,
      "çº§": 941,
      "ãĢĳãĢĲãĢĤ": 942,
      "en": 943,
      "çı": 944,
      "å®ĺæĸ¹ç½ĳç«Ļ": 945,
      "ä½ķ": 946,
      "èĳ": 947,
      "æ¶ĵ": 948,
      "åıª": 949,
      "æłĩ": 950,
      "èĮ": 951,
      "ç²¾": 952,
      "åħļ": 953,
      "åİħ": 954,
      "å®¢æĪ·": 955,
      "ht": 956,
      "æİĴ": 957,
      "appä¸ĭè½½": 958,
      "è£ħ": 959,
      "18": 960,
      "è±": 961,
      "æĸĻ": 962,
      "ĠçľŁäºº": 963,
      "é¡µ": 964,
      "ç¯": 965,
      "éĻĲ": 966,
      "åħį": 967,
      "è®º": 968,
      "AN": 969,
      "å°Ķ": 970,
      "è¾¾": 971,
      "åħī": 972,
      "å¥³": 973,
      "çķĮ": 974,
      "æľ¯": 975,
      "èĬ±": 976,
      "66": 977,
      "æĴŃ": 978,
      "éĢģ": 979,
      "èĩ³": 980,
      "åıĳå±ķ": 981,
      "çīĩ": 982,
      "æ®": 983,
      "ĈĈ": 984,
      "19": 985,
      "åĬŀ": 986,
      "åĪĽ": 987,
      "åĻ¨": 988,
      "èĢĥ": 989,
      "å¼ĢæĪ·": 990,
      "ç§į": 991,
      "æ±Ĥ": 992,
      "Ćą": 993,
      "Ġ0": 994,
      "åĪĨå½©": 995,
      "é¡¹": 996,
      "æŀĹ": 997,
      "ä½¿": 998,
      "åħĪ": 999,
      "æ¸¯": 1000,
      "å¤´": 1001,
      "ç©º": 1002,
      "ä¼ł": 1003,
      "æŁ¥": 1004,
      "ä½ĵèĤ²æĬķæ³¨": 1005,
      "éĶĽ": 1006,
      "åıĸ": 1007,
      "æį®": 1008,
      "æł¡": 1009,
      "åĦ": 1010,
      "ãĥ": 1011,
      "Ġäºļæ¸¸": 1012,
      "èŃ": 1013,
      "æĶ¾": 1014,
      "èĤ¡": 1015,
      "ãĢĳãĢĲãĢĤãĢĳãĢĲ": 1016,
      "æĹ¶éĹ´": 1017,
      "Ġ2": 1018,
      "éħĴ": 1019,
      "ä¾Ľ": 1020,
      "èĭ±": 1021,
      "æĸ°éĹ»": 1022,
      "ç»Ħ": 1023,
      "éĿĴ": 1024,
      "åĳ¨": 1025,
      "è®©": 1026,
      "åĵª": 1027,
      "¨å¤©": 1028,
      "åħŃ": 1029,
      "åħĭ": 1030,
      "æ²»": 1031,
      "æĦŁ": 1032,
      "es": 1033,
      "è²¸": 1034,
      "éĽĨåĽ¢": 1035,
      "éĸ": 1036,
      "æ¸ħ": 1037,
      "å¤Ħ": 1038,
      "éĢł": 1039,
      "åıĹ": 1040,
      "å·±": 1041,
      "æ·±": 1042,
      "èģĺ": 1043,
      "é¢Ĩ": 1044,
      "èµ°åĬ¿åĽ¾": 1045,
      "è½¯": 1046,
      "çĶ±": 1047,
      "ç¾¤": 1048,
      "å®ģ": 1049,
      "æĮĩ": 1050,
      "æľįåĬ¡": 1051,
      "æĿĳ": 1052,
      "åĮħ": 1053,
      "ãĢı": 1054,
      "ãĢİ": 1055,
      "çłĶ": 1056,
      "è°ĥ": 1057,
      "è¯Ŀ": 1058,
      "èħ": 1059,
      "éľ¸": 1060,
      "çħ": 1061,
      "åĬ©": 1062,
      "å¤ª": 1063,
      "æĺĵ": 1064,
      "å°Ĭ": 1065,
      "åŀĭ": 1066,
      "è¯ģ": 1067,
      "ar": 1068,
      "æ´²": 1069,
      "èĲ¥": 1070,
      "ä¼ĺ": 1071,
      "éĺŁ": 1072,
      "ç»Ļ": 1073,
      "al": 1074,
      "å®¢æĪ·ç«¯": 1075,
      "èı": 1076,
      "Ġæĺ¨å¤©": 1077,
      "éį": 1078,
      "at": 1079,
      "å¼ł": 1080,
      "Ĉć": 1081,
      "äºĳ": 1082,
      "ä¼ģä¸ļ": 1083,
      "Ġçİ¯äºļ": 1084,
      "åĳĬ": 1085,
      "çĴ": 1086,
      "ä¹ł": 1087,
      "é¦Ļ": 1088,
      "æĶ¹": 1089,
      "æĹ©é¤Ĳ": 1090,
      "æīį": 1091,
      "çĻ½": 1092,
      "è®®": 1093,
      "é¢ĳ": 1094,
      "éĵ¶": 1095,
      "çĭ": 1096,
      "ãĢıãĢİ": 1097,
      "å¸¦": 1098,
      "æĹħ": 1099,
      "å£«": 1100,
      "æķ´": 1101,
      "é£ŀ": 1102,
      "æĭĽèģĺ": 1103,
      "åĥ": 1104,
      "åĩĨ": 1105,
      "çĮ": 1106,
      "è½¯ä»¶": 1107,
      "æĪĸ": 1108,
      "èĩªå·±": 1109,
      "ãĢĤâĢĿ": 1110,
      "åįķåıĮ": 1111,
      "åĤ": 1112,
      "åŃĹ": 1113,
      "æ¡Ī": 1114,
      "çª": 1115,
      "éĿŀ": 1116,
      "éľĢ": 1117,
      "æĭī": 1118,
      "å®Į": 1119,
      "Ġå½©ç¥ŀ": 1120,
      "éĺ²": 1121,
      "æĶ¯": 1122,
      "æļ": 1123,
      "æ²¡æľī": 1124,
      "åĢ¼": 1125,
      "æŀģ": 1126,
      "å¡": 1127,
      "è¯ķ": 1128,
      "åĪĹ": 1129,
      "æ¶Ī": 1130,
      "Ĉą": 1131,
      "ä¿®": 1132,
      "è§Ĥ": 1133,
      "è¶ħ": 1134,
      "Ġb": 1135,
      "æĹ©çĤ¹": 1136,
      "äºīéľ¸": 1137,
      "AP": 1138,
      "æĳ": 1139,
      "è¿ŀ": 1140,
      "2018": 1141,
      "å®Ŀ": 1142,
      "çİĩ": 1143,
      "âĢĶ": 1144,
      "Ġäºļç¾İ": 1145,
      "æĬĬ": 1146,
      "æ£ĭçīĮæ¸¸æĪı": 1147,
      "è§ģ": 1148,
      "åĪ«": 1149,
      "åĨį": 1150,
      "æŃ¥": 1151,
      "å¢ŀ": 1152,
      "ç¶": 1153,
      "æĺŁ": 1154,
      "åĽ½å®¶": 1155,
      "or": 1156,
      "æľĢæĸ°": 1157,
      "ç¦ı": 1158,
      "é¢Ħ": 1159,
      "ä¼Ĺ": 1160,
      "betå®ĺç½ĳ": 1161,
      "è³": 1162,
      "15": 1163,
      "çº¢": 1164,
      "è¯Ħ": 1165,
      "èĬĤ": 1166,
      "åĪĨå¿«": 1167,
      "èµĮéĴ±": 1168,
      "åĮ»": 1169,
      "è½¬": 1170,
      "é»Ħ": 1171,
      "åıĭ": 1172,
      "ç½ĳæĬķ": 1173,
      "å¾ĭ": 1174,
      "å©": 1175,
      "åĢŁ": 1176,
      "èģĮ": 1177,
      "çĳ": 1178,
      "æĸ½": 1179,
      "è´¨": 1180,
      "æ¯ı": 1181,
      "ĠåĮĹäº¬": 1182,
      "????": 1183,
      "æĿĥ": 1184,
      "å¿ħ": 1185,
      "ç®Ĺ": 1186,
      "åħįè´¹": 1187,
      "æ¿": 1188,
      "åħ·": 1189,
      "ç®¡çĲĨ": 1190,
      "08": 1191,
      "//": 1192,
      "æĵ": 1193,
      "æľª": 1194,
      "ç¿": 1195,
      "è®¤": 1196,
      "å®¹": 1197,
      "åºľ": 1198,
      "æµİ": 1199,
      "åĽ´": 1200,
      "çº¿ä¸Ĭ": 1201,
      "çĪ±": 1202,
      "JI": 1203,
      "é¥": 1204,
      "æħ": 1205,
      "SH": 1206,
      "åİĨ": 1207,
      "å°±æĺ¯": 1208,
      "è®¯": 1209,
      "å·´": 1210,
      "äººæ°ĳ": 1211,
      "--": 1212,
      "ç¹": 1213,
      "åıĺ": 1214,
      "âĢ¦": 1215,
      "ä¿¡æģ¯": 1216,
      "çĹ": 1217,
      "å°Ĭé¾Ļ": 1218,
      "ç»´": 1219,
      "æĿ¡": 1220,
      "æĢĿ": 1221,
      "å¼Ģåħĥ": 1222,
      "ç¯ĩ": 1223,
      "èĪ°": 1224,
      "èĹ": 1225,
      "ç½®": 1226,
      "éħį": 1227,
      "è¿Ľè¡Į": 1228,
      "30": 1229,
      "is": 1230,
      "å¾®": 1231,
      "æ¹ĸ": 1232,
      "å³": 1233,
      "åĽŃ": 1234,
      "èĲ½": 1235,
      "22": 1236,
      "Ġ5": 1237,
      "å¸Ĥåľº": 1238,
      "åıĪ": 1239,
      "æľīéĻĲ": 1240,
      "åį¡": 1241,
      "ç±»": 1242,
      "çĬ": 1243,
      "é»ĳ": 1244,
      "âĻ": 1245,
      "ĠA": 1246,
      "çģ«": 1247,
      "å¥¹": 1248,
      "åħ´": 1249,
      "èŀ": 1250,
      "ï¼ļâĢľ": 1251,
      "ä¸Ńå¿ĥ": 1252,
      "å¨ģ": 1253,
      "æĤ¨": 1254,
      "å¼Ģåħĥæ£ĭçīĮ": 1255,
      "åı¤": 1256,
      "ï¿½ï¿½ï¿½ï¿½ï¿½": 1257,
      "åıĤ": 1258,
      "çľŁéĴ±": 1259,
      "Ġæĸ°": 1260,
      "æ¬¢": 1261,
      "å¼ķ": 1262,
      "02": 1263,
      "éĤĢ": 1264,
      "ãĦ": 1265,
      "ç¥¨": 1266,
      "âĻĢ": 1267,
      "æķĪ": 1268,
      "åĨ³": 1269,
      "ä½ı": 1270,
      "éķĩ": 1271,
      "çĽ´æĴŃ": 1272,
      "éĹ®é¢ĺ": 1273,
      "å¹²": 1274,
      "ä¾¿": 1275,
      "è¯¥": 1276,
      "æµĭ": 1277,
      "ç½ĳä¸Ĭ": 1278,
      "åı²": 1279,
      "ç§°": 1280,
      "åįĩ": 1281,
      "ä¹ī": 1282,
      "ä¸ĸçķĮ": 1283,
      "çł´": 1284,
      "éªĮ": 1285,
      "åĩł": 1286,
      "ä¹°": 1287,
      "åıį": 1288,
      "Â·": 1289,
      "it": 1290,
      "www": 1291,
      "å¤į": 1292,
      "æ¨¡": 1293,
      "èĪª": 1294,
      "åŃĺ": 1295,
      "æĿİ": 1296,
      "è§Ĩé¢ĳ": 1297,
      "åĦ¿": 1298,
      "çĥŃ": 1299,
      "å½¢": 1300,
      "å¤§åħ¨": 1301,
      "Ġ>": 1302,
      "éĬ": 1303,
      "è´£": 1304,
      "æĿ¿": 1305,
      "æĲı": 1306,
      "åºĨ": 1307,
      "Ććą": 1308,
      "tp": 1309,
      "ç»ĵæŀľ": 1310,
      "è¨Ģ": 1311,
      "éŁ³": 1312,
      "ĠC": 1313,
      "åĨł": 1314,
      "ç¢": 1315,
      "ç»Ń": 1316,
      "èµ¢": 1317,
      "åģĩ": 1318,
      "...": 1319,
      "æĹĹèĪ°": 1320,
      "16": 1321,
      "è¶Ĭ": 1322,
      "å·§": 1323,
      "åľ°åĿĢ": 1324,
      "æ½": 1325,
      "éº": 1326,
      "ç¸": 1327,
      "å£°": 1328,
      "APP": 1329,
      "æĬ¤": 1330,
      "æİ§": 1331,
      "åĬŁ": 1332,
      "åĨľ": 1333,
      "æľĽ": 1334,
      "æķĻèĤ²": 1335,
      "09": 1336,
      "éĤĢè¯·": 1337,
      "å·Ŀ": 1338,
      "æĻ¯": 1339,
      "çĢ": 1340,
      "è´Ń": 1341,
      "è»": 1342,
      "Ġå¤§åıĳå¿«ä¸ī": 1343,
      "ç«ł": 1344,
      "çŁ³": 1345,
      "åĳ½": 1346,
      "http": 1347,
      "è¶³çĲĥ": 1348,
      "æĬĢæľ¯": 1349,
      "æľīéĻĲåħ¬åı¸": 1350,
      "04": 1351,
      "æ©": 1352,
      "17": 1353,
      "ä»£çĲĨ": 1354,
      "å°¼": 1355,
      "å»ºè®¾": 1356,
      "åħ«": 1357,
      "ĠS": 1358,
      "éĶĢ": 1359,
      "åĶ®": 1360,
      "æī¹": 1361,
      "å®īåħ¨": 1362,
      "åº·": 1363,
      "åĺ": 1364,
      "å§ĭ": 1365,
      "://": 1366,
      "æĶ¿åºľ": 1367,
      "le": 1368,
      "ćć": 1369,
      "éĴŁ": 1370,
      "å·¥ç¨ĭ": 1371,
      "ä¸¾": 1372,
      "å¢ĥ": 1373,
      "åį³": 1374,
      "ç¡®": 1375,
      "è¯Ń": 1376,
      "å¹¸": 1377,
      "èµĽè½¦": 1378,
      "éł": 1379,
      "éĺ¿": 1380,
      "ç½Ĺ": 1381,
      "èĭı": 1382,
      "ç©¶": 1383,
      "ç»ıæµİ": 1384,
      "14": 1385,
      "åįĥ": 1386,
      "05": 1387,
      "Ġå¤§": 1388,
      "XI": 1389,
      "07": 1390,
      "é¦Ļæ¸¯": 1391,
      "ä»ĸä»¬": 1392,
      "è¾¹": 1393,
      "ç¾İåĽ½": 1394,
      "åĪĻ": 1395,
      "ä¸Ĭæµ·": 1396,
      "æ¾³éĹ¨": 1397,
      "Ġå°Ĭé¾Ļ": 1398,
      "çļĩ": 1399,
      "è©": 1400,
      "çħ§": 1401,
      "ä¸Ģç¯ĩ": 1402,
      "èŀį": 1403,
      "çµ": 1404,
      "çº¦": 1405,
      "ä»½": 1406,
      "é²": 1407,
      "am": 1408,
      "éħĴåºĹ": 1409,
      "èªī": 1410,
      "æĻ®": 1411,
      "ZH": 1412,
      "åľĭ": 1413,
      "å¿Ĺ": 1414,
      "æıĲä¾Ľ": 1415,
      "st": 1416,
      "è²¸æ¬¾": 1417,
      "ç«ŀ": 1418,
      "çĽĳ": 1419,
      "Ġpk": 1420,
      "æŃĮ": 1421,
      "åįĵ": 1422,
      "æ²Ļ": 1423,
      "ä¹¡": 1424,
      "25": 1425,
      "Ġt": 1426,
      "ç±³": 1427,
      "ĠP": 1428,
      "éļ¾": 1429,
      "2017": 1430,
      "ĠçĶµ": 1431,
      "æĬĢå·§": 1432,
      "éĤĢè¯·çłģ": 1433,
      "åįı": 1434,
      "æ¼Ķ": 1435,
      "æ¦": 1436,
      "å®¤": 1437,
      "ou": 1438,
      "Ġ356": 1439,
      "06": 1440,
      "åħµ": 1441,
      "æ±½": 1442,
      "æĺ¥": 1443,
      "äºĮæīĭ": 1444,
      "èİ·": 1445,
      "åĲī": 1446,
      "å¤§åŃ¦": 1447,
      "01": 1448,
      "é¡¹çĽ®": 1449,
      "æ¾": 1450,
      "æĢģ": 1451,
      "è´¢": 1452,
      "åŁ¹": 1453,
      "è¯»": 1454,
      "ĠM": 1455,
      "cn": 1456,
      "çĨ": 1457,
      "å¯Į": 1458,
      "åħħ": 1459,
      "èĭ¹": 1460,
      "èŃ¦": 1461,
      "çīĽ": 1462,
      "Ġæŀ": 1463,
      "ĠT": 1464,
      "èĭ¹æŀľ": 1465,
      "ä¹Ŀ": 1466,
      "äº¿": 1467,
      "ç¤¾ä¼ļ": 1468,
      "ä½İ": 1469,
      "åħ°": 1470,
      "éŃ": 1471,
      "æŃ¦": 1472,
      "æĻº": 1473,
      "è¿ľ": 1474,
      "èĮĥ": 1475,
      "ä»ĭ": 1476,
      "é¸": 1477,
      "ic": 1478,
      "é£Ł": 1479,
      "å¤®": 1480,
      "23": 1481,
      "åŁŁ": 1482,
      "çķĻ": 1483,
      "03": 1484,
      "å¦Ĥä½ķ": 1485,
      "24": 1486,
      "çĽĺ": 1487,
      "ç»ľ": 1488,
      "é¦ĸé¡µ": 1489,
      "äº§åĵģ": 1490,
      "æµľ": 1491,
      "ç¼ĸ": 1492,
      "Ġw": 1493,
      "re": 1494,
      "28": 1495,
      "se": 1496,
      "å¤ĩçĶ¨": 1497,
      "ANG": 1498,
      "åľŁ": 1499,
      "èĴ": 1500,
      "ĠçĻ¾å®¶ä¹Ĳ": 1501,
      "é±": 1502,
      "æŀĦ": 1503,
      "åĥı": 1504,
      "åĩ»": 1505,
      "çİ°éĩĳ": 1506,
      "åłĤ": 1507,
      "èīº": 1508,
      "åª": 1509,
      "æĸ°éĹ»ç½ĳ": 1510,
      "æł¹": 1511,
      "åī¯": 1512,
      "åıĳå¸ĥ": 1513,
      "åĢĻ": 1514,
      "ç¬¬ä¸Ģ": 1515,
      "å±ħ": 1516,
      "åģ¥": 1517,
      "é±¼": 1518,
      "lo": 1519,
      "ç¦»": 1520,
      "æĸĩåĮĸ": 1521,
      "æľĥ": 1522,
      "åĲ¬": 1523,
      "éĲ": 1524,
      "æĹ©é¤ĲåĬłçĽŁ": 1525,
      "äºĴ": 1526,
      "åĨµ": 1527,
      "æĿ¥æºĲ": 1528,
      "Ġ9": 1529,
      "he": 1530,
      "ĠB": 1531,
      "å¾Ģ": 1532,
      "21": 1533,
      "çŃĸ": 1534,
      "è¿Ļä¸ª": 1535,
      "çĶ³": 1536,
      "âĻĢâĻĢ": 1537,
      "è¡¨ç¤º": 1538,
      "éı": 1539,
      "çıŃ": 1540,
      "éĻ¤": 1541,
      "æ±ī": 1542,
      "æĽ°": 1543,
      "Ġæ±": 1544,
      "æĮī": 1545,
      "è¾ĵ": 1546,
      "éĻĨ": 1547,
      "ç½ĳç»ľ": 1548,
      "åħ»": 1549,
      "æĹı": 1550,
      "èĩ´": 1551,
      "éĻ©": 1552,
      "æ´»åĬ¨": 1553,
      "âĢĿï¼Į": 1554,
      "ĠæŃ": 1555,
      "Ġ(": 1556,
      "è¯Ĩ": 1557,
      "èµĦæĸĻ": 1558,
      "è»Ĭ": 1559,
      "çłĶç©¶": 1560,
      "è´§": 1561,
      "åĿļ": 1562,
      "ä¸´": 1563,
      "éĢļè¿ĩ": 1564,
      "å·²ç»ı": 1565,
      "çĵ": 1566,
      "åį°": 1567,
      "è®°èĢħ": 1568,
      "è®Ń": 1569,
      "çľ¼": 1570,
      "å®£": 1571,
      "è®¸": 1572,
      "Ġæµ": 1573,
      "éĩĩ": 1574,
      "Ġä¸ĩ": 1575,
      "Ġå¼Ģåħĥæ£ĭçīĮ": 1576,
      "çĶ·": 1577,
      "å¤±": 1578,
      "æī¾": 1579,
      "ç§Ĵ": 1580,
      "å¤ļå°ĳ": 1581,
      "ä¿¡èªī": 1582,
      "æŃ»": 1583,
      "åĲĥ": 1584,
      "å¥½çļĦ": 1585,
      "åĪĨéĴŁ": 1586,
      "æķħ": 1587,
      "æĻļ": 1588,
      "æ£Ģ": 1589,
      "åİĤ": 1590,
      "éļı": 1591,
      "ĠH": 1592,
      "éĿł": 1593,
      "æ®µ": 1594,
      "çĶŁæ´»": 1595,
      "Ġc": 1596,
      "ç§ĳæĬĢ": 1597,
      "å®īåįĵ": 1598,
      "Ġagçİ¯äºļ": 1599,
      "æĥł": 1600,
      "æ¤": 1601,
      "çºª": 1602,
      "ĠR": 1603,
      "çĤº": 1604,
      "æŃ£è§Ħ": 1605,
      "çĽĬ": 1606,
      "ad": 1607,
      "éĵģ": 1608,
      "id": 1609,
      "åĲĪä½ľ": 1610,
      "ąĆĈ": 1611,
      "ä¸įæĺ¯": 1612,
      "ä¾Ŀ": 1613,
      "æľ¨": 1614,
      "Ġk": 1615,
      "åĸľ": 1616,
      "çķ¥": 1617,
      "æĹĹèĪ°åİħ": 1618,
      "çĶµåŃĲ": 1619,
      "èĸ": 1620,
      "åĪĿ": 1621,
      "èīĩ": 1622,
      "æŀĲ": 1623,
      "åį«": 1624,
      "æĺ¾": 1625,
      "æĹħæ¸¸": 1626,
      "æ»¡": 1627,
      "åĪĺ": 1628,
      "æ¥Ń": 1629,
      "æ²¹": 1630,
      "æĿĲ": 1631,
      "åŁİå¸Ĥ": 1632,
      "èĻİ": 1633,
      "ing": 1634,
      "AO": 1635,
      "æĸŃ": 1636,
      "ç¨³": 1637,
      "åĲ§": 1638,
      "ãĤ": 1639,
      "å¼Ģå¥ĸç»ĵæŀľ": 1640,
      "å®ĥ": 1641,
      "æī¿": 1642,
      "æĹ©çĤ¹åĬłçĽŁ": 1643,
      "èĽ": 1644,
      "å¯Ł": 1645,
      "Ćï¼Į": 1646,
      "ç§¯": 1647,
      "27": 1648,
      "æĻĤ": 1649,
      "ä¸Ķ": 1650,
      "çİ°åľ¨": 1651,
      "åįĬ": 1652,
      "ä¸ĵä¸ļ": 1653,
      "éİ": 1654,
      "ĠL": 1655,
      "äº«": 1656,
      "è®²": 1657,
      "è´Ł": 1658,
      "ONG": 1659,
      "éľĢè¦ģ": 1660,
      "ĠD": 1661,
      "å¯Ĩ": 1662,
      "æĸĹ": 1663,
      "åĪĩ": 1664,
      "åºķ": 1665,
      "CH": 1666,
      "è±¡": 1667,
      "éĮ": 1668,
      "ä¸°": 1669,
      "åĵį": 1670,
      "èĵ": 1671,
      "åħ¨åĽ½": 1672,
      "æĬķèµĦ": 1673,
      "æł¸": 1674,
      "æıĲçİ°": 1675,
      "æ©Ł": 1676,
      "26": 1677,
      "Ġæ²": 1678,
      "é¹": 1679,
      "éĽĦ": 1680,
      "å¥ĩ": 1681,
      "çĽ¸åħ³": 1682,
      "ä¾ĭ": 1683,
      "å¸Ń": 1684,
      "à¸": 1685,
      "ä¹ħ": 1686,
      "ip": 1687,
      "Ġæŀģ": 1688,
      "å¿µ": 1689,
      "ent": 1690,
      "ä¸¥": 1691,
      "éĩįè¦ģ": 1692,
      "è¿İ": 1693,
      "ç®Ģ": 1694,
      "è¯į": 1695,
      "åİĨåı²": 1696,
      "æĶ»": 1697,
      "åį´": 1698,
      "çĩ": 1699,
      "ç»Ī": 1700,
      "çļĦä¸Ģ": 1701,
      "åŃ£": 1702,
      "el": 1703,
      "äº²": 1704,
      "æ°¸": 1705,
      "çĹħ": 1706,
      "ĠæŀģéĢŁ": 1707,
      "åĢĭ": 1708,
      "çļĦäºº": 1709,
      "è·Ł": 1710,
      "Ġ10": 1711,
      "åĵģçīĮ": 1712,
      "åŃ©": 1713,
      "ç»ĩ": 1714,
      "ĠI": 1715,
      "è´µ": 1716,
      "éĿ©": 1717,
      "å¦Ĥæŀľ": 1718,
      "å¹¸è¿Ĳ": 1719,
      "èµļ": 1720,
      "ĠG": 1721,
      "ac": 1722,
      "è§ī": 1723,
      "ç§Ł": 1724,
      "ĆĆĈ": 1725,
      "è¾ĥ": 1726,
      "åİĭ": 1727,
      "ä½Ļ": 1728,
      "è¦ģæ±Ĥ": 1729,
      "éĻį": 1730,
      "ä½¿çĶ¨": 1731,
      "29": 1732,
      "æ¬§": 1733,
      "å±ŀ": 1734,
      "50": 1735,
      "å¤«": 1736,
      "ä¸ĥ": 1737,
      "æ¸¸æĪıå¹³åı°": 1738,
      "åĪĨæĹ¶æĹ¶å½©": 1739,
      "å²Ľ": 1740,
      "Ĉï¼Į": 1741,
      "çĶ°": 1742,
      "ä¾Ĩ": 1743,
      "åŃ¸": 1744,
      "äººåĳĺ": 1745,
      "è¡Įä¸ļ": 1746,
      "çİ°åľº": 1747,
      "Ĉąć": 1748,
      "å³°": 1749,
      "âĢķ": 1750,
      "åī§": 1751,
      "ĠãĢĲ": 1752,
      "å±Ĥ": 1753,
      "åªĴ": 1754,
      "å´": 1755,
      "èħ¾": 1756,
      "Ġ4": 1757,
      "é¦Ĩ": 1758,
      "å¤©å¤©": 1759,
      "åĸĦ": 1760,
      "un": 1761,
      "ro": 1762,
      "é£ŀèīĩ": 1763,
      "æ³¢": 1764,
      "ä¸Ńå¤®": 1765,
      "Ġæīĭæľº": 1766,
      "è¡Ĺ": 1767,
      "ç³»ç»Ł": 1768,
      "çĶµæ¸¸": 1769,
      "äºĨä¸Ģ": 1770,
      "è®¾è®¡": 1771,
      "éĻĪ": 1772,
      "ä»¤": 1773,
      "å¤ı": 1774,
      "åĿĽ": 1775,
      ",ãĢĲ": 1776,
      "æĸ¹éĿ¢": 1777,
      "ĠäºļæĲı": 1778,
      "æ´¥": 1779,
      "æ¸©": 1780,
      "åĪĨæŀĲ": 1781,
      "ĠF": 1782,
      "æĥħåĨµ": 1783,
      "2016": 1784,
      "ãģ": 1785,
      "èĤĸ": 1786,
      "éŁ©": 1787,
      "ãĢĤãĢĤ": 1788,
      "ion": 1789,
      "ĠE": 1790,
      "âĸ": 1791,
      "åįĢ": 1792,
      "Ġd": 1793,
      "é½": 1794,
      "å¤ĸåĽ´": 1795,
      "å®ľ": 1796,
      "éĢĻ": 1797,
      "å¸Į": 1798,
      "äºļæ´²": 1799,
      "ãĢį": 1800,
      "ĠW": 1801,
      "ĠåįĹ": 1802,
      "æĩ": 1803,
      "çĶ»": 1804,
      "è¡Ģ": 1805,
      "éĵ¾": 1806,
      "èĳ¡": 1807,
      "å·¦": 1808,
      "å¤§å°ı": 1809,
      "åŃ¦ä¹ł": 1810,
      "æĿĢ": 1811,
      "ï¿½ï¿½ï¿½ï¿½ï¿½ï¿½": 1812,
      "çĽ®åīį": 1813,
      "åħ¸": 1814,
      "å¤ľ": 1815,
      "Ġå¤§åıĳæĹ¶æĹ¶å½©": 1816,
      "âĢĿãĢĤ": 1817,
      "æ»ļ": 1818,
      "èĹı": 1819,
      "ãĢĮ": 1820,
      "éĺħ": 1821,
      "åı¯èĥ½": 1822,
      "åĵĪ": 1823,
      "èĥľ": 1824,
      "Ġåĩ¯æĹ¶": 1825,
      "ä»·æł¼": 1826,
      "ed": 1827,
      "ĠU": 1828,
      "çĻ¼": 1829,
      "é¼": 1830,
      "Ġå¤©": 1831,
      "å¥Ĺ": 1832,
      "æĮĤ": 1833,
      "äººçļĦ": 1834,
      "æµł": 1835,
      "çªģ": 1836,
      "åģľ": 1837,
      "æĭħ": 1838,
      "çľŁçļĦ": 1839,
      "ãĢĳ,ãĢĲ": 1840,
      "æ¹¾": 1841,
      "ĠåĪĨ": 1842,
      "æ±½è½¦": 1843,
      "æ¥¼": 1844,
      "é¡º": 1845,
      "æĺĮ": 1846,
      "å®¡": 1847,
      "ml": 1848,
      "æĵį": 1849,
      "åĪ°äºĨ": 1850,
      "çĶŁäº§": 1851,
      "è§Ĵ": 1852,
      "å¤§å®¶": 1853,
      "LI": 1854,
      "Ġ2019": 1855,
      "å¾ħ": 1856,
      "DE": 1857,
      "åĽłä¸º": 1858,
      "æŁĲ": 1859,
      "å½©ç¥ŀäºīéľ¸": 1860,
      "è¯¢": 1861,
      "è¼": 1862,
      "æ¼ı": 1863,
      "99": 1864,
      "ç·": 1865,
      "èıľ": 1866,
      "æĹ¶åĢĻ": 1867,
      "ĠN": 1868,
      "356": 1869,
      "éªĹ": 1870,
      "ä»ħ": 1871,
      "ĠçĶµçİ©": 1872,
      "éĢĢ": 1873,
      "è¿ĻäºĽ": 1874,
      "as": 1875,
      "ä¹Łæĺ¯": 1876,
      "ç´¢": 1877,
      "Ġ/": 1878,
      "åĲĮæĹ¶": 1879,
      "ä¹¦è®°": 1880,
      "æĽ¾": 1881,
      "åŃ¦çĶŁ": 1882,
      "ç¬ĳ": 1883,
      "ä½ĵèĤ²åľ¨çº¿": 1884,
      "æīĢæľī": 1885,
      "åº§": 1886,
      "æĪĲä¸º": 1887,
      "Ġs": 1888,
      "ä»¥åıĬ": 1889,
      "çº³": 1890,
      "ï¼ĮâĢľ": 1891,
      "æķ°æį®": 1892,
      "çŁ¥éģĵ": 1893,
      "åĨ²": 1894,
      "ä»ĺ": 1895,
      "ä¸įèĥ½": 1896,
      "Ġp": 1897,
      "äº§ä¸ļ": 1898,
      "Ġ2020": 1899,
      "åŃ¦æł¡": 1900,
      "ot": 1901,
      "ĠK": 1902,
      "èĦĳ": 1903,
      "ĠO": 1904,
      "å¸®": 1905,
      "Ġæ¾³éĹ¨çĻ¾å®¶": 1906,
      "éĨ": 1907,
      "ç»Ħç»ĩ": 1908,
      "å¤§çļĦ": 1909,
      "åºĵ": 1910,
      "åĿĩ": 1911,
      "åŃ¦éĻ¢": 1912,
      "åŁ¹è®Ń": 1913,
      "è¯¾": 1914,
      "åĨĻ": 1915,
      "ç§»": 1916,
      "æ¾¶": 1917,
      "è¿Ļæł·": 1918,
      "ĠåĮĹäº¬pk": 1919,
      ");": 1920,
      "ç»į": 1921,
      "èī¯": 1922,
      "åĹ": 1923,
      "åºĦ": 1924,
      "èį¯": 1925,
      "æīĺ": 1926,
      "æľĿ": 1927,
      "ĠV": 1928,
      "è«": 1929,
      "é¢Ŀ": 1930,
      "ç¶²": 1931,
      "ä¸½": 1932,
      "æĿ¾": 1933,
      "è½»": 1934,
      "éĵ¶æ²³": 1935,
      "å¼Ģå§ĭ": 1936,
      "æŃ¢": 1937,
      "è´¦": 1938,
      "Ġæ°": 1939,
      "å®īè£ħ": 1940,
      "å¤Ł": 1941,
      "Ġm": 1942,
      "å®¢æĪ·ç«¯ä¸ĭè½½": 1943,
      "å±ĭ": 1944,
      "è®ºåĿĽ": 1945,
      "å¤§åıĳå¿«ä¸ī": 1946,
      "ĠåĪ©æĿ¥w": 1947,
      "éĽ·": 1948,
      "åħ³äºİ": 1949,
      "è®¿": 1950,
      "ç»Ĩ": 1951,
      "ĆĈą": 1952,
      "ig": 1953,
      "å°½": 1954,
      "çŃ¾": 1955,
      "åı³": 1956,
      "åĪĨpk": 1957,
      "AI": 1958,
      "åħ¶ä»ĸ": 1959,
      "èį£": 1960,
      "æĦ¿": 1961,
      "æŀģéĢŁ": 1962,
      "èĳĹ": 1963,
      "ç²¾ç¥ŀ": 1964,
      "åĭķ": 1965,
      "Ĥ¬": 1966,
      "éĤ®": 1967,
      "å¾Īå¤ļ": 1968,
      "âķ": 1969,
      "æĽ²": 1970,
      "éĥ½æĺ¯": 1971,
      "Ġ7": 1972,
      "æ¯į": 1973,
      "äº¤æµģ": 1974,
      "å²ģ": 1975,
      "äº¤æĺĵ": 1976,
      "è¿ĺæĺ¯": 1977,
      "éĽ»": 1978,
      "åĪ»": 1979,
      "æĹ¥æľ¬": 1980,
      "æĭ¿": 1981,
      "ç£": 1982,
      "æĭį": 1983,
      "ä½ľèĢħ": 1984,
      "çĶµå½±": 1985,
      "Ġf": 1986,
      ")(": 1987,
      "æī§": 1988,
      "åĺī": 1989,
      "ä½ľä¸º": 1990,
      "åĪĽæĸ°": 1991,
      "ç´ł": 1992,
      "Ġ6": 1993,
      "âĢľãĢĳãĢĲ": 1994,
      "Ġä¸Ń": 1995,
      "å®Ī": 1996,
      "çĸ«": 1997,
      "ä»£è¡¨": 1998,
      "å±Ĭ": 1999,
      "è®¾å¤ĩ": 2000,
      "çİī": 2001,
      "æ±ĩ": 2002,
      "âĤ¬": 2003,
      "ç»§": 2004,
      "Ġ8": 2005,
      "æį¢": 2006,
      "èģļ": 2007,
      "æĸ¼": 2008,
      "æĢ¥": 2009,
      "èµĦæºĲ": 2010,
      "38": 2011,
      "ä¸»è¦ģ": 2012,
      "çĢ¹": 2013,
      "é½Ĳ": 2014,
      "éģĹ": 2015,
      "ãĢĳãĢĲï¼ļ": 2016,
      "åįĪ": 2017,
      "èĤ¡ç¥¨": 2018,
      "ä¹Į": 2019,
      "Ġæ³": 2020,
      "ä¼ļè®®": 2021,
      "ĠJ": 2022,
      "è¿½": 2023,
      "çŁŃ": 2024,
      "ç§Ģ": 2025,
      "éĮ¢": 2026,
      "ä¸ŃçļĦ": 2027,
      "æīĢä»¥": 2028,
      "æķĳ": 2029,
      "Ġbt": 2030,
      "ãĢĳãĢĲï¼ļãĢĳãĢĲ": 2031,
      "ĠèµĮéĴ±": 2032,
      "åĲ´": 2033,
      "äº®": 2034,
      "èľ": 2035,
      "ch": 2036,
      "Ġçº¿ä¸Ĭ": 2037,
      "ãĢĤâĢľ": 2038,
      "ä½³": 2039,
      "éģĩ": 2040,
      "è§Ħå¾ĭ": 2041,
      "éĥ¨åĪĨ": 2042,
      "ang": 2043,
      "è°Ī": 2044,
      "æĹ¥æĬ¥": 2045,
      "ç®±": 2046,
      "è¡£": 2047,
      "éĸĭ": 2048,
      "å®¾": 2049,
      "è¿ĳå¹³": 2050,
      "ąĈ": 2051,
      "èĭ¥": 2052,
      "ä½Ĩæĺ¯": 2053,
      "å°ģ": 2054,
      "????????": 2055,
      "ï¿½ï¿½ï¿½ï¿½ï¿½ï¿½ï¿½ï¿½": 2056,
      "è¯ī": 2057,
      "åĲ¦": 2058,
      "éĩįåºĨ": 2059,
      "ä»Ĭå¹´": 2060,
      "å®³": 2061,
      "35": 2062,
      "ĠY": 2063,
      "å¿«ä¹Ĳ": 2064,
      "æĸ¹å¼ı": 2065,
      "ä½Ľ": 2066,
      "åĳ³": 2067,
      "çĶµè¯Ŀ": 2068,
      "40": 2069,
      "âĢ¦âĢ¦": 2070,
      "ç½ĳé¡µ": 2071,
      "æĿ¨": 2072,
      "å»¶": 2073,
      "äºļæ¸¸": 2074,
      "å°ļ": 2075,
      "éĥ¨éĹ¨": 2076,
      "æ´¾": 2077,
      "Ġéĩĳ": 2078,
      "è´«": 2079,
      "æ³°": 2080,
      "os": 2081,
      "éĴ¢": 2082,
      "ä½įç½®": 2083,
      "åįĸ": 2084,
      "è§Ī": 2085,
      "å®ŀçİ°": 2086,
      "æĸ¹æ³ķ": 2087,
      "ç¸º": 2088,
      "é¢Ĩå¯¼": 2089,
      "æĶ¯æĮģ": 2090,
      "ĠçľŁéĴ±": 2091,
      "å¼Ģå±ķ": 2092,
      "å¿«éĢŁ": 2093,
      "ç»Ŀ": 2094,
      "Ġå½©ç¥ŀäºīéľ¸": 2095,
      "ä¸Ĭä¸Ģç¯ĩ": 2096,
      "éĿŀå¸¸": 2097,
      "',": 2098,
      "æºª": 2099,
      "çĭ¬": 2100,
      "il": 2101,
      "åĢį": 2102,
      "çĽĽ": 2103,
      "æĺ¯ä»Ģä¹Ī": 2104,
      "å¥¥": 2105,
      "æ¡¥": 2106,
      "ä¹łè¿ĳå¹³": 2107,
      "éĽª": 2108,
      "ç¨İ": 2109,
      "åľ°åĮº": 2110,
      "ç´§": 2111,
      "å¾Į": 2112,
      "åĪļ": 2113,
      "im": 2114,
      "ĠQ": 2115,
      "æĺ¯ä¸Ģ": 2116,
      "77": 2117,
      "od": 2118,
      "SHI": 2119,
      "æįķ": 2120,
      "éĬĢ": 2121,
      "Ġä¸ľ": 2122,
      "èħ¾è®¯": 2123,
      "ç¬¬äºĮ": 2124,
      "éĻĦ": 2125,
      "DI": 2126,
      "éĶĻ": 2127,
      "æĭ©": 2128,
      "æ»ļçĲĥ": 2129,
      "è¯Ħè®º": 2130,
      "è°¢": 2131,
      "å°ıæĹ¶": 2132,
      "çİ©æ³ķ": 2133,
      "ä¸ĬçļĦ": 2134,
      "HU": 2135,
      "33": 2136,
      "ç»¿": 2137,
      "çİ°éĩĳç½ĳ": 2138,
      "000": 2139,
      "è´¸": 2140,
      "çĭĹ": 2141,
      "éĺħè¯»": 2142,
      "çİ¯å¢ĥ": 2143,
      "éĸĵ": 2144,
      "åģ¥åº·": 2145,
      "ä¼ĳ": 2146,
      "èĩªå·±çļĦ": 2147,
      "èįī": 2148,
      "å¾ģ": 2149,
      "å¾®ä¿¡": 2150,
      "å©ļ": 2151,
      "âĢĶâĢĶ": 2152,
      "Ġæ¸": 2153,
      "OU": 2154,
      "èĥĮ": 2155,
      "åľ³": 2156,
      "æĿ¥çļĦ": 2157,
      "æĿ¯": 2158,
      "Ġä¸ĩåįļ": 2159,
      "âĢĿãĢĳãĢĲ": 2160,
      "å®ĺç½ĳä¸ĭè½½": 2161,
      "ay": 2162,
      "èµĮåľº": 2163,
      "åħ¨çĲĥ": 2164,
      "çī¹èī²": 2165,
      "éĽ¨": 2166,
      "ç¤¼": 2167,
      "æĹ¶ä»£": 2168,
      "å·®": 2169,
      "ĠZ": 2170,
      "Ġå¹¿": 2171,
      "æłĳ": 2172,
      "æµ£": 2173,
      "éļľ": 2174,
      "è´£ä»»": 2175,
      "çŃĳ": 2176,
      "éģİ": 2177,
      "and": 2178,
      "å«": 2179,
      "ä¸ĢæŃ¥": 2180,
      "åĢŁæ¬¾": 2181,
      "ä¼Ĭ": 2182,
      "å¸ģ": 2183,
      "çŃĶ": 2184,
      "åĨ·": 2185,
      "å¡Ķ": 2186,
      "ab": 2187,
      "ct": 2188,
      "åĨħå®¹": 2189,
      "éĳ": 2190,
      "åĭĻ": 2191,
      "ĠX": 2192,
      "åĶĲ": 2193,
      "100": 2194,
      "å½±åĵį": 2195,
      "éķ¿é¾Ļ": 2196,
      "çĬ¶": 2197,
      "æĸĩç«ł": 2198,
      "è°±": 2199,
      "é²ģ": 2200,
      "åºŃ": 2201,
      "çļĦæĺ¯": 2202,
      "om": 2203,
      "æ¢¦": 2204,
      "åĲ¯": 2205,
      "éĵ¶è¡Į": 2206,
      "å¤©åłĤ": 2207,
      "ä¼¼": 2208,
      "èĻ½": 2209,
      "EN": 2210,
      "é¢Ħæµĭ": 2211,
      "ï¼ģâĢĿ": 2212,
      "éĽħ": 2213,
      "èĴĻ": 2214,
      "åŃ©åŃĲ": 2215,
      "ä¸ĭä¸Ģç¯ĩ": 2216,
      "æĿ©": 2217,
      "éĢĤ": 2218,
      "åıĳçİ°": 2219,
      "çģµ": 2220,
      "ä¿Ħ": 2221,
      "ENG": 2222,
      "est": 2223,
      "å¹ķ": 2224,
      "æŃ£åľ¨": 2225,
      "åĽ°": 2226,
      "Ġå®ī": 2227,
      "åįķä½į": 2228,
      "åħ¨éĿ¢": 2229,
      "ä¸ªäºº": 2230,
      "èĶ": 2231,
      "çł´è§£": 2232,
      "op": 2233,
      "åįģåĪĨ": 2234,
      "è¡¥": 2235,
      "html": 2236,
      "åĵ¥": 2237,
      "æİĴåĪĹ": 2238,
      "è½®": 2239,
      "èĽĭ": 2240,
      "çļ®": 2241,
      "ä»Ĭå¤©": 2242,
      "äºĨè§£": 2243,
      "è´¨éĩı": 2244,
      "å§Ķåĳĺ": 2245,
      "åı¦": 2246,
      "èĪĩ": 2247,
      "åĩ¤": 2248,
      "å½Ĵ": 2249,
      "å°į": 2250,
      "éĦ": 2251,
      "æĿ±": 2252,
      "Ġæ±Ł": 2253,
      "äº¤éĢļ": 2254,
      "æľĹ": 2255,
      "çļĩåĨł": 2256,
      "å¸ĮæľĽ": 2257,
      "å·ŀå¸Ĥ": 2258,
      "æĽ´å¤ļ": 2259,
      "çĸĳ": 2260,
      "åĢĳ": 2261,
      "å°¼æĸ¯": 2262,
      "çĥĪ": 2263,
      "45": 2264,
      "Ġv": 2265,
      "çĪ¶": 2266,
      "ä¸ĢäºĽ": 2267,
      "31": 2268,
      "è®¢": 2269,
      "åı¬": 2270,
      "æĬĵ": 2271,
      "èįĲ": 2272,
      "åįł": 2273,
      "æľºæŀĦ": 2274,
      "æ´ŀ": 2275,
      "æĿŁ": 2276,
      "åºı": 2277,
      "»¿": 2278,
      "éĽ¶": 2279,
      "æİ¢": 2280,
      "éļĨ": 2281,
      "åħ¶ä¸Ń": 2282,
      "çĿ£": 2283,
      "çĶĺ": 2284,
      "éĬĨ": 2285,
      "éĬĢè¡Į": 2286,
      "æĶ¿çŃĸ": 2287,
      "æ³ī": 2288,
      "ä»ĭç»į": 2289,
      "å®ĺæĸ¹ä¸ĭè½½": 2290,
      "ï»¿": 2291,
      "æĻºèĥ½": 2292,
      "èĪ¬": 2293,
      "æĪĳçļĦ": 2294,
      "ĠçĻ¾å®¶": 2295,
      "ä»ª": 2296,
      "è°ģ": 2297,
      "ç»¼": 2298,
      "éĢīæĭ©": 2299,
      "Ġ}": 2300,
      ":'": 2301,
      "ä¿ĥ": 2302,
      "è¿Ŀ": 2303,
      "æľĭ": 2304,
      "Ġä¸Ģ": 2305,
      "cåĽ½éĻħ": 2306,
      "èĥ½åĬĽ": 2307,
      "ĠæŃ£": 2308,
      "è¿Ľåħ¥": 2309,
      "æ§": 2310,
      "ĠæĹ¥": 2311,
      "ur": 2312,
      "å¼Ģåıĳ": 2313,
      "èĪ¹": 2314,
      "çı¾": 2315,
      "æĭ¬": 2316,
      "YI": 2317,
      "ä¼¤": 2318,
      "48": 2319,
      "è·ĳ": 2320,
      "è¿ĺæľī": 2321,
      "åĽ¾çīĩ": 2322,
      "è¯Ģ": 2323,
      "æ¾³": 2324,
      "ćï¼Į": 2325,
      "Ġè¥¿": 2326,
      "----": 2327,
      "å¸Ŀ": 2328,
      "å¨±ä¹Ĳåľº": 2329,
      "åħ³ç³»": 2330,
      "åĩı": 2331,
      "å®ĮæĪĲ": 2332,
      "æ¿Ģ": 2333,
      "çĶµè§Ĩ": 2334,
      "å¤ĩçĶ¨ç½ĳåĿĢ": 2335,
      "em": 2336,
      "å¯¹äºİ": 2337,
      "ä¸¹": 2338,
      "åľ°æĸ¹": 2339,
      "åĽº": 2340,
      "ç°": 2341,
      "åĳ¢": 2342,
      "éĢı": 2343,
      "æ´ĭ": 2344,
      "å®ĺç½ĳçĻ»å½ķ": 2345,
      "å®īåįĵçīĪ": 2346,
      "éĻµ": 2347,
      "Ġ=": 2348,
      "èĢģçīĮ": 2349,
      "è¿Ļä¸Ģ": 2350,
      "éº»": 2351,
      "ç¶ĵ": 2352,
      "ç»ĥ": 2353,
      "æŀ¶": 2354,
      "ĀĀ": 2355,
      "æī¹åıĳ": 2356,
      "æĶ¿æ²»": 2357,
      "çĶ²": 2358,
      "ä¸įåĲĮ": 2359,
      "Ġä¸ī": 2360,
      "åĳ¼": 2361,
      "DU": 2362,
      "èģĶç³»": 2363,
      "éĩĳèŀį": 2364,
      "éĿĴå¹´": 2365,
      "ĠãĢĳãĢĲ": 2366,
      "çĸĹ": 2367,
      "æ¯ķ": 2368,
      "èĦ±": 2369,
      "æ±ł": 2370,
      "å¨±ä¹Ĳå¹³åı°": 2371,
      "èĮ¶": 2372,
      "Ġé«ĺ": 2373,
      "å¨ģå°¼æĸ¯": 2374,
      "è¸": 2375,
      "ä¹İ": 2376,
      "æĶ¹éĿ©": 2377,
      "åıĳçĶŁ": 2378,
      "æıĲæ¬¾": 2379,
      "EI": 2380,
      "é¡¶": 2381,
      "ç´Ŀ": 2382,
      "ä½ĵèĤ²app": 2383,
      "è¹": 2384,
      ").": 2385,
      "ãĢĳãĢĲï¼ļãĢĳãĢĲâĢľãĢĳãĢĲ": 2386,
      "åªĴä½ĵ": 2387,
      "PK": 2388,
      "å¥½è¿Ĳ": 2389,
      "55": 2390,
      "å®¿": 2391,
      "äººçĶŁ": 2392,
      "ä¸Ģèµ·": 2393,
      "æ£®": 2394,
      "ç³»åĪĹ": 2395,
      "è³ĩ": 2396,
      "åĲ¸": 2397,
      "éĶĢåĶ®": 2398,
      "çĶ¨æĪ·": 2399,
      "å·¨": 2400,
      "ä¹ĭåĲİ": 2401,
      "ç§ĺ": 2402,
      "æİĪ": 2403,
      "2015": 2404,
      "äººæīį": 2405,
      "æłĩåĩĨ": 2406,
      "Ġå¹³": 2407,
      "ï¼ŁâĢĿ": 2408,
      "Ġæ¾³éĹ¨ç½ĳæĬķ": 2409,
      "æ´Ĺ": 2410,
      "ä¸įæĸŃ": 2411,
      "TI": 2412,
      "ĈąĆą": 2413,
      "çĪĨ": 2414,
      "WR": 2415,
      "å¯¼èĪª": 2416,
      "ä»į": 2417,
      "é¡»": 2418,
      "if": 2419,
      "èµµ": 2420,
      "ąą": 2421,
      "åı¥": 2422,
      "ç«¥": 2423,
      "çľĭåĪ°": 2424,
      "49": 2425,
      "Ġå°ı": 2426,
      "æµª": 2427,
      "åı«": 2428,
      "æİ¨èįĲ": 2429,
      "Ġäºļæ¸¸éĽĨåĽ¢": 2430,
      "è¿°": 2431,
      "Ġ{": 2432,
      "å§Ĳ": 2433,
      "ä¸Ŀ": 2434,
      "ĠæĿ¥æºĲ": 2435,
      "çĮ®": 2436,
      "åĮħæĭ¬": 2437,
      "æī¶": 2438,
      "è§Ĥçľĭ": 2439,
      "å¾Ĳ": 2440,
      "åŃĻ": 2441,
      "ä¼Ł": 2442,
      "ol": 2443,
      "æ¶ī": 2444,
      "èĥ½å¤Ł": 2445,
      "us": 2446,
      "æıĲåįĩ": 2447,
      "èĭ¹æŀľçīĪ": 2448,
      "è®¤ä¸º": 2449,
      "è°·": 2450,
      "ä¼´": 2451,
      "ä¸ļåĬ¡": 2452,
      "åł´": 2453,
      "æĲľ": 2454,
      "ĠæĻ": 2455,
      "ç¦ģ": 2456,
      "ä¸Ģå®ļ": 2457,
      "èĪŀ": 2458,
      "åĿĹ": 2459,
      "éĵ¾æİ¥": 2460,
      "çĻ»éĻĨ": 2461,
      "æ¯ĶåĪĨ": 2462,
      "Ġ20": 2463,
      "åı°æ¹¾": 2464,
      "å®ĩ": 2465,
      "éľ²": 2466,
      "LE": 2467,
      "æģ©": 2468,
      "ĈĆćą": 2469,
      "ĈĆć": 2470,
      "æĪĲåĬŁ": 2471,
      "åĵªä¸ª": 2472,
      "è¾ħ": 2473,
      "é²ľ": 2474,
      "LC": 2475,
      "å¹´çļĦ": 2476,
      "æ¬¢ä¹Ĳ": 2477,
      "å¤©å¤©æ°Ķ": 2478,
      "èīºæľ¯": 2479,
      "åĢŁéĮ¢": 2480,
      "åĿĲ": 2481,
      "ç»©": 2482,
      "æİ¨è¿Ľ": 2483,
      "éŀ": 2484,
      "å±±ä¸ľ": 2485,
      "èĵĿ": 2486,
      "ç¹Ŀ": 2487,
      "å±ı": 2488,
      "æľĭåıĭ": 2489,
      "ç½ª": 2490,
      "è¿Ļæĺ¯": 2491,
      "58": 2492,
      "ĠccåĽ½éĻħ": 2493,
      "ä¸ĢçĽ´": 2494,
      "é¡¾": 2495,
      "nt": 2496,
      "Ġå¤§åıĳå¿«": 2497,
      "44": 2498,
      "ä»ģ": 2499,
      "åĲķ": 2500,
      "ä¸»å¸Ń": 2501,
      "åıĤåĬł": 2502,
      "éĩİ": 2503,
      "Ġæ°¸": 2504,
      "Ġçİ¯äºļag": 2505,
      "æ¶Īè´¹": 2506,
      "æ¯Ľ": 2507,
      "ç¡Ģ": 2508,
      "æĢĢ": 2509,
      "çĻ»åħ¥": 2510,
      "Ġå¹¸è¿Ĳ": 2511,
      "åĪĨåĪĨå½©": 2512,
      "åĪ·": 2513,
      "èģĶç½ĳ": 2514,
      "åĽ½åĨħ": 2515,
      "è¾ĳ": 2516,
      "æĬ¥éģĵ": 2517,
      "èĨ": 2518,
      "(\"": 2519,
      "å®¶ä¹Ĳ": 2520,
      "Ġæ·": 2521,
      "è§£åĨ³": 2522,
      "è±ª": 2523,
      "ãĥ»": 2524,
      "èµļéĴ±": 2525,
      "æĹ§": 2526,
      "37": 2527,
      "çĭĤ": 2528,
      "æ¶Ķ": 2529,
      "å¹²éĥ¨": 2530,
      "è¿ª": 2531,
      "åĩºçİ°": 2532,
      "çĶļ": 2533,
      "ä»ĸçļĦ": 2534,
      "åŁºæľ¬": 2535,
      "è¾Ĩ": 2536,
      "å¼Ĥ": 2537,
      "é¡į": 2538,
      "æıĲé«ĺ": 2539,
      "å®«": 2540,
      "ç¿»": 2541,
      "æ¦ľ": 2542,
      "åĵªéĩĮ": 2543,
      "éĥĳ": 2544,
      "ĈĆą": 2545,
      "ä¼¦": 2546,
      "å¨±ä¹Ĳå®ĺç½ĳ": 2547,
      "âĹ": 2548,
      "å»ºçŃĳ": 2549,
      "éĶ®": 2550,
      "æµ©": 2551,
      "åĪ¸": 2552,
      "Ġç¦": 2553,
      "èµĮéĴ±æ¸¸æĪı": 2554,
      "åĪ¤": 2555,
      "å®¢æľį": 2556,
      "é»ŀ": 2557,
      "å°Ħ": 2558,
      "åŁºç¡Ģ": 2559,
      "ĆĆ": 2560,
      "åħ³æ³¨": 2561,
      "BU": 2562,
      "ç©¿": 2563,
      "å®Ĺ": 2564,
      "å½ĵåīį": 2565,
      "æī¬": 2566,
      "æİª": 2567,
      "Ġï¿½": 2568,
      "æł¹æį®": 2569,
      "åĬłå¼º": 2570,
      "çİĦ": 2571,
      "ĠåĮĹäº¬èµĽè½¦": 2572,
      "å§ĵ": 2573,
      "çĳŀ": 2574,
      "46": 2575,
      "åħ¥åı£": 2576,
      "ew": 2577,
      "éªŀ": 2578,
      "éĶĭ": 2579,
      "ç»¼åĲĪ": 2580,
      "Ġéķ¿": 2581,
      "èµ·æĿ¥": 2582,
      "è®°å½ķ": 2583,
      "çľŁå®ŀ": 2584,
      "éĿłè°±": 2585,
      "Ġh": 2586,
      "åĨ°": 2587,
      "ZS": 2588,
      "åĥ¹": 2589,
      "è·¨": 2590,
      "âĶ": 2591,
      "åĬ³": 2592,
      "éķ·": 2593,
      "éªĹå±Ģ": 2594,
      "ĠæĹ©é¤Ĳ": 2595,
      "æļ´": 2596,
      "ow": 2597,
      "Ġåįļ": 2598,
      "è¨Ń": 2599,
      "å¤ĦçĲĨ": 2600,
      "çŀ": 2601,
      "æľīåħ³": 2602,
      "RC": 2603,
      "çĶ¢": 2604,
      "æįķé±¼": 2605,
      "åĩ¡": 2606,
      "ä¸įä¼ļ": 2607,
      "åħ¨éĥ¨": 2608,
      "åķĬ": 2609,
      "æīĭæľºå®¢æĪ·ç«¯": 2610,
      "è·Ŀ": 2611,
      "æĥĬ": 2612,
      "éĿĻ": 2613,
      "çį": 2614,
      "é¬": 2615,
      "è´Łè´£": 2616,
      "Ġæľī": 2617,
      "è¯ļ": 2618,
      "ç¼ģ": 2619,
      "ç»§ç»Ń": 2620,
      "åĲ«": 2621,
      "è¿ĻéĩĮ": 2622,
      "åĬŀåħ¬": 2623,
      "æĬĹ": 2624,
      "æīĭæľºçīĪä¸ĭè½½": 2625,
      "å¼¹": 2626,
      "æ¨¡å¼ı": 2627,
      "æĸ¹æ¡Ī": 2628,
      "39": 2629,
      "**": 2630,
      "åħ±åĲĮ": 2631,
      "ç»´ä¿®": 2632,
      "æ¯ĶèµĽ": 2633,
      "ĆĈąć": 2634,
      "ç§ģ": 2635,
      "æ¯Ĵ": 2636,
      "æİ¨åĬ¨": 2637,
      "ä¿¡çĶ¨": 2638,
      "ĠæŃ¦": 2639,
      "ç«Ł": 2640,
      "æĮ¥": 2641,
      "of": 2642,
      "å®ŀæĸ½": 2643,
      "å¾½": 2644,
      "æĺ¯çľŁçļĦ": 2645,
      "æ¢°": 2646,
      "ight": 2647,
      "çĽ´æİ¥": 2648,
      "è³¼": 2649,
      "Ġæ¾³éĹ¨å¹³åı°": 2650,
      "èİ·å¾Ĺ": 2651,
      "æ·±åľ³": 2652,
      "æ¢ħ": 2653,
      "èı²": 2654,
      "æĭ¥": 2655,
      "éĢ²": 2656,
      "Ġåĩ¯åıĳå®ĺç½ĳ": 2657,
      "èģĶåĲĪ": 2658,
      "åŁºéĩĳ": 2659,
      "éĶģ": 2660,
      "è´¥": 2661,
      "Ł³": 2662,
      "ä¿ĿæĬ¤": 2663,
      "ãĪ": 2664,
      "ç¬Ķ": 2665,
      "åĢĴ": 2666,
      "çĻ¾å®¶å®¶ä¹Ĳ": 2667,
      "åĮ»éĻ¢": 2668,
      "âĨ": 2669,
      "ĠçľŁäººæ¸¸æĪı": 2670,
      "AG": 2671,
      "åĲĽ": 2672,
      "Ġç½ĳä¸Ĭ": 2673,
      "ä»Ļ": 2674,
      "ç»ĵæĿŁ": 2675,
      "èĤī": 2676,
      "æ¬¢è¿İ": 2677,
      "æĬ¥åĳĬ": 2678,
      "åı¶": 2679,
      "log": 2680,
      "çī©æµģ": 2681,
      "å·¥ä¸ļ": 2682,
      "é©¾": 2683,
      "éĹľ": 2684,
      "ll": 2685,
      "th": 2686,
      "ä¸»ä»»": 2687,
      "éĤ£ä¹Ī": 2688,
      "æľªæĿ¥": 2689,
      "èĤĥ": 2690,
      "ä»¥ä¸Ĭ": 2691,
      "å¢ŀéķ¿": 2692,
      "ä¸Ńæĸĩ": 2693,
      "åĵ¡": 2694,
      "ER": 2695,
      "èĢĥè¯ķ": 2696,
      "ä¸ºäºĨ": 2697,
      "Ġhttp": 2698,
      "ia": 2699,
      "47": 2700,
      "çĶµèĦĳ": 2701,
      "èİ±": 2702,
      "ç§ĳåŃ¦": 2703,
      "èµ¶": 2704,
      "æŃĮè¯į": 2705,
      "å²Ĺ": 2706,
      "ä¸ĩåħĥ": 2707,
      "QI": 2708,
      "UAN": 2709,
      "è¿Ľä¸ĢæŃ¥": 2710,
      "è´´": 2711,
      "åħ¨å¤©": 2712,
      "ET": 2713,
      "ï¿½ï¿½ï¿½ï¿½ï¿½ï¿½ï¿½": 2714,
      "å¯¦": 2715,
      "ç²ī": 2716,
      "é«Ķ": 2717,
      "Ġ$": 2718,
      "æ³¨åĨĮéĢģ": 2719,
      "æ¼«": 2720,
      "ä¸įè¿ĩ": 2721,
      "Ġäºļç¾İam": 2722,
      "åĬª": 2723,
      "ä¹±": 2724,
      "è´·": 2725,
      "çķ¶": 2726,
      "ç½²": 2727,
      "ä¸»ä¹ī": 2728,
      "çĽĸ": 2729,
      "åİĤå®¶": 2730,
      "æīĭæľºapp": 2731,
      "ä¿Ŀéļľ": 2732,
      "ç¥ĸ": 2733,
      "Ġä¸´": 2734,
      "çıł": 2735,
      "é¢ĨåŁŁ": 2736,
      "ç§¯æŀģ": 2737,
      "èĲ½å®ŀ": 2738,
      "ä¼ĺæĥł": 2739,
      "çĬ¯": 2740,
      "æ¶Īæģ¯": 2741,
      "è¯Ĺ": 2742,
      "èĳ£": 2743,
      "ãĢĤï¼Į": 2744,
      "éĩįçĤ¹": 2745,
      "ç§¦": 2746,
      "ç¾¤ä¼Ĺ": 2747,
      "ä¼Ļ": 2748,
      "è¿Ļç§į": 2749,
      "èĻ½çĦ¶": 2750,
      "æĭĽåķĨ": 2751,
      "ãĢģãĢĳãĢĲ": 2752,
      "èİ«": 2753,
      "34": 2754,
      "æ´Ľ": 2755,
      "æĿŃ": 2756,
      "åħŃåĲĪ": 2757,
      "Ġæ¾³éĹ¨çľŁéĴ±": 2758,
      "æİĴåĲį": 2759,
      "çĶ³è¯·": 2760,
      "å½©ç¥¨å¹³åı°": 2761,
      "ä¸ĢçĤ¹": 2762,
      "çļĦæĹ¶åĢĻ": 2763,
      "æĳĦ": 2764,
      "æıĲåĩº": 2765,
      "ä¹ĥ": 2766,
      "ãĢĳãĢĲãĢģãĢĳãĢĲ": 2767,
      "æİĴè¡Į": 2768,
      "sh": 2769,
      "ä¸¾è¡Į": 2770,
      "è¯º": 2771,
      "918": 2772,
      "åľ£": 2773,
      "ç¬¬ä¸ī": 2774,
      "è¾½": 2775,
      "å½©éĩĳ": 2776,
      "éľĩ": 2777,
      "æľĢé«ĺ": 2778,
      "ç»ıçĲĨ": 2779,
      "å¡ŀ": 2780,
      "Ġåīį": 2781,
      "åħ¬éĩĮ": 2782,
      "Ġæ¹": 2783,
      "åħĪçĶŁ": 2784,
      "UN": 2785,
      "çĸ«æĥħ": 2786,
      "ç§ĭ": 2787,
      "ong": 2788,
      "åĪĨé£ŀèīĩ": 2789,
      "èªª": 2790,
      "åĴĮåĢ¼": 2791,
      "äºĴèģĶç½ĳ": 2792,
      "è¤": 2793,
      "æİ§åĪ¶": 2794,
      "çĸĨ": 2795,
      "åľĪ": 2796,
      "è¿Ķ": 2797,
      "Ġåı°": 2798,
      "åħ§": 2799,
      "ex": 2800,
      "æ¢ģ": 2801,
      "æľĢåĲİ": 2802,
      "æĽ¹": 2803,
      "åºĶçĶ¨": 2804,
      "è¿ĩç¨ĭ": 2805,
      "ä¹ĺ": 2806,
      "ĠçĶµçİ©åŁİ": 2807,
      "æ¥ļ": 2808,
      "åŃĶ": 2809,
      "æĬĺ": 2810,
      "80": 2811,
      "äº¿åħĥ": 2812,
      "åĵªäºĽ": 2813,
      "ä¸ĵå®¶": 2814,
      "çī¹åĪ«": 2815,
      "æĹłæ³ķ": 2816,
      "åį±": 2817,
      "ä¸»é¢ĺ": 2818,
      "èĢĮä¸Ķ": 2819,
      "ä¸įåĪ°": 2820,
      "æķ£": 2821,
      "æ¶¨": 2822,
      "èĭ¦": 2823,
      "cc": 2824,
      "æīİ": 2825,
      "å¼Ł": 2826,
      "Ļæ±Ł": 2827,
      "åĽĽå·Ŀ": 2828,
      "57": 2829,
      "zh": 2830,
      "åĦª": 2831,
      "å»ºç«ĭ": 2832,
      "çģı": 2833,
      "agæĹĹèĪ°åİħ": 2834,
      "éĢĴ": 2835,
      "èĩªçĦ¶": 2836,
      "èĳ¡äº¬": 2837,
      "ç¨¿": 2838,
      "Ġéĺ¿": 2839,
      "è¿·": 2840,
      "æĺ¾ç¤º": 2841,
      "éĺµ": 2842,
      "èĲ¨": 2843,
      "ä¸ºä»Ģä¹Ī": 2844,
      "åĭĴ": 2845,
      "éĤĦ": 2846,
      "è¯¸": 2847,
      "è¨Ī": 2848,
      "é¥®": 2849,
      "åıªæľī": 2850,
      "å¿ĺ": 2851,
      "é¥°": 2852,
      "Ġå°Ĭé¾Ļd": 2853,
      "è°ĥæŁ¥": 2854,
      "èĤ¥": 2855,
      "å¤§åıĳå½©ç¥ŀ": 2856,
      "Ġ[": 2857,
      "åĭĩ": 2858,
      "åĿļæĮģ": 2859,
      "ä¸Ńåįİ": 2860,
      "ãĦ¥": 2861,
      "ä¸Ģæ¬¡": 2862,
      "åºĬ": 2863,
      "åīĳ": 2864,
      "....": 2865,
      "Ġæµ·": 2866,
      "ĠäºĶ": 2867,
      "è®¨": 2868,
      "æ°´å¹³": 2869,
      "æ³½": 2870,
      "iv": 2871,
      "èĦ¸": 2872,
      "ç¹§": 2873,
      "æ¤į": 2874,
      "åıªæĺ¯": 2875,
      "èĢģå¸Ī": 2876,
      "æīĭæľºçĻ»å½ķ": 2877,
      "èŃī": 2878,
      "å¹ħ": 2879,
      "ub": 2880,
      "æĽ¸": 2881,
      "Ġ\"": 2882,
      "ZW": 2883,
      "éŃĶ": 2884,
      "çģ¯": 2885,
      "ios": 2886,
      "çļĦå¤§": 2887,
      "ment": 2888,
      "å¦Ī": 2889,
      "çĶŁæĢģ": 2890,
      "åĬ±": 2891,
      "Ġn": 2892,
      "Ġèħ¾è®¯": 2893,
      "æħ¢": 2894,
      "è´Ŀ": 2895,
      "æĮģç»Ń": 2896,
      "æ´ª": 2897,
      "éľĢæ±Ĥ": 2898,
      "åĪ¶éĢł": 2899,
      "ĠæĹ©çĤ¹": 2900,
      "èĥ¡": 2901,
      "å®£ä¼ł": 2902,
      "ĠæĢ": 2903,
      "åºĶè¯¥": 2904,
      "æĹ¢": 2905,
      "èĦļ": 2906,
      "åĪĨäº«": 2907,
      "ä»»ä½ķ": 2908,
      "TA": 2909,
      "Ġwww": 2910,
      "çĥŁ": 2911,
      "è±¹": 2912,
      "èģĮä¸ļ": 2913,
      "ä¼¯": 2914,
      "PS": 2915,
      "59": 2916,
      "äºĪ": 2917,
      "è¯¦": 2918,
      "åŃĺåľ¨": 2919,
      "ä¸įäºĨ": 2920,
      "Ġy": 2921,
      "åĵĦ": 2922,
      "ä½łçļĦ": 2923,
      "çº·": 2924,
      "æĢķ": 2925,
      "Ġç¦ı": 2926,
      "Ġåĩ¯åıĳä½ĵèĤ²": 2927,
      "æĸ°çļĦ": 2928,
      "ä¸»ç®¡": 2929,
      "äº¡": 2930,
      "éĢĲ": 2931,
      "æĪĸèĢħ": 2932,
      "æĢİä¹Īæł·": 2933,
      "æĿĲæĸĻ": 2934,
      "å©Ĩ": 2935,
      "70": 2936,
      "å¹¿ä¸ľ": 2937,
      "YX": 2938,
      "ç»ıèĲ¥": 2939,
      "éĤ¦": 2940,
      "çº¸": 2941,
      "ç¤¾åĮº": 2942,
      "è§Ħå®ļ": 2943,
      "HE": 2944,
      "æ±Łèĭı": 2945,
      "åł±": 2946,
      "æŁĵ": 2947,
      "æ°ĳæĹı": 2948,
      "åįģä¸Ģ": 2949,
      "çĻ¾åº¦": 2950,
      "æįŁ": 2951,
      "æĪĲç«ĭ": 2952,
      "æĪĳåĽ½": 2953,
      "ä¼łç»Ł": 2954,
      "Ġæ´": 2955,
      "å¨ģå°¼æĸ¯äºº": 2956,
      "ç²¾åĩĨ": 2957,
      "500": 2958,
      "ç«¹": 2959,
      "æĢĿæĥ³": 2960,
      "åĬªåĬĽ": 2961,
      "Ġ:": 2962,
      "çŁ¥è¯Ĩ": 2963,
      "èĥİ": 2964,
      "æĺ¯çľŁçļĦåĲĹ": 2965,
      "è¡ĮåĬ¨": 2966,
      "å´ĩ": 2967,
      "FU": 2968,
      "çĴģ": 2969,
      "Ġthe": 2970,
      "åħ³éĶ®": 2971,
      "åĶ¯": 2972,
      "ä¸Ģæł·": 2973,
      "åķĨåĵģ": 2974,
      "éģŃ": 2975,
      "åĪ©çĶ¨": 2976,
      "åĪ¶åº¦": 2977,
      "èĩªåĬ¨": 2978,
      "èµĮåįļ": 2979,
      "CI": 2980,
      "éĢĶ": 2981,
      "æŃ£å¼ı": 2982,
      "av": 2983,
      "ä»¥æĿ¥": 2984,
      "ä¸¤ä¸ª": 2985,
      "åĪĢ": 2986,
      "å°ĩ": 2987,
      "æĪĺçķ¥": 2988,
      "æµ¼": 2989,
      "å¤©æ°Ķ": 2990,
      "çĨŁ": 2991,
      "åĶ±": 2992,
      "åĴ¨": 2993,
      "ä½ľçĶ¨": 2994,
      "å¹¿å·ŀ": 2995,
      "æĪĲéĥ½": 2996,
      "èĲ¬": 2997,
      "æĳ©": 2998,
      "å°Ī": 2999,
      "å¥ĭ": 3000,
      "èĩªæ²»": 3001,
      "32": 3002,
      "Ġä¸Ĭæµ·": 3003,
      "æĺ¯åĲ¦": 3004,
      "çĽĪ": 3005,
      "æłĩé¢ĺ": 3006,
      "ä¸ĩåįļ": 3007,
      "é»İ": 3008,
      "UO": 3009,
      "ç¼º": 3010,
      "IN": 3011,
      "çĴĩ": 3012,
      "è¶£": 3013,
      "éĴĪ": 3014,
      "å½»": 3015,
      "èĢ³": 3016,
      "æĮĳ": 3017,
      "è´¡": 3018,
      "èµĦéĩĳ": 3019,
      "åıĳå¸ĥæĹ¶éĹ´": 3020,
      "çĽ®æłĩ": 3021,
      "å°ıé¡į": 3022,
      "sp": 3023,
      "æı´": 3024,
      "BO": 3025,
      "åħ¬äº¤": 3026,
      "ä¿ĿéĻ©": 3027,
      "å§Ķåĳĺä¼ļ": 3028,
      "åĪ©çİĩ": 3029,
      "çļĦäºĭ": 3030,
      "Ġé¾Ļ": 3031,
      "ä¾¯": 3032,
      "å¯»": 3033,
      "æķĻå¸Ī": 3034,
      "åĩĢ": 3035,
      "å¤ªéĺ³": 3036,
      "60": 3037,
      "æ±¡": 3038,
      "å½ĵåľ°": 3039,
      "ä½ĵéªĮ": 3040,
      "ąĆĈć": 3041,
      "Ġ918": 3042,
      "ZG": 3043,
      "ĠçŁ³": 3044,
      "ĠâĢľ": 3045,
      "ç§ĴéĢŁ": 3046,
      "åĬŁèĥ½": 3047,
      "æķ¢": 3048,
      "Ġå®ģ": 3049,
      "çĦ¡": 3050,
      "æŁ¥è¯¢": 3051,
      "æīįèĥ½": 3052,
      "åīµ": 3053,
      "ç¯®": 3054,
      "ćą": 3055,
      "æīĵéĢł": 3056,
      "Ġå¤§åıĳå½©ç¥ŀ": 3057,
      "èĭĹ": 3058,
      "FA": 3059,
      "æħ§": 3060,
      "é¼ĵ": 3061,
      "çªĹ": 3062,
      "æķħäºĭ": 3063,
      "èµŀ": 3064,
      "âĢĻ": 3065,
      "å¸®åĬ©": 3066,
      "æİĮ": 3067,
      "ä¹Łä¸į": 3068,
      "çĶ±äºİ": 3069,
      "æĿ¥èĩª": 3070,
      "ç½Ĺæĸ¯": 3071,
      "æ¯Ķè¾ĥ": 3072,
      "æĸ°åįİ": 3073,
      "ĈãĢĤ": 3074,
      "Ġäºļæ´²": 3075,
      "ĠæĹ¥åįļ": 3076,
      "æģĴ": 3077,
      "å²¸": 3078,
      "æ½®": 3079,
      "\":": 3080,
      "é¸¡": 3081,
      "å®¶åºŃ": 3082,
      "ç¾İåħĥ": 3083,
      "90": 3084,
      "ï¼Įï¿½": 3085,
      "åĸľæ¬¢": 3086,
      "Ġåīįå¤©": 3087,
      "åıĤä¸İ": 3088,
      "FM": 3089,
      "æ³ķå¾ĭ": 3090,
      "ĠAG": 3091,
      "è¡¡": 3092,
      "éĸĢ": 3093,
      "çĮľ": 3094,
      "é¡¿": 3095,
      "ä¸ĢèĪ¬": 3096,
      "Ij": 3097,
      "ç¥ŀå½©": 3098,
      "PO": 3099,
      "è£ģ": 3100,
      "éģ¸": 3101,
      "Ġ11": 3102,
      "èĻ¹": 3103,
      "98": 3104,
      "æķ¸": 3105,
      "ir": 3106,
      "çĺ": 3107,
      "åįģå¤§": 3108,
      "äºĳåįĹ": 3109,
      "Ġ2018": 3110,
      "èĭ±åĽ½": 3111,
      "çīĻ": 3112,
      "åľĴ": 3113,
      "å·¡": 3114,
      "åĽłæŃ¤": 3115,
      "èĤ¯": 3116,
      "Ġä¹Ĳ": 3117,
      "Ġæ²³": 3118,
      "éĻĦè¿ĳ": 3119,
      "ä¸Ģä¸ĭ": 3120,
      "ä»»åĬ¡": 3121,
      "âĪ": 3122,
      "å¸Ĥå§Ķ": 3123,
      "è´¯": 3124,
      "ä½ľåĵģ": 3125,
      "å¤§åİħ": 3126,
      "Ġr": 3127,
      "ç·ļ": 3128,
      "è´¸æĺĵ": 3129,
      "æľīä¸Ģ": 3130,
      "åį·": 3131,
      "è¾ħåĬ©": 3132,
      "âĻĢâĻĢâĻĢâĻĢ": 3133,
      "å¿ħé¡»": 3134,
      "æ¼ıæ´ŀ": 3135,
      "åºĹåĬłçĽŁ": 3136,
      "åļ": 3137,
      "èĹī": 3138,
      "èĩº": 3139,
      "ĆãĢĤ": 3140,
      "ıè§Ī": 3141,
      "è¡ĮæĶ¿": 3142,
      "Ġåĩ¯åıĳapp": 3143,
      "åĨ¬": 3144,
      "æĢ»ä»£": 3145,
      "çļĨ": 3146,
      "LO": 3147,
      "åı¬å¼Ģ": 3148,
      "èµĦè®¯": 3149,
      "å¤©æ´¥": 3150,
      "ï¼īï¼Į": 3151,
      "è²·": 3152,
      "è¡Įä¸º": 3153,
      "éĶ¦": 3154,
      "æļĸ": 3155,
      "æ¬²": 3156,
      "æ²Ĵ": 3157,
      ".ãĢĲ": 3158,
      "éĺ¶": 3159,
      "åģļå¥½": 3160,
      "æĻĵ": 3161,
      "åĲ¾": 3162,
      "åľ¨çº¿è§Ĥçľĭ": 3163,
      "æ¦Ĥ": 3164,
      "ä¹ĭä¸Ģ": 3165,
      "ä»ĬæĹ¥": 3166,
      "ĠæĽ": 3167,
      "æģĲ": 3168,
      "æĿ¡ä»¶": 3169,
      "èĥ½æºĲ": 3170,
      "åĩºäºĨ": 3171,
      "æľīæķĪ": 3172,
      "åĪĽä¸ļ": 3173,
      "åĬĽéĩı": 3174,
      "æīĳ": 3175,
      "èĪĴ": 3176,
      "å¸«": 3177,
      "æ¡ĥ": 3178,
      "ç»ıéªĮ": 3179,
      "é¾ĻèĻİ": 3180,
      "ä¸ģ": 3181,
      "\",": 3182,
      "52": 3183,
      "çĶµçİ©": 3184,
      "æĪ¿å±ĭ": 3185,
      "æĤ£": 3186,
      "2014": 3187,
      "æ³¨æĦı": 3188,
      "æĭŁ": 3189,
      "èĤ¡ä»½": 3190,
      "æĤī": 3191,
      "æ·±åħ¥": 3192,
      "æĿ°": 3193,
      "æľºåħ³": 3194,
      "54": 3195,
      "å®¸": 3196,
      "ç¡¬": 3197,
      "åħ¬å¼Ģ": 3198,
      "æľŁéĹ´": 3199,
      "éģĹæ¼ı": 3200,
      "æĲŃ": 3201,
      "è¾¦": 3202,
      "åħ·æľī": 3203,
      "æļĹ": 3204,
      "æĸĩæĺİ": 3205,
      "éģĬ": 3206,
      "çĤ¹åĩ»": 3207,
      "one": 3208,
      "åıĸå¾Ĺ": 3209,
      "çĶ¯": 3210,
      "å½¢æĪĲ": 3211,
      "Ġæ¾³éĹ¨æ£ĭçīĮ": 3212,
      "ç´¯": 3213,
      "åħ¬å®ī": 3214,
      "çľŁæŃ£": 3215,
      "èĭ±éĽĦ": 3216,
      "ãĢĳ.ãĢĲ": 3217,
      "çĶļèĩ³": 3218,
      "ind": 3219,
      "51": 3220,
      "éŃı": 3221,
      "å¼ĢæĶ¾": 3222,
      "å¢ŀåĬł": 3223,
      "CP": 3224,
      "éĺ´": 3225,
      "VI": 3226,
      "åĴ¨è¯¢": 3227,
      "æİ¥åıĹ": 3228,
      "%ï¼Į": 3229,
      "ç¥Ŀ": 3230,
      "æĮīçħ§": 3231,
      "ĠÂ": 3232,
      "âĺ": 3233,
      "æıĴ": 3234,
      "è·º": 3235,
      "è§ĦåĪĴ": 3236,
      "è²»": 3237,
      "é£İéĻ©": 3238,
      "ä¾ĽåºĶ": 3239,
      "ĠçľŁäººçĻ¾å®¶ä¹Ĳ": 3240,
      "ĠæĲ": 3241,
      "TM": 3242,
      "ian": 3243,
      "åİļ": 3244,
      "ĠæŃ£è§Ħ": 3245,
      "Ġæ¡": 3246,
      "é©»": 3247,
      "Ġå¾·": 3248,
      "ï¿½^": 3249,
      "çİĽ": 3250,
      "ä½ĵç³»": 3251,
      "æ¢Ŀ": 3252,
      "ä¹ĭåīį": 3253,
      "uu": 3254,
      "éŁ³ä¹Ĳ": 3255,
      "é¸¿": 3256,
      "æ´ģ": 3257,
      "èĻļ": 3258,
      "æ¡£": 3259,
      "å¥Ķ": 3260,
      "å®ŀéĻħ": 3261,
      "ç¼ĸè¾ĳ": 3262,
      "ut": 3263,
      "ï¼īï¼Ī": 3264,
      "æı¡": 3265,
      "TE": 3266,
      "éĻķ": 3267,
      "åħ¼": 3268,
      "ä¸įè¦ģ": 3269,
      "å¤§ä¼ļ": 3270,
      "è±Ĩ": 3271,
      "æĢİæł·": 3272,
      "æĪª": 3273,
      "200": 3274,
      "ä¸įä»ħ": 3275,
      "ãĥ¥": 3276,
      "å¢¨": 3277,
      "æ£ĭçīĮæ¸¸æĪıå¹³åı°": 3278,
      "çĥĺ": 3279,
      "Ġçİ°éĩĳç½ĳ": 3280,
      "åİŁåĽł": 3281,
      "æĽ´åĬł": 3282,
      "è¿Ļä¹Ī": 3283,
      "è·Į": 3284,
      "è¯¯": 3285,
      "ç¿¼": 3286,
      "çľŁåģĩ": 3287,
      "Ġå·´": 3288,
      "éĹ²": 3289,
      "ä¿Ħç½Ĺæĸ¯": 3290,
      "èĸ¦": 3291,
      "æµĻæ±Ł": 3292,
      "âĢĺ": 3293,
      "æł¸å¿ĥ": 3294,
      "éĨĴ": 3295,
      "é£Łåĵģ": 3296,
      "æĭ¾": 3297,
      "åĮ»çĸĹ": 3298,
      "å¹´æĿ¥": 3299,
      "éģ¿": 3300,
      "äººå·¥": 3301,
      "é»ĺ": 3302,
      "å¿ł": 3303,
      "ç§»åĬ¨": 3304,
      "éĶĽå±": 3305,
      "æĸ¤": 3306,
      "çĤ¸": 3307,
      "æİªæĸ½": 3308,
      "æľºæ¢°": 3309,
      "ä¼ļåĳĺ": 3310,
      "è§ĦåĪĻ": 3311,
      "æ®ĳ": 3312,
      "ç¬¦": 3313,
      "åĬĽçļĦ": 3314,
      "éĻ¤äºĨ": 3315,
      "è¿ĲèĲ¥": 3316,
      "æĽ´æĸ°": 3317,
      "åľĨ": 3318,
      "æĿĤ": 3319,
      "åİ¦": 3320,
      "DM": 3321,
      "ZHI": 3322,
      "ĠçľŁäººçĻ¾å®¶å®¶ä¹Ĳ": 3323,
      "å¯¿": 3324,
      "å¬": 3325,
      "æĵįä½ľ": 3326,
      "78": 3327,
      "Ġæ¾³éĹ¨æŃ£è§Ħ": 3328,
      "æ°£": 3329,
      "å¯®": 3330,
      "åħļå§Ķ": 3331,
      "888": 3332,
      "å²Ń": 3333,
      "çİ°ä»£": 3334,
      "èķ": 3335,
      "ĠçĻ¾å®¶ä¹ĲçľŁäºº": 3336,
      "æİ¨å¹¿": 3337,
      "éĹŃ": 3338,
      "Ġ#": 3339,
      "æ²³åĮĹ": 3340,
      "Ġæ»": 3341,
      "Ġä¹Į": 3342,
      "å°¾": 3343,
      "è®¡ç®Ĺ": 3344,
      "qu": 3345,
      "éĥŃ": 3346,
      "é¥Ń": 3347,
      "éļĲ": 3348,
      "Ġçº¿ä¸ĬçľŁéĴ±": 3349,
      "å¶": 3350,
      "è¿Ĳè¾ĵ": 3351,
      "å¹¼": 3352,
      "åĩºæĿ¥": 3353,
      "pc": 3354,
      "æĬ¢": 3355,
      "ä¿¡è²¸": 3356,
      "æĦıæĢĿ": 3357,
      "Ġé»Ħ": 3358,
      "æµ¦": 3359,
      "äº¦": 3360,
      "æİī": 3361,
      "æ²ī": 3362,
      "çĵ¦": 3363,
      "tr": 3364,
      "çĢĽ": 3365,
      "äºķ": 3366,
      "çĦ¦": 3367,
      "æī©": 3368,
      "æľĢå¤§": 3369,
      "ç¨³å®ļ": 3370,
      "ç©ºéĹ´": 3371,
      "æľ«": 3372,
      "å·¥ç¨ĭå¸Ī": 3373,
      "åĲĦç§į": 3374,
      "åİŁæłĩé¢ĺ": 3375,
      "æī£": 3376,
      "ç¸ºï½": 3377,
      "åĲīæŀĹ": 3378,
      "è¿ħ": 3379,
      "TU": 3380,
      "Ġ09": 3381,
      "è¾ī": 3382,
      "Ġ16": 3383,
      "ä»¥ä¸ĭ": 3384,
      "æķ¬": 3385,
      "æľīäºĽ": 3386,
      "åĨ³å®ļ": 3387,
      "æĩī": 3388,
      "çĮ«": 3389,
      "ĈĆĈ": 3390,
      "ç½ĳåĿĢå¤§åħ¨": 3391,
      "äºĭä¸ļ": 3392,
      "ç½ĳæĬķå¹³åı°": 3393,
      "æ»ĳ": 3394,
      "um": 3395,
      "å¾ĹåĪ°": 3396,
      "Ġin": 3397,
      "çļĦå°ı": 3398,
      "è¿ĲåĬ¨": 3399,
      "æ°ı": 3400,
      "éĢļçŁ¥": 3401,
      "å¤§åıĳæĹ¶æĹ¶å½©": 3402,
      "è«ĭ": 3403,
      "53": 3404,
      "æĿ¥è¯´": 3405,
      "ä¹ĭéĹ´": 3406,
      "æª": 3407,
      "æľ±": 3408,
      "ç¥¥": 3409,
      "éĩĬ": 3410,
      "Ġå¥½è¿Ĳ": 3411,
      "é¡Į": 3412,
      "éª¨": 3413,
      "æĬµ": 3414,
      "é¬¼": 3415,
      "ãĢĳãĢĲãĢĤãĢĳãĢĲâĢĿãĢĳãĢĲ": 3416,
      "åĪĳ": 3417,
      "çĴĲ": 3418,
      "åĿĬ": 3419,
      "Ġåĩ¯åıĳæīĭæľº": 3420,
      "å¦»": 3421,
      "ç¹ģ": 3422,
      "ç¥ŀå½©äºīéľ¸": 3423,
      "ĠâĢ": 3424,
      "DO": 3425,
      "ĆĆĈï¼Į": 3426,
      "äº¤æµģç¾¤": 3427,
      "BC": 3428,
      "åıĳè¡¨": 3429,
      "åĨľä¸ļ": 3430,
      "èº«ä»½": 3431,
      "çŁ¿": 3432,
      "éŁ©åĽ½": 3433,
      "åĪĨéĴŁå¿«ä¸ī": 3434,
      "ĠäºĮ": 3435,
      "åĪĨå¿«ä¹Ĳ": 3436,
      "å§Ĩ": 3437,
      "FI": 3438,
      "Ġa": 3439,
      "nd": 3440,
      "OS": 3441,
      "ä¼°": 3442,
      "è´¦åı·": 3443,
      "DC": 3444,
      "ok": 3445,
      "ĠéĿĴ": 3446,
      "è§¦": 3447,
      "42": 3448,
      "VS": 3449,
      "åĩĨå¤ĩ": 3450,
      "43": 3451,
      "çĦ¶åĲİ": 3452,
      "å¯¨": 3453,
      "æ»¨": 3454,
      "æĭľ": 3455,
      "çģ£": 3456,
      "å¡ĳ": 3457,
      "âĦ": 3458,
      "æ¶¦": 3459,
      "å½©ç¥¨app": 3460,
      "èı¯": 3461,
      "æĿŃå·ŀ": 3462,
      "ä¸Ģè·¯": 3463,
      "ç¸£": 3464,
      "åĿ¡": 3465,
      "eng": 3466,
      "alse": 3467,
      "çĶµç«ŀ": 3468,
      "Ġ17": 3469,
      "LG": 3470,
      "åĨłåĨĽ": 3471,
      "æ¯ķä¸ļ": 3472,
      "åĪĨæİĴåĪĹ": 3473,
      "è¨ĺ": 3474,
      "éļĶ": 3475,
      "è°ĭ": 3476,
      "å«Į": 3477,
      "wi": 3478,
      "è·µ": 3479,
      "ä¸įåı¯": 3480,
      "æĽ¼": 3481,
      "æĪ´": 3482,
      "è§Ħæ¨¡": 3483,
      "VO": 3484,
      "å¯¸": 3485,
      "æ¨Ĥ": 3486,
      "å¤§åıĳå¿«": 3487,
      "åĸ®": 3488,
      "åķĨåĬ¡": 3489,
      "XG": 3490,
      "éļıçĿĢ": 3491,
      "å°¤": 3492,
      "æľīçļĦ": 3493,
      "ä¿±": 3494,
      "æ²Ł": 3495,
      "ä¸įå°ĳ": 3496,
      "å¥ī": 3497,
      "éĵľ": 3498,
      "æģ¶": 3499,
      "æĮ¯": 3500,
      "å¿Ļ": 3501,
      "æĸ¹åĲĳ": 3502,
      "LA": 3503,
      "æĪĳåĢĳ": 3504,
      "Ġå®ľ": 3505,
      "è§īå¾Ĺ": 3506,
      "åı·çłģ": 3507,
      "è±¹åŃĲ": 3508,
      "Ġä¸Ĭ": 3509,
      "ä»·åĢ¼": 3510,
      "å¤§åĪ©": 3511,
      "èĺ": 3512,
      "ç»ıè¿ĩ": 3513,
      "å§Ķä¼ļ": 3514,
      "è¶ħè¿ĩ": 3515,
      "RU": 3516,
      "æĻĭ": 3517,
      "æĨ": 3518,
      "æĪĳä»¬çļĦ": 3519,
      "åĪĨå¿«ä¸ī": 3520,
      "åĤ¨": 3521,
      "å°ıæĹ¶åīį": 3522,
      "HQ": 3523,
      "Ġçģ": 3524,
      "éĩĳæ²Ļ": 3525,
      "è¿ģ": 3526,
      "RI": 3527,
      "ãĢĳãĢĲâĢĿãĢĳãĢĲ": 3528,
      "Ġæł": 3529,
      "äºļåįļ": 3530,
      "BG": 3531,
      "åħħåĢ¼": 3532,
      "æ¶²": 3533,
      "åĲĪæ³ķ": 3534,
      "åħļçļĦ": 3535,
      "DK": 3536,
      "ĠçĻ½": 3537,
      "ãĢĳãĢĲãĢĤãĢĳ": 3538,
      "¨åĭ": 3539,
      "å¦ĤæŃ¤": 3540,
      "JK": 3541,
      "æķ°åŃĹ": 3542,
      "åķı": 3543,
      "æ¹ĸåĮĹ": 3544,
      "æĶ»çķ¥": 3545,
      "Ġæ¾³éĹ¨çĻ¾å®¶ä¹Ĳ": 3546,
      "Ġ12": 3547,
      "è¬": 3548,
      "åįıä¼ļ": 3549,
      "Ġ15": 3550,
      "æĪĲç»©": 3551,
      "è´µå·ŀ": 3552,
      "ãĢĭï¼Į": 3553,
      "æį·": 3554,
      "æī§è¡Į": 3555,
      "æĸ½å·¥": 3556,
      "Ñĥ": 3557,
      "DG": 3558,
      "å¤©ä¸ĭ": 3559,
      "ç¼ĵ": 3560,
      "ä¸įå¾Ĺ": 3561,
      "çķª": 3562,
      "Ġæĥ": 3563,
      "å®ĭ": 3564,
      "ä¼ĺåĬ¿": 3565,
      "æ··": 3566,
      "æĺ¯åľ¨": 3567,
      "å¦ĩ": 3568,
      "åĪ¶ä½ľ": 3569,
      "å£ģ": 3570,
      "Ġåĩ¯åıĳçº¿ä¸Ĭ": 3571,
      "è®ĵ": 3572,
      "åħ¶å®ŀ": 3573,
      "æĦıè§ģ": 3574,
      "Ććï¼Į": 3575,
      "äººçĶŁå°±æĺ¯": 3576,
      "âĦĥ": 3577,
      "ce": 3578,
      "æİ¨èĸ¦": 3579,
      "çĹĽ": 3580,
      "JM": 3581,
      "BS": 3582,
      "Ġæķ": 3583,
      "ç»´æĬ¤": 3584,
      "è¾¾åĪ°": 3585,
      "æĺ¯å¤ļå°ĳ": 3586,
      "Ġçº¿ä¸ĬçľŁäºº": 3587,
      "æĺł": 3588,
      "ul": 3589,
      "VM": 3590,
      "BK": 3591,
      "æ²³åįĹ": 3592,
      "èĿ": 3593,
      "æķĻåŃ¦": 3594,
      "æľĢä½³": 3595,
      "ĠéĤ": 3596,
      "è®¡åĪĴç½ĳ": 3597,
      "æĮĩå¯¼": 3598,
      "é£¯": 3599,
      "ä¸ľè¥¿": 3600,
      "å¼Ĭ": 3601,
      "Ġg": 3602,
      "æŃ£çīĪ": 3603,
      "ction": 3604,
      "BQ": 3605,
      "æ¹ĸåįĹ": 3606,
      "çļĦè¯Ŀ": 3607,
      "æĮĩåĩº": 3608,
      "JO": 3609,
      "ä½łä»¬": 3610,
      "ç»ĵåĲĪ": 3611,
      "äºĭä»¶": 3612,
      "æĶ¶åħ¥": 3613,
      "å¹¿åĳĬ": 3614,
      "éıĪ": 3615,
      "æĶ¯ä»ĺ": 3616,
      "è·³": 3617,
      "å°ıè¯´": 3618,
      "FQ": 3619,
      "èĭ±è¯Ń": 3620,
      "æľīäºº": 3621,
      "çļĦæĸ°": 3622,
      "LK": 3623,
      "art": 3624,
      "å¢Ļ": 3625,
      "åį«çĶŁ": 3626,
      "éģĤ": 3627,
      "èµĶ": 3628,
      "æĿľ": 3629,
      "å·¦åı³": 3630,
      "ä¿ĿæĮģ": 3631,
      "åĽ¢éĺŁ": 3632,
      "çĴ§": 3633,
      "è£¡": 3634,
      "åĪº": 3635,
      "éħįèµĦ": 3636,
      "æŃ£ç½ĳ": 3637,
      "çİĭä¸Ń": 3638,
      "FG": 3639,
      "åľ°åĽ¾": 3640,
      "æĬ½": 3641,
      "ĠagåĽ½éĻħ": 3642,
      "çĶŁèĤĸ": 3643,
      "Ġ19": 3644,
      "ZO": 3645,
      "ĠåĽ½éĻħ": 3646,
      "åĿ¦": 3647,
      "å®½": 3648,
      "RM": 3649,
      "ĠæīĭæľºçĻ¾å®¶ä¹Ĳ": 3650,
      "DQ": 3651,
      "Ġ18": 3652,
      "Ġåĩ¯åıĳçĶµæ¸¸": 3653,
      "ä½ĵèĤ²å½©ç¥¨": 3654,
      "pl": 3655,
      "('": 3656,
      "èĩ£": 3657,
      "æĭ¥æľī": 3658,
      "éģį": 3659,
      "å°ıåĲĥ": 3660,
      "èĲĦ": 3661,
      "æ¬§æ´²": 3662,
      "éº¼": 3663,
      "Ġé¦Ļæ¸¯": 3664,
      "å®ŀåĬĽ": 3665,
      "å¦¹": 3666,
      "é©¶": 3667,
      "JQ": 3668,
      "ZK": 3669,
      "çŃ¹": 3670,
      "å¾Ĵ": 3671,
      "abo": 3672,
      "èĢģèĻİ": 3673,
      "åĲķå¸ĥ": 3674,
      "ĠçľŁäººèµĮéĴ±æ¸¸æĪı": 3675,
      "ai": 3676,
      "PG": 3677,
      "èĴĻåı¤": 3678,
      "Ġï¼Į": 3679,
      "è¨Ĥ": 3680,
      "IAN": 3681,
      "VQ": 3682,
      "68": 3683,
      "ĈãĢģ": 3684,
      "ä»ĵ": 3685,
      "Ġagäºļæ´²": 3686,
      "å¹´åº¦": 3687,
      "éĤ£äºĽ": 3688,
      "è¾ĵéĴ±": 3689,
      "41": 3690,
      "éģĭ": 3691,
      "è¿ĩåİ»": 3692,
      "éĲ¨åĭ": 3693,
      "è£Ŀ": 3694,
      "æ¸Ĳ": 3695,
      "è´Ńä¹°": 3696,
      "Ġä¸ŃåĽ½": 3697,
      "ao": 3698,
      "åĮºåŁŁ": 3699,
      "åĢº": 3700,
      "RE": 3701,
      "è©¦": 3702,
      "çĭĹä¸ĩ": 3703,
      "çģ¾": 3704,
      "ĠæľĢ": 3705,
      "è·Ŀç¦»": 3706,
      "åħ¬å¼ı": 3707,
      "å¼Ģå¥ĸåİĨåı²": 3708,
      "éī": 3709,
      "éĩįå¤§": 3710,
      "å®Įåħ¨": 3711,
      "Ġæ¸ħ": 3712,
      "åĩ°": 3713,
      "ąï¼Į": 3714,
      "ç½ĳåıĭ": 3715,
      "ç»Łä¸Ģ": 3716,
      "PC": 3717,
      "çº¯": 3718,
      "é¢ģ": 3719,
      "PM": 3720,
      "åı£è¯Ģ": 3721,
      "åĽŀè¡Ģ": 3722,
      "åľŁåľ°": 3723,
      "çĲĽ": 3724,
      "ĆĈć": 3725,
      "hu": 3726,
      "è¶³å½©": 3727,
      "åıĹåĪ°": 3728,
      "pe": 3729,
      "è½°": 3730,
      "ãĢĳãĢĲï¼Ł": 3731,
      "åĤĻ": 3732,
      "è®¾æĸ½": 3733,
      "æŀª": 3734,
      "Ġåįİ": 3735,
      "åĩºåı£": 3736,
      "éĢīäºĶ": 3737,
      "æĻ®éĢļ": 3738,
      "èļ": 3739,
      "ĈĈï¼Į": 3740,
      "éĺ³å¸Ĥ": 3741,
      "çĳ°": 3742,
      "çªį": 3743,
      "äººä»¬": 3744,
      "çĩķ": 3745,
      "Ġæ¾³éĹ¨ç½ĳä¸Ĭ": 3746,
      "ç±į": 3747,
      "TC": 3748,
      "è°ĵ": 3749,
      "æĸĩä»¶": 3750,
      "çī¢": 3751,
      "ãĦ¦": 3752,
      "Ġä½ľèĢħ": 3753,
      "èµ¢éĴ±": 3754,
      "Ġl": 3755,
      "LS": 3756,
      "æĲ´": 3757,
      "ri": 3758,
      "æľīåĵªäºĽ": 3759,
      "èĻĳ": 3760,
      "¯çĭĤ": 3761,
      "åĳĬè¯ī": 3762,
      "ç½ĳé¡µçīĪ": 3763,
      "ä¸ĸçķĮæĿ¯": 3764,
      "ä¿ĥè¿Ľ": 3765,
      "å®ł": 3766,
      "åĩĮ": 3767,
      "èģĬ": 3768,
      "çĶŁåĳ½": 3769,
      "JS": 3770,
      "ue": 3771,
      "æľµ": 3772,
      "åĬŀçĲĨ": 3773,
      "çĩĥ": 3774,
      "çľģå§Ķ": 3775,
      "èĳ£äºĭ": 3776,
      "net": 3777,
      "åħļåĳĺ": 3778,
      "Ġ14": 3779,
      "ä¸Ĭå¸Ĥ": 3780,
      "åĬŀæ³ķ": 3781,
      "bo": 3782,
      "ĠéĢļ": 3783,
      "è¦Ĩ": 3784,
      "Ġæ¶": 3785,
      "çĤİ": 3786,
      "çļĦéĹ®é¢ĺ": 3787,
      "Ġbe": 3788,
      "è£ħä¿®": 3789,
      "VE": 3790,
      "æķĮ": 3791,
      "Ġæ¾³éĹ¨æĸ°": 3792,
      "åħ¨å¤©è®¡åĪĴ": 3793,
      "åķĨä¸ļ": 3794,
      "ation": 3795,
      "çĶĺèĤĥ": 3796,
      "å®īå¾½": 3797,
      "çģŀ": 3798,
      "ãĢģâĢľ": 3799,
      "é¢¨": 3800,
      "æī«": 3801,
      "å®īæİĴ": 3802,
      "å®ĺæĸ¹ç½ĳåĿĢ": 3803,
      "åįĩçº§": 3804,
      "Ġå¼ł": 3805,
      "ç»Łè®¡": 3806,
      "åįĹäº¬": 3807,
      "å²³": 3808,
      "åİ»å¹´": 3809,
      "LW": 3810,
      "æ²¿": 3811,
      "ç¹Ŀï½": 3812,
      "æ£ĭçīĮå¹³åı°": 3813,
      "ĠæĶ": 3814,
      "DY": 3815,
      "åįļå½©": 3816,
      "çĽĲ": 3817,
      "NS": 3818,
      "95": 3819,
      "ZE": 3820,
      "ä¼ĺç§Ģ": 3821,
      "æ¿Ĥ": 3822,
      "è½ī": 3823,
      "å½ĵæĹ¶": 3824,
      "TQ": 3825,
      "Ġis": 3826,
      "åĩ¯åıĳ": 3827,
      "????????????????": 3828,
      "æĢ»ç»Ł": 3829,
      "éĻķè¥¿": 3830,
      "æĿ¥äºĨ": 3831,
      "åħ¬åħ±": 3832,
      "Ġbest": 3833,
      "åħħåĪĨ": 3834,
      "âĨĴ": 3835,
      "VA": 3836,
      "åĨľæĿĳ": 3837,
      "XM": 3838,
      "ate": 3839,
      "æľįåĭĻ": 3840,
      "èĮĥåĽ´": 3841,
      "è¿Ļæł·çļĦ": 3842,
      "åģı": 3843,
      "æĲº": 3844,
      "æ¯ıå¤©": 3845,
      "ĆãĢģ": 3846,
      "æľºä¼ļ": 3847,
      "Ġéĵ¶æ²³": 3848,
      "FC": 3849,
      "TY": 3850,
      "BY": 3851,
      "éĵº": 3852,
      "è¯Ĭ": 3853,
      "å¹¿è¥¿": 3854,
      "è¼ĥ": 3855,
      "åľ¨çº¿è¯ķ": 3856,
      "ä¼į": 3857,
      "çī¹æľĹ": 3858,
      "èĶ¡": 3859,
      "çº¿è·¯": 3860,
      "ç»¿èī²": 3861,
      "é¢ĳéģĵ": 3862,
      "å¯Ĵ": 3863,
      "åĩºçļĦ": 3864,
      "ï¼īãĢģ": 3865,
      "Ġof": 3866,
      "ç½ļ": 3867,
      "çµĦ": 3868,
      "éĢģå½©éĩĳ": 3869,
      "][": 3870,
      "æ£ĢæŁ¥": 3871,
      "æ¨£": 3872,
      "ä¸¾åĬŀ": 3873,
      "å»ī": 3874,
      "æŃ¦æ±ī": 3875,
      "æĭĽèģĺç½ĳ": 3876,
      "æĦŁè§ī": 3877,
      "ä¸ĭè½½app": 3878,
      "ç´«": 3879,
      "å¤ĸæĮĤ": 3880,
      "æĤ¨åı¯ä»¥": 3881,
      "æ¨Ļ": 3882,
      "ç»ŁæĪĺ": 3883,
      "åŁºåľ°": 3884,
      "æ¶Īéĺ²": 3885,
      "åĪĨåĪ«": 3886,
      "çľŁäººæ¸¸æĪı": 3887,
      "æĤ¨çļĦ": 3888,
      "RG": 3889,
      "Ġæ¾³éĹ¨åħŃ": 3890,
      "TW": 3891,
      "æĢİä¹Īçİ©": 3892,
      "éķľ": 3893,
      "VW": 3894,
      "XO": 3895,
      "ç»ĺ": 3896,
      "æķĪæŀľ": 3897,
      "åħ©": 3898,
      "è¿¹": 3899,
      "æĸ°æĹ¶ä»£": 3900,
      "è°ĥæķ´": 3901,
      "æĹº": 3902,
      "çĽĴ": 3903,
      "çī¹æľĹæĻ®": 3904,
      "æŃ¤æ¬¡": 3905,
      "ZY": 3906,
      "å®ı": 3907,
      "=\"": 3908,
      "ï¿½_": 3909,
      "æĢ»ä¹¦è®°": 3910,
      "çĽĳçĿ£": 3911,
      "å»ºè®®": 3912,
      "ç¨ĭåºı": 3913,
      "FY": 3914,
      "æĸ°çĸĨ": 3915,
      "è¯ĳ": 3916,
      "éĢłæĪĲ": 3917,
      "è¶ĬæĿ¥": 3918,
      "Ġæ¢": 3919,
      "éŀĭ": 3920,
      "äººçĶŁå°±æĺ¯åįļ": 3921,
      "pp": 3922,
      "å®ĮåĸĦ": 3923,
      "Ġæ¬": 3924,
      "ç®¡å®¶": 3925,
      "èĳ¡èĲĦ": 3926,
      "éĿ¢å¯¹": 3927,
      "ćĈć": 3928,
      "èĥ¶": 3929,
      "èĢĢ": 3930,
      "æĢª": 3931,
      "Ġ08": 3932,
      "æ±Łè¥¿": 3933,
      "åĬłå·¥": 3934,
      "èģ¯": 3935,
      "ä¸»é¡µ": 3936,
      "éłŃ": 3937,
      "éĢĥ": 3938,
      "å¯°": 3939,
      "ãĦ§": 3940,
      "å½ĵåīįä½įç½®": 3941,
      "åıªè¦ģ": 3942,
      "ĠåĮĹ": 3943,
      "BW": 3944,
      "æİĴè¡Įæ¦ľ": 3945,
      "Ġæĭ": 3946,
      "ä¹Łæľī": 3947,
      "XK": 3948,
      "çļĦéĩįè¦ģ": 3949,
      "æĥ§": 3950,
      "è®¸å¤ļ": 3951,
      "FE": 3952,
      "JW": 3953,
      "è¶ĬæĿ¥è¶Ĭ": 3954,
      "çµ±": 3955,
      "cm": 3956,
      "èµı": 3957,
      "åľĺ": 3958,
      "åħ·ä½ĵ": 3959,
      "æ²»çĲĨ": 3960,
      "js": 3961,
      "âĢĿâĢľ": 3962,
      "æĭĵ": 3963,
      "åĶ¯ä¸Ģ": 3964,
      "age": 3965,
      "ĠèµĮéĴ±ç½ĳç«Ļ": 3966,
      "æĻ¨": 3967,
      "è¯¾ç¨ĭ": 3968,
      "èĪį": 3969,
      "de": 3970,
      "æľºåĪ¶": 3971,
      "ä¸¥éĩį": 3972,
      "éĺ»": 3973,
      "ä¸ªæľĪ": 3974,
      "æĲ¬": 3975,
      "è©ķ": 3976,
      "VU": 3977,
      "å¤§å¸Ī": 3978,
      "ĠæĲı": 3979,
      "ç®Ģåįķ": 3980,
      "ort": 3981,
      "ãĢĤï¼Ī": 3982,
      "ä¸ĺ": 3983,
      "çĥ§": 3984,
      "Ġç¾İ": 3985,
      "æ·»": 3986,
      "å¾ŀ": 3987,
      "åĭ¤": 3988,
      "NO": 3989,
      "åĲĮå¿Ĺ": 3990,
      "âĳ": 3991,
      "res": 3992,
      "èī¾": 3993,
      "æįĲ": 3994,
      "èµĮæĲı": 3995,
      "æľĢç»Ī": 3996,
      "åģ·": 3997,
      "çĸ¾": 3998,
      "çİĭä¸Ńçİĭ": 3999,
      "ĀĀĀĀ": 4000,
      "èģĶçĽŁ": 4001,
      "\").": 4002,
      "æ½Ń": 4003,
      "åĵĪå°Ķ": 4004,
      "Ġåĩ¯æĹ¶åĽ½éĻħ": 4005,
      "åħ±åĴĮ": 4006,
      "è¥¿å®ī": 4007,
      "æĲľç´¢": 4008,
      "åĩ¤åĩ°": 4009,
      "è¿ŀéĶģ": 4010,
      "çĦ¯": 4011,
      "ç¼ĺ": 4012,
      "çİ¯ä¿Ŀ": 4013,
      "éİı": 4014,
      "ZC": 4015,
      "å¾Ħ": 4016,
      "HM": 4017,
      "æĪĲæľ¬": 4018,
      "å±±è¥¿": 4019,
      "åı¯éĿł": 4020,
      "è¹ĩ": 4021,
      "æĳĩ": 4022,
      "ä¼ĺåĮĸ": 4023,
      "åŀ®": 4024,
      "æ¸ł": 4025,
      "å¼ĥ": 4026,
      "å®ĺç½ĳå¹³åı°": 4027,
      "ç´ļ": 4028,
      "ç¸½": 4029,
      "çĽĳç®¡": 4030,
      "å²©": 4031,
      "æĪĴ": 4032,
      "æī¾åĪ°": 4033,
      "ç»ĵæŀĦ": 4034,
      "éĻ¶": 4035,
      "æĻ¶": 4036,
      "ZA": 4037,
      "aW": 4038,
      "ä½ľå¼Ĭ": 4039,
      "YOU": 4040,
      "å¨±ä¹ĲåŁİ": 4041,
      "Ġé©¬": 4042,
      "æľīä»Ģä¹Ī": 4043,
      "éįı": 4044,
      "ä¼Ĳ": 4045,
      "å±ķç¤º": 4046,
      "éªĮè¯ģ": 4047,
      "çĶ³åįļ": 4048,
      "åĿª": 4049,
      "åľ°äº§": 4050,
      "çļĦé«ĺ": 4051,
      "èĩªçĶ±": 4052,
      "çīĽçīĽ": 4053,
      "åıĳæĮ¥": 4054,
      "çĳĻ": 4055,
      "åħ¬åĳĬ": 4056,
      "éİıçĦ¯": 4057,
      "æ³Ľ": 4058,
      "å°ıåŃ¦": 4059,
      "PU": 4060,
      "%ãĢĤ": 4061,
      "æĭ¼": 4062,
      "false": 4063,
      "éªĳ": 4064,
      "åĦªæĥł": 4065,
      "å¦Ĥä»Ĭ": 4066,
      "èµĦæĸĻå¤§åħ¨": 4067,
      "é¼İ": 4068,
      "âĺħ": 4069,
      "æŁľ": 4070,
      "å¼±": 4071,
      "è¤°": 4072,
      "å¤º": 4073,
      "JA": 4074,
      "ä¼ı": 4075,
      "æ³ķéĻ¢": 4076,
      "éĽĨä¸Ń": 4077,
      "sc": 4078,
      "Ćąï¼Į": 4079,
      "çļĦåıĳå±ķ": 4080,
      "RQ": 4081,
      "åºŁ": 4082,
      "åįıè®®": 4083,
      "åĿı": 4084,
      "åĳĪ": 4085,
      "Ġæİ": 4086,
      "èŃ¦æĸ¹": 4087,
      "Ġæı": 4088,
      "é¦¬": 4089,
      "æĪĲåĳĺ": 4090,
      "ĠåĴĮ": 4091,
      "åıĮæĸ¹": 4092,
      "Ġvar": 4093,
      "æĬķæ³¨å¹³åı°": 4094,
      "å®¹æĺĵ": 4095
    },
    "merges": [
      [
        "ã",
        "Ģ"
      ],
      [
        "ä",
        "¸"
      ],
      [
        "ï",
        "¼"
      ],
      [
        "ï¼",
        "Į"
      ],
      [
        "ä",
        "º"
      ],
      [
        "ãĢ",
        "Ĳ"
      ],
      [
        "ãĢ",
        "ĳ"
      ],
      [
        "ãĢĳ",
        "ãĢĲ"
      ],
      [
        "¿",
        "½"
      ],
      [
        "ï",
        "¿½"
      ],
      [
        "å",
        "ı"
      ],
      [
        "å",
        "®"
      ],
      [
        "å",
        "¤"
      ],
      [
        "æ",
        "ľ"
      ],
      [
        "ç",
        "ļ"
      ],
      [
        "çļ",
        "Ħ"
      ],
      [
        "å",
        "ħ"
      ],
      [
        "å",
        "Ī"
      ],
      [
        "ä",
        "»"
      ],
      [
        "ä",
        "¹"
      ],
      [
        "ç",
        "½"
      ],
      [
        "æ",
        "ĸ"
      ],
      [
        "ãĢ",
        "Ĥ"
      ],
      [
        "å",
        "ľ"
      ],
      [
        "æ",
        "Ĺ"
      ],
      [
        "ï¿½",
        "ï¿½"
      ],
      [
        "ä",
        "½"
      ],
      [
        "æ",
        "Ī"
      ],
      [
        "ç½",
        "ĳ"
      ],
      [
        "å",
        "Ľ"
      ],
      [
        "å",
        "Ĳ"
      ],
      [
        "å",
        "į"
      ],
      [
        "å",
        "¹"
      ],
      [
        "æ",
        "ĺ"
      ],
      [
        "å",
        "Ĭ"
      ],
      [
        "è",
        "¿"
      ],
      [
        "ç",
        "Ķ"
      ],
      [
        "å",
        "½"
      ],
      [
        "å",
        "°"
      ],
      [
        "â",
        "Ģ"
      ],
      [
        "ç",
        "ī"
      ],
      [
        "æ",
        "ī"
      ],
      [
        "å¤",
        "§"
      ],
      [
        "ç",
        "»"
      ],
      [
        "æ",
        "Ŀ"
      ],
      [
        "è",
        "®"
      ],
      [
        "ä¸",
        "Ģ"
      ],
      [
        "ãĢ",
        "ģ"
      ],
      [
        "è",
        "¯"
      ],
      [
        "å",
        "·"
      ],
      [
        "å",
        "¼"
      ],
      [
        "å",
        "¸"
      ],
      [
        "äº",
        "º"
      ],
      [
        "è",
        "µ"
      ],
      [
        "ä",
        "¼"
      ],
      [
        "è",
        "½"
      ],
      [
        "åı",
        "ĳ"
      ],
      [
        "æ",
        "Ĭ"
      ],
      [
        "å",
        "ĩ"
      ],
      [
        "å",
        "Ń"
      ],
      [
        "å",
        "¿"
      ],
      [
        "é",
        "Ĺ"
      ],
      [
        "ç",
        "İ"
      ],
      [
        "Ġ",
        "æ"
      ],
      [
        "åľ",
        "¨"
      ],
      [
        "é",
        "Ģ"
      ],
      [
        "æĺ",
        "¯"
      ],
      [
        "é",
        "ĩ"
      ],
      [
        "å",
        "Ĩ"
      ],
      [
        "ç",
        "Ľ"
      ],
      [
        "å",
        "Į"
      ],
      [
        "æ",
        "¸"
      ],
      [
        "ä¸",
        "Ń"
      ],
      [
        "å",
        "º"
      ],
      [
        "å½",
        "©"
      ],
      [
        "æ",
        "³"
      ],
      [
        "å",
        "İ"
      ],
      [
        "ç",
        "«"
      ],
      [
        "åĽ",
        "½"
      ],
      [
        "ä¸",
        "ĭ"
      ],
      [
        "ç",
        "ľ"
      ],
      [
        "å",
        "±"
      ],
      [
        "å",
        "¥"
      ],
      [
        "å",
        "¾"
      ],
      [
        "2",
        "0"
      ],
      [
        "å®",
        "ĺ"
      ],
      [
        "æľ",
        "ī"
      ],
      [
        "é",
        "Ļ"
      ],
      [
        "ï¼",
        "ļ"
      ],
      [
        "ä¸",
        "į"
      ],
      [
        "è",
        "¡"
      ],
      [
        "æĹ",
        "¶"
      ],
      [
        "ç",
        "º"
      ],
      [
        "åĪ",
        "Ĩ"
      ],
      [
        "è",
        "§"
      ],
      [
        "è",
        "´"
      ],
      [
        "äº",
        "Ĩ"
      ],
      [
        "æ",
        "µ"
      ],
      [
        "è",
        "Ģ"
      ],
      [
        "å",
        "¯"
      ],
      [
        "ä¸",
        "Ĭ"
      ],
      [
        "ç",
        "¥"
      ],
      [
        "å®",
        "¶"
      ],
      [
        "æ",
        "°"
      ],
      [
        "ç",
        "Ļ"
      ],
      [
        "æľ",
        "º"
      ],
      [
        "æ",
        "Ń"
      ],
      [
        "å¹",
        "³"
      ],
      [
        "ä",
        "¿"
      ],
      [
        "è",
        "Ĥ"
      ],
      [
        "æ",
        "ķ"
      ],
      [
        "æĸ",
        "°"
      ],
      [
        "æ¸",
        "¸"
      ],
      [
        "3",
        "6"
      ],
      [
        "ä¹",
        "Ĳ"
      ],
      [
        "åı",
        "°"
      ],
      [
        "æ",
        "Ķ"
      ],
      [
        "ç",
        "Ĳ"
      ],
      [
        "æĸ",
        "¹"
      ],
      [
        "å¼",
        "Ģ"
      ],
      [
        "æī",
        "ĭ"
      ],
      [
        "ç",
        "§"
      ],
      [
        "æ",
        "ł"
      ],
      [
        "é",
        "ĥ"
      ],
      [
        "æĿ",
        "¥"
      ],
      [
        "å",
        "Ŀ"
      ],
      [
        "å¹",
        "´"
      ],
      [
        "âĢ",
        "ľ"
      ],
      [
        "âĢ",
        "Ŀ"
      ],
      [
        "å",
        "Ĵ"
      ],
      [
        "36",
        "5"
      ],
      [
        "æ",
        "²"
      ],
      [
        "æ",
        "İ"
      ],
      [
        "æ",
        "ŀ"
      ],
      [
        "å¤",
        "©"
      ],
      [
        "å",
        "ĳ"
      ],
      [
        "é",
        "Ŀ"
      ],
      [
        "äº",
        "ļ"
      ],
      [
        "æ",
        "Ģ"
      ],
      [
        "è½",
        "½"
      ],
      [
        "æ",
        "ĭ"
      ],
      [
        "å",
        "Ł"
      ],
      [
        "é",
        "ĺ"
      ],
      [
        "å¿",
        "«"
      ],
      [
        "åĴ",
        "Į"
      ],
      [
        "ä½",
        "ĵ"
      ],
      [
        "ä¸ĭ",
        "è½½"
      ],
      [
        "éĹ",
        "¨"
      ],
      [
        "å",
        "ĵ"
      ],
      [
        "æ",
        "¬"
      ],
      [
        "å®ĺ",
        "ç½ĳ"
      ],
      [
        "è",
        "ĩ"
      ],
      [
        "è",
        "ĥ"
      ],
      [
        "ä¸",
        "º"
      ],
      [
        "é",
        "¢"
      ],
      [
        "åħ",
        "¬"
      ],
      [
        "æ",
        "±"
      ],
      [
        "å",
        "¨"
      ],
      [
        "ä¼",
        "ļ"
      ],
      [
        "æ",
        "£"
      ],
      [
        "é",
        "ģ"
      ],
      [
        "å¸",
        "Ĥ"
      ],
      [
        "çī",
        "Į"
      ],
      [
        "a",
        "p"
      ],
      [
        "å",
        "ī"
      ],
      [
        "ç",
        "¾"
      ],
      [
        "ä¸",
        "ĩ"
      ],
      [
        "1",
        "0"
      ],
      [
        "çĶ",
        "Ł"
      ],
      [
        "é",
        "Ľ"
      ],
      [
        "è¡",
        "Į"
      ],
      [
        "å¹³",
        "åı°"
      ],
      [
        "çľ",
        "Ł"
      ],
      [
        "ç«",
        "Ļ"
      ],
      [
        "è",
        "¾"
      ],
      [
        "è",
        "¦"
      ],
      [
        "æĪ",
        "ĳ"
      ],
      [
        "åľ",
        "°"
      ],
      [
        "ap",
        "p"
      ],
      [
        "å½©",
        "ç¥"
      ],
      [
        "æĹ",
        "¥"
      ],
      [
        "æ³",
        "¨"
      ],
      [
        "åħ",
        "¨"
      ],
      [
        "æ",
        "´"
      ],
      [
        "åĪ",
        "°"
      ],
      [
        "ä»",
        "¥"
      ],
      [
        "e",
        "t"
      ],
      [
        "ä¸",
        "ļ"
      ],
      [
        "ä¸",
        "ī"
      ],
      [
        "æ",
        "ĥ"
      ],
      [
        "ä½",
        "ľ"
      ],
      [
        "20",
        "1"
      ],
      [
        "ä¸",
        "ª"
      ],
      [
        "å·",
        "¥"
      ],
      [
        "ç",
        "Ĥ"
      ],
      [
        "çĶ",
        "¨"
      ],
      [
        "èĤ",
        "²"
      ],
      [
        "åĩ",
        "º"
      ],
      [
        "å¤§",
        "åıĳ"
      ],
      [
        "è",
        "ģ"
      ],
      [
        "çĶ",
        "µ"
      ],
      [
        "æīĭ",
        "æľº"
      ],
      [
        "åĬ",
        "ł"
      ],
      [
        "¾",
        "³"
      ],
      [
        "è¦",
        "ģ"
      ],
      [
        "é",
        "Ĵ"
      ],
      [
        "ï¿½ï¿½",
        "ï¿½ï¿½"
      ],
      [
        "åĪ",
        "©"
      ],
      [
        "æ",
        "Į"
      ],
      [
        "ç",
        "Ń"
      ],
      [
        "é",
        "¡"
      ],
      [
        "åŃ",
        "¦"
      ],
      [
        "é",
        "ķ"
      ],
      [
        "è¿",
        "Ļ"
      ],
      [
        "æĪ",
        "ı"
      ],
      [
        "æ",
        "¯"
      ],
      [
        "çº",
        "¿"
      ],
      [
        "çī",
        "Ī"
      ],
      [
        "b",
        "et"
      ],
      [
        "å°",
        "ı"
      ],
      [
        "å¤",
        "ļ"
      ],
      [
        "ĭ",
        "çīĮ"
      ],
      [
        "æĬ",
        "ķ"
      ],
      [
        "æ¸¸",
        "æĪı"
      ],
      [
        "å®",
        "ī"
      ],
      [
        "ç½ĳ",
        "ç«Ļ"
      ],
      [
        "å",
        "Ģ"
      ],
      [
        "¾³",
        "éĹ¨"
      ],
      [
        "è",
        "·"
      ],
      [
        "æ£",
        "ĭçīĮ"
      ],
      [
        "ä",
        "¾"
      ],
      [
        "èĥ",
        "½"
      ],
      [
        "é",
        "«"
      ],
      [
        "çİ",
        "°"
      ],
      [
        "ç",
        "®"
      ],
      [
        "åĿ",
        "Ģ"
      ],
      [
        "éĩ",
        "ĳ"
      ],
      [
        "çĲ",
        "Ĩ"
      ],
      [
        "æ",
        "Ļ"
      ],
      [
        "æĪ",
        "Ĳ"
      ],
      [
        "ç",
        "ł"
      ],
      [
        "æ",
        "Ľ"
      ],
      [
        "åı",
        "¯"
      ],
      [
        "æľ",
        "Ģ"
      ],
      [
        "å¨",
        "±"
      ],
      [
        "æ",
        "Ħ"
      ],
      [
        "Ġ",
        "365"
      ],
      [
        "åŃ",
        "Ĳ"
      ],
      [
        "æ",
        "ı"
      ],
      [
        "æ",
        "¶"
      ],
      [
        "ç¾",
        "İ"
      ],
      [
        "é«",
        "ĺ"
      ],
      [
        "å¥",
        "½"
      ],
      [
        "é",
        "Ĥ"
      ],
      [
        "ä½ĵ",
        "èĤ²"
      ],
      [
        "å",
        "ģ"
      ],
      [
        "ä¹",
        "Ī"
      ],
      [
        "å",
        "§"
      ],
      [
        "Ġ",
        "ç"
      ],
      [
        "å¨±",
        "ä¹Ĳ"
      ],
      [
        "é",
        "Ķ"
      ],
      [
        "å",
        "»"
      ],
      [
        "å",
        "¦"
      ],
      [
        "åĩ",
        "¯"
      ],
      [
        "çĻ",
        "¾"
      ],
      [
        "æĸ",
        "ĩ"
      ],
      [
        "è",
        "Ī"
      ],
      [
        "èĩ",
        "ª"
      ],
      [
        "å®ĺ",
        "æĸ¹"
      ],
      [
        "Ġæ",
        "¾³éĹ¨"
      ],
      [
        "ä¹",
        "ĭ"
      ],
      [
        "é",
        "¦"
      ],
      [
        "å°",
        "±"
      ],
      [
        "åĮ",
        "Ĺ"
      ],
      [
        "è",
        "¶"
      ],
      [
        "å¯",
        "¹"
      ],
      [
        "ç",
        "¨"
      ],
      [
        "è",
        "ĭ"
      ],
      [
        "è½",
        "¦"
      ],
      [
        "æ³",
        "ķ"
      ],
      [
        "ä¿",
        "¡"
      ],
      [
        "åī",
        "į"
      ],
      [
        "åĲ",
        "Ī"
      ],
      [
        "è",
        "°"
      ],
      [
        "åĬ",
        "¨"
      ],
      [
        "ä»",
        "ĸ"
      ],
      [
        "éĥ",
        "¨"
      ],
      [
        "é",
        "£"
      ],
      [
        "æľ",
        "Ī"
      ],
      [
        "ä¸",
        "»"
      ],
      [
        "è",
        "ī"
      ],
      [
        "Ġ",
        "åĩ¯"
      ],
      [
        "çĤ",
        "¹"
      ],
      [
        "a",
        "g"
      ],
      [
        "æĪ",
        "·"
      ],
      [
        "Ġ",
        "å¤§åıĳ"
      ],
      [
        "è®",
        "¡"
      ],
      [
        "åľ",
        "º"
      ],
      [
        "åĲ",
        "İ"
      ],
      [
        "ç",
        "¤"
      ],
      [
        "å¿",
        "ĥ"
      ],
      [
        "åİ",
        "¿"
      ],
      [
        "ç½ĳ",
        "åĿĢ"
      ],
      [
        "ç",
        "ķ"
      ],
      [
        "éķ",
        "¿"
      ],
      [
        "ä¹",
        "Ł"
      ],
      [
        "åŁ",
        "İ"
      ],
      [
        "è¿",
        "Ľ"
      ],
      [
        "äº",
        "İ"
      ],
      [
        "åį",
        "Ĺ"
      ],
      [
        "ç",
        "¬"
      ],
      [
        "åĬ",
        "Ľ"
      ],
      [
        "ä»",
        "¬"
      ],
      [
        "ç»",
        "ı"
      ],
      [
        "åĮ",
        "º"
      ],
      [
        "æľ",
        "¬"
      ],
      [
        "ï¼",
        "Ī"
      ],
      [
        "ï¼",
        "ī"
      ],
      [
        "åį",
        "ļ"
      ],
      [
        "å®",
        "ŀ"
      ],
      [
        "ç",
        "Ł"
      ],
      [
        "æı",
        "Ĳ"
      ],
      [
        "éĴ",
        "±"
      ],
      [
        "å",
        "ķ"
      ],
      [
        "å±",
        "±"
      ],
      [
        "é",
        "ľ"
      ],
      [
        "è",
        "Ĭ"
      ],
      [
        "åı",
        "¸"
      ],
      [
        "Ġåĩ¯",
        "åıĳ"
      ],
      [
        "äº",
        "¬"
      ],
      [
        "èµ",
        "Ħ"
      ],
      [
        "æ°",
        "ĳ"
      ],
      [
        "åħ",
        "³"
      ],
      [
        "Ġ",
        "äºļ"
      ],
      [
        "éĿ",
        "¢"
      ],
      [
        "åĵ",
        "ģ"
      ],
      [
        "å½©ç¥",
        "¨"
      ],
      [
        "éģ",
        "ĵ"
      ],
      [
        "éĥ",
        "½"
      ],
      [
        "åĲ",
        "Į"
      ],
      [
        "è",
        "¥"
      ],
      [
        "èĢ",
        "ħ"
      ],
      [
        "å·",
        "ŀ"
      ],
      [
        "å»",
        "º"
      ],
      [
        "åĮ",
        "ĸ"
      ],
      [
        "éĻ",
        "ħ"
      ],
      [
        "äº",
        "Į"
      ],
      [
        "éĢ",
        "ļ"
      ],
      [
        "çĻ",
        "»"
      ],
      [
        "çİ",
        "¯"
      ],
      [
        "è",
        "Ĳ"
      ],
      [
        "çľŁ",
        "äºº"
      ],
      [
        "æŃ",
        "£"
      ],
      [
        "åħ",
        "ĥ"
      ],
      [
        "çĲ",
        "ĥ"
      ],
      [
        "äº",
        "ĭ"
      ],
      [
        "åĽ",
        "¾"
      ],
      [
        "ä»",
        "£"
      ],
      [
        "0",
        "0"
      ],
      [
        "é",
        "ĵ"
      ],
      [
        "è¥",
        "¿"
      ],
      [
        "æ",
        "ģ"
      ],
      [
        "ï¿½ï¿½",
        "ï¿½"
      ],
      [
        "é",
        "¾"
      ],
      [
        "c",
        "o"
      ],
      [
        "é",
        "©"
      ],
      [
        "å®",
        "ļ"
      ],
      [
        "å¤",
        "ĸ"
      ],
      [
        "è¿",
        "ĩ"
      ],
      [
        "çŃ",
        "ī"
      ],
      [
        "é",
        "ļ"
      ],
      [
        "çľ",
        "ĭ"
      ],
      [
        "å±",
        "ķ"
      ],
      [
        "ãĢĳãĢĲ",
        "ï¼Į"
      ],
      [
        "æµ",
        "·"
      ],
      [
        "é",
        "»"
      ],
      [
        "éĩ",
        "į"
      ],
      [
        "æ",
        "º"
      ],
      [
        "äº",
        "§"
      ],
      [
        "ãĢĳãĢĲï¼Į",
        "ãĢĳãĢĲ"
      ],
      [
        "æŀ",
        "ľ"
      ],
      [
        "æ",
        "į"
      ],
      [
        "åħ",
        "¥"
      ],
      [
        "å®",
        "¢"
      ],
      [
        "çĽ",
        "Ł"
      ],
      [
        "æĬ",
        "¥"
      ],
      [
        "æ",
        "Ł"
      ],
      [
        "Ć",
        "Ĉ"
      ],
      [
        "æ°",
        "´"
      ],
      [
        "åħ¬",
        "åı¸"
      ],
      [
        "åĬ",
        "¡"
      ],
      [
        "çĻ¾",
        "å®¶"
      ],
      [
        "å¾",
        "Ĺ"
      ],
      [
        "ä»",
        "¶"
      ],
      [
        "ä¸Ń",
        "åĽ½"
      ],
      [
        "ç",
        "´"
      ],
      [
        "åĲ",
        "į"
      ],
      [
        "ç",
        "Ŀ"
      ],
      [
        "åĽ½",
        "éĻħ"
      ],
      [
        "æĹ",
        "©"
      ],
      [
        "ç",
        "Ħ"
      ],
      [
        "ç",
        "©"
      ],
      [
        "ä¸",
        "ľ"
      ],
      [
        "å¦",
        "Ĥ"
      ],
      [
        "å",
        "£"
      ],
      [
        "é¾",
        "Ļ"
      ],
      [
        "å°",
        "Ĩ"
      ],
      [
        "çī",
        "¹"
      ],
      [
        "ä¸",
        "İ"
      ],
      [
        "å½",
        "ķ"
      ],
      [
        "éĩ",
        "Į"
      ],
      [
        "å½©ç¥",
        "ŀ"
      ],
      [
        "é",
        "ħ"
      ],
      [
        "æľ",
        "Ł"
      ],
      [
        "éĹ",
        "´"
      ],
      [
        "åĳ",
        "ĺ"
      ],
      [
        "ç",
        "ģ"
      ],
      [
        "åĪ",
        "Ĵ"
      ],
      [
        "æĬ",
        "Ģ"
      ],
      [
        "?",
        "?"
      ],
      [
        "åĨ",
        "Į"
      ],
      [
        "è¯",
        "´"
      ],
      [
        "è",
        "£"
      ],
      [
        "å",
        "¢"
      ],
      [
        "åĬł",
        "çĽŁ"
      ],
      [
        "åº",
        "¦"
      ],
      [
        "åį",
        "ķ"
      ],
      [
        "è§",
        "Ħ"
      ],
      [
        "æ",
        "¡"
      ],
      [
        "åľ¨",
        "çº¿"
      ],
      [
        "èµ",
        "°"
      ],
      [
        "æĺ",
        "İ"
      ],
      [
        "ä¿",
        "Ŀ"
      ],
      [
        "æ¬",
        "¾"
      ],
      [
        "èĢ",
        "Į"
      ],
      [
        "ä½",
        "į"
      ],
      [
        "éĽ",
        "Ĩ"
      ],
      [
        "co",
        "m"
      ],
      [
        "ç®",
        "¡"
      ],
      [
        "è·",
        "¯"
      ],
      [
        "æ³¨",
        "åĨĮ"
      ],
      [
        "Ġ",
        "|"
      ],
      [
        "åķ",
        "Ĩ"
      ],
      [
        "è",
        "¢"
      ],
      [
        "201",
        "9"
      ],
      [
        "æ",
        "·"
      ],
      [
        "è¡",
        "¨"
      ],
      [
        "ç",
        "Ī"
      ],
      [
        "p",
        "k"
      ],
      [
        "æī",
        "Ģ"
      ],
      [
        "æĶ",
        "¿"
      ],
      [
        "åħ",
        "¶"
      ],
      [
        "æĬķ",
        "æ³¨"
      ],
      [
        "ç",
        "³"
      ],
      [
        "Ġ",
        "1"
      ],
      [
        "ç",
        "²"
      ],
      [
        "å¿«",
        "ä¸ī"
      ],
      [
        "æĥ",
        "ħ"
      ],
      [
        "éĢ",
        "Ł"
      ],
      [
        ".",
        "."
      ],
      [
        "ç",
        "¦"
      ],
      [
        "äº",
        "¤"
      ],
      [
        "è®",
        "¾"
      ],
      [
        "åį",
        "ģ"
      ],
      [
        "é",
        "ª"
      ],
      [
        "ä½",
        "ł"
      ],
      [
        "ç",
        "¼"
      ],
      [
        "è",
        "²"
      ],
      [
        "N",
        "G"
      ],
      [
        "ç¨",
        "ĭ"
      ],
      [
        "è¿",
        "Ĳ"
      ],
      [
        "å¥",
        "ĸ"
      ],
      [
        "å",
        "²"
      ],
      [
        "åĨ",
        "ħ"
      ],
      [
        "åı",
        "£"
      ],
      [
        "æķ",
        "Ļ"
      ],
      [
        "æĹ¶",
        "æĹ¶"
      ],
      [
        "ï¼",
        "ģ"
      ],
      [
        "çĽ",
        "´"
      ],
      [
        "åĪ",
        "¶"
      ],
      [
        "è",
        "į"
      ],
      [
        "ç¬",
        "¬"
      ],
      [
        "æĢ",
        "İ"
      ],
      [
        "åĪ©",
        "æĿ¥"
      ],
      [
        "i",
        "n"
      ],
      [
        "å",
        "ĭ"
      ],
      [
        "æ¯",
        "Ķ"
      ],
      [
        "å½",
        "ĵ"
      ],
      [
        "æľ",
        "į"
      ],
      [
        "ï¼",
        "Ł"
      ],
      [
        "a",
        "n"
      ],
      [
        "çĽ",
        "®"
      ],
      [
        "ĭ",
        "Ĺ"
      ],
      [
        "è®¡",
        "åĪĴ"
      ],
      [
        "åĬ",
        "¿"
      ],
      [
        "æ¬",
        "¡"
      ],
      [
        "æ±",
        "Ł"
      ],
      [
        "ç",
        "ĥ"
      ],
      [
        "å¼",
        "ı"
      ],
      [
        "æĹ¶æĹ¶",
        "å½©"
      ],
      [
        "è¿",
        "ĺ"
      ],
      [
        "èĢ",
        "ģ"
      ],
      [
        "èµ",
        "·"
      ],
      [
        "ãĢ",
        "Ĭ"
      ],
      [
        "ãĢ",
        "ĭ"
      ],
      [
        "è§",
        "Ĩ"
      ],
      [
        "åĮĹ",
        "äº¬"
      ],
      [
        "åı",
        "Ĭ"
      ],
      [
        "åº",
        "Ĺ"
      ],
      [
        "çĽ",
        "¸"
      ],
      [
        "æĦ",
        "ı"
      ],
      [
        "æ",
        "Ĳ"
      ],
      [
        "æĹ",
        "ł"
      ],
      [
        "è",
        "¨"
      ],
      [
        "æ",
        "Ĵ"
      ],
      [
        "æº",
        "Ĳ"
      ],
      [
        "æ",
        "»"
      ],
      [
        "Ġ",
        "ag"
      ],
      [
        "èµ",
        "Į"
      ],
      [
        "çł",
        "ģ"
      ],
      [
        "çĻ»",
        "å½ķ"
      ],
      [
        "åİ",
        "»"
      ],
      [
        "éĺ",
        "³"
      ],
      [
        "çİ¯",
        "äºļ"
      ],
      [
        "çİ",
        "©"
      ],
      [
        "ç§",
        "ĳ"
      ],
      [
        "çī",
        "©"
      ],
      [
        "çĿ",
        "Ģ"
      ],
      [
        "è®",
        "°"
      ],
      [
        "çĦ",
        "¶"
      ],
      [
        "ç³",
        "»"
      ],
      [
        "å¹",
        "¿"
      ],
      [
        "ç»",
        "ĵ"
      ],
      [
        "Ć",
        "ć"
      ],
      [
        "è",
        "Ļ"
      ],
      [
        "åĽ",
        "¢"
      ],
      [
        "æ",
        "Ĥ"
      ],
      [
        "æīĭæľº",
        "çīĪ"
      ],
      [
        "è´",
        "¹"
      ],
      [
        "åı",
        "·"
      ],
      [
        "èµ",
        "Ľ"
      ],
      [
        "è§",
        "£"
      ],
      [
        "å",
        "ĸ"
      ],
      [
        "åı",
        "Į"
      ],
      [
        "æĽ",
        "´"
      ],
      [
        "éĩ",
        "ı"
      ],
      [
        "é",
        "¤"
      ],
      [
        "æĢ",
        "»"
      ],
      [
        "é¦",
        "ĸ"
      ],
      [
        "æĢİ",
        "ä¹Ī"
      ],
      [
        "å",
        "ŀ"
      ],
      [
        "ç",
        "±"
      ],
      [
        "æ",
        "¹"
      ],
      [
        "è¢",
        "«"
      ],
      [
        "æķ",
        "°"
      ],
      [
        "åĽ",
        "ŀ"
      ],
      [
        "è",
        "İ"
      ],
      [
        "éĻ",
        "¢"
      ],
      [
        "å·¥",
        "ä½ľ"
      ],
      [
        "å·",
        "²"
      ],
      [
        "å¤",
        "ĩ"
      ],
      [
        "å¸",
        "ĥ"
      ],
      [
        "æĸ",
        "¯"
      ],
      [
        "1",
        "1"
      ],
      [
        "Ġ",
        "-"
      ],
      [
        "å",
        "ł"
      ],
      [
        "ç",
        "ĸ"
      ],
      [
        "å¸",
        "Ī"
      ],
      [
        "åį",
        "İ"
      ],
      [
        "é©",
        "¬"
      ],
      [
        "èģ",
        "Ķ"
      ],
      [
        "æĭ",
        "Ľ"
      ],
      [
        "é¢",
        "ĺ"
      ],
      [
        "æĪ",
        "¿"
      ],
      [
        "æ",
        "¼"
      ],
      [
        "ĭĹ",
        "ä¸ĩ"
      ],
      [
        "äº",
        "Ķ"
      ],
      [
        "åĲ",
        "Ĺ"
      ],
      [
        "æŃ",
        "¤"
      ],
      [
        "ä»",
        "Ģ"
      ],
      [
        "å",
        "Ķ"
      ],
      [
        "è",
        "º"
      ],
      [
        "æİ",
        "¨"
      ],
      [
        "æµ",
        "ģ"
      ],
      [
        "éĢ",
        "ī"
      ],
      [
        "ä»",
        "»"
      ],
      [
        "çİ",
        "ĭ"
      ],
      [
        "æ",
        "¨"
      ],
      [
        "æİ",
        "¥"
      ],
      [
        "åİ",
        "Ł"
      ],
      [
        "æ²",
        "³"
      ],
      [
        "w",
        "w"
      ],
      [
        "é",
        "Ł"
      ],
      [
        "ä»",
        "İ"
      ],
      [
        "æ²",
        "¡"
      ],
      [
        "æ´",
        "»"
      ],
      [
        "ą",
        "ć"
      ],
      [
        "å§",
        "Ķ"
      ],
      [
        "ï¼",
        "Ľ"
      ],
      [
        "æĪ",
        "ĺ"
      ],
      [
        "e",
        "r"
      ],
      [
        "åº",
        "Ķ"
      ],
      [
        "ï",
        "½"
      ],
      [
        "æī",
        "ĵ"
      ],
      [
        "8",
        "8"
      ],
      [
        "ä¸",
        "ĵ"
      ],
      [
        "éĤ",
        "£"
      ],
      [
        "å¾",
        "Ī"
      ],
      [
        "åĽ",
        "Ľ"
      ],
      [
        "Ġ",
        "3"
      ],
      [
        "ç¥",
        "ŀ"
      ],
      [
        "æ",
        "¥"
      ],
      [
        "æ°",
        "Ķ"
      ],
      [
        "éĹ",
        "®"
      ],
      [
        "é¤",
        "Ĳ"
      ],
      [
        "å±",
        "Ģ"
      ],
      [
        "èī",
        "²"
      ],
      [
        "ç¤",
        "¾"
      ],
      [
        "Ġç",
        "ĭĹä¸ĩ"
      ],
      [
        "æĥ",
        "³"
      ],
      [
        "Ġ",
        "åĪ©æĿ¥"
      ],
      [
        "å°",
        "ĳ"
      ],
      [
        "äº",
        "Ľ"
      ],
      [
        "å¼Ģ",
        "å¥ĸ"
      ],
      [
        "ä»",
        "Ĭ"
      ],
      [
        "èº",
        "«"
      ],
      [
        "åĨ",
        "Ľ"
      ],
      [
        "äº",
        "ī"
      ],
      [
        "è¿",
        "ĳ"
      ],
      [
        "å¾",
        "·"
      ],
      [
        "åģ",
        "ļ"
      ],
      [
        "ç«",
        "¯"
      ],
      [
        "çľ",
        "ģ"
      ],
      [
        "æ",
        "¢"
      ],
      [
        "ä½",
        "Ĩ"
      ],
      [
        "ä¸",
        "¤"
      ],
      [
        "1",
        "2"
      ],
      [
        "ä¸",
        "ĸ"
      ],
      [
        "è¯",
        "·"
      ],
      [
        "å¯",
        "¼"
      ],
      [
        "åŁ",
        "º"
      ],
      [
        "æĹ",
        "Ĺ"
      ],
      [
        "æł",
        "¼"
      ],
      [
        "çŁ",
        "¥"
      ],
      [
        "20",
        "20"
      ],
      [
        "å½",
        "±"
      ],
      [
        "åĲ",
        "Ħ"
      ],
      [
        "ä¸Ģ",
        "ä¸ª"
      ],
      [
        "è",
        "Ħ"
      ],
      [
        "æł",
        "·"
      ],
      [
        "çĻ¾å®¶",
        "ä¹Ĳ"
      ],
      [
        "ç«",
        "ĭ"
      ],
      [
        "5",
        "6"
      ],
      [
        "Ġ",
        "æĺ"
      ],
      [
        "åħ",
        "±"
      ],
      [
        "åı¯",
        "ä»¥"
      ],
      [
        "è¶",
        "³"
      ],
      [
        "æģ",
        "¯"
      ],
      [
        "å",
        "Ļ"
      ],
      [
        "æĪĳ",
        "ä»¬"
      ],
      [
        "ç",
        "¡"
      ],
      [
        "o",
        "n"
      ],
      [
        "å¸",
        "¸"
      ],
      [
        "ä¼",
        "ģ"
      ],
      [
        "ä»Ģ",
        "ä¹Ī"
      ],
      [
        "å¹",
        "¶"
      ],
      [
        "ç¤",
        "º"
      ],
      [
        "è",
        "ª"
      ],
      [
        "é£",
        "İ"
      ],
      [
        "Ġ",
        "bet"
      ],
      [
        "ä¹",
        "¦"
      ],
      [
        "åĽ",
        "ł"
      ],
      [
        "åĲ",
        "ĳ"
      ],
      [
        "éĹ",
        "»"
      ],
      [
        "ä»",
        "·"
      ],
      [
        "å¼",
        "º"
      ],
      [
        "ç»",
        "Ł"
      ],
      [
        "ãĢ",
        "Ģ"
      ],
      [
        "æĶ",
        "¶"
      ],
      [
        "èµ°",
        "åĬ¿"
      ],
      [
        "æĮ",
        "ģ"
      ],
      [
        "çº",
        "§"
      ],
      [
        "ãĢĳãĢĲ",
        "ãĢĤ"
      ],
      [
        "e",
        "n"
      ],
      [
        "ç",
        "ı"
      ],
      [
        "å®ĺæĸ¹",
        "ç½ĳç«Ļ"
      ],
      [
        "ä½",
        "ķ"
      ],
      [
        "è",
        "ĳ"
      ],
      [
        "æ¶",
        "ĵ"
      ],
      [
        "åı",
        "ª"
      ],
      [
        "æł",
        "ĩ"
      ],
      [
        "è",
        "Į"
      ],
      [
        "ç²",
        "¾"
      ],
      [
        "åħ",
        "ļ"
      ],
      [
        "åİ",
        "ħ"
      ],
      [
        "å®¢",
        "æĪ·"
      ],
      [
        "h",
        "t"
      ],
      [
        "æİ",
        "Ĵ"
      ],
      [
        "app",
        "ä¸ĭè½½"
      ],
      [
        "è£",
        "ħ"
      ],
      [
        "1",
        "8"
      ],
      [
        "è",
        "±"
      ],
      [
        "æĸ",
        "Ļ"
      ],
      [
        "Ġ",
        "çľŁäºº"
      ],
      [
        "é¡",
        "µ"
      ],
      [
        "ç",
        "¯"
      ],
      [
        "éĻ",
        "Ĳ"
      ],
      [
        "åħ",
        "į"
      ],
      [
        "è®",
        "º"
      ],
      [
        "A",
        "N"
      ],
      [
        "å°",
        "Ķ"
      ],
      [
        "è¾",
        "¾"
      ],
      [
        "åħ",
        "ī"
      ],
      [
        "å¥",
        "³"
      ],
      [
        "çķ",
        "Į"
      ],
      [
        "æľ",
        "¯"
      ],
      [
        "èĬ",
        "±"
      ],
      [
        "6",
        "6"
      ],
      [
        "æĴ",
        "Ń"
      ],
      [
        "éĢ",
        "ģ"
      ],
      [
        "èĩ",
        "³"
      ],
      [
        "åıĳ",
        "å±ķ"
      ],
      [
        "çī",
        "ĩ"
      ],
      [
        "æ",
        "®"
      ],
      [
        "Ĉ",
        "Ĉ"
      ],
      [
        "1",
        "9"
      ],
      [
        "åĬ",
        "ŀ"
      ],
      [
        "åĪ",
        "Ľ"
      ],
      [
        "åĻ",
        "¨"
      ],
      [
        "èĢ",
        "ĥ"
      ],
      [
        "å¼Ģ",
        "æĪ·"
      ],
      [
        "ç§",
        "į"
      ],
      [
        "æ±",
        "Ĥ"
      ],
      [
        "Ć",
        "ą"
      ],
      [
        "Ġ",
        "0"
      ],
      [
        "åĪĨ",
        "å½©"
      ],
      [
        "é¡",
        "¹"
      ],
      [
        "æŀ",
        "Ĺ"
      ],
      [
        "ä½",
        "¿"
      ],
      [
        "åħ",
        "Ī"
      ],
      [
        "æ¸",
        "¯"
      ],
      [
        "å¤",
        "´"
      ],
      [
        "ç©",
        "º"
      ],
      [
        "ä¼",
        "ł"
      ],
      [
        "æŁ",
        "¥"
      ],
      [
        "ä½ĵèĤ²",
        "æĬķæ³¨"
      ],
      [
        "éĶ",
        "Ľ"
      ],
      [
        "åı",
        "ĸ"
      ],
      [
        "æį",
        "®"
      ],
      [
        "æł",
        "¡"
      ],
      [
        "å",
        "Ħ"
      ],
      [
        "ã",
        "ĥ"
      ],
      [
        "Ġäºļ",
        "æ¸¸"
      ],
      [
        "è",
        "Ń"
      ],
      [
        "æĶ",
        "¾"
      ],
      [
        "èĤ",
        "¡"
      ],
      [
        "ãĢĳãĢĲãĢĤ",
        "ãĢĳãĢĲ"
      ],
      [
        "æĹ¶",
        "éĹ´"
      ],
      [
        "Ġ",
        "2"
      ],
      [
        "éħ",
        "Ĵ"
      ],
      [
        "ä¾",
        "Ľ"
      ],
      [
        "èĭ",
        "±"
      ],
      [
        "æĸ°",
        "éĹ»"
      ],
      [
        "ç»",
        "Ħ"
      ],
      [
        "éĿ",
        "Ĵ"
      ],
      [
        "åĳ",
        "¨"
      ],
      [
        "è®",
        "©"
      ],
      [
        "åĵ",
        "ª"
      ],
      [
        "¨",
        "å¤©"
      ],
      [
        "åħ",
        "Ń"
      ],
      [
        "åħ",
        "ĭ"
      ],
      [
        "æ²",
        "»"
      ],
      [
        "æĦ",
        "Ł"
      ],
      [
        "e",
        "s"
      ],
      [
        "è²",
        "¸"
      ],
      [
        "éĽĨ",
        "åĽ¢"
      ],
      [
        "é",
        "ĸ"
      ],
      [
        "æ¸",
        "ħ"
      ],
      [
        "å¤",
        "Ħ"
      ],
      [
        "éĢ",
        "ł"
      ],
      [
        "åı",
        "Ĺ"
      ],
      [
        "å·",
        "±"
      ],
      [
        "æ·",
        "±"
      ],
      [
        "èģ",
        "ĺ"
      ],
      [
        "é¢",
        "Ĩ"
      ],
      [
        "èµ°åĬ¿",
        "åĽ¾"
      ],
      [
        "è½",
        "¯"
      ],
      [
        "çĶ",
        "±"
      ],
      [
        "ç¾",
        "¤"
      ],
      [
        "å®",
        "ģ"
      ],
      [
        "æĮ",
        "ĩ"
      ],
      [
        "æľį",
        "åĬ¡"
      ],
      [
        "æĿ",
        "ĳ"
      ],
      [
        "åĮ",
        "ħ"
      ],
      [
        "ãĢ",
        "ı"
      ],
      [
        "ãĢ",
        "İ"
      ],
      [
        "çł",
        "Ķ"
      ],
      [
        "è°",
        "ĥ"
      ],
      [
        "è¯",
        "Ŀ"
      ],
      [
        "è",
        "ħ"
      ],
      [
        "éľ",
        "¸"
      ],
      [
        "ç",
        "ħ"
      ],
      [
        "åĬ",
        "©"
      ],
      [
        "å¤",
        "ª"
      ],
      [
        "æĺ",
        "ĵ"
      ],
      [
        "å°",
        "Ĭ"
      ],
      [
        "åŀ",
        "ĭ"
      ],
      [
        "è¯",
        "ģ"
      ],
      [
        "a",
        "r"
      ],
      [
        "æ´",
        "²"
      ],
      [
        "èĲ",
        "¥"
      ],
      [
        "ä¼",
        "ĺ"
      ],
      [
        "éĺ",
        "Ł"
      ],
      [
        "ç»",
        "Ļ"
      ],
      [
        "a",
        "l"
      ],
      [
        "å®¢æĪ·",
        "ç«¯"
      ],
      [
        "è",
        "ı"
      ],
      [
        "Ġæĺ",
        "¨å¤©"
      ],
      [
        "é",
        "į"
      ],
      [
        "a",
        "t"
      ],
      [
        "å¼",
        "ł"
      ],
      [
        "Ĉ",
        "ć"
      ],
      [
        "äº",
        "ĳ"
      ],
      [
        "ä¼ģ",
        "ä¸ļ"
      ],
      [
        "Ġ",
        "çİ¯äºļ"
      ],
      [
        "åĳ",
        "Ĭ"
      ],
      [
        "ç",
        "Ĵ"
      ],
      [
        "ä¹",
        "ł"
      ],
      [
        "é¦",
        "Ļ"
      ],
      [
        "æĶ",
        "¹"
      ],
      [
        "æĹ©",
        "é¤Ĳ"
      ],
      [
        "æī",
        "į"
      ],
      [
        "çĻ",
        "½"
      ],
      [
        "è®",
        "®"
      ],
      [
        "é¢",
        "ĳ"
      ],
      [
        "éĵ",
        "¶"
      ],
      [
        "ç",
        "ĭ"
      ],
      [
        "ãĢı",
        "ãĢİ"
      ],
      [
        "å¸",
        "¦"
      ],
      [
        "æĹ",
        "ħ"
      ],
      [
        "å£",
        "«"
      ],
      [
        "æķ",
        "´"
      ],
      [
        "é£",
        "ŀ"
      ],
      [
        "æĭĽ",
        "èģĺ"
      ],
      [
        "å",
        "ĥ"
      ],
      [
        "åĩ",
        "Ĩ"
      ],
      [
        "ç",
        "Į"
      ],
      [
        "è½¯",
        "ä»¶"
      ],
      [
        "æĪ",
        "ĸ"
      ],
      [
        "èĩª",
        "å·±"
      ],
      [
        "ãĢĤ",
        "âĢĿ"
      ],
      [
        "åįķ",
        "åıĮ"
      ],
      [
        "å",
        "Ĥ"
      ],
      [
        "åŃ",
        "Ĺ"
      ],
      [
        "æ¡",
        "Ī"
      ],
      [
        "ç",
        "ª"
      ],
      [
        "éĿ",
        "ŀ"
      ],
      [
        "éľ",
        "Ģ"
      ],
      [
        "æĭ",
        "ī"
      ],
      [
        "å®",
        "Į"
      ],
      [
        "Ġ",
        "å½©ç¥ŀ"
      ],
      [
        "éĺ",
        "²"
      ],
      [
        "æĶ",
        "¯"
      ],
      [
        "æ",
        "ļ"
      ],
      [
        "æ²¡",
        "æľī"
      ],
      [
        "åĢ",
        "¼"
      ],
      [
        "æŀ",
        "ģ"
      ],
      [
        "å",
        "¡"
      ],
      [
        "è¯",
        "ķ"
      ],
      [
        "åĪ",
        "Ĺ"
      ],
      [
        "æ¶",
        "Ī"
      ],
      [
        "Ĉ",
        "ą"
      ],
      [
        "ä¿",
        "®"
      ],
      [
        "è§",
        "Ĥ"
      ],
      [
        "è¶",
        "ħ"
      ],
      [
        "Ġ",
        "b"
      ],
      [
        "æĹ©",
        "çĤ¹"
      ],
      [
        "äºī",
        "éľ¸"
      ],
      [
        "A",
        "P"
      ],
      [
        "æ",
        "ĳ"
      ],
      [
        "è¿",
        "ŀ"
      ],
      [
        "201",
        "8"
      ],
      [
        "å®",
        "Ŀ"
      ],
      [
        "çİ",
        "ĩ"
      ],
      [
        "âĢ",
        "Ķ"
      ],
      [
        "Ġäºļ",
        "ç¾İ"
      ],
      [
        "æĬ",
        "Ĭ"
      ],
      [
        "æ£ĭçīĮ",
        "æ¸¸æĪı"
      ],
      [
        "è§",
        "ģ"
      ],
      [
        "åĪ",
        "«"
      ],
      [
        "åĨ",
        "į"
      ],
      [
        "æŃ",
        "¥"
      ],
      [
        "å¢",
        "ŀ"
      ],
      [
        "ç",
        "¶"
      ],
      [
        "æĺ",
        "Ł"
      ],
      [
        "åĽ½",
        "å®¶"
      ],
      [
        "o",
        "r"
      ],
      [
        "æľĢ",
        "æĸ°"
      ],
      [
        "ç¦",
        "ı"
      ],
      [
        "é¢",
        "Ħ"
      ],
      [
        "ä¼",
        "Ĺ"
      ],
      [
        "bet",
        "å®ĺç½ĳ"
      ],
      [
        "è",
        "³"
      ],
      [
        "1",
        "5"
      ],
      [
        "çº",
        "¢"
      ],
      [
        "è¯",
        "Ħ"
      ],
      [
        "èĬ",
        "Ĥ"
      ],
      [
        "åĪĨ",
        "å¿«"
      ],
      [
        "èµĮ",
        "éĴ±"
      ],
      [
        "åĮ",
        "»"
      ],
      [
        "è½",
        "¬"
      ],
      [
        "é»",
        "Ħ"
      ],
      [
        "åı",
        "ĭ"
      ],
      [
        "ç½ĳ",
        "æĬķ"
      ],
      [
        "å¾",
        "ĭ"
      ],
      [
        "å",
        "©"
      ],
      [
        "åĢ",
        "Ł"
      ],
      [
        "èģ",
        "Į"
      ],
      [
        "ç",
        "ĳ"
      ],
      [
        "æĸ",
        "½"
      ],
      [
        "è´",
        "¨"
      ],
      [
        "æ¯",
        "ı"
      ],
      [
        "Ġ",
        "åĮĹäº¬"
      ],
      [
        "??",
        "??"
      ],
      [
        "æĿ",
        "ĥ"
      ],
      [
        "å¿",
        "ħ"
      ],
      [
        "ç®",
        "Ĺ"
      ],
      [
        "åħį",
        "è´¹"
      ],
      [
        "æ",
        "¿"
      ],
      [
        "åħ",
        "·"
      ],
      [
        "ç®¡",
        "çĲĨ"
      ],
      [
        "0",
        "8"
      ],
      [
        "/",
        "/"
      ],
      [
        "æ",
        "ĵ"
      ],
      [
        "æľ",
        "ª"
      ],
      [
        "ç",
        "¿"
      ],
      [
        "è®",
        "¤"
      ],
      [
        "å®",
        "¹"
      ],
      [
        "åº",
        "ľ"
      ],
      [
        "æµ",
        "İ"
      ],
      [
        "åĽ",
        "´"
      ],
      [
        "çº¿",
        "ä¸Ĭ"
      ],
      [
        "çĪ",
        "±"
      ],
      [
        "J",
        "I"
      ],
      [
        "é",
        "¥"
      ],
      [
        "æ",
        "ħ"
      ],
      [
        "S",
        "H"
      ],
      [
        "åİ",
        "Ĩ"
      ],
      [
        "å°±",
        "æĺ¯"
      ],
      [
        "è®",
        "¯"
      ],
      [
        "å·",
        "´"
      ],
      [
        "äºº",
        "æ°ĳ"
      ],
      [
        "-",
        "-"
      ],
      [
        "ç",
        "¹"
      ],
      [
        "åı",
        "ĺ"
      ],
      [
        "âĢ",
        "¦"
      ],
      [
        "ä¿¡",
        "æģ¯"
      ],
      [
        "ç",
        "Ĺ"
      ],
      [
        "å°Ĭ",
        "é¾Ļ"
      ],
      [
        "ç»",
        "´"
      ],
      [
        "æĿ",
        "¡"
      ],
      [
        "æĢ",
        "Ŀ"
      ],
      [
        "å¼Ģ",
        "åħĥ"
      ],
      [
        "ç¯",
        "ĩ"
      ],
      [
        "èĪ",
        "°"
      ],
      [
        "è",
        "Ĺ"
      ],
      [
        "ç½",
        "®"
      ],
      [
        "éħ",
        "į"
      ],
      [
        "è¿Ľ",
        "è¡Į"
      ],
      [
        "3",
        "0"
      ],
      [
        "i",
        "s"
      ],
      [
        "å¾",
        "®"
      ],
      [
        "æ¹",
        "ĸ"
      ],
      [
        "å",
        "³"
      ],
      [
        "åĽ",
        "Ń"
      ],
      [
        "èĲ",
        "½"
      ],
      [
        "2",
        "2"
      ],
      [
        "Ġ",
        "5"
      ],
      [
        "å¸Ĥ",
        "åľº"
      ],
      [
        "åı",
        "Ī"
      ],
      [
        "æľī",
        "éĻĲ"
      ],
      [
        "åį",
        "¡"
      ],
      [
        "ç±",
        "»"
      ],
      [
        "ç",
        "Ĭ"
      ],
      [
        "é»",
        "ĳ"
      ],
      [
        "â",
        "Ļ"
      ],
      [
        "Ġ",
        "A"
      ],
      [
        "çģ",
        "«"
      ],
      [
        "å¥",
        "¹"
      ],
      [
        "åħ",
        "´"
      ],
      [
        "è",
        "ŀ"
      ],
      [
        "ï¼ļ",
        "âĢľ"
      ],
      [
        "ä¸Ń",
        "å¿ĥ"
      ],
      [
        "å¨",
        "ģ"
      ],
      [
        "æĤ",
        "¨"
      ],
      [
        "å¼Ģåħĥ",
        "æ£ĭçīĮ"
      ],
      [
        "åı",
        "¤"
      ],
      [
        "ï¿½ï¿½ï¿½ï¿½",
        "ï¿½"
      ],
      [
        "åı",
        "Ĥ"
      ],
      [
        "çľŁ",
        "éĴ±"
      ],
      [
        "Ġ",
        "æĸ°"
      ],
      [
        "æ¬",
        "¢"
      ],
      [
        "å¼",
        "ķ"
      ],
      [
        "0",
        "2"
      ],
      [
        "éĤ",
        "Ģ"
      ],
      [
        "ã",
        "Ħ"
      ],
      [
        "ç¥",
        "¨"
      ],
      [
        "âĻ",
        "Ģ"
      ],
      [
        "æķ",
        "Ī"
      ],
      [
        "åĨ",
        "³"
      ],
      [
        "ä½",
        "ı"
      ],
      [
        "éķ",
        "ĩ"
      ],
      [
        "çĽ´",
        "æĴŃ"
      ],
      [
        "éĹ®",
        "é¢ĺ"
      ],
      [
        "å¹",
        "²"
      ],
      [
        "ä¾",
        "¿"
      ],
      [
        "è¯",
        "¥"
      ],
      [
        "æµ",
        "ĭ"
      ],
      [
        "ç½ĳ",
        "ä¸Ĭ"
      ],
      [
        "åı",
        "²"
      ],
      [
        "ç§",
        "°"
      ],
      [
        "åį",
        "ĩ"
      ],
      [
        "ä¹",
        "ī"
      ],
      [
        "ä¸ĸ",
        "çķĮ"
      ],
      [
        "çł",
        "´"
      ],
      [
        "éª",
        "Į"
      ],
      [
        "åĩ",
        "ł"
      ],
      [
        "ä¹",
        "°"
      ],
      [
        "åı",
        "į"
      ],
      [
        "Â",
        "·"
      ],
      [
        "i",
        "t"
      ],
      [
        "ww",
        "w"
      ],
      [
        "å¤",
        "į"
      ],
      [
        "æ¨",
        "¡"
      ],
      [
        "èĪ",
        "ª"
      ],
      [
        "åŃ",
        "ĺ"
      ],
      [
        "æĿ",
        "İ"
      ],
      [
        "è§Ĩ",
        "é¢ĳ"
      ],
      [
        "åĦ",
        "¿"
      ],
      [
        "çĥ",
        "Ń"
      ],
      [
        "å½",
        "¢"
      ],
      [
        "å¤§",
        "åħ¨"
      ],
      [
        "Ġ",
        ">"
      ],
      [
        "é",
        "Ĭ"
      ],
      [
        "è´",
        "£"
      ],
      [
        "æĿ",
        "¿"
      ],
      [
        "æĲ",
        "ı"
      ],
      [
        "åº",
        "Ĩ"
      ],
      [
        "Ćć",
        "ą"
      ],
      [
        "t",
        "p"
      ],
      [
        "ç»ĵ",
        "æŀľ"
      ],
      [
        "è¨",
        "Ģ"
      ],
      [
        "éŁ",
        "³"
      ],
      [
        "Ġ",
        "C"
      ],
      [
        "åĨ",
        "ł"
      ],
      [
        "ç",
        "¢"
      ],
      [
        "ç»",
        "Ń"
      ],
      [
        "èµ",
        "¢"
      ],
      [
        "åģ",
        "ĩ"
      ],
      [
        "..",
        "."
      ],
      [
        "æĹĹ",
        "èĪ°"
      ],
      [
        "1",
        "6"
      ],
      [
        "è¶",
        "Ĭ"
      ],
      [
        "å·",
        "§"
      ],
      [
        "åľ°",
        "åĿĢ"
      ],
      [
        "æ",
        "½"
      ],
      [
        "é",
        "º"
      ],
      [
        "ç",
        "¸"
      ],
      [
        "å£",
        "°"
      ],
      [
        "AP",
        "P"
      ],
      [
        "æĬ",
        "¤"
      ],
      [
        "æİ",
        "§"
      ],
      [
        "åĬ",
        "Ł"
      ],
      [
        "åĨ",
        "ľ"
      ],
      [
        "æľ",
        "Ľ"
      ],
      [
        "æķĻ",
        "èĤ²"
      ],
      [
        "0",
        "9"
      ],
      [
        "éĤĢ",
        "è¯·"
      ],
      [
        "å·",
        "Ŀ"
      ],
      [
        "æĻ",
        "¯"
      ],
      [
        "ç",
        "Ģ"
      ],
      [
        "è´",
        "Ń"
      ],
      [
        "è",
        "»"
      ],
      [
        "Ġå¤§åıĳ",
        "å¿«ä¸ī"
      ],
      [
        "ç«",
        "ł"
      ],
      [
        "çŁ",
        "³"
      ],
      [
        "åĳ",
        "½"
      ],
      [
        "ht",
        "tp"
      ],
      [
        "è¶³",
        "çĲĥ"
      ],
      [
        "æĬĢ",
        "æľ¯"
      ],
      [
        "æľīéĻĲ",
        "åħ¬åı¸"
      ],
      [
        "0",
        "4"
      ],
      [
        "æ",
        "©"
      ],
      [
        "1",
        "7"
      ],
      [
        "ä»£",
        "çĲĨ"
      ],
      [
        "å°",
        "¼"
      ],
      [
        "å»º",
        "è®¾"
      ],
      [
        "åħ",
        "«"
      ],
      [
        "Ġ",
        "S"
      ],
      [
        "éĶ",
        "Ģ"
      ],
      [
        "åĶ",
        "®"
      ],
      [
        "æī",
        "¹"
      ],
      [
        "å®ī",
        "åħ¨"
      ],
      [
        "åº",
        "·"
      ],
      [
        "å",
        "ĺ"
      ],
      [
        "å§",
        "ĭ"
      ],
      [
        ":",
        "//"
      ],
      [
        "æĶ¿",
        "åºľ"
      ],
      [
        "l",
        "e"
      ],
      [
        "ć",
        "ć"
      ],
      [
        "éĴ",
        "Ł"
      ],
      [
        "å·¥",
        "ç¨ĭ"
      ],
      [
        "ä¸",
        "¾"
      ],
      [
        "å¢",
        "ĥ"
      ],
      [
        "åį",
        "³"
      ],
      [
        "ç¡",
        "®"
      ],
      [
        "è¯",
        "Ń"
      ],
      [
        "å¹",
        "¸"
      ],
      [
        "èµĽ",
        "è½¦"
      ],
      [
        "é",
        "ł"
      ],
      [
        "éĺ",
        "¿"
      ],
      [
        "ç½",
        "Ĺ"
      ],
      [
        "èĭ",
        "ı"
      ],
      [
        "ç©",
        "¶"
      ],
      [
        "ç»ı",
        "æµİ"
      ],
      [
        "1",
        "4"
      ],
      [
        "åį",
        "ĥ"
      ],
      [
        "0",
        "5"
      ],
      [
        "Ġ",
        "å¤§"
      ],
      [
        "X",
        "I"
      ],
      [
        "0",
        "7"
      ],
      [
        "é¦Ļ",
        "æ¸¯"
      ],
      [
        "ä»ĸ",
        "ä»¬"
      ],
      [
        "è¾",
        "¹"
      ],
      [
        "ç¾İ",
        "åĽ½"
      ],
      [
        "åĪ",
        "Ļ"
      ],
      [
        "ä¸Ĭ",
        "æµ·"
      ],
      [
        "æ",
        "¾³éĹ¨"
      ],
      [
        "Ġ",
        "å°Ĭé¾Ļ"
      ],
      [
        "çļ",
        "ĩ"
      ],
      [
        "è",
        "©"
      ],
      [
        "çħ",
        "§"
      ],
      [
        "ä¸Ģ",
        "ç¯ĩ"
      ],
      [
        "èŀ",
        "į"
      ],
      [
        "ç",
        "µ"
      ],
      [
        "çº",
        "¦"
      ],
      [
        "ä»",
        "½"
      ],
      [
        "é",
        "²"
      ],
      [
        "a",
        "m"
      ],
      [
        "éħĴ",
        "åºĹ"
      ],
      [
        "èª",
        "ī"
      ],
      [
        "æĻ",
        "®"
      ],
      [
        "Z",
        "H"
      ],
      [
        "åľ",
        "ĭ"
      ],
      [
        "å¿",
        "Ĺ"
      ],
      [
        "æıĲ",
        "ä¾Ľ"
      ],
      [
        "s",
        "t"
      ],
      [
        "è²¸",
        "æ¬¾"
      ],
      [
        "ç«",
        "ŀ"
      ],
      [
        "çĽ",
        "ĳ"
      ],
      [
        "Ġ",
        "pk"
      ],
      [
        "æŃ",
        "Į"
      ],
      [
        "åį",
        "ĵ"
      ],
      [
        "æ²",
        "Ļ"
      ],
      [
        "ä¹",
        "¡"
      ],
      [
        "2",
        "5"
      ],
      [
        "Ġ",
        "t"
      ],
      [
        "ç±",
        "³"
      ],
      [
        "Ġ",
        "P"
      ],
      [
        "éļ",
        "¾"
      ],
      [
        "201",
        "7"
      ],
      [
        "Ġ",
        "çĶµ"
      ],
      [
        "æĬĢ",
        "å·§"
      ],
      [
        "éĤĢè¯·",
        "çłģ"
      ],
      [
        "åį",
        "ı"
      ],
      [
        "æ¼",
        "Ķ"
      ],
      [
        "æ",
        "¦"
      ],
      [
        "å®",
        "¤"
      ],
      [
        "o",
        "u"
      ],
      [
        "Ġ3",
        "56"
      ],
      [
        "0",
        "6"
      ],
      [
        "åħ",
        "µ"
      ],
      [
        "æ±",
        "½"
      ],
      [
        "æĺ",
        "¥"
      ],
      [
        "äºĮ",
        "æīĭ"
      ],
      [
        "èİ",
        "·"
      ],
      [
        "åĲ",
        "ī"
      ],
      [
        "å¤§",
        "åŃ¦"
      ],
      [
        "0",
        "1"
      ],
      [
        "é¡¹",
        "çĽ®"
      ],
      [
        "æ",
        "¾"
      ],
      [
        "æĢ",
        "ģ"
      ],
      [
        "è´",
        "¢"
      ],
      [
        "åŁ",
        "¹"
      ],
      [
        "è¯",
        "»"
      ],
      [
        "Ġ",
        "M"
      ],
      [
        "c",
        "n"
      ],
      [
        "ç",
        "Ĩ"
      ],
      [
        "å¯",
        "Į"
      ],
      [
        "åħ",
        "ħ"
      ],
      [
        "èĭ",
        "¹"
      ],
      [
        "èŃ",
        "¦"
      ],
      [
        "çī",
        "Ľ"
      ],
      [
        "Ġæ",
        "ŀ"
      ],
      [
        "Ġ",
        "T"
      ],
      [
        "èĭ¹",
        "æŀľ"
      ],
      [
        "ä¹",
        "Ŀ"
      ],
      [
        "äº",
        "¿"
      ],
      [
        "ç¤¾",
        "ä¼ļ"
      ],
      [
        "ä½",
        "İ"
      ],
      [
        "åħ",
        "°"
      ],
      [
        "é",
        "Ń"
      ],
      [
        "æŃ",
        "¦"
      ],
      [
        "æĻ",
        "º"
      ],
      [
        "è¿",
        "ľ"
      ],
      [
        "èĮ",
        "ĥ"
      ],
      [
        "ä»",
        "ĭ"
      ],
      [
        "é",
        "¸"
      ],
      [
        "i",
        "c"
      ],
      [
        "é£",
        "Ł"
      ],
      [
        "å¤",
        "®"
      ],
      [
        "2",
        "3"
      ],
      [
        "åŁ",
        "Ł"
      ],
      [
        "çķ",
        "Ļ"
      ],
      [
        "0",
        "3"
      ],
      [
        "å¦Ĥ",
        "ä½ķ"
      ],
      [
        "2",
        "4"
      ],
      [
        "çĽ",
        "ĺ"
      ],
      [
        "ç»",
        "ľ"
      ],
      [
        "é¦ĸ",
        "é¡µ"
      ],
      [
        "äº§",
        "åĵģ"
      ],
      [
        "æµ",
        "ľ"
      ],
      [
        "ç¼",
        "ĸ"
      ],
      [
        "Ġ",
        "w"
      ],
      [
        "r",
        "e"
      ],
      [
        "2",
        "8"
      ],
      [
        "s",
        "e"
      ],
      [
        "å¤ĩ",
        "çĶ¨"
      ],
      [
        "A",
        "NG"
      ],
      [
        "åľ",
        "Ł"
      ],
      [
        "è",
        "Ĵ"
      ],
      [
        "Ġ",
        "çĻ¾å®¶ä¹Ĳ"
      ],
      [
        "é",
        "±"
      ],
      [
        "æŀ",
        "Ħ"
      ],
      [
        "åĥ",
        "ı"
      ],
      [
        "åĩ",
        "»"
      ],
      [
        "çİ°",
        "éĩĳ"
      ],
      [
        "åł",
        "Ĥ"
      ],
      [
        "èī",
        "º"
      ],
      [
        "å",
        "ª"
      ],
      [
        "æĸ°éĹ»",
        "ç½ĳ"
      ],
      [
        "æł",
        "¹"
      ],
      [
        "åī",
        "¯"
      ],
      [
        "åıĳ",
        "å¸ĥ"
      ],
      [
        "åĢ",
        "Ļ"
      ],
      [
        "ç¬¬",
        "ä¸Ģ"
      ],
      [
        "å±",
        "ħ"
      ],
      [
        "åģ",
        "¥"
      ],
      [
        "é±",
        "¼"
      ],
      [
        "l",
        "o"
      ],
      [
        "ç¦",
        "»"
      ],
      [
        "æĸĩ",
        "åĮĸ"
      ],
      [
        "æľ",
        "ĥ"
      ],
      [
        "åĲ",
        "¬"
      ],
      [
        "é",
        "Ĳ"
      ],
      [
        "æĹ©é¤Ĳ",
        "åĬłçĽŁ"
      ],
      [
        "äº",
        "Ĵ"
      ],
      [
        "åĨ",
        "µ"
      ],
      [
        "æĿ¥",
        "æºĲ"
      ],
      [
        "Ġ",
        "9"
      ],
      [
        "h",
        "e"
      ],
      [
        "Ġ",
        "B"
      ],
      [
        "å¾",
        "Ģ"
      ],
      [
        "2",
        "1"
      ],
      [
        "çŃ",
        "ĸ"
      ],
      [
        "è¿Ļ",
        "ä¸ª"
      ],
      [
        "çĶ",
        "³"
      ],
      [
        "âĻĢ",
        "âĻĢ"
      ],
      [
        "è¡¨",
        "ç¤º"
      ],
      [
        "é",
        "ı"
      ],
      [
        "çı",
        "Ń"
      ],
      [
        "éĻ",
        "¤"
      ],
      [
        "æ±",
        "ī"
      ],
      [
        "æĽ",
        "°"
      ],
      [
        "Ġæ",
        "±"
      ],
      [
        "æĮ",
        "ī"
      ],
      [
        "è¾",
        "ĵ"
      ],
      [
        "éĻ",
        "Ĩ"
      ],
      [
        "ç½ĳ",
        "ç»ľ"
      ],
      [
        "åħ",
        "»"
      ],
      [
        "æĹ",
        "ı"
      ],
      [
        "èĩ",
        "´"
      ],
      [
        "éĻ",
        "©"
      ],
      [
        "æ´»",
        "åĬ¨"
      ],
      [
        "âĢĿ",
        "ï¼Į"
      ],
      [
        "Ġæ",
        "Ń"
      ],
      [
        "Ġ",
        "("
      ],
      [
        "è¯",
        "Ĩ"
      ],
      [
        "èµĦ",
        "æĸĻ"
      ],
      [
        "è»",
        "Ĭ"
      ],
      [
        "çłĶ",
        "ç©¶"
      ],
      [
        "è´",
        "§"
      ],
      [
        "åĿ",
        "ļ"
      ],
      [
        "ä¸",
        "´"
      ],
      [
        "éĢļ",
        "è¿ĩ"
      ],
      [
        "å·²",
        "ç»ı"
      ],
      [
        "ç",
        "ĵ"
      ],
      [
        "åį",
        "°"
      ],
      [
        "è®°",
        "èĢħ"
      ],
      [
        "è®",
        "Ń"
      ],
      [
        "çľ",
        "¼"
      ],
      [
        "å®",
        "£"
      ],
      [
        "è®",
        "¸"
      ],
      [
        "Ġæ",
        "µ"
      ],
      [
        "éĩ",
        "ĩ"
      ],
      [
        "Ġ",
        "ä¸ĩ"
      ],
      [
        "Ġ",
        "å¼Ģåħĥæ£ĭçīĮ"
      ],
      [
        "çĶ",
        "·"
      ],
      [
        "å¤",
        "±"
      ],
      [
        "æī",
        "¾"
      ],
      [
        "ç§",
        "Ĵ"
      ],
      [
        "å¤ļ",
        "å°ĳ"
      ],
      [
        "ä¿¡",
        "èªī"
      ],
      [
        "æŃ",
        "»"
      ],
      [
        "åĲ",
        "ĥ"
      ],
      [
        "å¥½",
        "çļĦ"
      ],
      [
        "åĪĨ",
        "éĴŁ"
      ],
      [
        "æķ",
        "ħ"
      ],
      [
        "æĻ",
        "ļ"
      ],
      [
        "æ£",
        "Ģ"
      ],
      [
        "åİ",
        "Ĥ"
      ],
      [
        "éļ",
        "ı"
      ],
      [
        "Ġ",
        "H"
      ],
      [
        "éĿ",
        "ł"
      ],
      [
        "æ®",
        "µ"
      ],
      [
        "çĶŁ",
        "æ´»"
      ],
      [
        "Ġ",
        "c"
      ],
      [
        "ç§ĳ",
        "æĬĢ"
      ],
      [
        "å®ī",
        "åįĵ"
      ],
      [
        "Ġag",
        "çİ¯äºļ"
      ],
      [
        "æĥ",
        "ł"
      ],
      [
        "æ",
        "¤"
      ],
      [
        "çº",
        "ª"
      ],
      [
        "Ġ",
        "R"
      ],
      [
        "çĤ",
        "º"
      ],
      [
        "æŃ£",
        "è§Ħ"
      ],
      [
        "çĽ",
        "Ĭ"
      ],
      [
        "a",
        "d"
      ],
      [
        "éĵ",
        "ģ"
      ],
      [
        "i",
        "d"
      ],
      [
        "åĲĪ",
        "ä½ľ"
      ],
      [
        "ą",
        "ĆĈ"
      ],
      [
        "ä¸į",
        "æĺ¯"
      ],
      [
        "ä¾",
        "Ŀ"
      ],
      [
        "æľ",
        "¨"
      ],
      [
        "Ġ",
        "k"
      ],
      [
        "åĸ",
        "ľ"
      ],
      [
        "çķ",
        "¥"
      ],
      [
        "æĹĹèĪ°",
        "åİħ"
      ],
      [
        "çĶµ",
        "åŃĲ"
      ],
      [
        "è",
        "ĸ"
      ],
      [
        "åĪ",
        "Ŀ"
      ],
      [
        "èī",
        "ĩ"
      ],
      [
        "æŀ",
        "Ĳ"
      ],
      [
        "åį",
        "«"
      ],
      [
        "æĺ",
        "¾"
      ],
      [
        "æĹħ",
        "æ¸¸"
      ],
      [
        "æ»",
        "¡"
      ],
      [
        "åĪ",
        "ĺ"
      ],
      [
        "æ¥",
        "Ń"
      ],
      [
        "æ²",
        "¹"
      ],
      [
        "æĿ",
        "Ĳ"
      ],
      [
        "åŁİ",
        "å¸Ĥ"
      ],
      [
        "èĻ",
        "İ"
      ],
      [
        "in",
        "g"
      ],
      [
        "A",
        "O"
      ],
      [
        "æĸ",
        "Ń"
      ],
      [
        "ç¨",
        "³"
      ],
      [
        "åĲ",
        "§"
      ],
      [
        "ã",
        "Ĥ"
      ],
      [
        "å¼Ģå¥ĸ",
        "ç»ĵæŀľ"
      ],
      [
        "å®",
        "ĥ"
      ],
      [
        "æī",
        "¿"
      ],
      [
        "æĹ©çĤ¹",
        "åĬłçĽŁ"
      ],
      [
        "è",
        "Ľ"
      ],
      [
        "å¯",
        "Ł"
      ],
      [
        "Ć",
        "ï¼Į"
      ],
      [
        "ç§",
        "¯"
      ],
      [
        "2",
        "7"
      ],
      [
        "æĻ",
        "Ĥ"
      ],
      [
        "ä¸",
        "Ķ"
      ],
      [
        "çİ°",
        "åľ¨"
      ],
      [
        "åį",
        "Ĭ"
      ],
      [
        "ä¸ĵ",
        "ä¸ļ"
      ],
      [
        "é",
        "İ"
      ],
      [
        "Ġ",
        "L"
      ],
      [
        "äº",
        "«"
      ],
      [
        "è®",
        "²"
      ],
      [
        "è´",
        "Ł"
      ],
      [
        "O",
        "NG"
      ],
      [
        "éľĢ",
        "è¦ģ"
      ],
      [
        "Ġ",
        "D"
      ],
      [
        "å¯",
        "Ĩ"
      ],
      [
        "æĸ",
        "Ĺ"
      ],
      [
        "åĪ",
        "ĩ"
      ],
      [
        "åº",
        "ķ"
      ],
      [
        "C",
        "H"
      ],
      [
        "è±",
        "¡"
      ],
      [
        "é",
        "Į"
      ],
      [
        "ä¸",
        "°"
      ],
      [
        "åĵ",
        "į"
      ],
      [
        "è",
        "ĵ"
      ],
      [
        "åħ¨",
        "åĽ½"
      ],
      [
        "æĬķ",
        "èµĦ"
      ],
      [
        "æł",
        "¸"
      ],
      [
        "æıĲ",
        "çİ°"
      ],
      [
        "æ©",
        "Ł"
      ],
      [
        "2",
        "6"
      ],
      [
        "Ġæ",
        "²"
      ],
      [
        "é",
        "¹"
      ],
      [
        "éĽ",
        "Ħ"
      ],
      [
        "å¥",
        "ĩ"
      ],
      [
        "çĽ¸",
        "åħ³"
      ],
      [
        "ä¾",
        "ĭ"
      ],
      [
        "å¸",
        "Ń"
      ],
      [
        "à",
        "¸"
      ],
      [
        "ä¹",
        "ħ"
      ],
      [
        "i",
        "p"
      ],
      [
        "Ġæŀ",
        "ģ"
      ],
      [
        "å¿",
        "µ"
      ],
      [
        "en",
        "t"
      ],
      [
        "ä¸",
        "¥"
      ],
      [
        "éĩį",
        "è¦ģ"
      ],
      [
        "è¿",
        "İ"
      ],
      [
        "ç®",
        "Ģ"
      ],
      [
        "è¯",
        "į"
      ],
      [
        "åİĨ",
        "åı²"
      ],
      [
        "æĶ",
        "»"
      ],
      [
        "åį",
        "´"
      ],
      [
        "ç",
        "ĩ"
      ],
      [
        "ç»",
        "Ī"
      ],
      [
        "çļĦ",
        "ä¸Ģ"
      ],
      [
        "åŃ",
        "£"
      ],
      [
        "e",
        "l"
      ],
      [
        "äº",
        "²"
      ],
      [
        "æ°",
        "¸"
      ],
      [
        "çĹ",
        "ħ"
      ],
      [
        "Ġæŀģ",
        "éĢŁ"
      ],
      [
        "åĢ",
        "ĭ"
      ],
      [
        "çļĦ",
        "äºº"
      ],
      [
        "è·",
        "Ł"
      ],
      [
        "Ġ",
        "10"
      ],
      [
        "åĵģ",
        "çīĮ"
      ],
      [
        "åŃ",
        "©"
      ],
      [
        "ç»",
        "ĩ"
      ],
      [
        "Ġ",
        "I"
      ],
      [
        "è´",
        "µ"
      ],
      [
        "éĿ",
        "©"
      ],
      [
        "å¦Ĥ",
        "æŀľ"
      ],
      [
        "å¹¸",
        "è¿Ĳ"
      ],
      [
        "èµ",
        "ļ"
      ],
      [
        "Ġ",
        "G"
      ],
      [
        "a",
        "c"
      ],
      [
        "è§",
        "ī"
      ],
      [
        "ç§",
        "Ł"
      ],
      [
        "Ć",
        "ĆĈ"
      ],
      [
        "è¾",
        "ĥ"
      ],
      [
        "åİ",
        "ĭ"
      ],
      [
        "ä½",
        "Ļ"
      ],
      [
        "è¦ģ",
        "æ±Ĥ"
      ],
      [
        "éĻ",
        "į"
      ],
      [
        "ä½¿",
        "çĶ¨"
      ],
      [
        "2",
        "9"
      ],
      [
        "æ¬",
        "§"
      ],
      [
        "å±",
        "ŀ"
      ],
      [
        "5",
        "0"
      ],
      [
        "å¤",
        "«"
      ],
      [
        "ä¸",
        "ĥ"
      ],
      [
        "æ¸¸æĪı",
        "å¹³åı°"
      ],
      [
        "åĪĨ",
        "æĹ¶æĹ¶å½©"
      ],
      [
        "å²",
        "Ľ"
      ],
      [
        "Ĉ",
        "ï¼Į"
      ],
      [
        "çĶ",
        "°"
      ],
      [
        "ä¾",
        "Ĩ"
      ],
      [
        "åŃ",
        "¸"
      ],
      [
        "äºº",
        "åĳĺ"
      ],
      [
        "è¡Į",
        "ä¸ļ"
      ],
      [
        "çİ°",
        "åľº"
      ],
      [
        "Ĉ",
        "ąć"
      ],
      [
        "å³",
        "°"
      ],
      [
        "âĢ",
        "ķ"
      ],
      [
        "åī",
        "§"
      ],
      [
        "Ġ",
        "ãĢĲ"
      ],
      [
        "å±",
        "Ĥ"
      ],
      [
        "åª",
        "Ĵ"
      ],
      [
        "å",
        "´"
      ],
      [
        "èħ",
        "¾"
      ],
      [
        "Ġ",
        "4"
      ],
      [
        "é¦",
        "Ĩ"
      ],
      [
        "å¤©",
        "å¤©"
      ],
      [
        "åĸ",
        "Ħ"
      ],
      [
        "u",
        "n"
      ],
      [
        "r",
        "o"
      ],
      [
        "é£ŀ",
        "èīĩ"
      ],
      [
        "æ³",
        "¢"
      ],
      [
        "ä¸Ń",
        "å¤®"
      ],
      [
        "Ġ",
        "æīĭæľº"
      ],
      [
        "è¡",
        "Ĺ"
      ],
      [
        "ç³»",
        "ç»Ł"
      ],
      [
        "çĶµ",
        "æ¸¸"
      ],
      [
        "äºĨ",
        "ä¸Ģ"
      ],
      [
        "è®¾",
        "è®¡"
      ],
      [
        "éĻ",
        "Ī"
      ],
      [
        "ä»",
        "¤"
      ],
      [
        "å¤",
        "ı"
      ],
      [
        "åĿ",
        "Ľ"
      ],
      [
        ",",
        "ãĢĲ"
      ],
      [
        "æĸ¹",
        "éĿ¢"
      ],
      [
        "Ġäºļ",
        "æĲı"
      ],
      [
        "æ´",
        "¥"
      ],
      [
        "æ¸",
        "©"
      ],
      [
        "åĪĨ",
        "æŀĲ"
      ],
      [
        "Ġ",
        "F"
      ],
      [
        "æĥħ",
        "åĨµ"
      ],
      [
        "201",
        "6"
      ],
      [
        "ã",
        "ģ"
      ],
      [
        "èĤ",
        "ĸ"
      ],
      [
        "éŁ",
        "©"
      ],
      [
        "ãĢĤ",
        "ãĢĤ"
      ],
      [
        "i",
        "on"
      ],
      [
        "Ġ",
        "E"
      ],
      [
        "â",
        "ĸ"
      ],
      [
        "åį",
        "Ģ"
      ],
      [
        "Ġ",
        "d"
      ],
      [
        "é",
        "½"
      ],
      [
        "å¤ĸ",
        "åĽ´"
      ],
      [
        "å®",
        "ľ"
      ],
      [
        "éĢ",
        "Ļ"
      ],
      [
        "å¸",
        "Į"
      ],
      [
        "äºļ",
        "æ´²"
      ],
      [
        "ãĢ",
        "į"
      ],
      [
        "Ġ",
        "W"
      ],
      [
        "Ġ",
        "åįĹ"
      ],
      [
        "æ",
        "ĩ"
      ],
      [
        "çĶ",
        "»"
      ],
      [
        "è¡",
        "Ģ"
      ],
      [
        "éĵ",
        "¾"
      ],
      [
        "èĳ",
        "¡"
      ],
      [
        "å·",
        "¦"
      ],
      [
        "å¤§",
        "å°ı"
      ],
      [
        "åŃ¦",
        "ä¹ł"
      ],
      [
        "æĿ",
        "Ģ"
      ],
      [
        "ï¿½ï¿½ï¿½ï¿½",
        "ï¿½ï¿½"
      ],
      [
        "çĽ®",
        "åīį"
      ],
      [
        "åħ",
        "¸"
      ],
      [
        "å¤",
        "ľ"
      ],
      [
        "Ġå¤§åıĳ",
        "æĹ¶æĹ¶å½©"
      ],
      [
        "âĢĿ",
        "ãĢĤ"
      ],
      [
        "æ»",
        "ļ"
      ],
      [
        "èĹ",
        "ı"
      ],
      [
        "ãĢ",
        "Į"
      ],
      [
        "éĺ",
        "ħ"
      ],
      [
        "åı¯",
        "èĥ½"
      ],
      [
        "åĵ",
        "Ī"
      ],
      [
        "èĥ",
        "ľ"
      ],
      [
        "Ġåĩ¯",
        "æĹ¶"
      ],
      [
        "ä»·",
        "æł¼"
      ],
      [
        "e",
        "d"
      ],
      [
        "Ġ",
        "U"
      ],
      [
        "çĻ",
        "¼"
      ],
      [
        "é",
        "¼"
      ],
      [
        "Ġ",
        "å¤©"
      ],
      [
        "å¥",
        "Ĺ"
      ],
      [
        "æĮ",
        "Ĥ"
      ],
      [
        "äºº",
        "çļĦ"
      ],
      [
        "æµ",
        "ł"
      ],
      [
        "çª",
        "ģ"
      ],
      [
        "åģ",
        "ľ"
      ],
      [
        "æĭ",
        "ħ"
      ],
      [
        "çľŁ",
        "çļĦ"
      ],
      [
        "ãĢĳ",
        ",ãĢĲ"
      ],
      [
        "æ¹",
        "¾"
      ],
      [
        "Ġ",
        "åĪĨ"
      ],
      [
        "æ±½",
        "è½¦"
      ],
      [
        "æ¥",
        "¼"
      ],
      [
        "é¡",
        "º"
      ],
      [
        "æĺ",
        "Į"
      ],
      [
        "å®",
        "¡"
      ],
      [
        "m",
        "l"
      ],
      [
        "æĵ",
        "į"
      ],
      [
        "åĪ°",
        "äºĨ"
      ],
      [
        "çĶŁ",
        "äº§"
      ],
      [
        "è§",
        "Ĵ"
      ],
      [
        "å¤§",
        "å®¶"
      ],
      [
        "L",
        "I"
      ],
      [
        "Ġ",
        "2019"
      ],
      [
        "å¾",
        "ħ"
      ],
      [
        "D",
        "E"
      ],
      [
        "åĽł",
        "ä¸º"
      ],
      [
        "æŁ",
        "Ĳ"
      ],
      [
        "å½©ç¥ŀ",
        "äºīéľ¸"
      ],
      [
        "è¯",
        "¢"
      ],
      [
        "è",
        "¼"
      ],
      [
        "æ¼",
        "ı"
      ],
      [
        "9",
        "9"
      ],
      [
        "ç",
        "·"
      ],
      [
        "èı",
        "ľ"
      ],
      [
        "æĹ¶",
        "åĢĻ"
      ],
      [
        "Ġ",
        "N"
      ],
      [
        "3",
        "56"
      ],
      [
        "éª",
        "Ĺ"
      ],
      [
        "ä»",
        "ħ"
      ],
      [
        "ĠçĶµ",
        "çİ©"
      ],
      [
        "éĢ",
        "Ģ"
      ],
      [
        "è¿Ļ",
        "äºĽ"
      ],
      [
        "a",
        "s"
      ],
      [
        "ä¹Ł",
        "æĺ¯"
      ],
      [
        "ç´",
        "¢"
      ],
      [
        "Ġ",
        "/"
      ],
      [
        "åĲĮ",
        "æĹ¶"
      ],
      [
        "ä¹¦",
        "è®°"
      ],
      [
        "æĽ",
        "¾"
      ],
      [
        "åŃ¦",
        "çĶŁ"
      ],
      [
        "ç¬",
        "ĳ"
      ],
      [
        "ä½ĵèĤ²",
        "åľ¨çº¿"
      ],
      [
        "æīĢ",
        "æľī"
      ],
      [
        "åº",
        "§"
      ],
      [
        "æĪĲ",
        "ä¸º"
      ],
      [
        "Ġ",
        "s"
      ],
      [
        "ä»¥",
        "åıĬ"
      ],
      [
        "çº",
        "³"
      ],
      [
        "ï¼Į",
        "âĢľ"
      ],
      [
        "æķ°",
        "æį®"
      ],
      [
        "çŁ¥",
        "éģĵ"
      ],
      [
        "åĨ",
        "²"
      ],
      [
        "ä»",
        "ĺ"
      ],
      [
        "ä¸į",
        "èĥ½"
      ],
      [
        "Ġ",
        "p"
      ],
      [
        "äº§",
        "ä¸ļ"
      ],
      [
        "Ġ",
        "2020"
      ],
      [
        "åŃ¦",
        "æł¡"
      ],
      [
        "o",
        "t"
      ],
      [
        "Ġ",
        "K"
      ],
      [
        "èĦ",
        "ĳ"
      ],
      [
        "Ġ",
        "O"
      ],
      [
        "å¸",
        "®"
      ],
      [
        "Ġæ¾³éĹ¨",
        "çĻ¾å®¶"
      ],
      [
        "é",
        "Ĩ"
      ],
      [
        "ç»Ħ",
        "ç»ĩ"
      ],
      [
        "å¤§",
        "çļĦ"
      ],
      [
        "åº",
        "ĵ"
      ],
      [
        "åĿ",
        "ĩ"
      ],
      [
        "åŃ¦",
        "éĻ¢"
      ],
      [
        "åŁ¹",
        "è®Ń"
      ],
      [
        "è¯",
        "¾"
      ],
      [
        "åĨ",
        "Ļ"
      ],
      [
        "ç§",
        "»"
      ],
      [
        "æ¾",
        "¶"
      ],
      [
        "è¿Ļ",
        "æł·"
      ],
      [
        "ĠåĮĹäº¬",
        "pk"
      ],
      [
        ")",
        ";"
      ],
      [
        "ç»",
        "į"
      ],
      [
        "èī",
        "¯"
      ],
      [
        "å",
        "Ĺ"
      ],
      [
        "åº",
        "Ħ"
      ],
      [
        "èį",
        "¯"
      ],
      [
        "æī",
        "ĺ"
      ],
      [
        "æľ",
        "Ŀ"
      ],
      [
        "Ġ",
        "V"
      ],
      [
        "è",
        "«"
      ],
      [
        "é¢",
        "Ŀ"
      ],
      [
        "ç¶",
        "²"
      ],
      [
        "ä¸",
        "½"
      ],
      [
        "æĿ",
        "¾"
      ],
      [
        "è½",
        "»"
      ],
      [
        "éĵ¶",
        "æ²³"
      ],
      [
        "å¼Ģ",
        "å§ĭ"
      ],
      [
        "æŃ",
        "¢"
      ],
      [
        "è´",
        "¦"
      ],
      [
        "Ġæ",
        "°"
      ],
      [
        "å®ī",
        "è£ħ"
      ],
      [
        "å¤",
        "Ł"
      ],
      [
        "Ġ",
        "m"
      ],
      [
        "å®¢æĪ·ç«¯",
        "ä¸ĭè½½"
      ],
      [
        "å±",
        "ĭ"
      ],
      [
        "è®º",
        "åĿĽ"
      ],
      [
        "å¤§åıĳ",
        "å¿«ä¸ī"
      ],
      [
        "ĠåĪ©æĿ¥",
        "w"
      ],
      [
        "éĽ",
        "·"
      ],
      [
        "åħ³",
        "äºİ"
      ],
      [
        "è®",
        "¿"
      ],
      [
        "ç»",
        "Ĩ"
      ],
      [
        "ĆĈ",
        "ą"
      ],
      [
        "i",
        "g"
      ],
      [
        "å°",
        "½"
      ],
      [
        "çŃ",
        "¾"
      ],
      [
        "åı",
        "³"
      ],
      [
        "åĪĨ",
        "pk"
      ],
      [
        "A",
        "I"
      ],
      [
        "åħ¶",
        "ä»ĸ"
      ],
      [
        "èį",
        "£"
      ],
      [
        "æĦ",
        "¿"
      ],
      [
        "æŀģ",
        "éĢŁ"
      ],
      [
        "èĳ",
        "Ĺ"
      ],
      [
        "ç²¾",
        "ç¥ŀ"
      ],
      [
        "åĭ",
        "ķ"
      ],
      [
        "Ĥ",
        "¬"
      ],
      [
        "éĤ",
        "®"
      ],
      [
        "å¾Ī",
        "å¤ļ"
      ],
      [
        "â",
        "ķ"
      ],
      [
        "æĽ",
        "²"
      ],
      [
        "éĥ½",
        "æĺ¯"
      ],
      [
        "Ġ",
        "7"
      ],
      [
        "æ¯",
        "į"
      ],
      [
        "äº¤",
        "æµģ"
      ],
      [
        "å²",
        "ģ"
      ],
      [
        "äº¤",
        "æĺĵ"
      ],
      [
        "è¿ĺ",
        "æĺ¯"
      ],
      [
        "éĽ",
        "»"
      ],
      [
        "åĪ",
        "»"
      ],
      [
        "æĹ¥",
        "æľ¬"
      ],
      [
        "æĭ",
        "¿"
      ],
      [
        "ç",
        "£"
      ],
      [
        "æĭ",
        "į"
      ],
      [
        "ä½ľ",
        "èĢħ"
      ],
      [
        "çĶµ",
        "å½±"
      ],
      [
        "Ġ",
        "f"
      ],
      [
        ")",
        "("
      ],
      [
        "æī",
        "§"
      ],
      [
        "åĺ",
        "ī"
      ],
      [
        "ä½ľ",
        "ä¸º"
      ],
      [
        "åĪĽ",
        "æĸ°"
      ],
      [
        "ç´",
        "ł"
      ],
      [
        "Ġ",
        "6"
      ],
      [
        "âĢľ",
        "ãĢĳãĢĲ"
      ],
      [
        "Ġ",
        "ä¸Ń"
      ],
      [
        "å®",
        "Ī"
      ],
      [
        "çĸ",
        "«"
      ],
      [
        "ä»£",
        "è¡¨"
      ],
      [
        "å±",
        "Ĭ"
      ],
      [
        "è®¾",
        "å¤ĩ"
      ],
      [
        "çİ",
        "ī"
      ],
      [
        "æ±",
        "ĩ"
      ],
      [
        "â",
        "Ĥ¬"
      ],
      [
        "ç»",
        "§"
      ],
      [
        "Ġ",
        "8"
      ],
      [
        "æį",
        "¢"
      ],
      [
        "èģ",
        "ļ"
      ],
      [
        "æĸ",
        "¼"
      ],
      [
        "æĢ",
        "¥"
      ],
      [
        "èµĦ",
        "æºĲ"
      ],
      [
        "3",
        "8"
      ],
      [
        "ä¸»",
        "è¦ģ"
      ],
      [
        "çĢ",
        "¹"
      ],
      [
        "é½",
        "Ĳ"
      ],
      [
        "éģ",
        "Ĺ"
      ],
      [
        "ãĢĳãĢĲ",
        "ï¼ļ"
      ],
      [
        "åį",
        "Ī"
      ],
      [
        "èĤ¡",
        "ç¥¨"
      ],
      [
        "ä¹",
        "Į"
      ],
      [
        "Ġæ",
        "³"
      ],
      [
        "ä¼ļ",
        "è®®"
      ],
      [
        "Ġ",
        "J"
      ],
      [
        "è",
        "¿½"
      ],
      [
        "çŁ",
        "Ń"
      ],
      [
        "ç§",
        "Ģ"
      ],
      [
        "éĮ",
        "¢"
      ],
      [
        "ä¸Ń",
        "çļĦ"
      ],
      [
        "æīĢ",
        "ä»¥"
      ],
      [
        "æķ",
        "ĳ"
      ],
      [
        "Ġb",
        "t"
      ],
      [
        "ãĢĳãĢĲï¼ļ",
        "ãĢĳãĢĲ"
      ],
      [
        "Ġ",
        "èµĮéĴ±"
      ],
      [
        "åĲ",
        "´"
      ],
      [
        "äº",
        "®"
      ],
      [
        "è",
        "ľ"
      ],
      [
        "c",
        "h"
      ],
      [
        "Ġ",
        "çº¿ä¸Ĭ"
      ],
      [
        "ãĢĤ",
        "âĢľ"
      ],
      [
        "ä½",
        "³"
      ],
      [
        "éģ",
        "ĩ"
      ],
      [
        "è§Ħ",
        "å¾ĭ"
      ],
      [
        "éĥ¨",
        "åĪĨ"
      ],
      [
        "an",
        "g"
      ],
      [
        "è°",
        "Ī"
      ],
      [
        "æĹ¥",
        "æĬ¥"
      ],
      [
        "ç®",
        "±"
      ],
      [
        "è¡",
        "£"
      ],
      [
        "éĸ",
        "ĭ"
      ],
      [
        "å®",
        "¾"
      ],
      [
        "è¿ĳ",
        "å¹³"
      ],
      [
        "ą",
        "Ĉ"
      ],
      [
        "èĭ",
        "¥"
      ],
      [
        "ä½Ĩ",
        "æĺ¯"
      ],
      [
        "å°",
        "ģ"
      ],
      [
        "????",
        "????"
      ],
      [
        "ï¿½ï¿½ï¿½ï¿½",
        "ï¿½ï¿½ï¿½ï¿½"
      ],
      [
        "è¯",
        "ī"
      ],
      [
        "åĲ",
        "¦"
      ],
      [
        "éĩį",
        "åºĨ"
      ],
      [
        "ä»Ĭ",
        "å¹´"
      ],
      [
        "å®",
        "³"
      ],
      [
        "3",
        "5"
      ],
      [
        "Ġ",
        "Y"
      ],
      [
        "å¿«",
        "ä¹Ĳ"
      ],
      [
        "æĸ¹",
        "å¼ı"
      ],
      [
        "ä½",
        "Ľ"
      ],
      [
        "åĳ",
        "³"
      ],
      [
        "çĶµ",
        "è¯Ŀ"
      ],
      [
        "4",
        "0"
      ],
      [
        "âĢ¦",
        "âĢ¦"
      ],
      [
        "ç½ĳ",
        "é¡µ"
      ],
      [
        "æĿ",
        "¨"
      ],
      [
        "å»",
        "¶"
      ],
      [
        "äºļ",
        "æ¸¸"
      ],
      [
        "å°",
        "ļ"
      ],
      [
        "éĥ¨",
        "éĹ¨"
      ],
      [
        "æ´",
        "¾"
      ],
      [
        "Ġ",
        "éĩĳ"
      ],
      [
        "è´",
        "«"
      ],
      [
        "æ³",
        "°"
      ],
      [
        "o",
        "s"
      ],
      [
        "éĴ",
        "¢"
      ],
      [
        "ä½į",
        "ç½®"
      ],
      [
        "åį",
        "ĸ"
      ],
      [
        "è§",
        "Ī"
      ],
      [
        "å®ŀ",
        "çİ°"
      ],
      [
        "æĸ¹",
        "æ³ķ"
      ],
      [
        "ç¸",
        "º"
      ],
      [
        "é¢Ĩ",
        "å¯¼"
      ],
      [
        "æĶ¯",
        "æĮģ"
      ],
      [
        "Ġ",
        "çľŁéĴ±"
      ],
      [
        "å¼Ģ",
        "å±ķ"
      ],
      [
        "å¿«",
        "éĢŁ"
      ],
      [
        "ç»",
        "Ŀ"
      ],
      [
        "Ġå½©ç¥ŀ",
        "äºīéľ¸"
      ],
      [
        "ä¸Ĭ",
        "ä¸Ģç¯ĩ"
      ],
      [
        "éĿŀ",
        "å¸¸"
      ],
      [
        "'",
        ","
      ],
      [
        "æº",
        "ª"
      ],
      [
        "çĭ",
        "¬"
      ],
      [
        "i",
        "l"
      ],
      [
        "åĢ",
        "į"
      ],
      [
        "çĽ",
        "Ľ"
      ],
      [
        "æĺ¯",
        "ä»Ģä¹Ī"
      ],
      [
        "å¥",
        "¥"
      ],
      [
        "æ¡",
        "¥"
      ],
      [
        "ä¹ł",
        "è¿ĳå¹³"
      ],
      [
        "éĽ",
        "ª"
      ],
      [
        "ç¨",
        "İ"
      ],
      [
        "åľ°",
        "åĮº"
      ],
      [
        "ç´",
        "§"
      ],
      [
        "å¾",
        "Į"
      ],
      [
        "åĪ",
        "ļ"
      ],
      [
        "i",
        "m"
      ],
      [
        "Ġ",
        "Q"
      ],
      [
        "æĺ¯",
        "ä¸Ģ"
      ],
      [
        "7",
        "7"
      ],
      [
        "o",
        "d"
      ],
      [
        "SH",
        "I"
      ],
      [
        "æį",
        "ķ"
      ],
      [
        "éĬ",
        "Ģ"
      ],
      [
        "Ġ",
        "ä¸ľ"
      ],
      [
        "èħ¾",
        "è®¯"
      ],
      [
        "ç¬¬",
        "äºĮ"
      ],
      [
        "éĻ",
        "Ħ"
      ],
      [
        "D",
        "I"
      ],
      [
        "éĶ",
        "Ļ"
      ],
      [
        "æĭ",
        "©"
      ],
      [
        "æ»ļ",
        "çĲĥ"
      ],
      [
        "è¯Ħ",
        "è®º"
      ],
      [
        "è°",
        "¢"
      ],
      [
        "å°ı",
        "æĹ¶"
      ],
      [
        "çİ©",
        "æ³ķ"
      ],
      [
        "ä¸Ĭ",
        "çļĦ"
      ],
      [
        "H",
        "U"
      ],
      [
        "3",
        "3"
      ],
      [
        "ç»",
        "¿"
      ],
      [
        "çİ°éĩĳ",
        "ç½ĳ"
      ],
      [
        "00",
        "0"
      ],
      [
        "è´",
        "¸"
      ],
      [
        "ç",
        "ĭĹ"
      ],
      [
        "éĺħ",
        "è¯»"
      ],
      [
        "çİ¯",
        "å¢ĥ"
      ],
      [
        "éĸ",
        "ĵ"
      ],
      [
        "åģ¥",
        "åº·"
      ],
      [
        "ä¼",
        "ĳ"
      ],
      [
        "èĩªå·±",
        "çļĦ"
      ],
      [
        "èį",
        "ī"
      ],
      [
        "å¾",
        "ģ"
      ],
      [
        "å¾®",
        "ä¿¡"
      ],
      [
        "å©",
        "ļ"
      ],
      [
        "âĢĶ",
        "âĢĶ"
      ],
      [
        "Ġæ",
        "¸"
      ],
      [
        "O",
        "U"
      ],
      [
        "èĥ",
        "Į"
      ],
      [
        "åľ",
        "³"
      ],
      [
        "æĿ¥",
        "çļĦ"
      ],
      [
        "æĿ",
        "¯"
      ],
      [
        "Ġä¸ĩ",
        "åįļ"
      ],
      [
        "âĢĿ",
        "ãĢĳãĢĲ"
      ],
      [
        "å®ĺç½ĳ",
        "ä¸ĭè½½"
      ],
      [
        "a",
        "y"
      ],
      [
        "èµĮ",
        "åľº"
      ],
      [
        "åħ¨",
        "çĲĥ"
      ],
      [
        "çī¹",
        "èī²"
      ],
      [
        "éĽ",
        "¨"
      ],
      [
        "ç¤",
        "¼"
      ],
      [
        "æĹ¶",
        "ä»£"
      ],
      [
        "å·",
        "®"
      ],
      [
        "Ġ",
        "Z"
      ],
      [
        "Ġ",
        "å¹¿"
      ],
      [
        "æł",
        "ĳ"
      ],
      [
        "æµ",
        "£"
      ],
      [
        "éļ",
        "ľ"
      ],
      [
        "è´£",
        "ä»»"
      ],
      [
        "çŃ",
        "ĳ"
      ],
      [
        "éģ",
        "İ"
      ],
      [
        "an",
        "d"
      ],
      [
        "å",
        "«"
      ],
      [
        "ä¸Ģ",
        "æŃ¥"
      ],
      [
        "åĢŁ",
        "æ¬¾"
      ],
      [
        "ä¼",
        "Ĭ"
      ],
      [
        "å¸",
        "ģ"
      ],
      [
        "çŃ",
        "Ķ"
      ],
      [
        "åĨ",
        "·"
      ],
      [
        "å¡",
        "Ķ"
      ],
      [
        "a",
        "b"
      ],
      [
        "c",
        "t"
      ],
      [
        "åĨħ",
        "å®¹"
      ],
      [
        "é",
        "ĳ"
      ],
      [
        "åĭ",
        "Ļ"
      ],
      [
        "Ġ",
        "X"
      ],
      [
        "åĶ",
        "Ĳ"
      ],
      [
        "10",
        "0"
      ],
      [
        "å½±",
        "åĵį"
      ],
      [
        "éķ¿",
        "é¾Ļ"
      ],
      [
        "çĬ",
        "¶"
      ],
      [
        "æĸĩ",
        "ç«ł"
      ],
      [
        "è°",
        "±"
      ],
      [
        "é²",
        "ģ"
      ],
      [
        "åº",
        "Ń"
      ],
      [
        "çļĦ",
        "æĺ¯"
      ],
      [
        "o",
        "m"
      ],
      [
        "æ¢",
        "¦"
      ],
      [
        "åĲ",
        "¯"
      ],
      [
        "éĵ¶",
        "è¡Į"
      ],
      [
        "å¤©",
        "åłĤ"
      ],
      [
        "ä¼",
        "¼"
      ],
      [
        "èĻ",
        "½"
      ],
      [
        "E",
        "N"
      ],
      [
        "é¢Ħ",
        "æµĭ"
      ],
      [
        "ï¼ģ",
        "âĢĿ"
      ],
      [
        "éĽ",
        "ħ"
      ],
      [
        "èĴ",
        "Ļ"
      ],
      [
        "åŃ©",
        "åŃĲ"
      ],
      [
        "ä¸ĭ",
        "ä¸Ģç¯ĩ"
      ],
      [
        "æĿ",
        "©"
      ],
      [
        "éĢ",
        "Ĥ"
      ],
      [
        "åıĳ",
        "çİ°"
      ],
      [
        "çģ",
        "µ"
      ],
      [
        "ä¿",
        "Ħ"
      ],
      [
        "E",
        "NG"
      ],
      [
        "es",
        "t"
      ],
      [
        "å¹",
        "ķ"
      ],
      [
        "æŃ£",
        "åľ¨"
      ],
      [
        "åĽ",
        "°"
      ],
      [
        "Ġ",
        "å®ī"
      ],
      [
        "åįķ",
        "ä½į"
      ],
      [
        "åħ¨",
        "éĿ¢"
      ],
      [
        "ä¸ª",
        "äºº"
      ],
      [
        "è",
        "Ķ"
      ],
      [
        "çł´",
        "è§£"
      ],
      [
        "o",
        "p"
      ],
      [
        "åįģ",
        "åĪĨ"
      ],
      [
        "è¡",
        "¥"
      ],
      [
        "ht",
        "ml"
      ],
      [
        "åĵ",
        "¥"
      ],
      [
        "æİĴ",
        "åĪĹ"
      ],
      [
        "è½",
        "®"
      ],
      [
        "èĽ",
        "ĭ"
      ],
      [
        "çļ",
        "®"
      ],
      [
        "ä»Ĭ",
        "å¤©"
      ],
      [
        "äºĨ",
        "è§£"
      ],
      [
        "è´¨",
        "éĩı"
      ],
      [
        "å§Ķ",
        "åĳĺ"
      ],
      [
        "åı",
        "¦"
      ],
      [
        "èĪ",
        "ĩ"
      ],
      [
        "åĩ",
        "¤"
      ],
      [
        "å½",
        "Ĵ"
      ],
      [
        "å°",
        "į"
      ],
      [
        "é",
        "Ħ"
      ],
      [
        "æĿ",
        "±"
      ],
      [
        "Ġæ±",
        "Ł"
      ],
      [
        "äº¤",
        "éĢļ"
      ],
      [
        "æľ",
        "Ĺ"
      ],
      [
        "çļĩ",
        "åĨł"
      ],
      [
        "å¸Į",
        "æľĽ"
      ],
      [
        "å·ŀ",
        "å¸Ĥ"
      ],
      [
        "æĽ´",
        "å¤ļ"
      ],
      [
        "çĸ",
        "ĳ"
      ],
      [
        "åĢ",
        "ĳ"
      ],
      [
        "å°¼",
        "æĸ¯"
      ],
      [
        "çĥ",
        "Ī"
      ],
      [
        "4",
        "5"
      ],
      [
        "Ġ",
        "v"
      ],
      [
        "çĪ",
        "¶"
      ],
      [
        "ä¸Ģ",
        "äºĽ"
      ],
      [
        "3",
        "1"
      ],
      [
        "è®",
        "¢"
      ],
      [
        "åı",
        "¬"
      ],
      [
        "æĬ",
        "ĵ"
      ],
      [
        "èį",
        "Ĳ"
      ],
      [
        "åį",
        "ł"
      ],
      [
        "æľº",
        "æŀĦ"
      ],
      [
        "æ´",
        "ŀ"
      ],
      [
        "æĿ",
        "Ł"
      ],
      [
        "åº",
        "ı"
      ],
      [
        "»",
        "¿"
      ],
      [
        "éĽ",
        "¶"
      ],
      [
        "æİ",
        "¢"
      ],
      [
        "éļ",
        "Ĩ"
      ],
      [
        "åħ¶",
        "ä¸Ń"
      ],
      [
        "çĿ",
        "£"
      ],
      [
        "çĶ",
        "ĺ"
      ],
      [
        "éĬ",
        "Ĩ"
      ],
      [
        "éĬĢ",
        "è¡Į"
      ],
      [
        "æĶ¿",
        "çŃĸ"
      ],
      [
        "æ³",
        "ī"
      ],
      [
        "ä»ĭ",
        "ç»į"
      ],
      [
        "å®ĺæĸ¹",
        "ä¸ĭè½½"
      ],
      [
        "ï",
        "»¿"
      ],
      [
        "æĻº",
        "èĥ½"
      ],
      [
        "èĪ",
        "¬"
      ],
      [
        "æĪĳ",
        "çļĦ"
      ],
      [
        "Ġ",
        "çĻ¾å®¶"
      ],
      [
        "ä»",
        "ª"
      ],
      [
        "è°",
        "ģ"
      ],
      [
        "ç»",
        "¼"
      ],
      [
        "éĢī",
        "æĭ©"
      ],
      [
        "Ġ",
        "}"
      ],
      [
        ":",
        "'"
      ],
      [
        "ä¿",
        "ĥ"
      ],
      [
        "è¿",
        "Ŀ"
      ],
      [
        "æľ",
        "ĭ"
      ],
      [
        "Ġ",
        "ä¸Ģ"
      ],
      [
        "c",
        "åĽ½éĻħ"
      ],
      [
        "èĥ½",
        "åĬĽ"
      ],
      [
        "ĠæŃ",
        "£"
      ],
      [
        "è¿Ľ",
        "åħ¥"
      ],
      [
        "æ",
        "§"
      ],
      [
        "Ġ",
        "æĹ¥"
      ],
      [
        "u",
        "r"
      ],
      [
        "å¼Ģ",
        "åıĳ"
      ],
      [
        "èĪ",
        "¹"
      ],
      [
        "çı",
        "¾"
      ],
      [
        "æĭ",
        "¬"
      ],
      [
        "Y",
        "I"
      ],
      [
        "ä¼",
        "¤"
      ],
      [
        "4",
        "8"
      ],
      [
        "è·",
        "ĳ"
      ],
      [
        "è¿ĺ",
        "æľī"
      ],
      [
        "åĽ¾",
        "çīĩ"
      ],
      [
        "è¯",
        "Ģ"
      ],
      [
        "æ",
        "¾³"
      ],
      [
        "ć",
        "ï¼Į"
      ],
      [
        "Ġ",
        "è¥¿"
      ],
      [
        "--",
        "--"
      ],
      [
        "å¸",
        "Ŀ"
      ],
      [
        "å¨±ä¹Ĳ",
        "åľº"
      ],
      [
        "åħ³",
        "ç³»"
      ],
      [
        "åĩ",
        "ı"
      ],
      [
        "å®Į",
        "æĪĲ"
      ],
      [
        "æ¿",
        "Ģ"
      ],
      [
        "çĶµ",
        "è§Ĩ"
      ],
      [
        "å¤ĩçĶ¨",
        "ç½ĳåĿĢ"
      ],
      [
        "e",
        "m"
      ],
      [
        "å¯¹",
        "äºİ"
      ],
      [
        "ä¸",
        "¹"
      ],
      [
        "åľ°",
        "æĸ¹"
      ],
      [
        "åĽ",
        "º"
      ],
      [
        "ç",
        "°"
      ],
      [
        "åĳ",
        "¢"
      ],
      [
        "éĢ",
        "ı"
      ],
      [
        "æ´",
        "ĭ"
      ],
      [
        "å®ĺç½ĳ",
        "çĻ»å½ķ"
      ],
      [
        "å®īåįĵ",
        "çīĪ"
      ],
      [
        "éĻ",
        "µ"
      ],
      [
        "Ġ",
        "="
      ],
      [
        "èĢģ",
        "çīĮ"
      ],
      [
        "è¿Ļ",
        "ä¸Ģ"
      ],
      [
        "éº",
        "»"
      ],
      [
        "ç¶",
        "ĵ"
      ],
      [
        "ç»",
        "ĥ"
      ],
      [
        "æŀ",
        "¶"
      ],
      [
        "Ā",
        "Ā"
      ],
      [
        "æī¹",
        "åıĳ"
      ],
      [
        "æĶ¿",
        "æ²»"
      ],
      [
        "çĶ",
        "²"
      ],
      [
        "ä¸į",
        "åĲĮ"
      ],
      [
        "Ġ",
        "ä¸ī"
      ],
      [
        "åĳ",
        "¼"
      ],
      [
        "D",
        "U"
      ],
      [
        "èģĶ",
        "ç³»"
      ],
      [
        "éĩĳ",
        "èŀį"
      ],
      [
        "éĿĴ",
        "å¹´"
      ],
      [
        "Ġ",
        "ãĢĳãĢĲ"
      ],
      [
        "çĸ",
        "Ĺ"
      ],
      [
        "æ¯",
        "ķ"
      ],
      [
        "èĦ",
        "±"
      ],
      [
        "æ±",
        "ł"
      ],
      [
        "å¨±ä¹Ĳ",
        "å¹³åı°"
      ],
      [
        "èĮ",
        "¶"
      ],
      [
        "Ġ",
        "é«ĺ"
      ],
      [
        "å¨ģ",
        "å°¼æĸ¯"
      ],
      [
        "è",
        "¸"
      ],
      [
        "ä¹",
        "İ"
      ],
      [
        "æĶ¹",
        "éĿ©"
      ],
      [
        "åıĳ",
        "çĶŁ"
      ],
      [
        "æıĲ",
        "æ¬¾"
      ],
      [
        "E",
        "I"
      ],
      [
        "é¡",
        "¶"
      ],
      [
        "ç´",
        "Ŀ"
      ],
      [
        "ä½ĵèĤ²",
        "app"
      ],
      [
        "è",
        "¹"
      ],
      [
        ")",
        "."
      ],
      [
        "ãĢĳãĢĲï¼ļãĢĳãĢĲ",
        "âĢľãĢĳãĢĲ"
      ],
      [
        "åªĴ",
        "ä½ĵ"
      ],
      [
        "P",
        "K"
      ],
      [
        "å¥½",
        "è¿Ĳ"
      ],
      [
        "5",
        "5"
      ],
      [
        "å®",
        "¿"
      ],
      [
        "äºº",
        "çĶŁ"
      ],
      [
        "ä¸Ģ",
        "èµ·"
      ],
      [
        "æ£",
        "®"
      ],
      [
        "ç³»",
        "åĪĹ"
      ],
      [
        "è³",
        "ĩ"
      ],
      [
        "åĲ",
        "¸"
      ],
      [
        "éĶĢ",
        "åĶ®"
      ],
      [
        "çĶ¨",
        "æĪ·"
      ],
      [
        "å·",
        "¨"
      ],
      [
        "ä¹ĭ",
        "åĲİ"
      ],
      [
        "ç§",
        "ĺ"
      ],
      [
        "æİ",
        "Ī"
      ],
      [
        "201",
        "5"
      ],
      [
        "äºº",
        "æīį"
      ],
      [
        "æłĩ",
        "åĩĨ"
      ],
      [
        "Ġ",
        "å¹³"
      ],
      [
        "ï¼Ł",
        "âĢĿ"
      ],
      [
        "Ġæ¾³éĹ¨",
        "ç½ĳæĬķ"
      ],
      [
        "æ´",
        "Ĺ"
      ],
      [
        "ä¸į",
        "æĸŃ"
      ],
      [
        "T",
        "I"
      ],
      [
        "Ĉą",
        "Ćą"
      ],
      [
        "çĪ",
        "Ĩ"
      ],
      [
        "W",
        "R"
      ],
      [
        "å¯¼",
        "èĪª"
      ],
      [
        "ä»",
        "į"
      ],
      [
        "é¡",
        "»"
      ],
      [
        "i",
        "f"
      ],
      [
        "èµ",
        "µ"
      ],
      [
        "ą",
        "ą"
      ],
      [
        "åı",
        "¥"
      ],
      [
        "ç«",
        "¥"
      ],
      [
        "çľĭ",
        "åĪ°"
      ],
      [
        "4",
        "9"
      ],
      [
        "Ġ",
        "å°ı"
      ],
      [
        "æµ",
        "ª"
      ],
      [
        "åı",
        "«"
      ],
      [
        "æİ¨",
        "èįĲ"
      ],
      [
        "Ġäºļæ¸¸",
        "éĽĨåĽ¢"
      ],
      [
        "è¿",
        "°"
      ],
      [
        "Ġ",
        "{"
      ],
      [
        "å§",
        "Ĳ"
      ],
      [
        "ä¸",
        "Ŀ"
      ],
      [
        "Ġ",
        "æĿ¥æºĲ"
      ],
      [
        "çĮ",
        "®"
      ],
      [
        "åĮħ",
        "æĭ¬"
      ],
      [
        "æī",
        "¶"
      ],
      [
        "è§Ĥ",
        "çľĭ"
      ],
      [
        "å¾",
        "Ĳ"
      ],
      [
        "åŃ",
        "Ļ"
      ],
      [
        "ä¼",
        "Ł"
      ],
      [
        "o",
        "l"
      ],
      [
        "æ¶",
        "ī"
      ],
      [
        "èĥ½",
        "å¤Ł"
      ],
      [
        "u",
        "s"
      ],
      [
        "æıĲ",
        "åįĩ"
      ],
      [
        "èĭ¹æŀľ",
        "çīĪ"
      ],
      [
        "è®¤",
        "ä¸º"
      ],
      [
        "è°",
        "·"
      ],
      [
        "ä¼",
        "´"
      ],
      [
        "ä¸ļ",
        "åĬ¡"
      ],
      [
        "åł",
        "´"
      ],
      [
        "æĲ",
        "ľ"
      ],
      [
        "Ġæ",
        "Ļ"
      ],
      [
        "ç¦",
        "ģ"
      ],
      [
        "ä¸Ģ",
        "å®ļ"
      ],
      [
        "èĪ",
        "ŀ"
      ],
      [
        "åĿ",
        "Ĺ"
      ],
      [
        "éĵ¾",
        "æİ¥"
      ],
      [
        "çĻ»",
        "éĻĨ"
      ],
      [
        "æ¯Ķ",
        "åĪĨ"
      ],
      [
        "Ġ",
        "20"
      ],
      [
        "åı°",
        "æ¹¾"
      ],
      [
        "å®",
        "ĩ"
      ],
      [
        "éľ",
        "²"
      ],
      [
        "L",
        "E"
      ],
      [
        "æģ",
        "©"
      ],
      [
        "Ĉ",
        "Ććą"
      ],
      [
        "Ĉ",
        "Ćć"
      ],
      [
        "æĪĲ",
        "åĬŁ"
      ],
      [
        "åĵª",
        "ä¸ª"
      ],
      [
        "è¾",
        "ħ"
      ],
      [
        "é²",
        "ľ"
      ],
      [
        "L",
        "C"
      ],
      [
        "å¹´",
        "çļĦ"
      ],
      [
        "æ¬¢",
        "ä¹Ĳ"
      ],
      [
        "å¤©å¤©",
        "æ°Ķ"
      ],
      [
        "èīº",
        "æľ¯"
      ],
      [
        "åĢŁ",
        "éĮ¢"
      ],
      [
        "åĿ",
        "Ĳ"
      ],
      [
        "ç»",
        "©"
      ],
      [
        "æİ¨",
        "è¿Ľ"
      ],
      [
        "é",
        "ŀ"
      ],
      [
        "å±±",
        "ä¸ľ"
      ],
      [
        "èĵ",
        "Ŀ"
      ],
      [
        "ç¹",
        "Ŀ"
      ],
      [
        "å±",
        "ı"
      ],
      [
        "æľĭ",
        "åıĭ"
      ],
      [
        "ç½",
        "ª"
      ],
      [
        "è¿Ļ",
        "æĺ¯"
      ],
      [
        "5",
        "8"
      ],
      [
        "Ġc",
        "cåĽ½éĻħ"
      ],
      [
        "ä¸Ģ",
        "çĽ´"
      ],
      [
        "é¡",
        "¾"
      ],
      [
        "n",
        "t"
      ],
      [
        "Ġå¤§åıĳ",
        "å¿«"
      ],
      [
        "4",
        "4"
      ],
      [
        "ä»",
        "ģ"
      ],
      [
        "åĲ",
        "ķ"
      ],
      [
        "ä¸»",
        "å¸Ń"
      ],
      [
        "åıĤ",
        "åĬł"
      ],
      [
        "éĩ",
        "İ"
      ],
      [
        "Ġæ°",
        "¸"
      ],
      [
        "Ġçİ¯äºļ",
        "ag"
      ],
      [
        "æ¶Ī",
        "è´¹"
      ],
      [
        "æ¯",
        "Ľ"
      ],
      [
        "ç¡",
        "Ģ"
      ],
      [
        "æĢ",
        "Ģ"
      ],
      [
        "çĻ»",
        "åħ¥"
      ],
      [
        "Ġ",
        "å¹¸è¿Ĳ"
      ],
      [
        "åĪĨ",
        "åĪĨå½©"
      ],
      [
        "åĪ",
        "·"
      ],
      [
        "èģĶ",
        "ç½ĳ"
      ],
      [
        "åĽ½",
        "åĨħ"
      ],
      [
        "è¾",
        "ĳ"
      ],
      [
        "æĬ¥",
        "éģĵ"
      ],
      [
        "è",
        "Ĩ"
      ],
      [
        "(",
        "\""
      ],
      [
        "å®¶",
        "ä¹Ĳ"
      ],
      [
        "Ġæ",
        "·"
      ],
      [
        "è§£",
        "åĨ³"
      ],
      [
        "è±",
        "ª"
      ],
      [
        "ãĥ",
        "»"
      ],
      [
        "èµļ",
        "éĴ±"
      ],
      [
        "æĹ",
        "§"
      ],
      [
        "3",
        "7"
      ],
      [
        "çĭ",
        "Ĥ"
      ],
      [
        "æ¶",
        "Ķ"
      ],
      [
        "å¹²",
        "éĥ¨"
      ],
      [
        "è¿",
        "ª"
      ],
      [
        "åĩº",
        "çİ°"
      ],
      [
        "çĶ",
        "ļ"
      ],
      [
        "ä»ĸ",
        "çļĦ"
      ],
      [
        "åŁº",
        "æľ¬"
      ],
      [
        "è¾",
        "Ĩ"
      ],
      [
        "å¼",
        "Ĥ"
      ],
      [
        "é¡",
        "į"
      ],
      [
        "æıĲ",
        "é«ĺ"
      ],
      [
        "å®",
        "«"
      ],
      [
        "ç¿",
        "»"
      ],
      [
        "æ¦",
        "ľ"
      ],
      [
        "åĵª",
        "éĩĮ"
      ],
      [
        "éĥ",
        "ĳ"
      ],
      [
        "Ĉ",
        "Ćą"
      ],
      [
        "ä¼",
        "¦"
      ],
      [
        "å¨±ä¹Ĳ",
        "å®ĺç½ĳ"
      ],
      [
        "â",
        "Ĺ"
      ],
      [
        "å»º",
        "çŃĳ"
      ],
      [
        "éĶ",
        "®"
      ],
      [
        "æµ",
        "©"
      ],
      [
        "åĪ",
        "¸"
      ],
      [
        "Ġç",
        "¦"
      ],
      [
        "èµĮéĴ±",
        "æ¸¸æĪı"
      ],
      [
        "åĪ",
        "¤"
      ],
      [
        "å®¢",
        "æľį"
      ],
      [
        "é»",
        "ŀ"
      ],
      [
        "å°",
        "Ħ"
      ],
      [
        "åŁº",
        "ç¡Ģ"
      ],
      [
        "Ć",
        "Ć"
      ],
      [
        "åħ³",
        "æ³¨"
      ],
      [
        "B",
        "U"
      ],
      [
        "ç©",
        "¿"
      ],
      [
        "å®",
        "Ĺ"
      ],
      [
        "å½ĵ",
        "åīį"
      ],
      [
        "æī",
        "¬"
      ],
      [
        "æİ",
        "ª"
      ],
      [
        "Ġ",
        "ï¿½"
      ],
      [
        "æł¹",
        "æį®"
      ],
      [
        "åĬł",
        "å¼º"
      ],
      [
        "çİ",
        "Ħ"
      ],
      [
        "ĠåĮĹäº¬",
        "èµĽè½¦"
      ],
      [
        "å§",
        "ĵ"
      ],
      [
        "çĳ",
        "ŀ"
      ],
      [
        "4",
        "6"
      ],
      [
        "åħ¥",
        "åı£"
      ],
      [
        "e",
        "w"
      ],
      [
        "éª",
        "ŀ"
      ],
      [
        "éĶ",
        "ĭ"
      ],
      [
        "ç»¼",
        "åĲĪ"
      ],
      [
        "Ġ",
        "éķ¿"
      ],
      [
        "èµ·",
        "æĿ¥"
      ],
      [
        "è®°",
        "å½ķ"
      ],
      [
        "çľŁ",
        "å®ŀ"
      ],
      [
        "éĿł",
        "è°±"
      ],
      [
        "Ġ",
        "h"
      ],
      [
        "åĨ",
        "°"
      ],
      [
        "Z",
        "S"
      ],
      [
        "åĥ",
        "¹"
      ],
      [
        "è·",
        "¨"
      ],
      [
        "â",
        "Ķ"
      ],
      [
        "åĬ",
        "³"
      ],
      [
        "éķ",
        "·"
      ],
      [
        "éªĹ",
        "å±Ģ"
      ],
      [
        "Ġ",
        "æĹ©é¤Ĳ"
      ],
      [
        "æļ",
        "´"
      ],
      [
        "o",
        "w"
      ],
      [
        "Ġ",
        "åįļ"
      ],
      [
        "è¨",
        "Ń"
      ],
      [
        "å¤Ħ",
        "çĲĨ"
      ],
      [
        "ç",
        "ŀ"
      ],
      [
        "æľī",
        "åħ³"
      ],
      [
        "R",
        "C"
      ],
      [
        "çĶ",
        "¢"
      ],
      [
        "æįķ",
        "é±¼"
      ],
      [
        "åĩ",
        "¡"
      ],
      [
        "ä¸į",
        "ä¼ļ"
      ],
      [
        "åħ¨",
        "éĥ¨"
      ],
      [
        "åķ",
        "Ĭ"
      ],
      [
        "æīĭæľº",
        "å®¢æĪ·ç«¯"
      ],
      [
        "è·",
        "Ŀ"
      ],
      [
        "æĥ",
        "Ĭ"
      ],
      [
        "éĿ",
        "Ļ"
      ],
      [
        "ç",
        "į"
      ],
      [
        "é",
        "¬"
      ],
      [
        "è´Ł",
        "è´£"
      ],
      [
        "Ġ",
        "æľī"
      ],
      [
        "è¯",
        "ļ"
      ],
      [
        "ç¼",
        "ģ"
      ],
      [
        "ç»§",
        "ç»Ń"
      ],
      [
        "åĲ",
        "«"
      ],
      [
        "è¿Ļ",
        "éĩĮ"
      ],
      [
        "åĬŀ",
        "åħ¬"
      ],
      [
        "æĬ",
        "Ĺ"
      ],
      [
        "æīĭæľºçīĪ",
        "ä¸ĭè½½"
      ],
      [
        "å¼",
        "¹"
      ],
      [
        "æ¨¡",
        "å¼ı"
      ],
      [
        "æĸ¹",
        "æ¡Ī"
      ],
      [
        "3",
        "9"
      ],
      [
        "*",
        "*"
      ],
      [
        "åħ±",
        "åĲĮ"
      ],
      [
        "ç»´",
        "ä¿®"
      ],
      [
        "æ¯Ķ",
        "èµĽ"
      ],
      [
        "ĆĈ",
        "ąć"
      ],
      [
        "ç§",
        "ģ"
      ],
      [
        "æ¯",
        "Ĵ"
      ],
      [
        "æİ¨",
        "åĬ¨"
      ],
      [
        "ä¿¡",
        "çĶ¨"
      ],
      [
        "ĠæŃ",
        "¦"
      ],
      [
        "ç«",
        "Ł"
      ],
      [
        "æĮ",
        "¥"
      ],
      [
        "o",
        "f"
      ],
      [
        "å®ŀ",
        "æĸ½"
      ],
      [
        "å¾",
        "½"
      ],
      [
        "æĺ¯",
        "çľŁçļĦ"
      ],
      [
        "æ¢",
        "°"
      ],
      [
        "ig",
        "ht"
      ],
      [
        "çĽ´",
        "æİ¥"
      ],
      [
        "è³",
        "¼"
      ],
      [
        "Ġæ¾³éĹ¨",
        "å¹³åı°"
      ],
      [
        "èİ·",
        "å¾Ĺ"
      ],
      [
        "æ·±",
        "åľ³"
      ],
      [
        "æ¢",
        "ħ"
      ],
      [
        "èı",
        "²"
      ],
      [
        "æĭ",
        "¥"
      ],
      [
        "éĢ",
        "²"
      ],
      [
        "Ġåĩ¯åıĳ",
        "å®ĺç½ĳ"
      ],
      [
        "èģĶ",
        "åĲĪ"
      ],
      [
        "åŁº",
        "éĩĳ"
      ],
      [
        "éĶ",
        "ģ"
      ],
      [
        "è´",
        "¥"
      ],
      [
        "Ł",
        "³"
      ],
      [
        "ä¿Ŀ",
        "æĬ¤"
      ],
      [
        "ã",
        "Ī"
      ],
      [
        "ç¬",
        "Ķ"
      ],
      [
        "åĢ",
        "Ĵ"
      ],
      [
        "çĻ¾å®¶",
        "å®¶ä¹Ĳ"
      ],
      [
        "åĮ»",
        "éĻ¢"
      ],
      [
        "â",
        "Ĩ"
      ],
      [
        "ĠçľŁäºº",
        "æ¸¸æĪı"
      ],
      [
        "A",
        "G"
      ],
      [
        "åĲ",
        "Ľ"
      ],
      [
        "Ġ",
        "ç½ĳä¸Ĭ"
      ],
      [
        "ä»",
        "Ļ"
      ],
      [
        "ç»ĵ",
        "æĿŁ"
      ],
      [
        "èĤ",
        "ī"
      ],
      [
        "æ¬¢",
        "è¿İ"
      ],
      [
        "æĬ¥",
        "åĳĬ"
      ],
      [
        "åı",
        "¶"
      ],
      [
        "lo",
        "g"
      ],
      [
        "çī©",
        "æµģ"
      ],
      [
        "å·¥",
        "ä¸ļ"
      ],
      [
        "é©",
        "¾"
      ],
      [
        "éĹ",
        "ľ"
      ],
      [
        "l",
        "l"
      ],
      [
        "t",
        "h"
      ],
      [
        "ä¸»",
        "ä»»"
      ],
      [
        "éĤ£",
        "ä¹Ī"
      ],
      [
        "æľª",
        "æĿ¥"
      ],
      [
        "èĤ",
        "ĥ"
      ],
      [
        "ä»¥",
        "ä¸Ĭ"
      ],
      [
        "å¢ŀ",
        "éķ¿"
      ],
      [
        "ä¸Ń",
        "æĸĩ"
      ],
      [
        "åĵ",
        "¡"
      ],
      [
        "E",
        "R"
      ],
      [
        "èĢĥ",
        "è¯ķ"
      ],
      [
        "ä¸º",
        "äºĨ"
      ],
      [
        "Ġ",
        "http"
      ],
      [
        "i",
        "a"
      ],
      [
        "4",
        "7"
      ],
      [
        "çĶµ",
        "èĦĳ"
      ],
      [
        "èİ",
        "±"
      ],
      [
        "ç§ĳ",
        "åŃ¦"
      ],
      [
        "èµ",
        "¶"
      ],
      [
        "æŃĮ",
        "è¯į"
      ],
      [
        "å²",
        "Ĺ"
      ],
      [
        "ä¸ĩ",
        "åħĥ"
      ],
      [
        "Q",
        "I"
      ],
      [
        "U",
        "AN"
      ],
      [
        "è¿Ľ",
        "ä¸ĢæŃ¥"
      ],
      [
        "è´",
        "´"
      ],
      [
        "åħ¨",
        "å¤©"
      ],
      [
        "E",
        "T"
      ],
      [
        "ï¿½ï¿½ï¿½ï¿½",
        "ï¿½ï¿½ï¿½"
      ],
      [
        "å¯",
        "¦"
      ],
      [
        "ç²",
        "ī"
      ],
      [
        "é«",
        "Ķ"
      ],
      [
        "Ġ",
        "$"
      ],
      [
        "æ³¨åĨĮ",
        "éĢģ"
      ],
      [
        "æ¼",
        "«"
      ],
      [
        "ä¸į",
        "è¿ĩ"
      ],
      [
        "Ġäºļç¾İ",
        "am"
      ],
      [
        "åĬ",
        "ª"
      ],
      [
        "ä¹",
        "±"
      ],
      [
        "è´",
        "·"
      ],
      [
        "çķ",
        "¶"
      ],
      [
        "ç½",
        "²"
      ],
      [
        "ä¸»",
        "ä¹ī"
      ],
      [
        "çĽ",
        "ĸ"
      ],
      [
        "åİĤ",
        "å®¶"
      ],
      [
        "æīĭæľº",
        "app"
      ],
      [
        "ä¿Ŀ",
        "éļľ"
      ],
      [
        "ç¥",
        "ĸ"
      ],
      [
        "Ġ",
        "ä¸´"
      ],
      [
        "çı",
        "ł"
      ],
      [
        "é¢Ĩ",
        "åŁŁ"
      ],
      [
        "ç§¯",
        "æŀģ"
      ],
      [
        "èĲ½",
        "å®ŀ"
      ],
      [
        "ä¼ĺ",
        "æĥł"
      ],
      [
        "çĬ",
        "¯"
      ],
      [
        "æ¶Ī",
        "æģ¯"
      ],
      [
        "è¯",
        "Ĺ"
      ],
      [
        "èĳ",
        "£"
      ],
      [
        "ãĢĤ",
        "ï¼Į"
      ],
      [
        "éĩį",
        "çĤ¹"
      ],
      [
        "ç§",
        "¦"
      ],
      [
        "ç¾¤",
        "ä¼Ĺ"
      ],
      [
        "ä¼",
        "Ļ"
      ],
      [
        "è¿Ļ",
        "ç§į"
      ],
      [
        "èĻ½",
        "çĦ¶"
      ],
      [
        "æĭĽ",
        "åķĨ"
      ],
      [
        "ãĢģ",
        "ãĢĳãĢĲ"
      ],
      [
        "èİ",
        "«"
      ],
      [
        "3",
        "4"
      ],
      [
        "æ´",
        "Ľ"
      ],
      [
        "æĿ",
        "Ń"
      ],
      [
        "åħŃ",
        "åĲĪ"
      ],
      [
        "Ġæ¾³éĹ¨",
        "çľŁéĴ±"
      ],
      [
        "æİĴ",
        "åĲį"
      ],
      [
        "çĶ³",
        "è¯·"
      ],
      [
        "å½©ç¥¨",
        "å¹³åı°"
      ],
      [
        "ä¸Ģ",
        "çĤ¹"
      ],
      [
        "çļĦ",
        "æĹ¶åĢĻ"
      ],
      [
        "æĳ",
        "Ħ"
      ],
      [
        "æıĲ",
        "åĩº"
      ],
      [
        "ä¹",
        "ĥ"
      ],
      [
        "ãĢĳãĢĲ",
        "ãĢģãĢĳãĢĲ"
      ],
      [
        "æİĴ",
        "è¡Į"
      ],
      [
        "s",
        "h"
      ],
      [
        "ä¸¾",
        "è¡Į"
      ],
      [
        "è¯",
        "º"
      ],
      [
        "9",
        "18"
      ],
      [
        "åľ",
        "£"
      ],
      [
        "ç¬¬",
        "ä¸ī"
      ],
      [
        "è¾",
        "½"
      ],
      [
        "å½©",
        "éĩĳ"
      ],
      [
        "éľ",
        "ĩ"
      ],
      [
        "æľĢ",
        "é«ĺ"
      ],
      [
        "ç»ı",
        "çĲĨ"
      ],
      [
        "å¡",
        "ŀ"
      ],
      [
        "Ġ",
        "åīį"
      ],
      [
        "åħ¬",
        "éĩĮ"
      ],
      [
        "Ġæ",
        "¹"
      ],
      [
        "åħĪ",
        "çĶŁ"
      ],
      [
        "U",
        "N"
      ],
      [
        "çĸ«",
        "æĥħ"
      ],
      [
        "ç§",
        "ĭ"
      ],
      [
        "on",
        "g"
      ],
      [
        "åĪĨ",
        "é£ŀèīĩ"
      ],
      [
        "èª",
        "ª"
      ],
      [
        "åĴĮ",
        "åĢ¼"
      ],
      [
        "äºĴ",
        "èģĶç½ĳ"
      ],
      [
        "è",
        "¤"
      ],
      [
        "æİ§",
        "åĪ¶"
      ],
      [
        "çĸ",
        "Ĩ"
      ],
      [
        "åľ",
        "Ī"
      ],
      [
        "è¿",
        "Ķ"
      ],
      [
        "Ġ",
        "åı°"
      ],
      [
        "åħ",
        "§"
      ],
      [
        "e",
        "x"
      ],
      [
        "æ¢",
        "ģ"
      ],
      [
        "æľĢ",
        "åĲİ"
      ],
      [
        "æĽ",
        "¹"
      ],
      [
        "åºĶ",
        "çĶ¨"
      ],
      [
        "è¿ĩ",
        "ç¨ĭ"
      ],
      [
        "ä¹",
        "ĺ"
      ],
      [
        "ĠçĶµçİ©",
        "åŁİ"
      ],
      [
        "æ¥",
        "ļ"
      ],
      [
        "åŃ",
        "Ķ"
      ],
      [
        "æĬ",
        "ĺ"
      ],
      [
        "8",
        "0"
      ],
      [
        "äº¿",
        "åħĥ"
      ],
      [
        "åĵª",
        "äºĽ"
      ],
      [
        "ä¸ĵ",
        "å®¶"
      ],
      [
        "çī¹",
        "åĪ«"
      ],
      [
        "æĹł",
        "æ³ķ"
      ],
      [
        "åį",
        "±"
      ],
      [
        "ä¸»",
        "é¢ĺ"
      ],
      [
        "èĢĮ",
        "ä¸Ķ"
      ],
      [
        "ä¸į",
        "åĪ°"
      ],
      [
        "æķ",
        "£"
      ],
      [
        "æ¶",
        "¨"
      ],
      [
        "èĭ",
        "¦"
      ],
      [
        "c",
        "c"
      ],
      [
        "æī",
        "İ"
      ],
      [
        "å¼",
        "Ł"
      ],
      [
        "Ļ",
        "æ±Ł"
      ],
      [
        "åĽĽ",
        "å·Ŀ"
      ],
      [
        "5",
        "7"
      ],
      [
        "z",
        "h"
      ],
      [
        "åĦ",
        "ª"
      ],
      [
        "å»º",
        "ç«ĭ"
      ],
      [
        "çģ",
        "ı"
      ],
      [
        "ag",
        "æĹĹèĪ°åİħ"
      ],
      [
        "éĢ",
        "Ĵ"
      ],
      [
        "èĩª",
        "çĦ¶"
      ],
      [
        "èĳ¡",
        "äº¬"
      ],
      [
        "ç¨",
        "¿"
      ],
      [
        "Ġ",
        "éĺ¿"
      ],
      [
        "è¿",
        "·"
      ],
      [
        "æĺ¾",
        "ç¤º"
      ],
      [
        "éĺ",
        "µ"
      ],
      [
        "èĲ",
        "¨"
      ],
      [
        "ä¸º",
        "ä»Ģä¹Ī"
      ],
      [
        "åĭ",
        "Ĵ"
      ],
      [
        "éĤ",
        "Ħ"
      ],
      [
        "è¯",
        "¸"
      ],
      [
        "è¨",
        "Ī"
      ],
      [
        "é¥",
        "®"
      ],
      [
        "åıª",
        "æľī"
      ],
      [
        "å¿",
        "ĺ"
      ],
      [
        "é¥",
        "°"
      ],
      [
        "Ġå°Ĭé¾Ļ",
        "d"
      ],
      [
        "è°ĥ",
        "æŁ¥"
      ],
      [
        "èĤ",
        "¥"
      ],
      [
        "å¤§åıĳ",
        "å½©ç¥ŀ"
      ],
      [
        "Ġ",
        "["
      ],
      [
        "åĭ",
        "ĩ"
      ],
      [
        "åĿļ",
        "æĮģ"
      ],
      [
        "ä¸Ń",
        "åįİ"
      ],
      [
        "ãĦ",
        "¥"
      ],
      [
        "ä¸Ģ",
        "æ¬¡"
      ],
      [
        "åº",
        "Ĭ"
      ],
      [
        "åī",
        "ĳ"
      ],
      [
        "..",
        ".."
      ],
      [
        "Ġæµ",
        "·"
      ],
      [
        "Ġ",
        "äºĶ"
      ],
      [
        "è®",
        "¨"
      ],
      [
        "æ°´",
        "å¹³"
      ],
      [
        "æ³",
        "½"
      ],
      [
        "i",
        "v"
      ],
      [
        "èĦ",
        "¸"
      ],
      [
        "ç¹",
        "§"
      ],
      [
        "æ¤",
        "į"
      ],
      [
        "åıª",
        "æĺ¯"
      ],
      [
        "èĢģ",
        "å¸Ī"
      ],
      [
        "æīĭæľº",
        "çĻ»å½ķ"
      ],
      [
        "èŃ",
        "ī"
      ],
      [
        "å¹",
        "ħ"
      ],
      [
        "u",
        "b"
      ],
      [
        "æĽ",
        "¸"
      ],
      [
        "Ġ",
        "\""
      ],
      [
        "Z",
        "W"
      ],
      [
        "éŃ",
        "Ķ"
      ],
      [
        "çģ",
        "¯"
      ],
      [
        "i",
        "os"
      ],
      [
        "çļĦ",
        "å¤§"
      ],
      [
        "m",
        "ent"
      ],
      [
        "å¦",
        "Ī"
      ],
      [
        "çĶŁ",
        "æĢģ"
      ],
      [
        "åĬ",
        "±"
      ],
      [
        "Ġ",
        "n"
      ],
      [
        "Ġ",
        "èħ¾è®¯"
      ],
      [
        "æħ",
        "¢"
      ],
      [
        "è´",
        "Ŀ"
      ],
      [
        "æĮģ",
        "ç»Ń"
      ],
      [
        "æ´",
        "ª"
      ],
      [
        "éľĢ",
        "æ±Ĥ"
      ],
      [
        "åĪ¶",
        "éĢł"
      ],
      [
        "Ġ",
        "æĹ©çĤ¹"
      ],
      [
        "èĥ",
        "¡"
      ],
      [
        "å®£",
        "ä¼ł"
      ],
      [
        "Ġæ",
        "Ģ"
      ],
      [
        "åºĶ",
        "è¯¥"
      ],
      [
        "æĹ",
        "¢"
      ],
      [
        "èĦ",
        "ļ"
      ],
      [
        "åĪĨ",
        "äº«"
      ],
      [
        "ä»»",
        "ä½ķ"
      ],
      [
        "T",
        "A"
      ],
      [
        "Ġ",
        "www"
      ],
      [
        "çĥ",
        "Ł"
      ],
      [
        "è±",
        "¹"
      ],
      [
        "èģĮ",
        "ä¸ļ"
      ],
      [
        "ä¼",
        "¯"
      ],
      [
        "P",
        "S"
      ],
      [
        "5",
        "9"
      ],
      [
        "äº",
        "Ī"
      ],
      [
        "è¯",
        "¦"
      ],
      [
        "åŃĺ",
        "åľ¨"
      ],
      [
        "ä¸į",
        "äºĨ"
      ],
      [
        "Ġ",
        "y"
      ],
      [
        "åĵ",
        "Ħ"
      ],
      [
        "ä½ł",
        "çļĦ"
      ],
      [
        "çº",
        "·"
      ],
      [
        "æĢ",
        "ķ"
      ],
      [
        "Ġç¦",
        "ı"
      ],
      [
        "Ġåĩ¯åıĳ",
        "ä½ĵèĤ²"
      ],
      [
        "æĸ°",
        "çļĦ"
      ],
      [
        "ä¸»",
        "ç®¡"
      ],
      [
        "äº",
        "¡"
      ],
      [
        "éĢ",
        "Ĳ"
      ],
      [
        "æĪĸ",
        "èĢħ"
      ],
      [
        "æĢİä¹Ī",
        "æł·"
      ],
      [
        "æĿĲ",
        "æĸĻ"
      ],
      [
        "å©",
        "Ĩ"
      ],
      [
        "7",
        "0"
      ],
      [
        "å¹¿",
        "ä¸ľ"
      ],
      [
        "Y",
        "X"
      ],
      [
        "ç»ı",
        "èĲ¥"
      ],
      [
        "éĤ",
        "¦"
      ],
      [
        "çº",
        "¸"
      ],
      [
        "ç¤¾",
        "åĮº"
      ],
      [
        "è§Ħ",
        "å®ļ"
      ],
      [
        "H",
        "E"
      ],
      [
        "æ±Ł",
        "èĭı"
      ],
      [
        "åł",
        "±"
      ],
      [
        "æŁ",
        "ĵ"
      ],
      [
        "æ°ĳ",
        "æĹı"
      ],
      [
        "åįģ",
        "ä¸Ģ"
      ],
      [
        "çĻ¾",
        "åº¦"
      ],
      [
        "æį",
        "Ł"
      ],
      [
        "æĪĲ",
        "ç«ĭ"
      ],
      [
        "æĪĳ",
        "åĽ½"
      ],
      [
        "ä¼ł",
        "ç»Ł"
      ],
      [
        "Ġæ",
        "´"
      ],
      [
        "å¨ģå°¼æĸ¯",
        "äºº"
      ],
      [
        "ç²¾",
        "åĩĨ"
      ],
      [
        "5",
        "00"
      ],
      [
        "ç«",
        "¹"
      ],
      [
        "æĢĿ",
        "æĥ³"
      ],
      [
        "åĬª",
        "åĬĽ"
      ],
      [
        "Ġ",
        ":"
      ],
      [
        "çŁ¥",
[...]
